#version: 0.2 - Trained by `huggingface/tokenizers`
Ġ d
e s
Ã ©
Ġ l
e n
o n
Ġ p
Ġ c
o u
Ġd e
t i
Ġ s
q u
r e
Ġ a
en t
e r
a n
a i
Ġ qu
Ġ e
i s
Ġ m
Ġ n
u r
l e
Ġl a
i n
ti on
u n
t e
a r
m ent
Ġ Ã
o r
Ġl e
i t
o m
Ġ r
Ġ t
Ġe t
s i
Ġ f
Ġp r
Ġl es
Ġ v
ĠÃ ł
ou s
Ġd es
ou r
Ġ un
Ġqu e
Ã ¨
on s
i l
Ġ en
es t
u s
a tion
on t
â Ģ
Ġc e
m e
âĢ Ļ
a s
Ġ Ã©
o p
an t
Ġa u
c e
v e
l i
n e
an s
qu e
a u
Ġd Ã©
Ġp ar
a l
Ġp our
ai s
t Ã©
c i
Ġ j
r i
Ġ b
o i
Ġc om
ai t
Ġd u
r a
t re
Ġr Ã©
r es
Ġp as
e u
Ġ in
Ġd ans
Ġun e
Ġ est
c h
Ġn ous
Ġ g
l le
o s
Ġ re
Ġqu i
m p
a t
Ġc on
Ġp l
Ġpr o
it Ã©
d e
p p
a g
Ġ C
Ġs ur
r Ã©
Ġn e
ai re
or t
le ment
en s
a b
Ġt r
l es
ur op
Ġs e
f f
Ã ª
d i
Ġc h
o l
en d
si on
t te
Ġpl us
Ġ P
n i
Ã¨ re
Ġd i
r o
a c
t u
Ġp o
ai n
Ã© s
Ã© e
i r
Ġ M
ur s
om m
er s
ou v
Ġj e
t er
Ġs u
i e
s e
Ġ il
Ġt ou
urop Ã©
Ġa v
J e
Ġ i
I l
Ġe x
Ġe uropÃ©
c es
m b
a ti
Ã© r
e l
qu es
Ġm e
a pp
Ã¨ s
ĠeuropÃ© en
Ġs ont
u i
si d
u l
p e
o is
Ġa c
a m
Ġs i
Ġde v
Ġv ous
y s
tion s
Ġcom m
Ġc ons
Ġa ve
Ġce tte
e ur
Ġp eu
t at
a v
un e
Ġcom p
Ġ o
oi r
an d
ation s
Ġ h
t es
en ce
u x
Ġm o
Ġpr Ã©
Ã© es
m es
an ce
Ġau x
i en
t r
is sion
Ġc ont
t en
e t
N ous
Ġave c
a le
u e
f i
on n
au x
ti que
L a
Ġp a
or d
o it
ĠC omm
Ġ te
Ġm on
Ġs ou
ĠÃ ª
Ġpo li
Ġc es
Ġ ent
Ġ ont
Ġf ait
Ġl i
Ġr app
L e
u re
Ġi mp
e lle
Ġg r
au t
Ġm ais
ou ve
Ġpr op
Ġs er
ĠÃª tre
ag e
Ġ -
Ã ł
Ġa n
o c
us si
Ġpar ti
Ġpa ys
g e
sid ent
a d
Ġcon c
l Ã¨
Ġt ra
g i
Ġ ou
on c
is s
ĠComm ission
o tre
ment s
Ġa pp
ĠÃ© tÃ©
ĠeuropÃ©en ne
v i
d u
L es
c ti
m i
Ġd is
on ne
ch e
Ã ´
ai res
tat s
Ãª me
p r
l Ã©
Ã© ri
Ġtou t
er t
Ġr es
U ni
Ġcom me
c on
a lement
Ã© t
ab le
re r
or s
in s
o ci
Ġ y
c u
Ġf aire
Ã© n
Uni on
f or
Ġp u
ai ent
E n
ĠP rÃ©
C e
o y
on d
t s
Ġ 1
ĠÃ© t
ĠÃ© g
Ġrapp ort
Ġv i
ĠÃ ī
Ġf in
si eur
a p
on sieur
ĠPrÃ© sident
Ġdi re
Ġtra v
l a
is e
Ġ 2
ant s
ouv er
Ġpoli tique
c tion
Ġqu es
Ġent re
l les
Ġc o
v ent
Ġn Ã©
Ġb ien
0 0
j our
ĠP ar
Ġs on
Ġp er
eu x
Ġa ussi
Ġn ouve
ĠdÃ© c
Ġm ar
Ġpeu t
con om
i que
Ġm es
it s
ti tu
E t
ai ne
Ġtr Ã¨s
c o
Ġ B
Ġle ur
v en
ĠÃī tats
e il
b re
Ġ S
al es
o si
Ġav ons
or te
Ġe ff
Ġv ou
Ġme mb
v es
end re
ai l
Ġ ?
ĠPar lement
e x
u t
Ġpro b
Ġ es
b li
an de
ĠÃ©g alement
Ġp ers
Ġm Ãªme
Ġimp ort
is t
ĠrÃ© s
Ġau t
Ġn om
E urop
l er
Ġn otre
ĠdÃ© p
ens e
Ġin ter
Europ e
m er
Ġt er
Ã¨ me
Ġd ro
al is
Ġp os
ol u
in e
g n
Ġa m
a te
ar d
Ġdi ff
Ġt ous
is i
Ġde ux
Ġ A
Ġac c
ĠC ons
en ti
Ġm an
Ġs a
Ġmemb res
Ġd oit
j et
Ġa l
a ce
il itÃ©
ces s
Ã §
Ġque l
Ġin s
il le
f in
Ġa s
o t
Ġc ert
p ar
b le
ou p
Ġde m
ĠCons eil
ĠÃ© conom
Ġs oci
Ġp ouv
Ġprob lÃ¨
c t
Ġce la
Ã© c
ur es
Ġpr Ã©s
Ã¨ res
r ait
m in
c te
Ġques tion
Ġf or
i c
Ġtrav ail
an g
Ġa d
ti ques
Ġs t
ain s
Ġo b
in t
us e
Ġa r
Ġs eu
tÃ© s
os e
Ġd onc
e mp
me t
ve l
mp s
Ġtr ans
Ġconc er
tu re
vel op
Ġ T
j e
an te
al itÃ©
i v
Ġdev ons
Ġa t
M ais
Ġcomm un
Ġp re
c Ã©
Ġc r
Ġm a
Ġsu is
u ti
ĠdÃ© velop
Ġs es
tr u
Ġpro g
ĠdÃ© b
r ais
Ġn os
Ġm il
Ġ R
Ã© g
Ġex p
Ġj us
Ġ .
o b
Ġprop osi
l u
ti n
l is
Ġf a
Ġmar ch
ĠrÃ© p
Ã »
ent e
g ie
co re
Ġc l
Ġnom bre
r ai
ĠdÃ© m
Ġc ar
e au
Ġn i
Ġcont re
Ġan n
Ġ ,
f s
g u
jour d
Ġen core
Ġc rÃ©
h ui
ac c
ĠM onsieur
ci p
Ġc ro
ĠrÃ© gi
Ġ ti
Ġmon de
omm es
ent s
Ġs ans
Ã ®
it u
u m
ce p
Ġin tÃ©
Ġ "
Ġpro du
Ġe lle
Ġde r
s er
Ã© li
Ġg ouver
il s
Ġv o
ne ment
itÃ© s
U n
Ġl ors
is es
ain es
Ġd onn
Ġn on
Ã ¹
Ġf ond
our s
Ġman i
Ġr en
om me
u er
Ġ Â
Ġre c
o in
Ġvou d
d Ã©
v re
i g
Ġle urs
en ir
olu tion
u d
Ġder ni
Ġpre mi
Ġ on
Ã© qu
rÃ© s
Ġpar t
c ation
Ġ G
Ġpr in
ab les
Ġs oit
Ġd it
Ġd ont
U E
l ar
ch er
Ġre p
ĠnÃ© cess
c er
eu re
Ãª tre
Ġ F
Ġte mps
Ġa i
Ġtou te
on g
Ġp ense
mb le
for m
an ge
n er
end ant
Ġm ain
Ġvoud rais
is te
si e
oi re
Ġparti cu
Ġf aut
Ġcomp r
Ã©r ation
ĠdÃ©velop pe
Ġr ais
ĠprÃ©s ent
Ġ L
Ġfin an
P our
Ġc as
v er
p u
Ġimport ant
Ġpu bli
Ġparticu li
M onsieur
Ġa b
i mp
ou t
Ġs itu
Ã¨ g
Ġo Ã¹
Ġpos si
cti ve
Ġ or
Ġre l
it er
Ġs ys
Ġcont r
Ġ2 00
l s
Ġdro its
Ġpr i
Ġpo int
ĠÃ©t ait
in si
ri b
Ġd oi
Ġc ol
Ġ (
ĠdÃ©veloppe ment
Ġgr and
oc ra
onn es
Ġ :
r Ãª
Ġb eau
Ġg Ã©n
Ġs ommes
uti lis
it oy
Ġ N
v ir
n es
pr Ã¨s
c oup
aut res
Ã ¢
Ġd om
Ġau jourd
Ã´ le
e z
Ġm ati
Ġil s
en de
Ġdiff Ã©r
Ġs av
Ġdoi vent
ĠÃ© v
Ġr Ã¨g
Ġce t
Ġf r
Ġa g
Ġcon f
Ġmil li
Ġ D
ra m
Ġsys t
Ã©c ur
r it
Ġf ois
Ġm in
d es
ĠdÃ©b at
ab ilitÃ©
te ment
el les
je cti
ĠproblÃ¨ me
n ation
s se
ol o
Ã©cur itÃ©
Ġ E
Ġsitu ation
d er
Ġb as
Ġproposi tion
Ġcon sid
qu oi
Ġbeau coup
j Ãł
an ti
Ġv rai
an is
Ġpo si
ĠdÃ© jÃł
Ġm al
ĠÃ©conom ique
Ġmarch Ã©
en ces
Ġdis p
qu er
Ġc itoy
Ġmani Ã¨re
Ġpoli tiques
ĠÃ© le
Ġs Ã©curitÃ©
Ġc a
Ã© ra
Ġ op
Ġes s
Ġme t
Ġm ont
Ġp e
Ġacc ord
Ġn ation
ĠÃ© c
Ġfinan ci
Ġac tu
Ġb es
ou te
ĠdÃ©m ocra
i m
Ġser a
Ġmo ins
Ġper met
as s
Ġprog ram
i ti
S i
isi on
si ons
D ans
Ġc ap
Ġa insi
E lle
Ġav ant
Ġm en
Ġas s
Ġa ff
Ġj our
Ġni ve
Ġli b
Ġch ose
Ġl Ã©g
Ġa ur
iss aire
Ġinter nation
Ã© di
ou pe
ais s
ud g
Ã¨re ment
Ġb udg
Ġpers onnes
ĠC h
e m
Ġl ui
ati ve
Ġdem and
Ġv ie
Ġtr ai
sie urs
p ons
Ġmes ures
f ois
Ġgouver nement
jour s
ate urs
Ġ1 9
Ġcons titu
Ġprop os
Ġpar ce
Ġtou jours
i ci
Ġ I
a li
Ġsou ti
is se
Ġg ar
pu is
el a
Ġm oi
Ġcitoy ens
Ġv otre
Ġch a
Ġconcer n
Ġav oir
Ġmain ten
onne ment
p Ã©
ĠdÃ© f
Ġmon di
Ġmati Ã¨re
b les
Ġau c
il i
ĠnÃ© g
Ġf er
Ġan s
Q u
Ġaut res
Ġsou h
elle ment
h Ã©
ad a
Ġgr oupe
ag it
ati que
d re
er ci
Ġtou tes
Ġres pons
Ġau tre
Ġl ong
Ġsi mp
d ui
t ant
Ġc ent
Ġt ant
Ġex emp
Ġat t
Ġann Ã©es
Ġl Ãł
ad re
b ilitÃ©
v ers
Ġsyst Ã¨me
l ons
Ġgr ande
r ont
Ġpro f
m is
Ġ J
Ġrep rÃ©s
A u
ai lle
us es
Ġcon n
cÃ© d
Ġbes oin
Ġdro it
C ela
ĠÃ §
V ous
Ġmo y
acc ord
i Ã¨me
Ġi ci
Ġnive au
Ġpl u
Ġcons Ã©qu
Ġcon tin
mb l
ĠÃ§ a
c ul
Ġtr ois
Ġpouv oir
in tÃ©
Ġpour quoi
ex p
Ce tte
am ment
p h
c tions
Ġentre pr
Ġ K
Ġe mp
g anis
ada me
Ġprin cip
Ġse cte
Ġres pe
es p
Ġin c
ĠÂ «
Un is
Ġ- -
Ġob jecti
Ġv is
tion ne
ĠproblÃ¨ mes
Ġques tions
Ġeff et
is l
Ġr est
Ġseu lement
P ar
Ġpas s
Ġparti e
Ġs oi
Ã© v
Ġf em
ort s
Ġcomm ission
i ques
or is
Ġsu jet
Ġs ous
Ġcert ains
Ġconcer ne
Ġ H
Ġpro jet
Ġpeu vent
Ã§ on
Ġser vi
Ġ utilis
Ġcomp te
Ġrais on
en ne
Ġpe ti
Ġte ch
Ġpers onne
ĠrÃ© f
ĠrÃ©gi on
Ġco op
Ġc or
Ã´ t
an ces
Ġv oi
Ġdev rait
vir onnement
ent es
n ent
Ġa fin
Ġcol lÃ¨
Il s
D e
t ri
o g
i ons
iss ance
mer ci
O n
Ġre merci
Å ĵ
Ġv a
el s
Ġc adre
o li
Ġ Europe
ti v
Ġde puis
Ġexemp le
s t
Ġpl an
a Ã®
Ġcont rib
or itÃ©
Ġv oir
Ġmet tre
Ġ âĢ
Ġpouv ons
Ġce ux
Ġins titu
o v
r aient
Ġpr endre
ĠM es
at ure
Ġad op
os es
ar i
d am
Ġf onc
Ġnouve au
Ġdem ande
s ui
Ġser ait
Ġquel ques
ĠrÃ©s ul
Ġp ens
i on
op ul
om p
d us
Ġal ors
Ġg ens
Ã Ģ
g Ã©
ten tion
Ġsu b
Ġpour rait
Ġv ue
Ġdire ctive
ten ir
Ġdis c
ĠdÃ© s
Ġch ange
Ġqu and
Ġvrai ment
Ġch oses
Ġp h
U ne
Ġi m
ra tÃ©
Ġd ur
Ġmainten ant
Ġv ers
Ġdom aine
r ent
av ant
Ã© tÃ©
Ġcr ise
ve z
ĠprÃ© sident
Ġp opul
c le
Ã©ri c
ĠlÃ©g isl
Ġc ours
Ġ 3
Ġgar anti
Ġst ratÃ©
gu es
ag es
Ġav ait
Ġapp r
Ġa prÃ¨s
Ġpossi ble
p endant
cess us
Ġj ou
Ġen f
Ġme ille
Ġquel que
Ġnouve lle
end u
g r
Ġpro cessus
Ġsu pp
Ġam ende
Ġprogram me
Ġb i
Ġtr op
Ġin di
Ġpro te
Ġcons omm
g ment
Ġb on
Ġh um
l ent
i es
dui re
Ġse in
te urs
Ġres s
Ġcoop Ã©ration
Ġsav oir
Ġc ri
g er
Ġe u
ves ti
Ġfa Ã§on
Ġs Ã»
Ġr is
Ġpr es
g ne
v ous
ĠnÃ©g oci
Ġc our
ag ne
am ais
Ġprote ction
or itÃ©s
ouv ent
m ment
ĠeuropÃ© ens
d ent
Ġsecte ur
Ġess enti
v Ã©
Ġli eu
Ġl u
aire ment
ven tion
ti e
qu i
Ġre g
use ment
Ã ī
Ġcom ment
a y
Ġj amais
Ġr Ã´le
Ġcon di
l oi
h omme
ĠrÃ© alis
Ġrapp orte
Ġ2 0
Ġpl ace
Ġn u
Ġj u
Ġmes ure
Ġconcern ant
Ã©t ait
Ġen g
que lle
Ġf i
tÃ© e
Ġ %
ag er
Ġla quelle
h eure
Ġsouti en
v is
ant es
ri eur
Ġren for
Ġbas e
Ġpremi Ã¨re
a ment
p er
lle ment
Ġs ens
g ent
x te
Ġave z
Ġentrepr ises
ĠprÃ© v
ent re
ant Ã©
fi c
ati ves
Ġcro issance
ĠrÃ© g
Ġm i
Ġpubli c
dus tri
Ġeff ic
Ġr ap
o ins
o rer
i de
Ġf ais
Ġb onne
Ã© ment
Ġmo ment
en u
ai r
rÃ© e
Ġ V
Ġes p
an c
ĠdÃ©c lar
Ġfem mes
ĠâĢ ĵ
ch es
Ġbudg et
Ġpr om
ĠreprÃ©s ent
ĠrÃ©s olution
ur i
ĠprÃ© c
Ġce l
c ture
Ġre cher
p ort
C es
sid ence
Ã©r ence
ĠÃ© tr
an n
Ġs antÃ©
om b
Ġcomm en
Ãª te
Ġposi tion
Ġfond ament
ĠÂ »
Ġi d
Ġar ri
ai te
Ġpr is
Ġn ot
gi que
Ġre m
Ġv eu
Ġfor m
ve ur
Ġn ature
l on
qu Ã©
Ġv ol
Ġcro is
Ġmilli ons
ati s
Ġrec onn
Ġparticuli er
Ġpro cÃ©d
as se
Ġres te
pÃ© ci
rÃª t
Ġs pÃ©ci
Ġpu is
ĠrÃ©p ons
ĠnÃ©cess aire
au v
Ġe lles
Ġor ganis
it es
Ġc ul
Ġter me
ĠM me
Ġfa veur
ĠrÃ© for
ĠrÃ¨g lement
res s
ac tion
Ġpri x
Ã© conom
Ġr ien
Ġp ai
Ġcha que
ac itÃ©
ne ments
ab lement
fi er
au tre
Ġsou li
e ff
ri ons
ven ir
mbl Ã©e
c a
Ġ O
Ġo c
Ġma j
Ġpro ch
ort er
lÃ© ment
Ġproposi tions
Ġac cep
g ni
ĠCh ine
Ġfonc tion
Ġvo te
Ġsoi ent
at t
aille urs
Ġrap ide
Ġ 5
Ġrapporte ur
in ter
ĠgÃ©n Ã©r
ĠcollÃ¨ gues
at s
Ġservi ces
Ã© rer
Ġsu iv
Ġter r
Ġrespons abilitÃ©
m oi
Ġjus te
ti ve
Ġsouh ait
fi cation
Ġm ois
Ġ z
Ġ !
Ġun ique
Ġin f
m an
ĠdÃ©p u
Ġnouve lles
ĠÃ© vi
Ġam Ã©ric
Ġtrai tÃ©
Ġpremi er
Ġenf ants
our ces
Ġsu ff
ĠComm issaire
Ġv Ã©r
Ġsi gni
Ġnombre ux
ĠsÃ» r
Ã©n Ã©
Ġm is
Ġvi ol
i d
o le
ĠdÃ© fin
ate ur
j ou
Ġco Ã»
Ġt u
Ġprodu its
Ġs Ã©ri
Åĵ u
ac t
Ġ19 9
r an
on e
Ġm ise
Ġm Ã©di
le x
Ġse mble
Ġo ff
a di
res sion
Ġdonn er
Ġamende ments
que l
Ġjus qu
Ġnot amment
ĠdÃ©c ision
mb re
ab ord
in g
n olo
Ġcomm une
Ġauc un
vesti sse
ti f
Ġs ouvent
Ġobjecti fs
Ġab s
ĠM adame
Ġs al
ci pe
Ã©t aire
or m
uri di
hÃ© sion
se z
te ur
Ġj uridi
Ġag ri
Ġplu sieurs
Ã©n er
Ġlib er
Ġf ut
av enir
o de
Ġcommun aut
l ab
t ent
Ġt ot
esp Ã¨re
Ġmi eux
ĠÃ© ch
Ġcontr Ã´le
Ġparticuli Ã¨rement
Ġg ra
sse mblÃ©e
Ġ 4
Ġcom b
r ons
avant age
Ġsu i
Ġv ale
il l
Ġpar ler
ro che
Ġc li
ĠrÃ© c
ai de
ang er
Ġpo in
t ra
Ġcondi tions
Ġcel ui
ar ti
Ã©nÃ© fi
ĠstratÃ© gie
Ã©ner gie
Ġs tru
it aire
oc cu
ussi e
Ġce lle
Ġinstitu tions
Ġnouve aux
Ġcomm issaire
Ġd ou
or ation
Ġb Ã©nÃ©fi
ĠrÃ© du
Ġpossi bilitÃ©
Ġser ont
Ġparti cip
Ġtech nolo
Ġprin cipe
Ġam Ã©li
ti m
ĠrÃ¨g les
app li
uer re
Ġin form
ĠrÃ©pons e
c our
alis ation
ĠdÃ©mocra tie
Ġf our
u es
Ġsoci Ã©tÃ©
Ġsouli gn
i er
Ġs Ã©
ĠÃ© ner
Ġsi gn
Ġre f
Ġapp li
Ġa tte
ĠdÃ© ci
Ġfond s
Ġr i
Ġf Ã©li
Ġcontrib u
ĠprÃ© sidence
Ġen se
r Ã¨s
Ã© d
y p
Ġtr ouver
Ã©conom ie
Ġau gment
A l
Ġpeu x
au tÃ©
Ġrecher che
Ġsoci ale
ĠÃ© tu
Ġcl airement
ais e
Ġb r
Ġd avantage
Ġdiff ici
Ġv oy
Ġin iti
ure r
ĠÃ© qu
Ãª che
Ġse lon
gr ation
Ġjus ti
f ri
Ġpar ten
Ġli m
imp ort
Ã© lÃ©
Ġse m
ord re
ĠdÃ©c isi
is me
en vironnement
Ġs olution
ord in
Ġpoin ts
Ġv eux
Ġimport ante
Ġmondi ale
ĠnÃ©goci ations
Ġ Je
c ont
osi tion
ĠrÃ©p ond
Ġre t
C omme
Ġp endant
Ġqu alitÃ©
ouve z
vi ent
er a
Ġcomp Ã©
Ġt our
ut Ã´t
Ġp Ã©ri
Ġeffic ace
Ġderni er
n Ã©
Ġderni Ã¨re
Ġauc une
ur r
ati ques
Åĵu vre
ĠÃ©conom iques
un es
Ġc Ã´
c tu
Ġc an
Ġf av
Ġe ux
in form
ĠR ussie
Ġmoy en
Ġt aux
Ġcul ture
Ã ¯
i ent
Ġdiffici le
Ġa li
Ġf ac
ĠPrÃ©sident e
ist oire
a ur
iss ent
ĠdÃ©pu tÃ©s
sui te
Ġcert aines
Ġp le
g ence
Ġla r
Ġremerci er
ĠÃ©t aient
Ġpr iv
Ġpl utÃ´t
Ã¨ ne
isse ment
Ġcert aine
Ġd Ã¨s
Ġsu c
Ġsimp lement
ri m
ra ph
Ãª mes
Ġch e
Ġlors que
os er
Ġvou lons
tÃ© ri
Ġg uerre
c Ã¨s
Ġress ources
Ġpopul ation
lle m
Ġpar lement
ĠeuropÃ©en nes
Ġs ci
g rÃ©
al l
er re
emp loi
is tre
Ġcap it
T out
Ġ W
is ation
fi que
m Ãªme
in dre
Ġmo di
Ġinternation ale
dam es
Ġf ace
Ã© ch
Ġpass Ã©
Ġeff orts
n ous
ĠMes sieurs
a z
Ġf ont
os si
Ġch ar
Ġch er
Ġs orte
Ġrespe ct
Ġn o
li r
Ġcomm erci
Ġprop re
Ã© rÃ©
Ġp i
Ġrem ar
au d
bli g
Ġimp li
ard s
Ġdonn Ã©
m atique
Ġen ti
l o
Ġseu le
a re
ĠÃ©tr ang
ĠrÃ© un
Ġpai x
Ġcons tru
ĠcrÃ© er
l us
ĠlÃ©gisl ation
Ġapp el
T oute
ati f
ĠrÃ©gi ons
Ġvo tÃ©
Ġmarch Ã©s
Ġliber tÃ©
ci dent
Ġrel ations
Ġconsomm ateurs
it able
qu ie
il les
c lÃ©
Ġv u
Ġlu tte
ĠÃ©c rit
r as
te mps
Ġqu oi
ar m
D onc
ti me
Ġdev raient
Ġchange ment
ĠdÃ© t
Ġdi ri
Ġann Ã©e
Ġcon fi
Ġf ai
Ġex tr
Ġdiff ic
oup es
t out
Ġfor me
ĠrÃ© alitÃ©
Ġconc lu
Ġp Ãªche
Ġconc urr
Ã¨ te
Ġ ir
Ġmo d
ĠconsÃ©qu ent
ance ment
. .
Ġf am
op h
Ġp ouvez
ti s
g ue
ense mble
ĠdiffÃ©r ents
Ġou tre
Ġdemand er
Ġex iste
Ġsou tenir
f ie
ĠrÃ©sul tats
aÃ® t
Ġvoi e
ĠprÃ© occu
Ãī tat
ar gent
ve ment
Ġlar ge
av oir
Ġprog rÃ¨s
Ġte lle
Ġter mes
Ġ Åĵuvre
ĠdÃ©p ens
co le
Ġcert ain
Ġent endu
D es
rÃª ts
Ġnu clÃ©
am in
Ġvol ont
Ġsuff is
Ġeff e
Ġaut oritÃ©s
ĠprÃ©c is
ar itÃ©
Ġdonn Ã©es
Ġc ir
Ġv ais
Ġd oute
Ġc in
Ġtoute fois
ti fs
Ġconstitu e
Ġactu ellement
ĠprocÃ©d ure
Ġb an
Ġseu l
Ġconn aiss
es tion
Ġs y
ra le
Â »
00 0
ni que
lar g
me tte
Ġjuridi que
en g
Ġg l
Ġtrans par
Ġs oli
a ff
Ġre pr
re t
Ġnombre uses
Ġgaranti r
Ġm Ã©
Ġre tr
Ġpeu p
tiv itÃ©
Ġa it
Ġsur tout
Ġqu a
ca sion
on ti
am ende
Ġs ais
Ġrais ons
Ġactu elle
al u
s es
Ġrapide ment
Ġterr oris
Ġs c
dustri e
Ġdeux iÃ¨me
Ġdev rions
ri r
Ġcommunaut aire
Ġderni Ã¨res
t res
Ġveu t
Ã©ri que
Ġgouver nements
Ġc i
Ġt ent
Ġstru cture
Ġris que
" .
er ce
Ġs us
ĠT ur
Ġas pe
Ġprodu ction
Ġexp li
ĠnÃ©cess itÃ©
er ve
Ġd oc
ro du
Ġh eure
Ġv ois
gi es
or mes
Ġense mble
ĠÃ©t ab
Q ue
Ã¨ mes
Ġtrav ers
Ġli bre
Ġpro tÃ©
Ġpre u
Ġti ens
par t
Ġpubli que
l ais
ar t
end ance
Ġconf l
Ġv er
ĠrÃ©g lement
atis f
ĠE tats
ĠsÃ©ri e
Ġre ven
Ġas sez
Ġmoy ens
in c
Ġre mp
ĠA ssemblÃ©e
Ġcl air
ĠpÃ©ri ode
ter min
Ġcontin uer
Ġch i
cte urs
Ġali ment
Ġen vironnement
tÃ© r
Ġextr Ãªme
cti ves
Ġplu part
M adame
ĠMes dames
Ġfinanci Ã¨re
Ġ 6
Ġv oit
ann Ã©e
l Ãł
Ġmaj oritÃ©
iss ant
is tes
Ġle quel
r u
Ġpr Ãª
heure usement
Toute fois
Ġcon v
ĠnÃ©cess aires
aÃ® tre
Ġp ort
Ġje unes
ni e
Ġim m
Ġsouh aite
ĠdÃ©cisi ons
I n
Ġca use
Ġaur ait
age ment
En fin
ĠrÃ© v
Ġa ille
Ġen cour
Ġtr ouve
Ġtrav ailleurs
it aires
Ġins tru
Ġvis ant
Ġles que
Ġaur a
Ġce pendant
ĠÃ©g ard
Ġre v
end ra
ĠcrÃ© ation
c ts
av ons
Ġcompr om
Ġ ;
fi ques
Al ors
Ġt y
Ġt en
Ġp orte
Ġg en
Ġconcurr ence
Ġs atisf
import ance
Ġcompr is
t able
Ġav is
il Ãł
Ġobjecti f
Ġremerci e
Ġin vestisse
Ġtr ouv
Ġtr ain
Ġin t
ĠgÃ©nÃ©r al
Ġg estion
end s
Ġconfi ance
tÃ© es
B ien
ce l
Ġdom aines
Ġa ni
inform ation
Ġm Ã©t
Ġpour sui
Ġst abilitÃ©
Ġpermet tre
ch Ã©
o que
Ġgr oupes
intÃ© rÃªt
Ġr endre
Ġin dÃ©
Ġcon te
A m
Ġcompr endre
Ġo blig
Ġt Ã©lÃ©
Ġaille urs
ĠdiffÃ©r entes
ĠTur quie
Ġani m
ĠG r
Ġprogram mes
ĠbÃ©nÃ©fi ci
mette z
Ġsou ten
il es
Ġrenfor cer
Ã¢ ce
ra k
ol lar
ĠintÃ© ress
Ġfr an
Ġf ort
Ġmemb re
Ġinternation al
l and
Ġcons ci
Ġv os
ĠintÃ© rÃªts
ĠdÃ©mocra tique
en si
Ġc oup
Ġl oc
Ġgl ob
Ġte xte
in f
Ġ 7
Ġrespe c
Ã© cu
Ġd ollar
og ue
Ġsa vez
ri mer
amende ment
Ġl ais
Ġal ler
de mment
ĠdÃ© termin
Ġcomm erce
Ġdes tin
iv ers
Ġf orte
fri que
Ġpr atique
ert s
Ġty pe
cte ment
ĠintÃ© rieur
om met
Ġex ist
is c
ĠrÃ©for me
Ġm auv
ĠextrÃªme ment
Ġren cont
Ġmeille ure
Ġsigni fie
Ġmod Ã¨
Ġconv ain
ĠconsÃ©qu ences
Ġessenti el
Ġex ig
Ġ Et
Ã¨ rent
ĠÃ©t ant
Ġrapp el
titu de
Ġr ou
E N
en nent
Ġprojet s
Ġess ay
Ġsui te
os Ã©
ĠprÃ©occu p
ĠÃ©ner gÃ©
larg issement
Ġsav ons
Ġfr onti
ĠrÃ© ussi
Ġaff aires
ĠrÃ© duire
Ġprof es
Ġemp l
Ġ ouv
am Ã©li
Ġl oin
eur es
Ġte l
ĠrÃ©pond re
Ġ1 0
Ġfin ancement
re mi
lÃ© g
ad op
Ġcontr Ã´
ĠfÃ©li c
Ġt a
al ogue
Ġsoulign er
ĠgÃ©n Ã©ra
Ġpas ser
Ce pendant
Ġtrans port
in es
re z
Ġmilli ards
ard er
Ġapp roche
oi res
in dustrie
Ġlong temps
Ġpas se
Ġ Le
Ġal l
pr it
ĠdÃ©b ut
Ġdisp osi
Ġdoc u
ĠÃī tat
Ġaut ant
Ġe ur
Ġdiri ge
Ġcomprom is
Ġdev ant
Ġ La
qu ent
ob jecti
l ande
au c
Ġj ours
Ġrec omm
Ġpers pe
olu tions
Ġfi x
ti r
an cer
Ġtravail ler
Ġent ra
m oins
Ġp au
ĠÃ© p
a k
Ġ 8
Ġcommun ic
ĠcÃ´ tÃ©
Ġfav or
E st
is ter
Ġpr Ã¨s
ap on
Ġ uti
Ġd ois
Ġz one
ĠÃ©le ctions
ĠcompÃ© ti
Ġm ort
b onne
. "
i gn
us se
ĠÃª tes
d is
ĠrÃ©gi me
Ġf ra
is bonne
Ġdis cu
en sion
Ġpau vre
Ġconsid Ã©ra
Ġm ul
Ġacc omp
D E
ar de
Ã© tu
Ã© p
ist an
Ġdi vers
Ġdiffic ul
Ġjusti ce
ĠL isbonne
Ġs au
ĠrÃ©sul tat
ĠF r
Ã©g alitÃ©
is er
Ġh ab
a de
Ġai de
Ġre Ã§
ni ques
ien nent
Ġtrans p
cul ture
Ġdi alogue
Ġlors qu
Ġop p
Ġlib Ã©r
Ġ20 1
ĠdÃ© ch
Ġsimp le
om ment
Ġgrand es
Ġh ommes
met tre
Ġl ang
Ġpreu ve
h i
Ã¨ ce
Ġvo ter
Ġab ord
v ant
Ġconte xte
Ġr end
Ġsci enti
Ġgen re
D eux
Ġvolont Ã©
ac cep
Ġv ont
oi x
Ġvi cti
Ġv enir
Ġa mb
Ġdur able
Ġinform ations
Ġqua tre
Ġat tention
n ov
Ġs enti
Ġac tions
l ure
ĠreprÃ©s ente
Ġ Il
ac es
arti cle
Ġti tre
Ġprodu it
Ġprop res
at ri
Ġpour raient
Ġs ol
Ġsuc cÃ¨s
Ġqu ant
Ġsyst Ã¨mes
ĠÃ©tu di
Ġpu isse
Ġsupp lÃ©ment
Ġcommen cer
Ġf isc
an moins
Ġd Ã»
u g
Ã «
Ġprincip es
Ġmin istre
erci ce
Ã© gi
Ġnation aux
Ġac tiv
Ã© le
Ġse con
du cation
on de
Ġdemand Ã©
Ġapp ar
T u
ci te
Ġn ormes
Ġparti es
Ġex c
Ġsoci al
Ġcon vient
Ġch ez
id Ã©e
Ġ 9
Ġs ommet
objecti f
Ġman que
ati fs
Ġbudg Ã©taire
Ġcin q
ĠrÃ©s ou
s s
n Ã©e
Ġsi Ã¨
ĠrÃ© se
Ġfinanci ers
Ġaccord s
di d
Ġc at
Ġins t
Ġfor ce
Ġjou er
Ġcan did
Ġsoli d
ad hÃ©sion
Ġimport ants
Ġce lles
Ġse p
Ġ 000
Ġm Ã©c
Ġgr Ã¢ce
Ġtrans f
Ġcommun autÃ©
Ġt ard
M al
Ġ ur
s ra
ales ti
Ġgrand s
Ġd onne
l in
Ġin dustri
Ġfa ci
utilis ation
Ġai der
Ġmani f
Ġmal adi
Ġb l
appli cation
Ġp ol
Ã© largissement
Ġtranspar ence
o re
ond s
Ġimport ance
Ġvale urs
vir on
ce v
Ġa y
Ġcon cep
ĠrÃ© ellement
Ġtr ait
v oy
ai mer
Ġf aud
ien ne
u it
Ġcontr aire
Ã« l
ĠprÃ© f
ces si
ĠÃ© n
Ġc al
t ons
Ġce ci
Ġre li
Ġproch aine
Ġrel ative
ĠC on
ĠprÃ© cÃ©d
Ã© m
in ois
ĠrÃ© jou
olu ment
Ġte lles
ĠmÃ©t h
ob jet
Ġcommunic ation
Ġte ls
Ġmen tion
h a
Ġin v
Ġcr it
L ors
y er
alu ation
ĠvÃ©r itable
Ġch oix
ten ti
Ġvi ent
ar ri
lab oration
a ch
Ġcap acitÃ©
op p
ĠdÃ©clar ation
Ġnation ales
ĠdÃ© si
Ġcertaine ment
Ġv eil
Ġpeti t
Ġvale ur
Ġple ine
ĠdÃ©t ail
m Ã©
ct ri
Ġpro v
h istoire
Ġob ser
N e
Ġen suite
on i
Ġrapport s
ĠrÃ©sou dre
ag n
ĠdÃ©pens es
Ġparti s
C omment
aimer ais
O r
Ġactiv itÃ©s
M on
Ġque lle
Ġpauvre tÃ©
gi ques
Ġy eux
ĠN ations
g es
Ã©ri ence
Ã©r ons
Ġcontrib uer
Ġpr ise
Ġpar le
e ment
ĠC our
ussi ons
Ġch ac
Ġs or
on es
ĠrÃ©for mes
llem agne
p rÃ©
op ri
Ġb ou
Ġmont re
Ġsem aine
b e
Ġch ois
Ġti ers
Ġmondi al
Ġb ure
Ġfinanci Ã¨res
tionne l
Ġcomp lÃ¨
Ġm er
Ġt Ã¢
Ġfronti Ã¨res
Ġdisp os
eur os
Ġdem ain
N otre
Ġid Ã©e
ai e
gu eur
Ġterroris me
Ġs an
ĠnuclÃ© aire
Ġsou ff
v Ã©s
Ġcons t
Ġaspe cts
Ġcont ra
rit an
Ġreconn aiss
ĠÃ©nergÃ© tique
t ation
ag ri
Ġform ul
Ġl o
Ġv en
ĠmodÃ¨ le
ĠprÃ© par
Ġh aut
Ġter rit
titu tion
Ġ1 5
i tion
Ġh eures
Ġconc ent
Ġmont rer
h an
Ġdisposi tions
Ġsoci aux
Ġconf ront
app r
lis se
Ġpo tenti
eff ic
Ġvicti mes
C ert
Ġfinanci er
Ġrecomm and
Ġpart age
Ġt enir
og raph
Ġunique ment
Pour quoi
Qu and
Ã©t ro
ĠÃ© lÃ©
Ġdi x
Ġm or
tr ui
Ġch Ã´
Ġviol ence
o ilÃł
Ġt h
Ġb ut
Ġris ques
Ġfour ni
Ġor ient
Ġdis t
Ġdollar s
Ġimportant es
Ġj eu
Ġparti r
Ġpro t
v Ã©e
Ġpar venir
Ġh au
Ã§ ons
ct ures
Ġad min
2 0
Ġtot alement
ĠrÃ©du ction
Ġm u
ce mment
ĠprÃ©s ente
ĠÃ©qu ili
Ã© tÃ©s
Ġcons tat
ĠprotÃ© ger
Ã© ducation
Ġca mp
orm ais
Ġcli matique
Ã©t ais
Ġsolid aritÃ©
ĠA m
Ġatt end
d s
ĠI n
Ġaccep ter
es s
Ġadop tÃ©
Ġp Ã©tro
intÃ© gration
ig ine
Ġfondament aux
e urs
Au jourd
Ġen vis
iÃ¨me ment
Ġmeille ur
Ġs tat
Ġex amin
Ġpres que
E lles
ĠcollÃ¨ gue
ĠFr ance
Ġse mbl
am en
sra Ã«l
Ġabs olument
Ġpar mi
Ġvou l
Ġcr u
Ġch ers
p tion
Ġg Ã©
Am Ã©rique
en nes
ve c
ti ves
ĠfÃ©lic iter
Ġl oi
or i
tr ation
Ġprob ablement
agri culture
Ġr adi
Ġse c
Ġdire ction
Ġrest er
ĠdÃ©f ense
Ġfer me
Ġcommen cÃ©
Ġcent rale
Ġdev enir
in ion
Ġpar f
Ġal lons
alesti ni
Ġav aient
Ġdirige ants
Ġmul ti
Ġnation al
ĠÃ©lÃ© ments
Ġmo der
ĠcoÃ» ts
Ġentra Ã®
et s
ĠdÃ©velop per
l oit
Ġgr os
Ġper mis
ven tions
Ã¨ de
arm on
ĠF onds
Ġcor re
Ġpeup le
V oilÃł
di ci
rib u
Ġs p
ĠM ar
Ġpr ises
Ġh ist
Ġsi x
Ġcomp lex
ĠdÃ©s ormais
di re
Ġac tion
Ġpe ine
Ġex cel
qu Ã©e
Ġapp orter
Ġcons ul
ĠamÃ©li orer
oc casion
Ġpri oritÃ©
Ġeur o
u is
Ġfem me
Ġpeti tes
ĠÃ©vi demment
Ġass urer
Ġan ti
Ġtra di
Ġcent r
Ġ Y
rÃ© ci
Ġservi ce
Ġsub st
tÃ© rieur
Ġf l
Ġen fin
rÃ© es
Ġrespons ables
Ġin qui
Ġch anger
ins t
Ġcons eil
ari at
res ser
fi Ã©
Ġindi vi
as tr
Ġform ation
in iti
Ġveu lent
Ġdifficul tÃ©s
di c
ie z
Ġcomp orte
Ġnation ale
Ġfran Ã§
Ġb ritan
Ġret our
co les
Ã© tique
Ġv isi
ĠrÃ© cemment
acc Ã¨s
Ġc ou
Ġmon Ã©taire
ĠcrÃ© d
Ġchange ments
Ġimm Ã©di
Ġc er
Ġf il
ri min
Ã©t aires
ĠB ar
alis tes
eur o
onc er
Ġexp rim
Ġt enu
Ãª cher
ĠmÃ©c anis
Ġconfl it
l ac
p ens
Ġdev oir
mis sions
Ġ Nous
es prit
or ganis
Ġdis par
ctive ment
Ġapp elle
Ġaff ir
Ġf u
auv res
Ġcrit Ã¨res
Ġp auvres
ue lle
Ġri ches
Ġappr opri
si que
Ġter min
alis te
Ġban ques
Ġprofes sion
Ġs ait
ĠprÃ©sent er
ĠdÃ© g
m age
ag ir
ĠdÃ©ci dÃ©
c ri
av i
Ġtechnolo gie
ĠJ apon
Ġ erre
el on
p l
Ġs ensi
port un
Ġchi ff
Ġrespec ter
j us
ĠÃ©v o
Ġref us
Ġpar fois
Ġanim aux
Ġm Ãªmes
or igine
Ġapp ro
Ġl Ã©gi
Ġpri oritÃ©s
ce ment
Ġutilis er
Ġchac un
Ã© pu
le z
Ġch inois
ouv oir
ĠÃ©v iter
oc k
ist ance
ĠchÃ´ mage
Ġun ivers
Ġan al
astr oph
Ġpour ra
at tention
re ux
Ġmes s
A prÃ¨s
d ro
Ġc iv
m Ãªmes
Ġun ies
Ġex ac
Ġprop ose
alis me
t tes
Ce ci
A insi
Ġch ance
Ġp or
effic acitÃ©
t on
Ġcomp Ã©t
ĠS ch
o d
Ġt omb
av ais
Ġco lle
Ġcat astroph
Ġcon dam
onn er
au gment
res se
av is
Ġorganis ations
Ġfor ces
in er
Ġagri cole
Ġsoci Ã©tÃ©s
Ġtrois iÃ¨me
Ġpens er
Ġrappel er
Ġl aiss
Ġs our
Ġa jou
Ġatt a
Ġcontin u
ne t
Ġli vre
Ġob ten
Ġen viron
Ġsouhait er
Ġdi min
Ġtrai tement
ĠdÃ© fi
ab s
Ġinvestisse ments
Deux iÃ¨mement
o x
uropÃ© ens
Ġco hÃ©sion
ĠrÃ©s er
Ġvoi x
Ġd ange
a Ã¯
ĠprocÃ©d ures
te l
Ġcons er
Ġta x
A frique
l ant
Ġsu g
Ġparten aires
Ġmin ist
ten ant
Ġt hÃ©
oi te
Ġg az
Ġ3 0
Ġpres sion
an i
Ġli gne
in vestisse
Ġre je
Ġprom ouvoir
ĠComm un
ĠÃ©v Ã©
ch i
Ġex ercice
ĠrÃ©un ion
e c
Ġp Ã©n
Ġsuiv re
ĠprÃ©cis Ã©ment
Ġmil itaire
u el
es time
ti ent
ti rer
Ġquel qu
Ġ ouver
ĠS ud
ĠN ord
Ġju dici
Ġconvain c
c itÃ©
h Ã©r
Qu el
Ġpublic s
i b
Ġpar ven
tionne lle
Ġl ut
us sion
Ġpour tant
Ġin dis
ĠÃ©conom ies
Ġveil ler
ĠB an
ur ent
ais se
ĠT rai
im mi
Ġvi gueur
adop tion
s Ã©
Ġconf Ã©rence
le ur
Ġfour n
Ġbes oins
oy au
Ġpr end
ĠdÃ© l
Ġes tim
Ġs olutions
Ġou bli
ĠrÃ©f Ã©rence
ĠamÃ©ric aine
c ons
u b
r ou
Ġparticip ation
Ġ is
mi Ã¨re
ĠÃ©le vÃ©
Ġpr en
ue il
Ġdisc ussion
Ġqu ali
r is
Ġm ouve
ĠÃ©conom ie
lisse ment
trui re
r lande
i eu
ag raph
Ġdocu ment
qu Ã©s
Ġav anc
Ġsecte urs
or ique
Ġderni ers
ĠprÃ©sent Ã©
ti ne
t h
Ġmo t
Ġcontribu tion
ĠgÃ©nÃ©ra le
y n
Ġpar ole
Ġsur ve
p end
Ġmais on
Ġconc r
Ã©qu ili
entre pr
Ġheure ux
ĠconsÃ©qu ence
Ġamende ment
Ġ2 5
ag Ã©
Ġsign al
Ġjour n
Ġprofession ne
Ġfait es
Ġdisc rimin
g an
Ġpar agraph
a h
ai si
Ġdev ra
Ġlais ser
Ġsoci ales
Ġ200 0
Ġz ones
Ġp ati
Ġm and
Ġeffet s
Ġpeti te
Ġstat ut
ĠdÃ© li
Ġcontin ue
Ġpoursui vre
c ent
Ġd ossi
Ġcons ac
Ġr ac
for me
Ġoc cu
Ġv it
ri er
dui te
Ġdisc ussions
Ġmin u
Ġsuffis amment
Ġcon du
Ġsu per
Ġoc cident
v itÃ©
lu sion
Ġcir cul
or ie
ĠdÃ©clar Ã©
Ġn our
initi ative
Ã©r ations
Ġcli m
at oire
M Ãªme
Ġid Ã©es
Ġa Ã©ri
lÃ¨ ve
Ġpropos Ã©
ĠdÃ©f is
Ġco ordin
d ence
h ab
nov ation
P er
l Ã©e
au jourd
ter n
ri ent
Ġconf ir
ĠsÃ©ri eux
Ġh omme
ĠamÃ©li or
Ã©g ard
Ġrel atives
Ġtechnolo gies
Ġsou le
Ġmen ace
Ġb Ã¢
Ġ U
ras tru
ĠpossibilitÃ© s
ĠÃ© missions
ĠA n
Ġconsid Ã¨re
i ge
Ġn orm
ĠcompÃ©ti tivitÃ©
on te
ĠdÃ©p end
z e
Ġpr atiques
ĠdÃ©m ont
Ġmauv ais
Ġpleine ment
Ġindis pens
Ġ k
oi ci
Ġ1 2
Ġconsomm ation
ĠfÃ©li cite
Ġm onn
" ,
or me
lÃ© ch
ĠÃ©trang Ã¨re
Ġpeti ts
) .
l ation
ni es
Ġatte indre
a prÃ¨s
ri e
Ġcri min
Ġf ig
ĠÃ© lÃ©ment
Ġfam ille
app ro
Cert ains
Ġdi pl
Ġci vi
ĠBan que
Ġcont enu
ĩ a
Ġa che
Ġiniti ative
Ġpos er
ĠdÃ© fic
Ġass oci
l an
s us
olo gique
oyau me
iss ons
ĠamÃ©ric ain
o les
Ġinternation ales
Ġcandid ats
en f
Ġan ci
si ve
ĠrÃ©glement ation
Ġb onnes
ro y
Ġconstitu ent
Ġ5 0
Ġmo ts
Ġfais ons
a mb
Ġob tenir
Ġconsid Ã©ration
Ġhum ains
Per mettez
A llemagne
ul ation
Ġdisp oni
Ġlu miÃ¨re
Ġg ag
Ã©t ab
Ġadop ter
Ġparten ariat
ĠCommun autÃ©
qu Ã©es
Ġmal heureusement
ass urer
cul teurs
ĠsiÃ¨ cle
Ġh istoire
is ent
it ation
Ġte mp
Ġmal grÃ©
Åĵ ur
Ġpens ons
Ġaux que
Ġpr os
Ġb re
Ġpersonne l
Ġaliment aire
Ġlesque ls
p s
an ci
is tration
ĠÃ ¢
land ais
f g
Ġ Union
Ġ1 1
Ġactu el
Ġl iste
Ġp ous
Ġs ort
ab ri
il a
immi gration
a rer
Ã© tat
it ent
Ġter re
Ġmin im
Ġmanif est
Ġcru ci
a vez
Ġsem aines
Ġaut our
S ur
Ġpar lÃ©
Ġhum an
Ġsi m
Ġdur ant
Ġlesque lles
Ġay ant
ain tenant
Mal heureusement
Ġdi m
ĠdÃ© ce
Ġag ir
Ġexig ences
Ġen vers
Ġid enti
os Ã©s
fi Ã©e
Ġass ur
Ġinstru ments
S elon
s p
Ġcir cons
Ġmess age
Ġt Ãªte
ten ces
Ġar ti
ĠreÃ§ u
Ġconstru ction
Ġcoordin ation
A ssemblÃ©e
Ġse x
Ġfaci le
che c
Ġcl aire
ĠR oyaume
n ant
Ġc ouv
Ġoff ici
Ġfai ble
Ġconc lure
Ġtrav aux
In de
Ġmainten ir
O rient
Ġcondi tion
.. .
Ġmand at
Ġsui vi
re ment
Ġrespons able
Ġdire ctement
ĠA l
Ġlong ue
Ġreg ard
Ġempl ois
ĠS u
Ġpubli ques
Ġpu issent
ĠcompÃ© tences
ossi ble
age ments
ist ra
Ġph ot
ĠtÃ¢ che
ĠresponsabilitÃ© s
E S
v ision
Ġa llem
for mer
Ġpouv ait
it ablement
ĠC e
Ġsur pr
ex ist
Ġiniti atives
ĠpÃ©tro le
Ġtr an
di ction
Ġde tte
ri ez
Ġad Ã©qu
Ġren ouve
Ġprof ond
de lÃł
v isi
us h
tru ction
Ġparlement aire
ĠimmÃ©di ate
Ġposi tif
Ġfais ant
Ġproch ain
o des
Ġti rer
Ġv ille
Ã¨ tes
ĠcoÃ» t
Ġb at
C E
O M
ĠC or
ĠintÃ© rÃªt
Ġcomb at
ĠrÃ©jou is
O N
an ie
Ġimp orte
ĠprÃ©s er
Ġeng agement
Ġreven us
Ġm ag
Ġr ur
y se
ro Ã®
Ġcomp ar
Ġparagraph e
c l
Ġpro cÃ©
ouver ture
Ġar rÃª
ro g
Ġh ier
bli que
rÃ© h
e use
r aine
Ġqu anti
Ġeffe ctivement
le t
Ġagri culteurs
ĠrÃ©alis er
A N
Ġr ati
O u
Ġmen er
ali e
Ġfut ur
ri Ã¨re
Ġcivi le
V oici
ĠB r
lu ence
Ġtrouv Ã©
fg han
Ġtransp orts
Ġtech nique
P remi
Ġm as
fic ations
Ġaut oris
Ġmati n
Ġconclu sion
ĠÃ© qui
au che
ti en
Ġm ission
Ã©v olution
ac te
ĠrÃ©f lÃ©ch
Ġvoy ez
Ġperspe ctives
Ġp ie
Ġm us
Ġeffe ctu
rodu ction
Ġp en
Ġs oir
Ġt est
C et
a si
a pe
ĠÃ© tat
ĠÃ©vi dent
Ġli v
Ġ1 8
ang es
emp l
Ġdisc ours
Q ui
res p
ĠprÃª ts
aisi r
Ġre le
Ġfavor able
gn es
Ġhum aine
man ie
Ġminist res
Ġmonn aie
p i
re g
op inion
Ġmilli ers
Ġfav oris
b lement
ch ent
ĠspÃ©ci fique
Ġsy n
Ġen voy
ag ue
Ġaut om
x im
or tÃ©
Ġpos e
Ġnive aux
ĠspÃ©ci fiques
Ġle cture
ĠintÃ© g
ĠsupplÃ©ment aires
M aintenant
Ã ĩa
Ġfonction nement
Ġadmin istra
Ġcour t
investisse ment
ĠB al
r ant
Ġpermet tant
Ġhab it
Ġcons iste
amÃ©li orer
Ġscienti fiques
A vec
o te
pe ct
Ġimp ossible
Ġvi te
esp ace
ĠrÃ©f u
Ġbritan nique
e mb
as e
ĠprÃ©s ence
Ġcol laboration
Ġoc casion
Ġgra ve
cep tion
lex i
in novation
ĠdÃ©velop p
Ġplan Ã¨te
ĠmÃ©di as
fri c
ĠTrai tÃ©
M a
Ġle t
il isation
Ġconnaiss ance
Ġconsci ence
Ġcon form
Ãª tes
Ġper man
Ġfourni r
Ġtech niques
Ġpr on
qu Ãªte
Ġpermet tra
Ġ Les
Ġdev en
Ġappr ouv
Ġlarge ment
ti Ã©
Ġin ten
imp orte
Ġcommunaut aires
at h
Ġop portun
st ac
ĠÃ©vÃ© nements
er b
Ġt able
Ġf abri
oy en
Ġprincip al
ĠdÃ©ce mbre
o ff
Ġvi vre
Ġsouti ens
Ġvoit ure
Ġexac tement
Ġs ouv
Ġmont rÃ©
Ġpermet tr
Ġin accep
and is
Ġposi tive
Ġcircul ation
I ran
Ġt Ã´t
Ġaugment ation
Ġconstat er
Ġatte int
ot h
Ġsan ctions
Ġsimp li
ĠindÃ© pend
us s
De puis
u ff
Ġre cev
C h
ĠdÃ©f endre
Ġconclu sions
o tion
Ġfai bles
Ġlut ter
Ġc y
Ġen dro
ur gence
ĠM oyen
Ġav ions
Ġinter vention
Ġpuis que
ĠCons titution
p endance
Ġst ri
Ġuti le
v ie
ĠdÃ©c ouv
Ġcent re
Ã©ch ange
Ġv Ã©
Ġp oi
Ġt endance
ĠGr Ã¨ce
Ġar mes
Ġprincip aux
Ġret ard
Ġenti er
k raine
ĠÃ© vent
Ġser aient
Ġt on
Premi Ã¨rement
in tention
ĠCon vention
ĠP remi
Ġacc Ã¨s
Ġcar act
Ġ200 7
ĠR Ã©pu
Ġpart out
imp act
Ġinstru ment
ĠcrÃ© di
n aires
Ġv ision
Ġan g
alis er
ĠdÃ©m ar
ĠdÃ©bat s
ers onne
ĠrÃ©se au
ai tement
Ġfin alement
Ġempl oy
Ġtrait er
ĠrÃ©fu gi
Ġconfl its
Ġ us
am a
Ġcomp tes
Ġf lexi
ĠfranÃ§ ais
vi er
Ġh a
Ġaff aire
que t
Ġb al
ul er
Ġtot al
Ġv as
Ġperspe ctive
Ġ200 8
Ġeng agements
Ã© anmoins
ĠE uropÃ©ens
Ġmoi tiÃ©
Ġfer a
es te
Ġdossi er
Ġ ordin
an im
Ġ Z
Ġm Ã©ri
Ġarri ver
Ġche min
Ġfra pp
c Ã©e
qu ant
Ġpos s
ĠreprÃ©sent ants
Ġparticip er
ĠdÃ©ch ets
Ġte llement
Ġper du
Ġtrai te
Ġindispens able
ct or
Ã©v aluation
Ġsigni fic
Ġprov o
ĠcomplÃ¨ tement
Lors que
Ġexcel lent
Ġli Ã©s
Ġres se
Pour tant
ĠK os
v ation
Ġdis tin
Ġmondi alisation
ĠnuclÃ© aires
Ġreli gi
tel li
T ous
r on
Ġfait s
Ġadop tÃ©e
ru ption
Ġencour ager
c les
Ġm ai
Ġcon ven
ĠdÃ©c en
te mbre
Ġcr oire
ĠdÃ©ci der
tÃ©ri eure
Ġpour rons
de c
Ġcomp ag
cti f
cte ur
Ġr endu
Ġex er
Ġparf aitement
Ġper mettez
Ġcar b
ili er
Ġcor resp
Ġdipl om
ac tions
Ġcaract Ã¨re
Ġvi v
ĠN e
ĠdÃ©clar ations
Ġcomp li
Ġsouhaiter ais
Ġnouve l
I B
g Ã©s
Ġd ate
ĠprÃ©occup ations
ĠlibÃ©r alisation
Ġsenti ment
ain tes
Ġcri tique
Ġau quel
at es
N Ã©anmoins
Ġv al
ĠÃ©tab li
ĠÃ©c ou
ĠI sraÃ«l
Ġrenfor cement
ĠreprÃ©sent ent
ĠdÃ© n
Ġdev enu
Ġ1 00
ĠÃ©trang Ã¨res
ĠÃ© lab
Ġdi ver
Ġbudg Ã©taires
Ġreg ret
Ã©p oque
Ġpol lu
c tes
Ġmil itaires
intÃ© rieur
Ġt rib
Ġprodu cteurs
Ġparticuli Ã¨re
cont re
Ġex ige
Ġmauv aise
ĠKos ov
Ġp alestini
Ġs ouver
Ġcomm ence
Ġad ap
T ro
ĠrÃ©v ision
Ġmaladi e
M es
h um
Ġp Ã¨re
ĠÃ© m
Ġg u
Ġi gn
Ġph y
Ġsour ce
P eu
c s
Ġcons ens
Ġcamp agne
t age
Ġexp ort
Ġju in
Ġcapit al
Ġamb iti
Ã© ro
ĠnÃ© anmoins
Ġoblig ations
Ġsep tembre
Ġcorresp ond
c adre
Ġ200 9
abs ence
a mp
ces sion
Ġmo b
ĠrÃ©f Ã©r
Ġ En
Ġn eu
li er
Ġsu p
Ġob stac
Ġin vesti
ĠrÃ© par
Ġam is
min istration
ĠvÃ©r itÃ©
Ġglob ale
P lus
n Ã©s
ro duire
Ġex tra
Ġser vir
Ġcontin ent
ĠmÃ© dec
Ġpro duire
Ġcomb ien
Ġpeup les
ac tÃ©r
tionne lles
Ġcor ps
Ġpotenti el
j oin
Ġt oi
Ġpoli ce
Ġcar actÃ©r
Ġterrit oire
rÃ© ti
Ã¨me ment
Ġreconn aÃ®tre
Ġent end
Ġprop ri
Ã©ric ains
Ġarri ve
Ġp eur
Ġr oute
Ġf eu
ĠdÃ©mocra tiques
Ġfaud ra
ĠdÃ©p art
Ġagri coles
Ġsurve ill
Ġli gnes
Ġavant ages
Ġsecon d
Ġe mb
Ġdev ront
ĠRÃ©pu blique
Ġcons truire
iss ante
Ġdisp ose
Ġeffic aces
Ġvois ins
fghan istan
Ġpl ac
ĠP IB
Ġvou lez
Ġdisp osition
ĠKosov o
ĠprÃ© p
Ġma tÃ©ri
Ġrel ation
Ġscienti fique
ĠÃ©quili b
Ġdim ension
Ġre venir
Ġcon vi
Ġil lÃ©g
Ġsor tir
ĠPremi er
c ations
Ã ¶
Ġper d
olo gie
Ġgra ves
Ġm Ã¨re
Ġac tive
ux elles
Ã©d iter
t alie
Ġar gu
Ġenti Ã¨rement
Ġ200 4
ĠdÃ© lÃ©g
Ġpa yer
Ġinternation aux
Ġ4 0
Ġstructure ls
w e
Ġim ag
our g
Ġrais onn
Ġdiscu ter
ĠrÃ©fugi Ã©s
I rak
Par ce
Ġl ois
Ġi dÃ©
ĠrÃ©f lex
Ġnu it
Ġnature llement
ĠmÃ©di c
l ise
ĠrÃ©alis Ã©
Ã©tu de
Ġav enir
Ã¨ ces
Ġai ent
Ġai des
Ġesp Ã©rons
Ġmouve ment
Ġ19 8
an cÃ©
Ġm at
ĠM ais
Ġpu issance
ĠB el
Ġpris on
Ġmaladi es
Ġfaud rait
Ġconsens us
Ġou ti
Ġconn u
M E
Ġch ang
Ġsup Ã©ri
Ġde me
Ġemp loi
ca ments
ĠsÃ© par
Ġlim ites
tÃ© g
Ġo ct
Ġpa quet
Ġfondament al
att a
A C
P ersonne
us ses
ĠR ou
Ġpouvoir s
amÃ©li oration
Ã©diter ran
r os
Ġal tern
ĠrÃ©gion ale
on di
Ġt andis
Ã©n om
Ġatt endre
Ġint rodu
i ch
Ġor gan
Ġprincip alement
Ãª t
mb ler
Ġreg arde
Ġchar ge
Ġdiscrimin ation
ĠbÃ¢ ti
ĠmÃ©ri te
l or
Ã© ni
ĠB ush
ĠintÃ©ress ant
ĠBr uxelles
b er
ĠdÃ© rou
at te
Ġpro cÃ¨s
av ait
Ġcro y
Ġutilis Ã©
ĠmÃ©di caments
Ġt Ã©
Ġc Åĵur
Ġpour rions
Ġfonc tionne
Ġclim at
ad ministration
Ġtra du
i ce
Ġph Ã©nom
OM C
empl ois
Ġv ise
ĠdiffÃ©r ence
ĠrÃ©se aux
Ġsurveill ance
Ġn um
Ġgouver n
Ġsoulign Ã©
Ġinaccep table
uff is
Ġs oins
Ġv aut
Ġpour ront
ĠPrÃ© sidence
ex emp
Ġjuridi ques
ex c
exp Ã©rience
Ġimpli que
Ġca tÃ©g
esp oir
ĠprÃ©v oit
Ġfac il
ĠmÃ©th ode
ĠimmÃ©diate ment
en contre
qu is
Ã¨ nes
app el
Ġc erve
Ġseu ls
Ġconcent rer
Ġha usse
Ġd anger
Ġp orter
ĠrÃ© vÃ©
Ġ1 3
Ġexp Ã©rience
or de
ĠÃ© mer
ĠstratÃ© gique
ĠP a
augment ation
Ġmo indre
cep ti
Ġcha mp
Ġb out
ois e
am ique
Ġ201 0
app roche
Ġprom otion
Ġchiff res
I rlande
v Ã©es
Ġqu o
Ġr ent
ĠR om
Ġpres se
Ġlim itÃ©
Ġa mi
au ff
Ġdev ait
ĠÃ©t ape
Ġlang ue
Ġcircons t
si vement
utilis er
Ġconcep t
Ġt ort
ĠprÃ© vention
Ġrec ours
Ġbi ais
Ġhum ain
Ã©r itÃ©
ĠÃ©c ri
ĠÃ©n orme
Ġfin al
Ġd yn
Ġti ent
ĠâĢ ľ
Ġeng ag
Ġaspe ct
k i
Ġl it
Ġterr ain
ĠdÃ©fin ition
sp agne
ai der
Ġt aille
ĠdiffÃ©r ences
Ġterroris tes
Ġradi c
Ġr al
T om
Ġpopul ations
Ġpros p
b es
ĠrÃ© el
Ġqu it
os ent
Ġl our
ĠprÃ© t
Ġst atis
Ġpopul aire
opp osition
er ait
in te
Ġsim il
roÃ® tre
ai me
Ġrest ri
ĠsupplÃ©ment aire
Ġsouten u
Ġd r
Ã© rÃ©e
Ġa ra
ense ig
ĠA frique
vi te
Ġcap able
Ġcri tiques
Ġsembl ent
ON U
S on
il ler
Ã©v iter
ĠtÃ©lÃ© ph
exist ence
c tr
Ġv Ã©ri
oi e
Ġcher che
Ġhuman itaire
ĠcrÃ© Ã©
Ġpremi Ã¨res
Ġproch aines
Ġlim iter
armon isation
ĠrÃ© elle
lle z
ĠprocÃ© der
n aire
Ġv illes
Ġac tes
âĢ Ŀ
ĠrÃ© t
dÃ© m
Ġde vez
Ġac teurs
Ġdev ient
ad ap
Ġprof it
Ġgaranti e
Ġlo gique
asi le
auc ra
Ġpoi ds
Ġpar lons
Ġmen ac
P uis
d a
h ors
Ã¨ que
al ler
ati e
Ġpropos er
Ġcor ruption
ĠdÃ©fin ir
ili ation
Â» .
l am
Ġs ources
an vier
fi Ã©s
Ġma xim
Ã©ch elle
Ġconvain cu
Ã©quili bre
Ã© cole
int roduction
Ġemp Ãªcher
Ġessenti ellement
Ġbure aucra
Ġau prÃ¨s
Ġcommun es
Ġ200 6
Ġerre ur
ar b
Ġje une
ue llement
ĠB er
Ġconform Ã©ment
) ,
an e
ĠprÃ© sid
olo giques
Ġcapit aux
ĠconsidÃ©ra ble
in di
Ġcon tient
Ġsu d
l ov
Ġminu tes
Ġpie d
Ġgouvern ance
Ġcomm is
Ġsou mis
Ġinf rastru
ar ge
Ġapp rÃ©ci
Ġ1 4
appli quer
au tÃ©s
ex iste
Ġat ten
ing t
Ġdocu ments
Ġmu tu
Ġrec ons
ĠcontrÃ´ les
Ġs tim
or Ã©
Ġvoi ci
ĠamÃ©ric ains
Ġex tÃ©rieur
Ġv ari
Ġj anvier
Ġpl ans
Ġch u
Ġexp loit
Ġessay er
Ġb aisse
ĠrÃ© action
Ġcon vention
Ġessenti elle
ĠprÃ©v u
Ġreconnaiss ance
ass ur
ĠrÃ©ser ves
e ments
g Ã©es
ĠÃ©le ctor
Ġmoy enne
u mer
organis ation
Ġis ra
S A
ul g
Ġco hÃ©r
Ġab and
Ġcel lu
Ġst ock
Ġt ab
Ġg arder
Ġremar que
o h
Ġpar ents
Ġmar s
P E
al lÃ¨
os Ã©e
Ġfor mes
Ġple in
Ġlet tre
Ġb anc
rit ure
Ġcomplex e
A r
T AN
p ir
Ġf aite
Ġg auche
mi te
Ġal li
Ġtrans form
Ġprof onde
P L
ĠÂ» .
Ġdivers itÃ©
u els
Ġconsid Ã©rer
Ġsal ue
Ġdimin u
g Ã©e
En suite
Ġvi ens
in qui
ci d
dÃ© pendance
U kraine
l Ã©es
Ã¨ tres
Ġdiffic iles
eng agement
onc Ã©
E D
Ġp at
ar ie
Ġre d
ag ent
Ġch ances
Ġtrav aille
ĠL ib
Ġappr is
entrepr ise
Ġ UE
eu vre
Ġli re
Ġreven u
ĠrÃ© gu
Ġin telli
Ġent endre
Ġfr au
Ġaliment aires
ĠcrÃ©d its
Ġcom itÃ©
Ġju ge
an che
Ġte x
Ġ1 7
Ġsouhait ons
Ġsuff it
Ġliber tÃ©s
ĠmÃ©canis me
Ġc lÃ©
Ġa fric
ass oci
Ġentrepr ise
Ã©cu tion
Ġhau te
om bre
ve mbre
con que
ĠrÃ©pons es
Ġre jet
Ġcomp rÃ©h
Ġdire ctives
Ġmar iti
gn er
Ġrest ent
Ġtra fic
Ġam en
Ġexp rimer
Ġmain tien
ĠsÃ© ance
Ġconfront Ã©s
Ġdist ribu
Ġtermin er
i ra
Ġpro ven
ĠcontrÃ´ ler
Ġhist orique
ĠrÃ©flÃ©ch ir
ĠP ME
Ġobser v
Ġfil m
M erci
a f
end a
Ġreg arder
Ġcomporte ment
Ġloc ales
Ġobten u
ĠdiffÃ©r ente
ĠAm Ã©ricains
Ġmulti p
Ã© tr
Ġat titude
Ġabord er
2 00
Ġpri m
Ġno vembre
Ġexc lu
Ġp acte
ti di
Ġex cep
ĠdÃ©fic it
Ġm ains
Ġm ig
Ġt ur
ĠÃ© li
ĠbÃ©nÃ©fici er
S ans
in ation
Ġr Ãª
Ġpr ud
end um
ĠÃ©le vÃ©s
pÃ© rer
ĠrÃ©ussi te
ĠprÃ©cÃ©d ent
O TAN
Ġt yp
Ġv enu
Ġb ons
Ġesp agn
Ġremp lac
ĠgÃ©nÃ©ra lement
Ġaccomp li
M I
Ġli Ã©es
Ġvi vent
acc ent
Ġpremi ers
Ġcirconst ances
Ġg re
Ġpa ci
olo gne
ĠGr ande
Ġ X
Ġca us
ĠI rak
Ġvoy age
Ġouv ert
Ġsug g
Ġstru ctures
Ġrel atif
ĠdÃ©f aut
Ġsuiv ante
Ġtou ch
Ġdis ent
Ġ1 6
Ġst ade
Ġcl asse
inform ations
hi cu
f Ã©rence
Que lle
ĠÃ©le ctr
Ġtrai tÃ©s
exp rimer
Ġbudget s
Ġsecon de
Ġs omme
ille t
des sus
Ġun i
Ġco ord
ĠS t
ĠrÃ©alis ation
Tro isi
ĠdÃ©lÃ©g ation
Ġn avi
Ġcompr ends
inter vention
o w
re use
Ġle ad
Ġche fs
Ġremar ques
Ġpati ents
Ġcon ver
Ġvou lais
Ġprom es
ĠrÃ©v olution
ĠRou manie
i ens
Ġv iennent
ĠcompÃ©t ence
Ġrenouve l
ĠvÃ© hicu
g ra
un ivers
al uer
Ġes time
Ġcommerci aux
adop ter
Ã© ter
ont er
Ġenf ant
Ġquo tidi
I T
Ġs inc
Ġcons oli
Ġcent aines
Ġsujet s
Ġpi re
Ġrepr ises
ront ali
ĠÃ©tu des
Ġli mite
Ġparlement aires
Ġtransf rontali
r ation
â Ļ
alitÃ© s
Ġ200 5
Ġvois in
Ġde hors
Ġn ord
Ġexp Ã©ri
Ġforte ment
Ġgag ner
Ġpa y
par avant
r un
Ġdes s
Ġque lles
Ġjou e
Ġno te
Ġrecommand ations
Ġajou ter
Ġallem and
ĠcaractÃ©r is
A n
i le
Ġl ancer
Ġf rÃ©
Ġav ancer
Ġper dre
ĠmÃ©th odes
on or
Ġf ou
Ġprog res
Ġfr u
Ġsci ence
app elle
Ġcatastroph e
i re
Ġ200 3
ĠÃ©ch anges
Ġencour age
Ġfisc ale
Ġindivi du
ĠÃ©qui pe
ag ers
Ġins uffis
Ġcentr ales
ĠrÃ©fÃ©r endum
Ã© ti
en ez
ac tivitÃ©
Ġder riÃ¨re
itoy ens
ĠvÃ©r itablement
ĠcoÃ» te
Ġappel Ã©
aff ir
Ġouver te
Ġen reg
ĠrÃ©s erve
exp ression
Ġmodi fier
Ġtran si
âĻ «
ĠdÃ©fin iti
Ġcher cher
Ġmus ul
a che
Ã¨ ve
exp loit
ĠÃ©quili bre
en ci
imp ression
Ġconcern Ã©s
l Ã©s
Ġf asse
ra ge
Ġtr ouvent
Ġprop or
Ġcorre ctement
Ġt ol
Ġmar i
Ġsouti ent
Ġconcr Ã¨tes
b ama
in Ã©
ĠÃ©v aluation
Ã§ ant
ĠprÃª t
Ġv oire
ĠR e
exp li
Ġmeille urs
Ġcommerci ales
prÃ© sident
un itÃ©
it ali
ĠdÃ© v
Ġarri vÃ©
Ġlang ues
ĠNe w
Ġqu ot
Ġsys tÃ©
Ġaur ont
Ġdisponi bles
Ġrapp elle
Ġmin oritÃ©s
ĠnÃ©g li
ĠcrÃ©d it
Ġnour riture
rÃ© t
ol ue
Ġimp act
Ġfonction ner
A ussi
Ã© rÃ©s
av ie
Ġop Ã©ration
Ġmont rent
Ġefficace ment
Ġ6 0
J us
ti ci
ĠmÃ©canis mes
Ġdange reux
on ique
is tÃ©
Ġconc itoyens
iss ait
ĠnÃ©goci ation
Ġaugment er
ent Ã´t
Ġab ou
Ġbi entÃ´t
Ġmoyen nes
Ġexpli quer
A sie
t ures
ĠÃ©v olution
ĠsÃ» re
Ġoff re
Ġsubst ances
Ġs ac
Ã§ u
Ġmodi fication
ĠCor Ã©e
Ġat tirer
Ġconsid Ã©rÃ©
Ġdur Ã©e
id enti
ak istan
Peu t
N G
y th
un i
Ġph ase
Ġcan cer
Ã©r ant
ĠrÃ¨g le
Ġfondament ale
Ġauxque ls
Ġfacil iter
u le
Ġs ang
Ġa llez
Ġcomp ens
Ġdisp oser
Ġdemand es
Ġbi ens
Ġpriv Ã©
Ġche f
Ã©tu des
ou tes
ar k
Ã» t
Ġvo ilÃł
im m
ou d
Ġt end
Ġpl aisir
rai gn
ĠP akistan
Ġcommun autÃ©s
Ġchang Ã©
Ġ isl
Ġt ri
os Ã©es
ter net
Ġoubli er
Ġcerve au
ais on
Ġvisi te
ros o
Ġstatis tiques
ĠD e
aur ais
Ġsatisf ait
D Ã¨s
Ġ âĻ«
Ġc ens
ent rÃ©e
Ã¨ se
Ġsitu ations
Au c
Ġ199 9
it ations
Ġou i
Ġfinan cer
Ġprincip ale
Ġinc roy
Ġrapporte urs
ĠÃ©tudi ants
Ġbl anc
t t
u y
on om
Ġapp are
Ġper tin
enti el
Ġcompr end
Ġsep t
Ġth Ã¨me
b res
Ġcont raign
Ġsub s
ĠdÃ©termin er
ou bli
Ġcour age
Ġfam illes
Ġs oy
Ġla b
Ġal lÃ©
Ġdr oite
Ġv ingt
Ġacc us
Ġaccord er
Ġconsomm ateur
Ġappli quer
g ents
u me
ol Ã©
ac itÃ©s
ct ur
Ġremar qu
Ġir rÃ©
Ġjudici aire
Ġ ul
Ġf ille
Ġpr ennent
Ġma ch
b as
o bre
ul n
cti fs
Ġmar che
ex amen
Ġfondament ales
ĠdÃ©ch arge
Ġin uti
Ġh ors
ĠgÃ©n Ã©ration
Ġsouli gne
ĠdÃ©pu tÃ©
Troisi Ã¨mement
uln Ã©ra
u sion
se ur
Ã©t aient
Ġmil ieu
Ġdemand ons
Ġprof iter
Ġmoder ne
ĠprÃ©ser ver
it ables
ct oire
ĠÃ©qu itable
Ġm Ã©r
in dÃ©pendance
ĠdiffÃ©r ent
Ġfaci lement
Ġp es
ai gn
ar me
it ant
Ġex cessi
ut ri
ĠÃ©vi dence
ĠÃ©tu de
Ġliv res
Ġrele ver
ĠBal k
f ondi
g ouver
j u
o vi
Ġv ir
au rer
Ġpro che
Ġex tÃ©rieure
Ġc Ã©
il iser
Ġh an
Ġprot oc
ar te
Ġpl Ã©ni
Ġcap acitÃ©s
Ġexprim Ã©
Ġinfrastru ctures
ĠrÃ©gu li
Ġ itali
Ã© laboration
Ġp an
Ġmarch and
omb e
ĠÃ©tab lir
inf lation
Ġsau ve
ĠCon fÃ©rence
ila tÃ©r
Ġsus cepti
Ġexport ations
ĠphÃ©nom Ã¨ne
re ts
ocra tes
Ġtot ale
ograph ique
Ġsouver aine
ac tu
ĠdÃ©c la
Ġprincip ales
ĠsÃ©rie usement
dic ap
Ġextra ordin
ĠrÃ©flex ion
o Ã¹
Ġv ulnÃ©ra
ne x
ĠP ro
Ġpu iss
Ġflexi bilitÃ©
ne l
ĠrÃ© di
ĠP ologne
Ġmont ant
Ġappr endre
Ġref lÃ¨
Ġrepr ise
Ġisra Ã©li
S E
Ġde mi
Ġn ations
Ġ200 1
Ġactu elles
Ġmeille ures
Ġdispos ons
O Ã¹
er tes
Ġmo de
ap it
Ġfr oi
Ġglob al
Ġf rais
our ir
Ġsou ci
Ġcap ables
Ġcontribu Ã©
Ġlais se
Ġpor tÃ©e
N on
d it
ĠH ong
ĠbÃ©nÃ©fi ces
Ġtransi tion
Ġhan dicap
Ġre vient
rÃ© si
ĠM a
Ġent rer
mi ques
Ġd omm
Ġb ri
Ġses sion
Ġconn aÃ®tre
Mal grÃ©
exemp le
or di
ĠP ort
Ġtravail lÃ©
Ġpens ent
Ġcomment aires
Ġappli cation
Ġl ien
en ant
Ġcomp lÃ©ment
Ġesp oir
land aise
ĠÃ©p oque
onn Ã©
Ġcr ises
Ġtour isme
Ġrelative ment
ĠBalk ans
h e
Ġv ert
Ġ- ,
o blig
Ġvoy ons
visi onnement
Ġr usse
aut ant
Ġaccep tÃ©
Ġfac teurs
Ġfac teur
on ie
Ġaur aient
Ġinstitu tion
ĠlÃ©gisl atif
Ġsc Ã¨ne
Ġ8 0
Ġbure au
gouver nement
si di
Ġacc r
Ġprog resser
ob tenir
Ġbr ut
Ġanal ys
ri ch
at oires
Ġar m
Ġconn ais
tionne ls
Ġerre urs
ĠF MI
Ġpossi bles
an al
as ser
ĠM al
Ġmaj eure
Ġvas te
I sraÃ«l
ĠprÃ©par ation
re uses
is ant
Ġr asse
Ġman ger
Ġag ences
Ġconn aÃ®t
Ġessenti els
or k
Ã¨ ge
Ġes prit
Ġposi tions
Ġaur ons
ĠtÃ© moi
Ġ iss
Ġm ises
si f
ĠÃ©v olu
ill age
er c
is Ã©
Ġvi ande
ĠF in
ĠÃ©trang ers
Ġdivers es
Ġvoul oir
Ġambiti eux
ĠplÃ©ni Ã¨re
Ġd o
Ġc la
Ġvou lu
Ġdou ble
arm Ã©e
ar es
Ġh onn
Ġcommun i
Ġor ig
d ation
ou er
Ġsub ventions
ĠconsidÃ©ra bles
ĠdÃ©l ai
enseig nement
r il
Ġau paravant
Ġconstitu er
ret agne
Ġcal end
Ġcal cul
en h
Ġcon duite
c rit
Ġper te
alis Ã©
Ġconstitu tion
Ġexemp les
Ġcommerci al
Ġexamin er
Ġquot as
vi end
Ġcar te
Ġmati Ã¨res
Ġcruci al
ins titu
Ġsav ent
Ġ20 20
fi Ã©es
s ter
as h
Ġchois ir
ĠrÃ©t ab
Ġ ordre
Ġtr ou
ain te
Ã©r ance
Ġob jet
S a
ĠC O
ins tant
Ġamb i
ĠcrÃ©di bilitÃ©
Ġg Ã©rer
itu de
Ġgar de
Ġb les
Ġpriv il
Ġinvestisse urs
Ġquanti tÃ©
Ã ¡
ad es
ĠdÃ©p l
Ġ200 2
ĠÃ©c l
ĠconsidÃ©ra blement
Ġcompag nies
Ġre ti
Ġsu Ã©d
ĠtÃ©lÃ© vision
Ġferme ment
Ġcondu it
Ġo euvre
Ġ2 1
ĠprÃ©p arer
g yp
li e
Ġcomp ter
Ġbre ve
C ar
Ġf onde
ĠrÃ¨glement s
ĠPa ys
b ation
ti es
ro vi
Ġaff ec
Ġraisonn able
os ti
Ġch ale
Ġsuiv ant
ĠrÃ©du it
Ġfam ili
Ġanal yse
Ġcellu les
m ans
ĠÃ©qu iv
ctri citÃ©
ĠcomplÃ¨ te
o di
tis s
ĠÃ©vo quÃ©
am er
Ġvoit ures
ĠSu Ã¨de
l itÃ©
ar rÃª
Ġf ins
Ã¨ vement
Ġo bli
ex cel
Ġpermet tent
en cour
on du
Ġcol lab
b al
ar r
alis Ã©e
Ġacc ueil
Ġactu els
Ġjou Ã©
Ġcour ant
ĠreprÃ©sent ant
Ġprosp Ã©ritÃ©
Ġorganis ation
Ġmodi fications
Ġb ar
Ġjus tement
Ġesp ace
Ġpar aÃ®t
Ġutilis Ã©s
Ġenti Ã¨re
C ha
en ons
te lle
Ġpr Ãªte
ne lle
Ġsub sidi
Ġim mi
Ġprotoc ole
ster dam
Ġin nov
Ġinter gouvernement
Ġins ister
Ġtravail lent
ĠÃ©le cteurs
cid ents
c cident
Ġtent er
Ġappro fondi
Ġfavoris er
Ġtrib un
on ce
Ġattend ons
Ġmoder n
ou Ã©
Ġeff ort
auc un
ĠPort ug
o ine
Ġf Ã©
Ġre lÃ¨ve
Ġcri mes
ĠBar roso
e d
m ar
Ġsur f
Ġsou m
ĠrÃ©gi mes
Ġparlement s
Ġconsul tation
Ġoccu p
Ġcitoy en
im ag
Ġgaranti es
ur ant
ĠdÃ©tail s
re tte
ĠÃ© chec
ĠrÃ© si
and es
Ġcl ari
Ġposi tifs
Ġop Ã©rations
ĠÃ©ner gie
ĠU SA
Ġfig ure
ĠdÃ©cen nies
c k
Ġl ancÃ©
Ġt ch
Ġ2 7
Ġsy mb
Ġretr ait
Ġsatisf ais
Ġrur al
Cha que
g arde
Ã¢ ge
Ã© chec
Ġe aux
Ġv ites
ĠrÃ©c ente
Ġestim ons
Ġgre c
N os
ĠdÃ© lais
Ġcont ent
acc omp
Ġju illet
Ġmention nÃ©
c omm
Ġj apon
ĠS erb
Ġral enti
Ġb el
Ã® ne
Ġjour nÃ©e
ĠI I
Ġrecev oir
assur ance
C P
T outes
Ġin jus
Ġpos te
Ġcombat tre
C eux
E spagne
Ġb ois
app rÃ©ci
ex amin
Ġquel s
ph Ã¨re
Ġnature lles
Ġorient ations
anim itÃ©
Ġphy sique
ĠvÃ©hicu les
e uses
l en
Ġs in
ĠrÃ© cession
Ġvo tes
Ġautom ob
Ġendro it
Ġmariti me
un is
Ġre qu
Ġces se
che ment
Ġfr ont
Ġqua si
Ġfu ture
Ã©tab lir
Ġcalend rier
I talie
Ġd iss
tte ment
ĠdÃ©c ou
Ġar gent
Ġcrimin alitÃ©
Ã©tr anger
Ġsubsidi aritÃ©
p it
Ġvi eux
Ġprofond Ã©ment
A vant
Ġ Vous
Ġf au
Ġh or
Ġh yp
eau coup
Ġindi quÃ©
Ġmu sique
Ġobstac les
t rÃ©
ĠÃ© tions
ch auff
ĠP PE
Ġh uit
Ġinter prÃ©
Ġfer rovi
Ġim age
Ġchois i
Ġvoul ait
Ġsc and
h armonisation
ri me
end ent
Ġdev rons
Ġco de
ex ercice
Ġsa ur
Ġparven us
Ġtab ac
R e
Ã© b
Ġp ure
Ġla c
Ġet c
ĠC ong
Ġmo bilitÃ©
Ġ19 7
Ġcarb one
Ġfrau de
Ġpl aÃ®t
Ġvi es
Ġpass agers
ĠrÃ©gion al
Ġreg rette
Ġinf luence
Ġre ce
ĠprÃ© al
iss aires
Ġpers onn
ĠdÃ©p lac
Ġn av
Ġtou che
Ġmaj eur
Ã©tab lissement
Ġcy cle
Ġf al
ĠC op
mi que
Ġtyp es
ĠPortug al
5 0
Ġcon duire
Ã´ ts
oy er
ex Ã©cution
Ã©qu i
Ġsy mp
Ġsouten ons
Ġfavor ables
Ġdeven ue
P r
Ġet h
de z
ag issant
Ġser ons
imp li
Qu ant
Ġr ob
Ġapp ortÃ©
Ġcl aires
ĠD ieu
Ġconcern Ã©es
vers e
ann Ã©es
Ġpuis qu
aff aire
Ġessay Ã©
Ġpermettr ait
o k
o z
Ġapp arti
ĠlÃ©gi tim
Ġpollu tion
Ġs ent
ch ant
Ġac tivitÃ©
Ġfut ures
Ġcommerci ale
Ġir landais
Ġrencont rÃ©
oh n
P endant
Ġc iter
Ġv endre
est ation
gu er
Ġfais ait
Ġpuis sions
ĠentraÃ® ner
Ġexcel l
t ables
Ġc am
Ġm erci
oi ent
Ġdi c
Ġann uel
ĠdÃ©s as
eng en
Ġn omm
Ġsouhait ent
Ġphot o
Ġrenouvel ables
Ġtr u
la ce
ĠdÃ©p ass
ĠK y
Ġemp run
Ġcri me
eng ager
ĠthÃ© orie
Ġs Ã©v
Ġs port
an itÃ©
in d
Ġli c
Ġfin ir
Ġma Ã®
ĠintÃ© ri
sse ment
Ġ5 00
Ġver sion
Ġpratique ment
enh ague
a ci
Ġinter ven
Ġexp erts
ĠD an
Ġcri ti
Ġrou ti
Ġa ch
Ġsi gne
av Ã¨re
ins tru
ĠB rÃ©si
Ġsol d
Ġlaiss Ã©
Ġcontinu ent
Ġavanc Ã©es
f e
Ġs il
us er
end ue
ot o
Ġst ab
Ġph ras
Ġsupp rimer
Ġinf lu
Ġculture lle
atte indre
gyp te
ĠindÃ© pendant
Ġconcep tion
S eu
m atiques
exploit ation
B as
Ġb ate
Ġsou p
ĠrÃ©un ions
Ġfl ux
ĠSch engen
Ġminim um
ĠCop enhague
Ġa mp
Ġin telle
Ġpro c
Ġmo tiv
alis Ã©s
ĠgÃ©n Ã©tique
ĠrÃ©alis Ã©s
appro visionnement
Jus qu
B eaucoup
o int
s y
Ġla tine
Ã©r op
Ġ2 4
Ġpi Ã¨ce
Ġdifficul tÃ©
Ġli ens
Ġrep ose
Ġpropos Ã©s
Ġrev anche
inf luence
O ui
Ġprob able
Ġsoci aliste
Ġdit es
exp ort
Ġ% .
accep ter
Ġp ou
Ġr are
Ġaccep table
Ġ7 0
Ġpropri Ã©tÃ©
Ġpaci fique
Ġintelle ctu
ĠnÃ© cessi
ob ser
ĠprÃ©occup ation
ĠnÃ©cessi te
m ation
Ġh armon
Ġper form
ĠcrÃ© e
Ġeur os
Ġenvis age
Ġtax e
lan tique
ĠS h
ĠH am
ĠrÃ©gion ales
Ġfourn it
ĠÃ©li min
Ġh Ã©
Ġaff e
Ġpersonne llement
ĠO bama
Ġ199 8
Ã©le ctricitÃ©
Ġ9 0
ĠextÃ©rieur es
b ourg
h Ã©rence
or ient
Ġdi vis
ain t
aut oritÃ©
isi ons
Ġrel atifs
ĠrÃ©g ler
Ġcer tes
Ġoct obre
Ġchu te
l it
Ġm ent
Ġr u
Ġsur m
ĠP alestini
Ġad ress
Ġpart ager
ĠCh yp
ĠprÃ©c ise
ĠBrÃ©si l
Ġ On
Ġb ilatÃ©r
Ġch apit
ĠB ulg
ĠrÃ©p ondu
Ġpens Ã©
Ġenvis ager
Ġinqui Ã©tudes
Ġoccident aux
Ġorig in
ci eux
aiss ent
Ġhum aines
Ġpublic itÃ©
Ġcatastroph es
Ġcapit ale
Ġreli gie
Ġmulti la
Ġtemp or
Ġdeme ure
Ġrecons truction
ar rÃªt
ment ation
ĠC ro
Ġcommun s
Ġapprouv Ã©
Ġau di
ĠÃª tres
Ġsus p
Ġpreu ves
Ġsau ver
Ġposs Ã¨de
ti ennent
Ġf as
Ġpr ie
ĠrÃ© chauff
Ġil lus
Ġformul er
ĠadÃ©qu ate
hum anitÃ©
B retagne
h ou
Ġbien ven
Ġexist ent
Ġrecommand ation
Ġrecher ches
Ġprofessionne lle
Ġmarchand ises
Ġn oir
ĠC an
cti vitÃ©
Ġfin i
Ġinter ne
Ġca uses
Ġenvironnement ale
Ġsec rÃ©t
Ġauxque lles
k a
Ġs pect
Ġac te
Ġimport ations
ĠG u
ĠL iv
Ġpropos Ã©e
Ġnature l
Ġoff rir
Ġconst ate
Ġlead ers
app ar
ĠprÃ© venir
ĠA llemagne
ganis ation
Ġloc aux
Ġaccr ue
on y
Ġpa p
ĠdÃ©p it
ente ment
Ġpens ais
Ġviol ations
Ġense ign
enf ants
l as
ĠrÃ© agir
Ġapp or
ĠB CE
Ġdyn amique
Ġrestri ctions
E h
ĠC ol
Ġconc iliation
Ġconsci ents
n Ã©es
Ġf o
Ġar tis
ass istance
Ã©v rier
ĠÃ©tr oite
Ġtechnolo gique
aur ait
Ġchiff re
onn Ã©e
Ġpass age
Ġsal ari
Ġsoli de
Ġretr aite
ĠsystÃ© matique
examin er
ĠBulg arie
Ġl on
Ġm orts
Ġm erve
Ġb u
ĠamÃ©li oration
a j
os se
ĠÃ©v alu
Ġinc ap
omb ien
ĠÃ©vi d
ĠmodÃ¨ les
ĠfranÃ§ aise
a jou
Ġpour suite
app orter
Ġli qui
Ġprob lÃ©
ĠG az
Ġpense z
Ġutilis ation
Ġfonction naires
Ġanci ens
A gence
B on
Ġb lo
ĠC ar
Ġresse mble
associ ation
m Ã©di
Ġ Ils
ul aire
Ġdev iennent
Ġimp oser
Ġenvironnement ales
lov a
Ġs ovi
Ġun s
Ġress ort
appli que
Ġver tu
te z
Ġf all
Ġdes truction
Ġb ord
Ġvi dÃ©
Ġper tes
Ġorganis mes
ur Ã©
un animitÃ©
Ġreconn u
eff et
ĠÃ©ch elle
Ġparten aire
Ġarti cle
Ġa x
Ġex Ã©cu
Ġmar que
Ġinter venir
Ġinst all
Ġconvainc re
ĠcomprÃ©h ension
Ġnavi res
C ertes
Ġimp ression
ĠS e
gn itÃ©
ĠprÃ©sident s
Ġcin qu
ĠdÃ©li c
Ġargu ments
i k
t an
ent endre
Ġre mettre
Ġpai ement
Ġinf Ã©ri
ĠamÃ©ric aines
Ġmention ner
ĠtÃ¢ ches
Ġappropri Ã©e
augment er
ĠdÃ©couv ert
Ġremarqu able
ĠdÃ©bat tre
Ġaugment Ã©
Ġconser v
o Ã»t
ĠÃ© coles
Ġcont act
ĠdÃ©p osÃ©
Ġpri or
Ġcul tures
Ġindustri elle
Ġbl oc
Ġsp Ã©c
ĠY ork
ĠrÃ©par ti
Ġouti ls
u ad
Ġf Ã©vrier
Ġdi gnitÃ©
Ġpos t
ĠV erts
tive ment
ĠintÃ©rieur es
Ġin Ã©v
ag issait
ac k
ĠA fghanistan
Ġpouv aient
ĠprÃ©s ents
Ġop inion
ĠlÃ©gisl atives
ĠÃ©nergÃ© tiques
Ġsubst anti
en di
Ġm ic
ĠÃ© lu
Ġi rak
Ġfinan ces
inter diction
Ġsyn dic
allÃ¨ lement
ĠPalestini ens
Ġd en
Ġp sy
ay er
Ġ199 7
ĠÃ©ch ange
ĠpÃªche urs
Ġban que
Ġ 0
Ġf illes
Ġdes c
Ġsupp ose
Ġpai ements
ĠdÃ©termin ation
cri ption
Ġreligi on
Ġsouveraine tÃ©
oblig ation
an a
tr as
ĠG Ã©
ĠE ur
Ġaff ai
Ġautre ment
Ġrest ru
Ġpres sions
Ġsal aires
Ġpriv Ã©e
Ġconnaiss ent
Ġintergouvernement ale
ĠdÃ©sas tre
g ente
Ġd on
Ġde grÃ©
or gie
est re
Ġre j
Ġdis ait
cu le
vers aire
Ġplan i
Ġviol ation
chi te
Ġk il
ĠlÃ©gitim itÃ©
ou g
ĠprÃ© cÃ©
Ġor ateurs
Ġappli c
Ġali ments
Ġhabit ants
Mes dames
ajou ter
v ons
Ġf ils
il is
tÃ© rale
ni er
Ġdis ant
ĠS y
Ġ199 0
Ġrev Ãªt
Ġorgan es
Ġvites se
Ġav ril
Ġmen aces
Ġconnaiss ons
Ġfix er
Ġay ons
ctri ces
Or ganisation
oi vent
Ġg ui
Ġh onte
Ã´ pit
ex tÃ©rieur
ĠT erre
ĠSerb ie
si as
Ġf Ã©d
Ġh om
Ġsou d
ĠdÃ©c lin
Ġfond Ã©e
Ġsimp les
Ġinc ont
Ġutilis Ã©e
ĠsÃ© le
Ġremar quer
Ġmerve ille
O b
or es
Ġin con
Ġcomm issaires
iss on
Ġinform ation
Ġang lais
rÃ©ti ens
er ti
ĠÃ ®
it ons
Ġpr ati
Ġb il
Ġac tifs
Ġpriv Ã©s
ĠprÃ©cis er
Ġminu te
ĠaÃ©ri en
Ġdes sus
ant er
Ġb o
Ġcon join
Ġcro issante
ĠintÃ© gr
Ġadop tÃ©es
Ġorganis Ã©
Ġm Ã©n
Ġf ail
emp Ãªcher
ĠdÃ©b ou
ĠrÃ©p Ã©ter
Ġconcern ent
ĠgÃ©nÃ©r ations
ole il
Ġtent ative
Ġsurf ace
ĠrÃ©si de
i a
Ġr ation
Ġmo teur
tr ait
ĠrÃ©s olu
Ġinter ventions
ĠAm Ã©rique
onor able
in ions
li ons
Ġtrans former
Ġress or
Ġdestin Ã©es
Ġache ter
Ġara be
hou sias
d Ã©c
ĠprÃ© ju
Ġrapp ro
Ġvi ctoire
Ġrencont re
Ġindivi dus
ĠamÃ©lior ations
a vec
ĠrÃ©p u
Ġpropos Ã©es
Ġretr ouver
Ġneu f
Ġmaxim um
ĠcohÃ©r ente
li te
Ġpour s
ie l
Ġmo des
Ġco hÃ©rence
ĠrÃ©p erc
Ġmilli on
ĠI rlande
Ġfronti Ã¨re
Ġur b
Ġendro its
ĠdÃ©mar che
Ã©qui pe
ĠB os
Ġmondi aux
ĠlÃ©gisl ative
arri ve
Ġconst a
ĠexpÃ©ri ences
l ong
un ion
Ġpar oles
Ġli Ã©e
Ġfin ance
Ġat ti
Ġph il
Ã©diterran Ã©e
Ġsinc Ã¨rement
as t
ĠM ac
gn Ã©
ĠrÃ©glement ations
Ġoblig atoire
Ġbri Ã¨vement
export ation
ĠHam as
ĠLiv re
Ġn aiss
Ġle Ã§ons
it ants
ĠrÃ©s olutions
Ġhab itu
Ġrati fication
Ġsignific ative
Ġfru its
ĠGÃ© orgie
ag Ã©e
ĠE lle
vers itÃ©
Ġcor ri
eff ond
ĠO NG
inter net
tis ation
Am sterdam
Ġdestin Ã©s
Ġexist antes
Ġhau teur
O ccident
Ġqu in
ro it
ter a
Ġac qu
ux emb
ge ment
Ġrepr endre
ĠChyp re
Â «
or ies
ĠÃ© tats
Ġatt entes
Ġri che
ĠdÃ©velopp Ã©s
Ġvoisin age
r y
Ġp Ã©ti
ol d
fi ci
Ġsensi ble
ĠreflÃ¨ te
Ġre qui
Ġre tirer
Ġpos Ã©
Ġconser ver
Ġregret table
Ġextraordin aire
Ġdic tat
ĠGaz a
Ġb elle
de m
Ġsur vi
ĠM Ã©diterranÃ©e
Ġsi te
ĠT ch
Ġconstitu tionnel
Qu oi
Ġinc omp
Ġur gent
cev oir
ĠrÃ©chauff ement
m a
Ġc op
Ġimp Ã©ra
Ġsupp ression
Ġesp Ã¨ces
comm un
c y
ra y
Ġvi a
ĠintÃ© grÃ©
Ã©li min
ĠprÃ©sent ation
Au tre
l ou
Ġd ra
Ġdi z
Ġpoli tici
Ġacc roÃ®tre
Ġmet tent
Ãī tant
Ġsuffis ant
Ġtomb er
Ġsignal er
exc lusion
Ġmen Ã©
Ġchi miques
Ġdimin uer
ĠKy oto
ĠintÃ©ri eure
g rÃ©s
u elles
Ġen quÃªte
ĠS i
Ġcl as
Ġdom in
Ġbas Ã©e
Ġradi o
ĠrÃ©perc ussions
v a
ou tine
Ġs tu
ĠÃ© du
au teur
ra t
Ġme ur
Ġcont ro
Ġdro gue
ĠL ond
Ġmen Ã©e
Ġessenti elles
ĠcÃ´ tÃ©s
Ġall ait
Ġsenti r
anci en
Ġintrodu it
ĠbÃ¢ti ment
Ġfau te
Ġg ri
Ġdev i
Ġcomp os
ver bal
ĠprÃ©v ue
es ti
Ġsou mettre
Ġmar ge
ĠÃ©le ctri
Ġass umer
ĠCh arte
Ġeffic acitÃ©
Ġsign Ã©
Ġno tion
ĠmÃ© m
Ġsouv enir
tras bourg
u k
Ġr yth
Ġpro long
Ġser t
Ġavant age
Ġconnaiss ances
Ġrev oir
inf rastru
Ã©tu di
Ġtransf ert
Ġsold ats
Ġm ur
ĠdÃ© tru
Ġin dustrie
Ġces ser
mi di
Ġtrans it
Ġrel ance
Ã©ra ble
im age
Ġrou ge
Ġbanc aire
ĠrÃ©parti tion
Ġm asse
Ġb arri
Ġli Ã©
Ġcentr al
Ġgu Ã¨re
h ique
Ġch ien
ĠM ex
Ġrespe cte
Ġcontrib ue
Ġjusti fier
Ġuti lise
Ġregarde z
A fghanistan
d on
r omp
ys t
ĠnÃ© er
Ġaut or
Ġutilis Ã©es
i dÃ©
ri ble
ni ers
ine z
ĠdÃ©mocra tes
Ġaur ions
Ġport ant
Ġsort es
Ġadministra tives
Ġremplac er
h eur
ĠM c
enti ss
ĠprÃ©sent Ã©e
Ġbas es
Ġcha mbre
ĠrÃ©c lam
Ġrencont rer
Ġbritan niques
b i
Ġch oc
aut oris
ĠG e
Ġvrai e
Ġvoi ent
abord er
Ġpropor tion
Ġa si
er n
Ġf aux
Ã¨ le
at titude
ac cÃ©
ĠM il
ouv rir
Ġappropri Ã©
ĠtÃ©lÃ©ph one
m un
Ã© par
ĠS trasbourg
Ġsouff r
Ã©diterran Ã©
Ġprim ordi
c Ã©s
Ġl anc
en cer
ĠPar ti
ĠA CP
Ġsouh ai
Ġbr as
auc une
Ġmouve ments
Ġdiminu tion
G r
h y
mi d
Ġins tant
ĠF ran
Ġsal le
Ġcandid at
ĠIn ternet
li ance
Ġdev rais
Ġcomp let
Ġvi vant
Ġpubli Ã©
Ġmilli ard
Ġmen Ã©es
Ġpens Ã©e
Ġajou tÃ©e
Ġrestru ctur
ur de
Ġob je
ĠdÃ©ci de
Ġcontinuer a
Ã©le ction
Ġactive ment
oug os
A R
M me
P T
R ien
oi tement
Ġinter nes
ĠÃ©c ologique
Ġlib res
Ġavanc Ã©e
Ġmusul mans
ĠLond res
m os
p ro
ra lement
Ġre join
ten sion
onne ur
Ġvi vement
Ġprog ress
Ġprodu ctivitÃ©
ĠstratÃ© gies
Ġci b
Ġnorm al
ĠintÃ©g rÃ©e
Ġsimil aires
Ġtch Ã¨que
Ġspect ac
Ġfall ait
entiss age
d o
t ait
Ġ we
Ġpour rais
Ġvi ce
ĠdÃ©c ri
ĠrÃ©p and
ĠrÃ©p Ã¨te
Ġcontribu ables
Ġinv itÃ©
ĠdÃ©fic its
? "
ort ent
ĠP our
Ġ2 3
Ġtrouv ons
Ġscand ale
c ter
g Ã©di
al ent
Ġpas sion
Ġmo tion
Ġcl Ã©s
Ġcoop Ã©rer
Ġjou ent
ĠrÃ©du ctions
ĠÃ©ner gies
Ġheure use
ograph ie
Ġconsul t
ĠCro atie
Ġ Qu
ag nes
Ġes ti
ori z
Ġinvesti r
Ġp il
in vite
ar g
am i
Ġacc Ã©lÃ©
Ġcomb in
Ġdistribu tion
utri che
Ġpap ier
Ġsovi Ã©tique
Ġr usses
Ġdes ign
Ġcont en
lÃ¨ vent
Ġpos tes
Ġprotection n
ĠgÃ©nÃ©r ales
Ġcommis sions
Ġferrovi aire
Ġl in
ch t
Ġexp l
lu sieurs
Ġinc l
Ġtour ner
ĠsiÃ¨ ge
Ġtax es
Ġreje ter
Ġallem ande
Ġenreg ist
arrÃª ter
N L
Ġre ten
Ġvi g
Ġper Ã§
Ġop inions
ĠprÃ©v oir
ĠspÃ©ci al
Ġaugment e
ĠarrÃª ter
ĠÃ©lectr onique
Ġbles s
Ġjapon ais
c in
in tes
si m
Ġpo issons
Ġdire cteur
Ġes c
ig er
ĠÂ» ,
Ġatta ques
ĠrÃ©guli Ã¨rement
Ġv ente
os oph
Ġser ais
Ġdemand ent
Ġculture l
Ġtent Ã©
Ġexist ants
Cert aines
off re
Ġconver gence
Ġmach ine
Ġpsy ch
Ġryth me
g entes
on ais
ar mes
Ġtra gÃ©di
Ġpers uad
Ġcr ains
ĠdÃ©velop pÃ©
Ġinc ombe
Ġ199 6
Ġinqui Ã©t
anal yse
ĠprÃ©al able
Ġphil osoph
C A
C ombien
e k
Ġc Ã©rÃ©
ch Ã©s
Ġg uer
Ãª ts
ac ts
Ġmon op
Ġdis cip
Ġdire cte
Ġad hÃ©sion
occu p
m ission
Ã© re
Ġr om
Ġex amen
Ã©r ences
Ġress enti
ĠÃ©tr oitement
ĠrÃ©ussi r
atri Ã¨me
ĠlÃ©gi time
Ġouti l
as p
op portun
Ġb le
Ġre mb
ĠP outine
ĠT ED
Ġcommun iste
Ġemp Ãª
Ġim ages
Ġeng end
Ġsal u
Â» ,
ĠlibÃ©r aux
Ġindustri es
Ġciv ils
ĠFin lande
I S
r om
es tement
Ġa p
an ais
ra ction
Ġins pi
Ġfor cÃ©
ĠG uerre
ess entiel
appro bation
Ġenvoy Ã©
ĠprÃ©sid enti
r in
Ġs ti
Ġac cident
Ġcomp lÃ©
ĠnÃ©cess airement
Ġfer ont
accord er
Ġarri Ã¨re
Ġclair s
Ġbre f
Ġtest s
Ġpromes ses
Ġincroy able
ĠproblÃ© matique
t a
Ġt ox
Ġpo isson
int roduire
ĠT h
ass ent
ĠdÃ©t our
Ġenvironnement aux
Ġriches se
ĠsupÃ©ri eur
Ġespagn ol
Ġr ue
Ġv olu
Ġj eux
Ġcon Ã§
ni versaire
Ġparticip Ã©
Ġsau f
Ġsec ret
oncer nant
ĠPro di
I D
l ine
u yer
le urs
ĠÃ© lar
Ġfor Ãªts
Ġdonn ent
Ġab us
Ġsatisf aire
Ġdiscu tÃ©
Ġattend ent
Ġsoule vÃ©
ĠindÃ©pend ants
ĠvulnÃ©ra bles
ĠdÃ© ri
ch ons
os s
end ront
co ol
ĠA sie
Ġst able
Ġdonn Ã©e
Ġreconn aÃ®t
atri ce
Ġimag iner
Ġsurm onter
Ġ Uni
Ġp ier
qu ons
or iques
Ġimp ati
Ġquel conque
je un
Ġprofes seur
Ġabord Ã©
Ġrend ent
ĠÃ©tudi er
ĠindÃ©pend ante
Ġexer cer
Ġtex tes
Ġcla use
E L
P as
g le
v iennent
ĠÃ© loi
Ġb Ã©b
ĠÃ©t onn
ĠdÃ©p endance
ĠÃ©v aluer
ĠrÃ©gion aux
Ġloc al
Ġsug gÃ©
Ġbureaucra tie
Ġproven ance
P lusieurs
Ġp ilier
Ġc ad
or ce
Ġt re
Ġv acc
ĠprÃ© ven
fi ent
Ġpoli ci
Ġapp orte
Ġdire ct
Ġsoci alistes
Ġorganis Ã©e
Ġpartis ans
Ġinten tions
Ġviv ons
Ġpour cent
av aient
Ġdire ctrices
Ġob s
Ġar r
mis me
aur ation
Ġpen cher
ĠdÃ©cen nie
ĠmÃ©r itent
Ġconc ert
ong ro
Ġfer ait
Ġutilis ent
Ãī tats
Ġgra tu
Ã©rÃ© es
Ġlang age
voy er
Ġpren ons
ĠCan ada
Ġv erre
ĠprÃ© con
ĠdÃ©c len
gu is
Ġop tim
Ġhist oires
Ġdiz aines
s on
al a
ais sez
fi ant
Ġ2 2
ĠdÃ©p osÃ©s
Ġai mer
isse ments
Ġatt ribu
ensi ble
Ġfix Ã©
ĠdÃ©mont rÃ©
enf ant
Ġign or
Ġchale ure
Ġphras e
ĠC E
ist ant
Ġconsid Ã©rons
Ġfonc tions
ĠÃ©tr ange
Ġouv rir
Ġrur ales
Ġaltern ative
ĠcatÃ©g orie
Ġhonn Ãªte
encour ager
Ġexcell ente
Ġmultila tÃ©r
C oncernant
Ġp al
Ġs oin
ur ants
Ġv in
ĠrÃ© els
Ġse mbler
Ġh y
Qu elles
ĠÃ©ch app
Ġ201 1
Ġcomplex es
Ġtradi tion
Ġreje tÃ©
Ġsimpli fication
ĠÃ©lector ale
Ġden rÃ©es
o Ã¯
Ġm ac
est ations
Ġdi rais
acc ueil
Ġorient ale
Ġsoy ons
ĠdÃ©pl oy
Ġapparti ent
ar tÃ©
ĠM in
cu m
ĠE uropÃ©
Ġremp lir
ĠdÃ©si r
amp leur
ĠSy rie
m Ã©e
li f
Ġin tention
ouv Ã©
Ġ? "
Ġvie il
Ġcent res
ĠRom s
ĠrÃª ve
L eur
in n
ĠrÃ© mun
Ġg ard
end rait
ĠstratÃ© giques
att ends
Ġ199 5
Ġcontra ts
Ġpous s
Ġinuti le
Ġen d
Ġin vite
oc ation
Ġdis ons
ĠB ro
ass in
Ġappr ouver
Ġprom is
Ġconstru ctive
Ġport ent
ĠintÃ©ress ante
Ġdispos ent
Ġterrit ori
Ġjourn alistes
ĠÃ¢ ge
dÃ©c ision
l ait
Ġs aisir
Ġm Ã¨
Ġpar ad
la cement
ĠnÃ©goci er
Ġfai m
Ġsatisf action
Ã©tique tage
ĠcaractÃ©ris tiques
Auc un
ĠfÃ©d Ã©r
D u
ter r
Ġas se
Ġcha Ã®ne
Ġmis sions
Ġvit al
Ġconfir mer
adap ter
Ġmutu elle
Ġsuscepti bles
Ġautomob ile
Ġchapit re
Ġc ab
Ġqu atriÃ¨me
ar c
Ġr ig
Ġmo dÃ©
Ġass is
ĠdÃ©f av
Ġsc Ã©n
Ġconseil s
Ġisl am
ĠcÃ© lÃ¨
R O
an di
or gan
Ġin Ã©galitÃ©
ut ation
Ġann oncÃ©
Ġprodu isent
Ġmani p
Ġprin temps
imp oser
Ã¢ ts
att endre
C omp
S es
s h
on iques
ti c
si ble
us ti
Ġco dÃ©cision
Ġaut onom
Ġinter institu
acc roÃ®tre
mis tes
ĠdÃ©fin i
Ġpriv Ã©es
Ġsuc re
Ġten sions
Ġfisc ales
Ġterrit oires
Gr Ã¢ce
ĠscÃ©n ari
en quÃªte
ar a
ar us
Ġai me
Ġgaranti ss
Ġsupp rim
Ġport ug
Ġconst amment
ĠentraÃ® ne
ĠÃ©vo quer
ĠMex ique
b on
Ġr avi
Ġt ari
el ui
Ġh ongro
ien nes
tr oi
Ġconc rets
Ġseu les
Ġutilis ant
ĠrÃ©alis te
Ġrenfor cÃ©e
ĠrÃ©c entes
Ġmas sive
Ġopportun itÃ©s
Ġv Ã©cu
eu ille
ĠM erci
Ġfin ale
Ġes pÃ©rer
Ġrest re
ĠreprÃ©sent er
hab itude
Ġemploy Ã©s
Ġobstac le
ĠÃ©quilib rÃ©
ĠBel arus
Ġtransform ation
Ã ¼
Ġf urent
Ġv ac
ĠrÃ© uss
Ġent am
ad resse
ass es
Ġvis age
ĠmÃ©di ateur
Ġdou tes
ĠdÃ©g Ã¢ts
Ġprofessionne ls
Ġstock s
Ġin vent
at ur
Ġpouv ais
Ġcompr ennent
ĠI ran
Ġinc lure
Ġfi er
Ġiniti ale
Ġdestin Ã©
appr entissage
entrepr ises
Ġmanifest ations
Ġprison niers
A vez
Ġl ait
Ġc uis
Ġv ain
Ġpro ches
Ġne ttement
ĠB ir
Ġca f
Ġsal uer
cri re
Ġsugg Ã¨re
le y
Ġle Ã§on
ĠÃ© lus
Ġb us
ĠC om
Ġtr oupes
ist ent
Ġtrans at
ĠdÃ©bat tu
ĠrÃ©c ent
Ġint roduire
Ġsensi bles
ĠfrÃ© qu
ĠBos nie
v al
an sion
Ġen qu
ais ser
Ġh ui
Ġtrans actions
ĠdÃ©b u
ĠgÃ©n Ã©
Ġgouvernement ales
ĠvÃ©r itables
ĠdÃ©li b
Ġvir us
d itÃ©
Ġs ites
Ġr ang
Ġv ague
ĠrÃ© vis
ĠintÃ© gration
Ġmondi ales
Ġrem Ã©di
b at
m en
Ġs oleil
Ġf ant
Ġpl af
Ġaut oritÃ©
sie z
Ġpass Ã©e
ĠÃ©ch Ã©
ĠbÃ¢ti ments
C on
Ġp Ã©r
rÃ© g
Ġir an
inst ar
Ġconven u
Ġpalestini en
ĠvidÃ© o
l ob
our se
ri que
ra d
end us
ĠrÃ©p ression
Ġconsid Ã©rÃ©e
Ġposi tives
ĠaÃ©ri ennes
Ġcompag nie
Ġpour riez
ĠrÃ© cu
de ment
Ġac cessi
Ġac quis
ĠD Ã©pu
ĠlÃ©g ale
Ġbr uit
Ġconstru it
Ġfourn isse
Ġcruci ale
Ġquotidi en
Ġpolitici ens
Ġf re
ens es
Ġh Ã©r
Ġseu il
Ġag gra
Ġcitoy enne
Ġeng agÃ©
ing ton
Ġpi Ã¨ces
Ġrepr is
Ġfort es
Ġmanif estement
A pp
Ġen j
di te
Ġmo tifs
Ã©ri r
Ġas pir
Ġrep os
Ġindi c
Ġabs ten
Ġmor ale
Ġdange reuses
Ġaltern atives
i mb
m ain
Ġt es
Ġf oi
oc troi
Ġpolitique ment
ĠB i
Ġad mettre
Ġsal aire
amende ments
Ġopp os
Ġconsac rÃ©
Ġperman ent
ĠÃ©quilib rÃ©e
Ġargu ment
ĠsÃ©le ction
Ġguer res
ĠdÃ© te
end rons
Ġh as
Ġser re
titu des
Ġter res
ĠA r
Ã¢ te
Ġindi que
ĠrÃ©g ul
Ġconcr Ã¨te
Ġabou ti
arme ment
Ġfal lu
c Ã©es
Ġm orte
ĠC ub
ĠP AC
Ġfut urs
Ġsuffis ante
ĠbÃ©nÃ©fici ent
Ã©m ission
Ġinten si
o tes
y e
it r
Ġad ul
ĠT V
ĠG o
Ġcontr airement
Ġfr Ã¨re
Ġaccord Ã©e
Ġfix Ã©s
Ġuti les
Ġcontribuer a
Ġsor ti
Ġpron oncer
Ġstri ctes
ĠmÃ©dec in
Ġsimil aire
Ġquin ze
Ġrejoin dre
E x
Ã¨ dent
Ġre b
Ġacc Ã©
ĠpÃ©tro li
Ġappropri Ã©es
Ġstim uler
Ġdomm ages
Ġprivil Ã©gi
Ġrig ou
a w
Ġsur vie
Ġconsid Ã¨rent
Ġconsid Ã©rations
Ã©ra teurs
Ġdou ani
ĠvÃ©ri fier
Ġmodern isation
Ġrece ttes
g ences
i te
an es
ag enda
Ġtr om
ain dre
gn Ã©e
Ġcl artÃ©
Ã® ner
ĠprÃ©sent ent
ov ine
ĠreprÃ©sent ation
Ġappar aÃ®t
ĠprÃ©cÃ©d ente
ĠHong rie
Ġpure ment
m ine
Ġ Åĵu
Ġin n
Ġin ad
Ġdev aient
Ġis ol
Ġclim atiques
dÃ©m ocrates
Ġexclu sivement
Ġconsta tÃ©
a us
Ġan niversaire
ĠA b
Ġvis as
Ġvoi es
Ġinstitu tionnel
Ġadop tÃ©s
ĠV I
inter prÃ©
Ġcontribu tions
Ġremercie ments
Ġquit ter
l ers
or cer
Ġr h
Ġex ter
iss ue
Ã©ri e
ĠrÃ©s istance
Ġparticuli ers
Ġvis ent
Ġpersonne lle
ĠprÃ©v ues
Ġsouhait able
ĠentraÃ® nÃ©
Ġbil an
Ġnaiss ance
L Ãł
b all
Ġc iel
Ġcon ne
ag Ã©s
ĠC I
ĠdÃ©c rit
ĠI talie
ali mentation
Ġordin ateur
ĠsecrÃ©t aire
Ġkil om
jeun er
3 0
is Ã©e
Ġr iv
Ġr ares
Ġac tif
Ġvi de
cer titude
ĠdÃ©veloppe ments
Ã¨g es
ĠrÃ©c ents
Ġref use
appr ouve
Ġth Ã¨mes
Ġprogres sivement
identi tÃ©
Ġsil ence
dem n
Ġbarri Ã¨res
Ġlin guis
A ut
Ġ ord
en viron
Ġa Ã©rop
ar di
or ge
au l
Ġman ge
ĠT om
Ġ19 6
ĠprÃ©v oy
Ġsc ol
Ġten ue
ĠprÃ©cÃ©d ents
Ġaffir mÃ©
ĠlimitÃ© e
ĠCong rÃ¨s
ĠprÃ©cÃ© demment
L E
Ġs auv
Ġpr enne
Ġco eur
ĠJ ohn
aff aires
Ġcomplex itÃ©
ox y
Ġpati ent
Ġrac isme
Ġatten tivement
Ġpromes se
Ġhyp oth
Ġmic ro
Ġrequi ert
ĠremÃ©di er
E ur
a jus
le ts
Ġen v
Ġch em
for mes
ĠnÃ©g atif
Ġindi re
Ġsoutien nent
ĠsÃ©rie use
Ġdisponi ble
ĠÃ¢ gÃ©es
Ġeffectu Ã©
ĠÃ©cou ter
ĠillÃ©g ale
lif Ã©ration
Ġpr endra
En tre
Ġst y
Ġrec ourir
Ġdoi g
Ġappli quÃ©es
Ġaccomp ag
ĠIn de
Ġenvoy er
ĠintÃ©g rer
ĠBer lin
Ġafric ains
ti ez
ent ra
Ġm ens
ĠdÃ© ten
Ġin former
Ġan c
Ġmin oritÃ©
ĠdÃ©mocra ties
intÃ© rÃªts
Ġbon heur
ĠO r
Ġsubst ance
Ġdistin ction
Ġengag Ã©s
O L
Ġb omb
Ġcon forme
Ġdev riez
Ġcomp ati
um Ã©
ĠCh inois
Ġmor ce
Ġconvainc ue
Ġperman ente
Ġus age
Ġlac unes
ĠmaÃ® tr
Ġmac ro
C elui
ur ie
ĠÃ© par
ĠrÃ© ag
ag Ã©es
ro issement
Ġsu it
el l
Ġbas Ã©
Ġinstitu tionnelle
Ã©conom ique
Ġtent atives
Ġopp osition
Ġproven ant
ĠX X
Ġlon gues
Ġaffai bli
ĠtragÃ©di e
G M
I s
Ã Ĭ
Ġcons enti
ad dam
Ġcro issant
Ġcontr aintes
Ġag it
ĠdÃ©s accord
Ġoblig ation
Ġconsci ent
Ġdestin Ã©e
Ġoccident ale
Ġnum Ã©ro
instru ment
lova quie
l air
ĠÃ© largissement
Ġac cidents
Ã©ri ques
Ġsuiv antes
ĠdÃ©ci d
Ġjeunes se
ĠÃ©n ormes
Ġcontra di
Ġciv iles
Ġmauvais es
Ġarti cles
Ġphot os
Ġconvi ction
Ġcommuni quer
ĠsuÃ©d ois
Ġinstall ations
E tat
I ci
g rer
Ġle ver
ĠdÃ© rog
am our
ĠrÃ©s ol
Ġren vers
Ġcol Ã¨re
ĠÃ©le vÃ©es
Ġmont agne
tif ie
Ġimpli quer
Ġformul ation
Ġunivers itÃ©s
Ġmag ni
Ġprovo quer
Ġmat hÃ©
ĠcatÃ©g ories
ĠrÃ©di gÃ©
ash ington
ĠmÃ©m oire
g Ã¨ne
h onorable
v ait
ou l
Ã¨ tent
Ġdu re
Ġin ond
ĠM ont
Ġent housias
Ġinc lu
Ġcommen cent
Ġnature lle
ca sions
ĠsÃ»r s
ĠmÃ© pr
appr endre
ĠdÃ©finiti ve
ĠinÃ©galitÃ© s
e tte
r op
Ã© vent
er ont
un di
Ġt ente
ĠdÃ© tri
ul sion
ĠPar is
ate l
Ġ3 1
Ġabs olue
ĠreÃ§ oivent
Ġparf ait
Ġpous ser
atta quer
F in
Ġa j
app ui
ĠprÃ© te
Ġimp Ã´ts
Ġcl andes
Ġop tion
Ġappli quÃ©e
ĠW ashington
Ġvolont aire
A F
Ġv ent
ais ons
Ġmon Ã©taires
Ġpos ent
Ġeng ager
Ġsign es
Ġmer c
Ġsoule ver
Ġsurpr is
Ġopportun itÃ©
Ġreligi eux
ĠdÃ©cla re
ĠdÃ©cla rer
Ġpourcent age
Ã¨ lement
Ġcon ventions
ui te
Ġjus tifie
Ġgar Ã§on
Ġproch ains
ĠÃ©ch ouÃ©
ĠpÃ©ri odes
Ġindivi d
Ġautom atique
Ġmultip li
expli quer
Ġressor tiss
Ġhas ard
ar ch
Ġpr ends
ont r
as tique
ĠÃ© pr
os sÃ©
Ġtr iste
ap es
alis Ã©es
dui ra
Ġ3 5
Ġrenfor cÃ©
Ġreconnaiss ant
organis er
Ġrefus Ã©
ĠCub a
A g
Ġ er
Ġs ages
Ġm ol
Ġv ot
Ġpar c
Ġdev ienne
la h
Ġlib Ã©ration
Par mi
Ġ% ,
ĠrÃ©c onc
oph ob
Ġrou tes
Ġaccomp lis
Ġsouff rent
Ġchinois e
Ġcherche urs
Ġfroi de
commun ic
ĠdÃ©tri ment
e ctu
g in
g ure
r ans
orte ur
Ġrec y
imp ose
Ġrest era
ĠdÃ©s Ã©quili
Ġgag nÃ©
Ġbat aille
Ġadministra tive
Ġdeven us
ĠÃ©lab orer
ĠpÃ©ti tions
Ã¨ tement
ĠÃ© cole
al cool
Ãª tres
Ġtrans mettre
Ã©v aluer
Ġ3 00
gr ants
ĠrÃ©c omp
Ġimpli quÃ©s
ĠmÃ© l
dis ant
Ġur gence
ĠdÃ©mont re
ĠÃ©qui p
Ġara bes
Ã©par gne
Ġcaf Ã©
w an
Ġpar cour
Ġ2 9
Ġcr aign
ront er
Ġexpli que
Ġexist ant
arri ver
ĠrÃ©tab lir
ĠBir manie
V otre
k e
Ġf lo
ter re
ĠdÃ©c ouver
ang lais
Ġad hÃ©
oli que
Ġchar ges
Ġstructure lles
Ġsouten ue
Ġaccomp lir
ograph iques
Ġache tÃ©
ila tÃ©rale
Ġsurpr ise
Ġpen sions
ath ie
Ġpermettr ont
Ġnum Ã©rique
excel l
ĠTV A
Ġf assent
Ġg asp
Ġ2 8
ĠdÃ©p asse
Ã©c ou
Ġop tions
Ġfer ai
ĠrÃ©g ulation
Ġz Ã©ro
Ġhist oriques
Ġtex ti
Ġpuiss ances
Ġesti ment
O C
Ġd ram
en vis
Ġp orts
Ġen ce
us tra
me mbre
os c
Ġpl antes
Ġinter diction
anci enne
Ġdiplom atie
v res
v age
Ġd an
Ã¨ tre
Ġen ne
Ġpl ate
di tion
Ġch at
Ġmo ments
Ġtravail lons
Ġrec ul
pu le
Ġchar bon
ess ayer
ĠÃ©vÃ© nement
Ġconsac rer
Ġanci en
ĠÃ©m o
Ġengag Ã©e
a que
or g
Ġdro gues
Ġmarch er
gu Ã©
ĠprÃ©sent Ã©s
Ġmet tant
ĠdÃ©f end
Ġatt ent
ĠlÃ©gisl ations
Ġref lÃ©
Ġbr Ã»
Ġopp osÃ©
Ġopp osÃ©s
Ġpron onc
Ġamen er
ĠcÃ©lÃ¨ bre
h ier
v oir
en sions
Ġpr ag
tÃ© n
Ġex trÃ©
ure au
ge ant
ĠA ra
ĠdÃ©b ar
Ġexp lo
tin ation
Ġass istance
ĠpÃ©n ale
Ġquali fiÃ©e
Ġconfir mÃ©
Ġcrimin els
Ch ac
ĠmatÃ©ri el
Ġcoord onner
ĠÃ® les
l ue
Ã ³
or tÃ©s
Ġf Ãªte
Ġin forme
at aires
Ġcont acts
Ġ2 6
Ġcr aintes
Ġfond Ã©
Ġform ule
Ġatte inte
ĠtÃ©lÃ© communic
Ġfran ch
Ġven ons
univers itÃ©
Ġfo ot
Ġsalari Ã©s
Ob jet
A D
l ites
n on
o ts
u ve
Ã Ń
ĠC ela
Ġsur p
se urs
Ġser ai
ĠÃ©t apes
ĠÃ©conom istes
Ġfondament alement
Ġir landaise
20 1
ĠLib an
Ġchaleure usement
T el
Ġ )
Ġm Ã©diterranÃ©
le m
Ġr amen
si fication
Ġj oin
Ġprop ag
Ġco ali
ĠB ureau
ang ers
Ġst and
velop pe
Ġag rÃ©
em ark
Ġfer mer
Ġris quent
att end
orm Ã©ment
Ġexpli cation
Ġenvironnement al
Ġdiscu tons
Ġrefus er
ĠdÃ©pend ent
orient ation
Ġdictat ure
imb ab
o quer
Ġm ille
me ts
Ġcon nex
Ã©t endre
Ġutilis ateurs
ĠV er
Ġsign ature
Ġchar gÃ©
Ġappel er
Ġten us
ĠbÃ©nÃ©fici aires
Ġall ant
Ġvicti me
Ġpol onais
Ġjeu di
Ġtemp Ã©ra
Ġpalestini enne
Ġdyn am
Ġmig r
Ġbienven ue
Ã´pit al
Ġc re
ĠG en
Ġense ig
Ġtranspar ente
Ġimm ob
Ġcrit Ã¨re
ach at
Ġven ue
Ġpartage ons
Ġsimpli fier
ĠBel gique
Ġsac ri
Auc une
Ġambi tions
ĠDan emark
O S
Ġp age
est er
Ġre viend
and a
Ġli eux
ĠL uxemb
ĠÃ©le vÃ©e
Ġaffir mer
Ġjourn al
Ġobserv ations
Ġappare mment
Ġcontro vers
infrastru cture
k o
Ġdu quel
ab and
ĠM ad
Åĵ il
ĠrÃ©c ol
Ġexpli quÃ©
ĠlibÃ©r al
Ġsan ction
Ġaffir me
ĠarrÃª tÃ©
mÃ©di aire
A s
in vesti
Ġre con
Ġgr andi
Europ ol
Ġmani Ã¨res
intÃ© gr
ĠgÃ©nÃ©r aux
Ġcontribu ent
ĠÃ©n ormÃ©ment
Ġmor al
Ġdist ance
Ġmoder nes
ĠBal tique
Ġdiplom atique
Ġtempor aire
Ġvolu me
L aissez
Ġde ttes
is ons
ur b
or p
Ġr ay
si ques
Ġpr ouver
Ġme tte
ĠdÃ©c ent
gn ent
Ġconstru ctif
Ġrappel Ã©
Ġtermin Ã©
Ġdomm age
Ġrestructur ation
i des
in ts
Ġv illage
Ġtr ente
Ġdi v
am Ã©ric
ĠS addam
Ġaccord Ã©
Ġass ure
Ġvie ille
Ġentrepr en
Ġfac ilitÃ©
Ġsp or
Ġidenti tÃ©
Ġalli Ã©s
ĠLuxemb ourg
A t
H eure
T ant
en tique
Ġp ont
Ġm ourir
Ġdi rai
tr Ãªme
Ġacc orde
Ġman quer
Ġconf usion
pÃ© rÃ©
ĠK h
Ġrecher cher
Ġoc casions
Ġlibre ment
Ġindustri els
Ġdispar u
Ġpor tÃ©
Ġdossi ers
Ġmusul man
Ġhandicap Ã©es
Ġtribun al
apprÃ©ci e
ĠCom itÃ©
g enti
m ann
Ġl ai
ur g
Ġau teurs
ĠrÃ© cip
isi ble
Ġins pe
Ġfor um
iv er
Ġmal ade
ĠV an
lon e
eff ort
tÃ©ri eurs
ĠbÃ©nÃ©fici e
Ġconfront Ã©e
Ġsembl ait
Ġpat rim
oubli ons
Ġbreve ts
ĠÃ©du c
e y
en n
ti Ã¨me
Ġa jus
Ġf ati
ĠdÃ© r
ĠdÃ© tÃ©ri
Ġpl aintes
Ġch ans
ir ait
ĠS ommet
Ġar b
je urs
Ġma jeurs
Ġvoud rions
ĠD o
Par allÃ¨lement
ĠbÃ©nÃ©fi ce
ĠprÃ©f Ã¨re
Ġconvainc us
Ġbate au
Ġincont est
f ait
ou ff
ti er
ch Ã©e
ff aires
mb lement
Ġfor mer
ĠdÃ©bat tons
Ġgaranti t
ĠrÃ©c la
ras ser
Ġmul tination
Ġfisc aux
Ġprud ence
Ġtend ances
Ġsoum ise
ougos l
Comp te
me urs
Ġre met
itÃ© e
Ġsur ven
Ġdi agn
vi dence
ĠS lovaquie
intÃ© grer
Ġdur ables
Ġcour se
inc lusion
Ġsenti ments
Ġformul Ã©es
Ġhau tement
Ġoubli Ã©
Ġsoy ez
Ġtribun aux
gle terre
A S
Ġc Ã©lÃ©
Ġm ine
or iste
ĠÃ© larg
ci tement
vi endra
Ġcamp agnes
Ġciv ilisation
Ġprovo quÃ©
ĠmÃ©dec ins
Ġobserv ateurs
T elle
us age
ĠrÃ© form
ati vitÃ©
lÃ© naire
ĠD ar
ili ers
Ġbi odi
Ġju ger
ĠprÃ©c ises
Ġmanif este
Ġoffici elle
Ġtable au
Ġfabri c
adap tation
Ġstim ul
Ġcontent er
Ġeth niques
ĠMac Ã©d
cy cle
Ġbiodi versitÃ©
k istan
Ġl ou
Ġv rais
Ġpar lent
ĠprÃ©sent Ã©es
Ġten ant
alesti ne
Ġcouv rir
ĠÃ©lab orÃ©
ĠÃ©cri te
Ġjuge ment
Ġmultip les
Ġrappro cher
Ġa gi
Ġm Ã¨ne
Ġre mis
Ġtr omp
ĠP alestine
Ġsou lÃ¨ve
Ġvi able
Ã©c ri
rib uer
ĠnÃ©g ative
ĠK ar
Ġesp Ã¨re
Ġviol ences
Ġinform Ã©s
Ġfra g
ribu tion
Ġrare ment
don Ã©
l y
Ġd os
ar ra
ar itÃ©s
it h
Ġt onnes
si ves
au tion
tÃ© ralement
aut o
gi ci
ĠN ice
tionne llement
Ġrecomm ande
Ġconst ante
Ġcolle ctive
Ġsurve iller
Ġresse mbl
ĠÃ©lab or
affir mer
Ġfroi d
Ġsin on
Ġintellectu elle
Ġsyndic ats
ĠnÃ©er landais
d ans
Ġm Ã¨tres
as tri
onn Ã©s
Ġent our
mi cycle
ĠdÃ©c Ã¨s
rai ni
Ġbi ologique
Ġexig er
Ġchac une
Ġsor tie
Ġtradi tions
Ġatta que
Ġjourn aux
Ġsex uelle
Ġtradu it
Ġcoali tion
ĠcÃ©lÃ© b
ti fication
Ġe au
Ġconc rÃ©ti
Ġrec ueil
Ġai m
Ġrespec tÃ©
inst auration
Ġparven u
Ġprofond es
Ġisl amique
ĠFran Ã§
ĠVI H
ĠtÃ©lÃ©communic ations
Ġs Åĵur
ar s
Ġt uer
ci dence
res pons
ĠS ol
ĠT unis
Ġculture lles
Ġrespect ent
Ġall ou
Ġtomb e
Ġbat tre
Ġplac er
Ġindividu els
ĠsystÃ©matique ment
Ġer ron
Ã© mer
is tr
il lÃ©
ĠÃ© man
Ġtou cher
Ġconc ret
ist ons
Ġfer ons
Ġsub ir
Ġloc ale
Ġlo gici
Ġfail lite
Ġinterinstitu tionnel
Ġressortiss ants
Ġpatrim oine
n am
Ġs ois
ĠdÃ© jeuner
ĠrÃ© duite
Ġcon cevoir
Ġsu pr
Ġ. ..
Ġcro it
Ġop Ã©rateurs
ĠÃ©c ar
endu es
Ġesp Ã¨ce
Ġappli quÃ©
Ġouv re
Ġsensi b
ĠpÃ©n al
Ġjudici aires
oise aux
ĠLib ye
Ġconsoli dation
excel lent
opportun itÃ©
Ġvac ances
R Ã©
an o
Ġe m
ĠprÃ© cieux
Ġpos Ã©e
oli tique
Ġabs urde
ĠdÃ©cisi onne
ĠlÃ©gi ti
Ġavanc Ã©s
Ġconfir me
cl av
Ġaband onner
Ġespagn ole
Ġreligie uses
mos phÃ¨re
astri cht
as sion
Ġpar allÃ¨
Ġpl ur
Ġtra duire
bli c
ĠA u
Ġfa Ã§ons
ĠdÃ©m ographique
ĠdÃ©s es
Ġindi quer
Ġcommunic ations
ĠgÃ© ographique
Ġpie ds
ĠZ imbab
ĠMa astricht
ĠprÃ©te xte
ougosl avie
C elle
qu ait
Ġf en
Ġf ossÃ©
il li
Ġcon j
de v
Ġav oc
Ġpa re
Ġent rÃ©e
Ġrapp roche
Ã´ tre
Ġcomme t
Ġter rible
Ġexp osÃ©
Ġrep rodu
Ġorganis er
ĠTrai tÃ©s
ĠsuÃ©d oise
Ġlic enci
effond rement
Ã©limin ation
occup ation
ÃĬ tes
c ar
e b
k in
Ġ Un
Ġp air
in i
in v
Ġun ion
ro b
aut om
ise z
ĠL itu
ĠE spagne
Ġpass ent
Ġpass ant
Ġtot alitÃ©
Ġdou b
ĠW al
Ġsus citÃ©
Ġdestin ation
Ġconcent ration
Ġexcessi ve
Ġsuscepti ble
chite cture
A fin
Ã© lab
ac qu
ac cident
Ġex ception
Ġter rib
Ġam us
Ġag ence
Ġ201 2
Ġprofonde ur
autoris ation
Ġcitoyenne tÃ©
Ġrecy cl
A ux
Ġp un
ĠrÃ© d
Ġg enti
Ġil li
Ġex cÃ©d
Ġcont amin
Ġpu issant
ĠS a
Ġatt ra
Ġarri vÃ©s
Ġgra vitÃ©
ĠdÃ©pens er
Ġremp li
Ġinvestisse ment
Ġcontra diction
Ġsim ul
ĠdÃ©couv rir
Ġcompens ation
Ġpours uit
ĠEuropÃ© enne
ĠMacÃ©d oine
S oy
g a
s titu
Ġ [
Ġl entement
Ġs atel
ai lles
ĠrÃ© sid
Ġre cti
Ġpro fi
di cation
Ġch aud
Ġch rÃ©tiens
Ġcomp assion
ĠB en
Ġti ennent
atis ation
Ġ199 4
Ġcli ents
Ġessay ons
Ġfisc alitÃ©
reg istre
Ġtol Ã©rance
Ġnav ig
ĠTch Ã©t
Ġpier re
Ġtrom pe
m Ã©s
Ġm ass
ĠÃ© tique
av ance
Ġar me
Ġdange reuse
Ġfaibles se
ĠspÃ©c ul
Ġl ende
an gi
si fs
Ġdi ct
Ġje ter
Ġex am
dÃ© rale
Ġdur abilitÃ©
ĠsÃ» rement
att ra
Ġri di
Ġsci ences
Ġinst amment
Ġexamin Ã©
Ġunivers el
Ġarti fici
ĠÃ©cou tÃ©
Ġign orer
Ġfeu ille
Ġclari fier
ĠÃ©lar gie
Ġkilom Ã¨tres
ĠrÃ© ve
Ġch auff
Ġave ug
ex er
Ġai d
Ġbi bli
Ġcomb usti
Ġsignific atif
ĠprÃ©t end
Ġtouch Ã©s
Ġfonde ment
Ġinjus ti
Autre ment
Ġsouhai tÃ©
ĠdÃ©fav oris
A utriche
Ġd angers
Ġp ert
ti ers
as pect
ĠM old
Ġme urent
Ġh armonisation
ex ception
Ã©c us
Ġfr us
Ġretr ouve
ĠprÃ©f Ã©rÃ©
Ġadmin istration
Ġinqui Ã©tude
ĠprocÃ© dÃ©
ĠmÃ©dec ine
Ġitali en
Ġcollab orer
Ġbo Ã®
interprÃ© tation
ent ends
Ġdi vision
pe au
Ġad resser
Ġmin i
Ġvis a
Ġrenfor ce
occu per
tis me
ache ter
Ġpan ne
Ġobjet s
Ġprimordi al
ĠbÃ©b Ã©
ĠMin istre
. -
I C
Ġf orts
ac tiv
oc Ã©
ins titution
fin i
Ġcar tes
Ġti ss
Ġren oncer
olo gues
Ġsupp orter
Ġcapit alisme
ĠprÃª ter
Ġdirige ant
ĠsiÃ¨ cles
Ġsurpr enant
ĠfÃ© min
Ġquasi ment
Ġ x
Ġp ension
ar gu
it age
Ġen n
ĠÃ©g al
Ġdiff usion
ĠD av
Ġpropos ons
Ġarri vent
Ġarri vÃ©e
urr ence
ĠprÃ©occu pe
Ġdipl Ã´
Ġmag as
ĠRom e
Ġtrou bles
Ġstab ilisation
ĠÃ©limin er
ĠUni es
Ġmagni fique
ocÃ© an
% .
O R
c op
l ot
Ġt as
Ġun ani
ĠdÃ© truire
Ġpar al
Ġb aisser
os itÃ©
ag isse
Ġimp arti
oc t
ex tension
Ġinter dit
Ġrest aur
Ġcour te
Ġinform Ã©
In ternet
Ġfl ot
Ġcondam ner
Ġindispens ables
Ġdim ensions
Ġoct roy
Ġcroy ons
Ġapprofondi e
Ġsatisfais ante
ĠgÃ©nÃ©tique ment
Ã©lab orer
c iter
Ġl ancement
Ġv ues
ouv ons
Ġimp osÃ©es
Ġconstitu Ã©
ali b
Ġprom et
eff ectu
Ġcomb ler
Lors qu
Ġcompar aison
Ġordin aires
anim aux
Ġconsoli der
Ġlab or
ĠrÃ©cip ro
S V
g en
h ol
h yp
i eux
r ain
Ġl oy
ri d
Ġg el
Ġimp ose
Ã©n ormes
Ã©ra p
Ġass istÃ©
Ġbr ill
Ġobser ver
Ġanti cip
Quel qu
Ġrac onter
Ġespoir s
Ġbreve t
ĠimpÃ©ra tif
ĠscÃ©nari o
Ġdiagn osti
v rer
ou b
Ġqu arti
om e
ĠrÃ© actions
Ġne tt
Ġex ister
ex trÃªme
ĠdÃ©p asser
imp osition
Ġconsid Ã©rÃ©s
oli e
Ġcomment aire
Ġrap ides
Ġri vi
Ġhuman itaires
ĠspÃ©cifique ment
ĠÃ©cri re
Ġnomm Ã©
Ġplani fication
ĠaÃ©rop orts
ĠLitu anie
r its
u a
u ie
en registre
Ġr ub
ra pp
ĠB lair
Ġaut rich
Ã©ra le
Ġmont Ã©e
Ġgrande ment
Ġsub vention
Ġfonction nent
ĠdÃ©cisi f
Ġimpli cations
Ġanim al
Ġ7 5
Ġferme ture
Ġcouv re
pir ation
Ġfru ctu
accomp ag
ĠDo ha
E R
p rÃ©s
ou re
Ġs ond
Ġm uni
om in
Ġj amb
Ġcon Ã§u
ĠM e
av ions
Ġh Ã©s
ĠdÃ©p lor
Ġmain tes
Ġor al
exp erts
Ġsub i
Ġsigni fier
Ġretour ner
Ġcondam nÃ©
ĠSu isse
Ou est
Ġorgan e
Ġfront ali
Ġcinqu iÃ¨me
ĠTunis ie
h onneur
at ures
omm age
pe c
Ġper p
ex ig
ĠR usses
Ġcar riÃ¨re
ĠL i
Ġpubli cation
Ġrespe ctu
Ġdou leur
ĠpÃ©ri ph
Ġchar te
Ġpoursui v
atri ces
Ġvoul aient
Ġcou leur
Ġexprim Ã©es
Ġsex e
ĠCol omb
Ġenqu Ãªtes
Ġinn oc
Chac un
Ġbibli oth
A c
b ie
m Ã©t
Ġpar viend
res sions
Ġpro vis
Ġdev ions
Ġapp ort
Ġti endra
ĠN o
Ġemp Ãªche
ĠrÃ©sul te
ĠrÃ©for mer
Ġparticip ants
Ġculture ls
Ġmodi fiÃ©
ĠsÃ©rie uses
Ġrev Ãª
Ġbure aux
Ġ15 0
Ġestim ations
indi vi
ĠsÃ»re tÃ©
oz y
Ġsurvi vre
I m
Ã ¤
en voyer
Ġc os
Ġn ul
ce lone
ag eux
Ġh oriz
ĠprÃ© cip
lÃ¨ vement
ĠD i
Ġadop te
Ġnu lle
ĠcÃ´ te
Ġlais sez
hi p
ĠcrÃ©di ble
ĠÃ©lectr oniques
ark ozy
ĠZimbab we
Ġdes que
Ġb our
Ġqui conque
Ġcon vers
ĠP e
Ġmar quÃ©
ex tra
ĠT i
ĠrÃ¨g ne
ĠÃ©c ologiques
ĠnÃ©g atives
ĠdÃ©s olÃ©
ay e
Ġtechnolo giques
Ã¯ n
lo re
tÃ©r itÃ©
ha us
ĠdÃ©tail lÃ©e
Ġcontra t
Ġcomporte ments
ĠmatÃ©ri aux
Ġbanc aires
oud an
Ġconserv ateurs
ajus tement
Fin alement
ĠdÃ©sÃ©quili bres
Ġmass ac
Ġlende main
s ki
Ġch asse
av Ã©rer
and s
ĠÃ©t endre
Ġpersonne lles
Ġmesure r
ĠprÃ©v isions
ĠspÃ©ci ale
Ġcorre cte
ĠexpÃ©ri ment
Ġapplic ables
l aud
s te
Ġs it
ĠÃ© ducation
Ġo cÃ©
ĠÃ©g ards
ense z
lu b
dÃ© bat
Ġfisc al
ĠMar oc
avi ation
Ġcolle cte
ĠdÃ©mont rer
Ġquanti tÃ©s
Ġabou tir
Ġdiscip line
Ġtransat lantique
l ing
Ġm ou
au di
Ġin gÃ©
ir ont
ul aires
ĠprÃ© m
Ã©n ophob
Ã©c art
Ġfor mid
Ġti re
Ġcol on
ĠE st
Ġmont er
Ġ19 4
Al liance
Ġno ter
Ġappel ons
ĠfÃ©lic itations
Ġdispar aÃ®tre
Ġordin ateurs
Ġtraite ments
Ġbel ge
ĠÃ©vid ente
Aut oritÃ©
ĠconcrÃ©ti ser
Ġx Ã©nophob
9 9
P ouvez
l aire
Ġr av
est es
ab ou
ord anie
Ġmais ons
Ġins crit
Ġrel ancer
Ġmort alitÃ©
Ġven ez
ĠBar celone
Ġreje tte
ĠÃ©mer gents
Ġenreg istre
Ġaffe ct
Ġprior itaires
Ġphilosoph ie
Ġinond ations
Ġjoin dre
C S
C ontr
N ombre
o o
in o
it ar
Ġdu e
Ġpro je
pp e
ag o
ces sions
Ġser vent
Ġmar gin
Ġpouv ant
ĠrÃ©p Ã©tÃ©
atis me
Ġ4 00
Ġparticip ent
ĠsÃ© jour
aur a
chÃ© nie
ĠdÃ©g ra
Ġobten us
Ou tre
ĠÃ©vent uellement
actu alitÃ©
Ġprotectionn isme
Ġadul tes
ĠTchÃ©t chÃ©nie
z ar
Ġ Une
Ġf lu
ĠP SE
Ġav ance
Ġapp uy
Ġnom in
Ġcr ainte
Ġti rÃ©
Ã® le
Ġsav ais
Ġgar s
Ġconn ue
eff orts
ĠO GM
Ġprov in
Ġconstat ons
Ġpren ant
ĠaÃ©ri enne
roÃ® t
Ġval able
Ġmob iliser
Ġrent rer
Ġquotidi enne
Ġsatisfait s
ĠcomplÃ©ment aires
Ġrasse mbler
ĠbilatÃ©r aux
Ġbu lle
ĠprÃ©ju di
ĠrÃ©sol us
Ġfoot ball
Ġg agn
Ġdi gne
ap h
ob b
ĠdÃ©m ission
Ġcha uss
Ġentrepr is
Ġinc lus
ĠspÃ©ci alement
Ġpoin te
ses sion
ĠÃ©tab l
ĠindÃ© pendance
Ġfix e
appr ouver
Ġdist or
Ġdevoir s
ES B
Ġposs Ã¨dent
es se
Ã© lor
on ge
op or
Ġb ran
Ġre gr
av ancer
ail l
Ġins istÃ©
Ġfor Ãªt
Ġtrans mis
Ġcr oient
Ġmont ants
Ġaff i
Ġprof its
Ġutilis ons
Ġph arm
ctu ellement
Ġaffir m
Ġrati fiÃ©
Ġcompli quÃ©
Ġvig il
Ġterritori ale
Ġflo tte
E I
Ġc ouverture
Ġen vie
Ġj ui
ri ques
ro its
ul Ã©
gi le
En core
Ġdom es
Ġag ents
ĠdÃ©mocra tisation
ill ages
import antes
Ġret ards
sra Ã©li
ĠprÃ©f Ã©rable
inst abilitÃ©
Ġfu sion
Quel ques
Ġoccu pe
Ġ198 0
Ġtradu ction
ĠrÃ©vÃ© lÃ©
Ġsauve tage
ĠmÃ©n ages
Ġdevi endra
Heure usement
c urrence
Ġ Ċ
in verse
al er
ac quis
Ã§ a
Ġren v
Ġpart agent
ĠlÃ©g Ã¨rement
ĠnÃ©g atifs
Ġfais aient
Ġdonner a
Ġappel Ã©e
Ã©le vage
Ġsp ati
investisse ments
Ġconcr Ã¨tement
Ġassoci Ã©s
ĠadÃ©qu at
inqui Ã©tude
Ġbate aux
n is
Ġpl uri
Ġimp rÃ©
vi ens
ĠrÃ©s umÃ©
Ġti tres
Ġren f
Ã¢ che
Ġca mps
Ġsoli des
ĠrÃ©glement aire
ak h
ĠprÃ©cÃ©d entes
Ġveil le
Ġsouff re
ĠIn ter
Ġmess ages
Ġsignal Ã©
Ġtransfrontali Ã¨re
Re garde
Ġeth nique
ĠhÃ© las
Ġre lÃ¨vent
ag gra
og le
ature llement
ari ats
Ġport es
atri Ã¨mement
Ġcer cle
Ġemploy eurs
Ġfrapp Ã©
Ġamen Ã©
ĠrÃ©conc iliation
Ġ om
in certitude
Ġf it
Ġb ande
itÃ© es
Ġces sÃ©
Ġdire cts
gn Ã©s
Ġdonn ant
ĠN iger
Ġinc iter
ĠintÃ©ress antes
Ġsecon des
Ġinv iter
Ġdispar ition
Ġchinois es
aÃ¯ ti
ĠU kraine
ĠCe tte
Ġambi gu
Ġsaur ait
Ġreligie use
Ġleaders hip
ĠintÃ©gr ante
Ġsages se
ĠFranÃ§ ais
j ac
Ã© vidence
Ġn orme
ĠM M
Ġnom ination
ĠdÃ©p loi
Ġad mis
Ġvoud rait
ĠD ub
ĠsÃ© p
Ġatte ints
Ġtour ne
Ġexpli cations
Ġten ons
Ġanim ale
Ġfabri cation
Ġtort ure
ĠaccÃ©lÃ© rer
Ġmultination ales
S e
es c
Ã¨ ques
Ġpar viennent
ĠP h
ĠM ich
Ġsoci o
Ġtravail lant
ĠN on
Ġass ister
Ġatt ach
exp rime
Ġsuiv ants
Ġcher chent
Ġouver tement
Ġestim Ã©
Ġassur Ã©ment
Ġuni forme
Ġprogres sive
Ġralenti ssement
Ġmerveille ux
arg o
Ġplaf ond
Ġattent ats
f our
y a
Ġs aine
an ou
Ġt ap
ĠrÃ© ac
mp ing
ens itÃ©
Ġch o
Ġtou chÃ©
Ġav Ã©rÃ©
Ġdev ise
Ġapp ui
ĠS arkozy
Ġpouv ions
ĠG ol
Ġrest aurer
Ġrem ise
Ã©conom iques
Ġterr oriste
Ġtu Ã©
Ġeffe ctive
Ġpoursui vi
Ġsol aire
Ġconcep ts
ges tions
Ġdiver gences
ĠsÃ©par ation
Ġlead er
Ġiss ue
Ġwe b
ĠcomplÃ© ter
euille z
ĠDÃ©pu tÃ©s
Ã©mer gence
A ctuellement
H ier
ne ls
ci euse
ra di
Ġch anti
ouv re
Ġsu ici
Ġav ion
ĠA ffaires
ĠD onc
Ġdemande urs
ĠdÃ©fin is
Ġci ble
Ġstructure lle
Ġtransf erts
Ġconser vation
Ġjudici eux
ĠprÃ©p are
Ġcorri ger
ĠforcÃ© ment
ĠVer h
intÃ©gr itÃ©
I N
N aturellement
Ġs Ã©cur
ĠÃ© mis
Ġin du
ch nolo
Ġdev ises
av ion
ap acitÃ©
Ġmar quer
ace u
ĠT ib
Ġsav ait
Ġinc endi
Ġche ve
Ġimm ense
Ġexig ent
Ġvoter ons
arri vÃ©e
opp ose
Ġpotenti ellement
Ġminist Ã¨re
Ġpren ez
Ġtransfrontali ers
Ġpuiss ants
Ġimmi grÃ©s
ĠfÃ© dÃ©rale
Ġsouffr ance
Ġrh Ã©t
ĠdÃ©bar rasser
rapp orteur
m ir
Ġ Q
Ġ oiseaux
Ġf ossi
Ġin effic
ouv ant
Ġh eur
onn Ã©es
Ġins iste
ĠrÃ©p utation
ver gure
ĠH usse
Ġfi ables
Ġaccep te
Ġoblig atoires
Ġgros se
Ġsug gestions
Ġfig urent
Ġsouv iens
ĠÃ©vent uelle
Ġlour de
Ġgrec que
Ġvendre di
Ġproc ure
Ġimpati ence
Ġchans on
exer cer
Contr airement
E T
t oi
es tim
ent rer
Ġle vÃ©e
Ġv entes
op Ã©ration
ĠC o
ĠP N
Ġsou l
ĠS te
ĠgÃ©n oci
Ġfr anc
ĠD ans
Ġmin es
Ġdou ze
Ġsuffis antes
ĠcompÃ©ti tive
Ġpotenti els
Ġoccu per
Ġtur c
Ġsoum ises
genti ne
Ġrecycl age
Ġunani me
Ġsit ue
sraÃ©li ens
ĠHusse in
al ise
ri g
Ġb ac
Ġb elles
ĠrÃ© tic
ol a
Ġav ancÃ©
ces seur
Ġent amer
oc u
oc currence
Ġapp els
Ġar rÃªt
ĠcrÃ© ant
Ġrep ort
ĠF is
Ġconsid Ã©rant
Ġaff ronter
Ġconstitu tionnelle
Ġdou ce
Ġcher chÃ©
ĠrÃ©un i
ĠÃ©tudi Ã©
Ġinst aurer
Ġindustri el
ĠrÃ©jou ir
lisse ments
ĠAn g
ĠSt ock
Ġsauve garde
ĠisraÃ©li en
Ġinjus te
Ã©re mment
Ġfournisse urs
ĠXX I
ĠGen Ã¨ve
f ond
i dÃ©m
u pp
Ġp ages
is Ã©s
Ġt ac
ci ens
Ġpl ai
ab e
ab oli
Ġh onor
Ġh osti
Ġper ception
Ġal lusion
Ġad di
ĠR ob
Ġexp ression
ĠcrÃ© ativitÃ©
Ġrep oser
ĠprÃ©sent es
Ġparticuli Ã¨res
Ġremar quÃ©
Ġheure usement
Ġgen res
Ġitali enne
ĠcomplÃ©ment aire
Ġtru cs
Ġcuis ine
ĠdÃ©cent r
idÃ©m ie
A LE
ou e
Ġn oire
Ġpr ouve
Ġtra gique
Ġnom s
gn ation
Ġann uelle
olo g
Qu atriÃ¨mement
ĠprÃ©v us
import ation
Ġglob alement
Ġouv erts
Ġassoci ations
Ġautoris Ã©
Ġpron oncÃ©
ĠÃ©tabli es
Ġambiti euse
Ġexploit er
imm ob
Ġarm Ã©e
Ġtru c
Ġsty le
A b
E C
V euillez
d itÃ©s
l og
n alitÃ©
ĠdÃ© Ã§
ra bles
at er
at ten
Ġh ommage
Ġconc lus
vi demment
Ġco fin
Ġpos Ã©es
isse z
ari tion
Ġbi oc
Ġcin Ã©m
Ġexpli citement
ĠprÃ©par Ã©
Ġtradi tionnelle
Ġperman ence
Ġencourage ant
Ġapplic able
Ġclas sique
uk raini
ĠdÃ©ploy Ã©s
envis ager
Ġfabric ants
ĠMold avie
Ġl undi
ou est
is la
Ġv ali
ens er
Ġces s
onne ments
Ġam end
Ġai dÃ©
ner a
ass ade
Ġprogram mation
Ġlib Ã©rer
Ġconcern Ã©
Ġjou ets
Ãī gypte
id itÃ©
Ġsign er
Ġparten ariats
Ġir respons
ĠdÃ©pens Ã©
Ġfran chement
ĠÃ©tudi ant
Ġhaut s
ĠdÃ©g ager
cri p
ĠindÃ©pend amment
Ġflexi ble
ĠdÃ©pass Ã©
Ġvieil lissement
Ġgarantiss ant
Ag enda
ĠlÃ©giti mes
N E
Ġl ance
is Ã©es
Ġpl ait
Ġse rez
end roit
ĠP Ã©
Ġcar di
Ġrec ru
Qu els
Ġrest Ã©
Ġbi zar
Ġlim itation
ĠrÃ©pond ent
eng age
Ġcorre ct
Ġposs Ã©d
Ġmari age
Ġcollab or
Ġparad ox
Ġence inte
Im ag
e uropÃ©
e aux
o iles
Ġl og
Ġin demn
Ġse ct
Ġcomp osition
ĠÃ©t endue
Ġco in
ĠA h
Ġpart ant
Ġrep ous
Ġdemand ant
Ġatt endant
Ġsoi gne
ĠlÃ©gisl atifs
Ġsuiv ie
Ġconsci ente
Ġexprim Ã©s
Ġciv il
Ġquali fiÃ©s
Ġnour rir
Ġlet tres
ĠsupÃ©ri eure
arb urants
inqui Ã¨te
ĠinfÃ©ri eur
ĠÃ©lectri que
ĠGo ogle
Ġpluri ann
P ensez
a me
e ct
f as
Ġp eau
ou i
er z
me u
op ie
ro ger
Ġparti ellement
mi Ã¨res
ĠG ali
Ġess ais
Ãªte ments
ĠO u
inter venir
Ġgra vement
Ġver te
Ġrespec tÃ©s
Ġoccident al
Ġdiplom atiques
ĠÃ©cl air
Ġillus tre
Ġrej oint
ĠGe orge
Ġasi atiques
Ġentam Ã©
f Ã©rer
in ten
lÃ¨ ves
Ã©n Ã©g
Ġdiff Ã©remment
Ġai mÃ©
Ġfr uit
nation al
Ġbi om
Ġress ent
Ġexig ence
Ġrend ue
Ġvisi ble
Ġsuper vision
Ġnorm ale
Ġminim ales
Ġidenti fier
Ġfilm s
Ġdess ous
ĠÃ©valu ations
Ġirak ien
Ġconsult ations
Ġenj eux
Ġautomatique ment
b anie
f a
u alitÃ©
ti ens
Ġs Ã©qu
re uve
Ġun itÃ©
os yst
Ġav erti
ĠG re
Ġmal heure
Ġpass Ã©s
Ġbi ologiques
Ġmod alitÃ©s
Ġall Ã©s
opp oser
ĠamÃ©lior Ã©
Ġanci ennes
Ġplac Ã©
ĠnÃ©gli ge
Ġul tÃ©rieure
Ġimmi grants
Ġdon ateurs
ID A
Ġsimul tan
Ġprofi te
F R
c isme
k y
n a
v ote
ti ge
Ġs ap
Ġa per
Ġen c
Ġj oie
Ġin quie
ĠM er
ĠB e
ĠT im
uti n
lis te
ĠÃ©c ras
ĠdÃ©fin it
Ġ199 2
Ġdou lou
Ġcommerci alisation
Ġimpli quant
Ġur gente
Ġcal me
Ġtax ation
Ġouver ture
Ġassur Ã©
Ġquit tÃ©
Ġmig ration
Ġappare il
nex e
ĠÃ©volu er
imag iner
Ġindic ateurs
Ã©cou ter
Ġ ukraini
Ġs ombre
Ã¨ vre
Ġb Ã©n
ĠrÃ© elles
ol y
ĠP er
Ġcons ister
Ġal arm
Ġfa Ã§
Ġbeau tÃ©
Ġatt endu
Ġpass Ã©es
ĠprÃ©c aution
Ġbou le
Ġlo gement
ĠdÃ©fense urs
Ġcer titude
Ġriches ses
Ġquali fications
ĠAn d
ĠmÃ©dic aux
Ġstock age
Ġdo ter
ĠÃ©lectri ques
ĠmÃ©pr is
ĠextrÃ© mistes
OS CE
ĠboÃ® te
Ġformid able
e re
f eu
in Ã©e
Ġr ues
Ġf ar
Ġun ie
al d
Ġpour par
Ġb ille
ort h
end rai
Ġcomp tent
Ġcont est
ĠÃ©t hique
ĠÃ©v olutions
Ġautre fois
accord s
vÃ© ni
Ġaugment ent
Ġcomprom et
ĠbÃ©nÃ©fici Ã©
ess ence
Ġfl ag
Ġdiscrimin ations
ĠadÃ©qu ates
Ġstri cte
Ġdiminu Ã©
Ġcens ure
Ġchale ur
ĠCong o
Ġperform ance
Ġincap able
Ġcheve ux
Ġpourpar lers
en v
Ġc uri
Ġqu ar
te ments
ĠS oudan
Ġprob abilitÃ©
Ġcl in
Ġgar Ã§ons
ĠprÃ©c ision
ĠrÃ©un ir
Ġprochaine ment
Ġconfront Ã©
Ġexprim Ã©e
ĠamÃ©lior Ã©e
Ġeffectu er
ber g
Ġexploit ations
Ġafric aine
ĠcomprÃ©h ensible
Ġcoord onnÃ©e
Ġpes tici
Ġinterven ants
Ġfinance ments
ĠdÃ©cri re
Ġdan ois
ĠrÃ©d action
Ġbioc arburants
E sp
n ons
o tiques
u ites
Ġc lub
Ġs pec
Ġin tr
ĠC l
ĠM or
tr Ã¶
Ġsou met
Ġimp osÃ©
Ġser ions
ad resser
Ġinter romp
acc roissement
Ġentrepr endre
Ġinstitu tionnelles
man che
ĠdÃ©fin ies
ĠW i
ĠÃ©tab lis
ĠprÃ©f Ã©rence
ĠdÃ©si re
Ġth Ã©rap
Ġsec ours
ĠcompÃ©t entes
Ġlaiss ent
ĠdÃ©l oc
Ġvit ale
Ġobli gÃ©
ĠinterprÃ© tation
ĠdÃ©plac er
Ġaffe cte
ĠinÃ©v itable
ĠpÃ©r il
ĠCI G
Ġentrepren eurs
trÃ¶ m
O h
e usement
p el
ou dite
ti l
Ġn ui
Ġr oi
que mment
ri ers
Ġin titu
di ens
Ġdi manche
Ġac cum
Ġmo tif
ard in
ĠA sh
Ġop ti
ĠI sraÃ©liens
Ġpens ait
Ġvol er
ĠÃ©tab lit
ĠrÃ©v Ã¨le
Ġmention nÃ©s
Ġdispos Ã©s
Ġoccu pÃ©
Ġcontenu es
amb ition
Ġoffici ellement
Ġcontraign ant
Ġconnais sez
ĠÃ©volu Ã©
ĠinÃ©v itablement
Ġsalu ons
Ġchem ins
Ġchauss ures
H U
e uropÃ©ens
ne lles
Ġg Ã¨nes
Ġch ir
Ġex tÃ©rieurs
Ã©t hique
ĠdÃ©p lore
ĠcrÃ© Ã©e
ĠgÃ©n Ã©rer
Ġmaj eures
Ġinf li
appli quent
Ġimpli quÃ©es
Ġdiri ger
Ġgros ses
Ġprofessionne l
Ġadap ter
Ġiss us
obser vation
Ġappor tÃ©es
ĠaccÃ© der
Ġspec tre
Ġp iliers
ti ver
an z
Ġv Ãªtements
ve urs
Ġpar vient
Ġpa kistan
ins iste
Ġvou lions
Ġab orde
Ġtrai tÃ©e
Ġconn us
Ġeng lob
Ġmi ra
Ġfra gile
Ġ201 3
Ġautoris Ã©s
Ġfaibles ses
Ġcarb urant
onom ie
Ġmach ines
Ġarm Ã©es
ĠtÃ©moi gne
Ġcinqu ante
Ġprior itaire
Ã©tudi er
Ġmonop ole
Ġoppos ants
Ġmigr ants
investi r
ĠDub lin
ĠrhÃ©t orique
l d
v ienne
un s
Ġt angi
Ġpr Ã´
Ġv ag
Ġb oire
at o
ol lah
ain ts
Ġex haus
ĠdÃ©p ense
ĠT out
Ġfa usse
ĠlÃ©g isla
ĠlÃ©gisl ature
Ġindi quent
ĠdÃ©cisi ve
Ġci te
Ġconte mp
Ġdisposi tif
Ġpous se
ĠÃ©tabli e
Ġpalestini ens
atta que
dÃ©m ocra
Ġmutu ellement
impli cation
Ġdoig t
arch ie
ĠtempÃ©ra ture
alib ans
hol m
Ġbac tÃ©ri
y r
Ã© missions
Ġp atri
Ġs cep
Ġm Ã¨res
Ġun ilatÃ©rale
Ġg agne
aut or
sident s
Ġconc entre
Ġexp rime
imp osent
Ġmet tons
Ġabs ence
ĠrÃ©alitÃ© s
ign ent
Ġappar aÃ®tre
Ġcondam nation
Ġinuti les
Ġsatisfais ant
Ġgri ppe
Ġsembler ait
Ġmine urs
argu ment
Ġprovis oire
ĠprÃ©judi ce
Ġbille ts
A ra
A SE
Ġs chÃ©
Ġpr ouvÃ©
Ġen le
ais es
Ġdu rement
Ġco Ã¯n
ĠPar ce
Ġeff or
Ġcl on
UE M
ĠE lles
Ġass assin
Ġcour ir
Ġvol s
Ġdiffici lement
Ġvoy ager
ĠprotÃ© ines
auc ase
Ġfra gment
Ġven us
ĠchÃ´ meurs
Ġcouv ert
Tro is
Ġmob ilisation
Ġ198 9
Ġdeme urent
Ġintelli gent
Ġsent ent
ĠprÃ©sidenti elles
Ġarr ange
aus tÃ©ritÃ©
osc ou
ĠrÃ©cla me
ĠparallÃ¨ le
Ġl ent
Ġl obb
in gÃ©
our ce
ĠdÃ© tention
Ġg Ãª
Ġg lace
Ġsur c
Ġne ur
con i
Ġvi endra
ĠrÃ©s ister
Ġ3 7
Ġtent ent
ĠreÃ§ oit
Ġtransp osition
Ġprofessionne lles
Ġconform itÃ©
off rir
Ġtoi le
Ġraisonn ables
ĠmÃ©dic ale
Ġmariti mes
Ġtur que
Ġsugg estion
Ġrouti Ã¨re
ĠÃ©tonn ant
Ġoptim iste
Ġportug aise
Ġinad mis
ĠmathÃ© matiques
Ġdram atique
ustra lie
donÃ© sie
ĠNo Ã«l
c tÃ©
h Ã´pital
Ã© lo
en ko
ĠÃ ¨
Ġf arde
ĠC amb
Ġsi da
Ġcomm and
Ġcons istant
vi c
ĠnÃ© fas
Ġam ie
Ġcompr enons
Ġconf Ã©rences
anis me
Ġess aie
Ġreconn ais
Ġsigni fication
ĠrÃ©du its
Ġsus cite
Ġtravers er
ĠprotÃ© gÃ©s
ha Ã¯
Ġinv itÃ©s
Ġexamin ons
ĠcompÃ©t ente
ĠaÃ©ri ens
ĠmÃ©dic ament
Ġintelli gente
Ġincroy ablement
Ġperform ances
Ġhongro ise
Ġtexti le
Ġstand ard
L T
c osse
m on
ent end
Ġr ail
Ġb att
ĠC aucase
ĠP ol
ĠM on
ul ture
Ġsi Ã¨ges
Ġimp os
ins crit
ĠdÃ©c our
Ġeff ond
Ġacc ru
Ġtrans mission
Ġcommun isme
Ġexp osÃ©s
Ġgouver ne
Ġren dement
Ã¢ tre
Ġmen tionne
Ġdisc rÃ©
ĠV i
Ġnature ls
ĠtraitÃ© es
Ġoff rent
Ġ4 5
Ġtradi tionnelles
inst aurer
Ġsensi bilitÃ©
ĠSch ul
ĠprÃ©ser vation
Ġhabit ant
Ġbal ance
ĠlimitÃ© es
An gleterre
ĠÃ©quipe ments
Ġamp leur
Ġtre mblement
Ġiran ien
Is lam
Ġarb itr
y l
Ġ Que
Ġr am
ĠÃ© tiez
ĠdÃ© rÃ©g
Ġb Ã©t
Ġcon cessions
ter ie
Ġac teur
ĠcrÃ© ent
Ġca de
Ġcha os
Ġ3 2
Ġfi d
Ġnot ation
id Ã©es
erre ur
appr opri
Ġnorm alement
appel er
Ġradic ale
ĠrÃ©mun Ã©ration
ĠÃ©chÃ© ant
ĠColomb ie
ĠStock holm
A ss
V u
a tre
e lez
Ġs aisi
ai des
Ġv Ã©tÃ©
Ġb aiss
at tirer
Ġtou chent
Ġimp u
Ġimp Ã©ri
Ġann onc
Ġpremi Ã¨rement
Ġconstitu tionnelles
ĠJ o
ĠK en
ĠdÃ©termin Ã©e
Ġadmin istr
Ġconsul ter
Ġtradi tionnels
ĠimmÃ©di at
Ġtran qu
Ġlit tÃ©ralement
ĠfrÃ© quemment
Ġspectac ulaire
Ġcad res
ĠgÃ©noci de
Ġpestici des
U R
f aire
Ġp ain
Ġcom itÃ©s
ĠM oscou
Ġh Ã´
Ġh aine
ins ister
ĠB EI
Ġeff ray
Ã§ ait
Ġexp ress
ĠrÃ©p arer
Ġcro Ã®
ĠintÃ© rim
Ġfond Ã©es
ĠÃ©v Ã¨
ĠÃ©le ction
ĠlÃ©g al
exp Ã©ri
st an
ĠÃ©tr anger
Ġimpli quÃ©
ĠdÃ©termin ant
Ġsol li
Ġindustri elles
ĠrÃ©jou issons
Ġven ait
Ġcontinu itÃ©
Ġrac ont
Ġanci enne
Ġcircons cription
ĠcoÃ»te ux
ĠsÃ©v Ã¨res
ony me
Ġappor tÃ©e
Ġartis tes
Ġincap ables
ĠdÃ©lic at
Ġsouffr ances
ĠdÃ©cide urs
oxy de
Ġfen Ãªtre
Ġrivi Ã¨re
Ġpharm aceu
t nam
Ġl istes
Ġs phÃ¨re
ai es
Ġf oc
ol at
ro yer
Ġcomm ises
Ġcomp orter
Ġsa che
ose vic
ob s
Ġcl asses
ram me
Ġconstitu era
Ġcoup ables
Ġappropri Ã©s
Ġappro ches
ĠcohÃ©r ent
Ġpay Ã©
ĠconsidÃ©rÃ© es
Ġinnov ations
Ġfournit ure
Ġlanc Ã©e
Ġcombin aison
k er
k el
Ġ Å
al tern
Ġj ur
Ġb oute
ĠP o
et t
Ġapp uyer
Ġdis sim
ĠÃ©g yp
exp ansion
ov is
ĠO ui
Ġstru ctur
Ġjuridique ment
Ġrend us
Ġamb ition
Ġdispos Ã©e
Ġparf aite
inst all
Ġcontinu Ã©
Ġrati fier
Ġval oir
Ġcellu le
Ġvir tu
ĠdÃ©bou cher
Ġmodes te
Ã¢te au
Ġmol Ã©cu
ĠdÃ©couver te
ĠadhÃ© rer
prÃ©s ent
Ġsoigne usement
P l
T rÃ¨s
a o
m ise
qu ants
Ġa oÃ»t
Ġv erts
est res
ĠÃ© puis
ĠÃ© lÃ¨ves
li que
Ġre quÃªte
Ġpro vient
Ġne tte
Ġav iez
ul aritÃ©s
ĠS ec
ĠdiffÃ©r enci
Ġmal ades
Ġdisp osÃ©
ĠCh ili
Ġinc onn
st ab
Ġfi able
ĠbÃ©nÃ©fi que
Ġri gi
Ġcontinuer ons
ensi ve
Ġtomb Ã©
Ġ25 0
Ġexcep tions
ĠMal te
Ġble u
ĠBi Ã©lor
Ġmorce au
AD N
Ġfossi les
immob ilier
ĠSchul z
h om
h ommes
ti enne
re f
er ai
ar chitecture
Ġf lÃ©
ous e
Ġg oÃ»t
ort able
Ġex act
Ġent rain
Ġconc ours
Ġdiff us
Ġjus que
gu Ã©s
ĠN ouve
Ġsouti endra
intÃ© resse
Ġ199 3
Ġgra ph
ĠÃ©qu itables
import ants
Ã©ch app
Ã©ch elon
Ġpublique ment
ĠrÃ©glement er
Ġatta quer
Ġincl ut
OC DE
enregistre ment
O bama
h armon
is tique
in telli
ra ctions
ĠC ali
ab us
ĠM Ã©di
Ġmo teurs
Ġmes ur
ler a
Ġinter net
ct oires
Ġtrans met
Ġcommun istes
Ġjus tes
Ġag res
ĠD es
ĠK re
Ġabs or
Ġconfront ation
Ġpous sÃ©
Ġfrapp e
Ġresse mbler
ĠillÃ©g al
ĠdÃ©rou le
Ġasse mblÃ©e
ĠrÃ©ag i
stitu t
effectu er
Ġmuni cip
ĠNiger ia
ĠXXI e
crip tions
. âĢĿ
S K
e ction
Ġd or
Ã© lÃ©ment
Ġl une
Ġla Ã¯
it ch
Ġt s
Ġg este
ĠC omment
Ġch ant
Ġcomp arer
Ġper mette
ĠB ang
ĠS w
int on
ĠT u
ĠR i
Ġti enne
ĠN ob
Ġplu ie
Ġemp re
Ã©v oquer
Ġappr ouve
ĠnÃ©goci Ã©
Ġreg istre
Ġorganis me
att ente
Ġche v
Ġtranspar ent
Ġappar u
Ġmu si
Ġstat u
Ġunivers elle
Ġpropri Ã©taires
Ġinsuffis ant
ĠreflÃ¨ tent
Ġaccueil lir
Ġwe ek
Ġlinguis tique
Ġhoriz ont
ĠÃ¨ re
Ġadministr ations
b r
d en
Ġd orm
on ale
Ġf aille
il lent
Ġpar ent
Ġpar allÃ¨lement
Ġpro xim
ĠprÃ© dÃ©
tr ai
Ġparti cipe
ĠS al
Ġat om
ĠdÃ©m ant
Ġren dez
Ġrec ord
Ġparticu les
ĠN or
Ġinc ert
Ġfi ers
Ġmodi fiÃ©s
Ġexc uses
Ġouver tes
ĠrÃ©flex ions
ĠprÃ©t endre
Ġtol Ã©rer
Ġrouti er
Ġpours uites
Ġenregist rÃ©
ĠdÃ©ri vÃ©s
Ġaj out
ĠmÃ©l ange
Ġramen er
ĠDar four
Ġfarde au
D i
k ov
Ġp av
Ġm am
Ġn at
Ġt ardi
Ġb arb
ir ent
Ġent rÃ©
Ã©t ant
Ġvi abilitÃ©
Ġinter dire
Ã©g ovine
Ġrep ro
Ġress ource
ĠreprÃ©sent Ã©
Ġvol onti
Ġri gueur
ĠJe an
ĠdÃ©termin Ã©
Ġinst aur
Ġaider a
ĠgÃ© op
Ġtermin Ã©e
Ġdistin guer
Ġexter nes
OL AF
Ġrub rique
erz Ã©govine
Ġproxim itÃ©
Ġvolonti ers
D em
D urant
Ġf act
ĠÃ© met
ĠdÃ© stab
Ġpar lait
Ġdu mping
Ġpl ong
Ġcomm ande
la ve
isi bles
ĠA L
Ġman quÃ©
Ġprog ression
Ġcl os
ĠF or
Ġ19 5
ĠdÃ©s armement
Ġaccep tÃ©e
Ġfonction nÃ©
Ġret omb
Ġchar gÃ©e
Ġcontinuer ont
Ġoblig Ã©s
Ġstri ctement
Ġcaus Ã©
Ġallemand s
ĠdÃ©v as
ĠÃ©quiv al
instru ments
Ġenseign ants
ĠMil osevic
ĠcÃ©rÃ© ales
Ġsti pule
m ais
Ġp Ã©d
Ġn Ã´tre
le o
Ġj ardin
eu t
Ġre tenir
Ġpro lifÃ©ration
pr opor
ĠrÃ©s olue
ang le
ende z
Ġca cher
Ġnation alisme
Ġmainten u
Ġemp i
inter mÃ©diaire
ĠintÃ©ress Ã©s
Ġinst ances
ĠmÃ©c ont
Ġbou che
Ġformul Ã©
Ġven ant
trui te
ĠpÃ©n urie
Ġassoci Ã©
Ġsex es
visi ons
ĠdÃ©faut s
Ġsoup les
NE W
Ġexpress Ã©ment
ĠCali for
F ace
b o
Ġd ents
on ci
Ġp Ã¢
ou n
ai sie
Ġqu art
il lon
ag ence
ĠM an
Ã¨s es
Ġdis propor
Ġpu issante
enti elle
Ġman quent
ĠL am
Ġpubli er
ĠI s
Ġconn ues
Ġpersonne ls
ĠprÃ©sident e
Ġvol ati
aur aient
Ġport able
Ġint ro
ĠcompÃ©ti tion
Ġsan itaires
Ġapporter a
Ġoccident ales
hab itants
ote chnolo
Ġfabri quer
ĠdÃ©mar ches
ĠapprÃ©ci Ã©
Ġanalys es
Ġpersonn alitÃ©
Ġaccessi ble
ĠdÃ©ten us
ĠexcÃ©d ent
ĠNob el
ĠdÃ©mant Ã¨lement
H erzÃ©govine
t or
ur ation
ur des
or re
Ġf uite
ĠÃ© b
at mosphÃ¨re
Ġne ige
ue ille
ĠdÃ©p ression
Ġemp ris
ann once
Ġinf lation
Ġsign aux
Ġfam ine
aff ai
inc lure
Ġremp lacement
Ġcoup s
Ġ9 5
Ġbl an
Ġorient al
ĠdÃ©l oy
Ġregard Ã©
Ġviv ants
Ġphy siques
Ġlour ds
ĠdÃ©finiti f
ĠcÃ© der
ĠrÃ©tab lissement
Ġinflu encer
Ġsubstanti elle
Ġatti rÃ©
Ġgri mp
Ġremb ourse
ĠTib et
E M
F I
h iques
z z
Ġp ur
in os
ait es
Ã©r al
Ġconc l
mi de
Ġper pÃ©
Ġad met
Ġvo let
Ġrais onnement
Ġbi otechnolo
Ġpres s
Ġmis Ã¨re
Ġpi res
Ġexc lure
Ã©m ocrates
Ġdispar itÃ©s
Ġidenti ques
Ġoffici elles
ĠdÃ©velopp Ã©e
Ġsymp athie
ĠhÃ© micycle
Ġsoud aine
Ġstu pÃ©
ĠfÃ©dÃ©r al
ĠrÃ©cu pÃ©rer
Ġrapproche ment
Ġperp Ã©t
ĠPÃ© kin
ĠCl inton
h onn
te in
Ġr attra
ne y
Ġg are
ac tifs
Ġconc rÃ©
ĠB on
ĠrÃ©s umer
tin g
Ġni er
imp Ã´t
ĠlÃ©g u
ĠlÃ©g Ã¨re
Ġcha Ã®
Ġagri culture
Ã©lÃ© ments
Ã©rÃ© ment
Ġpi ra
Ġindustri alisÃ©s
Ġparle z
Ġbou ger
Ġbou lot
Ġciv ilis
Ġparagraph es
Ġoffici el
Ġchang ent
ĠMc C
accÃ© lÃ©
ĠprÃ©sidenti elle
Ġindivid uelle
ĠdÃ©cisionne l
Ġmagas in
Ġautrich ienne
Imag inez
ĠAsh ton
ĠBiÃ©lor ussie
c om
p ture
Ġn erve
Ġt un
si fier
Ġab ond
ĠD Ã©
Ġmin uti
ĠE l
Ġfer mÃ©
Par fois
Ãī videmment
ĠV ie
Ġmaj or
Ġsui vent
ordin ateur
ĠcÃ´ ti
Ġmodi fiÃ©e
Ġpropre ment
Ġtrouv Ã©e
Ġint ense
Ġpoursui vent
ĠprÃ©occup Ã©s
Ġprov iennent
ĠMar tin
Ġmag az
Ġsecond aire
ĠphÃ©nom Ã¨nes
Ġbureaucra tique
Ġaband onnÃ©
ĠdÃ©cou le
Ġemprun ter
Ġprogress Ã©
Ġridi cule
ĠxÃ©nophob ie
E uropÃ©ens
d its
u aires
Ã© lÃ¨ve
Ġa fghan
Ġm yth
Ġf ili
eu gen
os ex
Ġcont enir
Ġacc ro
Ġann uels
ass Ã©
Ġvie illes
Ġfer ais
Ġveu ille
Ġbr Ã¨ve
inc apacitÃ©
Ġrev ue
Ġquali fiÃ©
hab il
Ġsoule vÃ©es
ĠdÃ©velopp Ã©es
Ġapprouv Ã©e
Ġlour d
Ġdess in
Ġinsuffis ante
ĠisraÃ©li enne
Ġanalys er
ĠspÃ©c ulation
ern itÃ©
Ġaspir ations
Ġenthousias me
Ġpert urb
ĠDav id
ĠVerh eugen
ĠMÃ©di ateur
E A
Ġ '
Ġc itÃ©
ou x
Ġs ain
re di
si bles
Ġpar am
Ġpar lant
Ġcont enant
Le urs
ĠÃ©t endu
ĠS om
rÃ©s or
ĠF lor
ĠL et
Ġbas Ã©es
Ġop tique
intÃ© ress
Ġinc ar
Ġinc orp
Ġju gÃ©
Ġfac ul
Ġpriv atisation
Ġretr ouv
Ġencour agÃ©
ĠfÃ©lic itons
Ġpasser a
Ġsan itaire
ĠrÃ©ser vÃ©
Ġk m
ĠvÃ© lo
ĠvÃ©ri fication
ĠdÃ©rog ation
autom ne
ĠCalifor nie
ĠchaÃ® nes
a ques
n an
Ġm our
Ġn ager
il er
au g
ĠdÃ© lÃ©
Ġre dÃ©
tr ons
tr ont
ĠÃ©t hiques
orte ment
ĠdÃ©p lace
ot ation
Ġfor ment
Ġat ro
Ġfa me
Ġor ale
ĠK ong
ĠH aÃ¯ti
Ġpopul aires
Ġjou eurs
ĠrÃ©alis Ã©e
Ġprom ette
Ġid entique
Ġpris ons
ĠamÃ©li ore
Ġvoy ages
Ġsem estre
Ġrespect ant
Ġvolont aires
Ġtravers e
ign ore
Ġcat al
Ġreconnaiss ent
Ġfu mer
ĠdÃ©li v
Ġterre ur
Ġinaccep tables
Ch ers
Ġstri ct
Ġmat er
ĠrÃ©vÃ© ler
ĠPa ci
Ġmig rat
Ġtouch Ã©es
Ġrenouvel able
Ġcla uses
Ġsymb ole
Ġretrait es
Pr enons
ĠagrÃ© able
activ itÃ©s
fini ment
Ã© larg
ent amer
in a
or tÃ©e
si les
Ġf e
au de
Ġg ala
at om
Ġcon tiennent
app are
oir s
Ġpays age
Ġdire ctes
Ġam Ã¨ne
Ġal b
Ġst ag
Ġexp ansion
ĠnÃ©cess iter
Pour riez
ĠCh ar
Ġinstitu tionnels
ĠrÃ©alis Ã©es
ĠprÃ©v oient
Ġaccep tables
Ġinform atique
yp ri
Ġall Ã©e
Ġlaiss ant
Ġparven ue
Ġsuper fici
ĠintÃ©g rÃ©s
Ġobli ger
Ġ197 0
Ġsymp t
Seu le
Ġconten us
rom pu
tÃ©n uer
ĠSol ana
Ġquarti er
Ġdispropor tion
C in
E s
S ous
y o
Ġd Ã®ner
Ã© nie
Ġc ig
ĠC omme
ĠM us
Ġcomp t
Ġcont our
ĠÃ©g alitÃ©
ĠdÃ©p endra
Ġcr aindre
uti litÃ©
ĠR oth
Ġrep as
ĠprÃ©sent ant
imp asse
Ġmal ent
ĠH ar
Ġadop tant
Ġdemande z
Ġfi ctifs
ĠO K
ĠdÃ©fin ie
Ġfavor ablement
Ġcat h
ĠMar y
ĠBar ack
Ġfourn issent
ĠrÃ©fÃ©rendum s
Ġcompens er
Ġfonde ments
obser v
Ġliqui ditÃ©s
ĠSe con
ĠdÃ©tru it
organ es
ĠhÃ©r os
Ã³ n
exig ence
ĠGol fe
t ations
Ġs omb
Ãª tement
app uyer
Ġcons tant
et ter
aut onomie
pr its
Ã©n agement
ĠS lov
Ġar bres
ĠÃ©v oque
Ġcha mps
Ġbi ologie
import ant
Ġappel lent
Ġsc r
Ġexist ante
Ġenvis agÃ©
Ġaction naires
Ġsoule vÃ©e
Ġdisponi bilitÃ©
ĠmÃ©dic al
ĠÃ©lector al
identi fier
ĠrÃ©di ger
Ġaffec tÃ©s
Ġcriti quer
ĠdÃ©lic ate
Ġconjoin tement
Ġautonom e
Ġenn uy
ĠocÃ© ans
oly mp
a x
b ollah
l age
is ti
Ġm ous
Ġn ordi
our v
Ġin vers
ol k
Ġdi oxyde
mb lÃ©
am me
ys er
Ã©t end
ĠÃī gypte
Ġper dent
ĠB ritan
ĠS an
ĠG UE
Ġai ment
form Ã©ment
ez bollah
ĠlÃ©g ales
Ġenf re
Ġju ges
Ġcommen Ã§ons
Ġjusti fication
all ais
Ġchi ens
Ġcoup able
Ġcandid ature
Ã©m ie
Ġprov oque
Ġmanifest ation
ĠÃ©cri v
Ġred ist
ĠvÃ©hicu le
actu elle
Ã´pit aux
Ġincon vÃ©ni
201 3
Ġavoc ats
Ġbizar re
Ġinadmis sible
ĠperpÃ© tu
Ġgala x
D Ã©s
V oy
h er
p rodu
u c
Ġ olymp
es clav
Ġen vir
Ġau rez
ri es
Ġne t
Ġdi rait
ĠM onti
ĠS anter
ĠdÃ©p ourv
Ġacc ent
uti lise
um Ã©e
Ġfond ations
Ġconsid Ã©r
ĠÃ©conomique ment
ĠK o
ĠH ezbollah
Ġris quer
Ġnu llement
Ġabs olu
Ġprofes seurs
objecti fs
Ġprot Ã¨ge
ĠMar ie
Ġappro bation
Ġquanti t
Ġeffectu Ã©s
ĠillÃ©g aux
ĠidÃ© ologique
Ġmaxim ale
Ar rÃª
At lantique
Ġlabor atoire
Ġbiblioth Ã¨que
Regarde z
aboli tion
D A
c rits
i z
o lement
p ol
ĠÃ Ģ
or ateur
our ge
ri ra
ĠrÃ© affir
Ġpl ais
ĠP al
ĠM ah
vi ce
Ġins ur
ĠF ed
ĠN ic
ĠdÃ©f endu
ĠdÃ©f aill
Ġpass ait
Ġ199 1
Ġ6 5
Ġrespec tÃ©es
Ġfavor ise
Ġopp oser
Ġopp osÃ©e
Ġsol s
Ġay ez
ĠgÃ© ni
ĠdÃ©l its
Ġjourn aliste
Ġmus Ã©e
Ġrele vant
Ġcarb urants
ĠrÃª ves
ĠÃ©chec s
ĠÃ©quip es
Ġlogici els
Ġexam ine
Ac c
Ġparviend rons
Ġsect orie
ĠGali leo
d ra
e v
in ture
it t
Ġv Ã©g
al lÃ©
Ġcon gÃ©
Ġpl astique
ĠP roche
Ã´ les
ĠÃ©t oiles
co fin
Ġpart agÃ©
ĠprÃ©sent era
ĠJ our
ĠH aut
Ġrem onte
ĠrÃ©du isant
ĠÃ©ner gique
Ã©d Ã©ration
ĠindÃ© ni
ĠprÃ©par atifs
dic ations
Ġdimin ue
Ġoffici els
Ġvas tes
Ġentend ons
Ġprosp Ã¨re
ĠdÃ©finiti vement
Ġcontraign ante
Ġoccup Ã©s
ĠsuggÃ© rÃ©
ĠsuggÃ© rer
Ã©cri re
ĠÃ©tabl issant
ĠFis ch
ĠAL DE
ĠPaci fique
% ,
m s
m Ã¨re
Ġp Ãªcher
Ġc ub
Ġr avie
ĠdÃ© ter
Ġb ombe
Ġg rÃ©
Ġcon former
Ġpro duite
Ġpro cl
ro is
app ort
ĠprÃ© co
oc ations
ĠrÃ©s olument
Ġal lÃ©g
Ġtrans nation
ĠnÃ©cess itent
Ġmin or
ay ant
ĠspÃ©ci fic
Ġiniti al
ĠcÃ´ tes
ĠmÃ© fi
nie urs
Ġrencont rÃ©s
Ã©le ctions
ĠY ougoslavie
ĠAl ors
Ġreligi ons
Ġcerve aux
Ġtyp ique
Ġfou le
prÃ©sident e
Ã¡ n
aucun s
Ġinflu en
Ġblo quer
Ã©limin er
Ġverre z
Ġpropag ande
ĠlÃ©gu mes
ĠSlov Ã©nie
a Ã©rop
Ġ Åĵil
Ġd il
is Ã©ment
Ġb ovine
ch et
Ġre quis
ol f
ol Ã©e
ĠP ES
ĠP atten
Ġo re
Ġapp ortent
Ġman gÃ©
ang Ã©
emp run
Ġmil lÃ©naire
Ġren voy
Ġcontr aints
Ġfr Ã¨res
Ġfi Ã¨vre
ĠspÃ©ci aux
Ġjusti fiÃ©e
Ġlar ges
Ġche val
Ġdiri gÃ©
Ġextr Ãªmes
Ġchi mique
Ġsix iÃ¨me
Ġreje tÃ©e
Ġus ines
ĠdÃ©lÃ©g ations
Ġexcep tionnelle
Ġnavi re
Ġjapon aise
Ġpersuad Ã©
Ġrom an
Ġsatel lite
Ġnavig ation
Ġcig are
c onne
c itÃ©s
n iste
o tique
Â ´
Ġc ra
ar isation
ĠdÃ© Ã§u
Ġb or
ĠrÃ© itÃ©
ĠP ap
tu me
ĠB o
ĠS ing
Ġmont rant
isl am
Ġaccep tÃ©s
Ġiniti alement
Ġjusti fiÃ©
Ġtrouv ait
ĠdÃ©mocratique ment
Ġrencont rent
Ġappar aissent
Ã©quili b
ĠÃ©mer ge
Ġmenac Ã©s
Ġcaus Ã©s
Ġindividu elles
Ġpertin entes
ĠÃ©quiv oque
ok yo
Ġlon gueur
Ġvacc in
inn ock
Ġaccessi bles
Ġmerc redi
Ġenne mis
Ġsond ages
Ġcofin ancement
Ġnui re
Ġts un
ĠvÃ©g Ã©t
H Ã©
I F
f ord
g re
m ons
en j
is on
is tÃ©ri
Ġin d
Ġdi ction
Ġex ag
av ortement
Ġes prits
tin s
Ġlib Ã©rale
ĠdÃ©f aite
Ġpens aient
Ġeng endre
Ġsouhait s
ĠsÃ© cher
Ġimpli quent
Ġsus pens
In stitut
ĠLe h
Ġvoter ai
Ġcer ti
Ġsensi blement
Ġajou tÃ©
Ġtemp Ãªte
Ġrestri ction
enseig nements
Ar gentine
Ġpertin ente
Ġaccus ations
Ġhyp oc
Ġrob ot
erti se
Ġtransit oire
Ġasi atique
Ġclandes tine
Ġcraign ent
Ġincendi es
ĠvÃ©tÃ© rin
A d
b urg
c tique
j a
u les
Ġ Unis
Ġa ir
in ki
Ġv et
Ġch ron
am es
Ġh on
Ġsou ches
iss ants
Ġst ation
Ġtrans europÃ©ens
itu el
Ġor igine
Ġcontr aint
Ġag issent
oute z
Ġprof il
ĠK innock
els inki
ĠV al
ĠÃ©tab lissements
Ġint ol
Ġobser vÃ©
Ġcontinu ons
Ġbre fs
emb argo
ĠidÃ© al
Ġaccus Ã©
ĠbilatÃ©r ales
Ġconjoin te
Ġdouani Ã¨re
Ġexter ne
Ġflu ctu
B R
er me
Ġre dev
Ġo eu
Ã´ mes
oy ers
ĠdÃ©p lacement
ĠA llem
Ġsa chant
ĠT he
Ġass istons
ari a
Ġindi en
ĠrÃ©alis tes
Ġesp aces
Ġ4 2
Ġconcurr ents
Ġver rons
termin ation
Ġsouten us
Ġexist ence
Ġtransf Ã©rer
ctri ce
Ġobser ve
Ġlo int
th Ã¨se
Ġconsac rÃ©e
Ġhabit uellement
ĠÃ©mer gentes
expli que
NG L
Ġappare ils
oblig ations
Ġautomob iles
ĠindÃ©pendant es
Ġsusp ension
Ġesc omp
Ġtox iques
ĠreflÃ© ter
Ġfati guÃ©
Ġtromp er
Ġirrespons able
Ġboule vers
Ara bie
Ġscr utin
ĠFisch ler
B ref
f t
en rich
Ġn az
Ġf an
Ġv illages
ĠÃ© mettre
Ġpl aide
ĠC entre
ens eur
Ãª ter
Ġtra h
Ġfor esti
ĠT ai
anti l
Ġmet tra
Ġ3 6
ĠrÃ©v ol
Ġsouten ant
ĠprÃ©f Ã©rences
ton ie
Ġcouv erts
pi rer
ĠrÃ©fÃ©r ences
Ġneu tr
Ġcroy ez
Ġradic aux
Ġsauve g
Ġreti rÃ©
Ġsymb olique
Ġrequ ises
impli quer
Ġaudi ovis
Ġconcert ation
Ġaimer ions
Ġfre in
Ġcompati ble
ĠMad rid
Ġallou Ã©s
Ġem men
Ġplur alisme
Ġterrib les
Ġmalheure ux
ĠbÃ©t ail
accÃ©lÃ© rer
b ul
h o
o du
ĠÃ ĩa
li b
ff Ã©r
Ġdev ais
Ġh i
Ġces sez
Ġpays ans
ĠB Ã¶
ex trÃ©
Ġad resse
ĠT okyo
ĠcrÃ© Ã©s
Ġmin istÃ©ri
Ġcul tiv
Ġtu Ã©s
Ġoff ert
Ġdou ter
Ġtour nant
Ã¯ s
Ġcher ch
ĠrÃ©un is
Ġsus citer
Ġsatisf aite
Ġobser vation
organis ations
od a
ĠdÃ©mont rent
Ġmas sif
Ġengag Ã©es
Ġradic alement
Ġafric ain
ĠopÃ©ration nel
Ġparad is
Ġislam istes
Ġhongro is
ĠdÃ©favoris Ã©es
ĠflÃ© au
Ġvet o
E ss
O K
g Ã©ri
k h
l ante
l issent
n ait
o euvre
Ġn oci
Ġf leurs
que ment
Ġb eaux
Ġdu rer
res pect
Ġcon g
ĠM ed
Ġac tives
Ã©t ape
ĠdÃ©p oser
ĠF ond
Ġconf ond
ĠD el
Ġpropos ent
Ġappr end
Ġconfi d
Ġsuffis ants
Ġsais on
Ġall aient
ĠÃ©p au
ign or
ĠdÃ©tail lÃ©es
Ġsec rets
Ġsp ir
ĠlÃ©gi fÃ©rer
Ġpati ence
Ġrac ines
Ġcompar Ã©
Ġgu ise
Ġcorrespond ent
Ġlour des
Ġobli ge
Ġbar re
Ġlinguis tiques
Ġsensib ilisation
ĠdÃ©gra dation
ĠInter national
ĠLet tonie
P rÃ©
c tÃ©s
h oriz
s in
Ġd us
Ġc u
ur itÃ©
in vent
te au
Ġen ch
ĠÃ© radi
ĠP D
Ġdi visions
Ġi ra
Ã´ me
Ġann oncer
Ġrep orter
Ġag enda
ass assin
ĠH ol
ĠdÃ©s Ã©quilibre
ĠsÃ» res
Ġcomment er
ĠspÃ©ci alistes
Ġlim itÃ©s
Ã¯ tÃ©
Ġconstru cteurs
Ġretr ouvent
Ġsus pend
ĠintÃ©ress Ã©
Ġabord Ã©s
ĠgÃ© ographiques
Ġcolle ctif
Ġparven ons
fric ains
Ġadap tÃ©e
identi fication
Ġlab el
ĠirrÃ© g
Ġfamili ale
Ġrequ ise
Ġstab iliser
Ġmotiv ation
aj oute
ĠPour quoi
Ġtox ic
ĠBro k
ĠrÃ©vis er
ĠÃ©man ant
ĠRob ert
Ġvag ues
D Ã©
Ġ Europol
ar y
ĠÃ© te
ci euses
Ġin hÃ©r
os t
ag an
ac cum
Ġh onneur
Ġh Ã´pitaux
Ġaut o
Ġrec ouv
ende ttement
Ġinf ractions
Ġcli ent
Ġretr ai
Ġdoc tr
Ġten nis
ĠcompÃ©ti tifs
ug abe
Ġexc lus
Ġsouff ert
Ġreconnaiss ons
ris ie
Ġconsac rÃ©s
Ġmanifest er
Ġassur ances
Personne llement
Ġradic al
Ġintelli gents
Ġcontraign antes
ume ur
actu el
ĠdÃ©cou lent
ĠsÃ©v Ã¨re
Ġsil enci
Ġstu p
pro lifÃ©ration
Ġpolici Ã¨re
ĠmultilatÃ©r al
Ġtari fs
Ġrestaur ant
Ã©nÃ©g ro
Ġcontemp or
ĠCamb od
altern ative
C O
C a
C ons
e mbl
m ad
m lin
p our
u f
u ment
Ġl uxemb
Ġde grÃ©s
ti ce
Ġs log
ent ure
Ġn Ã©e
in Ã©galitÃ©
Ġr enseignements
li ez
ci en
eu tiques
Ġch im
app uie
Ġh u
Ġconc ilier
onne z
ins pe
ĠÃ©t ouff
ĠS p
ĠS IDA
ĠdÃ©m ons
Ġcontr ainte
exp lo
Ġsub issent
Ġim min
Ġcour ants
Ġcour ageux
ay ons
Ġtranspar entes
ĠintÃ©ress ants
ĠdÃ©tail lÃ©
Ġorient ation
Ġcou che
ĠpÃ©n ales
Ġcondu cteurs
ĠÃ©vent ail
ĠdÃ©n oncer
Ġferrovi aires
Ġmeur tre
ĠempÃª chÃ©
Ġhy dro
Ġsauv ages
Ġvot ons
Ġdiagnosti c
ĠrevÃª tent
ĠcinÃ©m a
Ġcuri eux
ĠSec rÃ©t
Ġluxemb ourge
- -
0 1
D R
F aites
m Ã©es
p t
Ġc ents
ti mi
Ġm enti
Ġr assur
Ġf oyers
Ġpr estations
ation al
ne z
al o
Ġpour rez
Ġin novation
Ġg ig
Ġg Ã¢teau
ĠP aul
Ġdi lem
Ġpo table
ĠprÃ© d
Ġimp osÃ©e
ĠdÃ©p osÃ©es
Ġad oles
Ġcontre fa
ver sion
Ġcol oni
Ġaff ich
Ġconstitu erait
Ġfer mes
hÃ© tique
Ġinc itations
Ġcor romp
ĠspÃ©ci ales
eff orcer
att ribution
Ġfac iles
lus coni
ĠprÃ©occu per
Ġsuffis ent
Ġreven di
Ġ6 00
Ġprot est
Ġsembl able
Quel que
Ġassur Ã©e
Ġautoris er
Ġconvi endrait
Ġaffec ter
arrÃª te
Pr enez
ĠintÃ©grÃ© es
ĠrÃ©clam er
Ġprag matique
ĠdÃ©ses pÃ©rÃ©
Ġsimultan Ã©ment
Ġclon age
ĠKre mlin
ĠSecon de
A I
C omm
g Ã©rie
v ants
y an
Ġp ath
an ique
Ġe ut
Ġf at
our ser
op ti
op Ã©ra
au f
ci r
Ġb ain
Ġpl aign
Ġch rÃ©ti
iss es
ĠÃ©t ais
Ġfin landaise
Ġam ou
isi tion
ĠA utriche
Ġst ress
ĠR E
Ġren de
Ã©qu iv
Ġpart agÃ©e
out ons
iti Ã©
Ġass or
esp Ã¨ce
Ġjou issent
Ġinf ir
ĠqualitÃ© s
ĠprÃ©cis Ã©
ĠcompÃ©ti tif
Ġ201 5
ĠdÃ» ment
Ġpotenti elle
Ġrecommand er
Ġsembl ables
ĠthÃ© Ã¢tre
ani ens
ĠbÃ¢ tir
Ġmonn aies
Ġfig urer
Ġsecond aires
Ġtransfrontali Ã¨res
Ġpes er
ĠprÃ©ju dici
bi otiques
Ġabsten u
Ġparcour ir
Soy ez
Ġcombusti bles
Ġchanti ers
intelli gence
i ers
i ces
Â °
Ġl y
Ġc anc
Ġdes tru
ĠÃ© lan
Ġin je
ch ose
ĠC es
ĠC as
ĠP as
Ġcont ente
Ġent rent
Ġdis e
Ġob ti
ĠR Ã©s
ĠL ou
Ġbas se
Ġca che
Ġgouvernement ale
ĠJ ac
Ġplan Ã©taire
Ġadop tion
Ġ4 8
Ġexist ait
ĠY Ã©m
Ġconseil ler
initi atives
Ġcompar able
Ġimag in
Ġprim aire
Ġprud ent
ĠrÃ©pu blique
Ġcontradi ctoires
Ġdynam isme
Ġlobb y
ĠVie tnam
P I
b out
s en
Ã© loi
Ġp Ã¨se
Ġc ouver
Ġn ov
in on
Ġt oit
ĠdÃ© d
ĠdÃ© ception
ens Ã©
di ents
Ġch ypri
app arition
ĠdÃ©c oup
gn Ã©es
Ġar chite
ĠT rib
Ġcl Ã´
Ġrep roduire
out ent
Ġbas er
ĠÃ©c osyst
Ġpass ons
ĠH e
ĠH aye
ĠprÃ©v isible
Ġreconn ue
Ġaccep tent
Ġoff ertes
Ġret arder
Ġsc ru
Ġtransp orte
ĠcompÃ©t ent
ĠadÃ©qu ats
Ġinfrastru cture
ĠcaractÃ©ris tique
Ġul time
ĠisraÃ©li ens
Ġrasse mbl
ĠÃ©cl ai
Ġadress Ã©
Ġincomp rÃ©h
ĠnÃ©er landaise
ĠinquiÃ©t ant
Ġmanip ul
ĠdÃ©lib Ã©rÃ©ment
ĠpÃ©troli ers
Ġindivid uellement
Ġconvers ation
abou tir
Ġprovin ce
ĠBritan niques
' "
b Ã©
j i
j an
Ġp and
Ġs oph
ra h
Ġin hab
Ġpl ainte
end er
onn ent
Ġres ser
ins Ã©curitÃ©
Ġmar ins
ex ister
Ġman Åĵuvre
ĠT amp
ĠT AC
Ġrel Ã¢
Ġmen a
Ġfer aient
Ġcor p
tri ce
ĠrÃ©sul tant
Ġvais se
Ġsy ner
inf raction
Ġabord Ã©e
Ġrefus ent
Ġsoule vÃ©s
ĠÃ¢ gÃ©s
pi re
Ġsyn onyme
inqui Ã©ter
Ġpaci fiques
Ġpay Ã©s
Ġfamili ales
Ġphras es
Ã©quipe ment
ĠdÃ©rog ations
ĠMer kel
Ġchir ur
install ation
aÃ©rop ort
ĠCambod ge
H istoire
T andis
f at
o od
t aient
Ġ w
Ġ os
is sions
ar on
Ġr endra
al on
ĠP acte
Ġex tension
Ġdis aient
Ã©c oute
Ġfor cer
ic a
Ġmil itants
Ġmain tient
ls on
Ġpe ines
Ġnation alitÃ©
Ġconcern Ã©e
Ġfer mi
Ġeng age
Ġrenfor Ã§ant
ĠprÃ©v al
ĠV enez
Al banie
Ġtour n
Ġenti tÃ©s
Ġban anes
ĠdÃ©termin Ã©s
Ġsep tiÃ¨me
Ġsouff le
aÃ¯ d
Ġfourn is
orique ment
Ġmanifest ants
Ġstatis tique
ĠBer lusconi
Ġfrau des
institu tions
Ġcriti quÃ©
Ġchapit res
Ġaffai b
Ġacqu ise
esti mer
Ġspectac le
Ġsupr Ãªme
OR K
ĠTim or
Ġcade au
ĠNor v
honn Ãªte
ĠirrÃ©g ularitÃ©s
D er
R este
l aient
m atisme
Ġp ommes
Ġa isÃ©ment
Ġn utri
in former
Ġr endant
Ġv ienne
Ġb ulg
ch Ã©es
Ġcon formes
Ġch Ã¨re
ĠM ED
ĠM ugabe
Ã©r os
tes te
ale m
ĠÃ©t roit
ĠB u
Ġaut h
Ġpos session
ot on
Ġrest ant
ĠdÃ©s espoir
Ġsign ale
Ġri z
Ġsuc cessi
Ġver ra
Ġremp ortÃ©
Ã©p idÃ©mie
hi opie
Deux iÃ¨me
ĠdÃ©si gnÃ©
rimin ation
Ġunivers itaire
Ġquali fier
onte x
Ġcompar ables
Ġadministra tifs
Ġadap tÃ©
Ġconvi ctions
Ġmenac Ã©
Ġalli ance
Ġpertin ent
Ġsoud ain
idÃ© ologie
ĠprÃ©con ise
ĠmÃ¨ nent
ĠdÃ©tÃ©ri oration
fait s
Ġjamb es
ĠdÃ©ploi ement
Esp Ã©rons
Ġintitu lÃ©
ĠgÃ©op olitique
Ġintro duite
ĠprÃ©co ce
ĠAllem ands
A y
c ris
m us
Ġp onc
Ġc enti
re usement
ri ment
Ġin se
ĠC is
di ons
ĠM ande
ĠprÃ© cieuse
ĠÃ©g aux
ĠS tre
ense ign
ĠcrÃ© anci
hui le
Ã©li te
Ġ3 3
Ġrap iditÃ©
Ġfais ais
Ġ5 5
Ġoff rant
Ġappli quÃ©s
Ġri re
Ġcoup er
Ġentra ver
Ġvoter a
ĠdÃ©si rer
Ġaffir ment
Ġnour r
ĠapprÃ©ci er
Ġchu tÃ©
ow ski
Ġsubs titu
Ġprivil Ã¨ge
Ġreti re
Ġharmon iser
ĠGu ant
Ġchoc olat
ĠrÃ©gul ateurs
Ġconnex ion
Ġhonor ables
ĠÃ©vÃ¨ nements
ĠNouve lle
Ġdiction naire
horiz on
Ġsoph isti
. Â»
e mblÃ©e
g Ã¨nes
l ations
l ux
Ġp Ãª
un g
it airement
Ġpar aÃ®tre
al liance
Ġb ale
Ġin Ã©g
ac tive
mb res
Ġdis pu
Ġmar in
emp Ãªche
ĠT rans
Ġab oli
Ġcontr as
Ġdoi ve
ĠgÃ©n Ã¨re
Ã©ra dication
Ġnation alistes
Ġfinanci Ã¨rement
ĠCh ris
exp osition
Ã©v Ã©
ay ez
aud it
Ġrepr end
inf lu
accep te
Ġinv o
Ġmor atoire
Ġdist ances
Ġtradi tionnel
Ġcou leurs
amb assade
Ġregard ons
Ġliv rer
vie w
Ġintrodu ites
associ er
Ġtouch ant
ĠvulnÃ©ra bilitÃ©
Ġdo tÃ©
Ġnav al
ĠÃ©vid entes
Ġcontro verse
Ġbless Ã©s
Ġobs ol
Ġressembl ent
Ġcommet tre
hyp oth
Ġcolon ies
ĠPh ili
Ġpluriann uel
ĠKen ya
Ã©larg ir
Ġgig antes
ĠTamp ere
ĠNorv Ã¨ge
M oi
V ou
d r
p es
u ela
Ġ $
Ã© mique
Ġun es
us alem
ĠÃ© lites
li Ã¨re
ĠrÃ© examen
Ġin ex
Ġin grÃ©
di en
Ġdi te
app arti
fi ce
ĠS er
ist ants
ĠA t
ob tention
cer titudes
ĠJ u
Ġvis er
ĠrÃ©f Ã¨re
Ġbi o
Ġindi cations
Ġforme lle
Ġreven dications
Ġten sion
Ġdisposi tifs
Ġth on
Ġexamin Ã©e
Ġcondam ne
Ġsuper f
empl oy
Ġang le
Ġsignific atifs
Puis que
uni fication
imm unitÃ©
Ġaccueil li
Ġhor rible
Seu l
Ġdra me
Ġpsych ologique
Ġsti p
ĠÃ©mo tions
Ġnett oy
Ġflag r
Ġrembourse ment
ĠmÃ©fi ance
Ġtsun ami
P ro
g nement
z erb
en z
ti ni
ent housias
Ġr acc
mp e
Ġav ais
Ġmon sieur
Ġvi ole
Ġentre ten
Ġco tÃ©
Ġmar quÃ©e
osi tions
alis ations
Ġal lu
Ġtrans forme
Ġmil ieux
gu erre
ĠN oire
ĠCh a
Ġvie ill
Ġexemp laire
Ġva che
Ġbi Ã¨re
Ġcontribu able
Ġchar gÃ©s
Ġfix Ã©es
Ġ9 9
Ġcou l
Ġcondam nÃ©s
lant ation
Ġbal le
Ġordin aire
ĠsÃ©par Ã©
AC H
Ġisra Ã©lo
Ġpat ron
Ġterminer ai
Ġcens Ã©
ĠÃ® le
Ġinvent Ã©
Ġinad Ã©qu
Ġscol aire
veloppe ment
auto dÃ©
Ġdesque ls
Ġdistor sions
Ġaper Ã§u
ĠbÃ©n Ã©v
ĠcroÃ® tre
zerb aÃ¯d
c re
r ist
Ġde bout
Ġs age
Ġm ers
Ġla ment
un al
Ġpar aissent
Ġg Ã¢
Ġcon d
Ġch anter
Ã©r usalem
ten ance
iss antes
gn ant
Ġins ul
ĠdÃ©b lo
ig ue
Ġag issant
Ġlong s
aÃ® tra
ĠV ienne
Ġmis siles
Ġappli que
Ġbr u
aur ont
Ġcapit ales
Ġno tes
Ġdemander ai
Ġtrait ons
ĠAm sterdam
Ġmanifest Ã©
ĠdÃ©mar rer
Ġadap tÃ©es
Ġimag inez
Ġmat ch
Ġmenac ent
Ġrejet s
Ġcontraign ants
ĠdÃ©plac Ã©es
Ġsusp endre
Ġcompos ants
infrastru ctures
Ġressenti r
Ġengend rer
Ġintensi fier
Ġmette z
ĠÃ©larg ir
ĠÃ©car ts
Ġtiss u
Ġineffic ace
ĠSom alie
j ordanie
v o
w n
es pÃ©rer
Ġp ond
er te
Ġm Ãª
it ter
Ġt ue
ch a
ĠP E
ac tes
am Ã©nagement
av ancement
Ġli ti
ad ore
ĠB ill
ĠdÃ©p endre
Ġter mine
Ġsa oudite
ĠdÃ©m ante
Ã©qu itÃ©
Ġai dent
Ġfinan cÃ©
Ġfinan cÃ©s
Ã´t res
ĠreprÃ©sent ante
eff orce
tis Ã©
Ġban qui
Ġstructure l
ĠGr oupe
tÃ©rieur es
Ġsour is
Ġpren antes
ĠillÃ©g ales
ĠdÃ©rou lement
Ġatten tifs
exploit er
Ġmodern iser
ĠdÃ©cou lant
Ġmotiv ations
Ġfo lle
nier ie
Ġincomp ati
Ġprolong er
ĠconÃ§ ue
Ġobs c
Ġportug ais
Ġfant astique
Ġenv oie
Ġinspe ctions
Ġajus tements
Ġconj onc
Ġparal ys
ĠTi mes
ĠintÃ©rim aire
ĠTrib unal
ĠVenez uela
ĠCis jordanie
a une
c ra
c orÃ©
s ch
u ge
it z
Ġau da
di ctions
ins crire
ĠÃ©g ale
Ġdire cteurs
Ġst ables
ĠR o
ĠR ich
Ġdonn ons
ĠD G
ĠcollÃ¨ ge
ĠrÃ©alis ations
ĠO ccident
Ġappli cations
Ã©ch Ã©
Ġ8 00
Ġcommencer ai
cev able
opp osent
Ġenvis agÃ©e
Ġval oris
Ġsouver ains
Ġgu Ã©r
ĠrÃ©par ation
ĠtÃ© moins
Ġsinc Ã¨res
ĠnÃ©gli ger
Ġhonn Ãªtes
Ġfas cin
ĠsecrÃ©t ariat
Ġgui der
Ġtari f
Ġmens onge
Ġsurc roÃ®t
Ġdorm ir
Ġhi Ã©r
assassin at
ĠSecrÃ©t aire
0 2
A i
S inon
d isc
g it
s me
Ã© anti
Ġl is
Ġl Ã¨
Ġl ux
Ġp Ã©nÃ©
Ġs lova
Ġqu Ãªte
un ique
Ġr o
Ġg Ã©rÃ©
Ġne z
Ġch ante
ol er
Ġme ts
Ġcomp osÃ©e
Ġdire ctions
Ġmar qu
Ġmes sieurs
ĠS m
ĠdÃ©p osÃ©e
Ġter ri
ĠT aÃ¯
ĠrÃ©p res
ente z
Ġcar rÃ©
im a
Ġcha peau
exp l
Ġvis itÃ©
Ġsoi x
anc Ã©e
Ġdou ane
Ġatte intes
Ġno tÃ©
Ġport ait
Ġtrait ent
Ġpartis an
Ġmor ales
Ġfourni es
Ġrester ont
ani um
ĠarrÃª tÃ©s
Ġsyn thÃ¨se
ĠdÃ©velopp ent
Ġpermettr aient
Ġexige ant
Ġplac Ã©s
Ġtransform Ã©
Ġlic ence
Ġru pture
Ġconserv ateur
Ġdesc end
Ġmerveille use
hy dro
ĠhÃ©r itage
aband on
Ġvrais embl
Ġaveug le
Ġaffect ent
Ġdomes tique
ĠultÃ©rieure ment
Ġmagaz ine
Ġretrai tÃ©s
ĠYÃ©m en
1 0
N i
P A
a qu
m ains
Ġl an
Ġc oupes
Ġde dans
Ġs o
an nexe
Ġm urs
Ġm Ã¢
Ġr assurer
Ġf us
as es
li min
al it
tre r
Ġpl omb
oci ation
Ġentre tenir
Ġper fe
ex iger
ĠF at
Ġab at
Ġpri mes
ĠN am
ĠÃ©le veurs
ĠV oici
att ent
Ġsuc c
Ġmod estes
Ġformul Ã©e
Ġferme tÃ©
ĠcompÃ©t ents
ĠdÃ©n u
Ġmob iles
Ġmob ile
ĠtÃ©lÃ©ph ones
Ġvoyage urs
Ġfamili al
ĠentraÃ®ner a
Ġdivis Ã©
Ġmultila tÃ©rale
Ġimpression n
ĠinfÃ©ri eure
Ġprati quer
Ġatti re
Ġcop ie
Ġautor itaire
accÃ© der
Ġpil ote
Ġexpl osi
ĠÃ©chapp er
Ġpouss Ã©e
Ġindire ctement
Ġenne mi
Ġincontest ablement
Ġfructu euse
indivi dus
ĠingÃ© nieurs
Ġnomin al
Ġmater nelle
D is
c or
c al
f ense
r Ã´
Ġc oute
ti g
Ġn aÃ®tre
or tÃ©es
Ġr ab
Ġf oyer
Ġen vergure
Ġpar ts
Ġb ir
ĠrÃ© alise
ĠC anc
ces seurs
am Ã¨ne
Ġcomp osÃ©
Ġcont este
onn ant
Ġimp ulsion
ĠT e
Ġexp ul
ĠintÃ© resse
Ġprodu ites
Ġren voyer
ĠG al
ĠÃ©c la
ĠJ Ã©rusalem
Ġrest Ã©s
inter dire
Ġpi Ã¨ge
Ġsy ri
ĠtÃ©lÃ© vis
Ġanim ales
ines s
Ġhab itude
Ã©le ctor
Ġbou c
ess aie
Ġanal o
Ġcolle ctives
cepti cisme
impli que
Ġbloc age
ougos lave
ĠdÃ©bu tÃ©
Con formÃ©ment
Ġpropag ation
ĠnÃ©fas tes
Ġsouples se
ĠTai wan
d Ã©e
r ise
v abilitÃ©
Ġp Ã©ni
ou ch
Ġla tin
âĢ ¦
os tat
Ġse ction
Ġex h
Ġcomm Ã©m
ĠS aint
Ġpers Ã©cu
ic k
ser v
ud isme
ĠÃ©v olue
ass umer
ĠI N
Ġrest Ã©e
Ġpopul aritÃ©
Ġcour ante
Ġform ations
Ġviol ent
Ġdonner ait
Ġdoc teur
Ġaliment ation
Ġten eur
Ġ7 00
Ġrou ges
Est onie
ĠFr ontex
accep tation
Ġappar tenant
ĠprÃ©f Ã¨rent
Ġsouff rir
Ġcorre ction
lan tiques
Ġrele vÃ©
Ġregret ter
Ġcorrespond ant
indi que
200 6
Ġsubs iste
Ġarm Ã©s
Ġclari fication
Ġtempor aires
Ġhom ologues
ĠdÃ©bou chÃ©
Ġbless ures
ĠbÃ©b Ã©s
ĠmaÃ®tr iser
Ġconsenti s
Ġrenvers er
ĠdÃ©r ange
laud issements
ĠschÃ© ma
enj eu
Ġconfid enti
Ġstup ide
H O
c is
f euille
l ants
n o
r ud
w in
Ġd inos
Ġp Ã¨s
Ġs ing
un n
om ph
Ġt endre
Ġt rim
Ġun itÃ©s
Ã¨ lent
Ġin hum
Ġin appropri
ff ice
app orte
Ġcomp ortent
ĠprÃ© le
Ġfin it
ĠB ien
ĠS ah
ex Ã©cu
Ġinter rog
Ġpos sÃ©
ĠT haÃ¯
Ġma Ã¯s
Ġon Ã©
Ġai gu
ĠdÃ©mocra te
Ġass ass
ali ment
ĠJ eux
Ġ3 4
Ġform Ã©
Ġviol ents
Ġjuridi ction
ĠÃ©ch antil
Ġinv itation
Ġassoci Ã©e
Ġassur ance
Ġfrapp er
exemp tion
Ġmutu el
ĠrÃ©volution naire
Ġtri p
Ġdo tÃ©e
aci er
Ġirak ienne
ĠEur o
Ġrej oins
ĠrÃ©pu blic
Ġdomin ante
ĠMil lÃ©naire
ĠrÃ©pand ue
Ġreten u
Ġpal udisme
Ġdoig ts
Ġmorce aux
Ġpakistan ais
Ġgraph ique
etter ing
ĠallÃ©g ations
zerbaÃ¯d jan
P eux
l Ã©ration
er ons
Ġn age
Ġt alent
Ġf ur
Ġv e
Ġv Åĵ
Ġv ocation
Ġen rich
li ers
ci ent
ĠrÃ© examiner
Ġex Ã©cution
am is
Ġparti el
Ġres titu
ap our
Ġinter pr
Ġcr aint
ob oda
Ġann once
Ġprodu cteur
anti le
Ġass ume
Ġcour rier
ĠrÃ©g lÃ©
ĠrÃ©g issant
Ġinf ec
ĠmÃ©di oc
ĠÃ©ch ouer
Ġdiri gÃ©e
Ġtent ation
Ġexpli cite
inc itation
In donÃ©sie
ĠcontrÃ´ lÃ©e
Ġbl anche
ĠprÃ©f Ã©rer
Ġmention nÃ©e
Ġchois ie
ĠgÃ© nie
ĠMar s
ah ar
Ġk urde
Qui conque
Ġexer gue
Ġexer cÃ©e
Ġdevenu es
Ġexploit ation
Ġprud ents
Ġsomme ts
Ġtri omph
Ġbrut ale
Ġcalcul s
imag ine
ĠII I
Ġnomm er
ĠdÃ©pass ent
Ġsoup Ã§
ĠSh aron
Ġadress Ã©es
Ġliqui de
Ġpost aux
Ġrej oi
Ġurb aines
ĠpÃ©ti tion
Ġdra peau
Ġobje ctive
Ġscandale ux
Ġpil otes
Ġreten ue
ĠfrÃ©qu ence
Ġrigou reux
aband onner
ĠÃ©duc atif
Ġcontamin ation
accompag ner
ĠMich el
Ġindu b
Ġscep tiques
Ġredist ribution
esclav age
Ġponc tu
disc rimination
ĠvÅĵ ux
, "
C elles
i ze
ur Ã©s
Ġr omp
al in
and er
ĠprÃ© dire
vi ons
Uni versitÃ©
Ġy ougoslave
ist res
Ġam our
Ġins cri
ot age
Ġfond ateurs
Ġrec our
Ġrep roduction
Ġrep osent
ĠF e
ram mes
Ġdemand ait
Ġsouti endrons
Ġprof itent
cul ose
ĠH u
Ġgaranti s
Ġtu ber
ĠrÃ©du ites
ĠsÃ© du
Ġretr ouvÃ©
Ġuti litÃ©
ĠdÃ©si gnation
inst aller
Ġunivers itaires
Ġtomb Ã©e
hÃ©r itage
Ġus ine
Ġmenac Ã©e
ĠÃ©lector ales
cid ences
Ġred oub
Ġextraordin aires
ĠdÃ©pl oyer
Ġrob ots
Ġacqu Ã©rir
ĠprÃ©ven tive
ĠprÃ©voy ant
Ġbomb arde
ĠMont Ã©nÃ©gro
Ġilli m
Ġdict ateur
Ġfrus tration
ua sion
Ġpoursuiv ra
Ġregr oup
ĠPo ettering
ĠSw oboda
ĠcÃ´ti Ã¨res
Ġprocl am
Ġcontrefa Ã§on
ĠRE ACH
ĠJac ques
ĠCha mbre
F aisons
T rop
c ours
m ises
Ġ onc
Ġle vÃ©
Ġt alibans
Ġen ra
au re
ro Ã¯
ter ait
Ġcomp ort
Ġdis si
Ġdis ais
Ġ1 20
Ġar mÃ©
Ġprog resse
acc orde
ĠL an
Ġpri me
ĠD eux
ici le
ali ments
Ġatt ray
Ġprof itÃ©
Ġrespe ctifs
Ġcoop Ã©ra
Ġcor Ã©
Ġpai e
ill Ã©e
ĠmÃ©t al
Ġfix Ã©e
Ġregard ant
Ġautoris ation
Ġtest er
Ġadministra tif
Ġflexi bles
Ġign orÃ©
Ġrent abilitÃ©
Ġtur cs
Seu ls
ĠprÃ©cÃ© dÃ©
Ġhom osex
Ġurb aine
Ġremb ourser
Ġpier res
Ġautonom ie
Ġrestre indre
ĠdÃ©couver tes
Ġdoub lÃ©
Soy ons
ĠPN B
Ġmira cle
Ġnerve ux
Ġdilem me
enthousias me
1 99
h Ã´
n ob
Ġde lÃł
er Ã§
in demn
il Ã©
ais er
Ġdu es
ĠrÃ© sidence
ĠC ent
ni Ã¨re
Ġdi am
ĠM i
Ġex cÃ¨s
Ġmar di
ĠB olk
endre z
Ġacc roissement
Ġas si
Ã©c lar
Ġob tient
Ġprodu ise
ĠD r
Ġconstitu ait
Ġprof onds
Ġappr ennent
entre tenir
asse mblÃ©e
ĠgÃ©nÃ©r alisÃ©e
Ġ4 3
occu pe
Ġaugment ations
Ġtour nÃ©
ĠW e
Ã©p reuve
arri Ã¨re
Ġsec r
resse ment
este in
Ġcompli quÃ©e
Ġign ore
Ġplac Ã©e
ĠopÃ©ration nelle
ĠtÃ©moi gner
Ġinnov antes
Ġcam ions
Ġfas c
Ġurb ain
Ġobje ctions
Ġenregist rÃ©s
Ġgasp illage
Ġlai tiers
aggra ver
Ġrecru tement
Ġinquie ts
ĠbactÃ©ri es
Ġboute ille
harmon iser
Ġblan chi
extrÃ© misme
Ġdoctr ine
oton ou
Ġtuber culose
h r
x tes
Ã© lu
Ġc oupe
Ġm ien
Ġle vier
Ġr entre
Ġun ilatÃ©r
Ġin cident
os ons
ĠC otonou
lement ation
Ġdi alo
ĠM ondi
ers on
Ġav i
Ġh ali
ĠprÃ© limin
oc cident
Ġco di
Ã©c ran
ĠT rÃ©sor
ĠR w
ig ne
Ġon ze
Ġcompr en
ĠL ul
Ġconn ait
Ġinc omb
Åĵ urs
Ġmi di
Ġreconn us
Ġorganis Ã©es
Ġcher chons
Ġaccomp agn
ĠFr anc
Ġsolid aire
Ġbl Ã¢
ach Ã¨vement
Ġprot estations
ĠBar nier
Ġexac erb
Ġpen che
Ġsignific atives
Ġinvesti ss
Ġmat ernitÃ©
appel ons
Ġrent able
Ġdistribu Ã©
Ġcaus er
ĠtÃ©moi gn
Ġcommuni quÃ©
Ġsymb oles
aci o
Ġaudi tion
mÃ©di aires
Ġbo om
Ġproportion nalitÃ©
Ġfrag iles
Ġsupr an
Ġamus ant
indivi du
Ġbour si
ĠsÃ©p arer
orth od
ĠlÃ©gisla teurs
Ġmigrat oires
appare il
ĠBolk estein
. ,
A T
A ustralie
M e
d y
j ad
k m
n ations
n ographie
t al
u be
Ã© tiques
Ġp Ã¨res
Ġs lov
Ġm uti
Ġm Ã©d
or able
Ġr ends
Ġt arder
Ġf ri
Ġb af
ag ira
Ġi di
pe cts
par cours
ĠdÃ©m ographiques
Ġfond ation
Ã¨g ent
ls trÃ¶m
ocra tie
ĠD u
olo gue
ĠlÃ©g alement
Ġaur iez
em ment
ĠK ir
Ġvis iter
ĠH er
Ġ3 8
Ġinf e
Ġabs ent
Ġinform atiques
Ġlar mes
Ġmodi fiÃ©es
Ġimpli cation
Ġci bles
ĠmÃ©t aph
Ġsol enne
ĠY ORK
Ġphot ograph
Ġbat tu
Ġarriver a
ĠcaractÃ©r ise
ĠsÃ©par Ã©ment
ĠRe d
Ġtend ent
Ġsubs istent
ĠvulnÃ©ra ble
Ġbles sÃ©
arr ass
Ġlic ences
Ġharmon ie
ĠGu inÃ©e
Ġdesc endre
Ġration nelle
Ġhabitu des
Ġmeur tri
Ġcompos ante
ĠperÃ§ ue
CA M
Ġinspi rÃ©
entra Ã®ner
ĠrÃ©comp ense
Ġcombusti ble
itar isme
ingÃ© nierie
Pl utÃ´t
Ġvolati litÃ©
ĠdÃ©sespÃ©rÃ© ment
ĠThaÃ¯ lande
. )
F ais
c an
j ug
n istes
Ã© rez
on f
Ġp ne
ou ts
in va
it y
Ġv end
al lons
ra ges
Ġcon fier
ag rÃ©
ĠM o
Ġex erce
Ġtra Ã®ne
Ã©n orme
Ġpers iste
Ġinter mÃ©diaire
Ġtravail liste
ĠT ony
lis tes
ĠG Ã¶
Ġdom ination
ĠD im
Ġsoi rÃ©e
Ġtrop ic
Ġdou z
Ġforme llement
Ġglob aux
Ġessay ant
ĠentraÃ® nent
Ġtenu es
ĠÃ©vo quÃ©e
Ġconsac re
Ġnorm alisation
Ġidenti fiÃ©
Ġrur ale
Ġdiver sification
Ġperd ue
Ġremplac Ã©
ĠX I
Ġsang u
imag ination
Ġralenti r
Ġment ale
Ġincon di
Ġaccompag nÃ©
tÃ©n u
ĠdÃ©ses pÃ©
Ġpare il
Ġrenv oi
Ġbaiss Ã©
Ġrattra per
Ġtun nel
ĠSing apour
Ġtransporte urs
ĠcrÃ©anci ers
orthod ox
l t
Ġd ress
Ġl ente
ti ssement
re prÃ©sent
Ġa isÃ©
in dustri
op tion
al ors
ra q
ĠC D
ĠP ra
ro ge
Ġco existence
ĠdÃ©p endant
Ġpos Ã©s
ot yp
Ġpouv iez
ĠdÃ©b rou
Ġexp lor
ĠgÃ©n ome
ĠdiffÃ©r ends
Ġpropos ant
Ġsous cris
Ġdur Ã©
Ġint Ã¨g
Ġprofes sions
Ġur gents
Ġexac te
aÃ¯ da
Ġsex uel
Ġrenouve llement
Ġeffectu Ã©es
Ã¶ der
Ġmenac er
Ġexcep tionnel
Ġsomme il
Ġtransfrontali er
Ġcens Ã©s
Ġrob e
Ġrouti ers
Ġadress Ã©e
ĠbilatÃ©r al
autoris er
ĠinquiÃ©t ante
Ġble ue
ĠempÃª chent
ĠdÃ©tour ner
Ġgarantiss ent
Ġmens ong
ĠmaÃ®tr ise
Ġmacro Ã©conomique
ĠdÃ©cid Ã©e
Ġenseig nement
Ġrecueil lir
acqu isition
Ġterrib lement
oct obre
Ġmassac re
Ġambigu Ã¯tÃ©
ĠrÃ©ac teurs
Ġintr ins
Ġstag nation
Acc ord
ĠingrÃ© dients
b org
h Ã¨re
h ard
s ons
y mÃ©t
is ait
in et
te use
Ġr a
au te
Ġpar d
Ġg ou
at ti
ag on
ĠC al
ac tif
el d
av es
Ġcomp tons
ĠprÃ© rog
tr aire
Ġli aison
Ġan nex
ge ance
ad is
ad mettre
Ġtra giques
Ġmar ques
Ġpers Ã©v
ine jad
Ġar bre
Ġprodu ctions
ĠF Ã©dÃ©ration
imp Ã´ts
esp Ã©rance
Ġindi quant
Ġcour be
ĠdÃ©pu tÃ©e
Ġcomb iner
Ġsy mÃ©t
Ġporte feuille
Ġexig Ã©
Ġmention nÃ©es
han a
Ġconfront Ã©es
Ġdiscrimin atoire
Ġrecev ront
Ġpropor tions
tiss ent
Ġgui de
Ġprimordi ale
Ġespagnol s
Ġtransat lantiques
Ġreb elles
Ġdouani Ã¨res
Ġbomb es
Ġinnoc ents
Ġregr oupe
Ġquar ante
ĠJo han
Ġtoxic om
ĠTaÃ¯ wan
Ġperfe ction
serv atoire
, âĢĿ
Ġd og
Ã© min
Ġp omme
Ġa ph
ur anium
Ġt al
Ġt Ã©m
Ġf leur
ĠÃ© di
ri te
Ġpl ant
Ġtr au
ac cidents
ĠM art
ati ne
lÃ© gi
Ġmar ine
ĠS ri
ler ai
ĠdÃ©p rÃ©ci
Ġam or
Ġas c
ĠT it
ob stac
Ġann on
Ã¢ mes
ĠE x
Ġaccord Ã©s
ĠCh ira
Qu atre
Ġatt ente
ph ab
fic atif
Ġprom en
ĠreprÃ©sent Ã©s
tent ri
Ġenti tÃ©
Ġextr ait
ĠprotÃ© gÃ©es
Ġrenforcer a
Ġrespec tÃ©e
ĠÃ©tudi e
Ġdonne z
opp ression
Ġprot estation
ĠJapon ais
Ġassoci ation
Ġmas sives
Ġautoris Ã©e
Ġpositive ment
ĠÃ©vent uelles
Ġexport ateurs
Ġneu tre
Ġconvi ens
ĠsupÃ©ri eurs
ĠprÃ©t endent
Ġhandicap Ã©s
Ġoccup Ã©e
Ġpersonn age
Ġdivis Ã©e
Ġnoir s
mos ph
ĠBro wn
Ġmanip ulation
Ġ196 0
Ġaj oute
Ġtexti les
ĠAra fat
Ġfranch ir
Ġsoix ante
ĠRw anda
inva sion
ĠChira c
A h
Y ougoslavie
a ve
a sion
c ites
l ades
m ati
m Ã©diterranÃ©
Ġla p
Ġf olie
Ġpr est
Ġque ue
al ade
tÃ© rÃ©
ra ble
Ġin co
Ġin att
Ġin cidents
ab att
Ġtr ouvez
end it
ul ent
fi ants
iss aient
ĠB ur
Ġins crits
ĠT cher
ĠcrÃ© ons
ĠL u
Ġmont agnes
ĠlÃ©g alitÃ©
Ġ19 3
ĠI r
Ġservi ra
Ġcor rÃ©
ĠV ice
ĠreprÃ©sent ait
ĠprÃ©occu pÃ©
eng agent
ĠrÃ©glement aires
ru p
In ter
ĠÃ©p ouvant
ĠdÃ©ch i
ĠÃ©n um
Ġcontribuer ait
Ġinqui Ã¨te
Ġconseil lers
Ġvisi bilitÃ©
Ġaffir mation
Ġlaiss ons
ĠdÃ©l it
ĠAn nan
Ġassur ant
Ġval ables
Ġperd ants
ĠprÃ©t endu
An nÃ©e
expli cation
anal yser
imag in
Ġpersonn alitÃ©s
Ġapparti ennent
Ġciter ai
Ġintellectu els
Ġautor ise
Ġpersuad er
Ġmonop oles
Ġrepos ant
Ġreviend rait
Ġlogici el
Ġlicenci ements
Ġdesque lles
Ġspati ale
Ġcollabor ateurs
ĠnÃ©glige able
Ġcompromet tre
Ġexhaus tive
Ġatom ique
ĠredÃ© fin
Ġminor itaires
Ġchypri ote
hypoth Ã¨se
ĠRich ard
ĠMondi ale
G E
M arie
h ist
o tte
z u
Ġp aient
ou le
Ġm eu
Ã¨ ves
Ġb aign
ag isme
ĠC ast
ĠM erc
Ġcomp lais
onn age
ĠS IS
Ġinter vient
Ġinter mÃ©diaires
ĠA li
Ġexp oser
Ġexp osÃ©es
ĠcrÃ© Ã©es
Ġfond er
ĠG i
ĠF erre
Ġmin us
Ġ19 1
oli d
Ġindi enne
Ġrem ont
Ġrem Ã¨de
ĠO rient
Ġinf raction
Ġviol ente
Ġatte ind
Ġple urer
Ġglob ales
Ġfix ation
Ġ8 5
Ġinv itons
Ġconsul tÃ©
Ġanti biotiques
Ġvisi teurs
Ġcou ches
ĠCommun autÃ©s
Ġlongue ment
Ġemb ry
ĠdÃ©rou lent
Ġbureaucra tiques
olÃ© ances
Ġtrou b
ĠDan ube
Ġsoup le
Ġrestre int
Is lande
Ġprocure ur
ĠdÃ©Ã§ us
ĠPal acio
ĠgÃ©ni al
ĠPES C
Ġsuspend ue
Ġonc le
ĠJohan nes
A P
g lise
m at
r oi
v ille
Ġd ons
Ġd resser
Ã© pr
Ġp y
ou ement
er tion
ar ak
Ġpr estation
Ġun iques
us t
as c
Ġpar viendra
Ġb ul
Ġb illet
oi le
ĠrÃ© ussie
ĠrÃ© habil
Ġpro lon
Ã©r aux
ĠprÃ© jug
Ġimp rob
Ġtra Ã§
Ã©t endue
ins piration
eil les
ist ait
par ti
Ġsoci alement
lu sions
ĠN ap
Ġfer ti
enne mi
og Ã¨ne
avant ages
Ġsupp oser
ĠrÃ©alis able
Ġfi Ã¨re
omb rables
Ġappli quent
Ġtrouver a
Ġaucune ment
Ġchar ger
Ġmod Ã©ration
Ġeffe ctif
aff ect
Ġint roduction
ĠintÃ©ress Ã©es
amÃ©li ore
Ġcer tification
Ġis olÃ©
Ġsuper mar
Ġcircul er
Ġcrimin el
Ġassoci Ã©es
ĠCor b
Ġphy si
200 1
ĠfrÃ© quent
Ġcens Ã©e
Ġdivis er
Ġorigin ale
Ã©tudi ants
atur a
ĠdÃ©te cter
Ġenseig nements
Ġmusulman e
RÃ© cemment
ĠprÃ©m atur
Ġtap is
olog istes
ĠmÃ©cont entement
ĠdÃ©ter mine
explo sion
autodÃ© termination
Ġsing es
nob yl
Ġblanchi ment
ĠprÃ©jug Ã©s
C om
h or
i tement
v aient
Â ·
Ġm it
ur ait
om en
Ġf umÃ©e
ĠÃ© ve
ĠÃ© ter
al lem
Ġj un
Ġin tu
Ġin cidences
Ġil lusion
Ġav er
ois eau
onn aires
Ġmon te
Ġimp osent
lÃ¨ ver
Ã©n at
Ġmar ke
ĠB us
ĠB retagne
Ġeff orcer
ĠdÃ©p Ã´t
ĠA lex
ĠL ang
Ġcol l
ĠN ational
Ġbas Ã©s
Ġess ai
Ġatt ribuer
ĠK im
Ġrenfor cent
Ġsens Ã©e
Ġvol Ã©
Ġterr estres
Ġcomb ats
erre urs
Ġver sions
Ġmul titude
Ġrac onte
Ġgag nent
Ġassur Ã©s
Ġapprouv Ã©s
ĠÃ©vent uel
ĠcrÃ©di bles
Ġang l
Ġemploy Ã©
Ġbal tes
Ġsouver ain
ĠsÃ©par Ã©s
ĠdÃ©rou ler
ĠrÃ©gu lier
Ġexcep tionnelles
Ġprud ente
affir me
Ġpertin ence
ĠÃ©quiv alent
Ġoccup ent
accomp agne
Ġach Ã¨tent
ID GE
Ġpolici ers
ĠgÃ©nÃ© tiques
excell ence
ĠrÃ©cipro citÃ©
ĠpÃ©riph Ã©rie
ĠpÃ©riph Ã©riques
ĠsÃ©p are
Ġinterromp ue
Ġtangi ble
ĠmolÃ©cu les
ĠÃ©b ran
Ġcivilis ations
Ġmalent endu
BR IDGE
ĠRÃ©s erve
Ġredoub ler
Ġslov Ã¨ne
CAM BRIDGE
Ġmarke ting
c omme
d Ã©s
r ations
x ic
Ġdes cription
Ġin g
Ġin certitudes
Ġdans e
ch rÃ©tiens
Ġre ch
Ġtr istes
ff e
di a
ro t
ac cessi
Ġav Ã©rÃ©e
Ġme xic
Ġcons entement
et h
Ġli er
Ġgr ossi
mi es
Ġper Ã§u
Ġper mets
ĠdÃ©c ol
co tt
ĠdÃ©p ist
Ġat out
ĠrÃ©p Ã©ti
ĠF rat
des s
ĠJ ack
ĠJ ordanie
Ġremerci ons
Ġpens Ã©es
ĠdÃ©s ert
Ġph ases
Ġjou it
Ġindi ffÃ©r
ats on
Ġgra titude
ill aud
Ġdemander ais
Ġremp orter
ĠprÃ©occup ent
Ġvisi bles
ĠÃ©vo quÃ©s
Ġlut tent
Ġprend ront
Ġapprouv ons
ĠfranÃ§ais es
Ġcroy ance
exc user
Ġral lier
ĠapprÃ©ci ation
Ġdess iner
Ġinsuffis antes
ĠdÃ©v ast
Ġexcessi f
Ġsurm ont
Ġengend rÃ©
ĠconÃ§ us
Ġvacc ins
Ġgratu itement
Ġcab illaud
organ e
ĠscÃ©nari os
Ġsupprim Ã©
Ġscol aires
Ġcompati bles
Ġmerc ure
excell ente
ĠWal lstrÃ¶m
cop e
Ġsignifier ait
Ġrespectu eux
europÃ© en
Ġsoudaine ment
ĠinconvÃ©ni ents
Ġluxembourge oise
Ã©quiv alent
Ġlux e
ĠTcher nobyl
ĠCorb ett
ĠFrat tini
T S
U N
c tÃ©es
d ul
Ġd at
is olement
Ġn aÃ¯
te borg
it ait
si vitÃ©
Ġf la
ci des
Ġb ra
Ġb ag
ĠC ohn
ol as
Ġdi ab
ĠM ik
Ġcomp tables
et tes
onn aire
Ġimp rim
Ġimp ortÃ©s
Ġser be
ge ments
ins cri
cu les
la di
Ġper dus
Ġdiff Ã¨re
Ġvoud raient
Ġab att
ĠN i
ĠE C
Ġmen Ã©s
Ġcent aine
Ġrest ait
oli b
Ġparticip ant
Ġaugment ant
ĠW atson
ossi bilitÃ©
Ġpi ano
Ġtransp oser
ug anda
Ġexc use
jus t
Ġappro visionnement
Ġpros titution
Ġminim al
Ġtechnique ment
anim al
Ġtrib une
ĠÃ©m ises
Ġemb all
ĠprÃ©sid ences
inqui Ã¨tent
Jus te
Ġpertin ents
ĠisraÃ©li ennes
ĠtÃ©moi gnent
ĠÃ©quiv aut
arr estation
ĠDÃ©pu tÃ©
Ġhypoth Ã¨se
Ġparc ours
Ġreviend rai
Ġinspe cteurs
Ġlou able
Ġdomes tiques
ĠFor um
Ġretomb Ã©es
Ġcath olique
Ġinse ctes
Ġconjonc ture
Ġslova que
Ġbir man
ĠpossÃ© der
ahar ienne
ĠLan ka
Ġhali eutiques
U C
f ace
g or
h n
i j
o ter
Ġs onne
is tiques
Ġm os
Ġm ir
in cidence
ar ov
or ld
Ġv endu
al lu
Ġj al
Ġg amme
Ġcon venir
ĠC os
ĠP ri
ĠP osse
ĠM ur
ĠM ic
Ã©r ait
Ġco ins
Ġdiff user
Ġins istons
Ġat titudes
Ġat mosph
uti le
ĠrÃ©p onde
gu Ã©e
ĠL igue
Ġor ateur
Ġconf Ã¨re
Ġnation aliste
ĠdÃ©s olÃ©e
Ġenf er
Ġsupp osÃ©
Ġconsomm er
Ġrenfor cÃ©es
Ġinf antile
ĠmÃ©di atique
ĠÃ©ch o
Al lons
Ġsuc cesseur
Ġno tions
ras mus
Ġremp lace
Ġsouhaite z
ĠrÃ©v Ã¨lent
Ġrev iennent
ĠindÃ© finiment
ĠprÃ©occup ant
ĠprÃ©occup ante
ak is
ign orer
abs or
Ġgaz odu
ĠamÃ©lior Ã©es
Ġminim ale
Ġregard ent
Ġfavoris ent
ĠrÃ©vÃ© la
Ġmenac Ã©es
Ġrecons truire
Ġpan ique
Ġinterven us
Ġorigin al
Ġbienven u
appar tenance
Ġexpl orer
ĠmodÃ© rÃ©s
Ġord res
Ġhypoth Ã©c
Ġdynam iques
Ġsurven us
Ġatro citÃ©s
mad inejad
Ġauth entique
Ġnaval s
Ġaph teuse
A llez
c ale
l ocu
p Ã¨re
s tes
Ã º
Ġd ys
Ġd ras
Ġp omp
Ġc ord
an y
Ġm ail
om Ã©
Ġr aci
ĠrÃ© affirmer
Ġre vi
Ġpro duira
ĠP H
Ġdi ap
tu rer
ĠM ag
ter ont
gi Ã¨ne
con f
ĠnÃ© olib
ĠA D
enti els
Ġad mi
emp ire
ĠR Ã©volution
Ġcontre par
Ã¢ t
sse ments
ĠE r
Ġvrai es
Ġdemand a
Ġgouvernement aux
Ġmainten ue
cul ation
Ġvers er
Ġjou eur
ĠgÃ©nÃ©r ositÃ©
Ġfour nie
Ġjusti fiÃ©es
aur ions
Ġall ocations
Ġreconnaiss ante
Ġrecommand Ã©
Ġprot ester
amen er
Ġappro visi
abs tenir
Ġsex uels
Ġmas cul
ĠÃ©vent uels
Ġus agers
Ġpropri Ã©taire
ĠmatÃ©ri els
ĠsupÃ©ri eures
Ġalli Ã©
Ġsugg Ã¨rent
Ġremarqu ables
ĠFin ances
Ġhonn Ãªtement
Ġorig ines
apprÃ©ci er
Ġrece tte
ĠÃ©lar gi
arc Ã¨lement
ĠdÃ©fini tions
ĠgÃ©nÃ© reux
Ġrigou reuse
Ġprononc Ã©e
ĠmÃ©diterranÃ© enne
Ġincontest able
Ġdistor sion
Ġtac tique
Ġcess ent
ĠdiscrÃ© tion
ĠVi Ãªt
Ġparam Ã¨tres
ĠChar les
Cin qu
Ġcigare ttes
ĠÃ©radi quer
inspe ction
Ġadoles c
ĠÃ©cosyst Ã¨mes
Ġscru pule
ĠincomprÃ©h ensible
ĠStre et
ĠpÃ¨s ent
Ġindub itablement
ĠPosse lt
2 000
B C
B endit
O tan
m o
m ont
m ant
Ġ Qui
Ġl Ã¨ve
Ġqu alit
Ġm yst
in timi
me ur
ĠÃ© ri
ĠdÃ© du
ĠdÃ© tient
Ġb ov
Ġg ains
os ur
at urÃ©
Ġdi able
Ġh arcÃ¨lement
Ġapp auv
Ġ1 000
Ġfin issent
ĠB ag
alis ent
Ġins table
Ġess aient
ass ure
ĠlÃ©g aux
ĠdÃ©f enseur
Ġcontin ents
Ġlu cra
Ġreconn ues
Ġcul p
Ġcontribu ant
aur ai
aur ons
ĠdÃ©t est
ĠdÃ©t ente
Ġgestion naires
ĠindÃ© si
ĠÃ©p is
ĠÃ©p idÃ©
Ġsep tentri
ĠÃ©n onc
Ġconseil lÃ©
Ġobten ez
Ġfourn issant
Ġcontinue llement
Ġeffectu Ã©e
Ġfavoris ant
Ġsouv enez
Ġpoi gnÃ©e
ĠmÃ©ri di
Ġatten tif
Ġindividu el
Ġinsuffis ants
ĠvidÃ© os
ĠimpÃ©ra tivement
Ġprotectionn istes
oxy gÃ¨ne
Ġrecon sid
Ġgrandi r
hyp oc
Ġcardi aque
Ġarrange ments
ĠFond ation
ĠdÃ©mons tration
Ġcond olÃ©ances
ĠGÃ¶ teborg
ĠtÃ©m oin
P S
S avez
a ures
v it
v ard
Ġd ose
Ġc ous
Ġs ains
qu aient
Ġn Ã©s
un d
Ġr Ã´les
Ġf ret
Ġpr it
our n
us ine
me di
Ġb ilatÃ©rale
ra ture
Ġin certitude
ĠM aur
Ġan Ã©anti
ins ertion
for ment
la ci
Ġco des
Ġins atisf
lis es
Ġfa usses
Ġti b
Ġcas se
ĠN Ã©p
Ġop Ã©rer
Ġconcern ait
intÃ© resser
Ġenf ance
Ġ4 7
Ġsign ataires
Ġcapit aliste
Ġcir cu
Ġban ane
Ġtranspar ents
Ġencour agent
Ġfort une
Ġdisposi ons
ĠrÃ©jou it
Ġcontra ctu
Ġchanger a
Ġfig urant
Ġcy c
ĠidÃ© ologiques
uffis ance
Ġrejet ons
encour age
Ġsymp ath
Ġrequi Ã¨rent
Ġprolong ation
Ġvain que
Ġenj eu
Eur o
Ġinclu ent
Ġprononc Ã©s
fond issement
ĠWi ki
Ġsauveg arder
Ġslog an
Ġpand Ã©mie
ĠTAC IS
Ġcontras te
Ġbanqui ers
ĠSah ara
lades h
ĠtraÃ§ abilitÃ©
ĠdÃ©pist age
ĠNÃ©p al
S L
f onc
h uit
Ġ Quand
on aise
Ġp ane
Ġs tÃ©rÃ©
re yer
or ent
Ġf le
il lons
Ġen de
Ġb ourse
ĠrÃ© sidents
ch ar
os ant
Ġpl aindre
Ġpo che
Ġje tÃ©
Ġh Ã´pital
ad ress
pr ud
ins tein
ist ante
Ġman uf
emp orter
Ġat tÃ©nuer
Ġti r
Ġass oup
ĠdÃ©f lation
Ã©v alu
ĠnÃ©goci ateurs
Ãī cosse
Ġ20 50
Ġsuiv ra
ĠcoÃ» tÃ©
Ġaugment era
Ġbr ou
Ġconstru ctives
Ġappel Ã©s
Ġir aniens
Ġinstru ctions
Ġall ouÃ©
hi te
ĠdÃ©g agÃ©
Ġlaiss Ã©e
ĠÃ©m ission
Ġpropri Ã©tÃ©s
Ġfeu illes
ĠidÃ© aux
indi quer
Ġvari Ã©tÃ©
ĠUE N
ĠnÃ©gli gence
Ġexcessi fs
Ġexcessi vement
ĠprÃ©al ables
ĠmaÃ® tre
Ġach ar
Ġproc Ã¨de
Ġblo quÃ©
ĠCar aÃ¯
Ġchoc s
Ġrestructur ations
ĠdÃ©clen cher
ĠEuropÃ© en
Ġquotidien nement
Ġfre iner
ĠpÃ©troli Ã¨re
ĠpÃ©troli Ã¨res
aw a
Ġcontradi ctions
Ġsurp lus
Ġpont s
arra f
Ġconj oint
Ġavoc at
Ġloy ale
Ġjui fs
ĠÃ©clair c
Dem ain
Ġsympt Ã´mes
Ġintol Ã©rable
honnÃªte tÃ©
Ġmarqu age
ĠSm ith
ĠIr landais
Ġtib Ã©t
0 3
E gypte
M ont
a el
c ad
d ad
g me
l ins
l audi
t o
v an
Ġp ic
Ġm aire
Ġm ath
ch ait
at a
ĠC amp
Ġtr ous
Ġdi ra
Ã©s itÃ©
ir ai
Ġcomp atri
Ġh iver
Ġpa use
Ġimp asse
Ġparti elle
iss er
ond es
ĠS akh
ĠdÃ©p rim
ĠcrÃ© ateurs
Ġfinan cÃ©es
Ġcas sÃ©
Ġdom inÃ©
ĠE h
Ġaccord ant
ĠJ ui
ĠK az
Ġgaranti ra
Ġarri vons
Ġpuis siez
Ġaccep tÃ©es
ĠcoÃ» tent
Ġgra d
Ġ4 4
Ġref let
Ġsem ences
Ġport ables
ensi bles
ĠdÃ©termin ante
ĠLe on
Ġenvis agÃ©es
Ġcou cher
ĠÃ©vo quÃ©es
Ġcatastroph ique
ĠrÃ©ser ver
entrepr endre
Ġsort ent
Ġcruci aux
ĠintÃ©g ralement
oubli e
Ġvites ses
ĠSerb es
apprÃ©ci ation
Ġnav ale
Ġemprun ts
Ġax Ã©e
Ġincont rÃ´
Ġmeur tres
Ã©re ra
ĠprÃ©ven tives
Ġoptim ale
Ġislam iste
Ġfier tÃ©
Ġstand ards
Ġerron Ã©e
Ġclin iques
Ġamou reux
Ã©clar ation
Ġintrins Ã¨que
b an
o Ã»
Ġpr omp
Ġv us
Ġv ende
ve dev
au er
ci de
res que
Ġin verse
ro ites
ac teur
Ġmo ind
fi ait
Ġgr Ã¨ve
Ġparti cul
Ã©n avant
Ġvi ve
Ġar t
Ġconcer ner
ob les
Ġcol oss
ĠN ig
ĠD Ã©mocrates
ĠE tat
Ġaccord Ã©es
cul p
Ġsoi gner
Ġtech n
Ġjou era
gr Ã¨s
Ġcour ent
Ġlu miÃ¨res
Ġrap atri
Ġaccep tons
Ġoff erte
Ġ4 6
ĠrÃ©du isent
Ġbr iser
Ġtour nÃ©e
Ġple u
ĠW orld
ĠmÃ© tier
Ġrencont rÃ©es
ĠreÃ§ ues
Ġpotenti elles
Ġhau tes
ĠSch r
Ġsouhaiter ions
Ġcondu isent
Ġsyn t
Ġadap tÃ©s
ĠmatÃ©ri au
ĠÃ©mer ger
Ġlour dement
Ġtab agisme
Ġtur ques
Ġtouch Ã©e
ĠcoÃ»te use
accomp lir
ĠentraÃ®ner ait
Ġfas sions
Ġfail li
Ġcompos antes
Ġobje ction
ĠinvitÃ© e
ĠperÃ§ oivent
ĠTh om
ĠmultilatÃ©r ales
ĠrÃ©uss ites
Ġiran ienne
Ġadul te
ĠprivilÃ©gi Ã©
Ġconsenti r
Ġinclu ant
amÃ©ric aine
Ġpun ir
Ġpanne aux
Ġjamb e
Ġfrontali ers
extra dition
Ġvigil ance
Ġparadox e
Ġarbitr aire
Ġgalax ies
Ã©lector at
unn ites
Ġtal ents
ĠCos ta
ĠCaraÃ¯ bes
ĠSakh arov
Ġmoind res
P C
S oit
f re
m onie
p orts
Ġd op
en vergure
Ġp ul
Ġc itÃ©s
ti t
Ġs aut
Ġn Ã´tres
it or
Ġr ace
Ġr avis
Ġv endus
Ġj oli
Ġb rÃ©si
Ġin time
Ġre vers
Ġcon cession
di r
Ġpo Ã¨me
ul mans
ys tÃ©ri
av ril
Ġh oc
Ġcont ag
Ġtra fi
Ã©t ch
Ġco ton
ĠdÃ©p ar
par ole
um ul
Ġ" .
ĠG au
ĠG ro
Ġrep roche
Ġfinan cÃ©e
imp unitÃ©
ĠN ie
ĠÃ©c oute
Si x
Ġmen ant
hÃ© micycle
ĠJ ar
ĠK urdes
Ġsous crire
Ġva ches
Ġsub ord
Ġsens ation
asse z
all ocation
ĠW hite
Ġmodi fie
Ġquoi que
ĠdÃ©t ach
Ġrencont res
Ġentra ve
ĠdÃ©si reux
Ġdist ribuer
Ġtradi tionnellement
ĠamÃ©lior ant
Ġhabit uelle
Ġcy cles
Ġdiplom ates
Ġpollu ants
Ġoct royer
Ġnum Ã©riques
Ġami es
Ġprogres sif
roso ft
Ġul tra
Ġiss ues
Ġtch Ã©tch
Ġbloc s
Ġhonte ux
AR E
Ġaccompag nÃ©e
ĠXX e
Ġdan oise
attend ais
Ġcre us
Ġsensib iliser
Ġparal y
ĠrÃ©cipro que
Ġconvers ations
Ġrepous ser
inten sifier
Ġpharmaceu tiques
Ġfact o
Ġbiotechnolo gie
Ġennuy eux
Ġnordi que
Ġolymp iques
ĠJour nÃ©e
ĠministÃ©ri elle
Ġtarif aires
hydro gÃ¨ne
Ġbul les
L aisse
V os
a ussi
p li
p alestini
or Ã©e
Ġf Ã»t
Ġv ins
Ġun itaire
Ġque re
us te
ve ill
ĠdÃ© ser
Ġg onf
Ġcon si
ĠP rog
av oc
Ġh orm
Ġcont ac
Ġsou terr
Ã©ri a
ĠÃ©g oÃ¯
Ġper mission
ex ige
Ġam Ã¨
Ã§ aient
Ġob tiennent
Ġseu ils
Ġat h
Ġmil itar
ĠcrÃ© atures
Ġti rent
ĠG hana
ĠL omÃ©
Ġsav ions
ĠÃ©v itÃ©
Ġop port
Ġmont rÃ©e
Ġrest auration
ĠprÃ©c isions
eff or
Ġcomb att
ĠÃ©crit es
Ġeffe ctifs
Ġty ran
ĠcontrÃ´ lÃ©es
ĠÃ©p ous
Ġpol onaise
mÃ© nie
Ġbou ge
Ġretour ne
jus tice
Ġcondam nÃ©e
yn n
Ġsuper vis
ĠU S
Ġcrimin elles
Ġcruci ales
ĠAl b
Ġrenouve ler
Ġemploy er
ĠdÃ©n omin
Ġimag inÃ©
Ġallemand es
ck er
oz one
Ġcam Ã©ra
ĠÃ©vid ents
ĠproblÃ© matiques
ĠexÃ©cu tif
Ġclas siques
Ġprogress iste
Ġconsult atif
ek en
Ġrecueil li
inv iter
Ġsatel lites
Ġtiss us
oub arak
Ġnett oyer
ĠimprÃ© visi
Ġdoulou reux
ĠdÃ©loy ale
Ġmyth e
ĠdÃ©place ments
Ġcontour ner
Ġore illes
Ġfluctu ations
Ġredev ances
opti misme
ĠclÃ´ ture
ĠhiÃ©r archie
Ġvraisembl ablement
Ġdinos aures
abatt age
ĠMerc osur
Ġfla mb
ĠBag dad
hypoc risie
ĠbrÃ©si li
Ġparaly sie
E E
M S
R appelons
d ites
h ai
t us
y pe
Ġs ab
Ġm utation
it Ã´t
Ġr age
Ġt or
ri ka
Ġb onnement
Ġb oite
Ġin cidence
Ġg laci
ĠP CP
ĠP rin
ĠM ul
Ġav enture
Ġcons truite
oc a
Ġapp rÃ©h
ĠB ri
ĠB Ã¢
ĠS P
bli r
ĠdÃ©p Ã´ts
enti elles
Ġins upp
Ġdem ie
ĠT oute
ob Ã©sitÃ©
tin ction
ĠdÃ©m Ã©n
Ġab u
imp ossibilitÃ©
Ġcontr aires
og Ã¨nes
Ġpens es
Ġsub it
Ãī t
ĠrÃ©alis me
ĠV oilÃł
ĠprÃ©c aire
Ġsoulign ent
Ġsign atures
ĠbÃ©nÃ©fici ant
Ġessay e
Ġessay ez
Ġpasse port
Ġopp ose
Ġur gentes
ĠmÃ©th od
ess ai
Ġexamin era
Ġcer cles
Ġpor c
Ġatta quÃ©
OM S
Ġmas sivement
Ġpron once
Ġexer cÃ©
Ġregret tons
ĠidÃ© ologie
Ġamen Ã©s
oubli er
Ġitali ens
Ġaffec tÃ©
Ġbu ts
pro jet
cin q
rom e
ĠAra bes
ĠmÃ©diterranÃ© en
Ġerron Ã©
ĠdÃ©plor able
Ġsoul ager
Ġpharmaceu tique
Ġcompt abilitÃ©
ĠindÃ©ni able
ĠrÃ©itÃ© rer
Ġcorromp us
otyp es
Ġimprob able
Ġdys fonc
2 5
O ffice
c ol
h t
l ut
m as
p as
x i
Ġp ion
ou ti
Ġs cepticisme
Ġm aux
Ġm Ã»
it ler
Ġf ous
Ġpr oie
ĠÃ© min
ĠrÃ© Ã©quilib
Ġin tra
Ġg ang
Ġre viens
at or
ff Ã©rence
Ġch aise
ol s
ĠP C
ac u
ĠM aintenant
ĠM itch
Ġav an
Ġimp lant
lÃ© chi
Ġvi des
Ġmar ges
ĠA fricains
ĠT r
cep tions
dÃ© pend
Ġcompr ise
Ġass ise
Ġadop tent
Ġesp Ã©rant
ĠO h
ing ue
Ġtour istes
Ã©ch anges
Ġglob e
Ġinst ants
ĠdÃ©si gner
ĠdÃ©fi ci
ĠÃ©lÃ©ment aires
Ġsex uelles
exist ent
Ġcombat tu
Ġstri cts
Ġstim ulation
ĠbÃ©nÃ©ficier ont
ĠirrÃ© ver
Ġpes si
ĠrÃ©guli Ã¨re
ĠMal aisie
ck et
Ġgrec ques
ĠmaÃ® tres
Ġax es
Ġimpression nant
ajouter ai
Ob servatoire
Ġdictat ures
Ġcib lÃ©es
Ġconten ue
Ġvot ant
Ġlai tier
Nombre ux
Ġindemn itÃ©s
Ġtranqu ille
Ã©chapp er
Ġtardi ve
Ġconcl ur
conne x
ĠsÃ©cher esse
Ġsilenci eux
Ġfermi ers
Ġflagr ante
ĠÃ©cla tÃ©
ĠPH ARE
Ġmanuf act
ĠJui fs
A zerbaÃ¯djan
B G
a ys
g s
k s
m oud
r onte
es ses
Ġp el
Ġa Ã©r
Ġa ustra
Ġt aire
Ġen cl
ĠdÃ© ni
ĠM oubarak
Ġan d
oc aus
che z
for estation
ĠrÃ©s ume
ĠA vant
Ġsa medi
Ġfor cÃ©e
Ġat mosphÃ¨re
Ġexp ert
Ġprodu ctive
Ġdonn ait
Ġab eilles
Ġdom icile
ĠD al
Ġdisp ers
ĠÃ©c oss
Ġlib el
ĠCh rist
ĠdÃ©f endent
ĠJ un
ĠH a
Ġplan Ã¨tes
Ġrenfor cÃ©s
Ġorganis Ã©s
att endent
Ġterr estre
Ġsouhait ait
Ġsal ut
ĠÃ©ch ou
ĠdÃ©ci dent
ĠrÃ©pond ant
ĠrÃ©pond rai
ctu rer
Ġtent ant
Ġtravers ent
Ġten ait
Ġtrouv aient
ĠLa eken
Ġconcep tions
Ġdispos ant
ĠprÃ©par atoires
ĠpÃ©tro lier
Ġfl or
Ġrefus ons
Ġchance lier
Ġtomb ent
Ġcolle cti
Ġjudici euse
ĠAn gleterre
Ġassoci er
Ġemb ar
Ġlois ir
Ġintelli gence
Ġuni formes
ĠcoÃ»te uses
Ġiss u
Ã¡ vez
Ġach ats
Ġamp li
Ġpou let
Ġartis tique
ĠinfÃ©ri eurs
Ġcib lÃ©e
Ġsalu Ã©
Ġgratu it
Ġislam iques
ĠdÃ©lib Ã©rations
ĠAb bas
Ġanc Ãªtres
Ġence intes
ĠmÃ©diterranÃ© ens
ĠcÃ©lÃ©b rer
Ġartifici elle
Ġfrontali Ã¨res
Ġrenv oie
Ġsap er
ĠPol onais
Ġimpos ant
Ġchim ie
Ay ant
Ġgigantes que
Ġracc our
Ġliti ges
ĠFat ah
ĠprÃ©rog atives
intimi dation
Ġmath s
G A
c ence
i um
Ġl Ã¢
Ġp istes
Ġc Ã¢
re ction
Ġa lÃ©
an si
is prud
Ġm Ã©tÃ©
Ġf lÃ¨
Ġf eux
il isÃ©
op e
ĠdÃ© tiennent
ĠdÃ© teste
Ġin ch
Ġre la
Ġpo Ã¨te
Ġcons erve
Ġcomp are
tr ent
Ġimp ut
onc ent
ĠÃ©t roites
Ġvi f
ĠB h
ĠS oci
ĠA pp
Ã©c ar
Ã©c la
Ġexp osition
acc us
Ġgouver ner
ĠL in
ĠN atura
Ġbas sin
Ġop Ã¨rent
Ġcap ture
Ġlib y
exp osÃ©
ph el
Ġsub mer
Ġhum ili
Ġris quons
ĠrÃ©alis ent
Ġmi xte
Ġfondament alisme
Ġ4 1
Ġsoulign ant
Ġchar gÃ©es
ĠdÃ©pens Ã©s
Ġexpli quent
Ġtravers Ã©
inc endi
Ġcomprendre z
ĠintÃ©ress Ã©e
Ġrappel lent
Ġappar ence
Ġdonne urs
ĠdÃ©si rent
roy able
Ġcouv rent
Ġmag ique
uss itÃ´t
ĠmÃ©dic ales
ĠMais on
Ġcroy ances
Ġporter a
Ġexploit ants
Ġdo tÃ©s
ĠsÃ©v Ã¨rement
Ġorigin aire
Ġax e
ĠrÃ©solu es
effond rer
accueil lir
ĠrÃ©col te
Ġrecti fier
Ġlabor atoires
ĠrÃ©tic ence
Ġlog istique
ĠsÃ©qu ence
Ġaverti ssement
Ġclin ique
Ġenglob e
Ġtangi bles
Ġlent eur
Ġjur isprud
Ġlune ttes
ĠDÃ© fense
Ġsomb res
Ġchron ique
ĠMed vedev
Ġcorp ore
Vou lez
ĠCast ro
Ġangl aise
ĠMic rosoft
Ġcontrepar tie
ocaus te
E mp
T E
V eux
h iver
Ä į
Ġd ates
Ġc auche
Ġm ons
ur Ã©e
it uelle
Ġr oy
Ã¨ les
il la
Ġin cite
ĠP Ã©r
Ã©r aient
am Ã©ricains
Ġcomp table
Ġo f
Ġh ol
mi re
Ã©t riques
Ġson ge
Ġvou liez
Ġpers Ã©cution
ĠÃ©conom iser
Ġdonn a
ĠF ED
pu issance
Ġpubli Ã©e
Ġmal aria
Ġaur ais
aiss es
aiss ance
ĠI V
Ġfer mÃ©e
ĠJ ames
exp ertise
Ġrespe ctivement
ĠH arb
Ġpens ant
Ġju gÃ©s
Ġesp Ã¨rent
Ġcommen Ã§a
ill Ã©s
Ġtour nent
Ġpriv er
ĠrÃ©un ies
Ġconcurr entiel
ĠcontrÃ´ lÃ©
ĠLa den
ĠdÃ©ch ar
Ġappar ue
ĠmÃ©c anique
Ġlo gements
ĠprÃ©par Ã©s
Ġattend ue
Ġenvis agent
ĠgÃ© ant
ĠimmÃ©di ates
pl an
Ġlaiss Ã©s
Ġautoris Ã©es
Ġliv rais
ĠRÃ©pu blic
Ġval ent
Ġexige ons
ĠidÃ© ale
Ġintrodu its
Ġdr Ã´le
Ġcalcul er
Ġsymb ol
Ġsubstanti el
Ġclas sification
ĠconÃ§ ues
Ġmanip uler
Con sid
ĠrÃ©cu p
Ġabsten us
ĠÅĵu vrer
Ġindire cte
Ġparcour u
Ġdram atiques
ĠrÃ©cla ment
Ġdict ateurs
Ġpert ur
Ġappuy Ã©
Ġineffic aces
Ġinquie t
ĠÅ ķ
ĠprÃ©dÃ© cesseur
Ġinscri te
affect ation
ĠSchr Ã¶der
Ġtrafi quants
ĠBÃ¢ le
A V
L AF
N ul
P ire
P ouvons
i mer
t Ãªte
v in
Ġt asse
Ġv Ã´tre
al ine
al arme
Ġsur vÃ©
rÃ© tien
di enne
Ġch ats
ac ulture
Ġpo t
Ġpo ches
ĠM un
am itiÃ©
Ġh onorable
Ġent rÃ©s
ad hÃ©
Ġtra jet
ins ur
Ġpu its
En se
Ġmar ier
ĠS ur
ang Ã©s
Ġad hÃ©r
Ġpart agÃ©es
ĠF re
Ġcompr endra
Ã¢ me
Ġmal aise
ative ment
vers aires
ĠH ow
Ġremerci ant
Ġpres tige
Ãī glise
Ġsens Ã©
asse oir
ĠO M
ĠO s
ĠbÃ©nÃ©fi ques
Ġref uge
Ġimpli quÃ©e
Ġtent ons
Ġsus c
ĠprÃª tes
Ġport uaires
Ġmort es
Ã©gi de
ĠdÃ©g age
Ġtax i
Ġmag ie
AN ASE
Ġautom ne
Ġinten sive
ĠrÃ©vÃ© lÃ©e
200 2
uy ant
Ġsubs titution
Ġpuiss antes
Ġaudi tions
Ġincap acitÃ©
Ġvacc ination
Ġcab inet
Ġplaf onds
ĠÅĵu fs
ĠÃ©pr ouvent
Ġpair s
Ġrempli es
ĠÃ©tique tage
Ġvali ditÃ©
env oi
ĠÃ©puis Ã©
Ġcatal yse
ignor ance
Ġly cÃ©e
ĠMED A
Ġavi aire
ĠrÃ©habil itation
Ġbov ins
ĠKaz akh
ĠsurvÃ© cu
0 4
D ieu
F aire
H omme
I I
J amais
Q aÃ¯da
T on
i rer
m atis
n s
z a
on ald
Ġp ing
Ġc le
er v
Ġn oy
Ġf ui
Ġb oy
Ġre par
ĠC at
ĠC aire
Ã©r ante
am ine
av al
Ġh uis
Ġh Ã¢te
fi ces
Ġprop ice
Ġtra je
Ġdis sidents
Ã´ te
ĠÃ©g ales
co t
ĠS il
ĠS ant
ĠS am
ĠS oleil
ard o
Ġas tr
Ġas ymÃ©t
ic ago
Ġar chi
emp ris
Ã©g Ã©m
Ġprodu ctif
Ġcompr enant
Ġrel Ã¢che
Ġag issons
Ġconf Ã©rer
Ġmont Ã©
ĠCh icago
ili te
Ġfer iez
accord ent
Ġ3 50
Ġjou ir
Ġnu age
Ġfi abilitÃ©
Ġcul te
Ġparler ai
Ġfac ture
ĠW eb
ĠdÃ©t resse
Ġforme l
Ġentendu es
Ġvolont airement
ĠdeuxiÃ¨me ment
Ġcoup le
ĠprÃ©occup Ã©e
Ġsau ter
Ġsau vÃ©
Ġbl ague
Ã©m otion
Ġmor alement
Ġobten ue
Ġconsac rÃ©es
ĠbÃ¢ ton
ĠAn ge
Ġache vÃ©
ĠÃ¢ me
Ġsort ant
rog ance
Ġperman ents
Ġsouv i
Ġambiti euses
atta che
exc use
Ġtravaille ur
Ġimmi gration
ĠinterprÃ© ter
obser ver
Ġorigin aires
ĠdÃ©sastre ux
ĠdÃ©sastre uses
Ġesti mer
Ġpolici er
ĠdÃ©battu e
Ġenv ah
Ġinforme lle
ĠtempÃ©ra tures
Ġspor tives
Ġpromet tre
Ġamend es
ĠBang ladesh
ĠMah moud
HÃ© las
ĠchrÃ©ti enne
Ġprest ataires
Ġculp abilitÃ©
A SA
R Ã©s
S S
t end
Ġd ensitÃ©
Ġl Ã©
Ġs ale
Ġn oyau
Ġt Ã©n
si l
si de
Ġf ir
Ġun is
Ã¨ nement
Ġj olie
Ġb ond
Ġg ain
Ġpl aces
ens en
Ġch aude
ĠM u
ĠM ay
Ġav ouer
ul Ã©e
Ġh ar
Ġcont rer
fi able
Ġimp osÃ©s
ad er
vi d
ĠnÃ© o
ĠS ar
Ġpos ter
Ġexp on
ĠcrÃ© ative
Ġti mide
Ġsav aient
Ġconf ort
Ġpe int
ĠlÃ©g er
ĠH elsinki
Ġadop tons
Ġ3 9
Ġnu ages
Ġju me
Ġrecher chÃ©
ĠO b
ĠsÃ© ances
Ġremp lissent
Ã©le ver
Ġinst ance
Ġtrait ant
Ġcontribuer ont
Ġsouff rant
Ġfourni ra
Ġprot Ã¨gent
Ġsembl ant
immi grants
Ġpren ions
enf ance
Ġadopter a
emb all
Ġang ulaire
Ġprovo quent
Ġtrib ut
Ġperd ons
Ġvari ent
Ġmultip lier
Ġsinc Ã¨re
Ġfonctionner a
Ġfaciliter a
ĠrÃ©guli ers
Ġaffec tÃ©es
Ġhor rib
ĠintÃ©ri eurs
Ġstab ilis
Ġappor tÃ©s
Ġconjoin ts
Ġlanc Ã©es
hy giÃ¨ne
Ġremb ours
Ġpouss ent
ĠmodÃ© rÃ©e
ĠBi ble
ĠprÃ©voy ait
Ġmacro Ã©conomiques
Ġaffaibli r
Ġmultipli cation
Ġray ons
ĠrÃ©form ateurs
ĠÃ©labor Ã©e
Ã¤ n
aler te
Ġsuici de
Ġplai d
ĠfaÃ§ onner
Ġfid Ã¨le
expÃ©ri ences
Ġfili Ã¨re
Ġalb anais
ArrÃª te
ĠspÃ©cific itÃ©s
Ġneutr alitÃ©
Ġimmin ente
opÃ©ra bilitÃ©
Ġtrim estre
Ġmensong es
ĠcorrÃ© lation
Ġjurisprud ence
ĠKazakh stan
9 8
M ar
O s
c arb
p ie
t ages
u ves
z i
Ã© mettre
Ġs able
an en
an Ã©ment
Ġm ut
Ġla ver
Ġv oc
il lement
li g
ri Ã¨res
Ġpl at
Ġpl age
de dans
di ct
Ġch imp
ĠP ack
Ġdi ront
ĠM IT
Ġdev int
Ġtra Ã®
du le
che v
Ġper cevoir
ĠdÃ©c ro
ex tinction
Ġpers istent
ot tes
ic acitÃ©
Ġar ra
ĠR oy
Ġcompr enez
rib ue
Ġgrand issante
ĠE v
ĠE sp
Ġop tÃ©
ĠCh Ã¡vez
Ġ19 50
Ġsouti enne
Ġfer mÃ©s
Ġgrande ur
cul er
Ġemp ire
oli ques
ĠdÃ©s ordre
Ġfi let
ann ulation
Ã©ner gies
Ġref onte
aff ronter
ĠprotÃ© gÃ©
Ġremp lit
Ġrou main
Ġdiscu te
ĠlibÃ©r ales
Ġconcent rÃ©
ĠentraÃ® nant
Ġdispar aissent
ĠdÃ©g rad
agir ait
Ġsour ire
Ġconvainc ante
Ġminim iser
ĠdÃ©ce vant
cl Ã©s
Ġfabri quÃ©s
Ġbureaucra tes
Ġred onner
Ġquot a
Ġblanc s
Ġinuti lement
Ġprivil Ã¨ges
Ġinterven u
Ġsusp ici
Ġartis te
Ġvig ou
ĠmÃ¨ ner
Ġprag matisme
Ġimmob ili
Ġspor tifs
donÃ© si
Ġquarti ers
Ġapport ant
ĠprÃ©m aturÃ©
Ġom ni
Ġclub s
dÃ©mocra tique
Ġfragment ation
ĠdÃ©rÃ©g lementation
Ġannonc Ã©e
Ġdor Ã©navant
affai b
Ġgrimp er
Ġfame ux
observ ateurs
ĠÃ©nergique ment
ĠLeh ne
yan mar
ĠmÃ©taph ore
ĠXI X
Ġcomplais ance
Ãº n
Ġpane uropÃ©
ĠThom as
Ġchimp anz
A L
I R
J ohn
R ussie
S ou
i rale
n est
p ay
Ġd ame
Ã© te
ent er
it a
Ġt Ãªtes
ĠÃ© mette
ĠdÃ© cev
tÃ© rature
Ġb is
ĠrÃ© sident
os h
at aire
rÃ© gi
Ġse mblÃ©
ol ation
end es
Ġdi git
Ġje tte
Ġgr en
ise ment
ĠdÃ©c al
ven u
Ġes clav
Ġnom bres
ĠA gence
Ã©c l
ĠT IC
ĠcrÃ© era
Ġti rÃ©es
ĠG and
Ġrep enser
ĠL os
Ġsitu ent
Ġsitu Ã©s
Ġcontr ari
ĠN Ã©
Ġass iste
Ġlib Ã©rÃ©
ĠK ad
Ġvis ages
aÃ® tront
ov a
Ġcours es
Ġfi lets
ĠrÃ©g lÃ©e
Ġcommen Ã§ant
Ġform Ã©s
inter roger
Ġoff ensive
all Ã©e
ĠW all
Ġno tification
Ġouv riers
ĠcontrÃ´ lent
Ġfra ction
Ġabord Ã©es
ĠcomplÃ¨ tes
Ġexamin Ã©es
Ġsp irale
ze mb
amb i
Ġsuivi es
exist ait
Ġrecev ra
Ġradic ales
Ġvari ations
Ġuni fiÃ©e
ĠopÃ©ration nels
ume urs
ĠMal ms
Ġbois sons
Ġrequ ins
Ġpersonn ages
Ġautor itaires
Ġlanc Ã©s
Ġterritori ales
ĠmÃ¨ nera
ĠÃ©chÃ© ance
Ġfournisse ur
Ġisol Ã©s
Ġinforme l
amÃ©ric ain
Ġchauff age
Ġpanne au
oct royer
Ġbrill ant
Ġcos mÃ©
Ġgagn ant
Ġhosti le
Ġbiom asse
ĠdÃ©loc alisations
Ġneur ones
ĠhÃ´ tel
Ġchev aux
Di x
ĠconcrÃ© tisation
Ġfacul t
Ġcerti fic
Ġhon orer
Ġcanc ers
ĠdÃ©d omm
ĠPhili pp
ĠIN D
Ġromp re
ĠMalms trÃ¶m
O GM
S t
V oud
i ro
l l
o bli
v ail
v oire
z bÃ©
Ġ /
Ġ ours
en qu
om Ã¨tre
Ġv arie
ĠÃ© lo
ri ront
Ġpl ante
ag ner
ĠC r
Ġsur g
ol it
am o
Ġent er
Ġrapp elez
Ġgr aines
vi ol
Ġes pÃ©rÃ©
Ġar rÃªts
ĠR Ã¼
ours es
ĠF ord
ĠL atine
ĠN et
ĠÃ©v itant
ĠE rasmus
Ġaff ront
Ġ19 30
ali er
Ġconn aisse
ĠK ab
Ġvis ites
ĠV ir
ĠV ladi
Ġ5 6
ĠmÃ©di ation
Ġatte ign
nÃ© tique
Ġcher chant
Ġir ration
ĠdÃ©pens ent
Ġver ront
Ġ201 4
Ġur nes
Ġth er
Ġvisi blement
Ġtomb Ã©s
Ġcolle ctivement
Ġatta che
Ġcrimin elle
Ġidenti fiÃ©s
Ġcouv rant
off res
Ġexer cent
Ġviv ait
Ġcompli quer
Ġcommence z
Ġlit tÃ©rature
ĠprÃ©sid Ã©
ĠapprÃ©ci e
Ġatten tive
Ġrecons titution
Ġjuge ments
affir mation
encour agement
ĠinterprÃ© tations
Ġcam ar
Ġenseign er
Ġmic ros
commun aut
Ġsouvenir s
ĠrÃ©pand u
Ġincl uses
Ġrh ume
Ġfranch ise
Ġmigr ations
ĠDar win
Ġstimul ant
Ġressembl ait
Ġloy autÃ©
Ġgouverne urs
ĠRi o
Ġempre intes
Ġhomosex uels
hÃ´ tel
ĠFranc is
Ġsupran ation
Ġgou tte
ĠFerre ro
adhÃ© rer
S ais
l ass
p o
p ri
Ġ orthodox
Ġp Ã©
ti Ã¨re
in de
om o
om es
Ġpr or
Ġv aud
Ġen veloppe
ĠÃ© oli
ĠdÃ© di
Ġpar itaire
ri el
Ġin exist
Ġg Ã¨ne
Ġre viendra
Ġcon grÃ¨s
Ġtr ains
Ġcomp osent
ĠprÃ© cieuses
ond ance
ĠÃ©t roits
Ġentre ra
ĠB ange
Ġinter rompu
Ġinter locu
Ġdiff Ã¨rent
Ġman gent
Ġins ou
ĠT er
Ġses sions
ĠR am
Ġexp orter
Ġcar re
Ġpart agÃ©s
Ġor ange
olo gies
Ġmont rÃ©s
ĠÃ©c ran
Ġpermet tait
exp oser
Ġrest ons
Ġrest ants
ĠrÃ©f lÃ©chi
Ġnouveau tÃ©
Ġim meu
Ġoff res
Ġno ti
Ġpi le
ĠprotÃ© gÃ©e
Ġremp lis
Ġchi ites
ĠÃ©p idÃ©mie
DE M
ĠlibÃ©r aliser
Ġchois is
Ġven aient
ĠprÃ©par atoire
Ġexamin Ã©s
ĠthÃ© orique
ĠthÃ© ories
Ġnour rit
ĠAn dre
ĠdÃ©pend ants
roy ez
Ġbat terie
Ġdistin gue
Ġdiver si
Ã¶ r
Ġaltern atifs
ĠdÃ©rou lÃ©
Ar mÃ©nie
200 3
Ġgre cs
ĠsystÃ© mique
Ġextraordin airement
Ġapprofondi r
ĠÃ©valu Ã©
Ġsoud anais
ĠdÃ©clen chÃ©
Ġattribu Ã©
ĠÃ©chapp Ã©
Ġgard ant
Ġrang s
ĠrÃ©vis Ã©
Ġaggra ver
Ġoppos ons
envis age
Ġdoub ler
Ġexam ens
Ġenregistre r
Ġchanti er
Ġconsister ait
ĠlÃ©gisla teur
Ġpatri e
obs c
Ġhorizont ale
affai blir
aqu aculture
Ġabat tu
ĠRed ing
atti re
Ġreconsid Ã©rer
ĠJar zemb
ĠPÃ©r ou
zbÃ© kistan
ĠBange mann
O P
c rÃ©
d om
g o
h u
h eures
k ach
l Ã¨re
s oci
w ood
en veloppe
Ġp iles
Ġs unnites
qu in
ai ment
ar iser
it ante
it anie
Ġpr ouvent
Ġj aune
Ġcom ble
Ġdans er
ch age
Ġne ts
di quer
ĠP i
ĠP ie
Ġdi eu
Ġac cess
Ġh Ã©li
Ġent rÃ©es
Ġvi ves
ĠdÃ©c omp
ĠB ig
Ġinter dite
ine use
ĠA d
Ġal ent
Ġins istance
Ġar ts
Ġar chitecture
Ġconcer tÃ©e
Ġexp Ã©di
Ġfond ent
ĠG or
Ġpubli Ã©s
Ġor ch
ĠD roits
ass ister
Ġavant ageux
Ã©di ction
aiss ait
Ġdemand Ã©e
Ġfer vent
ĠJ usti
ĠH el
Ġindi gÃ¨nes
Ġpres criptions
Ġfais able
ĠdÃ©clar ant
ĠO omen
Ġz o
Ġsigni fient
ĠÃ©qu itablement
Ġmoyen nant
ĠrÃ©un it
ĠprotÃ© geant
Ġtrouve rez
Ġsouten ues
Ġcoup Ã©
ĠcontrÃ´ lÃ©s
ĠÃ©p reuve
ĠrÃ©sou dra
Ġmor alitÃ©
Ġconstat ation
Ġsp ont
Ġcentr aux
Ġcolle ction
Ġmand ats
ĠarrÃª tÃ©e
Ġenvoy Ã©e
Ġapprouv Ã©es
Ġprovo quÃ©e
Ġimag ination
Ġ13 0
ĠIrak iens
ĠopÃ©ration nelles
Ġpes ant
Ġhor re
ĠinterprÃ© tÃ©
Ġment alitÃ©
ĠdÃ©lic ates
Ġsubstanti elles
Ġsubstanti els
ĠmÃ©n age
Ġvain cre
ĠprivilÃ©gi er
Ġimpliquer ait
Ġclandes tins
Ġfen Ãªtres
Ġpare ille
ĠdÃ©favoris Ã©s
Ġfructu eux
oure usement
Ġrespectu euse
Ġmassac res
Ġaffirm ations
ocu tion
ĠrÃ©uni fication
Ġressent ent
ĠmolÃ©cu le
ĠHar vard
ĠvÃ©tÃ©rin aires
Ġlatin o
Ġpy ra
dess ous
absor ption
empris onnement
ĠAnge les
ĠEv ans
ĠJarzemb owski
D ites
O IT
U S
W ald
d rome
h ans
l os
s k
s Ã©e
v itÃ©s
Ġl oup
Ġc itation
Ġr ide
Ġce inture
ant h
au be
ĠdÃ© forestation
Ġpour rai
ri chi
Ġb lÃ©
Ġb ourses
ĠC amer
Ġsur viennent
ĠM ann
av Ã¨rent
Ġser ve
lÃ¨ ge
Ġapp laudi
ĠÃ©g lises
Ġfin ira
Ġaut oc
Ġinter culture
ĠA ustralie
Ġman uel
Ã©c riture
ĠT alibans
Ã©g lise
ĠdÃ©m unis
Ã©qu ation
ĠD Ã©claration
Ġmin ce
anti cip
anis ation
Ã©ra bles
Ġess ence
Ġcap t
Ġlib anais
Ġsub ti
Ġsupp ort
Ġsupp rime
Ġnot able
Ã©conom ies
Ġsuiv ront
Ġbr us
Ġlim itent
Ġcan aux
Ġfac ilite
Ã©ch o
Ġenti Ã¨res
Ġpoursui vis
Ġessay ent
Ġdix iÃ¨me
Ġfu sions
Ġreje tÃ©s
Ġquali fication
lÃ¨ve ments
Ġconfir ment
fg hans
ĠdÃ©velopp ant
Ġmat uritÃ©
Ġral li
Ar ctique
200 5
gra de
Ġdess ins
Ġcompens ations
Ġincroy ables
ĠÃ©volu ent
Ġinnov ants
Ġlac une
Ġsusp endu
Ġbarri Ã¨re
yst Ã¨me
accÃ© lÃ©ration
Ġcombin Ã©e
Ġvig oureusement
Ġinspi rer
ĠfrÃ©qu entes
ĠrÃ©vis Ã©e
Ġfant Ã´me
ĠaÃ©rop ort
Ġhypoth Ã¨ses
Ã©vent ualitÃ©
ĠdÃ©fend ons
Ġcontrovers Ã©
Ġcontrovers Ã©e
Ġsurven u
ĠPN R
meu tes
ĠÃ©cras ante
Ġopti misme
Ã©vÃ© nements
Ġcoute au
Ġinco hÃ©r
ĠrÃ©pÃ©ti tion
Ġmir oir
ĠÃ©clairc issements
ĠMitch ell
Ġcauche mar
Ense mble
ĠJusti ce
1 5
D Ã©mocrates
P resque
d h
d Ã©es
j ten
l aires
t z
u il
Ġd enti
Ġd otation
an amo
op tique
op Ã©rer
ne llement
ĠdÃ© form
Ġpar vienne
ĠrÃ© ception
Ġg ro
di e
ĠM yanmar
ter ies
Ġav al
ui jten
Ġcons Ã©cu
Ġh ect
Ġmo que
Ġmon des
mi des
Ġvi cieux
Ġco gni
Et ant
ĠA ir
ĠA dam
Ġas sim
Ġfor cÃ©s
Ġad versaires
Ġst op
int ol
Ġtrans c
ob us
Ġcar ences
ĠL ag
ĠL ors
Ġag isse
ĠE UR
Ġaccord ent
ĠreprÃ©s ailles
Ġsous cri
ĠprÃ©v aut
Ġform ules
att arder
Ġ5 4
Ġtu meur
Ġdonner ai
ill us
Ġref roi
Ġsatisf ont
ĠmÃ©t aux
Ġfran chi
Ġentra ves
ĠcompÃ©ti tives
Ġpol y
Ġconcent rations
ĠgÃ© rÃ©e
Ġcolle ctifs
Ġcondam nons
Ġpren ait
Ġsuper puissance
ĠarrÃª tÃ©es
Ġpollu eur
Ġphy t
Ġmob ilis
Ġrent rÃ©
ĠrÃ©t ro
associ e
Ġtur bul
ĠÃ©li gi
Ġfou et
ĠnÃ©gli gÃ©
Ġaccus Ã©s
ĠirrÃ© aliste
Ġrasse mblement
tiss ant
Ġfal si
Ġach Ã¨te
Ġmotiv Ã©
Ġsovi Ã©tiques
ĠTch ad
Ġdevi endrait
idÃ© al
Ġsti g
ĠÃ©loi gnÃ©s
ĠrÃ©uss it
Ġindic ateur
Ġcontradi ctoire
Ġimmob iliers
eb a
ĠexcÃ©d ents
cop t
Ġanticip er
Ġsond age
extra ction
ĠingÃ© ni
jac entes
Ġtac tiques
ĠdÃ©centr alisation
ĠdÃ©cour ager
Ġrigi de
ĠlaÃ¯ que
Ġnat alitÃ©
Ġconcl ut
Ġveuille z
intÃ©ress ent
Ġench Ã¨res
Ġbulg are
apparti ent
Ġconfidenti alitÃ©
Ġinfe cti
ĠintÃ¨g re
ĠdÃ©tente urs
ĠdÃ©par tement
ĠflÃ¨ che
Ġcatalyse ur
Ġtraje ctoire
kach enko
Wald ner
C R
F ran
S ommes
S ouvent
m al
en i
en vers
Ġs illage
Ġe h
Ġm ienne
as me
as tiques
ĠÃ© lÃ¨ve
ĠÃ© lue
ĠdÃ© vers
Ġpour v
Ġj adis
oi ds
ait re
ĠrÃ© ci
ch enko
Ġre lÃ©
Ġpl aider
ĠC Ã´te
end raient
ĠP au
ĠM onde
se pt
Ġcons istait
tr aite
Ã©t onne
Ġinter view
Ġsa ch
Ġcl Ã´t
Ġderni Ã¨rement
ass oup
Ġlib Ã©rÃ©s
ĠCh e
Ġfer ions
ĠrÃ©sul tent
ĠdÃ©s agrÃ©
Ġindi ens
Ġindi cation
ĠprÃ©v ision
ĠO Ã¹
att le
ĠÃ©ch anger
Ġsign Ã©e
Ġvoy ait
Ġjusti fient
Ġrespect ons
Ġver tic
Ġencour agÃ©e
ak a
Ġappar us
ĠprÃ©f Ã©rÃ©e
Ġreconnaiss ants
Ġcorre ctes
ĠimmÃ©di ats
ĠrÃ©ser vÃ©e
Ġrac istes
Ġconfir mation
ila tÃ©ralement
Ġphot ographie
Ġenvoy Ã©s
Ġfrapp ant
Ġadap tation
Ġentend ue
Ġemb au
Ġ198 8
ĠcatÃ©g oriquement
arb it
ĠcohÃ©r entes
Ġalli ons
ĠSt aline
ĠRe hn
Ġexcessi ves
Ġsouci er
ĠdÃ©pl orer
ĠÃ©cl at
Ġdiss uad
Ġenseign ant
ĠEur ostat
Ġincon cevable
Ġradio actifs
Ġprolong Ã©e
Ġconten ait
ĠcÃ©rÃ© monie
Ġsauv age
Ġcre user
ĠÃ©duc atifs
Ġattra per
Ġmagas ins
Ġbiblioth Ã¨ques
Ġaffirm ant
mir ation
Ġaddi tifs
Ġukraini en
ato eba
Ġeffond rement
Ġdissim uler
ĠnÃ©cessiter a
ĠvÃ©tÃ©rin aire
kh az
Ġbombarde ments
ĠPra gue
allem and
Ġdiab Ã¨te
any ah
Ġapprovisi onnements
ĠToute fois
Ġconclur ai
connex ion
ĠHarb our
Ġping ou
ĠVladi mir
Ġpror og
H A
P rÃ¨s
m illi
p os
ou Ã©s
Ġs ons
er cu
an aise
in dic
un ir
or a
si le
Ġen gr
li eu
al ue
Ġin adap
Ġin donÃ©si
Ġg estes
ĠP lan
ac er
Ã©r ants
el li
Ġcomm andes
av er
Ġcomp ose
Ġo eil
fi a
Ġent rant
Ġtra ce
Ġapp arition
vi ces
ĠS tu
ex h
Ġman teau
int ensitÃ©
Ġat outs
ĠdÃ©b i
Ġexp ose
ob Ã©
ob je
ĠrÃ©p ercu
ĠdÃ©m ago
Ġni gÃ©ri
dÃ© veloppement
ĠG Ã©n
Ġcompr enne
imp u
imp ulsion
Ã©ra diquer
ĠH ans
ratÃ© gie
Ġcul tiver
eff ici
ĠmÃ©di a
ing tiÃ¨me
Al gÃ©rie
Ġvoy ant
Ġlim itations
Ġlim itant
Ġsuc cession
Ġencour agÃ©s
Ġten ais
ĠbÃ©nÃ©fici era
Ġ7 8
Ġrou es
Ġall ong
Ġtransp lantation
hi b
Ã©le ctri
ha fi
ĠIn diens
Ġcou tu
Ġcou tume
ĠSch mid
Ġprend rait
Ġcondu cteur
ĠamÃ©lior ent
rie d
appro fondi
ush ima
pi ers
erb er
Ġdiver gence
Ġpalestini ennes
Ġentend ent
atta ques
Ġpat tes
Ġespagn oles
ĠcaractÃ©ris Ã©
oubli ez
ĠirrÃ© gu
Ġdiss oci
Ġdiss uasion
Ġax Ã©
ĠdÃ©sastre use
Ġincont ourn
Ġprati quent
Ġpsych ologie
ĠÃ©loi gnÃ©
ĠdÃ©bu ts
Ġisol Ã©e
ĠCI A
Ġaccompag ner
ĠÃ©par gner
ĠrÃ©ag issent
ÃŃ a
201 0
autom ob
Ġgenti l
ĠrÃ©sid us
Ġrecti ficatif
ĠfÃ©min ine
ĠdiplÃ´ mes
accompag nement
ĠPe ter
Ġsoul agement
ĠpossÃ©d ant
Ġscep tique
Ġchant age
ĠMus ulmans
DÃ©s ormais
Voy ez
ArrÃª tez
invent er
ĠprÃ©judici able
ĠdÃ©blo quer
Ġimpressionn ante
Ġdissi per
Ġadolesc ents
ĠindÃ©si rables
outi ls
Ġalent ours
C l
D onnez
H I
I voire
R uijten
d eux
k ara
l ler
m uni
o ques
Ã© tisation
en Ã§ons
Ġs Åĵurs
Ġa isÃ©e
Ġla x
in eux
ar bre
Ġt ours
Ġv endent
Ġun ir
ont aine
Ġpar adi
Ġb ro
Ġtr oupe
Ġch au
mb les
av Ã¨nement
Ġh abilitÃ©
ĠprÃ© dis
Ġcont ester
Ġan tÃ©rieure
Ġan tÃ©rieures
ge ons
mi f
Ã©ri ons
Ġco hab
Ġinter disant
Ġinter dites
Ġpos tu
Ġman uels
Ġins ulaires
ĠÃ©conom iste
Ġob Ã©
Ġtrans mises
ĠR and
Ġcl o
Ġcro issantes
um s
Ġrec uler
ĠF E
ĠF ab
ĠF uk
ocra tique
Ġmal heur
ĠÃ©le ver
Ġca chÃ©
Ġmet tait
Ġpe inture
ĠÃ©c art
Ġmen ons
ĠK e
Ġobjecti ves
Ġpass ages
Ġsous crit
ĠH ug
Ġpopul istes
qui er
Ġnu is
Ġfi le
Ġfi ctif
ĠreprÃ©sent erait
ĠspÃ©ci alisÃ©s
Ġterr ains
Ġsuff ira
ĠcoÃ» tera
Ġatte ignent
inform atique
Ġsais is
inc orp
Ġport rait
ĠGr and
Ġrencont rons
Ġuti l
ĠprÃ©f Ã©r
Ġcontra ct
ĠprÃ©par ons
ĠÃ©lÃ© ph
Ġorient er
ori ale
ĠBar Ã³n
ĠSch w
Ġsurpr en
Ġrati o
Ġfabri quÃ©
Ġbal ay
Ġdiver gent
Ġconvi endra
ĠillÃ©g alement
ĠtÃ©lÃ©ph on
Ġvari ables
Ġexclu sive
Ġinsuffis ances
ĠmÃ©r ites
Ġaccr ues
Ġbrut al
Ġphysique ment
Ġscand ales
Ġcam ion
orient er
appar aÃ®t
Ġirak iens
Ġplani fier
Ġtransit oires
ĠFran k
ĠdÃ©ri ve
Ġgratu ite
val le
ĠdÃ©te ction
ĠÅĵu vres
Ġconne cter
ĠextrÃ© m
Ġconnex es
Ġimmob ilier
ĠrÃ©col ter
ĠparallÃ¨ les
inv itation
acqu Ã©rir
Ġfrus tr
ĠDi am
Ġvigil ants
Ġspati al
Ġrenf lou
ĠpossÃ©d ons
ĠcoÃ¯n cidence
Ġarrange ment
ĠdÃ©lÃ© guÃ©s
Ġdisproportion nÃ©e
iz oo
ĠNic olas
ĠspÃ©cific itÃ©
ĠLou kachenko
Ġchirur gie
ĠGuant anamo
influ encer
Ġatmosph Ã©rique
Ġmyst Ã¨re
ĠMaur itanie
Ġinsupp ortable
B e
P aul
T ON
a fric
b ri
c tÃ©e
f er
l ines
Ã ±
Ġd its
Ġl ot
Ġl Ã¢che
on au
Ġp lier
Ġm y
Ġm iel
ĠÃ ´
Ġr aff
Ġr enseignement
Ġt onne
Ġv ingtiÃ¨me
Ã¨ cle
ĠÃ© lÃ©g
li ques
ri ces
Ġb andes
ĠrÃ© cep
Ġpas sive
Ġpas sif
Ġg al
Ġpl a
Ã©r as
ui es
onn ons
Ġpoli o
Ġser vant
Ġser bes
iss age
ins cription
ĠÃ©t oile
Ġes cient
ine mment
ot a
Ã©c rou
ĠT w
Ġat tir
Ġcr uellement
Ġcar t
ĠG old
ĠF l
sie tte
imp Ã©ri
ĠgÃ©n Ã©rÃ©
ĠgÃ©n Ã¨rent
Ġmilli er
ĠD ire
ĠÃ©le ctricitÃ©
ass ons
ass Ã©s
Ġaff Ã©r
ĠI t
ali ers
Ġinc ons
oris er
ann oncer
Ġfonction naire
Ġ5 8
inter roge
ĠdÃ©fin issent
Ġdou anes
ĠsÃ© min
ordin aire
ĠrÃ©pond s
ĠW est
tis Ã©e
Ġban lieu
Ġgl oire
Ġver dict
Ġtransport er
Ġrecomm encer
Ġabord ons
Ġrend ons
Ġamb assade
Ġreli er
Ġchois issent
ĠIn donÃ©sie
organis mes
Ġfu ir
Ġunivers itÃ©
Ġquali fiÃ©es
Ġsimpli citÃ©
ĠÃ©cou lÃ©e
ĠÃ©m inemment
Ġtradu isent
Ġbout on
ĠprÃ©sid entiel
Ġrejet tent
ĠRe agan
Ġirlandais es
Ġsalari ale
ĠSe attle
Ã©quipe ments
ĠtragÃ©di es
Ġautonom es
Ġbus iness
Ġplate forme
Ġattent at
Ġsacri fices
Ġem m
Ġgenti lles
Ġbran che
Ġaffi cher
Ġjui f
ĠrÃ©ac teur
ĠAng lais
ĠdÃ©Ã§ ue
ĠprÃ´ ne
Ġtoile ttes
Ġfoc aliser
Ġmam an
ax e
ĠÃ©pau les
Ġrende ments
Ġmena Ã§ant
Ġsyner gies
Ġbale ines
ambassade ur
Ġobsol Ã¨tes
Ġsuperf lu
Ġsucc omb
Ġregroupe ment
Ã©pr ouve
Ġemball ages
Ġseptentri onale
Ġhorm ones
Ġsouterr aines
Ġcollecti vitÃ©s
ĠPhilipp ines
! "
A tt
L ON
S er
T r
d al
j k
l able
t oc
y cle
Ġd ent
Ã© lande
Ã© lÃ¨vent
Ġl itu
Ġc aution
ti endra
Ġs aines
Ġa ussitÃ´t
Ġe ue
in justice
te ga
or Ã©s
om ination
il lusion
ĠÃ© ni
Ġau teur
ĠdÃ© mes
Ġpar lions
eu f
Ġin si
at han
Ġpro di
end t
Ġsu re
Ã©r ales
Ġsou fre
Ġser iez
gi ens
gi bilitÃ©
mi tisme
Ġvi ti
Ġentre tient
Ġco erci
ĠdÃ©c rÃ©
ĠB lo
ĠB lan
ĠS ier
Ġes qu
ĠrÃ©s out
Ġinter f
Ġinter min
ine ment
ĠA ss
Ġal cool
Ã§ Ãł
use z
Ġat ter
ĠR en
ĠR os
Ġcontre car
acc ueille
Ġvo tÃ©e
Ġvo lets
out ant
Ġcol line
rÃª te
ĠN ASA
ĠE L
Ġbas ant
Ġmet trait
Ġass istants
Ġmainten us
ĠJ osÃ©
ĠK u
Ġvers Ã©
Ġjou et
Ġress ens
ĠdÃ©clar Ã©e
ĠreprÃ©sent Ã©e
Ġfondament alistes
Ġ5 1
Ġ5 7
Ġfour mis
Ġref aire
unes se
Ġconnaiss ait
Ġexpli quant
Ġtravers ons
Ġaliment Ã©
Ġfran co
Ġactiv istes
ĠAm Ã©ric
Ġvisi ons
aÃ¯ que
Ġestim ation
ĠÃ¢ gÃ©
pi des
Ġsyn drome
off rent
Ġrendu es
Ġprison nier
Ġdeme urer
Ġrent ables
Ġquit te
Ġprim autÃ©
Ġcoord onnÃ©es
ache ver
Ġcourage use
Ġsurf aces
Ġhabitu Ã©s
ĠrÃ©clam ons
bi te
Ġmonop ol
Ġdiscip lin
Ġvolu mes
Ġdouani ers
ĠrÃ©comp ens
Ġprag matiques
Ġsacri fier
Ġdiv orce
Ã©cri v
Ġilli cite
ĠSa oudite
Ġbrill ante
Ġgagn ants
Ġbiom Ã©triques
Ġopti mistes
ĠprÃ©dÃ© cesseurs
Ġmajor itaire
ĠprÃ©val oir
ĠMande lson
ĠpÃ©nÃ© trer
ĠCanc Ãºn
Ġassass inÃ©
Ġrestitu tions
Ġinterpr Ã¨tes
indemn isation
Ġincondi tionnel
obstac les
accessi bilitÃ©
gor ith
Ġgazodu c
ĠrÃ©vÃ©la teur
Ġcord es
Cinqu iÃ¨mement
Ġcompatri otes
pay eur
approfondi r
ĠSier ra
T ra
g res
h on
k ins
k ing
l ui
m ie
p ent
p ersonne
r al
u aire
Ġ oiseau
Ġp iste
ou ille
ou lou
Ġs h
Ġs aisie
Ġm adame
Ġm Ã©ch
Ġr ose
Ġr otation
Ġun animitÃ©
il Ã©s
ĠÃ© meutes
que ts
au ph
Ġb eur
Ġin ventions
ch arge
ĠP et
ac teurs
ain issement
Ġcomp osÃ©s
Ġo tage
Ġh Ã©ro
onn a
Ġsou cis
Ġimp ar
En viron
ĠÃ©t endues
ĠÃī t
ĠB yr
alis ant
ĠA z
min g
Ġtrans mise
ĠT Ã©
gu isme
ig h
ĠG il
Ġmain tiennent
Ġpubli Ã©es
utilis ateur
ĠD am
ĠD aph
Ġinc orre
ĠH itler
ari o
Ġvers ement
Ġpopul isme
Ġfais abilitÃ©
ĠV itor
Ġprom o
ĠprocÃ©d ur
Ġoc cul
inter action
inter opÃ©rabilitÃ©
Ġviol entes
Ġoff ice
ing Ã©rence
ing rad
Ġdou x
ĠW olf
ĠdÃ©t ache
Ġmod ulation
Ġretr ouvons
inc in
Ġaliment er
Ġimm enses
Ġpoursui ve
Ġall ocution
Ã©p anou
Ġconcent rÃ©s
Ġcentr alisÃ©e
Ġpropose z
Ġpor nographie
Ġindis cu
ĠAl banie
Ġrenouve au
resp o
Ġtotal itaire
Ġconven able
Ġraisonn ablement
ĠBel grade
atta cher
ĠtÃ© les
Ġquit tent
Ġafric aines
200 4
imm ense
Ġitali ennes
ĠÃ©cl aire
Ġhor aires
Ġexcell ents
Ġintellectu el
Ġharmon isÃ©e
Ġtempor airement
ĠCol lÃ¨ge
ik anen
Ġressor tir
Ġincomp lÃ¨
Ġincl use
Ġarr estations
Ġend omm
ĠgÃ©nÃ© reuse
entra Ã®ne
Ġanc rÃ©e
oul os
Ġprononc Ã©es
Ġaim ons
ĠdÃ©plor ons
ĠLi ikanen
ĠMich ael
Ġrail s
Ġbatt us
Ġagres sive
Ġincert aine
ĠdÃ©vas tat
ĠstupÃ© fiants
Ġfame use
her be
Ġtypique ment
emprun t
Ġforesti Ã¨re
Ġpne um
hard t
Ġminus cule
ĠJohannes burg
Ġopport une
ĠMul der
Ã©gÃ©m onie
carb ures
ĠXIX e
Ġchimpanz Ã©s
intol Ã©rance
ĠVitor ino
6 0
C royez
F orce
G arde
H elsinki
R E
g Ã©n
h am
m ait
Ġd auph
Ġc ray
re ev
ent ente
Ġqu ator
Ġn it
ur a
Ġla urÃ©
in ze
Ġv allÃ©e
as si
Ġpar i
Ġpar u
Ġpar ap
Ġpas sions
Ġin fin
Ġg olf
Ġg oÃ»
os ser
ĠC ologne
ĠC respo
di x
ac Ã©e
Ġex istÃ©
Ġsi en
Ġo tages
fi ables
ad t
ad mets
onne t
Ġrapport ent
ĠdÃ©c Ã©d
ĠB ourse
ĠS Ã©nat
ex cÃ©d
ĠrÃ©s ist
gn ons
Ġins crire
Ġst ations
ĠR Ã©
Ġexp riment
acc ro
um an
Ġfond Ã©s
Ġren ation
Ġpart ent
ĠF ried
Ġsitu Ã©es
Ġag issements
Ġbas que
Ã©ra teur
ĠCh i
Ġconstitu Ã©e
ali ens
cul teur
esp Ã¨ces
Ġvis ait
Ġcompte z
ĠrÃ©f Ã©rer
Ġcor de
Ġgaranti sse
Ġsupp osÃ©s
Ġreg agner
Ġfi bres
ĠreprÃ©sent aient
att ach
Ġsuiv ons
Ġviol s
Åĵu f
Ġ4 9
Ġtour istique
ĠpÃ©ri odi
all as
Ġno ble
Ġappel ait
Ġconfi g
aff ec
ĠrÃ©v olutions
Ġgen oux
Am Ã©ricains
Ġrou e
Ġfix es
Ġexc lut
Ġinst aller
ĠprÃ©par ent
ĠprÃ©par Ã©e
Ġconcent rent
Ã©tique tte
ĠrÃ©ser voir
ĠpÃ©n ins
Ġavanc ent
Ġoffici ers
ĠAl gÃ©rie
Ġsimpli fiÃ©e
Ġretard Ã©
Ġfrapp Ã©s
Ġprovo quant
Ġcompli quÃ©es
Ġperd ure
Ġcroy ait
Ġchamp ign
Ġcirconst ance
ĠtÃ©lÃ©ph oniques
Ġtransform Ã©e
Ġintelli gentes
Ġfrau dule
Troisi Ã¨me
Ġquotidi ens
Ġencourage ons
Ġmari Ã©
ĠrÃ©guli Ã¨res
Ġsouci e
he imer
Ġanalys Ã©
Ġanalys tes
Ġaffec tÃ©e
Ġapprofondi es
ĠdÃ©plac ent
Seu lement
Ġenvisage able
Ġdivis Ã©s
Ġpolitici en
Ġpsych ologiques
ĠhonnÃªte tÃ©
ĠmultilatÃ©r alisme
ĠdÃ©bu ter
Ex c
Ġexplo itÃ©
Ġexplo sion
Ġconnex ions
ĠfacilitÃ© s
ey nes
Ġfrag ilitÃ©
ĠÃ©car ter
Ġilli cites
ĠrÃ©ve iller
Ġflot tes
esc alade
ĠAh madinejad
ASE AN
Ġfid Ã¨les
Ass ociation
expÃ©ri mentation
stan bul
Ġempre inte
Ġpav illon
Ġrepro cher
Ġcommande ment
onci ation
ĠLam y
ĠMcC reev
Ġpromette ur
ĠÃ©criv ain
Ġlament able
Ã©chÃ© ance
Ġcomport ant
Ġprolon gement
Ġinsatisf ais
ĠtchÃ©tch Ã¨ne
palestini en
ĠmÃ©thod ologie
ĠKad hafi
impu issance
ĠByr ne
ĠMcCreev y
A O
B ER
H ol
S uite
c Ã´
f eld
g hi
i res
t ais
Ġ titu
ou ge
ti ser
Ġn er
ur Ã©es
Ġla ps
Ã¨ che
Ġen ver
al li
ch eur
Ġse l
Ġch Ã¨que
ĠP res
ir aient
Ġsi ff
and re
Ġh Ã©ritÃ©
fi ante
Ġent oure
Ġimp itoy
Ġimp opul
Ġapp uie
vi Ã¨me
Ġmes dames
ĠB ow
ĠS ovi
Ġsa ou
Ġins tin
ĠT anz
Ġfa uss
ĠrÃ©p rim
ĠcrÃ© ances
Ġprodu ctifs
ĠF er
ĠF ontaine
ĠL une
Ġcontr aindre
Ġdom iner
Ġaff ronte
Ġ19 2
hÃ© tiques
ĠJ ose
ĠJ ong
Par tout
Ġtech ni
Ġsouhait ant
Ġsouhait ais
Ġsouhait aient
Ġabs tenir
Ġsuc cÃ©
Ġcapit aine
Ġver tes
Ġreven dication
Ġoblig Ã©e
Ġrappel lerai
ĠreÃ§ ue
Ġappar ent
ss Ã©
agri culteurs
Ġfl ui
Ġinqui Ã©ter
ĠBar rot
Ġsouhaiter ait
ĠthÃ© matique
Ġrac ine
Ġnorm ales
Ġpous si
Ġcompar aisons
Ġrecev ons
Ch er
Ġcy nique
Ġcy ber
Ġdistin cts
Ġgu Ã©rir
Ġ198 7
Ġfacil itant
indi ffÃ©rence
Ġchu ter
An g
Ġsubs istance
Ġfront s
ĠSh ang
Ġru de
ĠEur atom
Ġsurvi v
Ġscandale use
ĠmodÃ© rÃ©
Ġenqu Ãªter
ĠÃ©chÃ© ances
App laudissements
Ġkilom Ã¨tre
Ġchem ise
ĠÃ©par gne
Ġaffaibli e
ĠmathÃ© matique
ĠÃ©pr ouv
Ġsanction ner
Ġentrepren eur
ĠdiplÃ´ mÃ©s
Ġrestaur ants
Ġautrich ien
Ġperp lex
Ġapport ons
Ġ194 5
ĠimprÃ© v
Ġrenf erme
Ġaverti ssements
ĠnÃ©fas te
Ġarbitr aires
ĠhÃ´ te
Ġboute illes
ĠperpÃ©t rÃ©s
Ġnordi ques
Ġenvir ons
ĠconsidÃ©r ants
Ġinsur mont
Ġlobby ing
Ġcouver tes
Ġarchite ctes
ĠbÃ©nÃ©v oles
Ġidi ot
Ġmeu bles
ĠJack son
ĠPri x
ĠÃ©pis ode
cad res
ĠirrÃ©ver sible
Ġarchi ves
Ġhorrib les
Ġride au
anth rop
ĠFuk ushima
0 5
T A
e i
i ori
m atie
m ala
n isme
p age
r ance
v ol
z heimer
Ġp aire
Ġc ui
ai gne
ar ag
or mi
Ġv enti
Ã¨ des
Ġpar itÃ©
Ġin aug
at tÃ©nuer
Ġcon ju
Ġcon duira
ens able
Ġch ou
ul Ã©s
Ġsi enne
Ġh Ã¢
Ġh Ã©tÃ©
tr op
fi ons
Ġan nexe
ad j
Ġtra ces
Ġdis cer
pr om
Ġpu t
Ġvi ables
Ġco ol
ĠdÃ©p os
ĠdÃ©p la
Ġinter dits
ate mala
enti ment
Ġins ensÃ©
Ġas pire
ĠConseil s
Ġtravail lait
ĠT ra
Ġexp osÃ©e
Ġexp ressions
Ġexp ertise
ĠrÃ©p ert
Ġann uelles
ĠG ore
Ġrep ortÃ©
ĠnÃ©cess itant
out h
Ġor phel
Ġconf ortable
ĠD Ã©p
Ġaccord ons
aiss ons
Ġgouvernement al
Ġgroupe ments
Ġprof itable
Ġrespe ctives
oli tiques
Ġnouvelle ment
Ġnu isent
ager ie
ĠreprÃ©sent era
Ġrem onter
Ġvol ant
Ġ5 2
Ġcomb inÃ©
Ġdou blement
ĠrÃ©du irait
ĠsÃ© isme
Ġtour ment
Ġcan adi
ossi bles
ĠcrÃ©er ait
Ġfai lles
Ġsus men
art h
Ġ6 2
Ġrev u
Ġporte ur
Ġtrouv Ã©s
Ġfix ant
Ġinst abilitÃ©
Ġchois it
ĠIn stitu
Ġsembl aient
organis me
Ġrefus ant
Ġcolle cter
Ġcatastroph iques
Ġoubli e
ĠÃ©lÃ©ment aire
appro fondissement
anci ens
ĠCe ci
CE E
Ġmas sifs
Ġautoris ations
Ġfavoris Ã©
Ġinten sif
Ġconven tionnelles
Ġdiver sifier
Ġentend us
Ġrestri ctives
Ġatten dez
200 9
ĠrÃª ver
Ġcaus Ã©e
Ġconver sion
ĠcaractÃ©ris Ã©e
Ġencourage ants
ĠdÃ©v aluation
Ġsac rÃ©
Ġprotoc oles
Ġcollab orÃ©
Ġsaur a
Ġ197 9
Ġenvisage ons
ĠGu atemala
ĠexÃ©cu tions
Ġdevi endront
Ġcib ler
ĠcÃ©rÃ© br
occup ent
opportun itÃ©s
ĠÃ©loi gnÃ©es
Ġignor ent
Ġgard Ã©
Ġsupprim Ã©es
ĠIran iens
ĠÅĵu v
ĠdÃ©sÃ©quili b
Ġgasp iller
ĠÃ©labor Ã©s
ĠspÃ©cul atifs
Ġaid ant
Ġmini me
ĠdiplÃ´ me
Ġoctroy Ã©e
ĠocÃ© an
ĠAng ela
ĠthÃ©rap ie
Ġgrosses se
ĠÃ©gyp tien
Ġstructur Ã©
Ġinconn u
Ġabsor b
Ġincert ain
Ġinstaur Ã©
Ġgalax ie
Ġconfond re
accum ulation
ĠprÃ©d omin
Ġnettoy age
ĠdÃ©mante ler
ĠpÃ©ni ble
ĠprÃ©limin aire
ĠblÃ¢ mer
ĠdÃ©prÃ©ci ation
Ġdat ant
inscri vent
ĠhypothÃ©c aires
Ġraci ale
Ġpleu voir
ĠJun cker
ĠcosmÃ© tiques
ĠCr oix
khaz ie
Ġrenation alisation
ĠpÃ©nins ule
Ġsusmen tion
4 0
G B
M A
S upp
b a
d ou
e g
h il
m od
s Ã©s
Ġp ente
Ġs Ã©c
Ġs entez
qu a
Ġf Ã¢
Ġun ilatÃ©ralement
op oulos
ne aux
ra c
os pit
ag as
ĠC ert
Ġsur n
rÃ© er
di m
ol is
ĠP an
Ġdi gnes
ĠM ins
ie v
pe z
Ġac ad
av iez
ĠprÃ© dictions
Ġpa piers
Ġimp ossibles
Ġconc ili
Ġres pirer
Ġfin landais
ĠB as
ĠB ali
ĠS Ã©curitÃ©
orte z
ex ac
ĠA g
Ġcr ist
rai ment
ĠintÃ© resser
ĠF ace
ĠL iste
Pour rais
Ġcitoy ennes
Ġfer mÃ©es
erci ces
ph Ã¨res
ĠK er
ĠK alin
Ġemp ois
ĠâĢ Ŀ
ĠdÃ©s avant
Ġju gÃ©e
ĠdÃ©clar ent
ĠprocÃ©d Ã©s
ĠÃ©vi te
Ġsign Ã©s
Ġtrouver ons
Ġconstru ctions
Ġsc an
ĠrÃ©glement Ã©e
Ġpoursui vie
Ġfra Ã®
Ġpol Ã©mique
Ġorient Ã©e
ĠgÃ© rÃ©s
ĠgÃ© ographie
Ġcou ler
Ġunivers els
Ġcondam nÃ©es
Ġatta chÃ©
Ġobten ues
ĠAn t
Ġ11 0
Ġmanifest ent
Ġencourager a
Ġmai gre
Ġinvesti s
Ġemb arrass
Ġemploi e
Ġnum Ã©r
exemp les
ĠvÃ©ri fie
ĠapprÃ©ci ons
Ġvari able
Ġred resser
Ġred ressement
Ġobserv ons
Ġlab o
Ġprofiter a
ĠmÃ©r iter
ĠHong rois
ĠMa o
Ġrasse mble
Ã¡ nam
arr y
ĠdÃ©cou ler
Ġcam Ã©ras
Ġpacifique ment
ĠinÃ©v itables
Ġhom ogÃ¨ne
Ġfail lites
Ġration nel
Ġprolong Ã©
ĠdÃ©tru its
Ġpersuad Ã©e
ĠdÃ©sir s
Ġaggra vÃ©
Ġmorte l
Ġenseig ne
Ġray on
Ġfabric ant
Ġentour Ã©
Ġreprodu ise
Ġlicenci Ã©s
ĠdÃ©mission ner
Ġbran ches
ĠdÃ©centr alisÃ©e
bo ok
ĠFlor ence
Ġfe rez
Voy ons
ĠdÃ©faill ances
enrich issement
Ġaudiovis uel
ĠDel ors
ĠPD G
Ġmenti r
ĠÃ©chantil lon
Ġrejoi gnent
Ġra tÃ©
Ġbaign ade
Ġsupermar chÃ©
ĠEC HO
Ġende t
ĠNig Ã©ria
avoc at
effor cent
Ã©cla tement
ĠRÃ©public ains
nest y
ĠNet anyah
Ġpyra mide
Ġinterculture l
Ġparadi gme
ĠKalin ingrad
Ã¡nam o
' s
9 7
B ill
D onne
I A
I mp
V i
f lÃ©ch
h Ã©s
t ur
v ens
Ã© mi
Ġl inÃ©
en berg
on z
on Ã§ons
Ġp li
Ġc urie
Ġc umul
Ġm outons
or ations
Ġr oyaume
si Ã¨cle
âĢ ĳ
âĢĻ Â«
que z
au trui
ĠdÃ© truite
ri culture
ĠC S
ĠC omp
ĠC ash
Ġpo Ã©
app laud
am ie
av ier
ĠprÃ© lÃ¨vement
Ġimp Ã´t
mi ons
Ġdis que
ĠÃ©t onnÃ©
ĠÃī cosse
Ġfin alitÃ©
Ġbien faits
ĠS ac
ĠS ir
Ġacc ab
Ġacc roÃ®t
Ġal gÃ©ri
Ġsoci alisme
int rodu
ose z
Ġmil ices
Ġcar ic
Ã©li gibilitÃ©
Ġdonn Ã©s
Ġfond ateur
Ġren oncÃ©
ĠF ern
Ġsitu Ã©e
ĠN ab
Ġag ro
ĠE instein
Ġop ter
Ġass urent
ĠlÃ©g ers
Ġcha mbres
ĠK la
Ã©v asion
tri ces
Ġplan che
dus a
Ġdur ablement
Ġnu isibles
ĠrÃ©g ression
ĠrÃ©g uler
ĠspÃ©ci alisÃ©es
Ġtu Ã©es
ill ant
Ġiniti ales
nÃ© si
Ġple ins
Ġdoute ux
Ġci ment
Ġcoup les
ĠLe one
ĠLa mb
Ġopp osÃ©es
Ġvoter ont
Ġinst allÃ©
ore ille
Ġretour nÃ©
ĠdÃ©g Ã©n
Ġpor cs
ĠSch reyer
hÃ©r an
Ġveiller a
sÃ© mitisme
ĠSu u
ĠCor an
ĠdÃ©couv re
Ġbal lon
Ġbal ayer
Ġconven us
Ġconven ablement
Ġcommence ment
Ġemb argo
Ġscientifique ment
Ġintrodu isant
ĠSt a
ache mire
ĠdÃ©v o
Ġdisposer ons
Ġintergouvernement al
Ġrequ in
ĠdÃ©sas tres
ĠKy i
Ġmotiv Ã©s
ĠChyp ri
appar ente
Ġmeur t
ami ante
ĠaccÃ©lÃ© rÃ©
Ġap aiser
ĠÃ©loi gnÃ©e
ĠrÃ©uss issent
ĠdÃ©saccord s
Ã©vent uelles
ÃŃ n
Ġspor tif
Ġchans ons
Ġarb it
Ġenn uis
Ġchasse urs
ĠGre en
ĠGre cs
Ġalarm ante
Ġenle vÃ©
Ġassassin ats
Ġgouverne ur
Ġracont Ã©
ĠdÃ©loy ales
Ġolymp ique
ĠKo fi
Ġsectorie lles
ĠvÃ©gÃ©t ales
Ġemmen er
Ġrecouv rement
Ġinfir miÃ¨res
Ġsuccessi fs
mpe dusa
ĠLul ling
ĠpersÃ©v Ã©rance
ĠÃ©pouvant able
Ġing Ã©rence
Ġtristes se
Ġdras tique
Ġlucra tif
Ġmanufact uri
incendi e
Ġbeur re
P u
a e
d in
h is
j o
l at
t y
z y
Å Ħ
Ġ Quel
Ġc end
re ra
Ġa us
er landais
ai d
Ġm iti
Ġm ystÃ©ri
ur rent
ar iste
Ġr umeurs
au paravant
al le
Ġb er
Ġb Ãªte
oi ve
Ġin fi
at ar
ag ression
Ġsur s
ens Ã©ment
ab ondance
Ġtr oÃ¯
Ġse ctions
di o
Ġch rÃ©tien
ĠP r
Ġdi vid
ain si
ir ation
Ġje t
Ġcons ent
ĠprÃ© side
Ġsou lÃ¨vent
Ġimp er
Ġimp acts
Ġy en
Ġvi er
Ġmar Ã©e
Ġmar ines
ĠB oli
ĠB ah
Ġpers ister
Ġimport ateurs
Ġinter pel
gn ants
ot ti
Ã©c osyst
ĠT ri
ĠdÃ©b ord
tin es
lis er
Ġvo eux
Ġren Ã©g
Ġsitu Ã©
Ġgrand issant
ĠD Ã©m
Ġcap tures
Ġaff lux
vers er
ĠconsÃ©qu ente
Ġemp ortÃ©
Ġvis u
Ġsoi e
Ġcor rompu
Ġpopul iste
Ġjou ant
Ġsupp osÃ©e
Ġreg istres
Ãī c
entre tien
omb res
Ġ4 50
ier re
Ġatte ler
ĠrÃ©pond ra
Ġappel ant
Ġsc ann
Ġdoc tor
Ġimm un
Ġrev it
ĠmÃ©t ro
ĠLa mpedusa
Ġappar ten
Ġappar tement
Ġappar ues
Ġinv isible
ĠdÃ©si rons
Ġadmin ist
ĠgÃ© om
Sur tout
rog ation
empl oyer
Ch ris
Ġperdu es
ĠdÃ©cider a
Ġviv aient
Ġval ait
Ġdiver gentes
Ġtrib us
Ġadap tations
ĠÃ©m ise
Ġ198 5
Ġemploi ent
ĠdÃ©rou lÃ©e
Ġcroy ais
appel ait
ĠLib er
Ġexcep tionnellement
Ġcaus Ã©es
imm Ã©di
Ġaccus ation
he ad
gyp tiens
Ġsold at
Ġproc urer
Ġfas siez
aj out
Ġprati quÃ©
ĠrÃ©clam Ã©
AR C
ĠinquiÃ©t antes
Ġble us
ĠÃ©tonn amment
ĠmultilatÃ©r aux
Ġgard es
Ġrigou reuses
Ġ196 7
Ġindire cts
Ġrenvers ement
ĠadhÃ© rÃ©
urg ien
ĠsÃ©cur itaire
Ġfranc s
Ġunanime ment
ĠcinÃ©m at
ĠschÃ© mas
Ġfacul tÃ©
Cin q
ĠBÃ¶ sch
Comm enÃ§ons
ĠGuant Ã¡namo
Ġobsol Ã¨te
ĠDeux iÃ¨me
hr endt
ĠdÃ©sespÃ© rÃ©e
ĠredÃ©fin ir
ĠstÃ©rÃ© otypes
ĠdÃ©nomin ateur
ĠÃ©coss ais
ĠGand hi
Ġpingou ins
Ġinsi gni
Ġquator ze
ĠTanz anie
ssÃ© tie
1 2
C onn
E u
M ieux
O k
O uganda
R ec
V a
b us
c ales
m it
p in
p lus
en vie
Ġc it
Ġc ac
Ġa ler
Ġm Ã©g
Ġn auf
or b
Ġle cteurs
Ġr ouvrir
Ġv Åĵu
il Ã©e
Ġen dÃ©
ĠrÃ© organisation
Ġin finiment
Ġcon qu
app rÃªte
pe ur
ĠComm issaires
Ġser as
Ġser rÃ©
ad or
ad hÃ¨re
Ġtra cÃ©
gi eux
ins truction
Ġrapport er
Ġbien veill
Ġmes urÃ©
ĠB our
ĠB ud
ard ons
ĠA c
Ġar du
ĠT or
gu ent
ĠF EM
Ġmain ts
ĠprÃ©sent ait
Ġcol onie
utilis ent
ĠN ich
ĠE s
ĠÃ©c us
ĠÃ©c rans
Ġsouti endront
Ġtrois iÃ¨mement
exp ulsion
esp Ã©rons
Ġinc itants
Ã©v olu
Ġsous traire
ĠâĢ ĺ
ĠreprÃ©sent ons
inter romp
inter valle
Ġsuff rage
Ġsigni fiait
Ã©nÃ© zu
Ġtu ent
Ġsal les
Ġinform Ã©e
Ġtrouver ont
Al zheimer
Ġtour istiques
Ġpriv atis
Ġir ait
ĠdÃ©pens ons
aff i
Ġver b
ĠprÃª tÃ©
ĠbÃ©nÃ©fici aire
Ġrou mains
Ġouv rant
Ġpasser ait
ak i
dis cip
Ġmanque ments
opp osÃ©
ĠgÃ© org
ori al
Ġmulti lin
Ġanti terr
Ġanti dÃ©mocratique
ĠY ou
Ġminist Ã¨res
Ġlut tes
Ġcivi ques
Ġpros pÃ©rer
ush arraf
ĠprÃ©ser v
Ġliv rÃ©
Ġfavoris era
emb ar
ĠprÃ©p ond
Ġ14 0
Ġtab ou
ĠSt an
Ġquotidi ennes
Ġmari Ã©e
Ġmari ages
ĠDe puis
Ġconstituer ont
Ġsoum ission
Ġach et
ĠÃ©limin Ã©
Ġartis an
Ġpsy chi
ĠfÃ©d Ã©ration
Ġdesign ers
Ġinspi rÃ©e
ĠTh ess
Ġtre ize
ĠÃ©chapp e
ĠdÃ©ploy Ã©
Ġisol Ã©es
entra Ã®
Ġcompati bilitÃ©
ĠdÃ©cid Ã©es
Ġrenvers Ã©
Ġinclu sive
Ã©vent ail
Ġrecon version
ĠÃ©tique ttes
Ġaveug les
Ġrivi Ã¨res
Ġprovin ces
Ġaffi che
olog iste
Ġukraini enne
Ġflag rant
autor Ã©g
Ġbatt ent
Ġmam mif
ĠdÃ©liv rance
Ġenvir onnements
Ġloint ain
ĠBÃ¶ ge
rah am
Ġinhab ituel
Ġsyner gie
Ġcenti m
Ġbru its
ĠmÃ©dioc re
ĠCent rale
ĠLang en
UC LAF
Ġcombatt ants
Ġsusc itent
Ġastr onom
Ġfir mes
pie d
ĠNÃ© erlandais
ĠBlan che
ĠTÃ© hÃ©ran
ĠMins k
ĠtroÃ¯ ka
9 6
A ffaires
D Ã©p
E U
F aut
c onc
k raini
l om
r itÃ©
Å ¡
Ġd ot
es el
Ã© dÃ©
Ġl Ã©s
en c
Ġde Ã§Ãł
Ġs tÃ©r
qu enn
in k
in vention
om ac
Ġf Ã©ro
op Ã©rations
au dition
ĠdÃ© lin
al onique
al phab
ci e
oi ff
ra yer
Ġg Ã©rÃ©es
os pe
Ġre ine
Ġre form
Ġcon fin
Ġpl uies
de ur
Ġse mi
Ġsu prÃ©
Ġi mb
Ġi tin
el ho
Ġac qui
Ġmo tiver
ten dez
Ġent endez
Ġimp ensable
Ġgr is
Ġprop ager
ins uffisance
ap erÃ§
ĠnÃ© ant
ut ent
Ġam ont
ĠA ct
Ã©c ras
Ã©c lair
emp orte
ĠT ob
Ġnos tal
Ġcl ore
Ã® t
ĠG er
ĠG ra
Ġrep li
Ġpri er
ĠdiffÃ©r end
anti sÃ©mitisme
Ã©di e
Ġcha otique
ĠJ i
ĠH at
st raction
Ġplace ment
Ġprom eut
ĠreprÃ©sent ations
eff ets
Ġ! "
Ġoff rira
Ġappli quant
Ġfac tions
Ã©ch anger
Ġconfi Ã©
aff ich
Ġsus pects
inc omp
Ġ6 7
Ġporte urs
Ġanim Ã©
Ġrappel ons
Ġentra vent
ĠÃ©p ouse
DE R
Ġsol vabilitÃ©
Ġ9 6
Ġreli e
ĠmÃ©th ane
ĠdÃ©tail lÃ©s
amen ei
Ġcru el
ori ens
Ġcorre ctions
Ġexprim ant
Ġdispar us
Ġfu sil
Ġobten ons
ĠdÃ©li m
Ġnorm aux
Ġcondition nalitÃ©
Ġautom atiques
Ġha usses
ĠÃ©cou lÃ©
Ġdiver gents
Ġperd ant
atte ler
exc lure
ĠtÃ©lÃ©ph onie
ĠprÃ©sid er
ow n
Ġconsoli dÃ©e
ĠmÃ©r it
accomp lissement
Ġdiss Ã©min
Ġpou b
Ġharmon isÃ©
Ġeuros cep
Ġillus tration
ĠQu arte
ĠBro th
terr issage
Ġsupprim Ã©s
Ġaspir ent
Ġisol er
interprÃ© ter
ĠrÃ©conc ilier
ĠÃ©mo tionnel
Ġexplo itÃ©es
ĠrÃ©col tes
amÃ©ric aines
Ġforum s
ĠAu jourd
Ġaid Ã©s
ĠCo elho
Ġcardi aques
inten sification
ĠdÃ©rÃ©g ulation
ĠÅ ł
Ġvirtu el
Ġjustes se
ĠdÃ©stab iliser
ĠBon ino
Ġperturb ations
Ġretrouv Ã©s
ĠRoth ley
Ġenfre int
Ġspir itu
DR ES
Ġcouver te
ĠdÃ©coup lage
Ġbulg ares
Ġbale ine
Ġvaloris ation
ĠDim as
Ġtropic ales
Ġannex es
ĠTit ley
mÃ©diterranÃ© enne
Ġdop age
ĠGau lle
ĠSP G
ĠrÃ©cup Ã©ration
Ġcle f
ĠdÃ©cal age
LON DRES
excÃ©d ent
ĠPres tige
ĠShang hai
ĠDÃ©p ression
ĠThess alonique
kraini ens
ĠsuprÃ© matie
P assons
Z Ã©lande
d or
f r
h ad
o ol
o der
p la
s ur
u te
v ingt
es pe
Ġl isez
en voy
Ġp ans
ou til
Ġa te
Ġt unis
Ġf oie
Ġpr u
Ġv an
ĠÃ© mi
Ġb ic
ĠrÃ© examin
eu tique
Ġin cess
Ġg Ã¨re
Ġg aler
ens uit
ff icacitÃ©
Ġch Ã¨res
ni r
and ais
Ġan orm
ad o
ad mission
ĠÃ©t endus
Ġco que
Ġco inc
ĠdÃ©c er
ĠdÃ©c onne
Ġpers istance
ĠA prÃ¨s
Ġacc ueille
min er
Ġsuis se
ĠR as
ob e
gu Ã©es
Ġti rÃ©e
Ġvoud ront
dÃ© jeuner
ĠL ab
Ġconf es
Ġconf is
Ġca mb
Ġass ument
Ġdemand ais
ali gner
mis er
Ġvis uel
Ġrest es
Ġsoi f
ĠrÃ©f rig
Ġinstitu ts
ĠdÃ©s avantage
Ġappr enons
Ġris quÃ©
ĠprÃ©v isi
ĠrÃ©g issent
ĠdÃ©clar Ã©s
Ġviol er
Ġabs trait
ĠÃ©ch oue
rim o
ĠW illi
aud ace
Ġenti ers
Ġrou m
Ġrou le
Ġsol aires
Ġcal mer
Ġth Ã¨se
Ġvoul ue
Ġcru autÃ©
ori eux
Ġradi odi
Ġsp orts
Ġconsul tÃ©s
Ġcentr alisÃ©
Ġatta chement
Ġdange reusement
Ġvit aux
Ġsuper be
Premi er
Ġtable aux
Ch rÃ©tiens
ĠdÃ©mar rÃ©
ĠdÃ©n oncÃ©
Ġlogique ment
ĠÃ©lector aux
Ġaband onnÃ©s
Ġprim aires
ĠX ia
Ġclasse ment
Ġpropor tionnelle
ĠsystÃ© matiques
Ġtri angle
Ġpan el
Ġbrut alement
Ġexaminer ons
Ġsaur ons
Ġ197 3
Ġsymp a
Pr ends
Ġamp lement
ony mes
Ġliqui ditÃ©
Ġimpression nÃ©
Ġirak iennes
Ġration alisation
Ġincomp Ã©t
ĠrÃ©pand re
ĠaccÃ©lÃ© rÃ©e
Ġphilosoph e
Ġdiscip lines
Ġimpati ent
Ġpal lier
Ġsupprim Ã©e
Ġiran iennes
Ġmagni fiques
ĠKar as
Ġentour ant
Ġallou Ã©es
Ġdouce ur
Ġenc ad
Ġchir urgien
Ġram Ã¨ne
Ġsolli citer
Ġbarb arie
ĠÃ©quival ente
Ġminuti eux
Ġafghan e
DÃ©s olÃ©
Ġcub ain
Ġrenvoy Ã©
ĠÃ©pau le
ĠinÃ©g al
ĠprÃ©fÃ©rer ais
Ġinvestiss ent
Ġsolenne lle
ĠdÃ©brou iller
Ġtrau matis
ĠAD N
Ġfle uve
Ġrapatri ement
ĠWhite head
Ã©car ter
Ġexpon entielle
ĠFrancis co
Ġinsou ten
dom ad
ĠhÃ©li copt
Be hrendt
Ġgentilles se
Ġlitu an
ĠhÃ©ro Ã¯
incin Ã©ration
Ġnit ra
ĠpoÃ© sie
ĠChypri otes
Ġmultilin guisme
Ġradiodi ff
D C
D H
L oin
M et
P R
l itÃ©s
l anges
r Ã¨tement
Ã© lan
Ġl ouer
Ġp oup
ti qu
Ġm Ã©ritÃ©
in en
om pe
om ali
Ġr as
Ġr umeur
Ġv int
Ã¨ nent
il d
us tion
Ġpar lais
Ġg amin
ag Ã¨re
ĠC achemire
di ff
Ġch anges
ĠP L
ĠP V
ir rÃ©g
ĠM oz
Ġav Ã©rÃ©s
Ġex ercices
sid es
am an
Ġcomm erÃ§
av a
Ġo x
ten ariat
Ġres pi
Ã©t ons
Ã©t onner
Ġvi endront
ĠÃī cofin
ĠS T
ĠS c
Ġeff ici
ail ler
ex erce
Ġpers istante
Ġman Åĵu
Ġsa chent
Ġins pir
Ġfor ger
Ġvoud ra
pu y
Ġag ent
ĠE N
ĠÃ©c rits
Ġdemand era
ĠI raq
Ġgar dienne
ĠJ on
Ġvis Ã©s
ov ie
ari es
ĠrÃ©sul ter
Ġindi ennes
ĠprÃ©v isibles
ĠprÃ©c Ã¨de
Ġnot ables
Ġ5 9
ĠdÃ©fin issant
ĠcoÃ» ter
ill ard
Ġdou bles
Ġextr aire
Ġfam ilier
Ġ6 4
Ġporte feu
Ġtrouv ais
ĠfÃ©lic itÃ©
Ġ9 8
Ġur gences
Ġtrait s
Ġprov ocation
Ġmontre ra
Ġprot agon
ess aye
Ġfu ites
Ġparven ions
Ġprend rons
th Ã¨nes
hab it
Ġcivi que
Ġhuman itÃ©
Ġsurpr endre
ON G
Ġ18 0
Ġfrapp Ã©e
Ġexer cÃ©es
Ġviv ante
Ġlit tÃ©r
Ġprosp Ã¨res
ĠtÃ©lÃ©ph onique
Ġexcep tionnels
Ġconver tir
Ġpan ier
Ġarm ateurs
Ġrasse mblÃ©
ĠrÃ©tab li
Ġtrou ble
Ġsin istre
Ġcriti quent
Ġharmon isÃ©es
Ġenseign Ã©
Ġdon ateur
Ġacqu ises
va hi
ĠdÃ©cri te
Ġprotectionn iste
Ġreten us
Ġattribu Ã©s
inn ombrables
ĠprivilÃ©gi Ã©e
Ġord onnÃ©
Ġsty lo
ĠAra bie
Ġentour ent
Ġsubvention ner
Ġmuni tions
jac ente
Ġdoulou reuse
ĠdÃ©loc alisation
Ġprovisoire ment
ĠÃ©gyp tienne
Ġstatu ts
uc co
Ġtransnation ales
Ġhypoc rite
ĠprÃ©judici ables
ĠMande la
Ġincompati ble
Ġincompati bles
ĠcarrÃ© ment
attent at
ĠcorÃ© enne
Ġquere lles
ĠdÃ©ser tification
Os lo
Ġimmobili Ã¨re
ĠÃ©oli enne
obsc uritÃ©
ĠÃ©ligi bles
dim ension
Ġscan ner
ĠCash man
ĠNab ucco
immÃ©di at
Ġportefeu illes
P rimo
S ec
T elles
a oÃ»t
b ig
e p
o ver
Ġd urs
Ġp ant
ou sie
Ġs ine
Ġr af
Ġv entre
our agan
est hÃ©
as co
ĠÃ© co
ĠÃ© dul
ĠdÃ© duire
Ġpar don
al lez
Ġj oy
Ġpro ver
Ġpro active
Ġsur vient
Ġch rom
ol fe
ĠM as
app uyant
ois se
am or
Ġcomm er
av erti
Ġcomp tant
Ġh aÃ¯
ĠprÃ© dit
Ġcont ents
Ġpa per
ord on
Ġsou pe
ge mment
pr op
ĠS ocrates
Ġpos ons
Ġacc ou
Ġal gorith
ot t
ot ype
Ġad h
Ġst ades
emp athie
ĠT s
Ġat tÃ©nu
Ġcl ose
Ġcar otte
Ġann uler
Ġren omm
ĠG ates
Ġcas ser
Ġcol lÃ©gi
ocra te
Ã¢ cle
ass ainissement
ĠlÃ©g Ã¨res
ĠCh ance
ĠI stanbul
hÃ© m
ĠK eynes
ĠH il
ĠdÃ©s ord
Ġvers ements
Ġindi ces
Ã©conom iste
ĠO ost
inter connexion
Ġcomb ustion
Ġbr Ã¨ves
Ġple ut
Ġfai sions
Ġir re
ĠÃ©tab lissement
inc iter
Ġaliment e
Ġimm unitÃ©
land er
Ġpasse ports
Ġsau mon
Ġrend rait
Ġexc lue
Ġ9 7
Ġ9 00
ĠrÃ©sou d
Ġobser vÃ©e
Ġsor tis
Ġconcent rÃ©e
Ġattend ait
Ġvoul ant
Ġfl ou
Ġfl am
Ġdispar aÃ®t
od ac
ĠU krainiens
emb ry
Ġperman entes
ĠdÃ©mar rage
Ġcompli ments
Ġdiver tissement
Ġcorrespond re
Ġmob ili
ĠsÃ©par Ã©e
ĠcatÃ©g orique
ĠBer Ã¨s
indi ce
ĠcohÃ©r ents
oh l
Ġdistribu teurs
Ġconver ti
Ġenreg istr
ĠallÃ© ger
ĠMa at
Ġcalcul Ã©
ĠrÃ©si li
Ġdiss u
Ġnomm Ã©e
Ġbienven us
Ġkil os
Ġration aliser
Ġhabitu el
Ġhabitu elles
Ġdomin ant
Ġspectac ulaires
Ġpassion n
ĠQu inze
ĠperÃ§ us
Ġjaponais es
Ġinspi rÃ©s
Ġimpati ents
Ġgard ent
Ġcuis iner
Ġabouti t
Ġconne ctÃ©
ĠOr tega
ĠmathÃ© mati
Ġmultipli Ã©
Ag riculture
ĠrÃ©comp enses
excell ents
ĠbrÃ» ler
Ġdiv ise
ĠÃ©larg issements
ĠWal lis
Ġtrompe use
ĠspÃ©cul ateurs
Ġparviend ront
Ã©nÃ©g al
ĠAnd erson
Ġpakistan aise
Ġempris onnÃ©s
Ġmajor itairement
Ġsuperfici e
Ġmalent endus
ĠinconvÃ©ni ent
ĠrÃ©affir mÃ©
ĠNic arag
Ġinfluen cÃ©
ĠinhÃ©r ents
ĠchrÃ©ti ennes
ĠinadÃ©qu ate
Ġparalys Ã©
Ġfascin ant
Ġtriomph e
ĠHer man
Ġjun te
ĠmÃ©ridi onale
Ġvainque ur
Ġlivrais on
ĠadhÃ©r ents
Ġdigit ales
ĠEL DR
ĠdÃ©tache ment
ĠBour langes
ĠOost lander
C ont
I raq
N P
S ouv
T rans
c able
g raph
h osti
k os
n utri
o eil
o fs
r yth
s aharienne
v ages
Ġ +
Ġd ense
Ġd ures
Ġp itiÃ©
Ġc Ã©li
Ġs ter
Ġs Ã©n
Ġs phÃ¨res
qu ions
re uves
Ġa Ã®
Ġqu an
is it
is aient
Ġm ord
Ġm asses
Ġf es
Ġen vahi
ri rait
Ġb ap
Ġb ague
eu p
Ġin vention
ch w
Ġg olfe
os ses
Ġpl au
Ġch ag
Ġch ol
Ġch air
ol ont
ni ons
Ġdi ox
ac cession
ĠM ai
ĠM usharraf
se t
Ġex is
Ġcons ter
av ancÃ©e
Ġcomp lets
Ġo v
Ġh erb
Ġli aisons
ĠÃ©t ay
ĠÃ©g lise
Ġfin e
Ġco tis
Ġper tine
Ġper cepti
ex cÃ¨s
Ġinter conne
Ġinter dictions
ine fficacitÃ©
ĠA si
ĠA ri
ĠA PE
Ġacc ises
Ġins istent
Ġas tu
Ġfor fait
Ġob session
Ġar sen
emp irer
Ġat lantique
ĠdÃ©b Ã¢cle
Ġmarch ent
Ġann ulÃ©
Ġti endront
ig o
Ġpri ori
ĠN otre
ĠÃ©v itÃ©e
Ġmin Ã©raux
des c
Ġop Ã©rant
Ġess or
ĠÃ©c ologistes
Ġass um
ĠI ou
Ġgar ant
ĠdÃ©f endue
Ġrespons ab
Ġinc itÃ©
Ġinc itation
Ġvis Ã©
Ġrest Ã©es
og ne
Ġadop tions
ĠdÃ©s appr
ĠdÃ©s intÃ©gration
ĠnÃ©goci Ã©e
ĠrÃ©g Ã©n
Ġprom ets
Ġreconn aisse
ĠspÃ©ci alisÃ©
Ġsuiv is
ing s
ĠrÃ©c urr
Ġcan al
ĠW ynn
Ġimpli cite
ĠrÃ©un issent
Ġconstru its
Ġdiri gent
aff lux
ĠTur cs
Ġport ail
Ġpoursui vons
inf ection
Ġ10 3
dis ent
Ã©le ctr
Ġpol len
ĠprÃ©cÃ©d ant
Ġbou d
ess ay
ĠgÃ© ants
ĠMar g
Ġappro xim
Ġpor tÃ©es
ĠdÃ©li vrer
Ġcoordin ateur
ĠdÃ©pend ante
enf er
Ġidenti tÃ©s
ĠAl muni
ĠCe pendant
Ġdistin ctes
Ġconven ons
ĠÃ©cou lÃ©es
ĠrÃ©par tir
Ġcontinent ale
ĠcaractÃ©r isent
ĠÃ©quilib rÃ©es
Ġ198 4
Ġ198 6
Ġnum Ã©ros
ulg ation
Ġaband onnÃ©e
Ġtransform Ã©s
Ġpat rons
Ġremplac Ã©s
Ġcoord onnÃ©
ĠÃ©quipe ment
ĠcÃ© dÃ©
Ġsouci eux
Ġbrut alitÃ©
Ġinnov ante
Ġoccup ation
Ġrequ Ãªtes
ĠCan aries
Ġinstall Ã©s
Ġsyndic at
ĠBos ton
ĠimpÃ©ra tifs
Ã©tudi e
ĠlÃ©gitime ment
arc ÃŃa
Ġinterinstitu tionnelle
ĠfrÃ©qu ences
Con tin
Ġtrom pÃ©
Ġmange ons
Ġenv oient
Ġenthousias te
OC M
Ġramen Ã©
Ġremet tent
Ġtromp ent
Ġplur aliste
Ġoctroy Ã©s
ĠLi fe
Ġinscrit es
Ġaffect ant
esc ence
anou kov
ĠrÃ©tic ents
Ġpluriann uels
Ġconsister a
Ġcuri ositÃ©
Ġenle ver
Ġcommand Ã©
Ġmunicip ales
ĠamÃ©liore ra
ĠKo we
Ġplais anter
ĠHaut ala
Ġnoci fs
AI EA
Ġvaisse au
Ġrab ais
ĠEuro just
ĠsÃ©du is
Ġdouz aine
ĠBur undi
parti te
ffe ctivement
ĠdÃ©vast ateur
ĠintrinsÃ¨que ment
ĠProg ramme
ĠDal aÃ¯
emball age
Ġmut ations
ĠEsp agn
ĠCamer on
ĠTw itter
ĠCert ains
ĠFace book
applaud is
Ġchrom os
ofs t
ĠcÃ©li bat
Ġster ling
Ġpertine mment
ĠAlmuni a
anoukov itch
C onc
G lob
L ui
R B
S ont
T a
V ingt
b rale
s ky
t endent
w ley
Ġd ort
Ġl isant
en land
en lÃ¨vement
Ġc ant
ou f
Ġde l
qu ante
an ier
ai da
in se
un ies
un do
te ction
ar mer
ar rogance
or n
Ġr ange
Ġf onci
ci ence
ri ce
Ġb oit
ra teur
ĠrÃ© utilisation
ĠrÃ© installation
Ġin imagin
Ġre lÃ¨vement
ag u
ĠC oupe
ens tein
ro gÃ©
ers son
ui ons
Ġdev rez
Ġcons omme
Ġcomp tait
Ġpa quets
aut oc
Ġprop h
Ġpays ages
ĠÃ©t atiques
ĠS olid
Ġimport ent
Ġam Ã©n
ĠA ut
Ġad versaire
ĠT ex
ĠT rÃ¨s
ĠR oc
acc ou
Ġcro issants
ĠG arcÃŃa
ĠF ront
Ġpri mi
ĠÃ©v alue
Ġag ressions
ĠE U
Ġmal nutri
ass ades
Ġpropos ait
ĠJ an
ĠK i
oris ation
Ġinstitu ant
Ġsub sides
Ġcour amment
Ġpublic itaires
ĠV ol
Ġcel l
Ġform Ã©e
inter dÃ©pendance
Ġsuff irait
Ġabs ents
Ġsoulign Ã©e
ĠsÃ© cession
ĠdÃ©ci da
Ġvoy agent
Ġlim itr
Ġcan cÃ©
Ġchar itÃ©
ĠÃ©trang es
tis te
Ġvois ine
Ġtrouv ant
Ġint ensitÃ©
ĠGr osse
Ġrencont rÃ©e
accep tons
ss ent
Ġcontra ction
Ġmor aux
Ġrac iste
Ġcircul ent
hab ite
ĠamÃ©lior Ã©s
Ġcircons criptions
Ou zbÃ©kistan
Ġang lo
Ġconven tionnelle
Ġcorrespond ance
ĠrÃ©par tis
Ġplac ent
ĠsÃ©par Ã©es
Ġmaxim al
Ġhistorique ment
Ġvenu es
Ġremplac Ã©e
imm enses
rich et
Ġrob uste
Ġsent ais
Ġpou ce
Ġpou lets
Ġadress Ã©s
Ġurb ains
Ġdiz aine
Ġprogress ent
Ġtox ique
ĠrÃ©mun Ã©rations
ĠmÃ¨ tre
Ġasse mbl
Ġinvent er
ly wood
ĠÃ©tique tte
Ġarme ments
Ġoctroy Ã©es
Ġaffi chÃ©
Ġattach Ã©s
rig ht
Ġfar ce
Ġeffor Ã§ons
ĠimpÃ©ri aliste
Ġmesur Ã©e
ĠpÃ©d opor
Ġpira terie
Ġminuti eusement
Ġoeu vres
Ġtrah ison
ĠrÃ©vol te
Ġcontempor aine
ĠTrans n
Ã©vÃ© nement
Ġinsul te
ĠCanc un
ĠonÃ© reux
Ġtrip le
Ġillim itÃ©e
ĠarmÃ© ni
ĠMi gu
Ġsecr Ã¨te
reprÃ©sent ant
ĠÃ©pidÃ© mies
zi o
ĠRÃ¼ big
Ġinterlocu teurs
ĠingÃ©ni eur
Ã©lectri que
onau tique
ĠBoli vie
Ġpru demment
Ġox y
Ġmobili Ã¨res
ĠNicarag ua
hosti litÃ©
Ġmalnutri tion
Ġlimitr oph
1 8
R app
d ote
k op
m onde
p an
s eu
w s
x on
Ġ ut
Ġ ombre
re b
Ġa mer
in age
ar Ã©
ar chite
or ch
Ġr onde
ous se
il ise
il lusions
Ġen di
me d
Ġau gure
ĠdÃ© ris
Ġj oi
ĠrÃ© Ã©valuation
ch ron
Ġg er
Ġcon gÃ©s
ag a
ab y
ĠP en
ni k
ni ti
ĠM onnet
Ġsi d
Ġh ur
ue z
Ġli on
oc y
Ġtra cer
Ġtra Ã®ner
iss Ã©
ond ur
ĠÃ©t atique
ĠB oud
Ġinter actions
ct ro
ang Ã©es
ĠT aj
ĠT richet
Ġmarch ait
ĠcrÃ© ature
ĠcrÃ© atif
ĠF Ã©
ĠF SE
ĠL y
Ġcas que
Ġab er
Ġrel ais
rib e
ĠgÃ©n Ã©riques
ĠD anie
Ã©di tion
Ġconstitu tions
Ġgar age
ĠdÃ©f ensive
Ġvis Ã©es
oli ve
Ġdur ent
Ġprote ctions
Ġcour tes
Ġcour ts
Ġ20 30
Ġmi gn
Ġpublic itÃ©s
ĠreprÃ©sent ative
Ġarri vait
Ġnot oire
Ġrem Ã¨des
Ġfonction nait
att raction
import ante
Ġple ure
lo ge
Ġir onique
ĠTur km
ĠrÃ©glement Ã©
Ġreven ons
In utile
ĠdÃ©termin ent
Ġrou ler
Ġ8 2
ĠFr Ã¨res
Ġabord able
nov ations
Ġformul Ã©s
ĠprÃ©par ations
Ġexac tes
Ġchance liÃ¨re
Ġcondam nations
Ġache ver
Ġtemp Ãªtes
ĠÃ¢ gÃ©e
Ġmus cles
Ġfabri que
ĠrÃ©fugi Ã©
Ġdistin cte
Ġcompli cations
ĠÃ©lab ore
Ã©ro sion
Ġsinc Ã©ritÃ©
Ġcompens atoires
tt om
Ġcomprend ront
ĠcomplÃ©ment aritÃ©
Ġreti rÃ©e
Ġsatisfais ants
Ġbel ges
Ġsin o
Ġfau tes
Ġliqui des
Ġressor ti
Ġsurvi vants
Ġcop ine
Ġexpl osÃ©
ĠÃ©tonn ante
Ġhy per
ĠdÃ©fav orable
ĠAr gentine
ÃĬ tre
Ġmol Ã©c
Ġvot ent
ophob ie
ĠÃ©quip Ã©s
Ġcraign ons
Chac une
Ġray onnement
Ġreprodu isent
Ġattra pÃ©
ĠfÃ©min in
Ġimparti ale
Ġambigu Ã«
Ġattach Ã©e
Ġcho quant
ĠVerh ofst
estim Ã©
fond Ã©
EC HO
Ġlog o
Ġillustre r
Ġquar ts
Ġintitu lÃ©e
dÃ©mocra te
Ġeffray ant
ĠdiffÃ©renci ation
Ġtransmet trai
Ġabsor ber
ĠÃ©criv ains
ĠdÃ©pourv u
Ġaccent u
Ġdil ig
enrich ir
Ġemmen Ã©
ĠMed ina
Ġobti endrons
enseign er
Ġsubstitu er
ĠunilatÃ©r ales
ĠLul a
ĠprÃ©matur Ã©e
Ġcircu its
Ġparticul aritÃ©s
ĠdÃ©char ges
Ġsuspici on
Ġesclav es
Ġstop per
Ġinfecti euses
exh orte
ĠRand zio
Hol ocauste
ĠJose ph
Ã©cosyst Ã¨me
ĠgÃ©om Ã©t
ĠVerhofst adt
C o
F OR
K ong
P e
R I
S h
S IDA
l vi
t rÃ©s
w Ã©
z oph
Ã© lar
on ales
Ġp ompe
Ġc yn
ti endrons
Ġs omm
Ġs onner
Ġa iles
er g
is olation
Ġn ouer
Ġn obles
ar o
or ig
Ġt ar
ĠÃ© ro
ne c
ĠdÃ© cevoir
Ġpar king
tÃ© roÃ¯
Ġj oins
ĠrÃ© agit
ĠrÃ© duira
Ġin cul
Ġpl onge
ĠC ox
Ġsur venir
ab orde
Ġse gment
di eux
ĠP eut
Ġdi esel
ac tives
Ã©s us
ati ser
ul Ã©es
Ġdev iner
tr aient
ouve ment
Ġan alogue
oc al
ad dition
Ġapp laudissements
con tin
Ġpu zz
oy e
Ġper cÃ©e
Ġper dez
ĠdÃ©c Ã©dÃ©
Ġmar quÃ©es
ĠB ay
ĠS W
ist rie
Ġal our
Ġins istant
par ce
par lement
Ġcommun ique
lu ie
ĠcrÃ© atives
ĠcrÃ© ateur
Ġrec ouvre
ĠG ui
ĠG ordon
Ġprin ce
ĠL ama
Ã¨g lement
ĠN ass
Ġca chÃ©s
im mis
Ġaff am
em mes
ĠdÃ©f ectu
tionne ments
Ġpass ation
ĠH an
Ġvoi le
Ġvers Ã©es
Ġcri cket
Ġcour bes
ĠprÃ©c aritÃ©
Ġrecher chent
Ġarri vÃ©es
Ġform alitÃ©s
Ġaccep tant
Ġ5 3
ĠgÃ©nÃ©r alisÃ©es
ĠvÃ©r itÃ©s
Ġsoulign ons
Ġaugment erait
ĠW oo
Ġmodi fiant
Ġpi eux
Ġdiri gÃ©es
Ġforme lles
Ġconcurr encer
Ġconcurr entielle
Ġreven ue
Ġchi ite
Ġint enses
ĠLe inen
ĠÃ©tudi ent
Ġexc user
Ġ9 3
Ġaider ont
Ġinv ali
Ġprov oc
Ġdispos ait
Ġvisi onnaire
Ġdispar itÃ©
Ġreje tÃ©es
chi zoph
ĠpÃ©n aliser
Ġdiscrimin atoires
Ġnour ris
Ġconfir mÃ©e
Ġache vÃ©e
Ġtemp ore
Ġtran che
Ġrenouve lÃ©
ĠarrÃª te
Ġsimpli fiÃ©
Ġarriver ons
Ġfrapp ent
Ġcompli citÃ©
ĠÃ©cou lÃ©s
ĠÃ©m otion
Ġservir ait
Ġtradu its
exc lu
Ġrestri ctive
ĠBer n
Ġexclu es
Ġuni fiÃ©
Ġpay e
Ã©ti t
Ġul tÃ©rieur
ĠtÃ©moi gnÃ©
Ġsin gu
Ġpou les
Ġfas cisme
Ġillus oire
Ġillus trent
appar ence
ĠexÃ©cu ter
Ġquin quenn
ĠdÃ©tru ites
ĠdÃ©tru isent
Ġsouhai tions
Ġpassion nant
Ġenregist rÃ©es
Ġbless ure
Ġaimer ais
Ġchaleure ux
ĠcÃ©lÃ¨ bres
rÃ©g ation
Ġaggra vÃ©e
Ġabsten ue
Ġcre ve
ĠKh amenei
ey nÃ©si
Ġajus tement
ĠÃ©labor Ã©es
Ġpun ition
ĠexpÃ©riment ations
IN I
Ġplai dÃ©
Ġindemn isation
Ġalarm ant
Ġlobb ies
ĠgÃª ne
ĠdÃ©cour age
ĠÃ©vÃ¨ nement
Pl ath
Ġajout ant
Ġfact ures
ĠpÃ©d ago
Ġmous tiqu
Ġinvers er
ĠpÃªcher ies
Ġescomp tÃ©s
Ġnaz is
ĠDel hi
Ġsyri en
exÃ©cu tif
Ġdialo guer
Ġcodi fication
Ġcoll ision
Ġpomp iers
xi Ã©tÃ©
ĠrÃ©Ã©quilib rage
insur rection
affaib lissement
communaut aires
Ġturbul ences
automob ile
impÃ©ri alisme
personne l
Ġparap luie
affec ter
Exc usez
Ġnauf rage
Ġbic ycle
Ġboud dh
ĠGrosse tÃªte
Ġcyn isme
2 2
A vons
G u
V enez
c issement
f es
m uss
n ar
p oint
s ant
u p
u zz
Ġ &
Ġ Quelle
Ã© miques
on Ã§ant
Ġp in
Ġc oc
ou tre
ti mes
Ġs chizoph
Ġt om
Ġen contre
op oulou
ĠdÃ© tra
Ġpar cs
Ġpar aissait
ĠrÃ© b
ĠrÃ© introduire
os ni
ĠC ap
Ġse cour
ĠP it
ĠM en
Ġil lÃ©gi
Ġav ois
Ã©r ur
ul ant
ul sions
pe dia
Ġcomm ise
Ġcons omment
Ġh eb
Ġrapp ortÃ©
Ġgr as
Ġprop age
ins ol
Ã©n istan
ĠB rit
eil le
ex cl
ĠdÃ©p ort
Ġinter agir
Ġinter viennent
Ġinter roger
ĠA insi
fin ancement
Ã©c ologie
min eux
Ġtrans forment
rais onn
Ġti rÃ©s
Ġrec ense
dÃ© p
vre z
ĠL ann
ĠL yn
ĠD eng
anti ni
ass oure
Ġdemand Ã©s
Ġsouti endrai
Ġgar diens
Ġsimp liste
ĠJ im
ĠK at
Ġvis uelle
Ġvers Ã©s
Ġbon us
Ġfi ction
ĠV igo
anc a
Ã©conom iser
moi res
Ġoff erts
Ġabs ente
ĠcontrÃ´le urs
ill Ã©es
Ġret ours
Ġconstru isent
Ġir ont
Ġsus pect
Ġfran che
Ġuti lement
Ġdiscu tÃ©e
Ġtransp osÃ©
Ġtransp ortÃ©s
ĠlibÃ©r alisme
Ġappar ente
ĠmÃ©c onn
Ġtransf Ã©rÃ©
Ġinv olont
Ġobser vÃ©es
Ġven geance
Ġfu meurs
Ġunivers elles
Ġconser vÃ©
Ġparven ues
Ġcondu its
Ġmus cle
Ġdeven ait
Ġtotal itaires
Ġtotal itarisme
Ġpollu antes
Ġcorrespond antes
Ġperd urer
ĠsÃ©par atis
ĠdÃ©rou lÃ©es
ĠÃ©mer gÃ©
ĠÃ©mer gent
ĠRom ney
Ġexploit ent
Ġalli ances
Ġtravaille z
200 7
ĠÃ©li re
Ġinstitution n
Ġreti rÃ©s
Ġbar rage
Re g
ĠdÃ©plac Ã©
Ġemprun tÃ©
ĠÃ©valu Ã©s
Ġblo quÃ©e
ĠCar diff
Ġconjoin tes
ĠintÃ©gr ant
Ġconsta tÃ©es
Ġdra con
Ġcib lÃ©
ĠempÃª chant
ĠfÃ©dÃ©r alisme
ĠdÃ©fav or
ĠrÃ©gul ateur
Ġmorte ls
Ġrigou reusement
Aut ant
ĠdÃ©passe ment
Ġdommage able
Ġmanquer a
arra che
ars ovie
Ġcommet tent
Ġinjusti ce
Ġinjusti fiÃ©es
Ġenregistre ment
Ġsuici des
log es
europÃ© enne
Ġexhaus tif
Ã©lo ge
Dem ande
ĠpÃ©d oph
ĠLam assoure
Ġpira tes
Ġsomb rer
ĠdÃ©pourv ue
Ġrisquer ait
Ġinsur gÃ©s
Ġtransnation aux
Ġdil u
Ġexag Ã©rÃ©
ĠsÃ©cher esses
Ġhypoc risie
Ġescomp tÃ©
Ġcanc Ã©ri
Ġresser rement
Der nier
Ġinappropri Ã©
Ġregroup er
Ġsecr Ã¨tes
ĠprÃ©limin aires
ĠsymÃ©t rie
ĠÃ©nonc Ã©s
Ġintime ment
ĠGro enland
Ġtyran nie
Ġavan Ã§ons
Ġloisir s
Ġpertur ber
Ġnuis ances
Ġaffronte ments
Ġtechni ciens
Ġpoussi Ã¨re
affich age
ĠRas muss
ĠWilli am
Ġexis tenti
ĠTex as
ĠTransn istrie
Ġsid Ã©rur
ĠTurkm Ã©nistan
Ġheb domad
ĠLann oye
ĠRasmuss en
) :
8 0
D Ã©ch
F aute
R ouge
S I
S T
] .
i tions
k land
n ouve
o eu
p oids
v Ã©r
w w
x ford
Å Ł
Ã© puis
Ġl ents
en ch
Ġc oiff
Ġs que
re lle
Ġa qu
er aient
an Ã©e
Ġn oires
in cident
or gue
Ġr anger
Ġr amp
Ġt rÃ©sor
ĠdÃ© pe
Ġpar ach
Ġb av
ĠrÃ© tention
ĠrÃ© Ã©lection
ch ir
Ġg uit
Ġg ouff
Ġpl aint
Ġpl aques
pp i
Ġch Ã¢
Ġch asser
ĠP y
ĠP ir
Ġex ten
pe aux
av enture
Ġcomp tÃ©
Ġsou lÃ¨vement
aut os
Ã©n dez
Ġpu b
ĠÃ©t end
ĠB R
ĠB BC
ĠS R
ĠS av
ex amine
ĠrÃ©s istÃ©
ĠA s
ĠA ung
Ġsa pe
Ġdem andi
Ã©c ue
Ġar genti
Ġcr Ã¢
ĠdÃ©b it
ĠR app
Ġ" ,
ĠG ar
Ġconf ection
jecti f
Ġass umÃ©
Ġconstitu tionnels
ĠI T
ali Ã©n
Ġavoir s
ĠK han
ĠH en
ĠH all
els on
Ġplan e
Ġph are
Ġbi don
ĠrÃ©g lÃ©s
Ġpublic ations
ĠV arsovie
ĠprÃ©c urs
Ġrecher chons
ĠspÃ©ci aliste
inter viens
Ġsuff ire
Ġviol on
all ong
are t
are mment
amin es
Ġimm or
Ġencour agÃ©es
Ġten ez
Ġloc alisation
Ġall ouer
ĠreÃ§ us
ĠlibÃ©r alisÃ©
Ġexc itant
Ġinst ables
cev ons
oni ens
Ġconcent rant
Ġexprim ons
ĠprÃ©senter ons
Ġanal y
resse urs
Ġtax er
ĠthÃ© matiques
ris ti
Ġvit alitÃ©
amb ule
Ġeffectu e
off ici
Ġbal les
Ġplac Ã©es
Ġtradu ctions
Ġrecons titu
ĠcomprÃ©h ensibles
Ġuni form
Ġul tÃ©rieures
Ġaccr us
ork ov
Ġbar il
Ġhor aire
Ġsaur ais
ĠsÃ©v it
Ġcriti quÃ©e
ĠCro wley
Ġbloc us
Ġprati quÃ©e
idÃ© o
Ġressenti ment
ĠdÃ©tour nÃ©
Ġtre mp
Ġignor Ã©e
Ġhy dr
Ġaime z
Ġtari fication
Ġrepos ait
Ġinn ombrables
Ġenthousias tes
ette z
Ġexplo itÃ©s
Ġinforme lles
Ġmusulman es
respons abilitÃ©
ĠÃ©man e
ĠspÃ©cul ations
Ġartifici el
Ġartifici ellement
Ġchauff eur
Ġchauff eurs
ĠfÃ©min ines
rid ge
Ġcos tume
ĠxÃ©nophob es
Ġmargin alisation
Ġattach ons
Ġhosti les
ĠMor illon
Ġrigi des
Ġdiffus Ã©
harmon ie
Ġdor mi
Ġnat ale
ĠperpÃ©t rÃ©es
ĠMcC art
ĠcÃ´ti Ã¨re
Ġmigrat oire
ĠÃ©merge ants
Ġsauveg ard
Ġsuccessi ves
ĠSer vice
Ġviole mment
Ġbouc lier
ĠÃ©chantil lons
199 9
ĠtÃ©moign age
Ġpromen ade
hist oires
Ġjun gle
Ġgrad uelle
ĠHow itt
ĠÃ©mette urs
Ġimmeu bles
Ġhect ares
ĠdÃ©bi teurs
ĠGÃ©n Ã©ral
Ġincontourn able
Ġcontrecar rer
ĠBow is
agas car
Ġcend res
Ã©volu er
Ã©nÃ©zu Ã©li
ĠTob in
Ġeuroscep tiques
ĠcommerÃ§ ants
Ġcotis ations
ĠKowe Ã¯
Ġpuzz le
7 0
9 0
E ffectivement
L aissons
M ani
P olitique
R en
V I
b ert
d og
g ar
h us
i Ã©
i onnage
l oc
m ers
t ter
t rÃ©e
Ġp unis
an niversaire
Ġm out
Ġm agn
Ġn Åĵ
Ġla ve
ar n
Ġv ase
Ġv esti
Ġv Ã©cue
ous s
Ġdes se
Ġun it
as pects
op pe
Ġpour voir
Ġj arg
Ġg am
Ġpl ats
Ġpro vidence
Ġpro hib
ĠC PI
ens ui
ĠP lus
ter ck
Ġex on
Ġex agÃ©
Ã©r aires
app rÃ©h
tr ans
Ġmon ument
Ġli tige
lÃ¨ rent
onne l
ins pirer
cu lement
oy le
Ġfin aux
Ġfin aliser
ap est
Ġques teurs
Ġmar oc
Ġpers istant
Ġimport er
Ġaut obus
ler ais
ler ait
ĠdÃ©p ou
Ġpos ez
isi tions
Ġman quait
Ġtravail listes
Ġad hÃ¨re
Ġar d
ĠT PI
ĠT atoeba
Ġcr is
ĠdÃ©b arr
tin a
Ġfa une
Ġcontre b
ĠcrÃ© atifs
acc ises
Ġprodu ctives
ĠG arri
cher ie
ner gie
ĠprÃ©sent ons
Ġcol ons
ĠgÃ©n it
ĠN ature
Ġdom ine
Ġfr om
Ġmin eur
ĠE d
der a
Ġmal s
ĠÃ©c li
Ġconstitu aient
ĠdÃ©f aire
Ġexemp tions
mis phÃ¨re
exp orter
exp rim
ĠK allas
ĠK GB
ĠK iev
Ġva peur
Ġappr entissage
Ġjou ait
Ġpres cription
ĠrÃ©alis ables
Ġbase ball
Ġcrois Ã©s
rÃªt ons
att ribuer
Ġtu y
Ġdonner ont
Ġtot ales
ĠrÃ©c it
Ġref er
Ġiniti Ã©
ĠW h
Ġface ttes
Ġfai blement
Ġ6 3
Ġloc alement
Ġ7 3
ĠdÃ©termin ants
Ġouv rage
ĠLe w
ĠÃ©p reuves
Ġdiscu tions
Ġaccomp agne
Ġopp osent
hi op
Ġrend it
Ġcontra cter
Ġapporter ont
lac er
od orkov
Ġatta cher
ub er
Ġpren aient
Ġnour ri
Ġfig urait
Ġtran cher
ĠprÃ©ser vant
ĠrÃ©flÃ©ch issez
Ġsyn chron
Ch ez
ĠÃ©vent ualitÃ©
Ġang les
cadre ment
ĠmatÃ©ri elle
Ġ198 2
ĠsupÃ©ri oritÃ©
Ġfacil itation
ĠRom puy
Ġami tiÃ©
Ġpat ernitÃ©
Ã©tr ang
Ġmari Ã©s
ĠRe garde
uni form
Ġtend ue
Ġcens Ã©es
asser ie
Ġaccueil lie
Ġpou dre
Ġillus trÃ©
Bon jour
Ġfall oir
Ġrestru cturer
Ġgui dÃ©
Ġbil ans
ĠintÃ©gr alitÃ©
Ġobligatoire ment
Ġhabitu Ã©
Ġhabitu els
ĠTh at
Ġoptim al
Ġattribu tions
arc tique
ĠfrÃ©qu ents
Ġriv aliser
Ġmange z
Eur ostat
ĠMad agascar
Ġfati guÃ©e
Ġsurven ue
ĠrÃ©form Ã©
Ġoctroy Ã©
effectu e
enregistre r
ĠhÃ©s itation
Ġrespectu euses
Ġpoursuiv rons
Ġproje ctions
estim ation
ĠSte vens
ĠrÃ©tic ences
Ġhosti litÃ©s
Ġirrespons ables
ĠsÃ©qu ences
Ġinterromp re
Ġsaisi es
Ġinconn ue
hom osex
hom ophobie
Ġatom es
ĠdÃ©stab ilisation
Ġbiotechnolo gies
habil lement
Ġtransnation ale
Ġore ille
ĠLeh man
Ġboulevers ements
Ġobsc ur
ĠlÃ¨ vres
ĠrÃ©public ain
Ġve cteur
ĠsoupÃ§ onne
ĠunilatÃ©r al
Ġdialo gues
Ġaccompagn Ã©s
Ġabatt us
Ġscrupule usement
Ġappauv ri
Euro just
Ġcontag ion
ĠAlb anais
Ġdysfonc tionnements
Ġpessi misme
Ġboy cott
Ġvoc ab
Voud riez
ĠVir gin
Ġcamar ades
Fran chement
milli on
indic ateurs
ĠdÃ©vastat rices
Ġconfig uration
ĠBroth ers
Ġradiodiff usion
Ġquan tique
ĠRapp orteur
ĠnÅĵ ud
terck x
1 1
A M
B r
G e
G ar
I P
L ib
S ui
c Ã¨rent
h Ã©li
h orre
h umeur
h Ã©gÃ©monie
o rez
p osition
v olution
x e
Ã £
Ġ osÃ©
Ã© tions
Ġp is
Ġp uni
Ġc av
Ġc age
Ġc aisse
ti vent
Ġa nec
an ni
ur ies
Ġt rÃ©s
Ġf Åĵ
Ġen richi
as un
as sim
Ġau trui
ĠdÃ© raisonn
ci ons
ri tique
ĠrÃ© novation
os ait
Ġre de
at ts
at tÃ©nu
ĠC a
ĠC ab
ĠC et
Ġtr Ãª
ro quer
Ġpo itr
ĠM ouvement
Ġsu l
el la
Ġh ale
Ġh Ã©ri
Ġimp rud
Ġtra duira
ĠÃī gyptiens
Ġmar quÃ©s
ĠS Ã©
ĠS ou
ĠS and
ĠS Ã©nÃ©gal
ĠS terckx
ail s
ĠprÃ©s omp
Ġfor ti
ĠR oss
ob ar
Ã» te
ĠdÃ©m ographie
gu ay
Ġprodu isant
Ġvo le
Ġvoud riez
ĠF AO
ĠL ud
ĠL anc
Ġfinan cent
Ġor bite
Ġcol onne
Ġconf us
ĠD is
ĠE m
im ages
Ã©di a
ĠCh en
Ġdemand aient
ĠJ Ã©sus
Ġcontin gents
cul aires
ĠH y
ĠH aug
ĠH ondur
st one
Ġjou ons
Ġsupp lÃ©
Ġsupp orte
Ġbi Ã©lor
ĠnÃ©goci e
Ġfi ch
ĠdÃ©clar ait
Ġprom ul
Ġprom ise
ĠprÃ©c aires
Ġfonction nant
Ġdou cement
Ġcontribu teurs
tis h
Ġconnaiss ais
ĠmÃ© moires
Ġtent Ã©s
Ġver rait
Ġver rou
Ġrev ienne
Ġ7 2
Ġouv rent
ĠÃ©p ing
Ġ8 6
Ġfra cture
Ġdiscu tÃ©s
Ġdiscu table
Ã©p au
Ġhab ite
Ġsolid aires
Ġaider ait
arri vent
Ġveil lÃ©
Ġveil lant
Ġdispos era
Ġformul ations
Ġconfront er
Ġprot h
Ġenvis agÃ©s
Ġhist oriens
Ġlaiss Ã©es
Ġconvainc ant
Ġprend rai
Ġconsac rent
Ġidenti fiÃ©es
Ġmag istra
Ġinten able
Ġcompli que
ĠdÃ©n ouement
hum our
Ġneu fs
Ġemb oute
ĠÃ©quilib rer
Ġperd ront
Ġorgan ise
ĠrÃ©vÃ© lÃ©s
ĠprÃ©t endue
Ġdiminu ent
200 8
ĠÃ©lectr om
Ġconsoli dÃ©
Ġsubs ister
Ġlab eur
he id
Ġaccueil lons
Pr op
Ġexcell ence
ĠdÃ©pass Ã©e
Ġinterven ue
Ġment al
Ġinstall ation
Ġobje ctivement
ĠperÃ§ oit
Ġpal ais
Ġhy bri
Ġapprouver a
Ġasse oir
Ġcab otage
Ġsupprim ant
Ġ196 8
arriver a
Ġsacri fice
Ġcontrovers Ã©es
intÃ©gr alitÃ©
Ġlou ables
Ġlou anges
ĠSol bes
ĠlÃ©giti mer
ĠSa ou
Ġinnoc entes
ĠdÃ©ploi e
Ġfar ine
Ġaccum ulÃ©
Ġassassin Ã©s
ĠMon Ã©taire
Ġvirtu elle
Ġbarb are
Ġplong er
Ġincorp orer
ĠconsidÃ©r aient
Ġquantit atif
Ġminor itaire
ĠPD J
Ġmanipul ations
Ġinhab ituelle
ĠrelÃ¢ cher
Ġcoul oir
expl oration
Ġso ja
exÃ©cu ter
Ġattray ante
Ġsangu ins
ij ing
ĠWiki pedia
adress ent
Ġbrou illard
pli cation
Ġmilitar isation
Ãīt hiopie
Ġaustra li
ĠmÃ©tÃ© or
Emp ire
RÃ©s ul
ĠpaneuropÃ© en
Ġvaud rait
Ġaccess oires
Ġsurpren ante
ĠBlo kland
Ġpsychi atri
Ġprover be
Glob alement
ĠRoc ard
Ġlimitroph es
ĠdÃ©tra cteurs
Ġjarg on
ĠHondur as
F A
R apport
T e
V iens
V idÃ©o
g ation
g ations
h Ã©e
l antes
p oli
r ure
Ã ²
Ġ osc
Ġd resse
Ġl ie
on al
Ġc aisses
ai mait
in titu
ar abe
Ġf irent
Ġpar as
Ġj a
Ġj ach
Ġj oint
Ġb Åĵuf
ra teurs
ĠrÃ© organiser
Ġpas sez
ch ill
os ph
os phÃ¨re
ag en
ag one
ĠC N
ĠC oca
rÃ© n
ĠP uis
Ġdi ag
tu elle
ĠM Ãªme
Ġsi Ã©g
Ġcons istent
Ġo h
ĠprÃ© ambule
Ġimp osition
Ġgr ain
Ġgr Ã¨ves
Ġparti tion
ad ul
Ġapp laud
du mping
ĠÃ©t al
Ġvi fs
Ġfin ales
ĠS in
ĠS ans
Ġvou Ã©e
Ġinter parlement
ot amment
ĠprÃ©s ume
ang ent
ĠT ous
Ġcr uelle
ĠrÃ©p rimer
cip ation
Ã® mes
itu ation
Ġren aissance
Ġrec apit
Ġpri ve
ĠN elson
ĠD ou
ĠE gypte
Ġca chent
Ġpe urs
ass Ã©es
ass oni
Ġlib Ã¨re
Ġpropos era
ĠI anoukovitch
Ġatt ribue
Ġcontin gent
ĠK ing
ĠH aw
og er
Ġfonc tionnel
Ġindi ce
Ġeng rais
anc Ã©es
Ġprom ouvant
ĠreprÃ©sent Ã©es
Ġarri vant
ress Ã©
ĠO ly
inter view
ĠgÃ©nÃ©r alisÃ©
Ġviol Ã©s
arti ste
ordin ateurs
Ġtour nÃ©s
ru guay
Ġconte xtes
Ġ7 4
ĠdÃ©termin Ã©es
Ġessay a
amÃ©li orations
ĠÃ©p izoo
Ġsau te
ĠFr assoni
Ġhab itent
Ġopp rim
Ġrend ait
Ġmer de
Ġprot otype
uis enberg
Ġcentr alisation
Ġconseil le
Ġconseil la
Ġveiller ons
aisse ment
tern itÃ©
Ġk eynÃ©si
Ġcondition nÃ©
ĠSu Ã©d
Ġbat teries
Ġenvoy ons
Ġsouv ient
Ġprovo quÃ©es
Ġdistin ct
Ġmai gres
Ġcompli ment
Ġservir ont
Ġral lie
ĠvÃ©ri fiÃ©
Ġlimiter ai
appliquer a
Ġmutu els
Ġamen Ã©e
ĠdÃ©v ouement
Ġsac rÃ©e
Ġsubs aharienne
Ġpes sim
Ġmarchand ise
ĠrÃ©di gÃ©s
Ġhandicap s
Ġhor mis
Ġ197 4
ĠprÃ©al ablement
ĠdÃ©plac Ã©s
Ġsent ons
export ations
ĠCol lins
Ġax Ã©es
Ġpost al
Ġstu pides
Ġutilise z
ĠMc M
Ġsouhai tÃ©e
Ġenregist rÃ©e
ĠperÃ§ ues
EL E
ĠprÃ©ven tif
ĠfrÃ©qu ente
App aremment
Ġmorte lle
Ġreb ond
aul t
ĠdÃ©ten u
Ġplate au
Ġcontrovers es
amÃ©ric anisme
ĠKh odorkov
ĠcÃ©lÃ©b rons
Ġerron Ã©es
Ġtrompe uses
Ġrub riques
exig ences
ĠprÃ©cip iter
Ġmou che
Ġcolon isation
ĠrÃ©pÃ©tÃ© es
jac ents
Ġmarquer a
Ġheur te
ĠthÃ©rap eutique
ĠbactÃ©ri e
ĠFlor enz
Ġmous tiques
produ ctif
ĠrÃ©affir me
ĠdÃ©faill ance
ĠindÃ©ni ablement
Ġind iss
Ġhydro carbures
Ġplaign ent
ĠclÃ´ turer
Ġvaisse aux
Ġtourn ure
ĠpÃª ches
Ġdispu te
Ġauda cieux
expl orer
ĠprÃ©le ver
ĠrÃ©public ains
Ġrecour ant
Ġbag ages
ĠtibÃ©t ain
ĠNie lson
ĠimprÃ©visi bles
dÃ©pend amment
Ġcorpore ls
ĠtÃ©n acitÃ©
Ġomni prÃ©s
assoup lissement
effici ence
ĠAz nar
ĠDaph nÃ©
ĠincomplÃ¨ te
Ġcray on
ĠSac coni
Ġdoctor at
Ġinsouten able
ĠPV C
Sec undo
Ġdissu asi
Ġdiox ine
ĠpÃ©dopor nographie
orch estre
insol vabilitÃ©
Ġgouff re
ĠPir ker
ĠKoweÃ¯ t
dog an
Ġfrom age
ĠtrÃª ve
Ġpessim iste
7 5
A K
A sse
E rika
I M
I EC
P enses
S ud
V o
Y ork
b y
b els
c aux
d t
f ort
t our
u itÃ©
Ä ĩ
Ġ ondes
ou les
Ġa cides
ent agone
ur ne
in gues
in dis
ar ab
it atives
si er
si te
Ġv endues
Ġv Ã©nÃ©zuÃ©li
our t
me z
op ter
li a
ĠrÃ© gner
ĠrÃ© Ã©valuer
ĠrÃ© conf
Ġin estim
Ġin Ã©lu
ch ets
Ġg Ã¨rent
ĠC ity
ro vis
ir ons
ir onie
ĠM oh
ĠM Ã©ndez
Je an
mb ourg
Ã©r ais
Ġcomp oser
Ġent rons
Ġimp rimer
Ġan tis
Ġan tÃ©rieurs
ins ul
ts ch
Ġvi ct
Ġvi endrait
ĠB re
ĠB at
ĠB uit
ven ons
ĠS ystÃ¨me
bli ques
Ġpers uasion
ense urs
Ġdiff am
ĠA Ã§
ĠA vec
Ġacc use
ĠrÃ©p li
Ġcar rÃ©s
Ġni d
Ġcontre poids
ĠcrÃ© ations
um Ã©s
Ġren once
Ġrep ortÃ©e
ĠF ar
ĠF ARC
ĠL ie
Ġab ri
ĠÃ©v acu
Ġag ression
ĠD uisenberg
Ġmin uit
Ġdisp ens
Ġop Ã¨re
Ġgar dien
ĠdÃ©f endant
Ġmondi alisÃ©e
ĠnÃ©g ation
Ġexemp tion
Ġconn aÃ®tra
ĠK enne
Ġcoop Ã¨rent
Ġbi og
Ġcour antes
Ġlu eur
Ġcommen Ã§ait
Ġarri va
Ġvol aille
ĠspÃ©ci alisÃ©e
eff e
Ġsuff i
Ġsuff iront
ĠcoÃ» terait
ĠsÃ©ri es
ĠcontrÃ´le ur
Ġgra v
Ġappli quons
Ġbr isÃ©
Ġimpli citement
lo ts
Ġconstru ites
ĠprÃ©cis ant
eng agements
Ġrepr endra
Ġheure uses
Ġ6 8
Ġencour agement
Ġencour agements
Ġtrouv Ã©es
Ġconsci emment
Ġglob alisÃ©
Ġ7 6
ak espe
Ġfavor i
Ġamb assades
atri culation
Ġcommencer a
Ġpartage ant
ĠSch ro
ĠrÃ©ser vÃ©s
ani a
Ġquali fie
Ġjourn Ã©es
Ġlaisser a
Ġcondu isant
Ġk urdes
Ġache teurs
anci er
Ġcompar Ã©e
Ġmatin s
ĠrÃ©flÃ©ch is
oth Ã©rap
Ġcaract Ã¨res
Ġprovo quÃ©s
Ġcompli ces
ĠdÃ©n omination
Ġemb r
Ġorgan iques
Ġcroy aient
enseig ne
ĠvÃ©ri fications
dÃ©m ar
Ġstim ule
Ġvari ole
Ġ17 5
Ġdistribu Ã©s
ow er
affir m
ĠNew ton
Ġabou tissent
Ġsang lante
Ġcourage uses
Ġvingt aine
Ġaccus ent
Ġcalend riers
arr ange
Ġmodern itÃ©
ĠdÃ©pass ant
arrÃªt ent
Ġspect ateurs
ĠCar ol
Ġmerveille uses
ĠintÃ©gr itÃ©
ĠmÃ©n ager
ĠdÃ©bou che
Ġphil anthrop
Ġasi le
Ġcombin Ã©s
Ġap ais
Ġap titudes
Ġgratu its
Ġattribu Ã©e
ĠrÃ©mun Ã©rÃ©
Ġhui tiÃ¨me
ĠpÃ©r enn
Ġsorti ra
ĠdÃ©crit es
Ġmicro bes
Ġclandes tin
ontr ol
Ġinjusti ces
alib an
ĠrevÃª tir
ĠprÃ©cip itation
Ġtap er
ET A
Ab khazie
Ġcess ation
ĠBe ijing
ĠAnd ersson
Ġeffond rÃ©
Ġbaiss es
ĠimpÃ©ri alistes
ĠcroÃ® t
Ġentrain Ã©
Ġmusi cale
Ġhorizont al
Ġrecord s
Ġpira tage
ĠFlor ide
Ġdisproportion nÃ©
Ġcigare tte
IF T
Ġnoci ves
Ġcong estion
ĠHol lande
Ġslog ans
Ġnov atrices
Ġchirur gi
Ġnourr issent
dr oite
ĠPE V
Ġinterrog ations
ĠmÃ©d aille
Ġpard onner
Ġtoxicom anie
Ġembry ons
ĠÃ©ve illÃ©
Ġsonne tte
Ġcircu it
Ġgrad uellement
ĠimprÃ©visi ble
ĠdÃ©fici ences
ĠApp le
erv ateurs
ĠCat al
Ġdenti ste
Ġcoutu mes
Ġclo che
ĠsÃ©min aire
toc ole
ĠÃ©ni Ã¨me
Ġchampign ons
ghi z
Ġvier ge
autorÃ©g ulation
Ġmammif Ã¨res
averti ssement
Ġpaper asserie
Ġchag rin
ĠDanie l
ĠNass auer
ĠWoo ds
Mani f
ĠThat cher
attÃ©nu ation
obar omÃ¨tre
ĠLanc ker
ĠinÃ©lu ct
ĠBuit en
ĠAÃ§ ores
A G
S ois
U A
f al
h aut
i f
l issant
n al
p a
s ans
u jet
Ã Ł
Å Ĥ
en core
en cre
Ġp ique
qu ateur
re y
an iques
an archie
Ġqu ad
Ġn app
Ġn aissent
Ġn oct
in tr
in action
Ġle vÃ©es
Ġf ab
Ã¨ ler
op inions
ĠdÃ© rob
ĠrÃ© it
ĠrÃ© inventer
Ġpas sifs
Ġg rammes
Ġre dÃ©mar
ag issent
ĠC re
ĠC IT
ab ad
Ġse ize
di ez
ĠM id
Ġje tons
Ã©r ances
Ġme c
Ġcomp osi
and in
ĠprÃ© ten
Ġgr aisse
aut h
ad Ã©quation
onc tion
mi er
Ġdis iez
Ġres titution
Ġy ens
ĠÃ©t age
ise ments
ĠdÃ©c or
ique ment
titu re
ĠB Ã©lar
ĠS L
ĠS antÃ©
ves titure
Ġinter action
Ġinter vienne
Ġdiff use
Ġman quons
Ġman oeuvre
ille z
ct ent
ĠprÃ©s upp
ic s
Ġtravail laient
ang oisse
Ġst rat
int Ã¨g
Ġma fia
ĠdÃ©b arrass
Ġmil itairement
ĠR h
itu des
ĠG auche
ĠG rad
lar y
ĠL Ã©
ver b
imp ossible
Ġcol ombien
ĠN ai
Ġconf use
Ġmet tront
Ġaff lu
Ġdemand Ã©es
ali gnement
Ġmainten ues
pÃ© ti
Ġcent rÃ©e
Ġconn aÃ®
exp riment
Ġpass ager
Ã©v ille
Ġcor ail
ĠâĢ Ķ
Ġim iter
Ġ3 000
Ġbi jou
ay a
Ġju gent
Ġarri vez
orter esse
Ġsal on
Ġvoy aient
ĠdÃ©cisi ves
Ġpi Ã©
Ġpi Ã©g
Ġconstru ctifs
fie ld
Ġremp lie
Ġconv o
Ġpoursui vant
Ġessay ait
ĠLa os
Ġmul tim
Ġabord ent
Tu be
Ġmanque ment
Ġpol lin
Ġconcep teurs
Ġinv isibles
ach oppe
Ġbou cle
Ġorient Ã©
ess or
ĠMar sh
Ġanti mis
Ġpor tÃ©s
Ġcondam nant
Ġconser vant
immi grÃ©s
Ġvit ales
ĠAn nÃ©e
Ġk g
Ġ12 5
Ġtemp le
Ġregard a
ĠrÃ©flÃ©ch it
ĠrÃ©flÃ©ch ie
Ġliv rent
Ġemploy Ã©e
Ġparticiper ont
Ġcorrespond ants
Ġcorrespond ante
Ġemb lÃ©
ĠÃ©quilib res
atte ind
Ġvari Ã©tÃ©s
assur ances
ĠÃ©lector at
Ġalli ez
Ġexcep tÃ©
Ġcaus ent
Ġ16 0
ĠrÃ©volution naires
Ġfou lÃ©e
ĠsystÃ© miques
Ġvir ul
anal ys
Ġsatisfais antes
Ġemprun teurs
Ġment aux
Ġsalari ales
Ġbo euf
ĠrÃ©pu bliques
Ġcop ies
Ġstu dio
ĠGe b
Ġprogress istes
Ġexpl oser
Ġcad av
Ġignor ons
Ġignor Ã©s
ĠfÃ©dÃ©r aliste
ĠdÃ©battu es
val ue
Ġaspir ons
Ex amin
ĠaccÃ© lÃ©ration
ĠprivilÃ©gi Ã©s
Ġconne ctÃ©s
Ġriv aux
Ġord onn
ĠJohn son
Ġmicro crÃ©
entra ver
Ġbomb ard
Ã©vent uels
ĠÃ©mo tionnelle
Ġaim ait
Ġgenti lle
Ġchaud s
ĠrÃ©ve illÃ©
ĠboÃ® tes
Ġanticip Ã©e
ĠhÃ©s itÃ©
ĠhÃ©s iter
ĠrÃ©pÃ©tÃ© e
Ġappuy ons
aggra vation
Ġincendi e
Ġressent ons
ĠbÃ©n Ã©diction
Ġimpu issants
Ġannonc Ã©es
Ġtranqu illement
Ġtransmet tent
Ġmunicip alitÃ©s
oun d
Ġempris onnÃ©
Ġblan ches
ĠconcrÃ© tis
ĠMcC ain
Ġparam il
Ġcath oliques
Ġsectorie lle
ĠThe ato
Ġaboli r
Ġgigantes ques
Ġsuperf lue
ĠbÃ©nÃ©v olat
Ġenra cin
Ġcompren ait
ĠtÃ©moign ages
Ġmuti lations
Ġdouz aines
Ġsangu in
ĠdÃ©pendant es
Ġremont ent
Ġintu ition
Ġmexic aine
Ġgrossi Ã¨re
Ġath lÃ¨
accus ation
Ġfui ent
ĠRoy al
Ġvigou reuse
Ġmicros cope
ĠLors que
Ġsach ions
Ã©criv ain
hon orer
Ġner fs
Ġcui vre
ĠlinÃ© aire
ĠcinÃ©mat ographique
ĠBud apest
irrÃ©g ularitÃ©s
ĠMoz amb
Ġrespi rat
ĠsÃ©n ateur
Ġfes tiv
Ġchol Ã©ra
Ġarsen al
Rapp elez
Ġendi guer
ĠTaj ani
ĠSW IFT
Ġcontreb ande
Ġvocab ulaire
Ã£ o
Ġpoitr ine
ĠSuÃ©d ois
Manif estement
Ġfab ule
ĠGrad in
1 4
4 5
D T
D ois
H onorable
M oins
O PE
P AR
S auf
U ti
W eg
f ro
h al
u lle
u ck
w a
Ä ĥ
Ġ oser
Ġ olÃ©
Ġd ors
en a
on a
Ġp end
Ġp iv
Ġp Ã©di
Ġp Ã©chÃ©
Ġs cul
qu atre
Ġa jour
ent rai
er o
le ver
in Ã©s
in je
or ons
Ġr ater
Ġv ents
Ġv alu
il o
il ation
Ġen velop
us chw
âĢ ľ
ĠÃ© laboration
Ġau dit
li c
Ġin dÃ©c
ch on
ch ers
Ġg orge
at tre
at trait
Ġsur charge
rÃ© al
ens pan
di que
di mbourg
ĠP atri
ĠM os
ĠM el
ĠM ill
ĠM Ã¼
Ġex orb
ĠprÃ© diction
fi antes
Ġli mp
Ġser vie
Ġan onyme
oc ontrol
Ġtra duite
mi um
che min
Ã©t han
ins pire
ĠPar k
ĠB ert
ĠS E
ĠS ara
ĠS Ã©ville
Ġinter rogÃ©
Ġpos ait
enti tÃ©
ang Ã©e
Ġad j
Ġad orent
Ġad miration
Ġst alin
Ġar ch
vel t
mps on
je vo
ĠdÃ©m oli
Ġcar g
Ġcontre dire
Ġren ouer
ĠG lob
ĠG onz
ĠF al
ĠF orce
Ġab straction
ĠD oyle
nation ale
ĠE cofin
Ġmont ent
Ġcap turer
ali Ã¨re
ĠdÃ©f er
ĠJ ane
Ġutilis ations
og g
Ġdisc orde
Ġjou g
Ġsupp ortent
Ġress us
Ġcri er
gne z
ĠnÃ©goci Ã©s
ĠrÃ©alis ons
Ġju gÃ©es
ĠprÃ©v alent
Ġnot ations
Ġvol can
ĠrÃ¨glement ations
ĠO uganda
Ġoc tr
ĠmÃ©di ateurs
Ġsui ve
tim itÃ©
Ġri ve
Ġbr ille
Ġvoy agÃ©
ĠrÃ©pond it
nÃ© tiques
all y
Ġimpli quait
ĠrÃ©un ira
Ġconstru isons
Ġappel Ã©es
Ġdiri gÃ©s
Ġdoute use
eng rais
Ġrepr enant
inc itations
Ġremp la
Ġ6 6
ĠprÃª teurs
Ġconv iennent
ĠtÃ©lÃ© char
inf li
Ġexig era
Ġdirige ante
ĠÃ©p ais
ak s
ak sin
Ġdiscu tÃ©es
ĠreÃ§ oive
Ġabord era
Ġrend ront
Ã©le vait
Ġcat alogue
ĠCon f
ĠtÃ¢ cher
Ġconcent rons
Ġorient Ã©es
Ġrester ait
Ġgros s
Ġanti personnel
Ġcolle ctÃ©es
Ġsour i
aÃ¯ re
Ġestim Ã©s
Ġoubli ons
Ġis olement
Ġrati fiÃ©e
Ġautoris ant
Ġpen chÃ©
Ġcourt ois
Ġretard Ã©e
ĠPremi Ã¨re
ĠÃ©m issaire
Ġinvesti t
ĠsÃ©par ent
ĠdÃ©rou lera
Ġlit tor
ĠÃ©li te
Ġnavi guer
Ġpay ent
Ġpay ons
Ġsac s
ĠirrÃ© f
ĠÃ©cl ater
ĠprÃªte ur
ĠfÃ© con
comm ission
Ġbois son
Ġdiss olution
Ġmotiv Ã©e
ĠadÃ©quate ment
appar aÃ®tre
ony mat
aj outent
ĠGaz prom
Ġblo quÃ©s
ĠdÃ©lic ats
Ġsubstanti ellement
Ġcorri gÃ©
Ġacqu it
Ġlanc ent
Ġpersuad Ã©s
Ġengend rent
ĠdÃ©clen chement
Ġentam Ã©es
ajus ter
Ġdure ra
Ġmultipli ent
ĠbrÃ» le
Ġcontrovers Ã©s
car est
acqu itter
Ġridi cul
Ġprovis oires
Ġbulle tin
aggra ve
Ġom is
Ġom et
Ġcho quÃ©
Ġrecru ter
Ġmalheure use
Ġsoumet tra
Ġenglob er
Ġmira cles
Ġeffor cÃ©
Ġeffor cÃ©s
Ġsurc apacitÃ©
Ġcommand ant
ĠsensibilitÃ© s
ĠintÃ©rim aires
Ġrigi ditÃ©
Ġagres sif
Ġmusi ciens
Ġtardi vement
ĠIs lam
ĠDÃ© veloppement
Ġmagaz ines
Ġconstant es
ĠPES D
Ġroman tique
Ã©quilib rer
Ad ministration
Ġloint aine
Ġimmin ent
Ġfat al
Ġassor ti
Ġentreten u
Ġcoul isses
ĠguÃ©r ison
Ġlan Ã§ons
ĠdÃ©nu Ã©e
Ġanalo gues
ĠpersÃ©cu tions
Ġinappropri Ã©e
aliment er
aliment aire
ĠcoopÃ©ra tive
Ġlap id
Ġatteind ra
Ġsupermar chÃ©s
ĠBus quin
ĠAlex ander
Ġvainque urs
Ġvende ur
Ġsupervis er
Ġflamb Ã©e
ĠPrin temps
ĠdÃ©mÃ©n agÃ©
Ġpessi mistes
Ġaustra le
Ġencl ins
Ġimput able
ĠMun ich
Ã©cl ai
ĠKab oul
anticip er
Ġsure x
ĠFried man
Ġdiscer nement
Ã©mi gration
Ġdivid endes
ĠYou Tube
entraÃ® nement
Ġpoub elle
Ġnitra tes
ĠmanÅĵu vres
ĠAsi atiques
ĠSav ary
ĠStevens on
homosex ualitÃ©
ĠfÅĵ tus
Ġhale ine
Ġjach Ã¨re
akespe are
achoppe ment
ĠGeb hardt
ĠMozamb ique
Weg gen
uschw itz
D P
D Ã©b
H aÃ¯ti
I E
M T
U K
g estion
h ar
i co
n app
p ain
Ġd ingue
Ġp Ã©t
Ġp Ã´le
Ġp Ã´les
Ġc Ã¨de
Ġc ock
Ġs pons
re Ã¯n
Ġa ci
er al
an Ã©
Ġe Ã»t
Ġn ie
ur ditÃ©
in verser
ar isme
or y
or ant
it ure
Ġr ond
Ġf onte
Ġpr Ãªtre
il ie
il lÃ©g
est ri
âĢ ¢
li one
au tions
Ġpar is
Ġpar rain
Ġpar laient
ĠrÃ© orientation
Ġin te
Ġin op
Ġin utilis
Ġin timi
Ġpl ages
de x
ĠP entagone
ac Ã©s
el ons
app auv
ul l
and ert
ĠprÃ© lÃ¨vements
onn era
ord s
Ġgr ille
Ġan onymes
onc ert
Ġres piration
Ġpu ce
ap art
Ġmar rant
ĠB ob
ĠB ak
ĠB ER
ĠS tat
ĠS tra
Ġinter rÃ©gi
Ġpos era
gn ait
Ġam oin
Ġins ol
Ã©c rit
ic ains
Ġar demment
Ġar rog
ose velt
emp re
Ġtrans action
Ġcommun Ã©ment
Ġmil es
ĠR es
ĠR ock
ĠR od
Ġcontre bal
Ġvo leur
dÃ© pendant
ĠF ava
ĠL ange
imp orter
imp rimer
imp lantation
Ġcol la
ĠN ag
ĠÃ©v itÃ©s
ĠD j
ĠD TS
jecti fs
ĠE rika
ĠÃ©c our
ĠÃ©c outez
ĠÃ©c outant
Ġpermet tons
Ġaff li
Ġlib rai
Ġ19 0
ĠI z
ili con
ph al
Ġinc in
Ġinc lusion
Ġinstitu t
Ġchange ant
Ġquelque fois
gr oupe
Ġindi gne
Ġindi quÃ©e
[...]
