#version: 0.2 - Trained by `huggingface/tokenizers`
Ġ d
e s
Ã ©
Ġ l
e n
o n
Ġ p
Ġ c
Ġ a
o u
Ġ s
Ġd e
t i
q u
r e
Ġ .
en t
e r
Ġ ,
a n
Ġ @
i s
Ġ e
Ġ m
Ġ n
i n
Ġ qu
i t
Ġl a
u r
l e
u n
ti on
Ġ t
Ġp a
r a
Ġ un
Ġl e
m ent
Ġ Ã
i l
Ġe t
o r
o m
Ġp r
Ġ f
Ġl es
Ġ v
t e
Ġ en
s i
Ġ Ã©
ĠÃ ł
Ġd es
ou s
Ġ r
Ġqu e
ou r
Ã ¨
on s
Ġc e
Ġa u
Ġ j
Ġ es
on t
â Ģ
Ġes t
m e
âĢ Ļ
o p
Ġpa r
t a
Ġc om
u s
c e
an t
v e
Ġ in
Ġ il
i r
Ġ b
an s
l i
Ġp our
Ġd Ã©
qu e
a tion
Ġn ous
Ġun e
Ġm a
i re
t Ã©
c i
n e
r i
Ġr Ã©
Ġd u
t re
Ġf a
Ġj e
Ġ g
Ġd ans
Ġ -
Ġpa s
l a
e u
c h
it Ã©
Ġ re
Ġc on
o s
Ġqu i
m p
Ġpr o
a l
l le
a u
d e
Ġp l
p p
a r
s e
Ġs ur
Ġn e
r es
Ġe ur
Ġpr Ã©
Ġ i
Ġc h
l es
Ġcom m
le ment
t s
Ġs e
Ġa v
r o
Ġeur op
Ġe x
f f
t u
i e
t er
Ġ h
en d
g e
t te
Ġpl us
Ġa c
Ġp o
si on
Ã© e
Ġ o
Ã¨ re
d i
Ġt ou
Ġ ra
Ġm on
o l
Ġc ons
Ã ª
or t
Ġs u
o i
en s
ur s
ou v
ĠÃ© ta
Ġt r
Ġv ous
Ã© s
er s
m es
c es
Ġeurop Ã©
Ġs i
b le
Ġm e
u e
tion s
qu es
Ġce tte
p r
ĠeuropÃ© en
i on
Ã¨ s
Ġm o
Ġma is
Ġs ont
p e
a it
a is
Ġa ve
u x
si d
Ġcomm is
ĠÃ ª
Ġc a
Ġt ra
Ġde v
Ġp eu
y s
Ġa n
Ġa i
ti que
o ir
Ġi mp
t es
u l
Ġa pp
Ã© es
Ġ ent
ĠÃª tre
m b
an d
a in
t en
i en
Ġau x
Ġ ont
Ġc es
Ġave c
an ce
Ġc ont
Ã© r
Ġd i
d u
si e
en ce
Ġv o
i ent
Ġt e
Ġs a
f i
Ġs o
Ġg r
Ġcommis sion
or d
on n
Ġs ou
ĠprÃ© sid
a ire
a le
Ġl i
Ġ y
Ġfa it
Ġpo li
ĠÃ© c
Ġr es
Ġra pp
Ġ ?
Ġ ou
t r
au x
Ġau t
ation s
Ġs er
g a
ou ve
Ġpr op
j e
Ġe lle
ch e
Ġpa ys
l les
Ġpar ti
u i
Ġcon c
Ġn o
Ġa m
Ġac c
c tion
Ġtou t
Ġcom me
r Ã©
o is
Ġ on
Ġcom p
l Ã¨
Ã© ra
i que
ĠprÃ©sid ent
in s
c u
ĠÃ© tÃ©
Ġd is
ĠeuropÃ©en ne
ment s
g n
re r
c ti
ir es
l Ã©
Ġm es
Ġa r
d a
Ġa s
Ã ´
Ġm Ãª
it e
Ġo b
Ġent re
Ġil s
m i
u t
Ġp u
v a
on ne
m a
Ġun ion
or s
Ġa l
Ã© ri
Ġfa ire
v i
ouv er
Ġb ien
Ġf in
f or
Ġe ff
il le
Ġd ire
Ġa g
Ġ "
is e
in e
Ġc o
Ġin ter
Ġ 1
ĠmÃª me
s si
a b
Ġ 2
Ã ł
Ġce la
is s
Ġmon sie
Ġmonsie ur
Ġp er
Ġn Ã©
Ã© n
Ġpar lement
o c
a t
Ġin s
Ġpoli tique
Ġav ons
ant s
v ent
Ġqu es
Ġs on
on c
Ġa d
Ġau ssi
e l
Ġpeu t
0 0
Ġimp ort
on om
Ġc er
Ġrapp ort
a c
Ġv i
tu re
Ġn ouve
j our
ĠdÃ© c
Ġd o
ĠÃ©ta ts
Ġ :
Ġa t
it s
Ġle ur
Ġtr Ã¨s
Ġma r
Ġex p
a ires
Ġno tre
ti tu
b re
Ġp ers
ĠÃ©c onom
e lle
Ġf on
Ġv ou
or te
v es
o si
Ġcomm un
Ġme mb
Ġde ux
v en
e il
end re
Ġn om
ur es
m er
ga lement
Ġpro b
ĠrÃ© s
Ġd ro
Ġin tÃ©
ĠÃ© galement
an de
Ġt er
Ġtra va
ĠdÃ© p
c o
ti ques
Ġt ous
ra it
l er
ĠrÃ© g
Ġque l
Ġa b
Ġeurop e
Ġcer ta
Ġp os
g ra
is t
Ã¨ me
c te
Ġd onc
a s
m in
itÃ© s
ol u
d re
u re
n i
Ġm an
Ġcons eil
Ġdi ff
ces s
a ble
o y
Ġ or
Ġmemb res
Ġdo it
Ġaut res
Ġan n
en ti
eu x
Ã §
li c
Ġp re
c t
f in
Ġf or
Ġde m
s ent
l is
Ġso ci
g er
ou p
Ġp ouv
ti n
tr u
Ġprob lÃ¨
i c
Ã¨ res
ĠrÃ© p
Ġ )
Ġques tion
ar d
Ġacc ord
Ġtrava il
Ġconc er
al es
Ġs eu
al is
ĠÃ©ta it
ain e
os e
o g
Ġ Â
Ġc ro
us e
Ġen v
Ġtr ans
c Ã©
Ġj us
mp s
ve l
me t
en se
Ġn os
ti s
vel op
Ġm il
ra is
Ġs es
an te
Ġsu is
Ġdev ons
Ġn i
Ġ u
Ġpo in
ĠdÃ© b
Ġtou te
il itÃ©
Ġl ors
ĠdÃ© velop
Ġs Ã©
Ġs om
Ġpr i
ĠdÃ© m
Ġpre mi
t ra
Ġpro du
n er
Ġprop osi
Ġ op
tÃ© s
v re
Ġmar ch
ĠÃ© v
Ġ ti
Ġnom bre
Ġes p
Ã »
Ġm Ã©
je t
Ġs ans
i ons
Ġe mp
co re
Ġn on
Ġen core
l u
Ġcont re
Ġas s
ĠprÃ© sent
f s
Ġau jour
Ġaujour d
ti ve
ne ment
ri e
Ġmon de
u m
ci p
u d
m ment
u er
c er
v er
Ġde r
Ġau tre
te urs
ce p
Ġu ti
Ġc rÃ©
Ġg ouver
Ġb e
Ġc our
Ġre c
Ġd onn
d Ã©
Ã ®
Ġc ar
Ġma in
Ġc la
ent s
g Ã©
o in
l s
is es
Ġr en
Ã ¹
it er
ent e
Ġo Ã¹
Ġman i
b les
Ġvou d
ĠnÃ© cess
s er
Ġle urs
it u
al itÃ©
Ġc r
p ar
ra i
Ġder ni
Ġcom pr
Ã© g
Ġp la
en ir
Ġm oi
olu tion
Ġpr in
Ġso it
Ġd it
Ġd ont
h ui
ch er
Ġte mps
Ġp ense
t ant
eu re
Ġa ff
g ne
Ġf r
Ġca s
Ġimport ant
g u
Ġj our
au c
l o
Ġ ue
m ble
an ge
Ġparti cu
Ġce t
Ġvoud rais
end ant
Ġfin an
ĠÃ© le
Ġav oir
Ġeff e
ĠdÃ©velop pe
a ient
Ġfa ut
is te
Ġp e
Ġc ol
Ġra is
Ġa ur
Ã©ra tion
g ie
a m
Ġpu b
Ġ2 00
Ġes s
Ġd om
Ġparticu li
cti ve
o ra
Ġs itu
ti Ã¨re
Ġs ys
Ġpos si
Ġg Ã©n
Ġdro its
Ġh om
Ġgr and
c un
Ġa in
Ġre pr
si ons
d er
Ġcon f
c ur
Ġain si
Ġpoin t
for m
Ġob je
c a
Ġd oi
ĠdÃ©veloppe ment
Ã¨ g
Ġdis p
Ġ (
i es
Ġe lles
Ġsom mes
mp le
onn es
on g
oc ra
r Ãª
is ion
it oy
a ge
ri b
Ġm in
pr Ã¨s
auc oup
Ġbe aucoup
Ġl Ã©g
Ġuti lis
Ġch a
Ġac tu
Ã´ le
Ġdiff Ã©r
Ġam en
Ġdoi vent
Ġau cun
Ġsys t
Ġmil li
Ġi ci
g es
v ers
r it
n es
i g
Ġf ois
ĠdÃ©m ocra
Ġr Ã¨g
d es
Ġli b
ĠproblÃ¨ me
cur itÃ©
Ã© qu
Ġm ont
Ġobje cti
Ġcon sid
Ġsitu ation
b ilitÃ©
Ġproposi tion
Ġc i
qu oi
ĠdÃ© j
Ġpar ce
Ġcons titu
ĠdÃ©j Ãł
Ġpour quoi
n ation
Ġl Ãł
Ġpo si
Ġmain ten
ĠÃ©conom ique
is se
Ġt u
an is
Ġser a
Ġv a
Ġmarch Ã©
Ã ¢
ĠsÃ© curitÃ©
Ġn ation
i ti
Ġ k
en ces
Ġal ors
Ġc itoy
gra m
qu er
Ġpoli tiques
Ġme t
Ġmani Ã¨re
p u
Ġcommis s
Ġa prÃ¨s
Ġsa v
Ġfinan ci
Ġb es
m is
Ġpro gram
Ġmo ins
Ġv rai
Ġper met
Ġenv ir
Ġca p
Ġamen de
ĠÃ §
Ġma l
Ġinter nation
ro is
ĠÃ§ a
Ġs ta
Ġad op
Ġo c
Ġm en
ĠdÃ©b at
Ġv is
Ġin c
ĠÃ© g
o ci
Ġcommun au
Ġb a
Ġni ve
Ġch ose
i ques
Ġentre pr
Ġex e
o ire
Ġmo y
e z
Ġv ie
or ts
Ġav ant
Ġn a
ou pe
Ġl ui
Ġb ud
Ġt rois
d s
Ġg ar
la r
Ġconcer n
Ġpers onnes
Ġcommiss aire
ol og
Ġ %
Ġvo tre
Ġgr ande
Ġdem and
Ġsi gn
Ġtou tes
fi c
Ġor g
sie urs
i Ã¨me
Ġcerta ins
Ġf er
Ġ1 9
Ġpar t
Ġmes ures
Ġi d
p ons
Ġgouver nement
Ġann Ã©es
f ois
ta ge
jour s
an ti
Ġtou jours
ain es
ĠÃ©ta t
Ġprop os
ĠÃ© ner
ille urs
ĠdÃ© f
Ġsou ti
ta ire
Ġemp l
Ġmon di
Ġam Ã©ri
a ce
Ġag it
pu is
Ġcitoy ens
Ġin d
Ġqu and
ĠÂ »
Ġc ent
p i
Ġen se
Ġt ant
Ġas se
e m
Ġma tiÃ¨re
Ġgr oupe
l on
Ġc or
Ġan s
d ent
Ġs p
Ġpro f
Ġpl u
Ġl ong
Ġsou h
Ġcom ment
Ã© li
il i
t h
an g
ab les
Ġpers onne
te ur
Ġde puis
er ci
elle ment
Ġres pons
Ġapp r
Ġsyst Ã¨me
ri c
l ons
ti f
Ġrepr Ã©s
Ġca dre
Ġcon n
m Ã©
cte ur
Ġdro it
Ġ âĢ
Ġcon tin
us es
Ã¨re ment
Ġmainten ant
Ġbes oin
Ġcons Ã©qu
Ġnive au
Ġpouv oir
Ġsouh ait
p h
Ġd ou
t ent
i m
Ġen f
li que
onne ment
Ġins titu
Ġma da
Ġun is
Ġexe mple
Ġ !
Ġprin cip
ĠÂ «
Ġres pe
Ġmada me
Ġcerta in
r ont
t ro
Ġ- -
g r
l ent
Ġin form
Ġseu lement
Ġhom me
Ġf em
Ġin f
Ġs ous
Ġcomp te
Ġques tions
ĠproblÃ¨ mes
Ġce ux
s Ã©
ĠgÃ©n Ã©ra
ti ves
ĠeuropÃ© ens
Ġparti e
qu i
Ġav ait
ĠrÃ© du
te ment
Ġaut or
Ġave z
Ġa fin
Ġorg anis
Ġser vi
Ġ ir
ĠintÃ© rÃª
ti e
Ġeff ic
c le
Ġb on
Ġconcer ne
Ġ ;
ul ta
Ġh um
Ġpeu vent
Ġte ch
h Ã©
Ġs oi
Ġpe ti
Ã§ on
Ġrais on
Ġcont r
Ġs tra
ĠrÃ© f
Ġcol lÃ¨
Ġco op
l Ã©e
Ġpl an
ti v
ĠrÃ©g ion
Ġin di
ra ient
Ã´ t
ul ation
Ġm i
Ġdev rait
ĠnÃ© g
c tions
Ġenvir onnement
g ent
Ġp h
gu es
Ġsu i
Ġab ord
iss ance
mer ci
Ġre merci
Å ĵ
Ġquel ques
an ces
Ġapp ro
Ġam Ã©li
Ġar ri
ĠdÃ© s
Ġi m
Ġpouv ons
Ġcont rib
Ġv oir
n ent
Ġmet tre
Ġd ur
a li
Ġpr es
Ġpr endre
Ġdem ande
ou t
Ġat t
Ġp ens
Ġnouve au
v Ã©
Ġd a
os es
Ġser ait
Ġen ga
Ġai de
ĠlÃ©g is
ten tion
Ġann Ã©e
Ġsu b
Ġpro cÃ©
Ġvrai ment
Ġg ens
Ġdis c
on d
Ġch ange
Ġpour rait
Ġf i
Ġdire ctive
Ġp op
Ġv ue
Ġense mble
ul ture
tion ne
ten ir
Ġcont ra
Ġnouve lle
Ġch oses
g ue
Ġess enti
Ġquel que
Ġeffe t
Ġstra tÃ©
Ġcr ise
Ġdom aine
Ġf Ã©
Ġ 3
l ation
Ġj ou
Ġcour s
Ġop p
u vre
Ġtr op
i ci
Ġsu jet
Ġsu pp
Ġprogram me
Ġe u
Ġcons om
Ġl u
Ġpossi ble
r ent
Ġtoute fois
Ġpro cess
Ġtra itÃ©
Ġv ers
Ġprocess us
a ts
p endant
end u
Ġconcern ant
a ra
Ġre g
t ri
Ġpro te
Ġpu is
Ġ z
g ment
Ġcoop Ã©ration
p er
Ġ2 0
Ġb r
Ġr is
Ġse in
Ġfon ction
en ne
is me
Ġsav oir
Ġac cep
Ġs Ã»
Ġin ves
Ġfa Ã§on
ĠdÃ©c la
Ġn u
ĠnÃ©g oci
Ġc ri
Ã© tÃ©
Ġfon ds
Ġj am
Ġj u
ĠamÃ©ri c
Ġprote ction
Ġentrepr ises
Ġjam ais
Ġs ouv
Ġse cteur
Ġab s
Ġm is
a i
Ġli eu
Ġfa is
Ġpub lic
Ġin iti
Ġrapp orte
Ġb i
Ġh eure
Ġpremi er
ven tion
Ġo ff
Ġb an
Ġce l
Ġr Ã´le
use ment
ĠrÃ©s ulta
Ġ ord
Ġ is
Ġcon di
ĠrÃ© alis
ĠprÃ© c
Ġau gment
ain s
Ġh ist
ĠÃ© ch
Ġv er
a gn
Ġpla ce
Ġres s
Ġcha que
Ġtech n
Ġpremi Ã¨re
Ġsp Ã©
que lle
Ġla quelle
Ġren for
Ġb as
Ġsouti en
Ġgar anti
Ġsi mp
Ġs ant
ĠÃ©conom ie
lle ment
Ġba se
Ġcomp Ã©
o ta
tÃ© e
ch es
Ġs ens
Ġr us
ĠnÃ©cess aire
x te
Ġpr om
ĠprÃ© v
Ġfon da
Ġm me
Ġr ien
Ġna ture
Ġcro issance
Ġce pendant
Ġb onne
Ġv eu
Ġre la
Ġav enir
Ġcla ire
Ġun i
Ġse lon
c ture
ur i
Ġt a
Ġind us
ĠreprÃ©s ent
o le
li g
Ġmes ure
om p
Ã© rer
Ġfem mes
Ġmo ment
Ġbud ge
Ġme ille
ĠâĢ ĵ
en u
Ġre cher
ais s
ĠrÃ©s olution
Ġav an
Ġsant Ã©
Ġcomm en
m an
Ġp ra
Ġa f
Ġra pi
ta mment
cte urs
ti fs
or itÃ©
Ã©r ence
Ġres te
Ġfonda ment
Ġposi tion
ant es
Ġpr is
Ġcon v
Ãª te
Ġpa ra
Ġen c
Ġcro is
ĠrÃ© for
Ġenf ants
s u
ĠÃ© tu
Ġjus qu
Ġrec onn
Ġv oi
ve ur
v an
qu Ã©
Ġmilli ons
ĠÃ© vi
tis se
ĠdÃ©p u
ĠprÃ©sid ence
Ġparticuli er
Ġobjecti f
Ġvo te
j ou
Ġpri x
Ġtrans p
ĠrÃ©p ons
ĠspÃ© ci
or ter
Ġa tte
ĠrÃ¨g lement
o rer
Ġg ra
Ġter me
u v
Ġdeux iÃ¨me
ĠÃ© tr
Ġmoy en
Ġfa veur
Ġimport ance
it es
o v
ab ilitÃ©
Ġsou li
ac itÃ©
ent es
fi er
ĠÃ©ner gie
Ġv ol
Ġfor m
Ġamende ments
Ġcom b
Ġasse mb
Ġpro ch
Ġch ine
ven ir
Ġlors que
Ġplu sieurs
Ġr ou
Ġjus te
Ġproposi tions
Ġun ique
lÃ© ment
ĠdÃ©c ision
Ã©n Ã©
ou ra
ge ment
Ġrapporte ur
Ġ 5
Ġli m
Ġrapi de
Ġsoi ent
Ġiniti a
Ġservi ces
Ġc an
ri ons
ĠcollÃ¨ gues
ne ments
Ġg uer
ra tion
Ġse c
ĠmÃ© di
Ġac tion
Ġa lle
Ġnombre ux
Ġen fin
Ġ w
Ġcons tru
Ġassemb lÃ©e
Ġcel ui
fic ation
Ġes ti
Ġesp Ã¨re
Ġmo is
Ġa li
Ġaucun e
Ġobjecti fs
Ġnouve lles
Ġre l
Ġre m
Ġa illeurs
Ġsu ff
Ġv Ã©r
ĠÃ©g ard
Ġ19 9
our ces
Ġsign i
cu p
ĠsÃ» r
m o
la b
Ġn or
Ġvi ol
Ã©ri e
is er
ĠdÃ© fin
Ġce lle
Ġco Ã»
on e
Ġprodu its
ve z
u rer
Ġpro jet
Ġm ise
b e
ta tion
Ġsouv ent
le x
Ġd Ã¨s
Ġdonn er
Ġempl oi
Ġp endant
Ġno tamment
Ġ Åĵ
Ġr i
Ġse mble
Ġlib er
res sion
el s
iss ent
que l
Ġatte in
ĠÃ©ta ient
Ã© ment
Ġb Ã©nÃ©
ĠÃ©ta b
Ġbudge t
Ġmi eux
Ġcommun e
ci pe
mb re
Ġinves tisse
Ġinstitu tions
hÃ© sion
uri di
b il
Ġj uridi
Ġt ota
Ġf ut
Ġcontr Ã´le
it aire
ĠÃ© qu
Ġ 4
our n
Ġparticuli Ã¨rement
a g
Ġpar ler
Ġch ar
Ġv ale
Ġre p
Ġh au
Ġexp ri
ĠstratÃ© gie
Ġav is
Ġp i
Ġid Ã©e
Ġex iste
Ġguer re
Ġconsom ma
Ġcondi tions
Ġc li
o de
an ger
Ġe ux
ĠrÃ© c
Ġs tru
ĠbÃ©nÃ© fi
rie ur
Ġvo y
gra tion
Ġamende ment
Ġnouve aux
Ġtechn olog
is ation
a lement
Ġcertain es
ab lement
Ã® tre
Ġparti cip
il l
Ġpeu x
ĠdÃ©mocra tie
Ġser ont
Ġprin cipe
r ons
ĠrÃ¨g les
Ġimp os
Ġsoci Ã©tÃ©
ĠrÃ©pons e
Ġre f
Ġsouli gn
ora tion
Ġat tention
me ment
ĠfÃ© lic
Ġt Ã©
ĠdÃ© ci
van tage
Ġeur o
lic ation
Ġcontrib u
Ġma j
ĠintÃ©rÃª t
Ġtr ouver
Ġex tr
ma tique
Ġrecher che
y p
Ġjus ti
Ġclaire ment
i ge
Ġac tiv
Ġpar ten
ĠprÃ©sident e
a y
Ġmondi ale
Ġsoci ale
Ġor ient
Ãª che
Ġda vantage
Ġdiff ici
Ġv eux
ĠdÃ©pu tÃ©s
Ġv u
Ġs ais
Ġje un
min er
Ġt ur
Ġar ti
Ġce ci
Ġimport ante
Ġqu oi
Ġl an
ĠÃ© p
Ġar gent
Ġpoin ts
Ã® t
Ġs olution
Ġfa ce
Ġc Ã´
Ġderni er
ĠnÃ©goci ations
Ġpl ut
s es
Ġrus sie
Ġeff orts
Ġc ulture
il les
Ġderni Ã¨re
Ġp Ã©ri
ouve z
Ġplut Ã´t
Ġ ur
Ġ ouver
Ġeffic ace
in g
Ġi ma
Ġs y
Ġa it
Ġcent ra
Ġch e
ta ble
ĠÃ©conom iques
i x
Ġord re
o t
Ġfa v
osi tion
ine ment
gr Ã¨s
Ġt aux
Ġla r
Ġdiffici le
Ġmes sieurs
Ã ¯
our s
is tes
Ġfr an
li quer
Ġp le
e lles
Ġhist oire
ĠrÃ©p on
je ts
su ite
Ġs ci
Ġsimp lement
Ġseu le
isse ment
Ġp or
Ġremerci er
res s
Ġvou lons
ta ires
Ġag ric
Ġcommunau tÃ©
Ġqu alitÃ©
Ġf ra
Ġsu c
Ã¨ ne
is ions
Ġch er
Ġse m
Ġex c
Ġtr ouv
Ġf ont
gra ph
Ġou tre
ĠeuropÃ©en nes
Ġress ources
Ġcap it
Ġp ouvez
Ġpop ulation
t rie
ĠÃ© lar
Ġmo di
Ġinternation ale
al u
ĠcrÃ© er
Ġte lle
li qu
Ġins tru
ĠÅĵ uvre
is tre
Ġmo d
fi que
Ġappro che
Ġmes da
Ġmesda mes
Ġd ir
Ġs orte
Ġpas sÃ©
s se
Ġh ab
Ġrem ar
ĠÃ©c rit
Ġin dÃ©
Ġcomm erci
c tu
Ġj a
la is
Ġprop re
ti r
Ġpa ix
ĠÃ©tr ang
Ġactu ellement
Ġg a
Ġoc ca
g rÃ©
ĠrÃ© un
Ġdonn Ã©
Ġfor me
r or
ĠÃ© t
a ri
Ġc in
Ġliber tÃ©
v ision
ais e
Ġaur ait
Ġextr Ãª
Ġbud gÃ©
Ġre v
ĠrÃ©g ions
c ont
ĠlÃ©gis lation
Ġenc oura
Ġrel ations
Ġrespe ct
Ġlu tte
ĠmÃª mes
Ġmarch Ã©s
n a
ri que
Ġvo tÃ©
ci dent
Ġconsomma teurs
Ġali ment
it able
Ġpas s
ra s
qu ie
Ġp Ãªche
Ġconc ur
Ġas pe
c Ã¨s
Ġqu a
Ġchange ment
Ġal ler
Ġrespons abilitÃ©
Ġp Ã©
Ġdev raient
Ġmal h
tro du
Ġter ror
Ġdemand er
Ġcon fi
oup es
Ġdiff ic
m and
Ġaut ant
Ġconc lu
Ġseu l
Ġaff aires
Ġconcur r
Ã¨ te
ĠÃ© tant
c lÃ©
Ġapp el
ĠconsÃ©qu ent
ance ment
ĠÃ© che
Ġinform ation
op h
Ġfa m
du re
ĠdiffÃ©r ents
ĠÃ©lar g
v is
Ġindus trie
Ġactu elle
Ã©r Ã©
om b
Ġvo ie
ĠrÃ©sulta ts
t res
Ġsou tenir
Ġess ay
b li
Ġar rÃª
v ant
f ie
ĠprÃ© oc
Ġpro grÃ¨s
ĠdÃ©p ens
Ġso li
Ġinform ations
Ġter mes
r ir
i er
Ġautor itÃ©s
Ġsuff is
te mps
Ġc ir
Ġin trodu
l ir
Ġnu clÃ©
ĠintÃ© rieur
Ġent endu
Ġent ra
t out
Ġdonn Ã©es
Ġvol ont
Ġg en
f ait
Ġv ais
Ġsur tout
ĠrÃ©g i
la ire
Ġdou te
ĠprocÃ© dure
Ġs t
ĠrÃ© us
Ġis ra
Ġconstitu e
t ons
Ġg es
ti Ã¨res
Ġgaranti r
Ġexp Ã©ri
Ġt our
ĠÃª tes
Ġass urer
Ġmalh eure
Ġma la
Ġm er
Ġjuridi que
me tte
iss ant
Ġch i
Ġnombre uses
l and
Ġaur a
Ġpeu p
Ġat ta
l an
Ġcons ta
Ġins ta
Ġai der
Ġdisp os
Ġacc omp
i ble
Ġs us
Ġad min
Ġtrans par
00 0
Ġdisc us
Ġs au
Ġan im
u es
Ġocca sion
ĠrÃ© alitÃ©
Ġessenti el
Ġen suite
Ġrapide ment
la it
ĠintÃ©rÃª ts
Ġrais ons
ĠamÃ©li orer
Ġasse z
Ġris que
Ġt ent
tÃ© ri
Ġatt end
Ġdev rions
Ġb ar
Ġderni Ã¨res
Ġcommunau taire
Ġveu t
Ġmilli ard
Ġf ourn
Ġgouver nements
Ġstru cture
Ġcon du
Ġli bre
ac t
Ġinitia tive
ĠnÃ©cess itÃ©
Ġvo is
Ġprodu ction
Ġti ens
ve ment
Ġt h
Ġin v
Ġpr Ãª
Ġpro tÃ©
si ble
ta tions
Ġet ats
Ġpre u
Ġacc Ã¨s
Ġte l
ch Ã©
Ġpub lique
Ã¨ mes
cti ves
ĠrÃ©g lement
l in
Ġs Ã©rie
Ġ er
Ġjeun es
er ce
end ance
Ġre mp
Ġconf l
Ġqu ant
Ġconsid Ã©ra
Ġmoy ens
Ġapp lication
Ġque lle
da m
Ġi ra
Ġarti cle
Ġadmin ist
Ġle quel
ĠpÃ©ri ode
Ġ 6
Ġcontin uer
i bles
Ġcla ir
par t
Ġvo il
Ġcir c
Ġa mb
Ġt en
Ġn ations
Ġfinanci Ã¨re
Ġplu part
c ation
Ġvo it
o b
Ġmaj oritÃ©
Ġinternation al
Ġh e
ĠnÃ©cess aires
Ġob ser
mÃ© di
Ġmalheure usement
Ġg lo
Ġt y
Ġs c
Ġper mette
ĠdÃ©c isions
Ġl is
e t
ĠgÃ©nÃ©ra l
Ġre t
ĠdÃ© ter
Ġcontra ire
Ġca use
tÃ© es
Ġtr ouve
Ġtra ite
Ġob jet
ar itÃ©
ĠÃ© qui
al og
Ġin n
ĠcrÃ© ation
Ġla iss
Ġtrava illeurs
Ġvis ant
s ui
Ġeur os
it aires
Ġl oin
Ġles que
ri co
Ġcompr om
Ġpour tant
Ġconcurr ence
Ġp orte
fi ques
Ġv os
Ġa y
ĠÃ©qu ili
r Ã©e
ĠÃ© du
Ġsa tis
end ra
Ġcompr is
Ġfr on
n Ã©
Ġpr en
Ġtra vers
p on
Ġremerci e
Ġges tion
Ġvoil Ãł
ĠtÃ© lÃ©
u b
Ġtra in
Ġsa vez
Ġag rico
Ġpour sui
Ġrespe c
a gne
Ġpermet tre
Ġconfi ance
re z
Ġutilis er
Ġr endre
Ġsta bilitÃ©
Ġe au
Ġdom aines
Ġcompr endre
Ġgr oupes
Ġcon te
il es
Ġf ort
ĠdiffÃ©r entes
o que
Ġa jou
Ġin qui
Ġmemb re
Ġsouhait e
Ġor ig
aiss ance
ĠprÃ©oc cup
Ġrenfor cer
Ġtur quie
alis ation
Ġes pr
Ġcons ci
Ġsu ite
c ts
Ġlors qu
Ġsou ten
ce l
ĠÃ©v iter
ĠprÃ© cÃ©
Ġprogram mes
Ġ 7
ĠbÃ©nÃ©fi ci
ĠdÃ©mocra tique
Ġutilis ation
Ġd ol
Ġl oc
Ġc oup
Ġh a
ĠÃ© n
Ġfon d
Ã¢ ce
Ġcomm erce
Ġexp lo
lÃ© g
Ġ20 1
Ġte xte
Ġad hÃ©sion
Ġglo b
Ġgr Ã¢ce
Ġpra tique
Ġ us
in es
Ġac tions
Ġdol lar
Ã© cu
Ġpossi bilitÃ©
ti ent
ĠprÃ©c is
Ġtrois iÃ¨me
Ġpas se
Ġlib Ã©ra
Ġma uv
Ġai mer
ĠrÃ©s er
Ġty pe
Ġf orte
de mment
ĠÃ©le ctions
Ġpermette z
Ġapp elle
Ġf is
ĠlÃ©gis la
Ġsub s
Ġmod Ã¨
Ġdes tin
ĠrÃ©for me
er a
il s
m en
Ġaf rique
m on
o li
cte ment
ĠextrÃª mement
Ġren cont
Ġconv ain
Ġsu d
Ġmeille ure
v Ã©s
ĠrÃ©du ire
or itÃ©s
Ġob lig
Ġsigni fie
Ġsom met
ĠconsÃ©qu ences
Ġprof es
Ġmin istre
Ġhom mes
ĠÃ©tu di
Ġre ven
Ġpro jets
Ã¨ rent
Ġm u
oir es
Ġsav ons
ĠÃ©ner gÃ©
ien ne
Ġaccep ter
Ġimp orte
ĠÃ©larg issement
Ġdev ant
Ġr end
Ġdi alog
Ġfin ancement
Ġjusti ce
Ġpas ser
v Ã©e
Ġcontr Ã´
Ġpr Ã¨s
ĠrÃ©pon dre
g ence
Ġ1 0
Ġh ar
Ġpro g
Ġex cel
ĠÃ©v alu
titu de
Ġm ul
Ġsoulign er
min ation
Ġmilliard s
Ġ it
p ara
Ġira k
ĠÃ© mis
ĠintÃ© ress
Ġlong temps
ĠdÃ©b ut
Ġdo cu
Ġcomprom is
Ġdisp osi
Ġdir ige
Ġespr it
ist an
Ġd ois
i gn
Ġpub li
Ġqua tre
Ġb re
Ġca ra
Ġse mb
Ġan ci
Ġaccord s
Ġrec om
Ġs an
Ġ 8
Ġtravail ler
ĠcompÃ© ti
l ande
Ġfi x
Ġpers pe
Ġcommun ic
Ġjour s
ra in
Ġass oci
olu tions
Ġex a
Ġn ord
ĠcÃ´ tÃ©
Ġz one
Ġv en
mo ins
Ġesti me
Ġdis cu
ĠrÃ©gi me
ac un
ĠrÃ©sulta t
is ter
Ġimport ants
b onne
Ġpa uvre
Ġapp ar
Ġlis bonne
Ġch acun
Ġdi vers
re t
Ġop in
Ġb ou
Ġtransp ort
Ġd onne
ĠamÃ©ri que
Ġdialog ue
Ġapp orter
ma ge
Ġja pon
Ġs al
Ġou bli
Ġvoi ci
Ġdiffic ul
Ġjour n
t on
ĠindÃ© p
Ġb ure
r u
Ġco ord
Ġs ol
Ġsi mple
Ġgrand es
m ation
Ġempl ois
ĠÃ©le ct
Ġre Ã§
Ġpo l
h a
tive ment
ien nent
Ġconf Ã©rence
l ure
Ġce lles
tÃ© ra
Ġvo ter
Ġdes s
Ġpreu ve
c Ã©e
e ur
Ġex erci
ni ques
Ġfor ce
Ġconte xte
Ġsci enti
ĠdÃ© ta
Ã¨ ce
Ġcin q
Ġse p
Ġgen re
r is
Ġvi cti
Ġvolont Ã©
Ġv ont
met tre
Ġdur able
Ġt ard
Ġprodu it
Ġs enti
Ġv enir
ĠreprÃ©s ente
Ġpu isse
Ġreg ard
Ġrapp el
Ġti tre
Ġprop res
Ġadop ter
Ġch ez
Ġex ig
Ġag ir
y er
Ġsui v
Ġpour raient
Ġex ist
Ġoc cident
in ation
Ġsuc cÃ¨s
Ġav aient
Ġsyst Ã¨mes
or m
Ġpro v
se ment
l us
Ġsupp lÃ©ment
Ġcommen cer
Ġ 9
Ġaff ir
Ġfis c
Ġprincip es
an moins
ĠnÃ© anmoins
Ġim mi
ĠÃ© lab
Ġexerci ce
Ã «
Ġd Ã»
Ġsoci al
Ġin de
Ġnor mes
Ġenv is
f es
Ġnation aux
Ġsoli d
Ġpar mi
Ġdemand Ã©
Ġactiv itÃ©s
ĠrÃ© se
Ġopp os
Ġaugment ation
Ġc al
Ġb al
Ġmon Ã©
Ġass ur
Ġres ter
Ġparti es
Ġan al
Ġconv ient
ĠbudgÃ© taire
ĠrÃ©s ou
Ġga z
Ġsi Ã¨
ĠÃ©du cation
Ġen d
ĠcompÃ© ten
Ġconc ent
Ġman que
Ġmani fes
ĠÃ ¢
Ġ ouv
Ġjou er
Ġgrand s
ĠÃ© lÃ©
Ġimportant es
Ġfinanci ers
Ġmal grÃ©
Ġ 000
ĠdÃ©cla ration
it ation
ĠintÃ© gration
Ġir an
Ġenga gement
Ġcan di
Ġli vre
Ġtrans f
ĠÃ©n or
Ġcandi da
Ġob tenir
Ġf u
on de
ti en
Ġte lles
Ġpa les
Ġeffic acitÃ©
Ġtranspar ence
a teur
Ġfa ci
Ġinter ne
Ġvale urs
da p
Ġs in
Ġm ort
Ġcon cep
ta r
ĠrÃ© ellement
Ġte ls
Ġorganis ation
vi d
Ġan g
Ġenvir on
Ġfa ud
Ġcon vention
ĠprÃ© f
Ġan ti
oi x
Ġdem ain
Ã« l
Ġagric ulture
Ġentra Ã®
m Ã©e
Ġch in
Ġs or
Ġabs olu
Ġmont re
Ġproch aine
Ġfav ora
Ġcommunic ation
ul er
Ġaimer ais
ĠrÃ© jou
Ġv ient
a ces
ue l
Ġal lons
ĠmÃ© th
Ġfran Ã§
Ġpeti t
h i
er t
t ances
Ġpar le
Ġcerta inement
Ġmen tion
Ġdi x
ta s
ĠÃ©c ou
Ġcr it
Ġattein dre
Ġch oix
Ġchin ois
ie z
Ġch ers
Ġcap acitÃ©
ĠvÃ©r itable
Ġinqui Ã©
ĠdÃ©f ense
Ġinter vention
Ġvale ur
ĠÃ©ta is
Ġti ers
Ġer re
o les
Ġnation ales
Ġinf lu
ĠdÃ© si
a d
Ġhe ures
a re
Ġrapp orts
ĠrÃ©sou dre
t an
Ġparti s
Ġgr os
Ġch ois
Ġemp Ãª
Ġhab it
ĠdÃ©pens es
Ġinn ov
Ġy eux
pr Ã©
e ment
Ġh ui
Ġaspe cts
end s
Ġuni vers
ti ne
Ã©r ons
Ġhum an
ĠÃ©lÃ© ments
Ġb rit
Ġindus tri
Ġpauvre tÃ©
Ġca mp
Ġcontrib uer
au t
Ġpr ise
ĠdÃ©fin i
tionne l
ma gne
Ġprog res
g ique
ĠexpÃ©ri ence
Ġt Ã¢
ĠrÃ©for mes
Ġban que
Ġalle magne
Ġmondi al
Ġsem aine
Ġimp act
Ġfron tiÃ¨res
ĠÃ©vi demment
u te
Ġma ri
ĠrÃ© v
Ġcomp lÃ¨
a mment
Ġanim aux
Ġa che
ĠmÃ© c
Ġun ies
Ġnation al
Ġfinanci Ã¨res
Ġterror isme
ĠnuclÃ© aire
op ri
ĠmodÃ¨ le
Ġsou ff
Ġc ou
Ġid enti
Ġconf ront
Ġm erci
Ġter rit
Ġlar ge
ĠÃ©nergÃ© tique
Ġ1 5
ĠÃ©v olution
Ġpres que
Ġb ut
ct ures
Ġa dap
te l
Ġorig ine
Ġesp ace
Ġsoci aux
Ġsolid aritÃ©
Ġbrit an
Ġ om
d ie
ar t
Ġpo ten
Ġsi x
Ġdisposi tions
Ġpar tage
Ġvicti mes
Ġconstitu tion
Ġrecom mand
g i
or i
ĠÃ©g alitÃ©
Ġunique ment
Ġt enir
Ġcol lab
o re
ĠÃ©v o
Ġter re
Ġfinanci er
Ġima g
r an
l ant
Ġch Ã´
Ġe mb
Ġpar fois
ĠamÃ©ric ains
Ġviol ence
Ġje u
Ġper mis
o graph
Ġpar venir
Ġris ques
Ġit ali
Ġparti r
s age
Ġdollar s
c les
ĠprotÃ© ger
ĠrÃ©du ction
on es
Ġl oi
Ã§ ons
Ġtota lement
Ġcentra le
Ġh ier
Ġinvestisse ments
ce mment
Ġfa c
Ġcli matique
orm ais
ĠpÃ© tro
Ġabsolu ment
ĠdÃ©s ormais
Ġg Ã©
tiv itÃ©
a Ã®tre
ar de
Ġadop tÃ©
ĠÃ©valu ation
ti er
Ġsta tu
ĠrÃ© cemment
Ġquel qu
rib u
Ġmont rer
uv res
Ġm Ã©r
g Ã©s
om a
Ġacc ro
Ġprob ablement
Ġmeille ur
l itÃ©
ĠprocÃ© d
Ġfondament aux
h an
Ġhau t
Ġg u
Ã© tÃ©s
Ġmul ti
Ġre ce
Ġservi ce
Ġdire ction
ĠcollÃ¨ gue
ĠÃ©p oque
Ġfr ance
Ġra di
ĠprÃ©sent e
Ġisra Ã«l
Ġd os
Ġou i
p tion
ort un
c ent
Ġdev enir
ĠfÃ©lic iter
Ġhar mon
Ġim mÃ©di
Ġcommen cÃ©
d it
Ġmo der
Ġpoten ti
Ġopin ion
ĠcoÃ» ts
Ġpeup le
Ġcor re
Ġorganis ations
ĠdÃ©velop per
Ġdirige ants
Ġt es
Ġav ais
. .
l Ã©s
Ġaff aire
Ġs ch
Ġde l
Ã¨ de
ven tions
Ġentrepr ise
Ġen tiÃ¨re
Ġtra di
Ġpr ises
Ġfem me
Ġs en
Ġob s
Ġpri oritÃ©
ĠmonÃ© taire
Ġcomp lex
Ġpe ine
Ġv eil
Ġo ct
di ci
Ġpeti tes
o ins
Ġappr opri
Ġch anger
Ġapp rÃ©
Ġcons er
Ġnation ale
Ġopp ortun
Ġrespons ables
Ġf il
Ġsatis f
b lement
ĠÃ©ch ange
Ġform ation
a ges
Ġci v
Ġexpri mer
ra tions
Ġveu lent
ĠmÃ©c anis
fi Ã©
Ġcomp orte
Ġdifficul tÃ©s
Ġpar fait
a ction
ĠÃ©v Ã©
ĠdeuxiÃ¨me ment
Ġdis t
Ġchange ments
Ġparten ari
Ġex tÃ©
Ġexp or
Ġapp liquer
Ġcr u
Ġadop tion
n ique
Ġconfl it
x e
Ġs ait
Ġdev oir
Ġt enu
Ġch ance
Ġex ac
Ġt om
p ens
ctive ment
Ġban ques
ue lle
Ġ /
Ġpa uvres
Ġri ches
Ġcrit Ã¨res
tr oph
Ġtechnolog ie
ĠdÃ©velop p
Ġid Ã©es
Ġprofes sion
Ġp Ã©n
Ġco h
ĠprÃ©sent er
Ġindi vid
qu ent
Ġg agn
ĠdÃ©ci dÃ©
Ġref us
t tes
Ġco lle
Ġp en
Ġin tention
Ġchi ff
Ġfait es
Ġrespec ter
ĠÃ©mis sions
ce ment
Ġpri oritÃ©s
Ġre tar
Ġh u
ĠchÃ´ mage
Ġprom ouv
Ġpour ra
Ġi gn
Ġ. ..
ta it
alis tes
a teurs
Ġfor ces
ist ance
ver se
tionne lle
tas troph
ab il
ĠdÃ©p os
Ġp ort
ca p
Ġca tastroph
Ġmin ist
re ux
Ġprop ose
c s
Ġay ant
in er
Ġcon dam
ĠÃ©conom ies
Ġob ten
Ġvoi x
c on
ĠrÃ©us si
Ġs our
Ġpens er
ĠÃ© lÃ©ment
Ġmil itaire
Ġsoci Ã©tÃ©s
j us
Ġr oy
Ġind is
Ġenga ge
Ġagrico le
r ou
Ġa ra
Ġt hÃ©
Ġb us
Ġar mes
Ġcontin u
Ġrappel er
Ġob li
o it
v ie
Ġmais on
Ġre je
Ġh on
Ġco hÃ©sion
ma t
Ġenv oy
ĠamÃ©ric aine
Ġtraite ment
Ġdi min
c ta
re ment
Ġin ten
Ġsouhait er
Ġsu g
alis te
ĠprocÃ©d ures
Ġd ange
ĠamÃ©li oration
Ġl ut
ĠdÃ© fi
Ġarri ve
oc k
ĠprÃ©cis Ã©ment
ĠapprÃ© ci
Ġ3 0
Ġm ouve
Ġpromouv oir
Ġo ra
Ġat ti
Ġli gne
c ri
Ġ1 2
us se
Ġcomb ien
Ġparten aires
Ġv it
Ġencoura ger
Ġret our
ĠÃ©quili bre
Ġlu mi
ĠrÃ©un ion
in dre
Ġsui vre
Ġpres sion
le z
Ġre tr
ĠintÃ© gr
Ġesp oir
is ent
bil itÃ©s
Ġdur ant
Ġmo t
onn er
Ġex cep
Ġl og
Ġconvain c
Ġb Ã¢
Ġpar ven
al itÃ©s
Ġinstru ment
Ġeffe ts
Ġeffe ctu
Ġinstru ments
Ġconc r
Ġju dici
Ġsu per
Ġfais ons
ri er
Ġpublic s
Ġm us
la ires
ĠÃ© vent
Ġparticip ation
Ġveil ler
Ġexcel lent
Ġactu el
gue ur
p l
Ġvi gueur
d o
Ġex tra
ais se
Ġs olutions
Ġpr end
lÃ© ch
Ġbes oins
Ġinvestisse ment
Ġheure ux
Ġa si
Ġla isse
ĠrÃ©f Ã©rence
Ġal li
Ġ200 0
Ġinterne t
ĠdÃ© ce
Ġac qu
Ġqu ali
Ġcontin ue
Ġu k
Ġaff e
ĠÃ©le vÃ©
ĠconsÃ©qu ence
Ġsur ve
Ġdiscus sion
Ġm and
ĠamÃ©ric ain
si ve
Ġapp liqu
ĠgÃ©nÃ©ra le
p s
lis sement
Ġse cteurs
Ġir lande
Ġdocu ment
or ique
Ġarri ver
Ġderni ers
Ġs Ã©ri
Ġlong ue
Ġpara graph
it ent
ĠprÃ©sent Ã©
Ġdisc ri
Ġur gence
Ġ2 5
Ġpar ole
en nes
ĠrÃ©p ub
Ġcontribu tion
ĠÃ©che lle
Ġcerta ine
Ġsign al
Ġstatu t
Ġa ir
as s
Ġr om
Ġprofession ne
j oin
Ġpar ta
Ġz ones
Ġn our
Ġexc lu
Ġcons ac
Ġpoursui vre
z e
la ge
Ġsoci ales
Ġpeti te
Ġdev ra
Ġfav or
ĠprÃ© s
v Ã©es
v aux
Ġdos si
Ġindis pens
ti m
Ġmo ra
Ġend ro
Ġinitia tives
Ġsuffis amment
ĠempÃª cher
c tÃ©
Ġdiscus sions
Ġin for
Ġex is
Ġex Ã©cu
ĠcompÃ©ti tivitÃ©
Ġv Ã©
ĠdÃ©f is
Ġtechnolog ies
ĠdÃ©cla rÃ©
Ġimmi gration
Ġl iste
Ġa Ã©ri
or ie
Ġatt endre
Ġen qu
Ġmauv ais
a ger
Ġt on
Ġpropos Ã©
Ġtra du
lÃ¨ ve
Ġav ions
Ġpartenari at
Ġconf ir
Ġcomb at
ĠÃ©vi d
Ġagric ul
Ġlaiss er
ur ent
ĠÃ© tro
Ġfin alement
ĠsÃ©ri eux
Ġent endre
Ġex am
Ġsou le
c Ã©es
lis ation
fi ca
Ġrela tives
Ġpossi bilitÃ©s
Ġconsid Ã¨re
Ġaugment er
Ġmen ace
Ġinf ras
Ġdel Ãł
Ġinfras tru
Ġh Ã©
Ġdi pl
ĠdÃ©p end
ĠdÃ©m ont
Ġpra tiques
ĠÃ©tab lir
Ġenv ers
Ġple inement
Ġpeti ts
Ġconsom mation
ĠfÃ©lic ite
Ġp ie
Ġhum ains
Ġord in
Ġai me
ĠfranÃ§ ais
2 0
ĠÃ©vi dent
Ġle t
Ġex er
ĠÃ©trang Ã¨re
Ġroy au
h en
ĠimmÃ©di a
m un
si que
Ġmon na
Ġfam ille
Ġlumi Ã¨re
Ġpos er
ĠlÃ©g iti
Ġcont enu
Ġexe mp
Ġ5 0
ĠdÃ© fic
a ti
la m
iss ons
Ġpremi Ã¨rement
olog ique
ĠrÃ©f lÃ©ch
Ġroyau me
Ġad res
Ġb onnes
Ġexig ences
Ġs oir
Ġoff ici
ĠrÃ©glement ation
Ġmo ts
Ġinternation ales
Ġsi m
Ġpens ons
Ġcandida ts
Ġinnov ation
v oir
land ais
di ction
Ġacc Ã©
Ġconstitu ent
Ġg ard
Ġconsid Ã©ration
ĠsiÃ¨ cle
Ġdisp on
Ġimp ression
Ã©r Ã©e
t oire
alis me
Ġpersonne l
Ġp ous
Ġpr os
Ġactiv itÃ©
Ġaliment aire
Ġaux que
Ġpermet tra
Ġeffe ctivement
Ġempl oy
Åĵ ur
Ġrespons abil
Ġdess us
Ġ1 1
Ġlesque ls
ta ges
Ġcon form
Ġte mp
Ġadminist ration
g Ã©e
y n
Ġdi men
ri Ã¨re
ro i
Ġorg an
Ġabord er
Ġat titude
Ġaf g
Ġv ille
Ġcru ci
Ġaut our
Ġcent re
Ġoc cup
ĠÃ©qui pe
Ġpar lÃ©
ue ls
Ġsem aines
Ã© tique
ch ar
p it
Ġvoy ez
Ġagricul teurs
Ġreg arde
Ġlesque lles
Ġb il
ĠprÃ© ser
Ġci vi
Ġpop u
Ġt Ãªte
Ġcirc ons
Ġi dÃ©
fi Ã©e
Ġmes sage
Ġparlement aire
Ġad Ã©qu
Ġopp osition
Ġpuis que
Ġajou ter
Ġconstru ction
Ġcoord ination
Ġt oi
p a
Ġmainten ir
Ġent end
ĠreÃ§ u
ĠÃ©c ole
Ġfaci le
Ġacc ue
Ġsui vi
Ġautor itÃ©
Ġph ot
Ġfa ible
Ġtra vaux
Ġar gu
Ġcondi tion
Ġs ort
Ġrespons able
Ġrela tive
r Ã©s
ĠcompÃ©ten ces
ĠpÃ©tro le
Ġconc lure
Ġpu issent
Ġdire ctement
ĠtÃ¢ che
v al
Ġsur pr
Ġtr an
Ġpubli ques
Ġfa b
le t
rie ures
Ġjou e
Ġfais ant
Ġt omb
Ġma tin
Ġpouv ait
Ġabs ence
Ġresponsabil itÃ©s
ĠÃ© mer
ch ent
Ġimpos sible
Ġde tte
o des
it ablement
Ġren ouve
Ġenf ant
Ġtransp orts
ma tiques
Ġmis sion
Ġnature llement
ro y
Ġmand at
Ġposi tif
Ġparagraph e
Ġproch ain
ĠÃ©vÃ© nements
Ã¨ tes
Ġli v
Ġappr ouv
Ġessay er
ĠrÃ©us s
n ie
Ġr ur
ĠnÃ© ga
Ġconn aiss
Ġamb i
Ġque lles
man ie
ĠrÃ©jou is
Ġqu anti
la ble
Ġreven us
c Ã©s
ĠrÃ©alis er
y se
Ġti rer
c k
ĠÃ© li
Ġab and
Ġimp or
onc er
r Ã©es
Ġminist res
Ġai ent
Ġfut ur
Ġcivi le
Ġaspe ct
Ġmen er
Ġtrouv Ã©
is ant
Ġtechn ique
Ġal ter
Ġafg han
Ġb lan
Ġesp Ã©rons
Ġin ac
c ul
Ġv ision
Ġperspe ctives
i ra
an i
Ġb el
rie z
ĠcoÃ» t
cti f
Ġpor tu
Ġoblig ations
Ġa sie
Ġapp or
Ġ1 8
fic ations
Ġremp la
au che
Ġcour t
Ġoff re
ĠmÃ©di ca
Ġconclu sion
Ġfourn ir
ĠindÃ©p end
y ons
Ġpr on
i bilitÃ©
Ġpos e
Ġaccord er
Ġpa ie
ci d
Ġexa miner
er ts
Ġbritan nique
Ġmont rÃ©
Ġadminist ra
Ġinflu ence
Ġhum aine
Ġdisc ours
ĠprÃª ts
ĠrÃ©pub lique
Ġmonna ie
Ġc y
Ġf ig
Ġai des
Ġimp liqu
Ġv ite
Ġre le
gn es
Ġpart out
v itÃ©
Ġfavora ble
di es
as se
Ġmilli ers
re g
Ġra ti
ĠspÃ©ci fique
rai gn
Ġouver ture
o th
Ġnive aux
Ġle cture
Ġf l
Ġfonction nement
Ġattein t
Ġpermet tant
ĠspÃ©ci fiques
Ġcom itÃ©
tru ction
ĠsupplÃ©ment aires
Ġpro t
Ġcons iste
Ġvi vre
Ġscienti fiques
Ġexac tement
Ġc ul
Ġgra ve
at ri
ĠrÃ©g u
Ġmin u
Ġt Ã´t
ĠprÃ©s ence
Ġinac cep
Ġc op
ĠrÃ©f u
ĠmÃ©di as
Ġcollab oration
Ġins u
Ġconn aissance
Ġconsci ence
a Ã®t
or Ã©
Ġop Ã©ra
Ġh ong
Ġplan Ã¨te
Ġt able
Ġper man
Ġpop ul
n aires
Ġsy n
e lÃ©
g Ã©es
Ġv as
ten ce
ĠdÃ©ce mbre
a tÃ©ra
g ies
Ġdev en
vi er
Ġtech niques
Ġlar gement
Ġcirc ulation
Ġma je
Ġalter na
ra ine
Ġvoit ure
Ġfa l
Ġtra iter
Ġcommunau taires
b er
an ie
Ġex ige
ĠprÃ© para
Ġobs ta
Ġsouti ens
Ġprincip al
Ġmin im
Ġlut ter
ĠinquiÃ© tu
and is
Ġconsta ter
Ġag ence
Ġper du
Ġsan ctions
Ġengage ments
ĠÃ© l
Ġuti le
Ġ200 7
Ġb er
Ġins tant
s s
Ġc Ã©
an ges
Ġfa ibles
ĠÃ©tu de
ĠdÃ©f endre
ĠrÃ©se au
li quÃ©
che ts
Ġst ock
Ġfac il
Ġt andis
Ġconclu sions
Ġou ti
Ġam is
Ġexp liquer
Ġen g
Ġ x
Ġt rib
Ġpara l
Ġt endance
Ġsupp ri
Ġp ou
ĠdÃ©ter min
k istan
Ġgr Ã¨ce
Ġen tier
li er
Ġcomp tes
Ġcomp agn
Ġf lex
Ġtra itÃ©s
Ġcara ct
Ġindispens able
m ine
Ġser aient
ĠdÃ©m ar
i ens
Ã©r Ã©s
Ġvou lez
Ġ200 8
Ġprincip aux
r ire
v ation
Ġcer tes
Ġp Ã¨re
Ġuk raine
Ġexp os
l oc
r ant
ĠdÃ©b ats
Ġerre ur
Ġtota l
Ġanal yse
Ġfer me
Ġnor m
Ġsen si
Ġconfl its
a pp
ĠÃ©ta pe
c in
Ġk os
Ġima ge
ru ption
a se
e use
Ġimp lique
ti Ã©
olog ie
ĠreprÃ©sent ants
b es
Ġn eu
Ġfer a
Ġperspe ctive
Ġr ent
Ġte llement
Ġmoi tiÃ©
Ġavan tages
ĠprÃ©cÃ© dent
Ġfra pp
Ġin tel
Ġg re
Ġseu ls
ĠdÃ©cla rations
Ġdossi er
Ġm Ã¨re
la bles
Ġen reg
Ġparticip er
ĠdÃ© chets
oi gn
Ġsigni fica
ĠcomplÃ¨ tement
e x
es t
Ġappr endre
Ġ iss
Ġcro ire
ĠÃ©quili b
Ġprov o
ĠdÃ©c en
Ġmondi alisation
Ġcons ulta
ĠcrÃ© di
Ġadop tÃ©e
Ġesti m
Ġche min
l ou
Ġapp u
Ġdis tin
Ġnouve l
ĠdÃ©p la
Ġre lig
Ġcon ven
Ġli Ã©s
Ġfait s
Ġmar s
Ġ200 9
Ġdipl oma
Ġpour rons
Ġres se
ĠnuclÃ© aires
ĠrÃ©fu gi
que t
Ġcar b
te mbre
ĠdÃ©ci der
ĠrÃ© vision
Ġab ou
ili er
Ġparfait ement
v ons
Ġprof on
tÃ©ri eure
Ġcaract Ã¨re
u ti
Ġfonction ne
Ġl ang
Ġr endu
Ġcomp os
Ġcor res
Ġavan cer
Ġcons ens
qu Ã©e
Ġsimp li
ĠÃ©nor me
Ġportu g
Ġbr u
ĠÃ©che c
Ġda te
ĠÃ¢ ge
Ġkos ov
Ġdi ver
ĠlibÃ©ra lisation
Ġa ch
Ġb at
ĠmÃ© d
ill ance
Ġsep tembre
Ġsouhaiter ais
is Ã©
il ler
Ġent rÃ©e
Ġcri tique
Ġrenfor cement
Ġre d
Ġdev enu
Ġsenti ment
Ġsour ce
d its
t ures
Ġau quel
Ġju in
Ġaf ric
Ġmala die
Ġpa ci
Ġcomm ence
tis s
ĠÃ©trang Ã¨res
ĠprÃ©occup ations
Ġb o
ĠÃ©tab li
Ġ1 00
ĠmÃ© de
ĠbudgÃ© taires
Ġs ouver
Ġmil itaires
Ġph y
Ġmauv aise
Ġconform Ã©ment
Ġreg ret
ĠreprÃ©sent ent
Ġcapit al
Ġcamp agne
Ġbure au
Ġmouve ment
Ġprodu cteurs
Ġalle mand
x im
Ġf our
Ġbr ux
Ġamb iti
Ġf eu
Ġparticuli Ã¨re
ĠdÃ©mocra tes
tionne lles
Ġfr u
ta bles
ĠvÃ©r itÃ©
Ġj an
ĠdÃ© lÃ©g
Ġexp ression
Ġ200 4
v ir
Ġ os
Ġexam en
Ġil lÃ©g
Ġsu p
Ġreconn aÃ®tre
Ġpi b
ces sion
Ġgouver n
Ġcontin ent
Ġcor ps
Ġprom o
Ġconstru ire
ĠdÃ© n
Ġapp ara
Ġli gnes
Ġprodu ire
Ġdisp ose
Ġacc ent
Ġrou te
ĠindÃ©p endance
Ġm or
Ġconn ais
Ġfaud ra
Ġpotenti el
Ġbrux elles
Ġposi tive
Ġpeup les
ĠÃ©tro ite
Ġpa ti
Ġprop ri
Ġglob ale
Ġt ri
Ġexa min
tÃ© g
Ġpoli ce
Ġaut om
Ġterrit oire
Ã ¶
Ġdimen sion
t rait
ĠdÃ©mocra tiques
ĠrÃ©f Ã©r
Ġcara ctÃ©
Ġne w
Ġre qu
Ġac tes
ĠdÃ©p art
Ġpe ur
Ġpros p
Ġeffic aces
Ġbus h
Ġdev ront
Ġagrico les
b al
an di
Ġvois ins
Ġafghan istan
Ġconsens us
Ġscienti fique
Ġre venir
Ġdisp osition
Ġinstitu tion
Ġsor tir
ĠentiÃ¨re ment
ĠdÃ© rou
iss ante
Ġkosov o
Ġse x
Ġgra ves
Ġom c
a te
Ġpa quet
Ġre lation
Ġcon vi
Ġ4 0
Ġre ti
Ġretar d
Ã© d
ont re
Ġo eu
Ã©n i
ĠintÃ©ress ant
l ise
Ġp an
Ġpa cte
Ġinternation aux
ĠdÃ©ta il
ĠrÃ©fugi Ã©s
Ġpa yer
Ġenc ontre
Ġdiscu ter
Ġmil i
Ġcli mat
Ġitali e
Ġn um
ĠrÃ© ag
ĠmÃ©d iter
Ġapp are
Ġsec onde
Ġintrodu ction
Ġstructure ls
Ġrais onn
Ġ19 8
Ġisra Ã©li
Ġl ois
Ġpour rions
Ġnu it
n aire
ar ti
Ġon u
Ġhum ain
ĠrÃ©f lex
Ġmala dies
it ations
Ġpa kistan
Ġj o
Ġo tan
Ġpu issance
ĠÃ©lect ora
ĠÃ©vid ence
Ġr o
tr on
Ġ200 6
ĠrÃ©alis Ã©
Ġinsta l
k i
Ġde me
ur ation
our g
Ġv ise
Ã¨ ces
ta l
Ġconn u
Ġpro cÃ¨s
Ġprincip alement
Ġ201 0
Ġfaud rait
Ġar mÃ©e
Ġlim ites
Ġg auche
Ġoc cu
Ġpouvoir s
Ġinaccep table
Ġma i
ĠÃ©tu des
in tes
ĠmÃ©dica ments
Ġdiscri mination
k a
Ġc oura
Ġra l
Ġop Ã©ration
Ġcha mp
ĠmÃ©diter ran
Ġpo i
ĠâĢ Ŀ
ĠrÃ©gion ale
Ġfondament al
Ġcher che
Ġma tÃ©ri
Ġd an
Ġp es
Ġutilis Ã©
Ġimpos er
ĠimmÃ©dia tement
Ġ 0
Ġcompr en
ĠmÃ©r ite
Ġl it
ĠÃ©c la
Ġeff ort
Ġph Ã©n
Ġencoura ge
Ġpol lu
Ġc Åĵur
Ġper d
ĠfÃ© d
Ġdire ct
Ġalle z
r on
Ġso ins
Ġsou mis
Ġatti rer
Ġsurve illance
si vement
ĠrÃ©se aux
ĠphÃ©n om
ĠmÃ©th ode
ĠbÃ¢ ti
Ġac teurs
Ġsoulign Ã©
Ġpour ront
Ġca tÃ©g
ĠdiffÃ©r ence
Ġv aut
Ã¨ nes
Ġjuridi ques
a ma
Ġp orter
de z
Ġpales tin
r os
Ġser vir
Ġcer ve
Ġat tent
ĠprÃ©v oit
Ġta x
Ġasi le
Ġpie d
b res
Ġ1 3
ĠstratÃ© gique
Ġlang ue
Ġd anger
Ġqu o
ĠrÃ© vÃ©
Ġins c
Ġha usse
Ġrep ro
Ġpromo tion
Ġc rain
Ġra c
Ġpres se
Ġpopu laire
ĠprÃ© vention
cep ti
Ġsta tis
Ġpar lons
Ġmo indre
Ãª tre
mi ques
itÃ© e
ĠprÃ© t
Ġta ille
Ġang lais
ĠrÃ©v olution
Ġchiff res
Ġb out
Ġrec ours
m Ã©s
ĠâĢ ľ
Ġenga ger
Ġconcep t
Ġqu it
Ġdev ait
Ġchar ge
au ff
Ġbi ais
ĠarrÃª ter
Ġv al
Ġv ing
Ġexis tence
Ġtrib un
p Ã©
Ġti ent
Ġfin al
Ġinsu ff
ti me
Ġesp agne
g o
Ġvi ens
Ġat ten
Ġterror istes
ĠdÃ©fini tion
Ġpopul ations
Ġl our
Ġter rain
Ġv Ã©ri
Ġesp agn
Ġaur ont
ĠdiffÃ©r ences
Ġc lÃ©
Ġch an
Ġte x
Ġmain tien
Ġsatis fait
our ir
ĠrÃ© el
Ġhuman itaire
g en
Ġass u
Ġcel lu
Ġsim il
Ġv illes
Ġcon for
ĠtÃ©lÃ© ph
Ġsouten u
ĠrÃ©ser ve
ĠsupplÃ©ment aire
Ġlim iter
Ġtent a
Ġpro che
Ġh yp
Ġpropos er
ĠprocÃ© der
Ġgaranti e
ĠcrÃ© Ã©
Ġprof it
Ġcri tiques
Ġoubli er
Ġlog ique
Ġcap able
Ġsemb lent
ĠrÃ© elle
olog iques
ti ni
in t
Ãª t
Ġcommun es
Ġpremi Ã¨res
Ġessenti ellement
Ġproch aines
Ã© v
Ġde vez
ili ation
in aire
Ġfor mes
Ġaccro Ã®tre
Ġp ire
ĠdÃ©c ouver
Ġharmon isation
ĠdÃ©fin ir
Ġjeun e
Ġgouvern ance
Ġpoi ds
Ġcor ruption
l ations
la s
Ġdev ient
ĠÃ©ch anges
or de
Ã¨ que
Ġpar ents
ch Ã©s
Ġent rer
auc ra
Ġaur aient
Ġsubs t
Ġau prÃ¨s
ch ant
Ġmen ac
Ġna v
Ġconvain cu
Ġinf lation
e urs
Ġbure aucra
Ġconcent rer
Ġb aisse
Ġminu tes
Ġs ources
ĠdÃ© char
ue llement
fi Ã©s
Ġhist orique
cti fs
Ġass istance
ĠconsidÃ©ra ble
Ġoblig ation
Ġenqu Ãªte
Ġt ab
Ġrec ons
Ġhau te
Ġremar que
Ġmu tu
Ġb u
Ġ1 4
Ġsec ond
Ġcapit aux
Ġb ul
Ġma ssi
Ġcon tient
Ġacc us
Ġvis ite
Ġjan vier
Ġc ouv
Ġs tim
ti ci
Ġr u
ĠrÃ© action
che ment
Ġquel s
alis er
Ġappro f
Ġdocu ments
Ġreconn aissance
j u
ĠcontrÃ´ les
Ġgard er
Ġpl ans
Ġmus ul
Ġinter diction
Ġcommunau tÃ©s
Ġanal ys
Ġinfrastru ctures
o x
Ġd ra
Ġessenti elle
Ġple in
ro g
Ġam i
ĠprÃ©v u
Ġin uti
Ġexp erts
Ġinv ite
n Ã©s
Ġmoy enne
ĠrÃ©ser ves
qu Ã©s
is i
ĠÃ©le c
ĠprÃ©cÃ© d
Ã© c
Ġl ire
o d
va teurs
onc Ã©
Ġcoh Ã©r
Ġlet tre
Ġ '
Ġh Ã´
ĠÃ©tudi ants
Ġpremi ers
lu sion
ne l
Ġter miner
og ne
Ġsouhait ons
ĠmÃ©canis me
Ġappr is
Ġexcel l
Ġsal ue
Ġtrava ille
Ġprof onde
Ġdivers itÃ©
Ġcomplex e
Ġendro it
p ond
Ġp me
ĠdÃ© li
Ġins ister
Ġreven u
Ġnour rit
l Ã©es
Ġfait e
ĠrÃ©p ond
Ġdimin u
b ie
Ġr ig
Ġvoy age
h ors
Ã¨ tres
iss ait
Ġconfront Ã©s
ĠcaractÃ© ris
l oir
Ġdiffic iles
Ġch ances
ĠcrÃ© dits
Ġform ul
Ġdist ribu
m Ã©es
Ġ1 7
ĠintÃ© res
ĠsÃ© ance
ĠdÃ©pu tÃ©
Ġs lo
ma s
Ġregard er
Ġ200 5
ĠrÃ©pons es
Ġliber tÃ©s
Ġsug g
Ã© hen
Ġv ac
Ã©r itÃ©
Ġres tent
Ġcompr Ã©hen
Ġaur ais
Ġaliment aires
ĠbÃ©nÃ©fici er
Ġfa s
Ġemp r
Ġa p
Ġs pe
Ġconstitu er
ĠgÃ©nÃ©ra lement
Ġappro vision
Ġsuff it
ĠcontrÃ´ ler
b a
Ġpa y
ve mbre
Ġces se
Ġdire ctives
Ġag end
Ġconsid Ã©rer
Ġva ri
ĠrÃ©flÃ©ch ir
Ġpro ven
Ġtra fic
con que
Ġsou d
Ġban c
Ġma ins
Ġpos s
Ġautre ment
i ger
it ant
Ġv ir
Ġb ons
Ãª tes
Ġloc ales
Ġcomporte ment
Ġno vembre
Ġanci en
Ġobten u
or k
ĠÃ© th
Ġmulti p
Ġfil m
Ġt yp
Ġf ou
la ient
ĠdÃ©fic it
Ġ ul
Ġs il
m ande
Ġpr ud
Ġal lÃ©
Ġtrans form
ĠdiffÃ©r ente
Ġparal lÃ¨
ĠÃ ®
Ġinter prÃ©
Ã©n ie
ĠÃ©le vÃ©s
Ġde hors
ti di
Ġv enu
Ġr Ãª
Ġma xim
end um
Ġca us
Ġ1 6
Ġsom me
ĠÃ©tr anger
ĠrÃ©uss ite
te au
Ġparlement aires
Ġpla is
Ġcircons tances
Ġli Ã©es
Ġvi vent
Ġder riÃ¨re
Ġsci ence
m or
re use
ĠdÃ© tru
Ġis lam
Ġouv rir
Ġsin c
in te
Ġcon ver
hi cu
Ġagend a
Ġmo bil
Ġinc roy
ĠvÃ© hicu
k o
se ur
Ġstru ctures
ĠtÃ© m
Ġaccomp li
ĠextÃ© rieur
Ġv iennent
Ġdis ent
Ġsta de
Ġerre urs
Ġd yn
Ġf rÃ©
Ġir rÃ©
Ġno te
Ġrela tif
Ġrou manie
Ġsuiv ante
Ġc ouver
ĠÃ© tique
Ã©r ant
Ġcla sse
Ġbudge ts
Ġche fs
Ġaut ri
ĠdÃ©lÃ©g ation
Ġh onn
Ġcons oli
ni es
Ġlim ite
Ġenvis ager
il li
Ġre tra
Ġrapp ro
Ġcompr ends
ig nement
y ez
Ġch rÃ©
Ġh y
ĠrÃ©alis ation
Ġremar ques
Ġ200 3
Ġoff rir
Ġpati ents
Ġvou lais
Ġaur ons
ti ens
Ġt ol
Ġsu jets
lic ations
Ġprom es
Ġvois in
ĠtroisiÃ¨me ment
ĠcompÃ©ten ce
t t
ro c
Ġper dre
Ġcommerci aux
pa rer
Ġ â
Ġre li
Ġcent aines
ront ali
Ġquo tidi
o te
ch i
ille t
Ġrepr ises
Ġtransf rontali
v il
Ġreconn aiss
Ġmodi fier
Ġforte ment
Ġcatastroph e
Ġin t
Ġlan cer
Ġobli ga
Ġrecommand ations
Ġpri vÃ©
Ġsus c
ĠdÃ©ter miner
Ġsep t
Ġb ient
Ġouver t
Ġbient Ã´t
Ġau para
ĠmÃ©th odes
Ġaupara vant
l oy
Ġdro ite
tis ation
c om
Ġb ri
Ġpense z
ĠvÃ©r itablement
ĠcoÃ» te
Ġrep os
Ġvoy ons
Ġcher cher
Ġtran si
ĠrÃ©fÃ©r endum
Ġapp elÃ©
Ġcentra les
Ġmodi fication
Ġcorres pond
Ã¨ ve
Ġdi eu
ĠÃ©v al
Ġintrodu ire
Ġfisc ale
Ġving t
Ġc ra
Ġeff or
Ġouver te
Ļ «
Ã© ro
ĠcrÃ© dit
Ġvo ire
Ġprop or
ag ers
Ġlan gues
Ġcorre ctement
Ġpaci fique
le ur
ue lles
Ġconcern Ã©s
Ġche f
Ġme illeurs
Ġrapp elle
Ġob ama
Ã§ ant
Ġsouti ent
Ġarri vÃ©
Ġconcr Ã¨tes
Ġoeu vre
Ġfa sse
Ġbe au
Ġ199 9
Ġtrouv ent
c ter
en ci
Ġdis ant
Ġdyn am
Ġinter venir
Ġprot oc
Ġache ter
Ġempr un
Ġh or
Ġmin oritÃ©s
Ġcommerci ales
Ġdispos er
Ġ6 0
ĠmÃ©canis mes
Ġexpor tations
ĠÃ©lec tron
i le
Ġqu ota
Ġh ors
itoy ens
ĠrÃ¨g le
ĠÃ©lab oration
Ġgagn er
Ġsys tÃ©
Ġcan cer
Ġdispon ibles
ol ue
Ġmont rent
ĠsÃ» re
Ġciv il
Ġdange reux
Ġnourrit ure
Ġv ul
Ġma ch
de ment
Ġfonction ner
Ġefficace ment
Ġsubs tances
Ġstatis tiques
end ue
Ġmar che
ĠnÃ©goci ation
Ġextra ord
Ġla b
Ġconc itoyens
Ġmoyen nes
Ġfacil iter
y th
Ġr ob
ĠprÃª t
Ġf roi
Ġcomp ens
Ġchar te
Ġassoci ation
Ã©r Ã©es
ac tions
Ġter min
Ã§ u
Ġcor Ã©e
Ġdur Ã©e
Ġbi ens
tini ens
Ġe h
ĠÃ© par
Ġb Ã©
Ġgar de
Ġph ase
Ġradi c
Ġtrans for
Ġfondament ale
Ġglob al
Ġpales tiniens
ĠdÃ©char ge
Ġauxque ls
Ġf ille
Ġdemand es
ĠÃ©v olu
Ġw e
n Ã©e
Ġun s
Ġrapporte urs
ĠmÃ©di c
Ġfavor iser
Ġc ens
Ġremar qu
Ġchan gÃ©
Ġplais ir
Ġfinan cer
ros o
in Ã©
Ġin cap
Ġdemand ons
Ġbal k
Ġcerve au
Ġâ Ļ«
ur Ã©
Ã¨ se
la i
Ġcont raign
Ã» t
Ġsitu ations
Ġprincip ale
Ġexemp les
ĠfÃ©d Ã©ra
Ġch yp
Ġag issant
Ġcompr end
Ġth Ã¨me
Ġper tin
Ġver ts
Ġfam illes
Ġassur ance
Ġcoura ge
ces si
Ġres ta
Ġjourn Ã©e
ĠgÃ©n Ã©ration
Ġmili eu
Ġg o
Ġac te
Ġy ork
Ġpersonne llement
Ġver t
Ġconsomma teur
Ġjudici aire
Ġcon ne
Ġac cident
Ġsouli gne
ac itÃ©s
Ġpren nent
Ġmoder ne
Ġliv res
it ables
Ġdi cta
enti s
Ġfondament ales
ĠprÃ©ser ver
u le
n Ã©ra
Ġass is
Ġrus ses
ĠsÃ©rie usement
Ġin cer
ĠÃ©qu itable
ĠbÃ©nÃ©fi ces
ĠrÃ©gu li
Ġ200 1
Ġprof iter
tionne ls
Ġsau ve
ĠentraÃ® ner
Ġf e
Ġex tÃ©rieure
Ġag ences
ĠdiffÃ©r ent
Ġcap acitÃ©s
Ġrele ver
ĠintÃ© ri
Ġmarch and
Ġense ignement
Ġfaci lement
Ġsouver aine
Ġau s
Ġpl Ã©ni
Ġh andi
Ġsec rÃ©
Ġtota le
Ġtour isme
ĠdÃ©p as
Ġsus cepti
u sion
Ġmeille ures
Ġexpri mÃ©
Ġvul nÃ©ra
Ġf rais
Ġrepr ise
Ġrus se
Ġdispos ons
Ġpol ogne
Ġflex ibilitÃ©
Ġl ien
on ce
Ġsu Ã©d
Ġsou ci
Ġpu iss
Ġir landais
ĠphÃ©nom Ã¨ne
Ġtransi tion
ĠsuÃ©d ois
ĠrÃ© di
Ġaff ai
Ġhab itu
Ġexplo itation
ĠexÃ©cu tion
ĠrÃ©flex ion
ograph ique
ĠÃ©val uer
s ter
Ġactu elles
Ġprincip ales
o bre
Ġde mi
om be
Ġin jus
ĠÃ©ch ou
Ġref lÃ¨
ĠÃ©trang ers
land aise
Ġhabit ants
Ġoct obre
d ation
Ġmo de
Ġdis par
Ġmont ant
Ġconn aÃ®tre
Ġhon ora
r il
ti c
Ġpar c
Ġpor tÃ©e
Ġa Ã©r
Ġm ol
ra ge
Ġin Ã©g
ĠÃª tres
Ġcap ables
Ġcontribu Ã©
Ġbr Ã©s
Ġhandi cap
Ġcomp lÃ©ment
Ġses sion
Ġcomment aires
Ġconn aÃ®t
b Ã©
l en
u de
Ġf mi
Ġtravail lÃ©
Ġcr ises
Ġpens ent
Ġrela tivement
Ġrev ient
p es
ĠrÃ©p Ã©
Ġbalk ans
Ġra sse
ĠreprÃ©sent ant
Ġ8 0
Ġs h
is Ã©s
Ġfa cteur
Ġfa cteurs
ĠÃ©g yp
Ġinvestisse urs
Ġidenti tÃ©
Ġorgan es
Ġregarde z
ĠprÃ©para tion
ĠrÃ©s ul
Ġcin qu
atri Ã¨me
onn Ã©
Ġsc Ã¨ne
Ġdivers es
ĠopÃ©ra tions
c ro
Ġqu atriÃ¨me
Ġt end
Ġt ourn
Ġvou loir
Ġaccep tÃ©
ĠlÃ©gisla tif
g ouver
Ġre join
Ġacc r
Ġinter d
Ġvi ande
Ġman ger
Ġprogres ser
re uses
Ġapprovision nement
Ġau di
Ġposi tions
Ġinves tir
Ġaccomp agn
Ġvas te
Ġobsta cles
m ar
Ġpossi bles
Ġdou ble
Ġ20 20
ĠtÃ©lÃ© vision
Ġprotoc ole
ĠprÃ© a
Ġessenti els
Ġbil atÃ©ra
Ġambiti eux
t oires
Ġcri min
Ġmaj eure
Ġm ises
Ġcal end
ĠrÃ©s olu
Ġapp lique
ĠplÃ©ni Ã¨re
gouver nement
re tte
Ã¨ ge
ĠdÃ© lai
Ġtr ou
Ġcommun i
Ġavan tage
Ġexer cer
re ts
ta gne
gn er
Ġfr ont
ĠÃ©le cteurs
Ġsub ventions
Ġvou lu
ct oire
Ġcar te
Ġ200 2
Ġin g
ĠdÃ© t
Ġdit es
Ã©rie ur
Ġattend ons
ĠconsidÃ©ra bles
Ġimmi gr
Ġf o
ĠrÃ© ta
Ġcommerci al
Ġcomp a
Ġper te
Ġense ign
Ġinten si
Ġblan c
g rer
ur ant
Ġcondu ite
Ġus age
Ġhu it
Ġquanti tÃ©
Ġintel lig
c tes
f e
Ġres t
Ġab us
Ġquota s
Ġg Ã©rer
Ġsa vent
vi end
Ġcruci al
Ġt ch
Ġma tiÃ¨res
ĠdÃ©p lo
ĠamÃ©li or
Ġchois ir
ĠbrÃ©s il
ĠÃ©tab lissement
Ġenvis age
t ch
si di
fi Ã©es
Ġsui vant
Ġtent er
g iques
it ons
Ġla tine
te lle
Ã©r ance
Ġpri vil
Ġappr ouver
Ġuni verse
m ans
Ġm ic
Ġb les
ric itÃ©
Ġimag iner
ĠcrÃ©di bilitÃ©
is Ã©e
Ġfer mement
m ont
Ġuti lise
Ġorient ations
Ġcondu it
Ġcompagn ies
l it
te z
Ġsa la
Ġcomp ter
Ġbre tagne
Ã ¡
ĠÃ© tions
Ġ2 1
ĠconsidÃ©ra blement
an e
Ġre jet
ol Ã©
ĠrÃ©du it
Ġfam ili
Ġbre ve
b ation
Ġun itÃ©
Ġcri mine
an a
ĠrÃ¨glement s
Ġraisonn able
Ġinsuff is
a de
ĠprÃ© par
Ġar tis
Ġf lo
Ġch ale
Ġco de
Ġopportun itÃ©
ĠmÃ©de c
Ġa mple
ĠprÃ© parer
Ġinter gouvernement
Ġvoit ures
Ġsc and
ĠcomplÃ¨ te
ĠÃ©vo quÃ©
Ġcellu les
ti es
Ġali ments
Ġus a
r ite
Ġf ins
Ġv ra
Ġsu Ã¨de
Ġparlement s
Ġjus tement
Ġcour ant
Ġpermet tent
Ġl in
Ã¨ vement
Ġil lus
Ġmo des
ĠÃ©tudi er
ĠÃ©lect ricitÃ©
Ġacqu is
Ġargu ment
i a
Ġe aux
Ġsub sidi
Ġjou Ã©
Ġpara Ã®t
m itÃ©
Ġe l
Ġag gra
Ġmodi fications
tien nent
Ġprosp Ã©ritÃ©
h n
Ġam ster
Ġutilis Ã©s
Ġactu els
Ġmoder n
Ġindivid us
Ġamster dam
Ġsus p
ĠÃ©nor mes
Ġl ux
Ġs ang
Ġcont en
va ge
Ġexist ent
prÃ© sid
Ġd en
an im
Ġfinan ces
Ġpuis qu
Ġsy mb
n ant
Ġs tri
ĠrÃ© cession
at h
Ġtravail lent
ĠsÃ© v
Ġcri mes
cid ents
Ġpos te
Ġenvoy er
Ġconsulta tion
Ġb our
Ġcombat tre
Ġa jus
ĠrÃ© sid
Ġre lÃ¨ve
Ġbar roso
Ġcontraire ment
Ġadap ter
Ġgre c
Ġbul ga
Ġc u
is tr
un e
Ġb ois
Ġpers onn
ĠintÃ© grer
ĠdÃ©ta ils
d itÃ©
Ġi i
tte ment
Ġgaranti es
ĠrÃ©gi mes
Ġrur al
Ġdi v
Ġcitoy en
Ġqua si
Ġcla ri
Ã©qu ili
Ġposi tifs
Ġlan cÃ©
Ġay ons
Ġsatisf ais
Ġample ur
Ġju illet
ĠdÃ©cen nies
d is
Ġp s
Ġv endre
Ġsur f
Ġimp ose
Ġ2 7
ĠrÃ©c ente
Ġbritan niques
Ġv il
Ġcont ent
ĠdÃ©f a
ĠÃ©lab orer
Ġestim ons
Ġcalend rier
Ġv ites
ĠprÃ© ju
Ġav ril
ro vi
ĠsÃ© par
Ġim m
Ġlaisse z
Ġb lo
Ġpla Ã®t
ĠÃ©ch app
Ġfu ture
ĠvÃ©hicu les
Ġh er
cti vitÃ©
Ġinter ven
Ġmention nÃ©
Ġmari time
Ġiss ue
anim itÃ©
Ġcon join
Ġtr u
Ġter ri
Ġhuman itÃ©
Ġrece voir
Ġphy sique
Ġrasse mb
Ġsubsidi aritÃ©
Ġet h
Ġanci ens
Ġrepro du
Ġp pe
qu ant
Ġins p
tis me
Ġnature lles
ĠrÃ©c la
Ġpratique ment
Ġextraord inaire
i gne
Ġme x
Ġvi eux
dÃ© ment
Ġvo tes
Ġso vi
Ġk y
ĠdÃ©f aut
Ġmu sique
Ġet c
Ġent a
ĠdÃ©c ou
Ġcy cle
Ġprofon dÃ©ment
Ġassu mer
qu Ã©es
Ġter res
Ġindi quÃ©
Ġur b
Ġfig ure
Ġcrimin alitÃ©
is Ã©es
Ġt un
Ġvou lait
Ġsy mp
Ġpren ons
Ġoccident aux
Ġchois i
Ġparven us
Ġouti ls
Ġapprof ond
Ã© re
la tÃ©ra
Ġmo bilitÃ©
Ġdev rons
Ġat tra
Ġgar an
Ġportug al
Ġin telle
ĠdÃ© lais
ch auff
Ġfer rovi
Ġ19 7
Ġver sion
Ġavan cÃ©es
ĠÃ©cou ter
Ġalli ance
Ġlux e
Ġsa ur
Ġser ons
Ġfin i
lic ite
Ġreg rette
Ġfra ude
ĠÃ©t endre
Ġcondu ire
Ġbre f
Ġcop en
Ġcarb one
Ġtab ac
c la
h ou
Ġvi es
Ġcr Ã©e
mis tes
ĠrÃ©gion al
ĠÃ©vo quer
ĠgÃ© or
Ġcha Ã®
Ġpass agers
Ġret rait
Ġral enti
os s
Ġtou che
Ġpollu tion
Ġc iter
Ġqu in
ve ille
Ġcha mbre
Ġphot o
Ġtyp es
Ġm ur
si de
Ġb os
Ã´ ts
ha gue
Ġmaje ur
Ġcopen hague
Ġpr Ãªte
Ġli c
Ġinc lure
Ġorganis er
Ġfavora bles
Ġsi gne
Ġaut onom
Ġvi ce
Ġessay Ã©
ĠarrÃª t
Ġsouten ons
Ġdeven ue
Ġc l
Ġg e
Ġsp ort
Ġpuis sions
Ġappor tÃ©
Ġintelle ctu
Ġs ent
Ġav Ã¨re
Ġbien ven
Ġcla ires
Ġpermet trait
Ġconcern Ã©es
Ġur gent
ĠthÃ© orie
ĠdÃ©s as
Ġann uel
ĠÃ©le ction
Ġorganis mes
Ġcommerci ale
m ise
Ġl ou
Ġl ond
en gen
Ġt ort
Ġappro bation
Ġcri me
ĠmÃ©di ateur
Ġfut ures
Ġrencont rÃ©
Ġsch engen
Ġsuppri mer
ĠrÃ©ta b
ĠdÃ© ga
ĠcrÃ© a
Ġsta bil
Ġatt ribu
Ġfais ait
ĠindÃ© pendant
ĠexpÃ©ri ences
Ġexcep tion
Ġrenouve lables
Ġun animitÃ©
Ġvi dÃ©
ora tions
Ġsouhait ent
Ġimpor tations
Ġon g
ĠdÃ©c isi
Ġaur ions
Ġ5 00
Ġcri ti
Ġculture lle
ch Ã©e
Ġre van
Ġo cÃ©
Ġlaiss Ã©
Ġconcep tion
Ġcontinu ent
Ġsoci aliste
Ġph ra
e uses
Ġpour riez
ĠÃ©c oles
Ġ2 4
ĠrÃ©p er
Ġfl ux
Ã©c onom
Ġpar v
Ġg ui
mb our
Ġ7 0
ĠinquiÃ©tu des
Ġpalestin ien
5 0
Ġren v
Ġim mo
Ġ199 8
ĠextrÃª me
Ġara be
Ġretr ouv
s b
t ur
Ġc ub
Ġs tu
Ġapp orte
ric tions
Ġsupp os
Ġpi Ã¨ce
Ġalterna tive
Ġmo tiv
Ġli ens
Ġper form
ĠgÃ©n Ã©tique
Ġcommiss aires
Ġta xe
ĠrÃ©un ions
Ġminim um
Ġrevan che
Ġaccep table
ĠrÃ©alis Ã©s
Ġdifficul tÃ©
Ġpropri Ã©tÃ©
ti ers
Ġn oir
ĠdÃ© g
Ġpropos Ã©s
Ġrep ose
Ġje ux
Ġar t
Ġdisp ara
Ġfourn it
Ġjapon ais
Ġsol da
Ġ9 0
Ġfab ric
Ġac tifs
ĠprÃ©sident s
Ġprob able
Ġcan a
ĠprÃ©occup ation
Ġretra ite
o w
ci eux
Ġcha pit
g ents
k e
Ġm Ã©n
Ġin Ã©v
Ġsou p
ĠdÃ©c ouv
dÃ© m
Ġang le
Ġadres se
i ers
ĠÃ© lu
Ġch ute
ĠrÃ©p arti
Ġcapit ale
lan tique
Ġsau ver
Ġradi o
ĠextÃ© rieures
Ġparta ger
Ġb ce
Ġpro tes
Ġex iger
Ġar ch
ĠrÃ©g ler
Ġesp Ã¨ces
ĠrÃ©gion ales
Ġcatastroph es
Ġtemp ora
Ġargu ments
Ġreli gie
Ġrela tifs
Ġanci enne
Ġapprouv Ã©
Ġt or
ta ient
Ġav ance
Ġhum aines
Ġmulti latÃ©ra
Ġhyp oth
Ġrecons truction
ĠprÃ©c ise
un i
Ġaff i
Ġpens Ã©
Ġpublic itÃ©
ĠrÃ©pon du
Ġposs Ã¨de
c us
Ġpr ie
Ġarri Ã¨re
Ġrecher ches
Ġrou ge
Ġlim itÃ©
cu le
Ġatta quer
Ġrecommand ation
Ġordin ateur
Ġle ad
ĠprÃ© venir
Ġcommun s
Ġple ine
Ġpreu ves
li e
ĠrÃ© chauff
Ġcons ul
ĠnÃ©cess ite
Ġform uler
Ġauxque lles
cep tion
Ġenvironnement ale
Ġunivers itÃ©
Ġora teurs
Ġprofessionne lle
Ġlead ers
Ġca uses
Ġenreg istre
Ġmarchand ises
Ġp il
Ġso yons
Ġinter ventions
ĠamÃ©li orations
Ġnature l
Ġconsci ents
Ġloc aux
Ġdes c
ĠdÃ©p loy
Ġpropos Ã©e
Ġpass age
ĠfranÃ§ aise
Ġdynam ique
Ġsur mont
ente ment
Ġviol ations
Ġcal cul
Ġchiff re
ĠinquiÃ©tu de
Ġdeme ure
l ine
Ġm orts
Ġag issait
Ġpens ais
Ġtechnolog ique
Ġappel er
Ġaccr ue
Ġbulga rie
ri ces
Ġh Ã©r
Ġy ou
Ġconc iliation
Ġal b
ĠdÃ©p it
on dre
Ġac tive
Ġpo lon
Ġesp Ã©rer
Ġconsid Ã©rÃ©
Ġrest rictions
Ġdes truction
Ġb ir
Ġpour suite
Ã©ri que
ĠmodÃ¨ les
Ġsala ri
Ġd on
ĠamÃ©ric aines
ot o
Ġmusul mans
ĠsystÃ© matique
ĠaÃ©r op
Ġlond res
g os
Ġmar que
Ġconsta te
ĠrÃ©ag ir
Ġexcell ente
Ġspe cta
Ġqu ar
ĠdÃ© lic
ĠÃ©ner gies
Ġhabitu de
v rier
op Ã©
ne lle
Ġfa ute
onn Ã©e
Ġli qui
Ġfin ir
ĠnÃ© er
Ġvi v
Ġprob lÃ©
Ġsupp ose
Ġendro its
a Ã¯
tru ct
Ġappr ouve
Ġarri vÃ©e
ĠfÃ© vrier
Ġfonction naires
Ġemb ar
l y
Ġb loc
Ġapp ort
Ġper tes
Ġver tu
Ġresse mble
Ġnav ires
Ġen j
Ġre mettre
os ph
Ġdev iennent
Ġapp ui
Ġk il
Ġenvironnement ales
Ġph il
Ġju ge
Ġneu f
ĠcomprÃ©hen sion
Ġb ord
Ġbi o
Ġparten aire
es p
Ġexpor tation
Ġps y
Ġpour rais
Ġma th
Ġch au
Ġapp lic
Ġass ass
Ġreconn u
Ġattend ent
ĠtÃ¢ ches
Ġconvainc re
Ġoccu per
Ġm ent
ch ons
Ġaffir mer
Ġremarqu able
gn itÃ©
ĠprÃ©sent s
Ġaugment Ã©
Ġrencont re
Ġindustri elle
Ġimag ine
Ġappropri Ã©e
Ġpaie ment
Ġl o
tr ont
ĠdÃ©bat tre
Ġress ort
Ġ199 7
Ġmention ner
ĠdÃ©couver t
Ġsouveraine tÃ©
ie l
Ġimp liquer
Ġpri or
Ġign or
Ġcul tures
Ġm ou
ĠintÃ© rieures
Ġplan i
ill ir
ĠÃ©nergÃ© tiques
Ġfix er
ĠdÃ©pos Ã©
Ġsyn di
Ġsubst anti
Ġh i
Ġdi gnitÃ©
Ġal lou
Ġexp lique
Ġpouv aient
ĠdÃ©ter mination
Ġexclu sion
Ġespagn ol
Ġpa pi
ĠÃ© pi
Ġcont es
Ġcont act
Ġinc ont
ĠpÃªche urs
ĠlÃ©gisla tives
Ġresse mb
ĠparallÃ¨ lement
Ġintergouvernement ale
ĠdÃ©sas tre
Ġpres sions
Ġhon te
Ġf illes
Ġf ils
ĠÃ© mo
Ġpri vÃ©e
Ġindi que
ĠnÃ©g li
Ġviol ation
Ġpaie ments
Ġrelig ion
t ante
Ġc lÃ©s
Ġde grÃ©
Ġimp Ã©ra
Ġsa laires
Ġheure usement
Ġavan cÃ©e
Ġ199 0
cri ption
Ġconnais sent
ĠsecrÃ© taire
n u
ĠprÃ©sid enti
Ġdis ait
Ġvi a
Ġpers u
vers aire
Ġinfor mer
Ġhonn Ãªte
Ġmen aces
Ġatta que
ĠlÃ©giti mitÃ©
Ġo k
Ġser bie
Ġal lait
ĠsÃ© le
ĠaÃ©ri en
Ġadres ser
Ġconnaiss ons
Ġvites se
sb ourg
Ġarch ite
en nent
Ġg ri
Ġav i
ĠdÃ©s Ã©quili
ĠprÃ©c iser
Ġsoli de
Ġmer veille
Ġfond Ã©e
Ġrempla cer
t ants
si f
iss on
oy er
Ġcol on
Ġsimp les
Ġatta ques
ĠhÃ´ pit
ĠinterprÃ© tation
ĠÃ©tique tage
a der
Ġp Ã©r
si as
Ġpro di
ĠdÃ©c lin
Ġpri vÃ©s
Ġutilis Ã©e
Ġcor ri
Ġress or
Ġpi er
Ġremar quer
Ġaliment ation
Ġaccue il
ĠÃ©c ar
Ġad mettre
Ġmin ute
Ġafric ains
Ġsinc Ã¨rement
ĠchrÃ© tiens
Ġtransfor mer
Ġs ain
Ġb la
Ġdom in
Ġadop tÃ©es
Ġorganis Ã©
ĠadÃ©qu ate
Ġfab ri
Ġb ro
oi vent
Ġmilli on
Ġgaz a
Ġenreg istr
Ġtenta tive
m ant
Ġf re
ĠrÃ© side
Ġmo teur
Ġso le
Ġfin ance
Ġcro issante
Ġconcern ent
Ġextr Ã©
Ġchyp re
Ġsurf ace
Ġpour su
ĠdÃ©b ou
ĠdÃ©f end
ĠgÃ©nÃ©ra tions
Ġrev Ãªt
Ġdestin Ã©es
Ġappar tient
Ġcoh Ã©rence
Ġouti l
Ġhonora ble
ĠrÃ©pÃ© ter
Ġv e
Ġent hou
Ġvi ctoire
Ġenthou sias
ur ants
Ġma gn
Ġconc rÃ©
alis Ã©s
Ġinf ra
Ġpris onn
Ġtomb er
ĠdÃ©mar che
Ġattent es
Ġky oto
Ġpar oles
Ġb elle
Ġcro y
Ġw al
Ġfron tiÃ¨re
Ġretr ouver
ĠcohÃ©r ente
n Ã©es
ĠÃ ¨
Ġin vent
Ġb ais
Ġli Ã©e
Ġam our
Ġpropos Ã©es
Ġmaxim um
Ġobliga toire
ĠgÃ©or gie
ĠrÃ©per cus
Ġou est
Ġtrans mis
Ġima ges
ĠlÃ©gisla tive
Ġbri Ã¨vement
i de
Ġb ras
Ġav ion
Ġmondi aux
ari tion
Ġha mas
Ġvoisin age
Ġs alu
Ġle Ã§ons
Ġex ten
Ġra cont
Ġcont ro
ĠrÃ©s olutions
Ġcro a
ĠrÃ©glement ations
Ġexist antes
ĠmÃ©diterran Ã©e
Ġimmo b
us s
Ġrepr endre
Ġsovi Ã©tique
Ġcomp ara
Ġconstitu tionnel
Ġdestin Ã©s
Ġopin ions
Ġsen sible
Ġconser ver
Ġasi a
Ġrati fication
Ġfru its
en de
Ġsur vi
Ġpos Ã©
Ġhau teur
Ġsau f
eur opÃ©
Ġslo va
Ġincroy able
Ġsole il
2 00
r y
Ġpa tri
Ġma ga
Ġins pe
Ġri che
l or
Ġs co
Ġin h
Ġso yez
Ġpoli tici
Ġsign a
ĠpÃ© ti
ĠÃ©mis sion
Ġouv re
ĠdÃ©velopp Ã©s
ĠÃ©li miner
ĠreflÃ¨ te
m ises
or tÃ©
or ies
Ġf la
Ġex ter
Ġsi da
Ġexp lication
ĠprÃ©sent ation
Ġcla ssi
Ġutilis ent
Ġsupp ression
Ġcentra l
Ġinfrastru cture
Ġregret table
Ġinuti le
Ġsolda ts
Ġs ite
Ġen ne
Ġre qui
Ġtr om
Ġlib an
Ġinc ombe
Ġsuffis ant
Ġdimin uer
Ġreti rer
ĠrÃ©chauff ement
Ġfa r
Ġdev i
Ġintrodu it
Ġattend s
Ġinflu en
ĠintÃ©ri eure
Ġp om
ĠrÃ© a
Ġac cidents
Ġan ni
fi ci
Ġconseil s
ĠÃ©t onn
Ġst ric
i eux
Ġg ol
Ġac p
Ġimp Ã´ts
Ġdi z
Ġis ol
Ġsignal er
g uer
p ro
Ġd oc
Ġmet tent
Ġmen Ã©
Ġessenti elles
Ġbas Ã©e
ĠreprÃ©sent er
Ġchi miques
ĠentraÃ® ne
ĠbÃ¢ti ment
Ġt re
Ġfa ux
Ġdro gue
Ġrespe cte
Ġsenti r
Ġtransf ert
Ġaffe c
Ġinsc rit
Ġme ur
Ġmar ge
ĠdÃ©s esp
Ġopportun itÃ©s
ĠrÃ©percus sions
o k
Ġr yth
Ġno tion
Ġop tion
Ġmen Ã©e
Ġstra sbourg
Ġsouv enir
Ġhist oires
ĠÃ©ch Ã©
ĠprÃ©v ue
ĠcÃ´ tÃ©s
Ġrev oir
Ġven ez
Ġpou tine
ĠÃ©lectron ique
ĠÃ¨ re
Ġs ti
Ġv in
Ġre ten
Ġch oc
Ġinter mÃ©di
Ġtrans it
Ġinc l
Ġsign Ã©
Ġjusti fier
Ġconnaiss ances
Ġma sse
Ġsou mettre
Ġbanc aire
ĠrÃ©parti tion
Ġdes ign
Ġces ser
Ġser t
Ã©ra ble
Ġbas es
Ġrel ance
Ġexpri me
Ġgu Ã¨re
Ġenvoy Ã©
b it
ĠÃ© pr
Ġra vi
Ġappr entis
r omp
Ġch ien
Ġli Ã©
Ġaut o
ic ations
Ġcontrib ue
Ġindustri es
com mun
prÃ©sid ent
Ġav er
Ġaut oma
Ġutilis Ã©es
Ġaugment e
ob ile
Ġautom obile
ra di
Ġres truct
Ġins iste
ĠprÃ©sent Ã©e
Ġindi ca
Ġpris on
ĠprÃ©oc cu
Ġsort es
Ġadministra tives
ĠtÃ©lÃ©ph one
Ġvra ie
Ġla cun
Ġdev rais
Ġag isse
as h
Ġport ant
Ġsug ges
Ġmouve ments
Ġtribun al
ri Ã¨res
ĠlibÃ©ra ux
Ġsin on
Ġet at
Ġv an
Ġvi vant
ver bal
Ġheure use
Ġvoi ent
Ġappropri Ã©
ĠtÃ©m oign
Ġpropor tion
c y
Ġb le
Ġma s
Ġg la
Ã©r ences
ĠÃ©c ri
ga ge
Ġpri mor
Ġesp Ã¨ce
Ġsal le
Ġsouff r
Ġtch Ã¨que
Ġprimor di
Ġa x
os ti
Ġcomp let
Ġpens Ã©e
Ġpra ti
Ġpubli Ã©
ĠmÃ©diterran Ã©
Ġcont ac
Ġvi vement
dÃ© c
Ġlib res
Ġajou tÃ©e
Ġara bes
Ġdiminu tion
Ġquin ze
Ġcon grÃ¨s
Ġte d
alis Ã©
ĠmÃ© m
ĠdÃ©ci de
Ġaccomp lir
Ġnorm al
Ġenta mer
gos la
Ġar me
Ġ2 3
Ġcommun iste
mis me
Ġmen Ã©es
Ġcontinuer a
ĠÃ©qui val
Ġappara Ã®t
Ġjo hn
Ġyou gosla
o la
Ġn l
Ġac tivement
ĠÃ©c ologique
Ġdire cteur
Ġsoci alistes
ĠrÃ©p and
Ġci b
ĠstratÃ© gies
Ġcomb in
Ġscand ale
Ġa mp
il atÃ©ra
Ġr ue
us er
Ġcommis sions
Ġan ne
ien nes
Ġinter nes
Ġprodu ctivitÃ©
Ġconsid Ã©rons
Ġcontribu ables
ĠintÃ©gr Ã©e
Ġsignifica tive
Ġsimil aires
Ġapprentis sage
ur de
Ġpar is
Ġmo tion
Ġdis ons
Ġprin temps
Ġaff ront
Ġamen er
ĠÃ©tr ange
Ġfal lait
Ġeng end
Ġfour ni
Ġcroa tie
s on
li ons
Ġpas sion
ch a
Ġser ais
ĠrÃ©p u
ĠrÃ©p Ã¨te
tis er
lar us
Ġalle mande
Ġtrouv ons
ĠdÃ©fic its
Ġmach ine
a k
de au
ĠgÃ©nÃ©ra les
ĠrÃ©du ctions
tri ce
Ġvolont aire
Ġinsta urer
Ġprofes seur
Ġtes t
Ġreje ter
Ġinc on
Ġjou ent
ĠÃ©tab lis
Ġtour ner
ori z
Ġdistribu tion
w e
Ġh oriz
Ġtax es
Ġautri che
ĠrÃ©guli Ã¨rement
Ġpsy ch
Ġpapi er
g in
r om
Ġt chÃ©
Ġal co
Ġper Ã§
Ġvi g
Ġpos tes
Ġcoop Ã©rer
Ġprotection n
ograph ie
ĠrÃ©ussi r
ĠÃ©l oign
Ġconver gence
Ġv ent
Ġpo issons
lÃ¨ vent
Ġeff ondre
ĠdÃ©b ar
agn es
ĠspÃ©ci al
Ġ199 6
Ġorient ation
ĠsiÃ¨ ge
Ġferrovi aire
Ġv ente
ce voir
ter a
Ġh onne
Ġdis cip
ĠprÃ©v oir
Ġrencont rer
Ġinten tions
Ġaband onner
Ġobsta cle
Ġcra ins
Ġaffai b
ĠvidÃ© o
Ġryth me
Ã¨ le
ch Ã©es
os oph
Ġtra gÃ©
ist ant
Ġveu ille
Ġtent Ã©
Ġaffir me
ĠaccÃ© lÃ©
Ġcana da
Ġphil osoph
d ite
Ġl Ã©
Ġmon op
Ġdi vis
Ġseu les
Ġdemand ent
Ġculture l
Ġexist ants
Ġdiscri min
ĠÃ©troite ment
ĠprÃ©t end
ĠprÃ©a lable
Ġbles s
Ġc Ã©rÃ©
ĠdÃ©velopp Ã©
Ġeffectu er
ĠindÃ©pend ants
Ġp t
ĠdÃ©si gn
Ġemploy Ã©s
Ġf onc
la ud
Ãª ts
Ġcomp lÃ©
Ġdire cte
Ġfor um
Ġjus tif
on ie
Ġc lin
ta litÃ©
Ġb en
Ġfin lande
Ġop tim
Ġreconn aÃ®t
Ġtes ts
Ġciv ils
Ġexten sion
Ġt ox
si m
Ġau teur
Ġin a
Ġfor Ãªts
ĠnÃ©cessaire ment
Ġjeunes se
Ġorig in
Ġmanifes tement
Ġsup Ã©rieur
l ue
Ġad ress
Ġfor cÃ©
Ġenvironnement aux
Ġsec ret
Ġclair s
Ġambi tion
ĠproblÃ© matique
Ġv olu
Ġpo isson
ĠÃ©c rire
Ġcla use
Ġfer ont
Ġsec on
Ġriches se
ĠaccÃ© l
ĠdÃ©cen nie
Ġpromes ses
Ġpolon ais
le y
ir ent
ĠdÃ© ri
Ġcon Ã§
Ġacc orde
Ġdonn Ã©e
Ġ201 1
Ġsatisf aire
ĠvulnÃ©ra bles
Ġsurmont er
Ġanni versaire
Ġhonne ur
Ġvi vons
Ġsta ble
Ġautor isation
Ġparticip Ã©
Ġloc al
Ġdiscu tÃ©
Ġsoule vÃ©
Ġtex tes
Ġpour cent
Ġpoli ci
Ġad ul
ĠdÃ©p endance
Ġemp Ãªche
Ġdonn ent
ing ton
Ġremp lir
Ġrend ent
Ġproven ance
Ġan c
je un
ĠrÃ©gion aux
Ġabord Ã©
ĠindÃ©pend ante
Ġbureaucra tie
g ation
Ġl un
Ġp ilier
or iques
ĠprÃ© ven
Ġo ise
Ġsa c
Ġquel conque
ĠdÃ©si r
Ġpartis ans
e k
m osph
le urs
or g
Ġpr ends
ĠÃ©c os
tra tion
Ġress enti
ĠÃ©th ique
b on
d res
Ġm os
Ġun ilatÃ©ra
ĠÃ© radi
Ġ2 2
Ġcla r
Ġmin i
Ġba ta
Ġorganis Ã©e
Ġgra tu
Ġlan gage
ĠmÃ©r itent
Ġabou tir
y a
is tÃ©
ĠdÃ©c len
Ġab at
Ġfer ait
Ġorient ale
Ġsais ir
Ġpren ez
Ġfix Ã©
Ġpen cher
Ġsimpli fication
tiss ant
ĠÃ©cla ir
Ġdirect rices
Ġlib y
Ġcandida t
Ġtradi tion
ĠÃ©gyp te
ĠaccÃ©lÃ© rer
Â «
is tique
Ġat mosph
ĠprÃ©c on
ĠdÃ©mont rÃ©
Ġrur ales
Ġchale ure
Ġphra se
Ġdiz aines
Ġfonc tions
Ġe m
Ġm c
ĠrÃ© els
fi ant
Ġ199 5
Ġsy rie
ĠdÃ©pos Ã©s
Ġreje tÃ©
Ġalterna tives
ĠcatÃ©g orie
a ie
ch t
rie urs
Ġcent res
Ġexig ence
Ġidenti fier
Ġcomplex es
ĠÃ©par gne
Ġden rÃ©es
g h
r ange
li f
ire r
Ġdi rais
Ġso in
Ġutilis ant
Ġsemb ler
ĠÃ©lectora le
Ġprivil Ã©g
Ġchapit re
Ġm ine
as p
ĠstratÃ© giques
Ġterrit ori
ĠrÃª ve
Ġsauve g
Ġs ar
ĠrÃ© mun
ins titu
Ġexp an
ist ent
Ġport ent
Ġvit al
Ġrom s
ĠÃ® le
Ġtun is
Ġm Ã¨
ch ir
se urs
Ġh Ã©s
end ront
Ġca f
ud es
Ġvie il
Ġindi quer
Ġcontra ts
Ġconstru ctive
Ġjourn alistes
Ġsatisf action
Ġign orer
ĠapprÃ©ci e
Ġex ces
Ġinter ro
Ġinc omp
ĠnÃ©goci er
Ġmis sions
Ġprom is
Ġdispos ent
ĠintÃ©ress ante
Ġoppos er
Ġmutu elle
Ġmex ique
ĠchaÃ® ne
Ġl on
ĠÃ© lus
me urs
Ġfa im
Ġres tre
Ã® tr
Ġinves ti
Ġobser vateurs
Ġsuscepti bles
Ġalco ol
Ġav oc
Ġca mb
Ġpolitique ment
ĠgÃ©n Ã©
Ġta ri
Ġterrit oires
Ġconfir mer
ĠcaractÃ©ris tiques
m ain
Ġa lar
Ġqui conque
Ġpri vÃ©es
Ġreconn ais
Ġsuc re
Ġrev end
Ġsc Ã©n
ĠcÃ© lÃ¨
ĠdÃ©g Ã¢
dÃ©c ision
y c
ais on
Ġprodu isent
Ġfisc ales
ĠdÃ©fa v
Ġtempora ire
Ġc os
Ġa h
Ġan d
cu re
Ġco dÃ©cision
Ġinter institu
Ġann oncÃ©
Ġsouh a
Ġarti cles
ĠexpÃ©ri ment
Ġaccomp lis
Ġten sions
Ġoppos Ã©
ĠisraÃ©li ens
ĠscÃ©n ari
Ã ¼
la ges
Ġcons tamment
Ġbe larus
ĠÃ©quilib rÃ©
Ġc iel
an n
Ġv Ã©cu
Ġfin ale
Ġman ge
Ġaccep te
ĠrÃ©alis te
Ġrenfor cÃ©e
Ġstock s
Ġmassi ve
Ġtransform ation
in a
Ġr ang
Ġconc rets
Ġfi er
ĠrÃ©c entes
Ġanim al
Ġber lin
ĠdÃ©gÃ¢ ts
w an
Ġv ain
Ġex ister
Ġpouv ais
Ġvis age
Ġid en
Ġdou tes
Ġinsta r
Ġprisonn iers
ĠtchÃ© tch
es ti
Ġf urent
Ġen ce
Ġne ttement
Ġass ure
Ġw ash
Ġmanifes tations
ĠÃ©vÃ© nement
Ġprofessionne ls
Ġexpos Ã©
Ġinstal lations
Ġoccu pe
Ġcompren nent
a tes
m ons
Ġm it
Ġh ol
Ġac tif
di a
Ġcomp ar
mi di
Ġtrans at
Ġpla f
Ġna vi
Ġiniti ale
ĠvÃ©r itables
Ġ201 3
Ġdestin Ã©
Ġsal uer
Ġadap tation
Ġappare mment
Ġsugg Ã¨re
ĠfrÃ© qu
ĠocÃ© an
Ġexpan sion
Ġwash ington
Ã© m
Ġle Ã§on
Ġb omb
ri d
Ġpro ches
Ġtr oupes
for me
Ġgouvernement ales
ĠrÃ©c ent
Ġoct roi
Ġsensi bles
Ġbos nie
ti ez
Ġh as
Ġva gue
Ġcitoy enne
ĠdÃ©bat tu
Ġmondi ales
Ġorgan e
Ġbil an
Ġcompagn ie
Ġvir us
Ġj oin
ĠrÃ© ex
ĠrÃ©p ression
Ġtrans actions
Ġbon h
Ġabs ten
Ã¯ s
Ġexplo iter
Ġlit tÃ©ra
ĠdÃ©li b
Ġcinqu iÃ¨me
d ra
m aire
Ġs ites
ĠdÃ© v
Ġfa ill
Ġtra it
Ġimp u
Ġno ire
Ġar bit
Ġexp l
Ġseu il
Ġentrepr en
Ġguer res
Ġpass Ã©e
Ġsuffis ante
Ġappu yer
Ġm orte
end rait
Ġo h
ma ges
Ġposi tives
Ġobser vation
ĠbÃ¢ti ments
Ġpa c
Ġex cÃ©
mb ourg
Ġper pÃ©
titu des
Ġconsid Ã©rÃ©e
Ġconstru it
Ġfourn isse
Ġconven u
Ġbru it
e ff
an cer
Ġfort es
ĠaÃ©ri ennes
ĠÃ©quilib rÃ©e
Ġquotidi en
ĠsÃ©le ction
Ġpolitici ens
Ġ q
Ġin ex
ĠrÃ© cup
Ġra res
Ġpos sÃ©
Ġrepr is
ĠlÃ©g ale
Ġenga gÃ©
Ġpi Ã¨ces
Ġmora le
Ġcruci ale
Ġnum Ã©ro
Ġlin gu
Ġassass in
en ant
Ġre mÃ©di
Ġmo tifs
Ã©r ir
Ġacc um
Ġop ti
Ġess aie
Ġdange reuses
Ġdan ois
Ġcu is
l ers
m n
ĠdÃ© te
Ġsa laire
Ġser re
Ġag rÃ©
Ġmani p
Ġis la
ĠcompÃ© tent
Ġappar ten
Ġconcr Ã¨te
Ġconsac rÃ©
Ġperman ent
Ġfal lu
on y
Ġla it
Ġvi de
c ar
i d
te in
ĠdÃ© ten
Ġsa d
Ġuti les
Ġfut urs
Ġobser ver
ĠbÃ©nÃ©fici ent
Ġrece ttes
ĠmÃ©de cin
Ġrejoin dre
Ġeffondre ment
c re
p are
Ġexp licite
Ġfr Ã¨re
Ġdom mages
Ġfix Ã©s
Ġoccident ale
Ġpron oncer
Ġhong rie
Ġquit ter
Ġsimil aire
Ġstim uler
Ġsoud an
o tes
Ġl itu
Ġn ul
it ants
Ã¨ dent
Ġsur vie
Ġad h
ac c
Ġaccord Ã©e
Ġinc lu
Ġdou ani
Ġattein te
Ġcontribuer a
Ġrig ou
ĠnÃ©er landais
Ġstric tes
Ġclar tÃ©
s in
ve ux
Ġpu rement
Ã©ri eure
ĠrÃ©s istance
ĠprÃ©v oy
ĠreprÃ©sent ation
Ġcontribu tions
Ġven ons
ĠpÃ©tro li
Ġappropri Ã©es
ĠvÃ©ri fier
ĠÃ® les
Ġfroi de
Ġinjus ti
Ġmodern isation
i rait
v ations
Ġpa tient
Ġre mbour
Ġdev aient
Ġsa ou
titu tion
Ġop tions
Ġconsid Ã¨rent
Ġvoi es
ov ine
ĠconsidÃ©ra tions
Ġsor ti
ĠlÃ©giti me
b i
Ġn aissance
ĠprÃ©sent ent
Ġadop tÃ©s
Ġvis as
Ġind ire
Ġinstitu tionnel
Ġconsta tÃ©
Ġremercie ments
Ġunivers itÃ©s
Ġexclu sivement
ĠprÃ©cÃ©d ente
d Ã©e
an es
ĠdÃ© gra
ĠdÃ©c lar
um Ã©
Ġcli matiques
Ġst y
ĠprÃ©cÃ© demment
Ġmor ce
Ġkil om
i ce
Ġpr ouv
Ġf oi
Ġj ui
Ġch em
Ġca m
Ġpersonne lle
Ġabs olue
ĠprÃ©v ues
Ġprogres sivement
il lÃ©
Ġin verse
Ġma Ã®tr
ĠdÃ©b u
ĠdÃ©veloppe ments
Ġparticuli ers
Ġvis ent
Ġsouhait able
Ġref use
Ġten ue
ĠentraÃ® nÃ©
ĠnÃ©ga tif
Ġbonh eur
v ait
Ġm ens
Ġo g
oi gne
Ġme tte
ĠdÃ©c rit
rais on
Ġ19 6
Ġjourn al
Ġaffir mÃ©
Ġcomplex itÃ©
Ġcub a
jeun er
Ġc re
Ġent am
Ġco eur
Ġrec ourir
Ã¨g es
Ġlim itÃ©e
ĠrÃ©c ents
ĠÃ©t end
Ġbar riÃ¨res
Ġth Ã¨mes
Ġchacun e
Ġinde mn
Ġanti cip
Ġintel li
Ġappare il
Ġrac isme
Ġsil ence
le ts
Ġpr enne
Ġpr endra
Ġma cro
Ġcro issant
Ġdoi g
Ġconsci ent
Ġoubli ons
Ġdispon ible
Ġatten tivement
ĠprÃ©cÃ©d ents
Ġincer titude
Ġmath Ã©
h u
Ġad hÃ©
Ġmin oritÃ©
ĠillÃ©g ale
Ġpromes se
Ġbienven ue
Ġrequi ert
ĠremÃ©di er
Ġt ar
or ge
ul Ã©
sie z
Ġprop ag
Ġag res
ĠdÃ©mocra ties
Ġsoutien nent
Ġinv iter
ĠsÃ©rie use
ĠÃ¢ gÃ©es
Ġeffectu Ã©
Ġappliqu Ã©es
ĠaccÃ© der
Ġphot os
Ġallemand s
lif Ã©ration
acc ord
Ġdev riez
va ient
Ġfon de
Ġinc lusion
Ġbas Ã©
Ġmauvais es
Ġperman ente
Ġdistin ction
Ġsubst ance
ĠinÃ©g alitÃ©s
ĠmÃ©m oire
ĠtragÃ© die
h o
o ie
z y
Ġc raign
Ġle ver
ĠrÃ© in
Ġdu re
va s
Ġlib Ã©ration
Ġgar Ã§on
Ġinstitu tionnelle
Ġenga gÃ©s
ĠcÃ´ te
Ġconfor me
Ġtenta tives
Ġcommuni quer
Ġf os
end rons
ge ant
Ġsu it
Ġcomp ati
Ġmont agne
Ġinc or
Ġinf e
Ġinqui Ã¨te
Ġaccro issement
Ġconvainc ue
Ġalli Ã©s
Ġproven ant
Ġimagine z
Ġpier re
Ġlacun es
f eu
Ġd ar
Ġen ri
si bles
Ġsa ges
Ġres tri
ĠmÃ© pr
gu Ã©
Ġcontra intes
ĠdÃ©cla re
Ġrefus er
Ġabou ti
Ġlon gues
an o
ur ie
Ġtr iste
ys t
ĠrÃ©s ol
Ġmarch er
Ġcol omb
ĠdÃ©s accord
Ġcontra di
Ġz i
ĠcompÃ© t
Ġdestin Ã©e
Ġsuiv antes
Ġciv iles
ĠhÃ© las
Ġpous ser
Ġprovo quer
Ġautri ch
Ġmagn i
Ġt ac
se ments
ter n
Ġimp ati
ul sion
Ġad di
Ġtravail lons
ĠÃ©le vÃ©es
Ġcol Ã¨re
Ġ3 1
Ġz Ã©ro
Ġnature lle
Ġfondament alement
Ġesti ment
ĠsÃ»r s
Ġocca sions
ĠÃ©t endue
Ġconvi ction
ĠcatÃ©g ories
ĠrÃ©di gÃ©
Ġpourcent age
Ġsad dam
Ġog m
3 0
Ġt ente
Ġun es
Ã¨ tent
Ġave u
ĠÃ©conom istes
Ġmil lÃ©
mÃ© ment
Ġcommen cent
Ġform ulation
Ġchinois e
ĠdÃ©fini tive
Ġappliqu Ã©e
Ġpalestin ienne
Ġhas ard
Ġtr ente
alis Ã©e
Ġutilis ateurs
ĠdÃ©cla rer
Ġcomb us
ĠreÃ§ oivent
Ġinfor me
ĠÃ©chou Ã©
Ġc land
ti le
ĠdÃ© tri
Ġcon ventions
ĠprÃ© te
Ġso is
Ġco ali
Ġpos ent
Ġsign es
Ġ3 5
Ġst and
ĠmonÃ© taires
Ġoccup ation
Ġrelig ieux
Ġreconnaiss ant
Ġautoma tique
Ġin ond
Ġin cid
Ġg al
la h
Ġch at
and a
tis sent
Ġinc end
Ġopp ose
ĠrÃ©c onc
Ġinv itÃ©
Ġsoule ver
Ġsurpr is
Ġbata ille
Ġimp lication
Ġrenfor cÃ©
Ġproch ains
ĠpÃ©ri odes
Ġdiploma tie
bal l
Ġnum Ã©rique
Ġwe b
Ġjustif ie
Ġcaf Ã©
x ie
Ġm ille
Ġm uni
ĠÃ© man
Ã¨ lement
Ġpro lon
ĠamÃ©li ore
tisse ment
Ġrou tes
ĠrÃ©c omp
Ġessay ons
Ġrester a
Ġrefus Ã©
ĠdÃ©mont re
Ġislam ique
Ġhy d
Ġinterd ire
ĠrÃ©tab lir
Ġt as
Ã¨ tement
ĠdÃ© rog
Ġma cÃ©
mp e
Ġ2 8
Ġsuis se
Ġ3 00
a gÃ©
r itÃ©
Ġp orts
Ġdev ienne
Ġal g
Ġ2 9
Ġtrans mettre
vers itÃ©
gent es
ĠdÃ©s olÃ©
Ġexist ant
Ġsouff rent
Ġadministra tive
Ġcherche urs
Ġaus tra
Ġfo ot
Ġbir manie
ĠpÃ©ti tions
ĠdÃ©tri ment
it a
Ġt va
oi ent
Ġad mis
Ġchar bon
Ġbal tique
Ġgagn Ã©
Ġappliqu ent
Ġsurpr ise
Ġdeven us
ĠintÃ©res se
Ġstand ard
Ġf Ãªte
ĠrÃ©g ulation
Ġrec ue
Ġbr Ã»
Ġhist oriques
Ġchar ges
Ġstructure lles
Ġimpliqu Ã©s
on Ã©
ti enne
Ġf an
Ġass ister
Ġfer ai
Ġconn aisse
ĠbÃ©nÃ©fi ce
ĠÃ©qui v
Ġsouten ue
Ġache tÃ©
ograph iques
Ġpen sions
Ġambi tions
ĠÃ©li mination
qu ons
Ġg Ã¢
Ġg asp
ĠÃ©c us
Ġdro gues
Ġdom mage
Ġpermet tront
Ġjeu di
ath ie
Ġvil lage
ĠrÃ©a ff
d j
g ure
g ences
te aux
Ġin va
ar b
ar k
ĠÃ©ta pes
Ġmo ments
Ġpra g
Ġimpos ent
ĠtÃ©lÃ© commun
ĠpÃ©n ale
Ġfas sent
Ġpuiss ances
Ġsigna ture
eff ic
f a
o lique
ur Ã©e
Ġpl antes
ĠÃ©c art
ĠprÃ©sent Ã©s
isse ments
Ġenga gÃ©e
Ġform ule
Ġref lÃ©
Ġobser vations
Ġdiscu tons
Ġaffront er
Ġveuille z
Ã¨ tre
Ġ2 6
pu le
Ġsous c
Ġarri vent
Ġoppos Ã©s
Ġcrimine ls
ĠcÃ©lÃ¨ bre
Ã ³
Ġs k
ter re
Ġca b
Ġcont a
Ġar g
Ġobje ts
Ġmet tant
Ġenvironnement al
ĠlÃ©gis lations
Ġsc ru
Ġpartage ons
Ġquali fiÃ©e
Ġpron onc
ĠmatÃ©ri el
Ġsalari Ã©s
Ġau teurs
me mbre
Ġfon dÃ©
tin ation
Ġrec yc
Ġentrepr endre
Ġir landaise
ĠlibÃ©ra l
Ġcoord onner
Ġconfir mÃ©
Ġin effic
cu laire
Ġal lant
Ġenv ie
ĠsÃ© para
Ġsera i
Ġfer mer
Ġvicti me
ĠdÃ©pend ent
Ġcrain tes
ĠmÃ©dec ins
Ġcontac ts
Ġchaleure usement
Ã Ń
Ġj ac
Ġma ss
ri ques
Ġra men
ens es
Ã©r Ã©ment
Ġann once
Ġenv er
Ġni ce
Ġrec on
Ġchar gÃ©
Ġconsac rer
Ġdicta ture
ĠdÃ©bar ras
Ġp ont
Ġma roc
Ġch u
Ġch im
mb ab
Ġinter pr
Ġvie ille
lon e
ĠgÃ©nÃ©ra ux
Ġris quent
Ġdir ig
ĠarrÃª tÃ©
Ġten us
Ġsan ction
ĠÃ©nor mÃ©ment
Ġindustri els
Ġtemp Ã©ra
Ġzi mbab
i f
Ġa z
Ġpa ge
Ġen nu
me ts
Ġeurop ol
Ġsa cri
em ark
ĠbÃ©nÃ©fici aires
Ġcrit Ã¨re
Ġbel gique
Ġdan emark
ĠhÃ´pit al
Ġcontro vers
Ġrestruct uration
Ġcoali tion
Ġv end
Ġsu pr
Ġli eux
ĠrÃ©c ol
Ġtranspar ente
Ġven ue
Ġmora l
Ġdiploma tique
Ġsimpli fier
Ġmic ro
Ġincont es
Ġcland es
ti Ã¨me
Ġen ti
Ġdu quel
Ġre viend
ĠdÃ©c ent
ĠintÃ© grÃ©
Ġpla cer
ĠÃ©le vÃ©e
Ġatt ente
Ġmoder nes
Ġmusul man
Ġtermin Ã©
Ġimmigr ants
Ġinsp ir
Ġvolu me
Ġs it
Ġde ttes
is sion
Ġam end
Ġam Ã¨ne
Ġexp liquÃ©
Ġmani Ã¨res
pi ration
Ġrecher cher
Ġcontribu ent
Ġach at
Ġcouv rir
Ġfroi d
Ġimm ense
ĠintermÃ©di aire
Ġpr ouver
ĠrÃ© cip
Ġra rement
Ġdi agn
Ġrapp elÃ©
Ġfor mer
Ġconf usion
ĠÃ©g al
ĠÅĵ il
ĠbÃ©nÃ©fici e
Ġdist ance
Ġanalys er
Ġpa ul
Ġin du
ĠdÃ© tÃ©ri
Ġre met
Ã©ri ques
vi du
Ġexp liqu
ĠgÃ©nÃ©ra lis
Ġindi vidu
man n
Ġconstru ctif
Ġlibre ment
ĠÃ©du ca
Ġsemb lait
Ġluxe mbourg
ĠdÃ©couv rir
Ġenthousias me
Ġa ci
Ġm ig
Ġm ourir
it h
Ġimp osition
Ġaccord Ã©
Ġpor tÃ©
Ġdess ous
Ġconfront Ã©e
Ġconvainc us
Ġdossi ers
ĠopÃ©ra teurs
ĠcÃ© lÃ©
Ġdispar u
Ã©conom ique
Ġch ans
Ġapp laud
Ġdi rai
Ġam us
Ġman quer
ĠdÃ©bat tons
Ġinc iter
Ġautor iser
Ġabs or
Ġmala de
Ġign ore
Ġpropri Ã©
Ġprud ence
Ġcivil isation
Ġhandicap Ã©es
Ġpa re
Ġfa ti
Ġexp res
Ġcour se
Ġpla intes
Ġess ence
Ġgaranti t
oph ob
ĠprÃ©f Ã¨re
Ġitali en
tiss ants
Ġphy si
Ġbreve ts
Ġslova quie
i gÃ©
on te
Ġle ader
ar ma
Ġsou mise
Ġat tÃ©
Ġvoud rions
Ġba teau
Ġju ger
Ġhau tement
ĠarrÃª te
Ġinsta uration
Ġten ant
Ġenqu Ãªtes
Ġtable au
Ġmaje urs
Ġformul Ã©es
Ġtend ances
Ġcontent er
Ġautonom ie
Ġt uer
Ġsur ven
Ġex cessi
Ġinsta bilitÃ©
Ġinn oc
Ġmul tination
Ġsenti ments
Ġfisc aux
Ġmanifes te
Ġcamp agnes
Ġslo v
Ġarg enti
u ve
te ments
di versitÃ©
Ġvi h
ĠrÃ©s u
fin i
Ġmont er
Ġdur ables
Ġju gement
Ġbi ologique
Ġrecom mande
Ġoubli Ã©
Ġenvis ag
Ġsurve iller
Ġordin ateurs
Ġoffici elle
Ġtribun aux
Ġconne x
Ġangle terre
Ġaveu g
b el
j a
k h
ou ff
Ġt onnes
Ġr Ã¨
va teur
ĠmÃ© ta
vers er
ĠprÃ©c ises
Ġviol ences
Ġfran c
ĠdÃ©pens er
Ġha Ã¯
Ġprovo quÃ©
Ġmultip les
ĠirrÃ© gu
d t
Ġt al
Ġv ienne
ĠÃ©c rite
Ġpos t
cur r
ca ts
Ġim mun
ĠÃ©lab or
Ġpales tine
Ġgros se
Ġrom e
Ġtradu it
Ġpous s
Ġrappro cher
Ġeth niques
Ġbio diversitÃ©
ĠmillÃ© naire
ĠtÃ©lÃ©commun ications
ĠcÃ©lÃ© b
Ġs w
Ġm Ã¨ne
Ġr ub
Ġpar lent
Ġra t
vi endra
ĠprÃ©sent Ã©es
ili ers
Ġinform Ã©s
tri ces
Ġfra g
Ġappel ons
ĠÃ©lab orÃ©
Ġsor tie
Ġtom be
Ġcolle ctive
Ġsouha itÃ©
d Ã©s
ur g
Ġre mis
Ġcomm and
Ġcons tante
Ġsou lÃ¨ve
rÃ© g
Ġvi able
Ġind onÃ©
Ġsp or
Ġprof ond
mo ine
ĠhÃ© mi
Ġfeu ille
Ġconsoli dation
Ġintellectu elle
Ġpatri moine
Ġa le
Ġs v
ĠdÃ© vas
Ġma rie
au tion
Ġent ends
Ġinter dit
ĠdÃ©c Ã¨s
Ġcro it
lar itÃ©
Ġabs urde
Ġsci ences
Ġamb ass
Ġjourn aux
Ġespoir s
Ġconcr Ã¨tement
Ġuk rain
Ġaccue illir
Ġsyndi cats
cy cle
Ġfaill ite
z ar
Ġp Ãª
Ġs Åĵur
Ġm Ã¨tres
Ġcon cevoir
Ġ201 2
Ġtradi tions
Ġindivid uels
Ġprofon des
Ġsex uelle
Ġajus tement
Ġoise aux
ĠhÃ©mi cycle
e tte
l og
ti fication
om Ã©
Ġf en
Ġtou cher
Ã©ri c
Ġco in
Ġk a
Ġfer ons
Ġculture lles
Ġrespec tÃ©
Ġloc ale
ĠpÃ©n al
Ġparven u
Ġtradu ire
Ġpie ds
Ġbat tre
Ġespagn ole
Ġvac ances
Ġreligie uses
v ra
Ġl oy
Ġh osti
ĠintÃ© gra
ĠdÃ©s ar
Ġrespect ent
Ġer ron
Ġcommunic ations
Ġlog ici
do ine
Ġsensi bil
ĠsuÃ©dois e
ĠsystÃ©matique ment
ĠimpÃ©ra tif
Ġressor tissants
ĠmacÃ© doine
ou er
ĠdÃ© jeuner
Ġg enti
Ġpl ur
Ġapp liquÃ©
Ġconc ret
Ġcomp as
Ġmes s
ist ons
as tri
rib uer
Ġadop te
ĠrÃ©du ite
endu es
Ġnor ma
ĠgÃ© ographique
ĠÃ©volu er
Ġliby e
Ġinterinstitu tionnel
f ient
Ġa per
is ons
Ġma astri
Ġmi gra
Ġnu lle
Ġavan cÃ©s
ĠintÃ©gr itÃ©
Ġjudici aires
Ġcitoyenne tÃ©
Ġfos sÃ©
c ou
op ie
ta le
Ġfa Ã§ons
Ġpro je
ĠprÃ© cieux
Ġcomme t
at t
Ġpos Ã©e
Ġpri va
Ġuti litÃ©
Ġvis a
Ġbi bli
ĠÃ©larg ir
Ġfisc alitÃ©
Ġconser vateurs
Ġconfir me
Ġhor ri
Ġquasi ment
Ġlic enci
ĠprÃ©te xte
ĠrÃ©aff ir
Ġmaastri cht
g ente
Ġ [
Ġd r
Ġl entement
Ġpas sent
Ġag ents
ise z
Ġab sent
ĠdÃ©m ographique
Ġactu alitÃ©
Ġdou b
Ġarri vÃ©s
Ġpass ant
Ġglob alement
Ġsuscepti ble
Ġterri ble
ĠaÃ©rop orts
Ġyougosla vie
Ġexces sive
ĠdÃ©fav or
p o
Ġm m
Ġt s
Ġes cla
Ġre cti
Ġapp e
onn Ã©s
Ã´ tre
Ġpu issant
Ġinter f
Ġab oli
Ġcla s
Ġutilis ons
Ġk en
ĠsÃ» rement
Ġ199 4
Ġcli ents
Ġdestin ation
Ġconcent ration
Ġtol Ã©rance
Ġarchite cture
Ġatmosph Ã¨re
Ġ ]
Ġs te
Ġpa ir
Ġsur p
Ġdi vision
Ġsa tel
Ġsub ir
Ġcontra diction
Ġoff rent
Ġtota litÃ©
Ġfran chement
Ġambi gu
Ġprofonde ur
Ġcompens ation
Ġimmigr Ã©s
ĠadhÃ© rer
Ġcompas sion
Ġsatel l
d ant
Ġr ense
ĠrÃ© da
Ġje ter
Ġimp asse
Ġti re
Ġemp ris
Ġgra vitÃ©
Ġbo Ã®
ĠbÃ© bÃ©
igne ments
pe au
Ġti ennent
Ġk o
ang ers
Ġri di
ĠfÃ©lic itations
sse ment
ĠapprÃ©ci er
ĠÃ©quipe ments
Ġfaibles se
ĠmÃ©dec ine
Ġpoursu it
d on
Ġp un
Ġac teur
Ġfon dement
lis te
ĠmÃ© l
Ġdur abilitÃ©
Ġarti fici
Ġsignifica tif
Ġlab ora
Ġtrom pe
Ġkilom Ã¨tres
m ique
y Ã©
Ġl ende
en sion
Ġch auff
Ġvo la
Ġcomp liqu
Ġins tamment
Ġat lantique
Ġfor ts
Ġfr us
lo t
Ġk e
Ġir res
Ġdange reuse
Ġora teur
Ġexamin Ã©
Ġuniverse l
Ġclari fier
is tiques
Ġtou chÃ©s
Ġimp rÃ©
Ġrec ul
Ġren oncer
ĠÃ©lar gie
ĠprÃ©f Ã©rÃ©
ĠÃ©cou tÃ©
Ġharmon iser
ĠindÃ©pend amment
Ġdiver si
Ġcombus ti
Ġimp arti
va ges
Ġper tur
Ġbe i
tionne llement
Ġdirige ant
Ġretr ouve
Ġindispens ables
Ġpan ne
Ġtrou bles
ĠdÃ©t our
Ġbla ir
Ġimmob ilier
Ġd angers
om e
pp e
Ġne tt
Ġme urent
Ġca dres
lis me
Ġcar tes
Ġinstitu t
ĠprocÃ© dÃ©
Ġoct roy
Ġsurpr enant
Ġincap acitÃ©
Ġmol da
Ġstabil isation
Ġasia tiques
Ġprimordi al
ĠÃ© di
Ġin ti
itÃ© es
Ġo x
mes tre
Ġinter v
orte ur
Ġmain tes
olog ues
Ġpropos ons
Ġsupp orter
Ġrenfor ce
Ġcapit alisme
ĠprÃª ter
Ġcondam ner
ĠÃ©vent uelle
Ġdipl Ã´
ĠimmÃ©dia te
Ġdimen sions
Ġautom ne
Ġhyp oc
ĠfÃ©dÃ©ra le
Ġavi ation
Ġindica teurs
Ġmagni fique
Ġbibli oth
a h
on ique
Ġre j
Ġimp lications
Ġas p
Ġexp lications
Ġautre fois
am Ã©ric
ĠfÃ© min
Ġprom et
Ġajou te
ĠsiÃ¨ cles
Ġpen sion
ĠdÃ©tru ire
Ġsatisfais ante
ĠhÃ©r it
Ġbais ser
Ġracont er
Ġtunis ie
Ġinond ations
l ong
Ġf it
ta g
Ġo re
Ġinter romp
Ġdiff usion
Ġcro yons
Ġvu es
ĠÃ©t o
Ġrev Ãª
Ġ7 5
Ġcollab orer
Ġretour ner
Ġattent ats
Ġapprofond ie
ĠprÃ©occu pe
Ġadul tes
t us
Ġn er
Ġun ani
ue ur
ĠdÃ©p asse
Ġcour te
ĠÃ©le vage
Ġconstitu Ã©
Ġinform Ã©
Ġtransp os
Ġcomb ler
ĠÃ©tab l
ĠÃ©p re
Ġsim ul
Ġconsoli der
ĠdÃ©pas ser
Ġcompa raison
Ġillus tre
ĠgÃ©nÃ©tique ment
Ġl ancement
ta ine
Ġin tr
ch ie
Ġcon Ã§u
Ġdo ha
Ġri vi
Ġimpos Ã©es
Ġremp li
Ġhuman itaires
Ġordin aires
Ġassis tÃ©
ĠdÃ©cisi f
Ġplani fication
Ġlitu anie
a ch
n is
z a
Ġd or
it ar
Ġin titu
Ġb or
ĠrÃ© actions
Ġapp els
Ã©ra p
Ġconsid Ã©rÃ©s
Ġsp h
ĠrÃ©for mer
Ġbure aux
Ġassur Ã©ment
ĠÃ©vent uellement
Ġferme ture
Ġstim ul
Ġeffor cer
ĠsÃ»re tÃ©
ĠscÃ©nari o
Ġirres pons
m s
Ġc s
me ur
Ġres sent
Ã©ra tions
Ġad n
Ġnom mÃ©
Ġpla te
Ġmont Ã©e
Ġgrande ment
Ġcomment aire
Ġdou leur
Ġrapi des
Ġja mb
Ġexig ent
Ġcou leur
Ġora l
ĠspÃ©cifique ment
Ġestim ations
Ġcouv re
o o
r ants
er te
ĠÃ© va
Ġpar viend
Ġch asse
ort ent
Ġvou laient
Ġsub vention
Ġfonction nent
Ġpara do
ĠÃ©gard s
Ġsigni fier
Ġexc use
Ġtour ne
ha us
Ġ15 0
Ġcondam nÃ©
Ġfru ctu
dÃ©m ie
Ġinfra ction
Ġinfluen cer
Ġlun di
Ġence inte
ĠhÃ©rit age
k in
o Ã»t
r its
Ġes b
Ġse xe
Ġent our
Ġdis s
Ġmes urer
Ġti endra
Ġconsid Ã©rant
Ġk h
Ġrespe ctu
Ġcontra t
Ġpublic ation
Ġay ez
ĠimmÃ©di at
Ġminist Ã¨re
Ġemploy eurs
ĠnÃ©ga tive
Ġbel ge
Ġfront ali
Ġsurvi vre
Ġt ali
ĠÃ© lÃ¨
Ġb ac
tÃ© ritÃ©
Ġch ant
Ġentre tenir
Ġab orde
Ġfor mi
Ġop tique
Ġcar riÃ¨re
Ġexpri mÃ©es
Ġparticip ants
Ġculture ls
ĠpÃ©ri ph
Ã¯ n
Ġmodi fiÃ©
Ġbar ce
ĠsÃ©rie uses
ign ent
ĠdÃ©ta ill
Ġbu lle
Ġge orge
Ġtre mb
Ġsar ko
Ġmass ac
y ant
ĠÃ© lÃ¨ve
Ġcon go
ĠprÃ© cip
Ġdev ions
ĠÃ©c ologiques
Ġins ur
Ġorganis me
ĠdÃ©s a
Ġrel ancer
hi p
Ġcomporte ments
ĠcrÃ©di ble
ĠrÃ©sul te
ĠdÃ©sÃ©quili bres
Ġbarce lone
Ġsarko zy
. -
n am
Ã ¤
Ġa oÃ»t
Ġen de
Ġb ra
Ġmais ons
lÃ¨ vement
Ġmar quÃ©
Ġpersonne lles
Ġcolle cte
ĠnÃ©ga tives
ĠmatÃ©ri aux
ĠÃ©lectron iques
Ġfe d
Ġdiscip line
Ġfoot ball
Ġzimbab we
Ġlende main
Ġtali b
d om
Ġdes que
la teurs
Ġal loc
Ġ19 4
Ġsp ati
ĠprÃ©v isions
ĠspÃ©ci ale
Ġtechnolog iques
Ġcorre cte
ĠÃ©vid ente
ĠÃ©mer gence
Ġx Ã©n
ĠdÃ©tail lÃ©e
Ġbanc aires
Ġrassemb ler
Ġdispara Ã®tre
Ġapplic ables
ĠprivilÃ©g i
ĠrÃ¨ gne
l ing
s ki
x i
Ġp n
Ġp se
ti se
Ġpar tant
Ġg ali
Ġcon vers
os itÃ©
Ġch ris
Ġav iez
Ġra re
Ġai ment
Ġar range
Ġcha uss
Ġbr ut
Ġ4 00
Ġexc lure
Ġpren ant
ĠÃ©tudi ant
Ġassoci ations
Ġfisc al
ĠÃ©cou te
ĠdÃ©si re
Ġinfor matique
ĠÃ©pr ouv
Ġformi da
Ġf lu
Ġb ande
Ġdu e
Ġpro vis
de v
Ġsur v
Ġac cessi
Ġca th
Ġemp ire
lu b
Ã® ner
iti f
Ġsav ais
lar itÃ©s
Ġfu sion
Ġquanti tÃ©s
Ġcorres pon
Ġmobil iser
Ġaffai bli
Ġvendre di
Ġve ille
Ġtransat lantique
curr ence
in aires
ta il
ir ont
Ġma d
ne ls
ord anie
Ġno ter
vi ons
Ġor es
Ġfor Ãªt
Ġpouv ant
Ġinc lus
ĠspÃ©ci alement
Ġparticip ent
Ġtraite ments
Ġanci ennes
Ġmor talitÃ©
Ġmol Ã©cu
Ġing Ã©nie
Ġenregistre ment
Ġprior itaires
Ġphilosoph ie
Ġjoin dre
. @
d ans
on ge
Ġch o
Ġag i
Ġmar gin
ĠdÃ©p ression
ĠsÃ© jour
ĠdÃ©mocra tisation
Ġinc ar
Ġconsta tons
Ġdist or
Ġobten us
Ġreje tte
ĠdÃ©mont rer
ĠÃ©mer gents
Ġsatisfait s
Ġintellig ence
ĠprÃ©ju di
ra bles
Ġen le
ĠÃ© m
Ġje an
ces sions
Ġca li
Ġser vent
da ires
ĠrÃ©p Ã©tÃ©
Ġti tres
Ġess ais
Ġgar s
Ġconn ue
Ġoct ro
Ġdevoir s
ĠaÃ©ri enne
Ġtradu ction
app r
Ġenne mi
Ġprotectionn isme
ĠtchÃ©tch Ã©nie
ĠexcÃ© dent
Ġincor p
Ġsimul tan
Ġc lub
ci euse
Ġre gr
au tÃ©
Ġimp Ã´t
Ġnom ination
as ser
Ġti rÃ©
gÃ© rer
Ġmont ants
Ġva lable
Ġdou ze
Ġfix e
Ġprov in
ĠadÃ©qu at
Ġcrain te
Ġapprof on
Ġposs Ã¨dent
Ġquotidi enne
ĠcomplÃ©ment aires
ĠbilatÃ©ra ux
Ġdevi endra
ĠrÃ©sol us
Ġf us
di que
Ġimp Ã©ri
Ġdi gne
tr ons
Ġeff ra
Ġins istÃ©
Ġson da
ard in
Ġcro ient
Ġpoin te
ĠdÃ©m ission
Ġentrepr is
Ġprof its
Ġph arma
Ġuni forme
ses sion
Ġappel Ã©e
oli e
Ġretar ds
Ġexamin ons
Ġcouver ture
Ġflo tte
Ġvig il
Ġterritori ale
Ġimpati ence
b o
Ã© lor
ou re
ĠÃ© mettre
op or
Ġcomp liquÃ©
ĠlÃ©g Ã¨rement
Ġoc currence
Ġbi Ã©lor
ĠmÃ©di a
Ġesti mÃ©
ĠrÃ©glement aire
ĠprÃ©f Ã©rable
ĠidÃ© al
Ġrati fiÃ©
ĠrÃ©vÃ© lÃ©
Ġsauve tage
Ġeth nique
ĠmÃ©n ages
ĠinÃ©v itable
Ġav Ã©rer
Ġra s
Ġmo b
Ġca mps
Ġdom es
Ġfais aient
Ġdonner a
Ġcin Ã©
Ġten ons
ĠintÃ©ress antes
Ġassoci Ã©s
Ġchinois es
Ġsouff re
gi le
Ġsignal Ã©
ĠnÃ©ga tifs
Ġappara Ã®tre
Ġ198 0
Ġprior itaire
ĠrÃ©conc iliation
c tique
is ations
Ġg el
ro Ã¯
Ġinter c
Ġdonn ant
Ġba teaux
Ġsouv iens
ĠprÃ©v is
Ġtur c
Ġassoci er
Ġport es
Ġaffe cte
Ġparta gent
Ġsyn th
Ġint ol
Ġleaders hip
Ġsages se
es se
Ġp Ã¢
si fs
Ġpro cure
Ġpl uri
Ġra y
Ġeff ond
Ġcer cle
ĠrÃ©s umÃ©
Ġcro yez
Ġni ger
Ġvoud rait
Ġci ble
Ġver te
Ġsoli des
ĠÃ©valu ations
ĠidÃ© ologie
ĠprÃ©cÃ©dent es
ĠisraÃ©li en
Ġtransfrontali Ã¨re
Ġresta urer
Ġgo og
Ġreligie use
Ġtor ture
ĠÃ©cri v
Ġmess ages
f as
Ġpa in
Ġre lÃ¨vent
pe ct
Ġso laire
Ġar res
vi ens
Ġdire cts
Ã§ a
Ġamen Ã©
Ġconstitu tionnelle
Ġindi quent
Ġcommen Ã§ons
Ġrel Ã¢
Ġnor me
Ġconser vation
ĠintÃ©gr ante
Ġfrapp Ã©
Ġfabric ation
h e
ra pp
Ġan ge
Ġces sÃ©
at ures
Ġtravail lant
Ġdisp arition
Ġconcent re
Ġcorre ct
ĠquatriÃ¨me ment
Ġintensi fier
Ġsaur ait
Ġsecon des
Ġplaf ond
Ġgoog le
o ts
in ts
Ġr oi
Ã¨ ques
ta in
Ġdev ise
Ġnom in
Ġemp re
ĠÃ©g lise
Ġba ra
Ġprof ite
Ġrem ise
Ġattein ts
Ġouver tement
Ġterror iste
Ġgen Ã¨ve
Ġanim ale
Ġexplo itations
Ġinnov ations
Ġprogres sive
Ġfac ilitÃ©
Ġaffe cter
Ġrent rer
Ġsusc itÃ©
Ġralenti ssement
Ġparv iennent
Ġmerveille ux
ĠconcrÃ© tiser
Ġmultination ales
j ac
s en
t o
Ġs aine
in o
ĠÃ© tiez
mp ing
ens itÃ©
che l
Ġexp osition
Ġsoci o
Ġtu Ã©
Ġsign er
Ġdou ce
Ġcher chent
Ġstructure lle
Ġsuiv ants
Ġconcep ts
Ġemb al
Ġhong rois
ĠÃ©chapp er
Ġchau d
Ġpersu a
ĠcomplÃ© ter
Ġentrepren eurs
Ġconnaisse z
ĠsÃ©para tion
ophob ie
Ġau da
ta teurs
Ġav Ã©rÃ©
Ġtou chÃ©
Ġcomp osition
Ġmar quer
Ġpouv ions
ĠsÃ© cur
Ġeffe ctive
ĠÃ©che lon
Ġindustri el
Ġatti re
Ġexis tait
Ġimpor tation
Ġdiver gences
ĠdÃ©li v
Ġtransfrontali ers
Ġcinqu ante
Ġenj eu
ĠrÃ©da ction
a il
Ġl ance
Ġla iti
ĠprÃ© pare
Ġch anti
Ġdev ises
Ġal lusion
Ġpla s
Ġk ong
Ġsav ait
Ġdemande urs
Ġsub i
Ġbi zar
ĠdÃ©fin is
ĠÃ©tab lit
Ġhe ur
Ġtransf erts
Ġpotenti ellement
Ġjudici eux
Ġafric aine
Ġpuiss ants
Ġgrec que
Ġenj eux
Ġcorri ger
ĠforcÃ© ment
Ġcuis ine
rapp orteur
b y
Ġd res
Ġun ie
Ġle vÃ©e
ĠÃ© te
Ġr hÃ©
Ġes c
ce u
Ġpro long
Ġi v
Ġh usse
Ġdi ox
Ġann oncer
ĠnÃ©g lig
Ġfi ables
Ġsuffis antes
Ġvoter ons
Ġoffici ellement
Ġlour de
Ġinjus te
Ġgol fe
Ġsouffr ance
ĠrÃ©pu tation
Ġrecyc lage
ĠdÃ©barras ser
Ġchans on
Ġmolda vie
ĠrhÃ© t
Ġhusse in
l ut
o bil
Ġv entes
Ġes ca
Ġca che
Ġsou mises
Ġbe lles
ĠgÃ©n oci
Ġmin es
Ġmi ra
Ġver re
Ġorient al
ĠrÃ©un i
Ġconsci ente
Ġus ine
ĠcompÃ©ti tive
Ġitali enne
Ġfig urent
Ġencourage ant
Ġvac c
Ġobliga toires
Ġaus tÃ©ritÃ©
Ġclassi que
Ġsugges tions
Ġarbit ra
Ġenver gure
Ġargenti ne
ĠrÃ© tic
Ġtr Ã©s
ces seur
Ġtra gique
Ġimp ri
Ġad met
lis er
Ġconcer t
tis Ã©
ĠprÃ©sent es
ĠcrÃ© ant
Ġva li
Ġautor isÃ©
Ġavan cÃ©
Ġfond ation
ĠÃ©tudi Ã©
Ġom bre
Ġpotenti els
ĠcomplÃ©ment aire
Ã©re mment
Ġvieil lissement
Ġsit ue
Ġs Ã©n
Ġt ang
ĠÃ© puis
Ġj un
ĠrÃ© ve
Ġsa che
vi c
Ġper ception
Ġann uelle
ĠrÃ©p ar
Ġhom mage
ang ent
Ġouver ts
Ġcher chÃ©
Ġoccident al
Ġexam ine
Ġpron oncÃ©
Ġtru cs
Ġembar go
ĠÃ©pi dÃ©mie
ĠextrÃ© mistes
Ġsauveg arde
Ġfournisse urs
Ġsty le
ĠdÃ©cent ra
f our
g l
er ait
Ġpa ges
si gn
si ves
ta bil
Ġdis su
Ġco fin
Ġnom s
velop pe
Ġparticuli Ã¨res
Ġprogram mation
ĠprÃ©v us
Ġrep ous
Ġremar quÃ©
Ġgen res
Ġjoue ts
Ġhong ro
ĠÃ©tabli es
ĠcrÃ©a tivitÃ©
ĠÃ©tonn ant
Ġmos cou
Ġexplicite ment
h ol
Ġpr ouve
Ġf oss
ĠdÃ© Ã§
Ġdu b
Ġo ly
Ġca tal
Ġdi man
Ġas h
va ble
Ġpos Ã©es
ĠÃ©v Ã¨
Ġren f
Ġlib Ã©rer
Ġmet tons
Ġinf Ã©rieur
Ġbi oc
Ġur gente
Ġth e
Ġpoursui vi
Ġmari age
Ġtradi tionnelle
Ġpartenari ats
Ġnour rir
Ġflex ible
Ġappu ie
Ġambiti euse
Ġbreve t
ĠdÃ©ga ger
Ã©conom iques
Ġfabric ants
Ġhypoth Ã¨se
Ġapplic able
Ġintelli gent
tern itÃ©
Ġnorma lement
Ġdiman che
c ra
n alitÃ©
u f
v Ã©n
ĠdÃ© ser
Ġconc lus
Ġco ton
Ġpers Ã©cu
Ġrec ru
Ġpla it
Ġfr Ã¨res
Ġhau ts
Ġprog ress
Ġbou le
ĠÃ©lect rique
Ġoppos ants
Ġlet tres
ĠlÃ©giti mes
Ġpous se
Ġfl or
Ġperman ence
Ġred ou
Ġsup Ã©rie
Ġmobil isation
ĠdÃ©pas sÃ©
ĠprÃ©par Ã©
ĠdÃ©ploy Ã©s
Ġambass ade
ĠdÃ© tes
Ġg Ãª
Ġse rez
Ġai dÃ©
Ġsou la
Ġres tÃ©
am en
Ġconcern Ã©
Ġatt endant
Ġaugment ent
Ġcan c
ĠrÃ©pon dent
ĠdÃ©pens Ã©
Ġsuiv ie
ĠinquiÃ© tant
cri p
Ġnorm ale
Ġrepos er
Ġemprun ter
Ġtru c
Ġgaran tissant
ĠÃ©quival ent
c ulation
h r
z i
Ġd in
en ez
Ġde dans
ti mes
Ġin quie
Ġre dÃ©
ĠdÃ©p ense
ĠÃ©v olutions
Ġpe au
Ġdemand ant
Ġlim itation
Ġexpri mÃ©s
Ġimpliqu ant
Ġeng lo
ĠdÃ©pla cer
Ġartis tes
a rer
k el
Ġc lon
Ġm y
il lent
Ġch ir
Ġparti ellement
Ġno Ã«l
Ġdiff Ã©remment
Ġann onc
Ġpla cÃ©
Ġvis ible
Ġsoi gne
Ġmi gration
Ġappro ches
Ġoff ice
ĠlÃ©gisla tifs
Ġirak ien
Ġconfront Ã©
Ġexcep tions
Ġquali fiÃ©s
ĠrÃ©pub lic
Ġsup Ã©rieure
Ġfilm s
Ġincap able
Ġautomatique ment
ĠboÃ® te
Ġpluri ann
Ġbioc arb
- @
c uler
Ġp ur
Ġc ite
Ġc ig
ti ge
Ġpa l
op e
Ġai mÃ©
Ġatt endu
Ġbr ill
Ġbi ologiques
Ãªte ments
Ġgra vement
Ġmod alitÃ©s
Ġcommerci alisation
Ġrespec tÃ©s
Ġara bie
Ġsuper vision
Ġminim ales
Ġdiploma tiques
Ġfru it
Ġjo ie
Ġtax ation
Ġul tÃ©rieure
Ġrejoin t
Ġlo gement
Ġentam Ã©
ĠmÃ©pr is
Ġc uri
or es
ĠÃ© met
Ġpu re
Ġsom bre
Ġ199 2
Ġvoy ager
Ġpass Ã©s
Ġrend ue
ĠrÃ©jou ir
Ġconsulta tions
Ġos ce
Ġspe c
Ġbeau tÃ©
Ġinterven ants
ĠbiÃ©lor us
Ġoly mp
u alitÃ©
Ġb ille
ĠrÃ© ac
Ġcomp tent
Ġal lÃ©s
Ġdo ter
ĠamÃ©li orÃ©
Ġbr an
ĠdÃ©fin it
Ġmaj or
Ġassur Ã©
ĠÃ©vent ail
Ġstock age
Ġautom obil
Ġalb anie
Ġdon ateurs
ĠnÃ©gli ge
Ġanne xe
Ġformida ble
b ol
d itÃ©s
Ã¨ vre
Ġcons ister
onn Ã©es
Ġar mÃ©es
ct ent
Ġren dez
Ġgar Ã§ons
Ġdou lou
Ġpass Ã©es
ĠÃ©lect riques
ĠinquiÃ© ter
ĠdÃ©fense urs
Ġriches ses
ĠdÃ©n om
Ġquit tÃ©
Ġcens ure
Ġchyp ri
ĠinÃ©v itablement
Ġsalu ons
Ġem men
Ġfan tas
ĠÃ©lÃ¨ ves
t ance
Ġl ente
Ġl ob
Ġm ous
Ġm Ã¨res
Ġf oc
Ġr ues
Ġpour par
ĠdÃ© loc
ĠrÃ© elles
Ġser ions
Ġcer titude
ĠdÃ©c rire
Ġba la
Ġindi ff
ĠprÃ©c aution
Ġexpri mÃ©e
Ġche veux
ĠbÃ©nÃ©fici Ã©
Ġobli ger
Ġquali fications
Ġanalys es
ĠcomprÃ©hen sible
ĠmÃ©dic aux
Ġperform ance
Ġfinance ments
europÃ© ens
Ġdiscrimin ations
Ġpourpar lers
b ra
Ġa ie
Ġpa t
ta ri
Ġpro c
Ġex haus
Ġra tion
Ġvi endra
alis Ã©es
Ġjus que
Ġvol er
Ġimpos Ã©
Ġcomprom et
ĠprÃ©f Ã©rence
Ġprochaine ment
Ġobli gÃ©
ĠadÃ©qu ates
Ġpes tici
Ġdiminu Ã©
ĠamÃ©lior Ã©e
Ġchale ur
Ġstri cte
Ġs cep
Ġla issent
il lage
ta is
ta blement
Ġin ad
Ġg Ã¨nes
Ġo la
Ġan alog
Ġapp arition
Ġsou met
tr Ã¶
Ġmar y
isse z
Ġinc onn
Ġinstitu tionnelles
ĠprÃ©c ision
Ġsec ours
Ġdir iger
ĠrÃ©un ir
Ġpass ons
Ġth Ã©rap
Ġcoord onnÃ©e
ĠapprÃ©ci ation
Ġprofessionne l
Ġmach ines
ĠÃ©cos yst
Ġchauss ures
Ġdub lin
Ġbiocarb urants
trÃ¶ m
Ġl y
an ci
ĠÃ© b
Ġb oire
que mment
Ġex ag
Ġam or
Ġam Ã©n
Ġue m
Ġpens ait
ĠdÃ©fin ies
Ġaider a
Ġvit ale
Ġoccup Ã©
ĠÃ©li min
Ġinuti les
ĠpÃ©r il
Ġtransmis sion
Ġmonop ole
ĠcompÃ©tent es
Ġchem ins
hol m
Ġspec tre
c tÃ©s
an ou
ĠÃ© lan
Ġau rez
ri ers
Ġfa Ã§
Ġmo tif
Ġam ie
Ġar bres
ut ri
ĠcrÃ© Ã©e
lo cu
Ġk in
ĠdÃ©s in
Ġconcurr enti
Ġdispos Ã©s
Ġmention nÃ©s
Ġgros ses
ĠrÃ©v Ã¨le
Ġcontenu es
Ġfaibles ses
ĠÃ©volu Ã©
Ġcontraign ant
ĠdÃ©plo re
Ġstu pi
Ġsaou dite
ĠhaÃ¯ ti
c isme
Ã© tiques
in Ã©e
Ġv Ãªtements
ve urs
ne lles
al ise
Ġne ur
ens er
Ġimp ulsion
Ġas c
Ġas pi
at oire
Ġat om
Ġman Åĵ
ĠÃ©v oque
Ġgouver ne
ĠcollÃ¨ ge
Ġsui ci
ĠtraitÃ© e
Ã©tÃ© r
ĠÃ©p ous
Ġven us
Ġiran ien
Ġparle z
Ġhabit ant
ĠextÃ© rieurs
Ġcondam nation
Ġappor tÃ©es
Ġimpliqu Ã©es
Ġmaje ures
ber g
Ġiss us
Ġincroy ablement
Ġaggra ver
Ġher z
Ġperform ances
Ġincl ut
Ġgla ce
ĠlittÃ©ra lement
ĠmathÃ© matiques
Ġhongro ise
Ġola f
Ġp iliers
Ġpr Ã´
me u
op oli
ĠrÃ© vis
Ġvou lions
Ġconn us
Ġautor isÃ©s
Ġfra gile
Ġinv itÃ©s
ĠlÃ©gisla ture
Ġrend us
Ġapporter a
Ġsix iÃ¨me
Ġcarb urant
Ġinsc rire
Ġmutu ellement
ĠtÃ©m oigne
Ġparv ient
Ġdoig t
ĠtempÃ©ra ture
Ġmig rants
Ġtremb lement
Ġtalib ans
ĠprÃ©judi ce
ĠrhÃ©t orique
Ġbille ts
d Ã©es
g Ã¨ne
v res
Ġs chÃ©
ra ble
Ġcons enti
ĠÃ©c ran
Ġcour ir
Ġconf Ã©rences
Ġk m
Ġfi d
Ġw i
Ġga la
Ġinv itation
ĠprotÃ© ines
Ġdisposi tif
Ġeng endre
Ġportug ais
ĠÃ©tabli e
ĠdÃ©plo ie
Ġsatisfais ant
ĠrÃ©cla me
ĠdÃ©cisi ve
Ġspecta culaire
Ġincid ence
ĠÃ©to iles
ĠÃ©pre uve
Ġprovis oire
c os
l d
o tiques
y de
Ġc auc
ĠdÃ© tention
ĠrÃ© alitÃ©s
au ts
Ġob ti
Ġco Ã¯n
Ġmar tin
Ġvol s
Ġtur que
ĠÃ©p au
Ġfra gment
Ġexc uses
Ġga gne
Ġdonne z
Ġimag ination
ĠchÃ´ meurs
Ġacqu Ã©rir
Ġconform itÃ©
Ġstock holm
Ġ198 9
Ġdeme urent
Ġenseign ants
Ġhi ver
ĠprÃ©sidenti elles
Ġgri ppe
ĠunilatÃ©ra le
Ġsembler ait
Ġmine urs
Ġcali for
Ġe g
ur Ã©s
Ġen ra
ri ce
Ġdu rement
Ġfa usse
Ġex h
ter ie
ces sible
Ġdi am
che t
Ġar m
Ġar ra
mi ons
ĠrÃ©s ister
Ġtrans nation
Ġcha os
Ġoc de
Ġtransp osition
Ġ4 5
Ġdiffici lement
Ġtent ent
Ġobser ve
Ġtravers er
ĠrÃ©jou issons
Ġtradi tionnelles
Ġtoi le
ĠmÃ©dica ment
Ġportug aise
Ġcompren ons
Ġdra matique
ĠparallÃ¨ le
ĠfrÃ© quemment
ĠmÃ©dic ale
Ġintellig ente
Ġsent ent
Ġfla gr
Ġble u
Ġincon vÃ©n
Ġoptim iste
Ġprouv Ã©
Ġaustra lie
Ġaboli tion
Ġinad mis
Ġcauc ase
ĠinconvÃ©n ient
Ġp c
Ġb ol
Ġb ill
ĠprÃ© mat
Ġch ili
Ġav ent
ĠdÃ©c oura
Ġren dement
ĠgÃ©n Ã©rer
anis me
iti Ã©
Ġmal te
Ġenf re
ĠrÃ©du its
Ġindi en
Ġ3 2
Ġ3 7
ĠspÃ© cu
Ġnature ls
Ġrou tiÃ¨re
Ġconte mp
ĠreÃ§ oit
Ġcal me
Ġbal ance
Ġmari times
Ġsch ul
con i
Ġprofessionne lles
ĠprÃ©ser vation
Ġraisonn ables
Ġtex tile
Ġvir tu
Ġaccompagn er
Ġsugges tion
ĠcompÃ©t ente
ĠindonÃ© sie
w a
Ġb ang
Ġcons istant
Ġsi Ã¨ges
Ġacc ru
Ġar bre
Ġal lu
ĠnÃ© fas
Ġins Ã©
Ġcommun istes
age ment
ĠtraitÃ© es
Ġsigni fication
Ġstru ct
ĠprotÃ© gÃ©s
ĠaÃ©ri ens
Ġexpos Ã©s
Ġsusc ite
Ġradic ale
Ġfournit ure
ĠrÃ©mun Ã©ration
Ġjui fs
Ġcolomb ie
c tÃ©es
ĠdÃ© rÃ©g
Ġg l
Ġre b
ul ent
Ġcomp li
Ġcommun isme
ner a
Ġmen tionne
Ġdisc rÃ©
Ġbou te
Ġaffir mation
ĠÃ©quipe ment
ĠdÃ©termin Ã©e
ĠprÃ©t endre
Ġincap ables
ĠlimitÃ© es
Ġsyndi c
Ġfen Ãªtre
c ations
y o
on ction
ti les
ta t
Ġcon cessions
Ġtou chent
Ġimp liquÃ©
Ġno tation
ois e
gn ation
ct orie
ĠrÃ©p arer
ĠcrÃ© ent
gu rer
Ġess ai
ĠlÃ©g al
Ġconstitu tionnelles
Ã¢ tre
Ġda vid
Ġgra ph
ĠÅĵ uv
Ġinv o
ĠÃ©qui p
Ġassur ances
Ġcontinu itÃ©
Ġtran qu
ĠdÃ©termin ant
Ġconsul ter
Ġdesc end
ĠÃ©chÃ© ant
Ġimmun itÃ©
ĠgÃ©noci de
Ġpestici des
t y
Ġl istes
Ġcom itÃ©s
Ġcomm ande
Ġex act
Ã©r ents
Ġgr andi
ĠdÃ©p ass
Ġconsid Ã©rÃ©es
Ġindustrie lles
Ġjuridique ment
Ġfu mer
prÃ© hen
Ġtradi tionnels
ĠillÃ©g al
Ġappare ils
ote ch
Ġwe ek
ĠsÃ©v Ã¨res
ĠdÃ©lic at
Ġsouffr ances
ĠdÃ©cide urs
Ġrivi Ã¨re
d ire
k er
Ġg i
Ġra ss
Ġconc ours
Ġcomp orter
Ġdis sim
Ã§ ait
Ġconstitu era
mis er
Ġinc itations
Ġfi able
Ġbr Ã¨ve
Ġlan cÃ©e
ĠrÃ©glement er
Ġcontinuer ons
Ġfond Ã©es
Ġmu si
Ġven ait
Ġcircons cription
Ġentend ons
Ġblan che
Ġappor tÃ©e
Ġval oir
ĠcoÃ»te ux
Ġcompa rer
Ġcombin aison
Ġpharma ceu
d ons
k es
Ġ Å
ou l
Ġj ur
Ġj ardin
Ġcommis es
ite ment
Ġal lais
ose vic
Ġmil osevic
Ġrec ord
ĠdiffÃ©r enci
Ġvie t
Ġenf ance
Ġmi di
Ġdemande z
Ġpi ra
Ġappel lent
Ġmala des
Ġcoup ables
Ġappropri Ã©s
Ġrati fier
Ġappara issent
ĠdÃ©couver te
ĠcohÃ©r ent
Ġpay Ã©
Ġsoud aine
Ġmodes te
Ġapport ent
Ġclas ses
Ġsph Ã¨re
Ġschul z
a gent
d d
p our
Ġc oupe
Ġqu art
Ġg ue
Ġne tte
Ġmo teurs
ma teurs
ler a
Ġmet tra
Ġreg istre
ov is
Ġ199 3
Ġdispos Ã©
Ġdispos Ã©e
Ġparfait e
Ġcontinu Ã©
Ġ25 0
Ġaccue illi
Ġfrapp e
Ġrequ Ãªte
ĠrÃ©ag i
Ġcellu le
Ġaudi ovis
ĠdÃ©bou cher
ola t
ony me
Ġsoigne usement
k ov
m ait
Ġs un
ti ver
qu ants
ta bilitÃ©
la teur
ch o
Ġne ige
end rai
Ġsa chant
Ġad oles
Ġad ore
Ġat h
ose x
Ġtrans met
Ġrec ouv
Ġk re
Ġinc om
Ġsouti endra
Ġinf ir
Ġw h
Ġrem ont
ĠbÃ©nÃ©fi que
Ġadminist rations
Ġprov ient
Ġtomb Ã©
Ġimpliqu ent
Ġexpos er
Ġalb an
Ġfar deau
Ġhoriz ont
ĠrÃ©ex a
Ġmorce au
Ġmuni cip
Ġniger ia
Ġfoss iles
Ġv Åĵ
Ġv Ã©tÃ©r
ĠrÃ© Ã©
ar es
Ġav orte
ter nelle
Ġparti cipe
lic itÃ©
ĠlÃ©g u
Ġnu is
ĠÃ©qu itables
ĠÃ©che cs
Ġpublique ment
Ġx xie
Ġuniverse lle
Ġpoursu ites
Ġmaga z
ĠpropriÃ© taires
ĠmÃ©l ange
Ġinti mi
crip tions
otech n
y l
qu ait
Ġla Ã¯
Ġpar ent
ta ux
Ġfa ille
Ġpro lifÃ©ration
Ġra m
Ġimp ro
at o
Ġjus tes
Ġti enne
ĠlÃ©g if
Ġnation alisme
Ġges te
Ġtranspar ent
Ġven ant
Ġconfront ation
Ġinten se
Ġpous sÃ©
Ġdistin guer
ĠdÃ©rou le
Ġinsuff isant
Ġgo Ã»t
ĠinÃ©g alitÃ©
Ġcl os
Ġlingu istique
Ġincend ies
ĠirrÃ©gu laritÃ©s
ĠdÃ©sar mement
Ġoctro yer
ou d
le m
Ġf lÃ©
Ġme d
Ġca cher
Ġmar in
ni er
ct oires
ĠrÃ©p ara
ard er
ĠdÃ©m ant
Ġk ur
Ġ19 5
Ġplu ie
ĠnÃ©goci Ã©
ĠÃ©ch o
ĠreprÃ©sent Ã©
be t
ĠÃ©t ouff
ĠÃ©qui pes
Ġassoci Ã©
Ġappar u
ĠgÃ© opoli
ĠdÃ©termin Ã©
Ġrig ueur
ĠreflÃ¨ tent
Ġenregistr Ã©
Ġclin ton
Ġavoc ats
Ġdiagn os
p os
Ġl t
on tiers
Ġpa p
Ġin je
Ġdu mping
Ġpro xim
ĠprÃ© dÃ©
di tion
Ġtr omp
Ġimp un
Ġar mement
Ġins tances
Ġvi abilitÃ©
Ġdiff us
gu Ã©s
Ġparticu les
Ġgar di
ĠdÃ©f ait
ali e
Ġfi ers
Ġvol ontiers
Ġrou tier
Ġrep ort
Ġouver tes
Ġmodi fiÃ©s
Ġentra ver
Ġobser va
Ġret omb
Ġinn o
Ġexac er
Ġmus Ã©e
ĠrÃ©flex ions
Ġtol Ã©rer
Ġinfra ctions
Ġexter nes
ĠdÃ©ri vÃ©s
ĠÃ©clair c
Ġcamb od
Ġiden tique
Ġdar four
Ġramen er
i al
Ġ tis
Ġs tÃ©
our ce
ch ait
Ġre tenir
Ġh al
Ãª me
Ġent rÃ©
Ġal de
ĠmÃ© cont
Ã® tra
Ã©g ovine
Ġk ara
Ġinc itation
ĠdÃ©f auts
Ġcor Ã©
Ġcor be
Ġenf er
ĠdÃ©s tabil
Ġaccep tÃ©e
Ġress ource
Ġchar gÃ©e
Ġatta che
Ġoblig Ã©s
Ġprog ression
Ġfu ite
Ġcondam n
ĠÃ©l ite
Ġcaus Ã©
Ġtermin Ã©e
Ġstri ctement
pro du
ĠcÃ©rÃ© ales
org anis
Ġtar di
Ġrub rique
Ġambigu Ã¯
Ġproxim itÃ©
h eu
k y
Ġd ents
en sive
Ġpar lait
Ġpar lant
Ġil lusion
Ġal lÃ©e
Ġal lÃ©g
ĠrÃ©s olue
ĠdÃ©p ar
Ġman quÃ©
Ġman quent
Ġfonction nÃ©
Ġbi otechn
Ġpor table
ĠpÃ© kin
Ġfam ine
Ġcontinuer ont
Ġret ourn
Ġexplo sion
Ġpubli er
Ġbou che
Ġoppos ent
ĠpÃ©n urie
Ġaudi tion
Ġpersonn alitÃ©
Ġsoup les
Ġsti pule
ĠÃ©radi quer
Ġiden tiques
ĠattÃ© n
is ti
Ġn Ã´tre
in i
Ġt ai
Ġf ili
ĠdÃ© l
Ġac cessible
pr Ã©s
pr opor
Ġan tÃ©
Ġdis propor
Ġti bet
Ġmainten u
sÃ© ment
ĠdÃ©fin itif
Ġtur cs
Ġus ines
ĠintÃ©ress Ã©s
Ġsan itaires
ĠcompÃ©ti tion
Ġregard Ã©
Ġ9 5
Ġrece v
ĠapprÃ©ci Ã©
ĠcÃ© der
ĠdÃ©mar ches
Ġafric ain
Ġsex es
ĠisraÃ©li enne
Ġformul Ã©
Ġcesse z
Ġcouver t
ĠfÃ©dÃ©ra l
ĠrÃ©tab lissement
Ġstu pÃ©
Ġhoriz on
Ġenri ch
Ġexpres sÃ©ment
Ġgali le
Ġherz Ã©govine
ĠdÃ©mant Ã¨lement
Ġd orm
Ġp ires
Ġpa th
ĠdÃ© loy
Ġh aine
Ãª tres
Ã¨s es
Ġtra Ã®
Ġcont enir
Ġno bel
Ġpu issante
iss es
Ġexp er
lis Ã©
Ġni er
Ġpla i
ĠlÃ©g Ã¨re
Ġsign aux
Ġpersonne ls
Ġconn ues
Ġoccident ales
Ġobli ge
ĠÃ©vent uelles
Ġoffici el
Ġrempla cement
Ġlour ds
Ġmultip li
Ġdispar itÃ©s
Ġviv ants
Ġfabri quer
Ġaffaib lir
ĠdÃ©ten us
Ġautrich ienne
Ġphysi ques
Ġbara ck
Ġgalile o
w n
Ġc itÃ©
Ġg ro
Ġne t
Ġtra verse
tr Ã©
Ġass oup
ca lement
Ġsui vent
Ġprom ette
Ġexc Ã¨s
Ġga re
Ġcoup s
Ġregard ons
Ġatti rÃ©
Ġacqu isi
Ġparagraph es
ĠfÃ©d Ã©ration
dÃ©m ocra
Ġsubstanti elle
Ġsain t
ĠrÃ©cup Ã©rer
Ġrat tra
1 0
ou x
te x
ne y
Ġch angent
Ġex erce
Ġvo let
mi de
Ġins ul
Ġop Ã©rer
Ġcla uses
Ġrais onnement
Ġmis Ã¨re
ĠdÃ©cision nel
Ġvoy ages
ĠprÃ©occup Ã©s
ĠdÃ©velopp Ã©e
Ġordin aire
Ġoffici elles
Ġoccup ent
ĠdÃ©pla ce
Ġinstal ler
Ġlour d
Ġrappro chement
Ġinsuffis ante
Ġsymp athie
ĠprÃ©sidenti elle
Ġasia tique
Ġcam Ã©ra
Ġmette z
ĠrÃ©su mer
Ġsimultan Ã©ment
Ġash ton
Ġaspi rations
Ġcalifor nie
Ġ âĢĻ
en ko
Ġau dit
Ġre tir
Ġser bes
tin g
tin s
Ġvie illes
Ġtrouv Ã©e
Ġporte feu
Ġbou ger
Ġbou lot
Ġoubli e
Ġiran iens
Ġindustri alisÃ©s
Ġidenti fication
Ġindivid uelle
Ġcontinu ons
Ġrom an
Ġaband onnÃ©
ĠphÃ©nom Ã¨nes
ĠvÃ©ri fication
Ġsecond aire
Ġul time
Ġflo t
Ġsymb ole
Ġmaga sin
Ġopti misme
ĠagrÃ© able
Ġlabora toire
ĠxÃ©n ophobie
ĠbiÃ©lorus sie
p ture
on f
Ġa is
Ġe ut
Ġin se
Ġma h
ri ra
Ġse mestre
ls on
Ġmal ent
Ġna ger
Ġfer ais
Ġfer mÃ©
Ġju gÃ©
ĠspÃ© culation
ĠreprÃ©sent a
Ġinitia lement
Ġrep as
Ġmodi fiÃ©e
Ġpropre ment
Ġencoura gÃ©
Ġpoursui vent
Ġprov iennent
Ġprogres sÃ©
Ġsoule vÃ©es
Ġapprouv Ã©e
Ġbureaucra tique
ĠhÃ´ tel
Ġfas cin
Ġstri ct
ĠdÃ©cou le
Ġsymp t
Ġretrait es
Ġridi cule
Ġbiblioth Ã¨que
ĠtrÃ©s or
b Ã©s
an z
Ġm yth
Ġla issant
Ġt ok
Ġen va
ta les
Ġg am
de ur
Ġmon ti
Ġco ex
Ġann uels
Ġfor ment
ĠÃ©conomique ment
Ġplan Ã©
Ġabs tenir
Ġver heu
ĠfÃ©lic itons
Ġrev ue
ĠrÃ©ser vÃ©
Ġsol ana
ĠdÃ©velopp Ã©es
Ġquali fiÃ©
ĠvÃ© lo
Ġpopu laires
Ġinaccep tables
ĠÃ©th iques
Ġrob ert
Ġcompens er
Ġconten ant
Ġbour se
ĠaÃ©rop ort
Ġenne mis
ĠÃ©tablis sements
Ġcompar Ã©
ĠdÃ©rog ation
Ġpriva tisation
Ġesc omp
Ġautomobil es
ĠinsÃ© curitÃ©
Ġtok yo
Ġverheu gen
Ġl Ã¢
Ġp y
ur a
us ses
Ġin cident
ar s
Ġtou chÃ©es
Ġal laient
Ġcha mps
Ġadop tant
Ġcor p
Ġinstitu tionnels
Ġbi ologie
Ġbas Ã©es
ay e
Ġfran ch
ĠÃ©t endu
Ġrespect ant
Ġvolont aires
Ġmer cre
Ġpasser a
Ġsan itaire
Ġdess in
Ġterre ur
Ġarriver a
Ġlet ton
Ġexemp tion
Ġrenouve lable
Ġpakistan ais
Ġconten us
ĠchaÃ® nes
ĠhÃ©r os
rom pu
Ġassassin at
Ġmercre di
f ord
j out
Ġs m
Ġm ir
il la
Ġfa me
Ġrapp e
at oires
lis Ã©e
ĠnÃ©cess iter
Ġaucun s
Ġaccep tables
ĠrÃ©alis Ã©e
Ġpris ons
ĠÃ©tu die
Ġaction naires
ĠÃ©qu itÃ©
Ġirak iens
Ġora le
Ġparven ue
Ġsuper fici
Ġjoue urs
ĠrÃ©vÃ© ler
Ġcrain dre
Ġaccus ations
Ġcriti quer
Ġquar tier
Ġavoc at
Ġreconnais sent
Ġisla mistes
fini ment
Ġox y
Ġapprofon di
Ġviet nam
Ġdispropor tion
Ġa qu
or tÃ©s
Ġcon gÃ©
Ġcon tiennent
Ġpays age
Ġdire ctes
Ġag issent
Ġab ond
Ġni g
ĠsÃ© qu
ĠprÃ©sent ant
Ġfi ctifs
ĠrÃ©alis Ã©es
ĠprÃ©v oient
Ġnor v
ĠdÃ©fin ie
Ġche val
Ġchi ens
Ġfourn issent
ĠÃ¢ me
Ġhabit uellement
Ġharmon ie
ĠintÃ©gr Ã©s
Ġsoud ain
ĠvÃ©hicu le
ĠrÃ©fÃ©rendum s
ĠrÃ©di ger
Ġconjoin tement
Ġ197 0
Ġautonom e
Ġliqui ditÃ©s
ĠattÃ©n uer
c ence
l t
v ants
Ġd Ã®ner
Ġr oth
Ġb ur
Ġb ombe
Ġcons tant
Ġent rent
ĠdÃ©p endra
Ġesp aces
Ġcar dia
Ġindi ens
Ġpara m
Ġjusti fication
Ġth aÃ¯
mon ie
Ġenvis agÃ©
Ġfavora blement
Ġoffici els
ĠÃ©lectora l
Ġaccus Ã©
ĠdÃ©tru it
ĠmÃ©dic al
ĠocÃ© ans
Ġaffec tÃ©s
ĠÃ©cos se
ĠperpÃ© tu
Ġfonde ments
Ã³ n
Ġmad rid
Ġnig Ã©ri
k s
v o
il lement
Ãª tement
Ġai gu
Ġprob abilitÃ©
um Ã©e
Ġhom osex
Ġappr end
gr Ã©s
Ġfi gurer
Ġaccep tent
Ġaccep tation
Ġju ges
Ġta p
lab lement
Ġ6 5
Ġespr its
Ġprofes seurs
Ġjapon aise
Ġexist ante
Ġcandida ture
Ġmora les
Ġsoule vÃ©e
Ġtyp ique
ĠhÃ´pit aux
ĠmÃ©diterranÃ© enne
Ġpropag ande
Ġinadmis sible
b ler
n iste
Ġd il
Ġp and
Ġa jout
un a
our v
Ġin grÃ©
Ġh ez
Ġper dent
ĠdÃ©p ourv
Ġaccord ent
ĠlÃ©g ales
Ġind Ã©ni
Ġim min
Ġnu llement
Ġsant er
Ġ199 1
Ġexc lus
Ġcoup able
Ġjourn aliste
Ġprov oque
Ġmanifes tation
Ġsouff rir
ĠidÃ© ologique
Ġquanti ta
Ġred ist
ĠillÃ©g aux
ĠintÃ©res ser
Ġvac cin
ĠÃ©par gn
Ġblo quer
Ġparviend rons
Ġbizar re
Ġdiox yde
bol lah
Ġinfir mi
ĠingrÃ© di
Ġhez bollah
o Ã¯s
s ons
Ġa xe
ĠrÃ© form
os Ã©
Ġdi ction
Ġdi rait
tr ui
Ġat ter
ĠÃ©le ver
Ġmin or
Ġsta tion
ĠdÃ©f endu
Ġph ili
Ġris quer
Ġoff res
Ġlaiss ons
Ġfond ations
Ġeffectu Ã©s
ĠÃ©mer ge
Ġprot Ã¨ge
ĠprÃ©para tifs
Ġcarb urants
Ġsugg Ã©rÃ©
Ġmaxim ale
Ġgri mp
ĠdÃ©l its
er tes
Ġen veloppe
us te
ĠdÃ© du
ĠprÃ© co
Ġse ctorie
Ġme ts
Ġno y
iss iles
ĠÂ °
Ġprodu ite
ĠprÃ©sent era
Ġaur iez
ĠrÃ©du isant
Ġatt ribuer
ĠcÃ´ tes
Ġlar ges
Ġpass ait
Ġessay e
Ġrespec tÃ©es
Ġfis ch
Ġsol s
Ġoppos Ã©e
ĠdÃ©fini tivement
Ġreje tÃ©e
Ġdimin ue
Ġfavor ise
Ġoccup Ã©s
Ġrele vant
Ġvas tes
Ġcerve aux
ĠrÃª ves
Ġrob ot
Ġcontraign ante
Ġslov Ã©nie
ĠpÃª cher
Ġlogici els
Ġsatell ite
ĠÃ©tabl issant
h am
n s
o lement
Ġl une
ti litÃ©
in ture
Ġest onie
ch age
Ġra b
Ġres tant
ĠmÃ© fi
Ġna z
ĠÃ©ner gique
Ġprof il
Ġfi Ã¨vre
Ġpara dis
ĠspÃ©ci fic
Ġexc user
ĠextrÃª mes
Ġmanifes ter
Ġexcep tionnelle
Ġparta gÃ©
ĠvÃ© gÃ©
Ġrelig ions
Ġprosp Ã¨re
ĠrÃ©solu ment
Ġdoc teur
Ġnavi gation
Ġsupr Ãªme
Ġplas tique
Ġpat ten
Ġavorte ment
ĠlÃ©gu mes
Ġobserva toire
Ġb ovine
ri a
ĠrÃ© itÃ©
Ġcon d
Ġra vie
Ã´ les
Ġman gÃ©
Ġfor es
ĠnÃ©cess itent
Ġci ga
Ġcomment er
Ġpres s
Ġiniti al
Ġver rez
ĠspÃ©ci aux
Ġrou m
Ġrem onte
Ġdir igÃ©
Ġrencont rÃ©s
Ġemploy er
ĠdÃ©lÃ©g ations
Ġconfor mer
Ã©v alu
ĠintÃ©res sÃ©
Ġfou le
Ġreconnaiss ons
Ġhonora bles
Ã¡ n
Ġrenv oy
ĠdÃ©lic ate
Ġexter ne
Ġtransit oire
ĠingÃ©nie urs
Ġpersua dÃ©
Ġeg yp
Ġtai wan
b Ã©ra
j i
n ock
Ġ $
Ġh els
Ġcer ti
Ġass istons
Ġsouhait s
Ġcontra ints
Ġaccep tÃ©s
Ġnu ire
ĠrÃ©alis tes
Ġgra d
Ġri v
Ġjusti fiÃ©e
Ġbar re
Ġfron tex
Ġajou tÃ©
ĠlibÃ©ra le
Ġhui le
Ġtemp Ãªte
Ġrequ is
Ġnav ire
Ġcaus Ã©s
Ġpertin entes
Ġressemb ler
ĠÃ©radi cation
Ġrestri ction
ĠÃ©quiv oque
Ġchim ique
Ġunani me
Ġcofin ancement
ĠdÃ©fait e
m ais
Â ´
Ġp Ã©nÃ©
Ġc lo
Ġm our
ĠdÃ© Ã§u
os a
tu me
ter ing
Ġh Ã¢
ol Ã©e
Ġgr Ã©
Ġsou ches
at om
Ġass or
Ġmont rant
Ġna val
Ġpens aient
Ġcontra int
ĠprÃ©v al
Ġrep orter
Ġjusti fiÃ©
Ġsy ner
Ġtrouv ait
Ġaccomp agne
Ġobser vÃ©
ĠdÃ©mocratique ment
Ġpasse p
Ġrencont rent
Ġindivid uelles
Ġsug gÃ©rer
Ġlongue ur
ĠdÃ©pla cement
Ġmenac Ã©s
Ġint Ã¨g
Ġeffor ce
ĠÃ©chou er
Ġsusp ension
Ġattribu tion
ĠindÃ©pendant es
Ġtrom per
Ġcraign ent
Ġclandes tine
Ġaccessi bles
Ġsonda ges
Ġkin nock
g eux
m ir
Ġs oph
Ġn gl
li ers
Ġse ction
Ġpo ign
Ġpays ans
Ġag ira
Ġad mi
Ġexp ul
Ġenv oie
ĠsÃ© cher
pi ra
Ġta Ã¯
Ġsus pens
Ġsouten us
Ġvoter ai
Ġrappel ons
Ġaffir ment
Ġanti bi
Ġsensi blement
Ġpertin ente
Ġparc our
Ġradio a
Ġespagnol s
ĠÃ©mo tions
Ġtox iques
Ġdouani Ã¨re
Ġcab ine
Ġende ttement
Ġexper tise
d us
Ġd us
in ki
Ġle h
Ġv et
ĠÃ©c ras
Ã´ mes
Ġentre ten
Ġtrans europÃ©ens
Ġtu Ã©s
Ġph are
Ġ4 2
Ġessay ez
Ġbre fs
Ġrecommand er
Ġconsac rÃ©e
Ġred res
Ġexcell ence
ĠsecrÃ© tari
ĠbilatÃ©ra les
Ġsymb olique
Ġconjoin te
Ġterri bles
Ġapprofond ir
rid ge
ĠreflÃ© ter
Ġplur alisme
Ġhorri ble
Ġflu ctu
ĠÃ©vÃ¨ nements
ĠlÃ©gif Ã©rer
Ġfisch ler
Ġhels inki
d en
l ins
l ler
Ġ ort
er ie
Ġv rais
Ġr w
ci ens
Ġdi a
va bilitÃ©
iss ants
Ã©n Ã©g
lis tes
ic a
Ġesp Ã©rance
ĠdÃ©mocra te
Ġmont Ã©nÃ©g
Ġk al
Ġ3 6
Ġaccep tons
Ġver rons
ĠrÃ©c lam
Ġconfi d
Ġconcurr ents
Ġsuffis ants
Ġsouten ant
Ġ201 5
Ġsep tiÃ¨me
Ġtransf Ã©rer
ĠrÃ©v ol
ĠÃ©mer gentes
ĠchrÃ© tien
Ġradic aux
Ġtourn ant
Ġvil lages
Ġtari f
Ġcompati ble
Ġfati guÃ©
Ġintitu lÃ©
Ġirrespons able
Ġparado x
ĠtaÃ¯ wan
c itÃ©
i blement
p ol
Ġa ille
il er
Ġh ora
Ġmon te
Ãª ter
Ġcont ente
ist ants
oy ers
Ġconcer tation
Ġbe aux
Ġdonn ons
Ġsp ir
Ġdou ter
Ġsoi x
Ġoff ert
Ġsec rets
ĠrÃ©un is
Ġmalheure ux
Ġth on
Ġexplo rer
Ġaimer ions
ĠprÃ©f Ã©rences
Ġimag in
Ġgu ise
ĠthÃ© Ã¢tre
ĠrÃ©fÃ©r ences
Ġrequ ises
Ġreti rÃ©
ĠopÃ©ration nel
Ġlour des
Ġcouver ts
Ġlab el
ĠbÃ© tail
ĠrÃ©cla mer
mbour ge
Ġmotiv ation
Ġallou Ã©s
ĠhonnÃªte tÃ©
Ġfre in
ĠÃ©chÃ© ance
ĠdÃ©gra dation
Ġbac tÃ©ri
Ġincom prÃ©hen
f t
l ante
z z
Ġn Ã©e
Ġf leurs
Ġb Ã¶
ci euses
Ġtra h
Ġdev ais
Ġno ci
ma d
ab it
ĠcrÃ© Ã©s
Ġva gues
Ġpropos ent
Ġpres tige
Ġenga gÃ©es
Ġuni fication
ĠrÃ©v iser
Ġcou che
Ġradi calement
ĠdÃ©pos er
ĠexÃ©cu tif
ĠdÃ©mont rent
ck er
Ġaband on
Ġsensi bilitÃ©
Ġsatisfait e
Ġrecons tru
Ġmassi f
rog Ã¨ne
ba Ã¯
Ġsusc iter
Ġfamili ale
Ġluxe mbourge
Ġlingu istiques
Ġinva sion
Ġenti tÃ©
Ġaci er
Ġsensibil isation
ĠdÃ©favor isÃ©es
ĠdÃ©taill Ã©es
ĠcinÃ© ma
Ġdissu a
Ġcontemp ora
ĠflÃ© au
Ġdiagnos tic
Ġletton ie
Ġvet o
a f
b ul
m it
s a
is on
Ġun itÃ©s
au v
Ġav al
Ġac tives
Ġconc ilier
ĠdÃ©m ons
Ġpla ide
Ġobje ctions
anti l
ĠâĢ ¦
ĠsÃ» res
Ġis olement
Ġconsta t
Ġ6 00
ob o
Ġmu ga
ĠintÃ©ress ants
Ġsouff ert
Ġretar der
Ġdispon ibilitÃ©
Ġpati ence
Ġrac ines
Ġradic al
Ġretrouv ent
ĠdÃ©sÃ©quili bre
Ġdoc tr
Ġtox ic
ĠÃ©man ant
Ġprag matique
ĠrÃ©cip ro
Ġrense ignements
Ġcorrespon dent
Ġinterc onne
Ġclon age
Ġredist ribu
c our
d y
o du
Ġn at
la ise
Ġcon j
Ã´ me
Ġfin landaise
Ġti mor
dÃ© qu
Ġautor ise
Ġabord Ã©s
Ġbas se
ĠspÃ©ci alistes
Ġlim itÃ©s
Ġconstru cteurs
Ġ4 8
Ġcli ent
ĠcompÃ©ti tifs
Ġadap tÃ©e
ĠgÃ© ographiques
Ġcolle ctif
Ġparven ons
Ġconsac rÃ©s
Ġrequ ise
ĠdÃ©tail lÃ©
Ġcontraign antes
ĠentraÃ®ner a
ĠsÃ©v Ã¨re
Ġdiv isions
ĠdÃ©cou lent
Ġstabil iser
ĠmultilatÃ©ra l
Ġbro k
Ġina dÃ©qu
Ġtari fs
Ġennu y
Ġhypoc ris
Ġarres tation
Ġconfid enti
m lin
en n
ou te
Ġs log
Ġde b
Ġla c
Ġj ar
Ġfa u
Ġg au
Ġapp lications
Ġdi lem
Ġvo tons
Ġam ou
for mes
Ġconseil ler
ĠsÃ© du
Ġpe ter
mÃ© tri
Ġindi cations
Ġcontra inte
Ġform u
Ġri ch
Ġsy ri
Ġcondu cteurs
Ġten nis
Ġassur Ã©e
ĠpÃ©n ales
ĠÃ©vent uels
Ġsil enci
Ġresta urant
Ġintellig ents
Ġinspe ctions
Ġmeur tre
Ġpolici Ã¨re
Ġcamb ridge
Ġexpl osi
ĠambiguÃ¯ tÃ©
ĠmontÃ©nÃ©g ro
Ġmuga be
on ale
Ġc ents
Ġa lex
Ġde grÃ©s
il lon
Ġf oyers
eu tiques
Ġch ron
Ġai dent
Ġob tient
ise mb
ĠÃ©conom iser
Ġcontre fa
Ġcour ants
Ġk ir
Ġmen a
Ġgouvernement ale
Ġcor romp
Ġpres tations
Ġsub issent
ĠÃ©ch antil
Ġsuffis ent
Ġsus pe
Ġtranspar entes
Ġsau vages
ĠempÃª chÃ©
Ġfac iles
ĠdÃ©pos Ã©es
Ġsour is
ĠintÃ©gr Ã©es
atri ce
Ġgre cs
ĠdÃ©n oncer
Ġcoura geux
Ġconstituer ait
ĠinterprÃ© ter
Ġajus tements
Ġferrovi aires
ĠrevÃª tent
Ġcuri eux
Ġlob by
Ġkre mlin
ĠsecrÃ©tari at
Ġhypocris ie
Ġm enti
Ġqu alitÃ©s
si Ã¨re
Ġj al
Ġpour rez
Ġdu rer
Ġch Ã¨re
Ġav ancement
Ġpo table
ale m
Ġdis e
Ġal lon
ĠdÃ©c oup
Ġfer mes
Ġoff rant
Ġtransp orte
ĠspÃ©ci ales
Ġimpos Ã©e
fait s
Ġmer kel
et tes
Ġcoup er
Ġsemb lable
lus coni
Ġpotenti elle
Ġber lusconi
Ġparal ys
Ġconvi endrait
Ġpes er
Ġstatis tique
Ġtransfrontali Ã¨res
pro lifÃ©ration
ĠprÃ©occu per
Ġsecon daires
Ġincomp ati
Ġabsten u
ĠgÃ¢ teau
Ġescla vage
Ġcombusti bles
Ġegyp te
o tique
r ise
ou e
is ait
il lÃ©e
us alem
Ġb ain
li ez
Ġra p
Ġapp auv
ĠÃ©c o
Ġins piration
Ġren de
Ġk i
Ġjou issent
Ġbas er
Ġvais se
Ġinqui Ã¨tent
ĠprÃ©cis Ã©
Ġsemb lables
ĠcompÃ©ti tif
Ġbou c
Ġ9 9
ĠdÃ» ment
Ġgu ant
Ġindivid uellement
ĠbÃ¢ tir
Ġquali fier
Ġparta gÃ©e
Ġmonna ies
Ġneu tra
Ġtri p
Ġreti re
Ġassu me
Ġprud ent
Ġparc ourir
ĠprÃ©ju dici
Ġcl Ã´
Ġauto dÃ©
Ġalar m
Ġalg Ã©rie
Ġenti tÃ©s
Ġchanti ers
Ġantibi otiques
g me
h Ã©r
l issent
Ġd g
Ġc is
Ġs tre
Ġt ue
Ġun ir
li Ã¨re
Ġg ou
Ġg ig
Ã©r ants
Ġres ser
Ġob tention
Ġter mine
Ġfor cer
Ġni co
Ġpri maire
Ġinf li
Ġappar ence
Ġunivers itaire
Ġdynam isme
Ġreprodu ire
Ġpil ote
ĠnÃ©er landaise
Ġcompara ble
Ġcontradi ctoires
ĠdÃ©rog ations
Ġscru tin
Ġconvers ation
ĠprÃ©vis ible
Ġarbitra ire
Ġalban ais
ĠplanÃ© taire
e d
e ments
Ġp Ã¨se
re ur
Ġr endra
ĠdÃ© ception
ĠrÃ© ins
au d
Ġh aye
ens Ã©
Ġinter dÃ©
Ġmil itants
Ġti bÃ©
Ġpla inte
ĠÃ©g ale
ĠdÃ©s ord
Ġcontra s
Ġoff ertes
Ġreconn ue
Ġsol lic
Ġadres sÃ©
ĠadÃ©qu ats
Ġpaci fiques
ĠÃ©lectora t
ĠcaractÃ©ris tique
Ġul tÃ©
ĠrÃ©sul tant
Ġmex ic
Ġspecta cle
ĠdÃ©lib Ã©rÃ©ment
ĠpÃ©troli ers
ĠdÃ©tÃ©ri oration
Ġprovin ce
ĠmanÅĵ uvre
Ġkur des
Ġcambod ge
Ġdiction naire
g s
l Ã¢
Ġn utri
Ġf ant
Ġin tu
Ġma lais
tÃ© rie
ci ation
Ġpro cla
Ġi di
tr Ã©s
Ġar chi
Ġar ctique
ma tisme
Ġmar ins
Ġva che
Ġnation alitÃ©
Ġvis er
Ġfer aient
Ġabord Ã©e
Ġpens es
Ġban anes
Ġisra Ã©
Ġbar b
Ġfourn is
ĠÃ¢ gÃ©s
Ġsouff le
Ġadap tÃ©
Ġrefus ent
Ġmora toire
Ġsoule vÃ©s
Ġsyn onyme
Ġconvi ctions
Ġconfor mes
Ġpay Ã©s
Ġul tra
Ġprivil Ã¨ge
Ġfamili ales
Ġphra ses
ĠÃ©mo tion
Ġcompara bles
Ġpom mes
Ġchoc olat
ĠdÃ©sign Ã©
Ġapparten ant
Ġprolon ger
Ġjac ques
Ġaveug le
ĠamÃ©n agement
ĠdÃ©ploie ment
Ġmagaz ine
una mi
ĠprÃ©co ce
b as
f at
t end
en ons
Ġs is
Ġs ri
Ġm ande
Ġn ie
Ġla ma
Ġla tin
ur Ã©es
ĠÃ© lig
Ġin cidents
Ġb ale
Ġma tch
Ġg er
Ġca deau
Ġdis aient
Ġins cri
ĠdÃ©c ri
Ġemp orter
ver sement
Ġmain tient
Ġcr is
Ġpe ines
Ġobje ction
Ġfinanci Ã¨rement
ĠÃ©g aux
Ġconcern Ã©e
Ġsign ale
Ġsouv enez
Ġrenfor Ã§ant
Ġfra udes
vis ible
Ġremp ortÃ©
Ġsubs titu
Ġmanifes tants
Ġitali ens
Ġobs ol
Ġacqu ise
Ġaffe ctent
ĠÃ©tro it
ĠÃ©vident es
Ġadministra tifs
ĠdÃ©termin Ã©s
Ġcriti quÃ©
Ġchapit res
Ġquar ante
europÃ© en
Ġengend rer
Ġts unami
Ġjamb es
Ġavent ure
ĠgÃ©opoli tique
Ġtis su
c or
g it
en dez
Ġa se
om ph
Ġr ire
Ġr endant
ar on
Ġam itiÃ©
Ġdis sid
iss aient
Ġdo tÃ©
Ġpos session
ĠcrÃ© anci
ĠÃ©le veurs
Ġfer mi
Ġ3 3
Ġver ra
Ġrou ges
Ġ5 5
be lles
Ġintrodu ite
Ġpol lue
Ġemb lÃ©e
Ġcondam ne
Ġara fat
Ġappliqu Ã©s
Ġtri omph
Ġmenac Ã©
Ġpertin ent
Ġgui de
ĠÃ©car ts
Ġinh abit
ĠdÃ©sesp oir
ĠprÃ©con ise
ĠmÃ¨ nent
Ġpertur b
Ġnett oy
Ġais Ã©ment
a z
g og
l ux
Ġc enti
re usement
Ġj Ã©r
ĠdÃ© lÃ©
ci o
Ġsur cro
res pect
ĠprÃ© cieuse
di ctions
and es
Ġou g
Ġdis tances
el l
Ġann on
Ġsom alie
Ġdoi ve
Ġcha peau
Ġfais ais
ĠÃ©ch anger
Ġta mpe
Ġrapi ditÃ©
Ġcontribu able
Ġintrodu ites
Ġst ress
Ġdisposi tifs
Ġvoter a
Ġlumi Ã¨res
Ġnour r
ĠrÃ©gu lateurs
Ġap ais
Ġhonn Ãªtes
Ġcolon ies
Ġcontro verse
Ġaver tissement
Ġpsych ologique
Ġbless Ã©s
Ġchu tÃ©
Ġinterpr Ã©tÃ©
Ġconnex ion
Ġcommet tre
Ġken ya
ĠallÃ©g ations
Ġsoph isti
Ġtampe re
c is
w in
Ġd ite
an ique
is sions
ĠÃ© mi
Ġpar d
la de
Ġpl omb
Ġtou chant
fi ce
ssi ons
Ġab u
ĠrÃ©p res
ĠgÃ©n Ã¨re
Ġrepr end
rib lement
Ġnation alistes
olog ies
Ġasse oir
Ġdou ane
ĠrÃ©f Ã¨re
Ġenga gent
Ġbi Ã¨re
Ġpara Ã®tre
Ġattein tes
Ġst op
Ġprov oc
Ġbal le
Ġsin ga
ĠempÃª chent
Ġcou leurs
Ġtradi tionnel
Ġsuper f
Ġimpression n
Ġexige ant
Ġexamin Ã©e
ĠcatÃ©g orique
Ġdra me
ĠÃ©th i
Ġressemb lent
Ġinvent Ã©
Ġsco laire
ĠmÃ©diterranÃ© en
Ġrevend ications
Ġindire ctement
Ġaper Ã§u
Ġinterv ient
Ġmob ile
Ġpluriann uel
Ġfantas tique
Ġnorv Ã¨ge
Ġsoix ante
Ġgig antes
' "
i k
k ha
m us
es s
ti l
Ġm ers
ra c
Ġo eil
ue la
Ġtra itons
Ġcont our
Ã©ra r
Ġmar ques
Ġmar quÃ©e
Ġor ches
ĠdÃ©b lo
Ġinf Ã©rie
su rer
Ġchar gÃ©s
Ġforme lle
Ġten sion
Ġfix Ã©es
Ġpartis an
Ġunivers itaires
Ġconser vateur
Ġcondam nÃ©s
Ġton y
Ġexemp laire
ĠÃ©l ites
Ġsignifica tifs
Ġmili eux
Ġval or
Ġcens Ã©
Ġcontraign ants
Ġincer titudes
ĠintÃ©ri maire
Ġmodern iser
Ġsusp endre
ĠsÃ©par Ã©
Ġembar ras
ĠextrÃ© misme
Ġressenti r
Ġinterro ger
ĠrÃ©ex amen
Ġrembour sement
Ġmens onge
Ġineffic ace
Ġindu b
Ġdistor sions
ĠingrÃ©di ents
ĠmÃ©fi ance
ĠisraÃ© lo
ĠjÃ©r usalem
g Ã¨nes
er baÃ¯
is tÃ©ri
is tence
Ġm Ã¢
Ġm issiles
Ġpa tron
Ġen ca
ta teur
Ġre dev
tu e
Ġsa h
Ġsa ge
Ġy Ã©
Ġres p
Ġno tes
onne ments
Ġdire cteurs
Ġco tÃ©
iss antes
Ġvi ole
Ġmar qu
Ġcro Ã®tre
ĠÃ©v olue
Ġk ar
Ġpara issent
ĠtÃ© moins
Ġcapit ales
Ġ8 00
Ġgu Ã©r
ĠillÃ©g ales
Ġinstal lation
Ġterminer ai
Ġtransfor me
ĠdÃ©t ourn
Ġfo lle
Ġanne x
dj an
Ġaz erbaÃ¯
Ġincontes tablement
Ġchant er
Ġdesque ls
appr opri
ĠspÃ©cu la
Ġdeb out
Ġsinga pour
ĠazerbaÃ¯ djan
g an
n o
v it
w it
Ġp Ã¨res
Ġla ment
ĠÃ© lo
Ġin co
Ġil lu
Ġma c
Ġre jets
Ġch ante
di ons
and er
Ġaut hen
Ġdire ctions
Ġat tir
ĠdÃ©p endre
Ġti mes
Ġfinan cÃ©
Ġfinan cÃ©s
Ġlong s
Ã´t res
ĠrÃ©alis ations
ĠreprÃ©sent ante
Ġri z
ĠbÃ©nÃ© v
Ã®t res
Ġdemander ai
Ġstructure l
ĠÃ©n um
Ġsolid aire
Ġmanifes tÃ©
Ġadap tÃ©es
Ġgu inÃ©e
Ġliv rer
Ġapprouv ons
ĠdÃ©pla cÃ©es
Ġcompos ants
Ġatten tifs
Ġmenac ent
Ġmodes tes
Ġpil otes
Ġhi Ã©rar
ĠÃ©car ter
Ġdiscip lin
ĠconÃ§ ue
Ġapparten ance
Ġappe lait
ĠrÃ©exa miner
ĠrÃ©para tion
Ġacquisi tion
Ġrich ard
Ġcis j
9 9
Ġd y
Ġa ri
Ġf ur
ch ose
onn ent
Ġaut oc
Ġag issons
Ã©n ier
ĠÃ©conom iste
Ġpri mes
ĠdÃ©m ante
Ġcar rÃ©
Ġren verser
Ġsta r
Ġopp ression
Ġban qui
Ġfonda teurs
ĠarrÃª tÃ©s
Ġpren antes
Ġrester ont
ĠdÃ©velopp ent
Ġaccue ille
Ġcompos Ã©e
Ġsouver ains
ĠdÃ©rou lement
Ġattent at
Ġru pture
Ġsh aron
Ġartis te
Ġvra isemb
ĠdÃ©cou lant
Ġmotiv ations
ĠnÃ©gli ger
Ġmerveille use
Ġvenez uela
Ġamus ant
Ġras surer
ĠultÃ©rieure ment
ĠyÃ© men
Ġcisj ordanie
Ã©nier ie
u fs
Ġr omp
Ġma ur
Ġfa ct
Ġne z
Ġh os
Ġan Ã©
Ġan gu
Ġli gue
Ġno tÃ©
Ġar rog
ma ient
Ġmar di
Ġnom mer
ĠmÃ© tal
Ġpla cÃ©s
Ġk urde
Ġsta bles
Ġappr ennent
Ġ3 4
Ġis lande
ĠdÃ©pu tÃ©e
ĠÃ©p is
Ġpor tait
Ġcommencer ai
vie w
ĠÃ©vent uel
ĠdÃ©mar rer
Ġbo om
Ġfour nies
Ġatten dez
Ġsinc Ã¨res
Ġretra itÃ©s
Ġint ensitÃ©
Ġenseign er
ĠdÃ©fa ill
Ġlic ence
Ġgui der
Ġprati quer
Ġorigin al
Ġenvisag Ã©e
Ġsynth Ã¨se
Ġmajor itaire
Ġimpun itÃ©
Ġdorm ir
Ġsurcro Ã®t
Ã© rez
Ġp ic
Ġc oupes
ti t
Ġn age
Ġqu Ãªte
ĠÃ© ri
ĠdÃ© range
Ġg Ã©rÃ©
Ġtra itent
Ġent er
cu laires
Ġper fe
Ġexp orter
Ġcour rier
Ġmin istÃ©ri
Ġvis itÃ©
Ġautor itaire
Ġeuros tat
Ġassur ant
ĠentraÃ® nent
ĠdÃ©pos Ã©e
ĠÃ©vent ualitÃ©
Ġpermettra ient
Ġcop ie
Ġferme tÃ©
Ġfrapp er
Ġcompos Ã©
ĠtÃ©lÃ©ph ones
Ġformul Ã©e
Ġtransform Ã©
Ġrenv oyer
Ġenregistre r
Ġbloc age
Ġinspe ction
Ġinh um
Ġdivis Ã©
Ġdomes tique
ĠschÃ© ma
Ġoxy gÃ¨ne
m ie
u ge
v in
an ation
Ġm urs
in ateur
Ġf oyer
si bilitÃ©
Ġpar ts
Ġin appropri
ĠdÃ© ro
Ġma ternelle
ĠrÃ© alise
Ġre ach
Ġcon qu
al l
ĠprÃ© le
Ġch ic
Ġres tÃ©s
che z
Ġar mÃ©s
Ġob Ã©
Ġab ri
Ġba ign
Ġinf Ã©rieure
Ġaugment ations
Ġpi Ã©
Ġpi Ã¨ge
Ġorient er
ĠÃ©p ouv
Ġur ani
Ġencoura gement
Ġcollab ora
cepti cisme
Ġexcell ents
Ġvoyage urs
Ġmobil es
Ġextraord inaires
Ġrob ots
Ġfamili al
ĠmultilatÃ©ra le
Ġyougosla ve
Ġrestre indre
ĠmaÃ®tr iser
ĠcompÃ©t ents
Ġinnoc ents
ĠmÃ©ta ph
Ġpouss Ã©e
Ġrej oins
Ġfructu euse
Ġnomin al
Ġolymp iques
Ġscep tiques
Ġsouples se
Ġurani um
d isme
e usement
s ins
Ġp onc
Ġe c
Ġil li
Ġma Ã¯s
ĠrÃ© organis
Ġch r
ter ait
ces seurs
ĠprÃ©sid ences
Ġcomp ortent
ma la
Ġfin it
Ġdo tÃ©e
ĠrÃ©p ri
Ġprodu ites
Ġcour ante
Ġprin ce
ĠgÃ©n ie
Ġtu ber
Ġna Ã®tre
Ġuni form
Ġviol ent
Ġcher chons
lan tation
Ġanim ales
Ġten eur
Ġ7 00
ines s
Ġirak ienne
Ġassoci Ã©e
Ġappar tiennent
Ġcorre ction
Ġtes ter
Ġcolle ctives
Ġconsac re
Ġrele vÃ©
ĠdÃ©n u
ĠÃ©tique tte
Ġcorrespond ant
Ġing Ã©rence
ĠdÃ©t ente
dis cri
Ġimm enses
Ġignor ance
Ġinspe cteurs
Ġbless ures
ĠdÃ©bu tÃ©
Ġdoig ts
Ġpropag ation
Ġconta min
Ġdirig Ã©e
Ġalloc ations
Ġstupi de
ĠnÃ©fas tes
Ġrappe lez
b an
c orÃ©
n ob
r Ã´
t or
v ard
Ġl Ã¨
Ġpa lu
Ġin att
tre r
Ġfa ta
Ġra con
Ġcons entis
Ġtr ouvez
Ġan i
Ġres titu
Ġres tÃ©e
Ġon Ã©
Ġon ze
Ġas sim
Ġinter ag
Ġinter view
Ġmar ine
Ġfon der
ist ante
Ġfor mÃ©
Ġrec our
Ġhom ologues
Ġk im
Ġcoop Ã©ra
ĠdÃ©s olÃ©e
Ġform ations
Ġdonner ait
Ġjuridi ction
lan tiques
Ġsubs iste
ĠcontrÃ´ lÃ©e
ĠprÃ©f Ã¨rent
Ġpopu laritÃ©
ĠrÃ©volution naire
Ġsomme ts
ĠbÃ© bÃ©s
Ġdicta teur
Ġii i
Ġclari fication
Ġtempora ires
Ġcontes te
ĠdÃ©bou chÃ©
Ġsti p
Ġscandale ux
Ġmorce aux
Ġjac k
Ġinspir Ã©
Ġapplaud issements
Ġgraph ique
Ġintu i
d ents
m y
p t
Ġp Ã¨s
Ġt endre
ĠÃ© ro
Ã¨ lent
Ġpar k
Ġin i
Ġexp ert
min aire
Ġprodu cteur
ver sion
Ġobje ctive
ĠÃ©g oÃ¯s
th e
Ġatte ler
ĠmÃ©di oc
Ġviol ents
Ġrep or
Ġtent ation
et tering
Ġbal tes
Ġexer cÃ©e
Ġrent re
Ġbru tale
Ġmutu el
Ġprud ents
ĠvulnÃ©ra bilitÃ©
ow ski
Ġsoup Ã§
Ġprotes tations
Ġpier res
Ġdomin ante
Ġreten u
ĠrÃ©pand ue
Ġamp li
ĠfrÃ©qu ence
Ġbomb arde
Ġindemn isation
ĠrÃ©comp ense
Ġhyd rogÃ¨ne
Ġconta mination
Ġtal ent
Ġke y
Ġmira cle
ĠÅĵuv rer
ĠÃ©pouv an
Ġtuber cul
Ġpalu disme
e v
i um
n istes
z ak
Ġn Ã©s
ĠrÃ© h
Ġpl on
Ġapp rÃª
Ġvo cation
Ġli ti
Ġparti el
Ġacc ou
va bles
ĠrÃ©g lÃ©
ĠrÃ©g issant
Ġpos taux
Ġaur ai
anti le
ĠrÃ©du ites
Ġaliment er
ĠpÃ© d
Ġregard ant
Ġmention nÃ©e
Ġchois ie
Ġprogres se
Ġexer gue
Ġemploy Ã©
Ġtomb Ã©e
Ġblan chi
Ġrent abilitÃ©
Ġdevenu es
Ġcrain t
Ġmenac Ã©e
Ġdra peau
Ġcaus er
ĠdÃ©pas sent
Ġurb aines
Ġnoir s
Ġcalcul s
Ġliqui de
ĠpÃ©ti tion
Ġreten ue
ĠdÃ©sign ation
Ġadress Ã©es
ĠaccÃ©l Ã©ration
Ġrigou reux
ĠprÃ©voy ant
Ġinjusti ce
ĠÃ©duca tif
Ġfrus tration
Ġregr oup
ĠvÅĵ ux
Ġinse ctes
obo da
Ġredistribu tion
Ġdilem me
Ġcontrefa Ã§on
Ġponc tu
Ġtubercul ose
c as
c ope
d or
i ze
m Ã¨re
Ġc it
Ġa char
Ġe cho
Ġin Ã©
Ġb lÃ¢
ĠprÃ© dire
Ġpo ettering
da ient
Ġab ol
Ġman uel
Ġtravail liste
rais se
Ġpri me
lo ie
Ġba f
Ġdemand ait
Ġsouti endrons
Ġprof itent
ĠcÃ´ tiÃ¨res
Ġinstru ctions
Ġpoursui vra
han a
Ġ12 0
Ġacqu it
Ġadministra tif
Ġflex ibles
Ġregret ter
ĠÃ©lectora les
ĠdÃ©couver tes
Ġrepos ent
Ġreprodu ction
Ġurb ain
Ġralenti r
Ġintellectu els
Ġretrouv Ã©
ĠdÃ©ploy er
ĠprÃ©ven tive
ĠmaÃ®tr ise
Ġanticip er
ĠrÃ©in trodu
Ġsw oboda
Ġdoub lÃ©
Ġner veux
Ġpn b
Ġinquie ts
Ġdoctr ine
discri mination
n ait
Ġs ir
er tion
an gÃ©
Ġle vÃ©
Ġma ig
la di
Ġpl ant
Ġh ali
Ġdis si
Ġdis ais
ma ires
ma tis
Ġat out
ĠdÃ©p endant
Ġann an
ĠdÃ©m un
ls trÃ¶m
Ġren vers
Ġpla cÃ©e
ĠgÃ©n ome
Ġprof itÃ©
Ġrespe ctifs
Ġsec r
Ġbar nier
ĠprÃ©cÃ© dÃ©
Ġrend s
Ġfix Ã©e
Ġign orÃ©
Ġexcep tionnel
Ġnum Ã©r
ĠopÃ©ration nelle
Ġsymb oles
ĠrÃ©sid ence
Ġdiv iser
Ġurb aine
Ġtun nel
Ġpersu ad
ĠlÃ© galement
Ġrembour ser
Ġgasp illage
Ġcoton ou
Ġrecru tement
Ġboute ille
c tÃ©e
d r
s tan
Ġc le
Ġe co
Ġm ien
Ġn ar
Ġin au
Ġb end
Ġma ternitÃ©
Ġdu es
Ġg Ã¶
ter mination
ais es
Ġca mions
ĠÃ©c ra
Ġam Ã¨
Ġat roc
Ġor ange
Ġprodu ise
Ġass ise
Ġaff lux
ĠgÃ©n ial
Ġci bles
Ġconstitu ait
Ġinc omb
Ġba g
Ġconn ait
Ġim meu
Ġ4 3
Ġchar les
Ġsais i
Ġinnov antes
Ġchance lier
ĠÃ©mer ger
Ġprofon ds
Ġach Ã¨tent
Ġperd ue
ĠtÃ©lÃ©ph on
Ġtourn Ã©
ĠsÃ©par Ã©ment
Ġinsp irer
Ġlic ences
Ġbro wn
Ġenregistr Ã©s
ĠtÃ©moign er
Ġble ue
ĠgÃ©nÃ©ralis Ã©e
Ġcompliqu Ã©e
Ġintr ins
Ġprocure ur
Ġlaiti ers
Ġbol kes
Ġsoudaine ment
ĠbactÃ©ri es
Ġbolkes tein
- -
c ours
l ur
Ġp ne
ou Ã©
Ġle vier
Ġf le
ĠdÃ© prÃ©
Ġma man
Ġcon fier
ĠprÃ© li
tu rer
end us
di ff
Ġco di
Ġvi ve
Ġter riblement
ĠdÃ©m ographiques
Ã¨g ent
des h
Ġvis iter
Ġdou z
Ġorganis Ã©es
Ġindi cation
Åĵ urs
Ġ3 8
Ġtrop ic
Ġreconn us
Ġsuc c
Ġforme llement
Ġessay ant
ĠlÃ©gisla teurs
Ġsubs istent
ĠinquiÃ© tante
Ġhabit udes
Ġbus iness
Ġhon orer
Ġnorm alisation
Ġrent able
Ġsignifica tives
Ġpes c
Ġdistribu Ã©
Ġhonn Ãªtement
ĠvulnÃ©ra ble
Ġhandicap Ã©s
Ġtend ent
Ġaccompagn Ã©
Ġcommuni quÃ©
Ġdiv or
Ġdesc endre
Ġcolon i
ĠintermÃ©di aires
Ġproportion nalitÃ©
ĠperÃ§ ue
Ã©m ie
Ġsupr anation
Ġfrag iles
Ġmigra toires
Ġeffra y
Ġchypri ote
ĠÃ©b ran
Ġatom ique
ĠinconvÃ©nient s
prÃ©s ent
Ġtransporte urs
f el
j ad
k is
n ographie
x tes
Ġ ours
Ġm eu
or ent
ch enko
Ġcomm er
Ġh el
Ġra tionnelle
Ġli aison
Ġam er
gn Ã©
Ġpers iste
endre z
ct ant
ĠsÃ© parer
par cours
ora ble
Ġmont agnes
Ġindi quant
ĠÅĵ ufs
ot yp
Ġlar mes
Ġmodi fiÃ©es
Ġsan gu
ru p
Ġsol enne
Ġtard er
Ġidenti fiÃ©
ĠÃ©vo quÃ©e
Ġtenu es
Ġexac te
Ġretour ne
Ġinfor matiques
Ġphot ograph
Ġrur ale
Ġrempla cÃ©
Ġcompos ante
ĠcaractÃ© rise
Ġjo han
Ġmenac er
ĠbilatÃ©ra l
Ġing Ã©nierie
Ġbles sÃ©
Ġattra per
Ġrenv oi
Ġment ale
ĠdÃ©sesp Ã©rÃ©ment
Ġincon di
Ġand ers
Ġtac is
Ġincid ences
Ġsousc ris
Ġvola tilitÃ©
Ġcombusti ble
ĠdÃ©tour ner
itar isme
Ġalloc ation
Ġspati ale
Ġrattra per
ĠthaÃ¯ lande
ĠautodÃ© termination
b rer
d ul
t ora
y r
Ġl Ã¨ve
Ġp ond
ou ch
Ġt oit
ra f
ci ent
Ġo li
Ġra il
Ġsa per
Ġsou ter
Ġon cle
ma ra
ab u
Ġmar t
Ġpos Ã©s
Ġpouv iez
tis f
ĠdÃ©b rou
Ġcour be
Ġdom ination
olog ue
Ġdur Ã©
Ġsub ord
Ġconsom mer
Ġur gents
Ġsuc cessi
Ġira q
Ġglob aux
Ġprofes sions
Ġappar ente
Ġconfront Ã©es
Ġpen che
Ġsoir Ã©e
Ġach Ã¨vement
Ã¶ der
Ġsex uel
Ġgaran tis
Ġpersu ader
Ġbais sÃ©
Ġadul te
Ġsaou di
Ġmacro Ã©conomique
ho do
Ġrecue illir
Ġdiversi fication
Ġmassac re
ĠtraÃ® ne
Ġcoex istence
Ġspir it
ĠcrÃ©anci ers
c ons
Ġ ose
Ġa ph
Ġa isÃ©
ou ts
ur ations
le ct
Ġpa la
om as
al d
ĠprÃ© su
ro ga
pe l
Ġtra giques
Ġsa le
Ġcomp tons
Ġas y
Ġal erte
Ġinter action
iss er
oc a
Ġins a
Ġat titudes
alis ations
Ġprodu ctions
Ġesp Ã©rant
ĠcrÃ© ons
ĠdiffÃ©r ends
Ġsta gnation
Ġpropos ant
Ġense ignements
Ġindi enne
Ġmi chel
Ġarri vons
Ġabs tra
Ġprom en
Ġcomb iner
Ġrou tiers
Ġesti mer
Ġexpri ment
ĠdÃ©ci dÃ©e
Ġatta r
Ġinv itons
Ġfort une
ĠprÃ©occup Ã©
ĠprÃ©f Ã©re
ĠthÃ© orique
Ġeffectu Ã©es
Ġrenouve llement
Ġneu tre
Ġro be
ĠintÃ©res sent
Ġsomme il
Ġhy gi
Ġtransfrontali er
Ġpropor tions
Ġcens Ã©s
prÃ©sid ente
Ġgaran tissent
Ġdiscrimin atoire
Ġadress Ã©e
Ġrevend i
Ġbomb es
Ġmanip ulation
Ġregr oupe
ĠrÃ©ac teurs
ĠdÃ©rÃ©g lement
Ġsun n
Ġportefeu ille
Ġatroc itÃ©s
b org
h ard
l ants
Ġd ons
it r
Ġt cher
Ġf olie
ĠÃ© ve
ta taires
Ġin vention
ir s
Ġb is
Ġre belles
ĠprÃ© roga
ro t
Ġex igÃ©
mb res
Ġdi able
Ġli er
ine jad
Ġins istance
Ġsoci alement
ic ation
Ġ19 3
Ġmod Ã©ration
ari enne
Ġchi rac
ĠdÃ©ter mine
Ġmention nÃ©es
Ġache ver
Ġtradi tionnellement
fica tif
Ġminu tie
ĠprÃ©t endu
Ġtex tiles
Ġsusp endue
Ġpersonn alitÃ©s
Ġmeur tri
Ġprimordi ale
Ġtransat lantiques
Ġdouani Ã¨res
ĠÃ©criv ain
ĠdÃ©ser t
ĠsupÃ©rie urs
Ġadoles c
Ġimpro b
Ġrecev ront
Ġrw anda
Ġtoxic om
Ġperfe ction
z u
Ġp el
Ġm ons
Ġn aiss
un es
Ġf leur
te use
Ġau trui
ta ins
ci en
ais ons
Ġtra u
Ġdi ab
fi ants
Ġob tiennent
Ġeff ac
onc ture
ĠdÃ©p ri
ĠdÃ©p Ã´t
Ġab ais
Ġab bas
Ġaccord Ã©s
Ġti g
Ġcas se
Ġeffe ctif
ĠlÃ©g alitÃ©
Ġposi tivement
Ġinc in
Ġ19 1
ph ab
Ġautor isÃ©e
Ġservi ra
Ġord res
ĠreprÃ©sent Ã©s
Ġw ol
ag o
Ġfran chir
ĠprotÃ© gÃ©es
ĠrÃ©glement aires
Ġremp lis
Ġcirc uler
Ġinn omb
Ġrespec tÃ©e
Ġrenforcer a
Ġus agers
hi ma
Ġexpor tateurs
Ġoccup Ã©e
Ġcy c
Ġach Ã¨te
ĠdÃ©n on
Ġconvi ens
Ġdan u
Ġperd ants
Ġinsc rits
Ġmassi ves
Ġpersonn age
Ġprotes tation
Ġpom me
Ġdivis Ã©e
ĠprÃ©tend ent
Ġrestre int
esti mer
Ġ196 0
ĠÃ©quiv aut
Ġexpliqu ent
Ġlogici el
Ġlicenci ements
Ġarrange ments
ĠrÃ©public ains
ĠÃ©cosyst Ã¨mes
Ġindub itablement
nob yl
Ġblanchi ment
Ġjohan nes
Ġd au
Ġl ent
Ġp is
Ġc ord
Ġpa ient
Ġpa vil
or ient
Ġque ue
me di
ĠdÃ© lit
ne t
Ġch Ã¢
ge ments
oir s
ul ations
ĠÃ©c oss
Ã©ra it
cu les
Ġag ent
Ġco ca
osi tions
Ġconseil lers
lic ites
Ġass ain
ĠcrÃ© Ã©es
Ġess aient
Ġhom og
Ġmin us
Ġva lables
Ġvis ibilitÃ©
Ġinc ul
Ġfer re
Ġense igne
Ġcor rÃ©
Ġph as
Ġrenfor cent
ĠreprÃ©sent ait
Ġviol ente
Ġple urer
Ġcir cu
Ġmer cure
ĠtÃ©lÃ© vis
Ġorig ines
Ġglob ales
Ġ8 5
ret tes
Ġcontribuer ait
Ġaccro Ã®t
Ġalli Ã©
Ġtribun e
Ġvisite urs
Ġrepos ant
Ġciter ai
Ġsoup le
aÃ¯ da
Ġmonop oles
Ġq aÃ¯da
Ġadh Ã¨re
Ġreviend rait
Ġore ille
Ġdesque lles
Ġesca lade
Ġambassade ur
ĠnÃ©glige able
Ġexhaus tive
Ġcompromet tre
ĠdÃ©par tement
Ġminor itaires
Ġort hodo
Ġcollabora teurs
Ġdanu be
w o
Ã© sie
Ġen gr
Ã¨ ves
Ġj ordanie
Ġb illet
Ġpour v
Ġma g
au teur
di o
oi le
Ġtra Ã§
mi es
Ġcer tification
ĠdÃ©c ro
Ġmar ke
eil les
ĠdÃ©p is
enti elle
ĠsÃ© pare
itu de
Ġvie ill
Ġfi Ã¨re
Ġbr ou
Ġoff ensive
Ġis olÃ©
Ġrem Ã¨de
Ġtrouver a
Ġsais on
Ġentra ve
Ġattend ais
ĠintÃ©ress Ã©es
Ġfix ation
Ġsin ges
Ġcou ches
Ġsuper mar
Ġlongue ment
Ġapprouv Ã©s
Ġtechnique ment
Ġexpos Ã©es
ĠdÃ©rou lent
Ġbureaucra tiques
Ġemprun ts
Ġcens Ã©e
ĠsÃ©par Ã©s
Ġterres tres
Ġconsul tÃ©
ĠÃ©pi dÃ©
Ġpolici ers
Ġah mad
Ġmusulman e
Ġamend es
Ġslov Ã¨ne
Ġcath olique
Ġdres ser
ĠdÃ©Ã§ us
Ġenva h
Ġtap is
Ġpala cio
Ġinnomb rables
i z
s Ã©e
Ġd ys
Ġp d
Ġp uni
Ġa ise
Ġs onne
Ġs ha
Ġun iques
Ġf Ã¢
Ġf umÃ©e
Ġpar viendra
ĠrÃ© tro
Ġg or
Ġdans e
Ġh it
Ġimp orter
Ġser be
Ġcomp lais
Ġag ression
Ġper mets
as a
Ġna Ã¯
olog istes
Ġsouhait ez
Ġindi ce
Ġremerci ons
Ġpres tation
ĠrÃ©alis able
Ġver sions
Ġbas Ã©s
Ġvol Ã©
Ġesti mation
Ġaucune ment
Ġchar ger
na miques
ĠrÃ©us sie
Ġatta cher
Ġhe cta
Ġassoci Ã©es
Ġgagn ent
jus t
Ġexcep tionnelles
Ġextra dition
Ġentend ent
ĠfrÃ© quent
roc itÃ©
Ġcivil isations
ĠamÃ©lior ent
Ġcrimine l
ĠprÃ©ju gÃ©s
Ġbienven u
Ġslova que
Ġsco laires
Ġorigin ale
ĠdÃ©te cter
Ġcam ion
Ġdiagn osti
Ġpare il
Ġexcessi f
Ġvacc ins
ĠdÃ©sin tÃ©
ĠmÃ©cont entement
ĠrÃ©cipro que
ĠrÃ©h abil
Ġtcher nobyl
t tini
Â ·
Ġ &
on ds
Ġa lÃ©
ou ement
Ġm Ã©ri
Ġqu al
Ġf es
ĠÃ© min
Ġr and
Ġav Ã©rÃ©e
ro l
ter ont
di ques
Ġcons entement
ort ant
Ġcomp tables
Ġper Ã§u
Ġvi Ãªt
ĠdÃ©c ol
Ġab eilles
Ġann ulation
Ġpri ver
Ġnation aliste
Ġvis ibles
Ġpens Ã©es
Ġaugment ant
Ġsens Ã©e
ĠprÃ©v ision
Ġta cti
Ġcomb ats
ill Ã©s
Ġencoura gent
vis ibles
Ġremp orter
Ġmul titude
Ġrecom men
Ġassoci e
Ġdess iner
Ġassur Ã©s
ĠÃ©vo quÃ©s
Ġcoh n
ĠfranÃ§ais es
ĠrÃ©gu lier
Ġsuppri mÃ©
ĠcrÃ©di bles
Ġsouver ain
ĠdÃ©rou ler
ĠisraÃ©li ennes
Ġral lier
Ġaccus ation
Ġprud ente
Ġpertin ence
ĠentraÃ®ner ait
Ġwal lstrÃ¶m
Ġoise au
Ġgratu itement
ĠgÃ©nÃ© tiques
ĠscÃ©nari os
ĠpossÃ© der
Ġcompati bles
ĠrÃ©cip rocitÃ©
ĠattÃ© nu
omÃ© tri
Ġinterromp ue
ĠpÃ©riph Ã©rie
ĠpÃ©riph Ã©riques
ĠmolÃ©cu les
Ġtang ible
Ġredou bler
Ġchir urg
Ġwi ki
Ġretomb Ã©es
Ġmalent endu
ĠincomprÃ©hen sible
Ġreconstru ire
Ġluxembourge oise
ĠinterdÃ© p
Ġauthen tique
Ġmarke ting
e ts
Ġ tiss
Ġc ous
Ġn am
Ġf ana
Ġv endu
si vitÃ©
Ġdes cription
Ġr it
Ġin tra
Ġb oy
Ġma Ã®tre
ci ons
Ġav ouer
Ġtr istes
Ġca bil
Ġres tait
Ġou z
Ġas sie
Ġins istons
Ġdiff user
Ġvoud raient
ĠgÃ©n Ã©r
Ġmen Ã©s
Ġcent aine
Ġda me
Ġjou it
ats on
Ġaugment era
Ġgra titude
Ġw atson
Ġpi ano
Ġparticip ant
Ġeuro just
Ġquoi que
Ġfra ttini
Ġsuc cesseur
Ġmod Ã©rÃ©s
Ġdemander ais
ĠarrÃª tez
ĠprÃ©occup ent
Ġobten ez
Ġlut tent
Ġprend ront
Ġexer cent
Ġpros titution
Ġimpor tÃ©s
Ġach ats
ĠrÃ©pÃ© ti
Ġinsuffis antes
Ġsovi Ã©tiques
Ġlou able
Ġcroy ance
Ġengend rÃ©
ĠconÃ§ us
Ġalar me
Ġdar win
tag on
Ġsignifier ait
Ġrespectu eux
ĠdÃ©sa van
Ġcorbe tt
Ġoug anda
Ġbend it
Ġphas es
ĠmÃ©ri di
Ġcabil laud
h ar
Ġs ter
is tait
Ġla mpe
Ġle on
te borg
ĠÃ© mises
ous e
Ġse l
Ġex tin
ge ance
Ġca mer
tr onom
Ġno tions
Ġacc ises
da d
Ġentre tien
Ġeff ici
Ġco ins
Ġpos se
min es
Ġdiff Ã¨re
ĠdÃ©m Ã©n
ĠlÃ©g aux
Ġvrai es
Ġinc ite
Ġinf antile
Ġvers er
Ġbr iser
Ġgra m
Ġref onte
Ġlan ka
ĠÃ©t oile
Ġappel Ã©s
ĠprÃ©occup ant
ĠprÃ©occup ante
Ġmu ti
Ġoubli ez
Ġcul tiv
Ġfal si
Ġminim al
ĠmatÃ©ri els
Ġperd us
Ġpertin ents
Ġparc ours
Ġhypoth Ã©c
Ġbir man
ĠÃ©pr ouve
ĠtÃ©moign ent
Ġmas cul
Ġinclu ent
Ġinclu ant
Ġincend ie
Ġreviend rai
ĠrÃ©affir mer
Ġtranspos er
ĠmÃ©dia tique
Ġdomes tiques
ĠsÃ©n at
Ġsm ith
Ġconj oncture
Ġpollue ur
Ġdy namiques
Ġhali eutiques
ĠgÃ¶ teborg
Ġaph teuse
Ġjohannes b
h end
n d
or ld
ĠÃ© mette
ĠÃ© oli
ĠdÃ© for
Ġma Ã®tres
Ġcon venir
Ġra ci
Ġimp lant
Ġimp licite
Ġsa ch
Ġam ies
ler ai
as mus
ard s
Ġu en
ud ence
gu Ã©e
Ġconf Ã¨re
Ġgouvernement aux
Ġcontra ctu
Ġjou eur
ara k
Ġz o
Ġrenfor cÃ©es
Ġche v
ĠindÃ© si
ĠindÃ© finiment
Ġrev iennent
Ġfourn ie
Ġer asmus
Ġregard ent
Ġgaz odu
ĠdÃ©fense ur
ĠrÃ©v Ã¨lent
Ġrecommand Ã©
ĠapprÃ© hend
Ġfavor isent
Ġfavor isant
Ġaime z
Ġrempla ce
Ġminim ale
Ġpan ique
Ġmenac Ã©es
ĠtÃ©m oin
Ġhy per
Ġreconnaiss ante
ĠamÃ©lior Ã©es
Ġinterven us
Ġsuppos Ã©
Ġmens ong
Ġindemn itÃ©s
Ġtac tique
Ġrecon sid
Ġincontes table
ĠpropriÃ© taire
Ġsurven us
Ġgam me
Ġcardia que
Ġparam Ã¨tres
Ġcond olÃ©
Ġciga rettes
Ġnaval s
ĠdÃ©mons tration
Ġstre et
Ġchr ist
Ġahmad inejad
b ri
c Ã¨lement
t Ã¨re
Ã º
Ġd ras
Ġm yst
it ait
ir ons
Ġma ire
Ġre viens
os er
Ġo z
Ġtr ous
ul Ã©s
Ġent ente
Ġces sent
Ġli fe
Ġ1 000
ĠnÃ© oli
Ġexp Ã©
Ġconseil lÃ©
Ġprodu ira
Ġcontre par
Ġeffe ctifs
Ġmainten ue
Ġdemand a
tent ri
tie lles
Ġpuis siez
Ġ4 7
Ġjusti fiÃ©es
Ġexc lut
Ġcapit aliste
Ġmer cos
ĠÃ©n onc
Ġhar cÃ¨lement
Ġsep tentri
ĠdÃ©fini tions
Ġrece tte
Ġchanger a
Ġindivid uel
Ġexige ons
Ġsex uels
Ġatten tif
Ġsugg Ã¨rent
Ġremarqu ables
ĠÃ©gyp tien
Ġinsuffis ants
Ã©re ra
Ġprotes ter
Ġaffi cher
ĠimpÃ©ra tivement
Ġabat tage
Ġsauveg arder
ĠgÃ©nÃ© reux
Ġrigou reuse
Ġstandard s
Ġrecue illi
Ġscru pule
Ġprononc Ã©e
Ġdistor sion
Ġintol Ã©rable
ĠsupÃ©rie ures
Ġpc p
ĠdiscrÃ© tion
Ġmusi c
Ġsympt Ã´mes
Ġphili pp
ĠpÃ¨s ent
Ġintrins Ã¨que
Ġhygi Ã¨ne
Ġqual ita
ĠgÃ©nÃ©r ositÃ©
Ġposse lt
ĠcondolÃ© ances
ĠnÃ©oli bÃ©ra
Ġmercos ur
p al
Ġc urie
Ġs ains
er me
Ġe v
Ġm ys
Ġt ribu
ra ges
il lar
or table
Ġpr it
si le
Ġb ov
ĠdÃ© tient
ĠrÃ© uti
ĠrÃ© Ã©quili
Ġg ains
ar ov
ar chie
Ġpo che
Ġimp a
Ġfin issent
Ġinter locu
Ġins table
ĠdÃ©c a
Ġaccord ant
tis te
Ġop Ã¨rent
Ġderni Ã¨rement
Ġpla ign
Ġgrand ir
Ġcontin ents
Ġlu cra
Ġ20 50
Ġban ane
Ġreconn ues
Ġatte ign
Ġw orld
Ġcontribu ant
Ġfourn issant
Ġty ran
Ġlaiss Ã©e
Ġgestion naires
Ġdisposi ons
Ġbou ge
Ġbou dd
Ġemb ras
Ġgagn ant
Ġign o
Ġeffectu Ã©e
Ġcontinue llement
ĠexÃ©cu ter
Ġenqu Ãªter
ĠidÃ© ologiques
Ġemprun t
ĠÃ©par gner
Ġenseign ant
Ġrejet ons
Ġinsp ire
ĠvidÃ© os
Ġsuppos er
Ġrestruct urations
ĠmÃ©diterranÃ© ens
Ġprotectionn istes
Ġincomp Ã©
Ġvain que
Ġsensibil iser
ah arienne
Ġore illes
Ġembal lages
Ġprolong ation
Ġrenf lou
ĠintÃ¨g re
Ġpoign Ã©e
Ġnat ura
Ġamou reux
Ġsah ara
Ġmaur it
ĠtraÃ§ abilitÃ©
a illes
d ou
d ait
f re
m ire
r and
Ġ 00
Ġd ose
Ġp ul
Ġpa use
Ġf ret
si er
Ġr Ã´les
Ġfa usses
la desh
Ġpo lÃ©
Ġo tages
Ġra ce
Ġsa medi
Ġar ts
Ġco des
Ã©n a
Ġins ol
lis es
Ġtrans c
Ġass iste
Ġfinan cÃ©es
Ġess or
Ġconcern ait
ĠdÃ©f lation
Ġsoi gner
aiss es
Ġconstru ctives
Ġ4 4
Ġimpos ant
Ġfran co
Ġtranspar ents
Ġcara Ã¯
ĠrÃ©jou it
Ġhabit uelle
Ġsch r
ĠÃ©tro ites
Ġimpression nant
Ġcruci aux
ĠidÃ© aux
Ġfig urant
Ġnav ale
Ġvari Ã©tÃ©
Ġislam iste
ĠbilatÃ©ra le
ĠrÃ©sid ents
Ġconjoin t
Ġsymp ath
Ġapprofond issement
Ġfre iner
Ġsigna taires
Ġrequi Ã¨rent
Ġisol er
Ġchoc s
ĠdÃ©clen cher
Ġexces sivement
Ġquotidien nement
Ġcontradi ctions
Ġprononc Ã©s
Ġpont s
ĠÃ©prouv ent
Ġiv oire
ĠnÃ©glig ence
Ġaudiovis uel
Ġpand Ã©mie
osa ures
Ġslog an
Ġcontras te
Ġmarqu age
Ġbanqui ers
Ġracon te
ĠdÃ©pis tage
a des
c ine
d al
t ori
ou le
Ġs l
Ġe ins
ur gie
om en
Ġf ous
Ġv us
Ġj ong
Ġje tÃ©
Ġg ang
Ġsa kh
Ġcomp atri
ite urs
Ġins cription
Ġson ge
Ġman uf
ĠcrÃ© ateurs
Ġpla indre
Ġaff ron
Ġcas tro
Ġva ches
Ġk g
out ons
ĠnÃ©goci ateurs
ĠcoÃ» tÃ©
Ġtur ques
Ġsem ences
Ġja mes
Ġth omas
ĠrÃ©ser ver
Ġsuiv ra
Ġiran ienne
ĠdÃ©si rer
Ġcou cher
Ġeffectu e
ĠhÃ© roÃ¯
Ġcul p
Ġparal y
ĠdÃ©termin ante
Ġfeu illes
Ġpropri Ã©tÃ©s
ĠprÃ©a lables
Ġintensi fication
Ġblo quÃ©
ĠdÃ©ga gÃ©
Ġpolon aise
Ġallou Ã©
Ġindica teur
Ġoptim ale
ĠprÃ©ven tives
Ġcos ta
Ġaccum ulation
Ġdanois e
ĠpÃ©troli Ã¨re
ĠpÃ©troli Ã¨res
Ġexcessi fs
Ġenvisag Ã©es
Ġukrain iens
Ġloy ale
Ġsurp lus
ĠÃ©va cu
Ġempre inte
Ġrepous ser
Ġproc Ã¨de
ĠÃ©pau le
Ġmed ve
ĠstÃ© rÃ©
Ġbiotechn ologie
Ġroum ains
x ies
Ġd op
Ġn ic
Ġpa trie
il Ã©
Ġf ri
Ġj oli
Ġin verser
Ġfa ssions
Ġre par
au er
Ġcomm Ã©m
Ġh ow
Ġac a
Ã©s itÃ©
Ġdi ra
Ġgr Ã¨ve
Ġparti elle
cti v
Ġob Ã©sitÃ©
Ġag irait
Ġins tance
Ġor b
Ġcro ix
rais ons
Ġop ter
ĠmÃ© tier
Ġvoud riez
Ġcas sÃ©
Ġdom inÃ©
Ġmin Ã©ra
Ã¢ mes
Ġadop tent
ĠÃ©g lises
Ġaccep tÃ©es
Ġgaranti ra
Ġnor dique
ĠcoÃ» tent
Ġimpos sibilitÃ©
Ġpor tables
Ġhab ite
ctu rer
oli ques
Ġrencont res
Ġouv riers
Ġpoten tielles
ĠÃ©vo quÃ©es
Ġcatastroph ique
Ġsort ent
Ġx xe
Ġtab ag
Ġhor mon
Ġresta uration
Ġtourn Ã©e
Ġaudi tions
ĠamÃ©lior ant
Ġvites ses
Ġincont rÃ´
Ġmeur tres
Ġax Ã©e
Ġclin iques
Ġfier tÃ©
ĠintÃ©gra lement
ĠintÃ©gra litÃ©
Ġerron Ã©e
Ġpun ir
Ġpanne aux
Ġnett oyer
Ġjamb e
ĠprivilÃ©gi Ã©
Ġconvers ations
Ġprogress iste
Ġconsenti r
Ġwh ite
Ġintimi dation
Ġaqu ac
Ġpassep ort
ĠclÃ´ ture
ĠcaraÃ¯ bes
Ġeins tein
Ġsakh arov
b our
h ai
l os
m ations
r op
Ġl omÃ©
Ġa dam
er ont
Ġn Ã´tres
in dres
Ġen ch
ĠÃ© ter
Ġb h
Ġcon cession
Ġeur atom
Ġh oc
Ġo l
Ġtou chÃ©e
Ġra vis
Ġmo indres
Ġtra fi
ul Ã©e
fi ait
onn ant
ĠÃ©c rou
mi f
va trice
Ġal locu
Ġinter val
ĠnÃ© pal
Ġat tes
Ġexp ose
lis Ã©s
Ġaccord Ã©es
Ġconcer ner
Ġemp loie
Ġcour ent
Ġfinan cÃ©e
Ġcol oss
Ġconn a
Ġinf lig
ĠrÃ©du isent
Ġjou era
Ġoff erte
Ġtechn ocra
Ġsens ation
Ġatte ignent
Ġ4 6
Ġhau tes
Ġpi le
Ġref let
Ġcondu isent
Ġth er
Ġinv itÃ©e
Ġglo be
Ġpoursui v
Ġrencont rÃ©es
ĠreÃ§ ues
Ġprogres sif
Ġadap tÃ©s
Ġsouhaiter ions
ĠÃ©vid ents
ĠrÃ©uss ites
Ġiss ues
Ġcompos antes
ĠmatÃ©ri au
Ġlour dement
ĠhÃ´ te
ĠchrÃ© tienne
ĠcoÃ»te use
Ġaccompagn Ã©e
Ġtrou b
Ġmic roso
Ġterres tre
ĠmultilatÃ©ra les
Ġbloc s
Ġhonte ux
ĠperÃ§ oivent
Ġtal ents
Ġdor Ã©na
Ġparado xe
Ġfrontali ers
Ġvigil ance
Ġempre intes
Ġgala xies
ĠÃ©cras ante
ĠhiÃ©rar chie
Ġvraisemb lablement
Ġinsa tisf
Ġmedve dev
Ġtabag isme
ĠdorÃ©na vant
e ba
f onction
i Ã¨re
Ġl os
Ġc itÃ©s
Ġs ente
re prÃ©sent
er ai
ur ait
un g
Ġr h
Ġb oli
ci e
Ġg h
Ġg hana
Ġi mb
Ġpo Ã¨me
Ġca d
ĠÃ©c laire
Ġentre ra
Ġco ra
ĠdÃ©p Ã´ts
Ã§ aient
alis ent
Ġmil itar
tra i
ĠcrÃ© atures
Ġadop tons
Ġmen ant
Ġhum ili
ĠprÃ©c isions
Ġbas sin
Ġattein d
Ġple uv
Ġmodi fie
ĠÃ©crit es
ĠÃ©lÃ© ph
ĠdÃ©si reux
Ġdist ribuer
Ġajouter ai
Ġcy cles
Ġdiploma tes
Ġallemand es
Ġnum Ã©riques
Ġcompren ez
Ġpollu ants
Ġbu ts
Ġbul les
ĠrÃ©pond ant
ĠirrÃ© ver
Ġfla mb
Ġarme ments
Ġanc Ãªtres
Ġence intes
Ġsousc rire
Ġvend us
Ġrej oign
Ġarrange ment
Ġdin osaures
Ġenglo be
Ġpharmaceu tiques
ĠdÃ©loy ale
Ġtarif aires
Ġennuy eux
ĠÃ©co fin
Ġredev ances
Ġfact o
ĠministÃ©ri elle
Ġbag dad
Ġsunn ites
Ġimprob able
Ġtiss us
Ġmicroso ft
b arak
e p
Ġp ion
Ġla ek
Ġpa ck
Ġun itaire
or Ã©e
Ġf Ã»t
Ġv ins
Ġr ui
Ġr hu
Ġque re
ir o
ne llement
ĠrÃ© n
Ġfa illi
Ġg onf
Ġpro a
ter ror
Ġsa vions
che v
Ġar sen
enti el
Ġseu ils
ĠÃ©v itÃ©
Ġti rent
Ġgouver ner
par ole
Ġmont rÃ©e
Ġk ad
Ġinc ons
Ġsign atures
ĠdÃ©s appr
ĠrÃ©alis me
ĠprÃ©c aire
tisse ments
ill ant
Ġatta quÃ©
lan ges
Ġorig inaire
Ġmu tation
ĠcontrÃ´ lÃ©es
Ġappar ent
Ġadopter a
Ġom s
Ġom ni
Ġimag inÃ©
Ġemb au
Ġpermis sion
Ġcondam nÃ©e
yn n
Ġcruci ales
Ġrenouve ler
Ġexaminer a
Ġinsu pp
Ġconsulta tif
Ġbat tu
Ġrig i
Ġpay eur
Ġcrimine lles
ĠproblÃ© matiques
Ġmou barak
200 1
Ġclassi ques
Ġgla ci
rom e
Ġclin ique
ĠdÃ©v alu
Ġka zak
Ġdr Ã´le
Ġsatell ites
Ġsoula ger
Ġdoulou reux
Ġemmen er
Ġarm Ã©nie
ĠdÃ©place ments
Ġmyth e
ĠindÃ©ni able
Ġfluctu ations
Ġcontour ner
Ġillu sions
Ġfata h
Ġeco fin
Ġparaly sie
Ġlaek en
i j
l l
m oud
Ġd at
es tation
Ġp in
Ġc Ã¢
Ġs and
Ġs cepticisme
re ction
ĠÃ ´
Ġen lÃ¨ve
me d
ta la
Ġb onnement
Ġma m
Ġcon ce
Ġpo Ã¨te
Ġra ge
Ġvo tant
Ġcomp tabilitÃ©
Ã©ra bilitÃ©
Ġcer cles
Ġvi des
ĠdÃ©p lor
Ġpos ter
Ġdem ie
Ġesp Ã¨rent
Ã® tront
Ġdisp u
Ġamen Ã©s
ĠÃ©g ide
Ġsub it
Ġcontra ires
Ġabs ur
Ġprom eu
Ġconstru ite
Ġali gner
Ġ4 1
Ġref uge
Ġsoulign ent
ĠÃ©larg i
Ġchi ites
ĠbÃ©nÃ©fici ant
Ġsubs titution
ĠintÃ©ress Ã©e
Ġenvis agent
ĠmÃ©th od
ĠdÃ©si gner
ĠdÃ©fi ci
ĠbÃ¢ le
Ġaffe ctÃ©
Ġexer cÃ©
Ġblan cs
Ġpron once
Ġiss u
Ġregret tons
Ġpes si
Ġrac cour
Ġmassi vement
ĠrÃ©guli Ã¨re
ĠdÃ©plo rable
Ġconten ue
Ġgrec ques
Ġurgent es
Ġax es
dite urs
ĠcÃ©rÃ© bra
Ġimpu issance
Ġisla miques
Ġaddi tifs
Ġchim ie
Ġerron Ã©
Ġly cÃ©e
Ġpharmaceu tique
Ġabond ance
Ġnoy au
ĠrÃ©itÃ© rer
Ġcorromp us
Ġmalais ie
otyp es
Ġdys fonction
Ġextin ction
Ġoz one
Ġkazak h
& @
i ka
r en
Ġl ie
Ġm Ã»
Ġt o
Ġj im
Ġb g
Ġma ux
ch u
Ġpro ie
Ġsur vÃ©
Ġi c
Ġch aise
Ġh an
Ġac cess
Ġo f
Ġca ire
Ġan dre
Ġan ony
Ġimp ar
Ġgr en
Ġins tants
Ġmar ges
gra de
Ġann uler
Ġti c
Ġemp orte
Ġdonn a
Ġcompr ise
Ġpla ces
Ġdom ici
Ġcap ture
ang Ã©s
mÃ© trie
Ġuni formes
Ġtour istes
Ġexplo itants
Ġang laise
ĠÃ©cou tez
Ġchois is
ĠpÃ©tro lier
ĠÃ©lÃ©ment aires
Ġexam ens
Ġtomb ent
Ġpou let
Ġsex uelles
ĠÃ©cla tÃ©
Ġstim ulation
ĠbÃ©nÃ©ficier ont
Ġdicta tures
Ġinsuffis ance
Ġrenv oie
Ġallou er
ĠdÃ©fend ent
Ġstric ts
Ġcib lÃ©es
ĠdÃ©lib Ã©rations
Ġineffic aces
ĠrÃ©su me
ĠcÃ©lÃ©b rer
Ġempris onnement
Ġlaiti er
Ġinquie t
Ġindiff Ã©rence
Ġflagr ante
Ġtranqu ille
Ġjur is
Ġtardi ve
ĠsÃ©cher esse
Ġcabine t
Ġinterconne x
Ġsilenci eux
Ġfermi ers
ĠinfÃ©rie urs
Ġhos pit
Ġhit ler
Ġmanuf act
Ġdomici le
g nement
i Ã©
o tte
Ä į
Ã© lect
en e
on i
Ġt aire
il lons
Ġf eux
Ġin ch
ĠdÃ© tres
Ġma gique
Ġre vers
Ġch Ã¡
Ġpo t
Ġme da
Ġai mait
Ġent endez
Ġdi git
Ġser iez
Ġfor cÃ©e
Ġenv oi
Ġsom bres
Ġprodu ctive
ĠmÃ© tÃ©
Ġdonn ait
Ġcar re
Ġlib el
Ġsouhait ait
Ġorganis Ã©s
Ġplan Ã¨tes
Ġmi xte
Ġpens ant
Ġrenfor cÃ©s
ota tion
Ġfondament alisme
Ġsoulign ant
ĠdÃ©ci dent
Ġtrouv aient
Ġmala ria
Ġdispos ant
Ġtent ant
Ġten ait
Ġsc ul
Ġlaiss Ã©s
Ġtravers ent
ĠcontrÃ´ lÃ©
Ġrappel lent
Ġconcep tions
ĠdÃ©si rent
ĠmÃ©c anique
Ġrefus ons
Ġcolle ctiv
Ġhu is
Ġlog istique
Ġjudici euse
Ġextra ire
Ġrom pu
Ġmora lement
ĠprÃ©para toires
Ġrepro che
Ġtravaille ur
ĠrÃ©pond rai
ĠinterprÃ© tations
ĠcoÃ»te uses
Ġartis tique
Ġillus tr
ĠsÃ©v Ã¨rement
Ġmath s
Ġlo gements
Ġcroy ances
Ġsalu Ã©
Ġaffec tation
Ġcib lÃ©e
Ġgratu it
Ġinterro ge
Ġhol oca
ĠrÃ©col te
Ġhosti litÃ©
Ġartifici elle
Ġlabora toires
Ġfrontali Ã¨res
Ġlente ur
Ġsuici de
Ġfid Ã¨le
Ġmah moud
Ġparcour u
Ġlatin o
Ġgigantes que
Ġchic ago
Ġliti ges
ĠprÃ©roga tives
Ġadolesc ents
Ġschr Ã¶der
ĠchÃ¡ vez
2 5
Ġ orte
Ġp ing
Ġp istes
Ġc f
Ġa te
it Ã´t
Ġpa pa
Ġf lÃ¨
Ġen gra
Ġce e
Ġj i
Ġb ig
ĠdÃ© ni
ĠdÃ© tiennent
que ment
Ġje tte
ouv rir
Ġan ase
Ġai mons
Ġsa m
Ġres tons
Ġou ra
Ġno ti
Ã©ra ient
Ġvi f
Ġdo tÃ©s
ist res
Ġor ph
Ġutilis ateur
lar isation
Ġfer mÃ©e
Ġsub mer
Ġ3 9
Ġris quons
Ġnu age
Ġbi ble
ĠrÃ©alis ent
Ġenc our
ag nement
Ġchar gÃ©es
ĠdÃ©pens Ã©s
Ġaccomp agnement
Ġtent ons
Ġattend ue
Ġtravers Ã©
Ġcomprendre z
Ġhar vard
Ġdonne urs
Ġcal culer
Ġconser ve
Ġalli ons
Ġ0 1
Ġporter a
Ġval ent
Ġcouv rent
ĠmÃ©dic ales
Ġdicta teurs
ĠrÃ©solu es
Ġartis an
Ġcana di
Ġhypoth Ã¨ses
Ġbla gue
Ġinh Ã©r
Ġclassi fication
Ġaffaib lissement
Ġlun ettes
Ġmanip uler
Ġindire cte
Ġenri chir
Ġrecti fier
Ġpromet tre
Ġincorp orer
Ġauda ce
ĠrÃ©tic ence
Ġvali ditÃ©
Ġtang ibles
ĠpersÃ©cu tion
ĠdÃ©tes te
Ġchypri otes
ĠÃ©cosyst Ã¨me
Ġcorp ore
ĠsÃ©qu ence
Ġchron ique
ĠÃ©thi opie
Ġattar der
Ġcontrepar tie
Ġtrafi quants
Ġjuris pr
Ġholoca uste
Ġorph el
c an
g le
p ent
p in
r s
Ġc auche
Ġa pe
Ġs pira
Ġe d
Ġla den
Ġt asse
ĠÃ© lÃ¨vent
Ġau ss
Ġj oy
Ġj olie
Ġin vers
Ġb ab
Ġma gie
Ġcon ju
Ġex trait
ff e
Ġo v
Ġconc lur
Ġcomp table
Ġmes ur
ĠnÃ© o
Ġins ou
Ġins tin
Ġmar ines
Ġvou liez
ard o
Ġemp res
Ġcompr endra
am o
Ġvis iblement
Ġfer iez
ric k
Ġrespe ctivement
Ġautor isÃ©es
Ġmi cha
ĠdÃ©s ag
Ġpres c
Ġda tes
Ġju gÃ©s
Ġcommen Ã§a
Ġrep enser
Ġfran k
ĠÃ©crit ure
ĠrÃ©un ies
ĠarrÃª ts
Ġintrodu its
Ġtour nent
Ġmala ise
Ġsau ter
ĠprÃª tes
Ġpubli Ã©e
Ġappar ue
Ġmort es
ĠgÃ© ant
ĠhÃ© gÃ©
ĠimmÃ©dia tes
Ġoffici ers
ĠidÃ© ale
Ġportu aires
Ġx ix
ĠÃ©quilib rer
Ġappu yÃ©
Ġcommence z
Ġtax i
Ġinsc rite
Ġdra matiques
Ġincroy ables
Ġrappro che
Ġpuiss antes
ĠprÃ©par Ã©s
Ġsymb ol
ĠrÃ©cla ment
Ġsubstanti el
Ġvolontaire ment
ĠconÃ§ ues
Ġpolici er
ĠexpÃ©riment ation
Ġabsten us
Ġdiss oci
ĠredÃ© fin
Ġconcurrenti el
ĠÅ ķ
ĠprÃ©dÃ© cesseur
Ġneutra litÃ©
Ġabol ir
ĠdÃ©tres se
Ġauss itÃ´t
r h
t os
w s
ti endra
Ġla mb
Ġla ver
Ġv Ã´tre
Ġdes tru
Ġr os
ĠdÃ© r
ĠdÃ© di
ĠdÃ© ma
Ġfa cture
la Ã¯
Ġpo ches
Ġca mara
Ġent rÃ©s
fi ces
ga s
Ġob session
Ġpu its
Ġfin landais
Ġad vers
Ġnom bres
tis tes
ĠsÃ© ances
Ġpla id
Ġcha ts
Ġmont Ã©
Ġir ra
Ġabord ons
Ġremerci ant
Ġju me
Ġbi om
Ġsens Ã©
ĠbÃ©nÃ©fi ques
ĠÃ©t onne
Ġsau vÃ©
Ġer ika
Ġ201 4
Ġreven ons
ĠentraÃ® nant
Ġcou loir
Ġemb ry
Ġinten sive
ĠbÃ¢ ton
Ġparta gÃ©es
Ġgard ant
Ġsort ant
Ġimpliqu Ã©e
Ġcul te
Ġambiti euses
Ġcompren ant
ĠrÃ©vÃ© lÃ©e
Ġillus tration
dÃ©m ique
ĠdÃ©sastre ux
Ġavi aire
Ġsti g
ĠlÃ© ger
Ġem m
Ġplaf onds
Ġfranc is
ĠÃ©labor Ã©e
Ġpair s
Ġrempli es
Ġpn r
Ġvacc ination
ĠÃ©puis Ã©
Ġcatal yse
ĠhÃ¢ te
ĠÃ©pis ode
ĠrÃ©habil itation
Ġbov ins
Ġculp abilitÃ©
Ġaquac ulture
ĠsurvÃ© cu
ĠdÃ©sag rÃ©
e i
f u
m ence
Ġd ensitÃ©
Ġp it
qu aient
re b
Ġf ir
Ġv ladi
Ġen di
Ġau be
op Ã©rabilitÃ©
Ġg ain
Ġre de
Ġre ine
Ġpro vid
au f
res sions
Ġh ans
ens en
Ġtra je
Ġtra itant
ul Ã©es
Ġcont rer
Ã©r ante
Ġsa vaient
Ġprop ice
da ge
Ġinter ruption
Ġinter opÃ©rabilitÃ©
Ġexp on
co le
Ġman n
Ġprodu ctif
Ġti mide
par ti
Ġpla isant
ĠÃ©g ales
Ġbon jour
Ġpres tataires
Ġfi abilitÃ©
Ġ3 50
Ġsouv i
Ġbas que
Ġrecher chÃ©
Ġmoyen nant
ĠÅĵ uvres
Ġri o
Ġparler ai
Ġactiv istes
Ġcher chant
Ġja dis
Ġforme l
Ġentendu es
Ġattend ait
ĠprÃ©occup Ã©e
Ġcoup le
Ġsemb lant
Ġaffir mations
Ġang ois
Ġache vÃ©
Ġfac ul
Ġobten ue
Ġsour ire
Ġconsac rÃ©es
ĠexÃ©cu tions
Ġprot Ã¨gent
Ġperman ents
Ġprovo quent
Ġbru tal
Ġ0 2
Ġmultip lier
ĠallÃ© ger
ĠÃ©chapp e
ĠdÃ©ga ge
ĠcrÃ©a tive
ĠmÃ©n age
Ġchau de
ĠdÃ©sastre uses
Ġinvent er
Ġvig ou
Ġorigin aires
ĠdÃ©battu e
Ġinex p
Ġsoudan ais
Ġmacro Ã©conomiques
Ġinforme lle
Ġhyd ro
ĠtempÃ©ra tures
Ġabsor ption
Ġspor tives
Ġimpri mer
Ġbang ladesh
ĠÃ©clairc issements
Ġimmin ente
Ã©valu ation
Ġdissid ents
Ġapais er
Ġromp re
Ġangu laire
Ġmensong es
g uration
h l
p Ã¨re
re y
an Ã©ment
Ġn ui
Ġqu arti
Ġt Ã©n
Ġpa ier
or Ã©s
Ġv el
Ġr ose
Ã¨ les
ĠdÃ© dom
ri es
Ġg il
ch aient
Ġo tage
Ġra yons
Ġmon u
Ġent oure
fi able
ma ble
vi ce
Ġco gn
Ġinter rog
Ġinter rompu
Ġper cevoir
ĠintÃ© rieurs
Ġter ra
tis ations
ges tion
Ã¢ t
pu issance
Ġ19 50
Ġfi lets
Ġnu ages
Ġavan cent
Ġpra gue
ĠrÃ©for mateurs
Ġrou main
Ġri ver
Ġimpos Ã©s
Ġlan cÃ©es
Ġfra ction
Ġmod Ã©rÃ©e
Ġentra in
Ġremp lissent
Ġpren ions
ĠlibÃ©ra les
Ġoppos ons
Ġend om
Ġanti dÃ©mocra
Ġcontribuer ont
Ġsouff rant
Ġsch mi
Ġcolle ction
Ġcolle ctivement
Ġconvainc ante
ĠdÃ©ce vant
Ġappliqu ant
Ġpous sent
ira ge
Ġappor tÃ©s
Ġappu yant
Ġred onner
Ġtri mestre
Ġrequ ins
Ġdeme urer
Ġperd ons
Ġbureaucra tes
Ġvari ent
Ġmultip lication
Ġsinc Ã¨re
Ġfonctionner a
Ġfaciliter a
ĠÃ©volu ent
ĠrÃ©guli ers
ĠÃ©gyp tiens
Ġmic ros
Ġaggra vation
Ġconjoin ts
Ġdispara issent
Ġaffi che
Ġapport ant
Ġaffec tÃ©es
Ġfourni ra
Ġterritori ales
ĠprÃ©voy ait
Ġcre us
Ġaccessi bilitÃ©
ĠrelÃ¢ che
Ġbrill ant
ĠfaÃ§ onner
Ġfili Ã¨re
ĠspÃ©cific itÃ©s
Ġarrog ance
ĠcorrÃ© lation
Ġboy co
Ġkazakh stan
Ġjurispr udence
Ġspira le
Ġquarti ers
d ro
g on
i mer
r ans
u ves
en cer
an en
an mar
Ġf ord
ĠÃ© ni
Ġcom ble
ĠdÃ© chir
Ġg and
Ġre ga
mp anz
Ġne ts
Ġo it
ol er
Ġtra ins
Ġdev int
du le
Ġvo c
Ġsa ble
Ġas tronom
Ġpers istent
ĠrÃ©g lÃ©e
min aires
ct rice
tis Ã©e
Ġop tÃ©
Ġesp Ã©rÃ©
Ġpla ge
Ġgrand issante
Ġconf Ã©d
rib ue
Ġgrande ur
Ġfer mÃ©s
Ġsouti enne
Ġbon d
Ġfi let
Ġcommen Ã§ant
Ġ5 6
ĠmÃ©di ation
Ġexpri mant
Ġsy l
Ġsuc cÃ©
Ġdir ont
Ġentra ves
Ġchi mpanz
Ġaccomp lissement
Ġsus pi
ĠprotÃ© gÃ©
Ġremp lit
ĠcontrÃ´ lent
Ġdiscu te
Ġpol y
Ġconcent rÃ©
ĠcomplÃ¨ tes
Ġhu meur
Ġsuper v
ĠÃ©tro its
Ġsyn d
Ġdiver gence
Ġred ing
Ġinuti lement
Ġvari ations
Ġprivil Ã¨ges
Ġpersonn ages
Ġinterven u
Ġattra y
Ġfabri quÃ©s
Ġwal l
Ġimmob ili
Ġmini miser
ĠmÃ¨ ner
Ġcos mÃ©
ĠexcÃ© dents
Ġinforme l
Ġprag matisme
ĠindonÃ© si
Ġspor tifs
Ġchauff age
Ġinterromp re
Ġenle ver
Ġclub s
Ġeffond rer
Ġmy anmar
Ġannonc Ã©e
Ġneur ones
Ġgouverne urs
ĠcoÃ¯n cid
Ġfragment ation
ĠprÃ©mat urÃ©
Ġenrich issement
Ġpy ra
Ġfame ux
Ġhomosex uels
Ġgrimp er
ĠÃ©nergique ment
Ġleh ne
ĠdÃ©sord re
ĠmÃ©taph ore
ĠdÃ©rÃ©glement ation
Ġcomplais ance
Ãº n
Ġhormon es
b u
b ur
b ar
e ille
k us
s ch
t z
u la
w i
Ġ ut
Ġl oup
on dÃ©
Ġt Ãªtes
Ġpr or
Ġr Ã¼
Ġpar f
Ġin fin
Ġpl ante
Ġsur char
Ġsa ra
Ġno tification
va trices
ise ment
Ġinter min
Ġpers Ã©v
ist antes
ct ur
ĠÃ©v ite
ĠÃ©v itant
Ġti rÃ©es
Ġemp ois
rie d
Ġpe in
Ġsitu ent
Ġsitu Ã©s
Ġmin ce
Ġlib Ã©rÃ©
Ġmal ms
Ġvis ages
Ġinc itants
Ġautor itaires
Ġabord Ã©es
Ġcours es
Ġreg ar
Ġuni fiÃ©e
Ġreconn aisse
Ġform Ã©s
Ġlan cÃ©s
ĠÃ©p anou
Ġur nes
Ġche vaux
ĠrÃ©pon de
ĠcrÃ©er a
Ġja une
Ġrend ons
Ġsemb lÃ©
Ġemb r
Ġfac ulta
Ġrece vra
Ġchance liÃ¨re
Ġextra ction
Ġparta gÃ©s
ze mb
ĠrÃ©flÃ©ch i
Ġemploy eur
Ġsuivi es
Ġlang en
Ġexamin Ã©es
ĠopÃ©ration nels
Ġradic ales
Ġcrimine lle
Ġbois sons
Ġextraordinaire ment
Ġressemb lait
ĠconcrÃ© tisation
Ġisol Ã©s
Ġsouvenir s
ĠrÃ©pand u
ĠmÃ¨ nera
ĠlittÃ©ra ture
Ġfournisse ur
Ġpare ille
Ġloy autÃ©
Ġhosti le
Ġpanne au
tag eux
Ġstimul ant
Ġintol Ã©rance
Ġange les
chel l
Ġcanc ers
ĠdÃ©loc alisations
Ġinconn u
Ġfranch ise
Ġmir oir
ĠÃ©coss ais
Ġmicha el
Ġbiom asse
Ġmalms trÃ¶m
m illi
o tage
s Ã©s
Ġc um
qu in
Ġla x
Ġb ob
ĠrÃ© tr
Ġg Ã¨ne
ĠprÃ© dom
ĠprÃ© cieuses
Ġmon des
ion n
Ġent rÃ©es
Ġent rant
ĠprÃ©sid Ã©
Ġaut ob
Ġcomp liquer
Ġar r
ite ur
ine use
at or
ac ts
ca o
Ġmont rÃ©s
Ġva rie
Ġvis ites
Ġinc once
Ġ19 30
Ġsous tra
Ġindi gÃ¨nes
Ġjou ir
Ġbr us
Ġver ront
Ġconv o
Ġgra ines
ag an
Ġfont aine
ĠdÃ©pens ent
Ġbar riÃ¨re
Ġvoil a
ĠlibÃ©ra liser
Ġidenti fiÃ©s
ĠdÃ©pend ants
Ġtomb Ã©s
atri ces
Ġalterna tifs
ĠÃ©l ue
Ġber n
Ġsuppri me
Ġos lo
Ġexamin Ã©s
Ġatten tive
Ġrecons titution
Ġcouv rant
Ġapprovision nements
Ġhor reur
Ġtch ad
Ġbour ses
Ġviv ait
Ġjuge ments
Ġimpliquer ait
Ġarchite ctes
ĠpÃ©r ou
Ġpom pi
Ġincl uses
Ġcombin Ã©e
Ġsac rÃ©
Ġvain cre
Ġnavi ga
Ġamend er
Ġmigra tions
Ġarres tations
ĠcoÃ¯n ci
Ġhorizont ale
Ġjar zemb
Ġgou tte
Ġfant Ã´me
Ġidi ot
Ġarchi ves
Ġwol f
Ġferre ro
Ġouz bÃ©
Ġallocu tion
Ġrhu me
ĠdÃ©ma gog
Ġvladi mir
a e
d ner
ent re
om es
op u
Ġpar itaire
Ġb ange
li ques
Ġma tur
Ġdans er
Ġre ch
Ġre viendra
Ġex il
Ġan k
Ġentre tient
at rie
Ġad v
ĠdÃ©c omp
Ġat outs
Ġman gent
Ġdiff Ã¨rent
og ue
Ġses sions
Ġemp irer
Ġcol lis
Ġpermet tait
Ġcompte z
Ġpres criptions
Ġnouveau tÃ©
ulture l
Ġz Ã©
Ġver di
Ġavan tageux
Ġvol ant
Ġ5 1
Ġw a
Ġvoy ant
Ġcentra ux
Ġatta chement
ĠprotÃ© gÃ©e
Ġsc an
Ġsouten ues
ĠlÃ©gisla teur
ĠÃ©valu Ã©
Ġven aient
Ġend os
Ġmari er
Ġcou teau
ĠdÃ©velopp ant
ĠthÃ© ories
Ġenvoy Ã©e
Ġmora litÃ©
ĠprÃ©para toire
Ġfacil ite
Ġprovo quÃ©e
Ġdistin gue
Ġcompos ent
Ġbat terie
Ġtri ang
ĠdÃ©rou lÃ©
ka chenko
Ġpes ant
Ġ13 0
roc arb
ĠsystÃ© mique
Ġinterd ite
Ġrest ants
ĠÃ©chapp Ã©
Ġattribu Ã©
Ġpalestinien nes
ĠdÃ©lic ates
ĠdÃ©fend ons
Ġliban ais
Ġina dap
ĠdÃ©clen chÃ©
ĠprivilÃ©g ier
Ġrang s
ĠcinquiÃ¨me ment
Ġassassin ats
Ġaddi tion
Ġdoub ler
Ġescla ves
Ġende t
Ġchanti er
ĠÃ©te indre
ĠrÃ©uni fication
Ġconsister ait
ĠrÃ©vis Ã©
af ric
wo od
Ġreconsid Ã©rer
Ġench Ã¨res
ĠrÃ©n ov
Ġembr yons
ĠouzbÃ© kistan
Ġbange mann
c al
h ans
h man
s ant
t Ãªte
u il
es ses
Ġp iles
ti eux
Ġt ours
ĠÃ© lÃ©g
Ġce inture
op p
Ġpour rai
ĠrÃ© cep
ĠrÃ© orient
Ġre lier
Ġpl ong
Ġex on
Ġo deur
Ġo omen
Ġsi Ã©
Ġimp opu
Ġso cra
gn Ã©e
Ġal ent
Ġvi ves
Ġfon dent
gra d
Ġconcer tÃ©e
Ġemp ir
Ġcar ences
Ġdisp ers
Ġk u
gram me
Ġdemand Ã©e
Ġfer vent
Ġsp ont
Ġfais able
Ġbi omÃ©tri
Ġrou es
Ġ5 4
Ġw est
Ġsigni fient
ĠÃ©qu itablement
ĠrÃ©un it
ĠÃ©t onner
ari at
Ġmalh eur
ĠarrÃª tÃ©e
Ġconsta tation
ĠprotÃ© geant
Ġobser vateur
Ġtrouve rez
Ġpoursui vis
Ġcoup Ã©
ĠcontrÃ´ lÃ©s
Ġpubli Ã©s
ĠrÃ©sou dra
Ġconcent rations
Ġfu sions
Ġdix iÃ¨me
Ġquali fication
Ġmand ats
Ġafg hans
Ġapprouv Ã©es
Ġaband onne
ĠÃ©l oigne
Ġbo ite
Ã¶ r
Ġoeu v
ĠopÃ©ration nelles
Ġhistorique ment
Ġaccus Ã©s
Ġfou et
Ġajus ter
Ġment alitÃ©
Ġignor ent
Ġsubstanti els
Ġsubstanti elles
Ġwal dner
commun au
Ġmit chell
ĠdÃ©clar ant
Ġprouv ent
hu it
Ġautrich ien
ĠamÃ©liore ra
Ġcontrovers Ã©e
Ġclandes tins
Ġukrain ien
Ġfen Ãªtres
ĠdÃ©favor isÃ©s
Ġressent ent
Ġfructu eux
Ġrespectu euse
Ġmassac res
Ġspati al
ĠmolÃ©cu le
Ġsonda ge
oure usement
Ġcanc Ãºn
Ġasc ense
Ġexh orte
ĠvÃ©tÃ©r inaires
Ġatter r
Ġnico las
ĠanÃ© anti
Ġsouter ra
ĠinterdÃ©p endance
ĠdÃ©for estation
Ġev ans
Ġmaurit anie
Ġadvers aires
Ġprovid ence
Ġsynd rome
Ġjarzemb owski
Ġmatur itÃ©
( @
a que
b b
c ir
g ares
o dique
s o
Ġc itation
Ġa jour
Ġ. .
le ction
Ġet ant
Ġen tiÃ¨res
Ġest om
Ġb lÃ©
ĠrÃ© ci
os t
Ġsur g
Ġav Ã¨rent
ter ies
Ġcons Ã©cu
Ġtra ce
Ġapp a
fi a
Ġser ve
Ġno table
Ġam ic
ma tisation
Ġfin ira
Ġaccord ons
gu ay
Ġconf Ã©rer
anis ation
Ġsta line
Ġoc m
Ġba li
Ġappro cher
Ġda ph
Ġlim itent
Ġcan aux
Ġdonner ai
ot tes
Ġfran chi
Ġencoura gÃ©s
Ġrespect ons
Ġessay ent
ĠarrÃª tÃ©es
Ġ7 8
ĠrÃ©ser vÃ©e
ĠcompÃ©ti tives
Ġdess ins
Ġsuiv ront
Ġang ola
tan ya
Ġinnov ants
Ġreje tÃ©s
Ġenvoy Ã©s
Ġsuper puissance
Ġconfir ment
Ġconfir mation
Ġrent rÃ©
tiss ons
Ġral li
Ġbul gares
tici ens
Ġcompens ations
Ġenvisage ons
ĠprÃ©par ons
Ġsusp endu
Ġlou kachenko
Ġfabri quÃ©
Ġlacun e
Ġvig oureusement
ĠfrÃ©qu entes
Ġcontrovers Ã©
Ġsurven u
Ġplate forme
Ġexcuse z
Ġsurv iennent
ĠdÃ©centra lisation
Ġflor ence
meu tes
ĠrÃ©vis Ã©e
Ġarm Ã©n
ĠdÃ©coura ger
Ġcondamn ons
ĠdÃ©mun is
Ġtacti ques
ĠrÃ©pÃ©ti tion
Ġphilipp ines
Ġcauche mar
c ol
j ten
Ġc d
an amo
Ã¨ nement
Ġin ventions
li a
li on
ĠrÃ© ception
Ġg Ã©rÃ©e
Ġre hn
Ġsi er
Ġmo que
ul ant
Ġrapp orter
Ġconc lut
Ã©ra bles
mi des
Ġal phab
Ġad versaire
Ġvi cieux
Ġdo tation
Ġexp ulsion
min Ã©e
lic op
Ġfor cÃ©s
Ġsoci alisme
Ġass istants
Ġci a
Ġtu meur
Ġoc cul
Ġmen ons
Ġna p
Ġna talitÃ©
Ġsign Ã©e
ĠreprÃ©s ailles
Ġir onie
Ġjou et
Ġz a
ĠprÃ©v aut
Ġtransp orter
Ġref roi
Ġsais is
Ġtur k
ĠrÃ©pon ds
Ġinstru ction
Ġmalh onn
Ġges tes
Ġpren ait
Ġrencont rons
Ġappar us
Ġsol vabilitÃ©
Ġaffir mant
ĠimmÃ©di ats
Ġsatisf ont
Ġcolle ctifs
Ġprend rait
Ġentend ue
val uer
ĠrÃ©uss it
Ġrig ide
ĠirrÃ© aliste
ĠrÃ©sul tent
ĠdÃ©plo rer
Ġbulga re
Ġher be
Ġrassemb lement
Ġintellectu el
Ġparv ienne
Ġmotiv Ã©
ĠdÃ©g Ã©n
Ġaffi chage
Ġplani fier
Ġincont ourn
ĠnÃ©gli gÃ©
Ġimmob iliers
Ġmaga sins
Ġdevi endrait
ĠÃ©loign Ã©s
Ġjustif ient
Ġjui f
Ġinfe cti
Ġcontradi ctoire
Ġinterpr Ã¨tes
Ġexpres sions
Ġexcessi ves
ĠmÃ©ta ux
Ġgenti l
Ġaper Ã§
Ġrecti ficatif
Ġhypoc rite
Ġbiblioth Ã¨ques
Ġange la
jac entes
Ġchir urgie
Ġscep tique
ĠÃ©pous e
Ġobti endrons
Ġenra yer
ĠlaÃ¯ que
ĠnÃ©cessiter a
Ġhora ires
Ġconfidenti alitÃ©
Ġformu les
Ġguant anamo
Ġinscri vent
Ġimpressionn ante
ĠcatÃ©gorique ment
ĠdÃ©blo quer
Ġenca d
ĠdÃ©tente urs
Ġbombarde ments
ĠflÃ¨ che
Ġcatalyse ur
Ġtraje ctoire
Ġinconce vable
c r
c op
c ard
y pe
Ġl ot
Ġs Åĵurs
an cÃ©
Ġm ente
Ġm ienne
in eux
Ġt am
Ġt ato
or tÃ©e
om Ã¨tre
ĠÃ© meutes
Ġj osÃ©
ĠdÃ© form
Ġma xi
Ġre agan
Ġse att
end raient
Ġra ff
Ġcons istait
Ġsi d
Ġan th
Ġan tÃ©rieure
Ġai mes
Ġimp r
Ġimp er
Ġy a
iss age
Ġab kha
Ġman che
lis Ã©es
Ġbe ur
Ġrec uler
Ġcompr enne
Ġpla t
Ġlib Ã©rÃ©s
Ġfer ions
Ġfi ction
Ġtransp lantation
Ġlim itations
Ġri deau
Ġvoy ait
ĠtÃ© les
Ġcapit aine
Ġencoura gÃ©e
Ġsau vage
Ġbar Ã³n
Ġcondu cteur
Ġten ez
Ġhar bour
ha fi
Ġsuiv ons
ĠprÃ©f Ã©rÃ©e
Ġcorre ctes
Ġcoh ab
Ġroy al
ĠhÃ© licop
Ġphot ographie
ĠÃ©li re
Ġfrapp ant
ĠrÃ©ag issent
Ġ198 8
Ġrac istes
ĠcohÃ©r entes
Ġsil lage
Ġreconnaiss ants
Ġsouci er
Ġinterd isant
ĠrÃ©ta bli
Ġtch Ã¨ques
Ġconten ait
ĠrÃ©sid ent
Ġcl Ã´t
Ġax Ã©
Ġpsych ologie
ĠcÃ©rÃ© monie
Ġatmosph Ã©rique
gh t
ĠdÃ©v o
ĠpossÃ© dant
ĠdÃ©te ction
Ġcre user
Ġhyd rocarb
ĠÃ©duca tifs
Ġko fi
ĠdiplÃ´ mes
Ġprolong Ã©e
ĠÃ©pau les
Ġdissim uler
ĠvÃ©tÃ©r inaire
Ġplai der
Ġassoup lissement
Ġtypique ment
Ġadmi ration
Ġradioa ctifs
Ġdissua sion
ĠÃ©chantil lon
ĠrÃ©ins tal
Ġobsol Ã¨tes
Ġorches tre
Ġdiab Ã¨te
Ġkad hafi
Ġinterconnex ion
Ġping ou
Ġconclur ai
Ġtato eba
Ġseatt le
b c
k os
m autÃ©
n om
w is
Ġl isez
Ġs ons
re urs
er n
Ġn an
Ġn asa
Ġla s
Ġla ps
Ġpa ttes
or tait
Ġf ried
ĠÃ© r
op ol
Ġil licite
Ġne tanya
Ġi tin
Ġav Ã¨nement
ge ons
Ġac cession
Ġcons ter
Ġprop h
Ġcomp ose
Ã©ra teur
Ã©ri ons
Ġman uels
Ġman teau
ct on
Ġu cla
Ġpri mo
Ġpri mautÃ©
Ġpe inture
Ġautor isations
Ġindi gnation
Ġbr on
Ġsimp licitÃ©
Ġlim itant
Ġsuff ira
Ġsuc cession
Ġaliment Ã©
Ġpass ages
Ġten ais
Ġobser vons
ĠbÃ©nÃ©fici era
Ġsal ut
Ġouv rage
Ġcou tu
Ġcou tume
Ġexclu sive
Ġtradu isent
Ġsurpr en
Ġcul tiver
Ġinsu laires
Ġpopul istes
Ġchamp ign
Ġ0 3
Ġbout on
Ġving tiÃ¨me
ĠvÃ©ri fie
Ġespagn oles
Ġchan tage
ĠcaractÃ©ris Ã©
Ġfas c
ĠparallÃ¨ les
Ġinsuffis ances
ĠrÃ©sid us
Ġphysique ment
ĠrÃ©per cu
Ġretrouv ons
Ġquar te
ĠdÃ©sastre use
Ġsain te
Ġpolitici en
Ġgol f
Ġisol Ã©e
Ġprati quent
ĠÃ©loign Ã©
ĠdÃ©ri ve
Ġgratu ite
Ġopti mistes
ĠdÃ©bu ts
Ġintelli gentes
ÃŃ a
Ġennu is
Ġcommand es
ĠimprÃ© v
ĠfÃ©min ine
Ġvigil ants
Ġsoula gement
ĠcorÃ© ens
Ġinsul te
Ġdisproportion nÃ©e
ĠspÃ©cific itÃ©
ĠprÃ©judici able
aud rait
Ġase an
ĠdÃ©lÃ© guÃ©s
Ġbaf ou
Ġdissi per
Ġasy mÃ©tri
ĠindÃ©si rables
Ġmyst Ã¨re
Ġinsupp ortable
Ġxix e
ĠcoÃ¯ncid ence
Ġalent ours
b ent
c ue
p ic
p lex
t Ã¨res
z oo
Ã ±
Ġ +
en a
Ġc res
Ġa k
Ġa isÃ©e
ou ille
qu is
Ġm iel
Ġqu ator
it ante
Ġt anz
Ġr on
Ġj ose
Ġes cient
Ġin ta
Ġil lÃ©
Ġb andes
li eu
Ġje t
Ġh en
Ġsu re
oi ds
Ġtr oupe
Ġca chÃ©
Ġacc ab
Ġal titude
Ġdo g
Ġpos tu
Ġcro issantes
Ġtrans mises
Ġemp athie
Ġcontre car
Ġcla ss
Ġren on
Ġcr uellement
gu a
der a
Ġobjecti ves
Ġmet tait
Ġdou x
Ġdou anes
qui er
Ġir onique
Ġarri vait
ĠdÃ©s h
Ġim mat
ali ment
Ġfi le
Ġfi ctif
Ġinves tissent
Ġreste z
Ġpara di
ĠspÃ©ci alisÃ©s
Ġgra s
Ġ5 8
ĠcoÃ» tera
ĠÃ©qu ation
Ġtur bul
Ġglo ire
Ġtravers ons
Ġassur ent
ĠÃ¢ gÃ©
Ġfu kus
ĠmÃ©r ites
Ġdel hi
Ġopportun e
Ġpropose z
Ġindis cu
Ġexcellent es
Ġbel grade
Ġrati o
Ġappu y
Ġdiver gent
Ġconvi endra
ĠÃ©cla tement
Ġquit te
Ġvari ables
Ġgo Ã»
Ġconne cter
Ġincer tain
Ġirlandais es
Ġaccr ues
Ġinterd ites
Ġscand ales
ĠÃ©pi zoo
Ġcontes ter
ĠreprÃ©senter ait
ĠÃ©chÃ© ances
Ġtransit oires
Ġagisse ments
ĠÃ©loign er
ĠpossÃ© dons
Ġalg Ã©ri
Ġsousc rit
Ġvend ent
ĠrÃ©col ter
Ġconnex es
Ġrense ignement
ĠÃ©va sion
ĠdÃ©Ã§ ue
ĠrÃ©ac teur
Ġbran che
ĠprÃ´ ne
Ġfid Ã¨les
ĠantÃ© rieures
Ġhora ire
Ġmena Ã§ant
Ġsuperf lu
Ġrecommen cer
Ġseptentri onale
Ġinterval le
Ġcollectiv itÃ©s
Ġterra ins
Ġank ara
Ġsier ra
ĠillÃ© galement
d in
g ions
g gen
Ġ istan
Ġd its
Ġp lier
Ġs aines
er ons
le tte
Ġt onne
Ġen lÃ¨vement
ĠÃ© mine
Ġpar i
Ġin sign
Ġb yr
que ts
Ġma o
Ġg ore
Ġpas sive
Ġpas sif
ro ce
Ġh am
Ġo lÃ©
Ġca ta
Ġpoli o
Ġser vant
ui es
Ġar mÃ©
Ġal our
ĠdÃ©c rÃ©
ĠdÃ©p Ãª
Ġtrans mise
Ġop Ã¨re
Ġti t
Ġcar t
Ã©g oci
Ġcol line
ĠgÃ©n Ã©rÃ©
ĠgÃ©n Ã¨rent
Ġmilli er
Ġk la
Ġenvir ons
Ġ19 0
Ġtech ni
Ġatt rait
Ġfonction naire
Ġban lieu
Ġbas ant
Ġfondament alistes
Ġ5 7
ĠdÃ©fin issent
Ġ4 9
Ġouv rent
Ġfu ir
ĠÃ©cou lÃ©e
Ġchois issent
Ġquali fiÃ©es
Ġencourage ons
Ġaccus er
Ġhor mis
Ġrejet tent
Ġintergouvernement al
Ġscand ina
Ġaggra ve
Ġsurf aces
Ġautonom es
Ġsolda t
Ġsalari ale
ĠprÃ©sidenti el
Ġprisonn ier
Ġisol ation
ĠtragÃ© dies
Ġdivis Ã©s
ĠgÃ©nÃ© reuse
Ġdouani ers
Ġincor re
Ġinfe ction
ĠrÃ©comp ens
Ġineffic acitÃ©
Ġsacri fier
Ġsacri fices
Ġexpliqu ant
Ġconnex ions
Ġfrag il
ĠdÃ©vas ta
Ġgenti lles
Ġhorri bles
Ġasp ire
Ġembal lage
Ġfoc aliser
Ġtoile ttes
Ġsyner gies
Ġrende ments
Ġbale ines
Ġrestitu tions
Ġsucc omb
Ġregroupe ment
Ġpavil lon
Ġassie tte
Ġjohannesb urg
Ġengra is
Ġendom ma
Ġverdi ct
Ġsouterra ines
Ġfukus hima
Ġistan bul
ĠÃ©mine mment
Ġinsign i
g Ã©n
g hi
j o
n isme
o ff
p as
z he
Ġd ent
Ġc end
Ġc aution
ou tes
Ġde Ã§
Ġe ue
Ġn it
Ġla urÃ©
Ġt ro
Ġt wit
Ġpa pe
or ith
Ġv Ã©nÃ©
Ġr ock
Ġj on
Ġpar lions
Ġin fi
ĠdÃ© mes
ĠdÃ© gu
Ġac qui
Ġra jou
Ġmo dÃ©
Ġai dant
Ġimp acts
Ġvo tÃ©e
Ġvo lets
Ġsou fre
Ġcomp are
mi tisme
Ġag rand
Ġco erci
Ġad mets
Ġvi er
ĠrÃ©s out
og Ã¨nes
um s
Ġcha mbres
Ġconsid Ã©rants
Ġmainten us
Ġmet trait
Ġvis ions
Ġda laÃ¯
Ġcontra ri
Ġeu ph
Ġvers Ã©
Ġord onn
Ġver tes
Ġress ens
Ġprom p
ĠreprÃ©sent Ã©e
Ġpara s
Ġcomb inÃ©
Ġref aire
Ġfra u
Ġappel ant
Ġgen oux
Ġadmin istr
Ġ6 2
Ġpoursui ve
Ġcoord onnÃ©es
Ġinde x
Ġconcent rÃ©s
Ġsin gu
ĠprÃ©f Ã©r
Ġgu Ã©rir
Ġsch w
Ġdel ors
Ġgagn ants
ĠapprÃ©ci ons
Ġcircons tance
Ġrenouve au
Ġliv raison
Ġconnaiss ait
Ġrent ables
Ġrendu es
Ġbru ta
Ġfour mis
Ġ0 4
ĠrÃ©vÃ© lateur
Ġval lÃ©e
Ġassu ment
Ġcourage use
Ġhabitu Ã©s
Ġapport ons
Ġassass inÃ©
200 2
Ġaver tissements
Ġmonop ol
Ġvolu mes
Ġanc rÃ©e
Ġtemporaire ment
ĠtchÃ©tch Ã¨ne
ĠdÃ©clar Ã©e
ĠdÃ©bu ter
ĠmathÃ© matique
Ġprag matiques
Ġabsor ber
Ġillustre r
Ġincar c
Ġbrill ante
Ġenra cin
Ġreb ond
ĠprÃ©dÃ© cesseurs
ĠstupÃ© fiants
Ġfores tiÃ¨re
ĠpÃ©nÃ© trer
ĠprÃ©val oir
ĠrÃ©clam ons
Ġparadox alement
Ġmande lson
Ġinco h
ĠÃ©ro sion
Ġdivor ce
Ġincondi tionnel
Ġcord es
Ġassain issement
Ġgazodu c
Ġboudd h
Ġcompatri otes
Ġrui jten
Ġorte ga
Ġautob us
ĠbiomÃ©tri ques
Ġabkha z
Ġbyr ne
v ille
y cle
Ġl ion
Ġp v
Ġp iste
ou est
ou lou
ti g
an cÃ©e
it y
or ino
si ers
Ġr otation
Ġes qu
Ġin visible
Ġch ou
end t
Ġra va
Ġra ils
ers onne
Ġsi en
Ġimp ens
Ġsou cis
Ġli ik
ga ges
Ġno ble
Ġas piration
Ã©ri oritÃ©
Ġag ro
Ġco ol
Ġper ce
enti els
Ġti ck
gu isme
Ġcol ogne
Ġconf ond
Ġk er
Ġenvir onnements
Ġba gue
Ġcor de
Ġfais abilitÃ©
Ġver sement
Ġnor diques
Ġviol entes
Ġemploi ent
Ġsais ie
Ġcentra lisÃ©e
Ġpor nographie
Ġmod ulation
ĠÃ©t endues
Ġst an
Ġmul der
Ġpubli Ã©es
Ġitali ennes
ĠprocÃ©d ur
Ġmulti lin
Ġharmon isÃ©e
ĠpÃ©n ins
Ġcolle cter
Ġobten ons
Ġvit orino
ĠrÃ©flÃ©ch issez
Ġcul ti
Ġpopul isme
Ġtotal itaire
Ġconven able
Ġcompos Ã©s
Ġbat tus
Ġafric aines
Ġinstitution n
Ġraisonn ablement
Ġ198 7
Ġrepro cher
Ġquit tent
Ġmaintien nent
Ġconver sion
Ġgo e
Ġincer taine
ĠrÃ©guli Ã¨res
Ġsh ang
Ġutilise z
ĠprÃ©par Ã©e
ĠgÃ©or g
ow e
ĠmultilatÃ©ra lisme
Ġressor tir
Ġtre ize
Ġincl use
Ġabat tu
Ġincomp lÃ¨
ĠperpÃ© tr
Ġaccum uler
Ġagres sive
Ġalg orith
Ġadmis sion
Ġprononc Ã©es
Ġsanction ner
Ġcompliqu Ã©es
Ġentour ent
Ġinsur mont
Ġ194 5
ĠingÃ©nie ur
Ġindiff Ã©r
Ġgouverne ur
Ġcommande ment
oul os
Ġfame use
Ġinfirmi Ã¨res
Ġrab ais
Ġsyner gie
Ġjack son
Ġintui tion
ĠÃ©pouvan table
ĠblÃ¢ mer
hard t
Ġdau ph
Ġminus cule
Ġpd g
Ġhecta res
Ġorb ite
Ġinsatisf ais
Ġsente z
ĠdÃ©plor ons
ĠhÃ©gÃ© monie
Ġrega gner
Ġchimpanz Ã©s
ĠzÃ© lande
Ġhydrocarb ures
Ġcres po
ĠdeÃ§ Ãł
Ġliik anen
9 8
d ge
o ques
t one
Ġ titu
Ġs Ã©r
in d
Ġla my
il lages
op oulos
Ġpar u
Ġil licites
Ġg y
Ġpas sions
os se
de urs
Ġch Ã¨que
ie v
Ġapp Ã©
fi ables
ĠÃ©c rans
Ġcomp ortant
lÃ¨ ver
vi Ã¨me
Ġper dure
Ġrapport ent
ĠdÃ©c Ã©d
Ġmar x
ven u
Ġprodu ctifs
ĠmÃ© mor
Ġren ation
Ġsitu Ã©es
Ġconstitu Ã©e
Ġsta tions
Ġvis ait
Ġ19 2
Ġpart ent
Ġgroupe ments
Ġsous cri
Ġfi bres
Ġcontra indre
Ġjou ant
Ġopp ri
Ġprom ul
ĠreprÃ©sent aient
ĠÃ©tr anges
Ġrou e
Ġ5 2
Ġviol s
Ġtour istique
Ġcondu ira
ĠtÃ©lÃ© char
Ġajou tent
Ġfond Ã©s
Ġexplo itÃ©
ĠrÃ©ser voir
Ġsubs istance
Ġoblig Ã©e
Ġfix es
Ġappar tement
Ġ9 6
Ġconcent rent
Ġmari Ã©
ĠrÃ©v olutions
Ġretar dÃ©
Ġencourager a
Ġexis tÃ©
Ġorgan ise
Ġcy ber
Ġfacil itÃ©s
Ġsuppri mÃ©es
cin q
Ġfrapp Ã©s
Ġprovo quant
ĠdÃ©pla cent
Ġconven tionnelles
Ġsimpli fiÃ©e
Ġjan e
ĠdÃ©n onc
Ġaccent u
Ġrac ine
Ġanalys Ã©
Ġanalys tes
Ġtransform Ã©e
Ġquotidi ens
Ġeffor cent
Ġsouci e
Ġenvisage able
ĠprÃ©par ent
Ġflo ttes
Ġgaran tisse
Ġsuppos Ã©s
Ġcroy ait
ĠÃ©tonn amment
Ġaffec tÃ©e
Ġpsych ologiques
ĠaccÃ©l Ã¨re
Ġmc cre
ĠhÃ©s iter
Ġkilom Ã¨tre
Ġagres sions
Ġabouti t
Ġprolon gement
Ġoctroy Ã©e
amÃ©ric ains
Ġintr an
Ġapprofon dies
ĠrÃ©ve iller
ĠrÃ©public ain
Ġstruct urÃ©
Ġpromette ur
Ġlament able
Ġkey nes
ev y
ĠtÃ©lÃ©phon iques
Ġarsen al
ĠmÃ©thod ologie
Ġpyra mide
Ġfrau dule
Ġmccre evy
1 1
v ing
w ell
x on
Ġp ente
qu a
in grad
om o
Ġv ant
ous s
Ã¨ che
Ġest hÃ©
ta dt
Ġin tri
Ġb un
ĠdÃ© ch
ri g
Ġfa us
Ġg ara
Ġre vi
au re
Ġra ch
Ġsi ff
Ġan tisÃ©
Ġimp itoy
fi ante
Ġacc use
Ġas tu
Ġper plex
Ġins ensÃ©
Ġins ertion
ĠrÃ©p ert
ĠmÃ© tro
ĠcrÃ© ances
Ġdom iner
ocra tie
Ġci ment
Ġcor an
Ġsp g
Ġsouhait ant
Ġsouhait ais
Ġsouhait aient
Ġautor Ã©g
Ġim mis
Ġsupp ort
ĠspÃ© cul
Ġimpos sibles
Ġur gences
Ġfra Ã®
Ġtrouv Ã©s
ĠarrÃª tent
Ġentra vent
Ġatta chÃ©
Ġsus men
Ġbar ba
Ġbar rot
Ġporte ur
Ġsemb laient
ĠreÃ§ ue
Ġrappel lerai
Ġanti p
Ġhabit at
Ġadap tations
Ġrece vons
Ġobs curitÃ©
Ġrefus ant
ĠÃ©lÃ©ment aire
ĠthÃ© matique
Ġsouhaiter ait
Ġarriver ons
Ġgard Ã©
Ġ11 0
Ġcy nique
Ġfl ui
Ġfacil itant
Ġnorm ales
Ġdistin cts
ĠÃ©cla irage
Ġru de
Ġcaus Ã©e
Ġcouver tes
Ġresta urants
Ġaudi ence
Ġfront s
Ġcompa raisons
Ġ197 9
ĠinÃ©v itables
Ġcib ler
Ġscandale use
Ġrevend ication
ĠperpÃ© trÃ©s
Ġchem ise
dj i
Ġinva li
Ġchu ter
Ġinterpr Ã¨te
Ġukrain ienne
Ġdiversi fier
ĠdiplÃ´ mÃ©s
Ġinsur rection
Ġaffaibli e
ĠÃ©m iss
Ġinterc ulturel
Ġcache mire
Ġarbitra ires
Ġrenf erme
ĠthÃ©rap ie
Ġdiam ant
ĠnÃ©fas te
Ġboute illes
Ġbur un
ĠnigÃ©ri a
Ġlobby ing
ĠbÃ©nÃ©v oles
ĠdÃ©prÃ© ciation
Ġmeu bles
ĠhypothÃ©c aires
ĠirrÃ©ver sible
ĠcosmÃ© tiques
Ġsocra tes
Ġucla f
Ġquator ze
ĠpÃ©nins ule
ĠantisÃ© mitisme
Ġsusmen tion
1 5
a tar
a ka
en f
Ġc m
Ġa la
is aient
Ġm un
Ġm ins
in ingrad
Ġpa ire
or tÃ©es
Ġf lam
Ġv enti
Ġpar itÃ©
Ġfa illes
Ġi rait
Ġi rai
tu de
Ġo tt
Ġra tÃ©
Ġsi enne
Ġme dia
Ġtra ces
Ġan tis
Ġgr is
Ġy en
Ġdis cer
Ġob sÃ©
ma tie
Ġal lÃ¨
Ġal zhe
Ġinter a
Ġinter dits
Ġvi ables
ist ra
Ġann uelles
Ġtravail lait
ĠsÃ© isme
ĠsÃ© cession
Ġti tan
ĠnÃ©cess itant
Ġconf ondre
Ġk owe
Ġgouvernement al
Ġind ul
Ġprof itable
Ġappr enons
Ġdou blement
Ġrespe ctives
ĠrÃ©du irait
Ġindi ces
Ġnouvelle ment
Ġnu isent
Ġver tic
ĠreprÃ©sent era
Ġw illi
Ġrep ortÃ©
Ġple ins
Ġexc lue
ĠcrÃ©er ait
Ġrev u
Ġintrodu isant
Ġtour ment
Ġinsta urÃ©
Ġpoursui vie
Ġpasse z
Ġaccepter a
Ġfix ant
Ġbal lon
Ġouv rant
Ġiran iennes
Ġchois it
Ġhabit uel
Ġcou ler
Ġcollab orÃ©
ĠprocÃ©d Ã©s
Ġgu ate
Ġobs cur
ĠpÃ©n ible
verse ments
Ġcatastroph iques
Ġcondam nÃ©es
Ġexcep tionnellement
Ġsuper be
Ġfavor isÃ©
Ġentend us
Ġbel ges
Ġexpos Ã©e
Ġgre en
Ġencourage ants
Ġconfor table
Ġmassi fs
ĠcaractÃ©ris Ã©e
ĠrÃª ver
Ġint enses
Ġprotoc oles
Ġlab o
ĠÃ©chou e
Ġrasse mble
Ġintensi f
Ġuniverse ls
Ã¡ nam
Ġky i
Ġattra ction
Ġsaur a
Ġfabric ant
Ġdevi endront
ĠÃ©loign Ã©es
Ġmini me
Ġmc c
Ġfaill ites
ĠdÃ©clar ent
Ġrestri ctives
Ġgasp iller
ĠÃ©labor Ã©s
Ġinterf ace
ĠdiplÃ´ me
Ġentour Ã©
Ġray on
Ġjun cker
Ġboule vers
Ġolymp ique
Ġgrosses se
Ġasc ension
Ġgala xie
Ġrecouv rement
Ġremont er
ĠcamÃ©ra s
Ġredres ser
Ġkal iningrad
ĠchrÃ©tien nes
Ġguant Ã¡nam
ĠÃ©lig ibilitÃ©
Ġinhabit uel
Ġnettoy age
Ġresp irer
ĠspÃ©cula tifs
ĠdÃ©mante ler
Ġbaign ade
ĠprÃ©li minaire
Ġsupermar chÃ©
Ġraci ale
ĠapprÃ©hend er
Ġimpa tient
ĠpolÃ© mique
Ġnic ara
Ġpleuv oir
ĠdÃ©valu ation
Ġdat ant
Ġmam mif
ĠprÃ©dom in
Ġimmat ric
Ġabkhaz ie
Ġimpens able
Ġrenation alisation
Ġalzhe imer
Ġguate mala
ĠguantÃ¡nam o
c Ã¨rent
f ra
i ces
m Ã©n
o eu
p Ã©s
u di
Ã© th
Ġl ul
Ġm outons
Ġt roÃ¯
Ġpar don
Ġb ic
ne z
ĠrÃ© app
Ġg Ã©rÃ©s
Ġcon si
de aux
se t
ĠprÃ© dictions
Ġh at
Ġra tionnel
Ġapp le
and re
Ġdi vid
Ġdi gnes
fi ons
Ġou t
Ġou ais
Ġam nes
Ġdis que
gn Ã©s
Ġas sign
Ã´ ne
Ġal la
Ġfin alitÃ©
Ġeff roy
Ġinter actions
Ġpers ister
ĠdÃ©p l
ĠrÃ©g ression
ĠrÃ©g uler
enti ment
tin es
ĠmÃ© da
Ġemp ortÃ©
Ġren om
Ġren oncÃ©
Ġaff lu
Ġsitu Ã©e
ĠlÃ©g ers
Ġk ha
Ġcitoy ennes
gram mes
Ġsign Ã©s
Ġfer mÃ©es
Ġsp orts
Ġinstitu ts
Ġmi gn
Ġappro xi
Ġbr and
Ġju gÃ©e
Ġprom ets
Ġfonda teur
ĠspÃ©ci alisÃ©es
Ġconstru ctions
ill Ã©es
Ġtrouver ons
Ġorient Ã©e
ĠÃ©t onnÃ©
Ġappel ler
Ġentra iner
ĠrÃ©glement Ã©e
Ġeuros cep
Ġexerci ces
Ġmanifes tent
ĠgÃ© ographie
ĠmÃ©r iter
Ġobten ues
Ġalli ances
Ġmand a
Ġcombat tants
Ġgard es
Ġaband onn
Ġimpor tateurs
Ġoeu vres
Ġ198 5
Ġinstal lÃ©
ĠÃ©cla ter
Ġperd ant
Ġlogique ment
Ġvari able
ĠdÃ©tru its
Ġpacifique ment
Ġdisposer ons
Ġprofiter a
Ġfe der
Ġfe rez
Ġaggra vÃ©
Ġreprodu ise
ĠdÃ©cou ler
Ġsuppos ons
Ġdispara Ã®t
Ġpapi ers
Ġarchite cte
Ġble us
ĠdÃ©sir s
ĠunilatÃ©ra lement
Ġarbit re
Ġmorte l
Ġprolon gÃ©
Ġrat ta
rÃ©g ion
Ġlicenci Ã©s
ĠdÃ©mission ner
bo ok
ĠdÃ©centra lisÃ©e
Ġbran ches
Ġredres sement
Ġmenti r
Ġrap atrie
ĠdÃ©faill ances
Ġilli m
Ġinterag ir
Ġpersuad Ã©e
Ġcle f
Ġhomog Ã¨ne
Ġrejoign ent
Ġparadi gme
Ġshang hai
Ġintran si
Ġlul ling
Ġamnes ty
2 000
4 0
b us
e mment
Ġl yn
Ġl inÃ©
en ga
Ġp li
Ġp Ã´le
Ġc ant
re yer
Ġt ob
Ġle one
Ġf se
Ġv int
Ġr oc
Ġr ouvrir
Ã¨ des
âĢ ĳ
Ġin finiment
Ġb Ãªte
Ġg as
Ġpro cu
de l
ĠprÃ© lÃ¨vement
Ġse mi
Ġse ctions
Ġsu u
ens Ã©ment
pe z
Ġso ie
ĠÃ©c ris
gn ant
Ġar du
ut ent
Ġbien faits
Ġinter dictions
ĠdÃ©c onne
Ġexp i
Ġman oeu
Ġdonn Ã©s
Ġren aissance
Ġren versement
Ġgrand issant
Ġtu ent
Ġtu Ã©es
Ġvis u
Ġfer n
Ġinform Ã©e
Ġplan che
Ġim iter
Ġdur ablement
Ġreg istres
Ġbr un
Ġiniti ales
Ġoff rira
Ġcan al
Ġcan ari
Ġsoulign ons
ĠtÃ© hÃ©r
Ġfav ori
Ġpor cs
ĠÃ©larg it
Ġdoute ux
Ġcoup les
Ġvoter ont
Ġ9 8
Ġoppos Ã©es
Ġang lo
Ġinflu er
Ġcorre ctions
Ġsch reyer
ĠapprÃ©ci ent
Ġveiller a
Ġcombat tu
Ġagricul teur
ĠrÃ©uss issent
Ġperdu es
Ġconven us
Ġconven ablement
Ġcommence ment
Ġos sÃ©
Ġrequ in
Ġscientifique ment
Ġmili ces
Ġru meurs
Ġami ante
Ġap titude
ĠdÃ©tru ite
ĠÃ©tique ttes
ĠdÃ©sas tres
Ġstabil is
Ġmotiv Ã©s
ĠmultilatÃ©ra ux
Ġracont Ã©
europÃ© enne
Ġmeur t
ĠÃ©loign Ã©e
ĠaccÃ©l Ã©rÃ©
ĠexpÃ©riment ations
Ġrigou reuses
ĠdÃ©saccord s
ÃŃ n
Ġchans ons
Ġspor tif
Ġappe lez
Ġfrus tr
Ġasp irent
Ġchasse urs
Ġenle vÃ©
he ad
ĠinquiÃ©tant es
Ġbala yer
ĠschÃ© mas
Ġnuis ibles
Ġretourn Ã©
ĠdÃ©loy ales
Ġsectorie lles
ĠvÃ©gÃ© tales
dus a
Ġalarm ante
Ġassim il
Ġmaig re
Ġfle uve
Ġsuccessi fs
Ġeffac er
Ġtristes se
Ġlampe dusa
Ġdras tique
Ġlucra tif
Ġmanufact uri
ĠredÃ©fin ir
ĠantidÃ©mocra tique
Ġgand hi
ĠpersÃ©v Ã©rance
Ġtriang le
Ġbeur re
Ġtwit ter
ĠtroÃ¯ ka
Ġapproxi ma
Ġprocu rer
ĠtÃ©hÃ©r an
6 0
c co
i raient
n ons
r ance
Å Ħ
Ġ tin
Ġd entis
es te
en z
on au
Ġc rick
Ġm iti
in en
Ġun it
si Ã¨
ĠÃ© pu
ĠÃ© mise
Ġdes ser
Ġau gure
Ġes cro
Ġin er
Ġin action
ĠdÃ© lin
Ġma t
al le
se pt
Ġsur s
ĠprÃ© pond
ĠprÃ© side
Ġh ig
Ġac t
Ġcons ent
oi ve
Ġcont ag
Ġvo eux
Ġsou lÃ¨vent
Ġser rÃ©
Ġmes urÃ©
Ġfin e
Ġad join
el ho
Ġvi vaient
Ġmar Ã©e
Ġvou lant
Ġab on
Ġpos ez
ĠdÃ©b ord
cep tions
Ġbe hr
Ġrec r
ora le
Ġsitu Ã©
Ġconstitu tions
Ġva lait
Ġk ra
Ġcap tures
Ġcor rompu
ĠconsÃ©qu ente
Ġir re
ĠrÃ©f rig
Ġjou ons
Ġiniti Ã©
mo der
Ġ4 50
ĠÃ©p ing
ing s
Ġsy mÃ©tri
Ġfran cs
Ġrev it
ĠÃ©larg issements
Ġaider ont
Ġ6 7
nÃ© si
Ġappar ues
Ġ9 7
Ġoppos ant
ĠdÃ©si rons
Ġmari ages
ori ale
ĠmÃ©r it
Ġlut tes
Ġpopul iste
Ġtrib us
Ġappu ient
ĠdÃ©cider a
Ġbru its
Ġdiver gentes
ĠdÃ©rou lÃ©e
ĠrÃ©pond ra
Ġfas siez
Ġempr ise
ĠallÃ© gement
Ġcaus Ã©es
ĠrÃ©cla mÃ©
Ġsuppos Ã©e
ĠdÃ©ploy Ã©
Ġkil o
Ġpsy chi
ĠÃ©mo tionnel
Ġcroy ais
ĠdÃ©sesp Ã©rÃ©e
Ġprati quÃ©
cha Ã®
Ġforum s
Ġmange z
Ġhol landais
Ġadh Ã©rÃ©
Ġinclu sive
Ġindire cts
Ġ196 7
ĠrÃ©in vent
Ġrecon version
Ġaveug les
Ġfrag ilitÃ©
Ġinterv iennent
Ġunani mement
ĠcinÃ© mat
ĠÃ©criv ains
ĠsÃ©cur itaire
ĠÃ©vÃ¨ nement
ĠdÃ©nom inateur
Ġenfre int
Ġram Ã¨ne
ĠdÃ©stabil iser
ĠbÃ¶ sch
Ġbale ine
Ġobsol Ã¨te
Ġimmeu ble
ĠdÃ©savan ta
ĠstÃ©rÃ© otypes
Ġinsou ten
Ġfrancis co
Ġfacul tÃ©
ĠdÃ©dom ma
Ġpingou ins
Ġtanz anie
Ġmins k
Ġexpi ration
ĠossÃ© tie
siÃ¨ cle
d c
j ing
y on
Ġp ans
Ġp oup
Ġa ung
an taine
is en
Ġe us
Ġn abu
Ġn auf
Ġqu an
it ch
Ġle cteurs
Ġv Ã©n
Ġr ange
Ġin cess
Ġg Ã¨re
Ġcon fin
Ġpro ver
Ġpl uies
se y
ĠprÃ© ten
ĠprÃ© da
ĠprÃ© dis
Ġh Ã©tÃ©
ol o
Ġme c
pe ur
Ġtra cÃ©
Ġan om
Ġimp ul
Ġdi mas
Ġres tes
tr om
Ġser as
Ġprop ager
Ġam ont
Ġdis sÃ©
Ġbien ve
iss Ã©
ĠnÃ© ant
Ġab er
min g
min eux
Ġnos tal
ĠprÃ©sent ait
Ġcar ton
Ġmain ts
Ġcr uel
Ġconf is
ĠdiffÃ©r end
Ġadop tions
olog iste
Ġsouti endront
ĠâĢ ĺ
Ġinf lex
Ġautor outes
ĠrÃ©f Ã©rer
Ġlu la
Ġris quÃ©
Ġver b
ĠreprÃ©sent ons
Ġcan cÃ©
Ġsuff rage
Ġsigni fiait
ĠdÃ©ci dÃ©es
Ġeuro da
Ġtrouver ont
Ġmod Ã©rÃ©
ĠdÃ©pens ons
Ġtour istiques
Ġth ess
ĠprÃª tÃ©
Ġloin tain
ĠbÃ©nÃ©fici aire
Ġpasser ait
Ġirak iennes
Ġsal les
ha d
Ġmanque ments
Ġouv rez
Ġanti terror
Ġmari Ã©e
Ġidenti tÃ©s
Ġminist Ã¨res
Ġmus har
Ġcivi ques
Ġliv rÃ©
Ġ18 0
Ġexaminer ons
ĠdÃ©mar rÃ©
Ġbat tent
Ġaccent uer
Ġpan el
Ġro che
Ġsoumis sion
Ġtab ou
Ġ14 0
Ġconstituer ont
Ġconsoli dÃ©e
Ġquotidi ennes
Ġsusc itent
Ġfavoriser a
Ġdispar us
Ġquin qu
Ġretrouv Ã©s
Ġcolon ie
200 3
ĠÃ©tonn ante
Ġisol Ã©es
Ġdesign ers
ĠrÃ©cup Ã©ration
Ġcompati bilitÃ©
ĠrÃ©conc ilier
ĠrÃ©col tes
Ġinspir Ã©e
Ġrivi Ã¨res
Ġentour ant
ĠdÃ©taill Ã©s
Ġprovin ces
ĠimpÃ©ri alisme
ĠdÃ©liv rance
ĠÃ©limin Ã©
Ġsuici des
Ġflagr ant
ĠvÅĵ u
ĠlÃ¢ che
Ġcardia ques
Ġinfirmi Ã¨re
ĠbÃ¶ ge
ĠdÃ©coup lage
Ġcenti m
Ġprovoc ation
ĠrÃ©organis ation
ĠmÃ©dioc re
ĠapprÃª te
Ġrenvers Ã©
Ġfir mes
Ġsoustra ire
Ġtit ley
Ġnit ra
ĠvÃ©nÃ© zu
Ġbruta lement
Ġbehr endt
Ġmushar raf
b is
b ert
n ous
v ar
v oy
Å ¡
Ġl Ã©s
ou illes
is it
Ġla pi
Ġpa lais
Ġin fini
Ġma y
ci on
Ġfa ctions
Ġg Ã©rÃ©es
os pe
al onique
ar ch
ĠprÃ© pa
Ġi f
Ġch Ã¨res
Ġh Ã©ritÃ©
ge l
di eux
Ġsu prÃ©
oi ff
Ġmo tiver
Ġai dÃ©s
Ġces s
Ġdi es
ĠprÃ©sid er
Ġdis tra
Ġar mateurs
Ġal tÃ©
Ġco ch
Ġco elho
ĠdÃ©c er
min Ã©
ni Ã¨re
Ġann u
enti elles
Ġfor ger
lis se
Ġpri er
Ġti rÃ©e
ĠcrÃ© ateur
Ġren Ã©goci
Ġvoud ront
Ġess u
Ġcha otique
Ġobjecti vitÃ©
Ġbon ino
Ġhum our
Ġarri vez
Ġplace ment
ĠreprÃ©sent ations
Ġavan Ã§ons
Ġviol er
Ġrep li
Ġpor c
Ġaliment e
Ġconfi Ã©
Ġaider ait
Ġhe b
Ġporte urs
Ġha usses
Ġexplo itÃ©es
ĠÃ©lab ore
ĠmÃ©th ane
ĠÃ©cou lÃ©
gi ens
ori ens
Ġharmon isÃ©
Ġappliquer a
Ġcru autÃ©
Ġexcep tionnels
Ġappliqu ons
Ġrom ney
Ġexis ten
Ġexemp tions
Ġimpression nÃ©
ĠprÃ©ser va
Ġcondition nalitÃ©
Ġfl ou
Ġtable aux
Ġx ia
Ġsuppri mÃ©s
Ġnorm aux
Ġabou tissent
Ġabou tissement
Ġdiver gents
Ġach Ã¨
Ġprosp Ã©rer
Ġpakistan aise
ĠtÃ©lÃ©ph onie
Ġcouver te
Ġreli e
ĠÃ©val ue
Ġsouci eux
ĠaÃ©r onau
Ġtrou ble
Ġdiv ise
Ġher man
Ġsymp a
Ġ197 3
Ġsaur ons
Ġimmo bil
Ġcub ain
Ġjaponais es
ĠdÃ©couv re
Ġallou Ã©es
Ġbro th
Ġdoc tora
Ġautoma tiques
ĠÃ©quival ente
ĠrÃ©pand re
Ġmange ons
Ġlitu an
Ġapplaud is
Ġkh amen
Ġdouce ur
gl om
Ġvirtu el
ĠdÃ©rÃ©g ulation
ĠÅ ¡
Ġjustes se
ĠÃ©touff er
Ġenva hi
Ġroth ley
Ġnaz is
Ġclo re
Ġgau lle
Ġsuspe cts
Ġsollic iter
Ġperturb ations
Ġvalor isation
Ġannex es
Ġani mÃ©
Ġplon ger
Ġpne u
Ġtropic ales
Ġabstra ction
Ġtig re
Ġmag istra
ĠexpÃ© di
ĠintrinsÃ¨que ment
ĠdÃ©ca lage
Ġdop age
Ġpromeu t
Ġatterr issage
Ġestom ac
Ġbarba rie
Ġeuroda c
Ġthess alonique
Ġquinqu enn
ĠsuprÃ© matie
Ġkhamen ei
b rage
l li
n y
n ar
p re
s h
w ley
x es
y e
Ġd ress
Ġa iles
in ter
ra d
Ġf ol
Ġen su
Ġen tiers
ĠÃ© dul
Ġb Åĵ
eu tique
Ġre form
Ġex ode
end es
Ġpo Ã©sie
Ġo a
Ġso laires
ĠÃ©c ologie
ĠÃ©c rits
Ġconc ili
Ġon des
Ġcomp tant
gn ent
Ġar chÃ©
Ġco que
Ġvi endront
Ġpers istance
Ġvou lue
ĠrÃ©g issent
alis ant
Ġenv oient
Ġpri maires
Ġass entiment
dÃ© jeuner
Ġvoud ra
gu ent
Ġconf es
Ġcha gr
Ġmont rez
Ġvis Ã©s
Ġvis uel
Ġinc lin
Ġdemand ais
Ġir ri
Ġbon us
Ġsoi f
Ġz e
Ġabs tention
Ġrela is
Ġpara p
ĠdÃ©ci da
Ġcentra lisÃ©
Ġple ut
omb res
Ġgen er
Ġth Ã¨se
lin es
Ġpoursui vons
ĠlibÃ©ra lisme
ĠdÃ©ta chement
Ġcal mer
Ġfu ites
ori eux
Ġobs c
Ġciv ique
Ġdange reusement
Ġvit aux
Ġacqu ises
Ġexis taient
Ġaband onnÃ©s
Ġafghan e
Ġminu tieux
Ġsuppri mÃ©e
Ġconven ons
Ġdiver tissement
ĠdÃ©n oncÃ©
ĠÃ©lectora ux
Ġconver tir
Ġclasse ment
Ġpropor tionnelle
ĠsystÃ© matiques
ĠinÃ©g al
ĠÃ©gyp tienne
ĠrÃ©sul ter
Ġfo ie
Ġfamili ar
Ġbour langes
Ġrassemb lÃ©
Ġcl ose
Ġlou er
Ġradio diff
Ġconsul tÃ©s
Ġliqui ditÃ©
ĠimpÃ©ra tifs
ĠdÃ©sÃ©quili b
Ġamp lement
Ġprotectionn iste
Ġphilosoph e
ĠaccÃ©l Ã©rÃ©e
ĠhÃ©s ite
Ġcos m
ĠdÃ©clar Ã©s
Ġsty lo
ĠÃ©tend us
Ġmagni fiques
Ġmuni ch
ĠÃ©man e
ophob es
Ġbei jing
ĠdÃ©sa vantage
Ġchris ti
ĠprÃ©vis ibles
jac ente
Ġpal lier
ĠdÃ©loc alisation
Ġration alisation
Ġatom es
Ġprovisoire ment
Ġtransnation ales
Ġath Ã¨nes
Ġgardi ens
Ġgardi enne
Ġkara s
ĠcorÃ© enne
Ġrenvoy Ã©
Ġincompati ble
Ġinfli ger
Ġmande la
Ġdisciplin es
Ġsolenne lle
ĠdÃ©brou iller
ĠprÃ©fÃ©re rais
Ġincin Ã©ration
Ġchirurg ien
ĠÃ©oli enne
Ġwhite head
Ġexpon entielle
Ġcollis ion
Ġjose ph
Ġgentilles se
Ġmultilin guisme
enf ants
Ġrapatrie ment
Ġiner tie
Ġensu it
a tive
d ir
d ants
i ale
u ff
Ġa Ã®
Ġpa per
Ġpr u
Ġen chant
Ġpar lais
Ġg ie
Ġre mb
Ġre lÃ©
Ġpro tagon
de p
ĠprÃ© dit
Ġch anges
Ġav Ã©rÃ©s
Ġh ur
Ġh ond
Ġtra its
mb les
Ġsa chent
onn aires
onn age
ĠÃ©c ologistes
Ġno tables
ise ur
at ta
Ġins Ã©rer
Ġimport ent
Ġvi ti
ĠdÃ©c rite
Ġpers istante
ĠrÃ©g Ã©n
Ġab om
Ġpos ons
Ġann a
ger ie
Ġcontre p
Ġcar otte
Ġcas ser
Ġcas hman
Ġavoir s
ang Ã©es
Ġdou bles
Ġindi ennes
Ġord onnÃ©
ĠprÃ©c Ã¨de
ĠspÃ©ci alisÃ©
Ġ5 9
Ġcan cun
Ġw at
ĠdÃ©fin issant
ĠcoÃ» ter
Ġattein dra
ill ants
ĠfÃ©lic itÃ©
Ġface book
Ġtrouv ais
Ġsorte z
Ġga tes
Ġga min
Ġdemander a
Ġfam ilier
land er
Ġattend aient
Ġ6 4
Ġobser vÃ©e
Ġret ours
Ġajou tant
Ġdestin a
Ġrend rait
Ġjourn ali
Ġsol vit
Ġsin istre
Ġsor tis
Ġmontre ra
Ġhabit uelles
ĠgÃ© ants
Ġstatu ts
Ġharmon isÃ©es
Ġexcep tÃ©
Ġparven ions
Ġprend rons
Ġaffe ctant
ĠdÃ©pend ante
Ġexer cÃ©es
Ġsurpr endre
Ġaband onnÃ©e
Ġrempla cÃ©s
Ġber ke
ĠcÃ© dÃ©
ĠdÃ©mar rage
Ġfrapp Ã©e
Ġred ond
Ġprosp Ã¨res
Ġpan ier
Ġ198 4
ĠtÃ©lÃ©ph onique
Ġru meur
Ġconne ctÃ©
Ġenseign Ã©
Ġel dr
Ġden g
Ġbos ton
Ġattribu Ã©s
Ġcriti quent
Ġdon ateur
Ġviv ante
Ġenthousias te
Ġwal lis
Ġreten us
ĠperÃ§ us
ĠhÃ©s itation
Ġopti miser
Ġadh Ã©rents
ĠmathÃ© ma
Ġmuni tions
Ġaustra li
Ġox ford
amÃ©ric aine
Ġsubvention ner
ĠprivilÃ©gi Ã©e
Ġmob ili
Ġjun te
ĠdÃ©ser tification
Ġcuri ositÃ©
Ġdoulou reuse
Ġration aliser
Ġexacer ber
Ġportefeu illes
ĠdÃ©du ire
Ġpassep orts
ĠÃ©chantil lons
Ġincompati bles
Ġtrip le
ĠprÃ©judici ables
ĠÃ©lig ibles
Ġtriomph e
ĠÃ©lo ge
ĠcarrÃ© ment
Ġanders on
ĠÃ©pidÃ© mies
Ġcamer on
Ġvainque ur
Ġquere lles
Ġdigit ales
Ġimmobili Ã¨re
Ġscan ner
Ġnabu cco
Ġdies el
Ġberke ley
b ies
c ÃŃa
e th
j ani
p an
Ġd urs
Ġd ures
Ã© dÃ©
Ġl us
Ġp ir
Ġa ne
ou sie
Ġs ine
it z
Ġpa quets
Ġle inen
Ġet a
Ġf un
Ġr ic
ci er
Ġh abilitÃ©
ge mment
Ġo ost
Ġsu l
Ġca da
Ġai le
Ġcont ents
Ġsou pe
Ġaut os
ui ons
Ġacc om
ins on
Ġar c
ma gin
Ġper cepti
Ġvi ct
Ġnom mÃ©e
Ġop Ã©rant
Ġmarch ent
Ġcol lÃ©g
ĠlÃ©g Ã¨res
des c
Ġconsid Ã©rez
Ã¢ cle
iti ves
Ġsta des
ĠdÃ©f e
Ġir ont
Ġbr Ã¨ves
Ġfais ions
Ġver sements
Ġchar itÃ©
ot ype
Ġpor tÃ©es
Ġatta chÃ©s
Ġsau mon
Ġexplo ration
men sion
Ġmu tations
Ġapporter ont
Ġ9 00
ĠrÃ©sou d
Ġend or
Ġconcent rÃ©e
Ġlog o
ĠempÃªcher a
Ġgard ent
Ġgard ons
Ġperman entes
Ġber Ã¨s
Ġcontinent ale
Ġtri chet
Ġ198 6
ĠÃ©lec trom
ĠprÃ©cÃ©d ant
ĠcohÃ©r ents
ĠdÃ©li m
Ġdistribu teurs
Ġcorrespond ance
Ġeffor Ã§ons
Ġhor lo
ĠsÃ©par Ã©e
Ġattra pe
Ġbienven us
Ġcalcul Ã©
Ġyou tu
Ġspecta culaires
Ġkil os
Ġdomin ant
Ġinh Ã©rents
Ġinfluen cÃ©
Ġinscrit es
Ġpassion n
Ġvent re
Ġcuis iner
Ġimpati ents
Ġcombus tion
ĠrÃ©comp enses
ĠbrÃ» ler
Ġinspir Ã©s
ĠrÃ©affir mÃ©
Ġabsent s
Ġempris onnÃ©s
Ġtrompe use
amÃ©ric ain
Ġparviend ront
Ġsurv ient
Ġcorrespon dre
ĠrÃ©tic ents
ĠrÃ©par tir
Ġconsister a
Ġaie a
anou kov
ĠspÃ©cu lateurs
Ġcompli ments
Ġsyndic at
Ġcondamn ations
Ġmultipli Ã©
Ġmalent endus
Ġfascin ant
Ġsuperfici e
ĠinadÃ©qu ate
Ġsyri en
Ġparalys Ã©
ĠtibÃ© tains
Ġinco hÃ©r
Ġmajoritaire ment
ĠÃ©ri ger
Ġilli mitÃ©
Ġini magin
ĠnumÃ©r os
Ġdouz aine
Ġcommer Ã§
Ġoli ve
ĠdÃ©sintÃ© gration
ĠmÃ©ridi onale
Ġeffici ence
Ġinterlocu teurs
Ġproa ctive
Ġillustr ent
Ġoura gan
Ġpompi ers
Ġitin Ã©ra
Ġoost lander
anoukov itch
9 7
a ques
b ig
n ing
n utri
s ky
v ot
Ġd ense
Ġd anie
Ġp end
Ġp itiÃ©
Ġc Ã©li
Ġc itons
Ġa raign
Ġla ve
Ġpa trons
Ġun issent
or ant
Ġen sui
Ġj er
Ġj Ã©s
us c
que tte
ri rait
Ġg ord
Ġpl onge
ar y
Ġch rom
ter res
Ġra che
ol ont
Ġan xi
Ġsa bo
Ġli aisons
Ġres tÃ©es
Ġam az
Ġcomp lets
Ġmes urÃ©e
Ġal an
Ġal mun
Ġper tine
Ġins istent
Ġques teurs
ist rie
Ġann ulÃ©
Ġfor fait
Ġtrans n
ĠdÃ©b Ã¢cle
Ġpri ori
tra tions
ĠÃ©v itÃ©e
Ġti endront
Ġass um
Ġpla u
Ġaff am
Ġk iev
mis ph
Ġvis Ã©
Ġinc itÃ©
Ġgar ant
Ġgar cÃŃa
ĠdÃ©f endue
Ġhum ilitÃ©
Ġsui vis
Ġarri vÃ©es
Ġcontra ction
Ġbr in
Ġaccep tant
Ġinves tis
ĠnÃ©goci Ã©e
ches ter
Ġw ar
Ġw ynn
Ġconstru its
Ġhau tala
ot ti
Ġtrouv ant
Ġhab ile
ĠrÃ©un issent
Ġmer c
Ġvois ine
Ġha w
Ġ10 3
Ġcoord onnÃ©
Ġcoord inateur
Ġpol len
Ġsolid ar
ĠÃ©cou lÃ©es
Ġinnov ante
ĠintÃ©gr ant
Ġaugmenter ait
ĠhÃ© ber
ĠhÃ© misph
ĠlÃ©giti mement
Ġfab rique
ĠÃ©quilib rÃ©es
Ġdistin ctes
Ġbru talitÃ©
Ġrequ Ãªtes
Ġinstal lÃ©s
ĠrÃ©vÃ© la
ĠcaractÃ©ris ent
Ġtransform Ã©s
Ġvenu es
ĠcomplÃ©ment aritÃ©
ĠprÃ©a lablement
Ġsala f
Ġdiv ul
ĠsÃ©par Ã©es
ĠÃ©chapp ent
Ġstu dio
ly wood
Ġignor ons
ĠextrÃ© m
Ġmas ses
ĠÃ©cri vait
Ġamp u
ĠdÃ©clen che
ĠmÃ¨ tre
Ġinterinstitu tionnelle
ĠfrÃ©qu ences
Ġautrich iens
Ġramen Ã©
Ġdirig ent
Ġremet tent
Ġcommand Ã©
ĠdÃ©vas tateur
Ġplur aliste
Ġinterf Ã©rence
Ġoctroy Ã©s
ĠÃ©di tion
ĠÃ©di fice
ĠÃ©pre uves
Ġintitu lÃ©e
Ġsph Ã¨res
Ġinsur gÃ©s
Ġeffra yant
Ġpluriann uels
Ġanalog ie
Ġmunicip ales
Ġtromp Ã©
Ġtromp ent
Ġgro en
ĠrÃ©vol te
Ġtrah ison
Ġnoci fs
ĠsÃ©du is
Ġvaisse au
Ġenca dre
ĠonÃ© reux
Ġsecr Ã¨te
Ġimmeu bles
Ġminutie usement
Ġtrau matis
Ġabais ser
Ġster ling
Ġembras ser
Ġaffron tements
ĠminÃ©ra ux
ĠÃ©claire r
Ġendi guer
parti te
ĠrÃ¼ big
ĠrÃ©instal lation
Ġburun di
Ġillim itÃ©e
Ġcanari es
Ġmobili Ã¨res
Ġyoutu be
Ġgord on
Ġchrom os
Ġalmun ia
Ġpertine mment
f er
g ur
i b
i mp
i co
s aharienne
u les
y an
z Ã¡
Ġd ort
Ġp dj
Ġc yn
Ġt pi
il ien
Ġv alu
Ġv ars
Ġdes truct
Ġr onde
Ġj os
Ġin time
li bÃ©ra
ĠdÃ© ra
Ġg ale
ch Ã¨re
Ġre lÃ¨vement
Ġpro cur
Ġpro hi
Ġh ir
di x
Ġra d
ens tein
ĠÃ©ta tiques
pr om
sid es
Ġdev rez
Ġai g
mb ique
Ġres tru
Ġpays ages
Ġno toire
Ġam user
Ġcomp tait
Ġcomp lications
lÃ¨ rent
da gog
mi er
Ġper dez
Ã©n er
Ġcro issants
Ġpri mi
Ġpla th
Ġpla cent
gu Ã©es
Ġparticu laritÃ©s
cun do
Ġcha ir
mis sion
Ġmal nutri
Ġvis Ã©es
Ġgar dez
Ġpropos ait
ang Ã©e
Ġinstitu ant
Ġautor oute
Ġhum iliation
Ġsub sides
Ġconsom me
Ġpublic itÃ©s
Ġpublic itaires
Ġreconn ait
ov ie
Ġform Ã©e
Ġlim itr
Ġw o
Ġsuff irait
Ġvoy agent
Ġsoulign Ã©e
Ġple ure
ĠpÃ© dagog
ĠarrÃª tons
Ġatta chÃ©e
Ġbar onne
Ġbar rage
Ġinv olont
Ġcirc ulent
Ġlis ant
Ġrencont rÃ©e
Ġdialog uer
Ġappar tenir
dap est
Ġprogres sent
Ġexac tes
do te
Ġnour ris
Ġmora ux
Ġtemp Ãªtes
Ġcircons criptions
ĠadÃ©qu ation
ĠÃ©mer gent
Ġrempla cÃ©e
ĠopÃ©ra teur
Ġsyn ch
ĠÃ©l og
Ġpou ce
Ġpou lets
Ġconven tionnelle
Ġcoura mment
Ġrac iste
ĠdÃ©char ges
Ġbu dapest
Ġaccus ent
Ġformul Ã©s
Ġap ic
Ġmaxim al
Ġrob uste
ĠamÃ©lior Ã©s
Ġurb ains
Ġsent ais
Ġaffi chÃ©
Ġquar ts
Ġsurvi vants
Ġfar ce
Ġdiz aine
Ġaver tir
Ġtox ique
Ġadress Ã©s
ĠunilatÃ©ra les
ĠrÃ©mun Ã©rations
Ġjoin t
Ġexpl osÃ©
Ġoctroy Ã©es
Ġinterv ienne
ĠimpÃ©ri aliste
ĠdÃ©liv rer
ĠrÃ©par tis
zi o
Ġanalog ue
Ġarra che
ĠprÃ©mat urÃ©e
Ġpira terie
Ġath lÃ¨
Ġtransmet trai
Ġassoup lir
Ġretir Ã©s
Ġcontempora ine
Ġappauv r
tend ent
Ġcris tal
Ġstop per
ĠpÃ©d opor
Ġcircu its
illar d
ĠrÃ©uti lisation
ĠincompÃ© tence
Ġboli vie
ĠdÃ©sappr ouv
Ġoeuv rer
Ġkowe Ã¯
Ġnicara gua
Ġbic ycle
Ġpru demment
Ġvars ovie
Ġmalnutri tion
Ġlimitr oph
9 6
e ction
h er
n p
n oy
s k
w Ã©
y le
Ġd al
Ġc pi
Ġa une
Ġn ass
Ġla cs
ta ines
Ġb oit
ĠdÃ© ris
ĠdÃ© go
ire z
ĠrÃ© Ã©valuation
Ġdu p
Ġfa o
Ġg on
Ġcon gÃ©s
ar di
Ġi de
Ġo lig
Ġmon net
ĠÃ©ta ge
ĠÃ©ta tique
ers on
Ġtra cer
Ġtra Ã®ner
Ġan orm
Ġent rai
Ã©r os
Ġvo tent
ĠÃ©c li
Ġaut h
Ġpu zz
ine z
at han
Ġmar k
Ġdiff use
Ġmarch ait
lu c
fs tadt
Ġcour ts
Ġcour tes
Ġrec ense
Ġcar diff
ĠgÃ©n Ã©riques
Ġk ab
Ġba p
ĠdÃ©f ensive
Ġenf u
Ġabord able
Ġdur ent
Ġvers Ã©es
Ġprote ctions
Ġ20 30
Ġfonction nait
Ġabs trait
Ġver rou
Ġver ho
Ġuni fiÃ©
Ġvoi le
Ġform alitÃ©s
Ġrou ler
Ġ5 3
Ġrem Ã¨des
ĠvÃ©r itÃ©s
Ġinvestisse ur
ĠcontrÃ´le urs
Ġref er
ĠÃ©p ic
Ġdispos ait
Ġcondu its
Ġth at
ĠrÃ©glement Ã©
Ġexplo itent
Ġreven ue
Ġ8 2
ĠÃ¢ gÃ©e
Ġsin o
ĠentraÃ® nement
Ġmus c
Ġmus cles
ĠdÃ©ce v
Ġcontinue z
Ġtemp ore
Ġtran che
Ġfl ori
Ġcop ine
ĠprÃ©para tions
Ġperdu rer
ĠdÃ©termin ent
Ġdistin cte
ĠrÃ©fugi Ã©
ĠillÃ©g iti
Ġtex as
Ġtravaille z
Ġfas cisme
Ġap titudes
ĠdÃ©tru isent
Ġsinc Ã©ritÃ©
Ġcompens atoires
ĠfÃ©dÃ©ra lisme
Ġcomprend ront
Ġsatisfais ants
Ġreprodu isent
Ġattra pÃ©
ĠcrÃ©a ture
ĠcrÃ©a tif
Ġliqui des
Ġressor ti
Ġenregistr Ã©es
Ġinvent aire
Ġabat tre
Ġalar mant
ĠdÃ©fav orable
Ġexister a
Ġexpl oser
Ġcraign ons
Ġunes co
Ġaci des
Ġinterf Ã©rer
Ġambigu Ã«
Ġimparti ale
amÃ©ric aines
ĠfÃ©min in
Ġcho quant
Ġray onnement
ĠsÃ©n ateur
Ġemmen Ã©
Ġinvo quer
ĠÃ©quip Ã©s
ĠÃ©quip age
ĠdiffÃ©renci ation
Ġpira tes
Ġmed ina
Ġretir Ã©e
ĠreprÃ©senta tive
Ġdil ig
ĠdÃ©pourv u
ĠpÃªcher ies
Ġfau tes
Ġkir ghi
Ġsubstitu er
fel d
Ġrand zio
ĠrÃ©Ã©quili brage
Ġaccess oires
Ġempres sement
Ġsuspi cion
Ġendos ser
communau taires
Ġinfecti euses
Ġvier ge
Ġgara ge
Ġott om
Ġhond ur
ĠdÃ©fe ctu
Ġhorlo ge
ĠcÃ©li ba
Ġcyn isme
Ġverho fstadt
a sie
c Ã©ra
e c
f ondÃ©
g or
m ers
t ta
Ġc aisse
Ġc reuse
Ġs onner
ti qu
Ġn ouer
it t
Ġla g
ra teur
Ġle vez
Ġdes se
Ġr anger
Ġau g
Ġj oins
Ġpar cs
Ġma li
ne aux
Ġfa ctures
Ġfa iblement
Ġsur venir
Ġch al
Ġse gment
Ġse cundo
Ġav ois
Ġh ale
di mension
Ġtr Ãª
pe dia
Ġca chÃ©s
Ġdev iner
Ġte mple
Ġsa b
Ġrapp ortÃ©
Ġno bles
Ġcomp licitÃ©
Ġas si
ma il
ma bles
Ġco x
Ġinter viens
Ġper cÃ©e
Ġins ti
Ġins istant
Ġvi b
ĠdÃ©c Ã©dÃ©
Ġmar quÃ©es
Ġcommun ique
ni k
lu ie
Ġass ad
Ġuti lement
Ġcour bes
dÃ© veloppe
Ġpla teau
Ġpe v
Ġconf us
Ġsouti endrai
Ġcor ne
Ġsouh ai
Ġinstitu er
ĠrÃ©du ira
Ġservi rait
Ġatt ribue
Ġsupp orte
ĠprÃ©c aritÃ©
Ġsimp liste
Ġrecher chent
Ġtransp ortÃ©s
ĠcontrÃ´le ur
Ġpi eux
Ġquoi qu
Ġsy mÃ©trie
Ġexc itant
Ġmodi fiant
Ġforme lles
Ġpass ation
Ġconcurr encer
Ġchi ite
Ġatta quent
lan tations
Ġbar il
ob s
Ġobser vÃ©es
Ġpasse re
ĠÃ©tudi ent
Ġ9 3
Ġconcent rons
ĠÃ©cou lÃ©s
ĠempÃª chant
Ġache vÃ©e
Ġemb oute
Ġsch iz
Ġconser vÃ©
ĠpÃ©n aliser
Ġreje tÃ©es
Ġparven ues
Ġmus cle
ĠdÃ©ce voir
Ġexclu es
Ġtradu its
Ġconfir mÃ©e
ĠÃ©mer gÃ©
Ġrenouve lÃ©
Ġvision naire
ĠrÃ©gu lateur
Ġx i
Ġpou les
Ġfrapp ent
Ġsimpli fiÃ©
Ġbo eu
ĠrÃ©ag it
Ġencourage ments
Ġtax er
Ġpay e
ĠdÃ©tru ites
Ġdispar itÃ©
ĠaÃ©r one
Ġaccompagn ent
Ġapprouver a
Ġmic roc
Ġillus oire
Ġaggra vÃ©e
Ġblo quÃ©e
Ġge or
ĠcrÃ©a tives
Ġbloc us
Ġaccueil lons
Ġenthousias tes
Ġpom pe
ĠtÃ©moign Ã©
Ġpassion nant
Ġaffaib lit
Ġdiscrimin atoires
Ġbless ure
Ġchaleure ux
Ġmc car
ĠcÃ©lÃ¨ bres
Ġabsten ue
Ġaccum ulent
Ġcre ve
Ġrestri ctive
Ġrecon du
Ġdirig Ã©es
Ġzimbab wÃ©
ĠgÃ©nÃ©ralis Ã©es
ĠÃ©labor Ã©es
Ġgrosse tÃªte
Ġabsent e
Ġartifici el
Ġinti mement
Ġner ve
Ã¤ n
Ġras m
ĠgÃª ne
ĠÃ©met tent
Ġlob bies
Ġmous tiqu
Ġexhaus tif
Ġconcurrenti elle
Ġtransnation aux
Ġrecouv re
Ġnuis ances
Ġplai dÃ©
Ġescomp tÃ©
Ġescomp tÃ©s
ĠdÃ©pourv ue
Ġalex ander
ĠultÃ© rieur
Ġmexic ains
Ġinappropri Ã©
Ġkey nÃ©si
Ġregroup er
Ġacquit ter
Ġcodi fication
Ġpuni tion
ĠÃ©mette urs
Ġconna Ã®tra
Ã©lect rique
Ġincontourn able
Ġturbul ences
ersonne l
ĠappÃ© tit
Ġbun des
Ġeuroscep tiques
Ġcrick et
Ġnauf rage
ĠaÃ©ronau tique
Ġparap luie
Ġane c
Ġanxi Ã©tÃ©
Ġtransn istrie
Ġsouhai tions
Ġschiz oph
2 2
e mp
h ler
k land
l antes
r us
y m
Ġ urs
Ġd ji
Ġc ue
Ġc lique
qu ante
er ies
Ġe qu
Ġe Ã»t
Ġpa ternitÃ©
il y
Ġf lÃ©ch
ous se
Ġce d
op oulou
Ġin tes
ĠdÃ© tra
ĠrÃ© Ã©c
Ġje tons
Ġpro th
pp i
se z
ĠprÃ© cur
Ġi ce
Ġi anoukovitch
Ġex or
ort ons
Ġsu isses
oi gnement
Ġme di
Ġmo za
Ġcommis e
Ġca ge
Ġent r
Ġsa pe
Ġsou lÃ¨vement
Ġres pira
Ġprop age
Ġon de
Ġentre z
Ġco tisations
oc ation
Ġvi go
ĠrÃ©s ur
Ġab ro
tin a
Ġtravail listes
Ġcro wley
ĠdÃ©b iteurs
Ġsom brer
ĠdÃ©m ographie
tra ge
Ġti rÃ©s
ĠprÃ©sent ons
Ġuti l
Ġbe t
Ġcla ude
oin t
par lement
Ġobje ctivement
Ġk enne
Ġk han
Ġvis uelle
Ġba tte
Ġna tale
Ġdemand Ã©s
anti ni
Ġabord ent
Ġarri va
Ġcontra cter
Ġquelque fois
Ġconsom ment
Ġvers Ã©s
Ġsouv enons
Ġpublic ations
Ġoff erts
Ġhist oriens
Ġpara issait
ĠspÃ©ci aliste
Ġrou le
Ġw in
Ġconstru isent
Ġrep la
Ġexpri mons
Ġarti cul
Ġlan noy
ĠpÃ©ri odique
Ġfran che
Ġhab illement
Ġmer de
Ġconsta tÃ©es
Ġ7 2
Ġloc alisation
Ġus er
ĠÃ©valu Ã©s
Ġven geance
Ġdiscu tÃ©e
Ġjourn Ã©es
Ġtransf Ã©rÃ©
Ġfu meurs
ĠmÃ©c onn
Ġobs tin
Ġport rait
Ġenvoy ons
Ġvit alitÃ©
ĠrÃ©flÃ©ch is
Ġadres sent
Ġpous siÃ¨re
Ġfab ule
ck x
Ġimpliqu ait
Ġdeven ait
ĠÃ©l oignement
ss oure
Ġtotal itaires
Ġtotal itarisme
ĠdÃ©pla cÃ©
Ġach op
Ġos er
Ġnew ton
ĠdÃ©rou lÃ©es
Ġlois irs
Ġpollu antes
Ġrecons titu
Ġdra con
Ġvir gin
Ġconver ti
Ġhy bri
Ġcorrespond antes
Ġemprun tÃ©
Ġtransfor ment
ĠdÃ©pas sement
Ġuniverse lles
Ġconjoin tes
Ġcub ains
uss en
Ġsco tt
Ġtre mp
ĠtÃ©moign age
Ġprati quÃ©e
ĠmÃ©m oires
Ġcib lÃ©
Ġengend rent
Ġanc rage
Ġsauveg ard
Ġinvesti t
Ġtari fication
Ġcos tume
Ġmorte ls
Ġq ai
Ġrigou reusement
Ġinjusti fiÃ©es
Ġdommage able
if t
Ġmanquer a
Ġsw ift
Ġhosti les
Ġcommet tent
Ġpertur ber
Ġtranspos Ã©
Ġdor mi
ĠÃ©te int
Ġjun gle
Ġcanc Ã©ri
Ġexag Ã©rÃ©
Ġvirtu elle
ĠÃ©clairc ir
Ġhal l
Ġajout ons
Ġrisquer ait
Ġgrad uelle
ĠsÃ©cher esses
Ġbouc lier
Ġresser rement
ĠultÃ© rieures
Ġlama ssoure
Ġpard onne
ĠpÃ©d oph
ĠrÃ©introdu ire
Ġsecr Ã¨tes
ĠprÃ©li minaires
Ġsaoudi ens
Ġtig res
ĠattÃ©nu ation
ĠÃ©nonc Ã©s
Ġtyran nie
Ġomni prÃ©s
ĠmÃ©tÃ© or
Ġangois se
Ġturk mÃ©n
Ġsid Ã©r
Ġanth rop
Ġtechni ciens
Ġwilli am
ĠjÃ©s us
Ġgroen land
Ġsynch ron
Ġpuzz le
ĠtrÃª ve
Ġrasm ussen
Ġlannoy e
ĠturkmÃ©n istan
] .
a tement
b Ã©e
g ations
k ar
l itÃ©s
Å Ł
Ġd j
Ġl ents
Ġp m
Ġp ent
Ġc ui
Ġc oiff
ou f
ou n
Ġs que
Ġn oires
Ġet hi
or isation
Ġr oss
Ġpar o
Ġin opp
Ġb bc
Ġpour voir
ĠdÃ© pe
Ġma lÃ©
ĠrÃ© tention
Ġfa une
Ġg orge
Ġg ouff
Ġre in
Ġne lson
res se
Ġeur oc
Ġch asser
Ġh Ã©ri
Ġh Ã©li
Ġcons eille
pe aux
ais sent
Ġtra jet
Ġan ton
Ġent rons
mb er
mb ule
Ġcomp tÃ©
Ġentre tiennent
ma tive
Ġfin aliser
oc al
Ġvi fs
ĠrÃ©s istÃ©
ĠrÃ©g lÃ©s
ĠdÃ©b it
Ġti m
Ġass umÃ©
Ġcour ri
Ġcr Ã¢
Ġpla ques
Ġpla cÃ©es
Ġpla int
ora bles
Ġhom ophobie
Ġconf ection
Ġdisp ute
Ġconstitu tionnels
Ġva se
Ġagit ation
Ġmada gas
Ġplan e
Ġcri er
Ġbi don
Ġprom ise
Ġrecher chons
Ġcrois Ã©s
oura ge
Ġw oo
Ġsuff ire
mo d
Ġviol on
Ġri val
Ġtota les
ĠrÃ©c it
ĠcÃ´ tiÃ¨re
Ġpor tail
Ġfra cture
Ġencoura gÃ©es
Ġconcur rent
Ġconfi guration
Ġatta chons
Ġinsta bles
Ġsau te
Ġ6 8
Ġloc alement
Ġexplo itÃ©s
ĠlibÃ©ra lisÃ©
Ġcoord in
ĠreÃ§ us
Ġpol it
Ġbal les
Ġgaz prom
Ġconcent rant
Ġang les
ĠÃ©cou tent
ad aire
Ġhabit ations
Ġhabit uels
Ġhui tiÃ¨me
ĠmÃ©r itÃ©
ĠprÃ©senter ons
ĠthÃ© matiques
Ġtradu ctions
Ġoccup ant
Ġeng ins
ĠdÃ©termin ants
Ġappu yons
Ġbo wis
Ġmor illon
Ġ198 2
ĠcomprÃ©hen sibles
ork ov
Ġrepos ait
Ġemprun teurs
Ġsh ir
Ġaccr us
ĠsÃ©v it
Ġenta me
Ġsaur ais
Ġattribu tions
Ġcriti quÃ©e
Ġgui dÃ©
Ġignor Ã©e
Ġve cteur
Ġfar ine
ĠÃ©pr ouver
dite ur
Ġressenti ment
ĠexpÃ©riment er
Ġcompar Ã©e
Ġinjusti ces
Ġinforme lles
Ġmusulman es
Ġsurven ue
Ġinnoc entes
Ġcommand ant
Ġambass ades
Ġmigra toire
Ġartifici ellement
Ġchauff eur
Ġchauff eurs
ĠimprÃ© visible
Ġimparti alitÃ©
ĠfÃ©min ines
Ġirrespons ables
Ġrespectu euses
ĠxÃ©n ophobes
Ġmargin alisation
Ġsache z
Ġenglo ber
ĠÃ©pous er
ĠrÃ©Ã© lection
Ġdiffus Ã©
Ġgardi en
Ġdil u
ĠÃ©merge ants
Ġleh man
Ġallon ger
Ġviole mment
ĠdÃ©tourn Ã©
ĠÃ©lo qu
Ġec onom
Ġampli fier
Ġsuccessi ves
Ġpromen ade
Ġbrou illard
Ġfes tiv
Ġwiki pedia
Ġkg b
Ġhow itt
ĠÃ©lÃ©ph ants
Ġrigi des
Ġmonu ment
Ġvoc abu
Ġpror og
Ġdaph nÃ©
Ġmalhonn Ãªte
Ġimpr ud
ĠÃ©r yth
Ġchampign ons
Ġcend res
ĠperpÃ©tr Ã©es
ĠspÃ©cul ations
Ġmammif Ã¨res
Ġtob in
Ġroc ard
ĠvÃ©nÃ©zu Ã©li
Ġautos uff
ĠcommerÃ§ ants
Ġrestru cturer
Ġinopp ortun
Ġmadagas car
1 99
f al
h eure
p osition
s ol
v ens
Ġc aisses
Ġm ord
Ġn Åĵ
Ġla be
Ġt oma
Ġt endue
or Ã©es
om bre
Ġf Åĵ
Ġv esti
Ġv audrait
Ġen ron
Ġcom Ã©
ant hr
Ġin esti
ĠdÃ© rais
Ġma ls
ci des
ĠrÃ© veille
Ġfa uss
Ġje ff
Ġi on
Ġch as
Ġse ize
Ġh Ã©rÃ©
Ġca du
Ġapp la
Ġent ourage
Ġli tige
Ġaut op
Ġser v
Ġam oin
cu lement
Ġar ist
Ġentre tiens
Ġfin aux
Ġpers istant
Ġfon te
ĠdÃ©p or
Ġman quait
tis h
Ġprodu ctives
Ġcontre b
Ġrec a
Ġcar ol
par ce
Ġpla ts
cher ie
Ġcol ons
Ġdom ine
ĠgÃ©n it
rit es
Ġconstitu aient
Ġtu y
Ġva peur
Ġk id
Ġba y
Ġgar ri
Ġdemand aient
ĠdÃ©f aire
th y
Ġdou cement
Ġinf il
Ġir ons
Ġpres cription
Ġjou ait
Ġsupp lÃ©
Ġz aÃ¯
ĠnÃ©goci e
ĠrÃ©alis ables
Ġbase ball
Ġw il
mo re
Ġdonner ont
Ġsais ies
Ġlan Ã§ons
Ġface ttes
Ġ6 3
Ġobser vent
Ġsc ann
Ġlaiss Ã©es
ĠÃ©du quer
Ġpren aient
ub er
Ġ7 3
Ġrend it
Ġdialog ues
Ġ8 6
Ġdiscu tions
ĠÃ©lect ro
Ġhabit ent
Ġhabit ats
Ġmari Ã©s
Ġache teurs
Ġom d
Ġveil lant
Ġexpor tateur
Ġengage ons
Ġprend rai
Ġaffe ction
ĠvÃ© cue
Ġbil ans
ĠprÃ©ser vant
Ġtran cher
Ġambi ance
Ġfig urait
Ġfal loir
Ġfacil itation
Ġsuppri mant
Ġpou dre
Ġos c
Ġos Ã©
Ġsup Ã©rioritÃ©
ĠmatÃ©ri elle
ĠrÃ©vÃ© lÃ©s
od orkov
Ġcens Ã©es
Ġdicta tori
Ġmarchand ise
Ġhabitu Ã©
Ġaccompagn Ã©s
ĠprÃ©a mbule
Ġabus er
Ġillus trÃ©
Ġurb anisation
ĠcrÃ©a tifs
ĠmÃ©n dez
Ġment al
Ġobligatoire ment
Ġpatri ar
Ġexter n
ĠperÃ§ oit
Ġoptim al
ĠunilatÃ©ra l
Ġabat tus
Ġmine ur
ĠtchÃ©tch Ã¨nes
ĠfrÃ©qu ents
ĠfrÃ©qu ente
Ġ196 8
Ġcab otage
Ġfati guÃ©e
ĠcÃ©lÃ©b rons
Ġhosti litÃ©s
Ġproje ctions
ĠrÃ©affir me
Ġste ve
Ġste vens
Ġpun is
Ġoctroy Ã©
Ġkh odorkov
Ġbulle tin
ĠrelÃ¢ cher
ĠrÃ©tic ences
Ġboule versements
Ġinconn ue
Ġstupi des
Ġtransnation ale
Ġenfre indre
Ġrecord s
Ġaccueilli e
Ġinje ction
ĠdÃ©stabil isation
Ġbiotechn ologies
ĠsÃ©qu ences
ĠindÃ©ni ablement
ĠrÃ©form Ã©
Ġriv aliser
ĠintÃ¨g rent
Ġkal las
Ġappauv ri
ĠtibÃ© tain
Ġinhabit uelle
wit z
ĠlÃ¨ vres
ĠsoupÃ§ onne
Ġcit y
ĠÃ©cra ser
Ġster ckx
Ġscrupule usement
Ġpoursuiv rons
Ġmilitar isation
Ġpessi misme
Ġdysfonction nements
Ġimpar fait
Ġrompu y
Ġcamara des
ĠrÃ©tr ospe
ionn age
entre pr
ĠrÃ©nov ation
Ġcontrecar rer
ĠdÃ©vasta trices
ĠesthÃ© tique
ĠautorÃ©g ulation
Ġcontag ion
Ġinsouten able
isen berg
Ġquan tique
Ġexisten ti
Ġbroth ers
Ġchagr in
Ġradiodiff usion
Ġremb ours
ĠhÃ©misph Ã¨re
Ġencadre ment
Ġauth enti
dÃ©veloppe ment
Ġwoo ds
ĠnÅĵ ud
1 2
d og
i o
k k
o ter
r ure
s un
u guay
v os
w w
Ã £
Ġl ud
Ġc ic
Ġa par
ra le
or tu
Ġf ox
Ġpar les
ta te
Ġb j
Ġb Ã©n
Ġma gh
Ġma fia
ire ment
Ġsur cap
ĠprÃ© lÃ¨ve
Ġch en
Ġac tiver
Ġpo itr
Ġra mas
Ġcons u
pe ment
Ġan archie
Ġent Ã©r
Ġvo le
fi le
Ġso ja
Ġgr oup
onn able
Ġou Ã¯
Ġcomp lique
Ã©ra is
Ã©ra teurs
Ġas tÃ©
vi es
Ġinter parlement
Ġmar quÃ©s
Ġexp lor
ĠdÃ©p ose
Ġfor ti
og o
tis Ã©es
Ġni ch
ĠsÃ© minaire
Ġprodu isant
Ġesp ionnage
Ġfinan cent
Ġcol onne
Ġamen Ã©e
iti fs
Ġsta lin
Ġba h
Ġcontin gents
Ġarri v
Ġfi as
Ġfonction nant
ĠdÃ©cla rait
Ġheure uses
ĠprÃ©c aires
Ġver rait
ĠreprÃ©sent Ã©es
Ġri pos
Ġhau g
Ġeuro bar
Ġcontribu teurs
ĠÃ©p ais
Ġur uguay
Ġcentra lisation
Ġrev ienne
Ġessay a
Ġsoli daires
Ġinsta lle
Ġinsta ure
Ġdispos era
Ġsus pect
Ġsau t
Ġtent Ã©s
ĠconsidÃ©ra ient
Ġpoursui vant
Ġsubs ister
Ġdiscu tÃ©s
Ġdiscu table
Ġsal on
Ġsol bes
Ġcou l
Ġidenti fie
Ġidenti fiÃ©es
Ġconfront er
Ġpartage ant
Ġdel ta
Ġveil lÃ©
Ġinten able
Ġconvainc ant
Ġexclu ant
Ġconsac rent
ĠprÃ©s omp
Ġtradu ira
ĠlÃ©giti mer
ĠidÃ© alement
Ġentend ait
Ġcondition nÃ©
Ġconnaiss ais
Ġprot otype
ĠdÃ©termin Ã©es
Ġneu fs
Ġfonctionne l
ĠdÃ©n ouement
Ġpan europÃ©en
Ġpes d
Ġperd ront
ĠprÃ©t endue
Ġval ue
tici en
Ġdiminu ent
Ġformul ations
Ġconsoli dÃ©
Ġcra yon
Ġhandicap s
Ġtourn Ã©s
ĠdÃ©fa illance
Ġblo kland
Ġinterven ue
Ġ197 4
Ġlou ables
Ġlou anges
ĠaÃ©rop ortu
Ġcolon isation
Ġfar c
esti mÃ©
Ġassassin Ã©s
Ġaccum ulÃ©
Ġmanip ulations
ĠdÃ©ten u
Ġadh Ã¨rent
ano Ã¯
Ġinva ri
Ġsacri fice
Ġcontrovers es
Ġcontrovers Ã©es
Ġenvisag Ã©s
ĠpÃª ches
Ġirrespons abilitÃ©
ĠimpÃ©ri alistes
Ġauda cieux
Ġdissu ader
Ġcatal ogue
Ġmous tiques
Ġwi j
Ġobti endra
ĠdÃ©pass Ã©e
Ġadoles cent
Ġquantita tif
Ġminor itaire
Ġdia p
Ġjar gon
Ġvaisse aux
Ġbarb are
ĠÃ©mi gration
ĠrÃ©pri mer
Ġrecour ant
the id
Ġsangu ins
Ġchirurg ic
ĠmÃ©ridi on
Ġinsol vabilitÃ©
Ġate liers
Ġinterrog ations
Ġboyco tt
Ġsuperv iser
Ġattray ante
milli on
Ġascense ur
Ġnetanya hu
Ġsurpren ante
Ġalgorith mes
ĠÃ©miss aire
Ġescro quer
Ġprover be
Ġdoctora t
Ġpaper asser
Ġlimitroph es
Ġthat cher
Ġkirghi z
Ġhondur as
ĠdÃ©tra cteurs
Ġice berg
Ġautosuff is
Ġlabe ur
Ġreca pit
a a
b elle
c onc
e y
h all
p lo
Ã ²
Ġd Ã®
Ġp ut
re la
Ġm t
it en
Ġpa rait
or ons
om age
Ġf irent
Ġv endues
si Ã¨res
Ġpar s
Ġin j
Ġin te
ri ght
ĠrÃ© cur
ĠrÃ© bel
Ġdu isenberg
Ġcon gestion
au lt
Ġi b
end i
Ġcons istent
ĠÃ©ta g
Ġca chent
Ġan tar
Ġan atom
Ġan tagon
Ġsa ve
Ġsa tur
Ġgr Ã¨ves
Ġy o
Ġres titution
Ġaut ocra
Ġser in
Ġparti tion
Ġar d
ma teur
Ġfin ales
Ġinter pe
Ġad ju
Ġvou Ã©e
Ġpos tal
Ġconseil la
fin ancement
Ġni d
Ġpri ve
Ġass aut
Ã® mes
Ġcar g
Ġcr uelle
Ã©g al
Ġpla ignent
Ġfr omage
lo ts
Ġpe urs
Ġpe int
Ġcol lins
Ġdisp a
Ġdisp ens
Ġutilis ations
Ġlib Ã¨re
Ġmont rons
Ġsav iez
mis ation
Ġba gages
Ġpropos era
Ġind iss
Ġcontin gent
Ġautor isent
Ġir rit
Ġarri vant
Ġsub je
Ġopp res
Ġsouv ient
Ġoff rons
Ġenc re
Ġgra in
Ġconstru isons
Ġviol Ã©s
Ġri ve
ag en
ag one
Ġfra ss
ĠÃ©trang lement
Ġessay ait
Ġadmin istre
Ġer dog
Ġ6 6
Ġconte xtes
Ġ7 4
Ġ7 6
Ġsubs aharienne
Ġrend ait
Ġassoci ant
Ġanal y
Ġconcep tu
Ġinflu ent
Ġom et
Ġpromouv ant
Ġveiller ons
Ġalli ez
ĠsÃ©ri es
Ġcaract Ã¨res
Ġprovo quÃ©es
Ġdistin ct
ĠdÃ©pla cÃ©s
Ġbat teries
Ġral lie
Ġchamp ion
Ġpes sim
Ġcompren ait
Ġservir ont
ĠvÃ©ri fiÃ©
Ġlimiter ai
Ġmutu els
Ġbu iten
Ġvari ole
Ġhor reurs
ĠrÃ©di gÃ©s
Ġtourn ure
Ġargument ation
Ġmodern itÃ©
Ġinterven ant
Ġbos ni
Ġsent ons
ĠmÃ©n ager
Ġexiger a
osph Ã¨re
Ġmou che
Ġenregistr Ã©e
Ġslova ques
Ġaver ti
Ġax Ã©es
Ġamp oule
ĠperÃ§ ues
ĠprÃ©ven tif
Ġsac rÃ©e
Ġsac coni
Ġsouha itÃ©e
Ġassure ra
ĠdÃ©v ouement
Ġentrepren eur
Ġmorte lle
ĠrÃ©in tÃ©
Ġenri chi
Ġaz nar
ĠgÃ©nÃ©ralis Ã©
Ġrub riques
Ġerron Ã©es
Ġgenti lle
Ġempris onnÃ©
Ġtrompe uses
Ġvola ille
ĠimprÃ© visibles
Ġbac tÃ©rie
ĠprÃ©cip iter
ĠprÃ©cip itation
dom adaire
Ġincar ne
ĠrÃ©pÃ©tÃ© es
Ġeffond rÃ©
jac ents
Ġmarquer a
Ġheur te
Ġdres se
Ġdiox ine
ĠsÃ©n Ã©gal
Ġflor enz
ĠthÃ©rap eutique
Ġcompli ment
Ġcompli ces
Ġhorizont al
produ ctif
ĠantÃ© rieurs
Ġclo che
Ġnoci ves
Ġslog ans
Ġnie lson
ĠprÃ©le ver
ĠrÃ©organis er
Ġprince ton
Ġmaig res
ĠprÃ©su me
Ġpourv u
Ġmusic ale
Ġcurie usement
ĠhÃ©roÃ¯ ne
Ġcorpore ls
ĠtÃ©n acitÃ©
ĠÃ©ni Ã¨me
ĠconfÃ©d Ã©ration
ĠtÃ©les cope
Ġpv c
ĠincomplÃ¨ te
Ġmcc ain
ĠmÃ©da ille
Ġdentis te
ĠÃ©pu isement
Ġcess ation
Ġheb domadaire
ĠbÅĵ uf
Ġpir ker
Ġdanie l
ĠpÃ©dopor nographie
ĠkoweÃ¯ t
Ġnass auer
Ġurs s
Ġbet tera
Ġqai da
Ġethi opie
Ġgouff re
Ġappla udi
Ġnich ol
Ġantar ctique
Ġadju di
Ġfrass oni
Ġerdog an
Ġpessim iste
b ier
e e
p res
v Ã©r
y la
Ä ĩ
Ġ uri
Ġl ueur
Ġp ique
Ġa ga
Ġa gn
Ġa Ã§
ou i
ou les
an ol
Ġla os
Ġle e
Ġen s
Ġen velop
ĠÃ© ruption
ĠÃ© ternelle
Ã¨ ler
Ã¨ nent
Ġj in
Ġb aisses
ĠdÃ© la
Ġma it
Ġma ra
Ġma cao
ĠrÃ© gner
Ġg Ã¨rent
Ġg raisse
Ġ- @
la c
la t
la ss
Ġh o
ort h
Ġan ten
Ġimp lo
du mping
Ġy ens
ga z
ga ret
che min
Ġno vatrices
Ġam al
Ġentre v
Ġal tru
Ġinter pel
Ġad orent
Ġvi endrait
Ġmar g
Ġprob abil
Ġcro Ã®t
Ġtrans action
tis Ã©s
Ġpri ons
Ġop t
ĠmÃ© ga
Ġass er
um Ã©s
ĠcrÃ© ations
Ġcour antes
Ġcar rÃ©s
Ġren once
ĠÃ©le vait
Ġrepr endra
Ġconf on
Ġconf ort
Ġlib ra
Ġmainten ues
Ġpermet tons
Ġba ie
Ġna mi
ĠdÃ©f endant
Ġmondi alisÃ©e
Ġcoop Ã¨rent
Ġmi kha
ĠnÃ©g ation
Ġbr ille
Ġbr isÃ©
Ġta per
Ġcommen Ã§ait
Ġaf ro
Ġpara ph
ĠspÃ©ci alisÃ©e
Ġconstru ites
Ġsuff iront
ĠcoÃ» terait
Ġlan cker
Ġtrouv Ã©es
ĠÃ©t onnement
Ġqua d
Ġappel lation
bli ques
Ġcir que
Ġintrodu isent
Ġentra inÃ©
Ġattend ions
Ġbar be
Ġcondu isant
ĠprÃª teur
Ġlaiss era
Ġconsci emment
Ġ7 7
Ġglob alisÃ©
ĠprÃ©cis ant
ĠrÃ©ser vÃ©s
Ġbou cle
Ġdess ine
Ġcommencer a
Ġend orm
Ġemb ra
Ġsch ro
Ġmilitaire ment
Ġhon ore
do va
Ġquali fie
ĠvÃ© hÃ©
Ġexer Ã§ant
Ġemploy Ã©e
Ġorgan iques
Ġmatin s
oth Ã©rap
Ġminu it
Ġcop ies
Ġpou belle
ĠÃ©quilib res
Ġprovo quÃ©s
Ġmor gan
tÃ©g rer
Ġving taine
ĠvÃ©ri fications
Ġstim ule
Ġdistribu Ã©s
Ġ17 0
Ġ17 5
Ġ16 0
Ġbri an
Ġcorrespond ants
Ġemprun te
Ġcourage uses
mar k
Ġcalend riers
Ġsang lante
Ã©re rait
Ġattribu Ã©e
Ġspecta teurs
aÃ¯ que
Ġphil anthr
Ġsubstanti ellement
Ġmerveille uses
ĠpÃ©r enn
ĠdÃ©bou che
Ġcroy aient
Ġcombin Ã©s
ĠrÃ©pu bliques
Ġgratu its
Ġabat t
ĠrÃ©mun Ã©rÃ©
Ġinterro gÃ©
Ġhol lande
Ġsorti ra
ĠdÃ©crit es
Ġindemn itÃ©
ita tives
ĠbrÃ» le
Ġmicro bes
Ġclandes tin
ĠboÃ® tes
ĠapprÃ©cier ais
Ġasp irons
ĠrevÃª tir
ĠÃ©va p
Ġcath oliques
Ġpersua sion
ĠdÃ©nom ination
Ġsoumet tra
ĠdÃ©pass ant
kes pe
Ġpira tage
Ġmunicip alitÃ©s
ĠrÃ©Ã© valuer
Ġdisproportion nÃ©
Ġimmin ent
Ġciga rette
Ġgrad uellement
ĠclÃ´ turer
Ġnourr issent
Ġpard onner
ĠÃ©thi op
ĠbÃ©nÃ©v olat
ĠanÃ© an
Ġinappropri Ã©e
Ġrepor tÃ©e
ĠdÃ©pendant es
ĠamÃ¨ nent
Ġanders son
ĠÃ©ve illÃ©
Ġtoxicom anie
Ġcircu it
Ġsonne tte
Ġsha kespe
ĠalÃ© atoire
ĠÃ©min ents
Ġgram mes
Ġimplicite ment
ĠdÃ©fici ences
Ġorphel ins
Ġbab y
Ġmicros cope
Ġregar da
Ġfried man
Ġcoutu mes
Ġimmatric ulation
ĠlinÃ© aire
Ġnitra tes
Ġgie c
Ġcontrep oids
ĠÃ©log es
Ġflori de
Ġhale ine
Ġmicroc rÃ©
Ġpent agone
Ġcui vre
Ġvocabu laire
Ġeurobar omÃ¨tre
Ġpaperasser ie
ĠaÃ§ ores
1 4
b ant
d ations
h uber
l oi
l issant
m fal
Ã Ł
Å Ĥ
Ġd ors
Ġs ki
an Ã©e
is mes
Ġe as
Ġm ue
Ġm Ã¼
Ġn aissent
Ġla mfal
ur Ã©ment
Ġpa yons
Ġle vÃ©es
il ie
Ġf ora
Ġv ents
ĠÃ© dit
Ġpar rain
ce au
Ġin visibles
ĠrÃ© it
Ġfa tal
Ġpas sifs
ch ions
pp es
Ġch ol
ter esse
Ġh Ã¤
Ġh illar
Ġra ter
Ġsu ites
ĠÃ©ta yer
ĠÃ©ta sun
Ġsi mps
Ġca va
Ġimp lantation
Ġces sons
Ã©r ances
Ġno ctur
Ġdis iez
Ġpu tin
va g
ise ments
Ġper es
Ġdo yle
Ġexp lic
Ġfon ci
Ġman quons
Ġfor teresse
Ġtravail laient
og Ã¨ne
Ã» te
Ġemp e
Ġcontre dire
um an
cip lin
Ġren ouer
tant es
Ġrepr enant
Ġconf u
Ġconf use
Ġmet tront
Ġinc itant
Ġcommunau tar
Ġdemand Ã©es
Ġcent rÃ©e
Ġense mbles
ĠâĢ Ķ
Ġautor isant
Ġindi gne
Ġabord era
Ġdisc r
Ġ3 000
Ġju gent
Ġbi jou
Ġta jani
Ġatte igne
Ġvol can
ĠmÃ©di ateurs
Ġconstru ctifs
Ġsuff i
Ġri vaux
ĠbÃ©nÃ© diction
Ġvoy aient
Ġorient Ã©
Ġima gerie
Ġpor tÃ©s
ĠrÃ©un ira
Ġpass ager
ĠpÃ© chÃ©
Ġappel Ã©es
fie ld
Ġentra ine
Ġmalheure use
ĠprÃª teurs
Ġremp lie
ĠtÃ©lÃ© v
ĠÃ©n oncer
Ġus d
Ġrend ront
Ġ8 8
Ġ8 9
Ġsal va
Ġjourn alisme
Ġpol lin
Ġmanque ment
Ġfu ient
Ġconcep teurs
ĠÃ©cou tant
Ġgros siÃ¨re
Ġom is
Ġcollab ore
Ġemb lÃ©
Ġconser vant
Ġpen chÃ©
Ġcondam nant
Ġ12 5
Ġvit ales
Ġeffectu ent
Ġair s
Ġnour ri
Ġtradu ite
ĠrÃ©flÃ©ch it
ĠrÃ©flÃ©ch ie
ĠadÃ©qu atement
Ġliv rent
Ġblan ches
ani ens
Ġstock er
Ġnorm alitÃ©
Ġgre ens
Ġparticiper ont
Ġcompos er
ĠillÃ©g alitÃ©
Ġpan ta
Ġmai j
ĠrÃ©volution naires
Ġvari Ã©tÃ©s
Ġvir ul
Ġfou lÃ©e
Ġcaus ent
Ġcorrespond ante
ĠsystÃ© miques
ĠbÃ© larus
Ġwe ggen
ĠfÃ©dÃ©ra liste
Ġconne ctÃ©s
ĠsÃ©v ille
Ġbois son
Ġsatisfais antes
Ġge b
ĠdÃ©cisi ves
Ġsalari ales
Ġchau ds
Ġment aux
Ġignor Ã©s
ĠÃ©mo tionnelle
Ġcorri gÃ©
200 6
ĠtÃ©moign ages
Ġjohn son
ĠdÃ©clen chement
gh es
ĠhÃ©s itÃ©
Ġinvesti ture
Ġnavi guer
ĠdÃ©battu es
Ġimpu issants
Ġq atar
Ġanticip Ã©e
Ġabouti ra
Ġgal erie
ĠrÃ©comp enser
Ġaustra le
Ġamend Ã©
Ġridi cul
Ġner fs
ĠÃ©tabl issent
Ġressent ons
Ġtalib an
ĠprivilÃ©gi Ã©s
ĠrÃ©pÃ©tÃ© e
ĠrÃ©ve il
ĠrÃ©ve illÃ©
Ġthe ato
ĠpersÃ©cu tions
Ġrecru ter
Ġprogress istes
ĠredÃ© mar
Ġannonc Ã©es
Ġtranqu illement
Ġtransmet tent
Ġremont ent
Ġconstant es
Ġparam il
Ġsectorie lle
Ġcerti fica
Ġgrad in
Ġassor ti
Ġmexic aine
Ġase m
Ġsuperf lue
Ġgigantes ques
ĠguÃ©r ison
Ġpark ing
Ġdouz aines
ĠprÃ©su pp
Ġleon ardo
Ġmuti lations
Ġsach ions
Ġhow ard
Ġrh in
Ġcora il
Ġpessi mistes
Ġanony mes
Ġscul p
Ġjoy eux
Ġvigou reuse
Ġschmi dt
Ġarr anger
Ġmaxi miser
Ġincoh Ã©rence
Ġimmis cer
Ġmanoeu vre
Ġapproxima tivement
ĠrÃ©invent er
ĠcinÃ©mat ographique
Ġquinquenn al
Ġinimagin able
Ġboeu f
ĠfÅĵ tus
Ġcontreb ande
Ã£ o
Ġapar theid
Ġpoitr ine
ĠastÃ© roÃ¯
Ġuri be
Ġamal ga
Ġchol Ã©ra
Ġhillar y
Ġsimps on
a o
a tique
b ad
f ort
g y
h m
k ins
m ante
p Ã©e
Ä ĥ
Ġd ts
es e
es th
re ra
an iques
Ġe ar
in age
Ġla i
Ġr an
Ġr ires
Ġj ud
ont rol
Ġest on
Ġpar viens
us t
Ġb las
Ġb log
li one
ĠdÃ© val
ri ca
ch ers
ch witz
ĠprÃ© diction
Ġme l
Ġca ric
Ġan esth
Ġai mais
and ais
Ġsa cs
fi antes
Ġgr ille
Ġli mp
ĠÃ©c our
Ġser vie
je vo
Ġno tations
mi um
Ġpu ce
Ġal lure
Ġco re
Ġco la
Ġinter reg
ab ri
ĠrÃ©s or
ĠdÃ©p ou
Ġab rit
Ġpos ait
vel t
ĠÃ©v itÃ©s
Ġti en
Ġti mi
Ġemp la
Ġcontre bal
ver b
Ġbe c
Ġrec rÃ©
Ġpla ges
Ġaur as
gie use
Ġmont ent
Ġk it
Ġsav ary
Ġcap turer
lar d
Ġpart ons
ĠdÃ©f er
Ġenf lam
Ġinstitu te
Ġautor itarisme
Ġmi ke
Ġsui ve
Ġdisc orde
Ġcontra ct
Ġjou g
Ġsupp ortent
ĠnÃ©goci Ã©s
Ġju gÃ©es
ĠrÃ©alis ons
Ġhist or
ĠÃ©ch af
Ġconv iennent
Ġenc lins
ĠrÃ¨glement ations
Ġgra ti
Ġpi pe
Ġvoy agÃ©
Ġref ait
Ġorient Ã©es
Ġsais onn
Ġlan cent
ĠÃ©p oux
Ġja chÃ¨re
Ġdoute use
Ġatta chent
Ġth ak
ĠprÃª tre
Ġloin taine
Ġaimer ait
Ġaimer iez
Ġdirige ante
Ġbre t
Ġven deur
Ġdiscu tÃ©es
Ġbou l
ĠreÃ§ oive
Ġrester ait
ĠÃ¢ ges
ĠinquiÃ© tants
Ġchois issez
ĠtÃ¢ cher
Ġmari a
ori al
ĠÃ©vo quent
ĠÃ©vo quons
Ġaccro cher
Ġcolle ctÃ©es
Ġsour i
ĠthÃ© or
Ġbus quin
Ġair bus
Ġenqu Ãª
20 10
Ġemploy Ã©es
Ġaccue iller
Ġcourt ois
Ġpron on
Ġadministra teurs
Ġrati fiÃ©e
Ġber d
Ġsensi bilitÃ©s
Ġestim Ã©s
Ġmars hall
Ġcompos ant
ĠdÃ©rou lera
Ġretard Ã©e
Ġ198 1
Ġpoi gne
Ġlit tora
Ġremarque z
Ġbu car
ĠhÃ´ tes
ĠrÃ©pond it
Ġpay ent
Ġcra va
Ġeffor cÃ©
Ġeffor cÃ©s
ĠintÃ©ri maires
Ġaus chwitz
ĠÃ©chou ent
Ġintensi fs
ĠsÃ©par ent
Ġblo quÃ©s
Ġmex ico
Ġlond on
Ġmotiv Ã©e
Ġenregistre ments
ĠdÃ©lic ats
ĠÃ©car te
Ġsurvi v
Ġinfluen cent
Ġengend rÃ©s
Ġbless Ã©es
Ġand al
Ġimpu table
ĠdÃ©ten ues
Ġentam Ã©es
Ġagres sif
Ġdure ra
Ġdirig Ã©s
Ġcontrovers Ã©s
Ġinnoc ent
Ġpouss Ã©s
Ġproje ter
Ġsurp Ãªche
Ġdiss olution
Ġprovis oires
Ġcho quÃ©
Ġauda cieuse
Ġmira cles
Ġadmet tons
Ġdin gue
Ġannonc ent
Ġanalog ues
ĠmanÅĵ uvres
Ġarra cher
Ġmusi ciens
Ġmagaz ines
ĠgÃ©opoli tiques
Ġretomb er
Ġtardi vement
Ġmultipli ent
Ġacquisi tions
Ġroman tique
ĠÃ©pargn ants
ĠprÃ©val ent
Ġentreten u
Ġimagin ons
Ġluxembourge ois
Ġannon Ã§ant
ĠdÃ©nu Ã©e
Ġinatt endu
ĠcoopÃ©ra tive
ĠÃ©goÃ¯s me
Ġaccou tu
Ġpersuad Ã©s
Ġsupermar chÃ©s
ĠdÃ©mÃ©n agÃ©
Ġmascul in
Ġvainque urs
Ġaca dÃ©mique
reprÃ©sent ant
Ġflamb Ã©e
Ġrigi ditÃ©
ij k
Ġanony mat
Ġsurchar ge
Ġsara jevo
Ġintermin able
Ġsure x
Ġkla us
tig lione
Ġantip ersonnel
Ġdiscer nement
Ġdivid endes
ĠÃ©lectrom agn
ĠÃ©cli p
Ġkab oul
Ġmoza mbique
Ġachop pement
Ġeuroc ontrol
ĠzaÃ¯ re
Ġstevens on
Ġsurcap acitÃ©
Ġcoul isses
Ġshakespe are
Ġgreens pan
Ġgeb hardt
Ġthak sin
Ġbucar est
1 8
8 0
a tiques
b ro
c Ã´
c ulture
j an
n al
t Ã¨rent
Ġ iter
es a
Ġl ange
Ġp Ã´les
Ġc Ã¨de
Ġa dep
Ġs pons
re Ã¯n
er o
ur ch
ur ies
Ġt np
il in
il Ã©e
Ġf ui
Ġr ond
Ġce ca
âĢ ¢
Ġpar laient
Ġin cur
Ġb and
Ġma ter
ne au
ri tique
Ġfa va
au tions
ro ces
Ġpo ison
Ġra ma
Ġra vages
Ġan onyme
Ġdi mit
Ġvo leur
onn a
Ġli u
Ġy u
Ġres piration
Ġno tori
Ġacc or
Ġar demment
ĠmÃª ler
Ġob tienne
Ġal inÃ©
vi ol
Ġco qu
Ġco ck
Ġinter rÃ©gion
Ġins in
Ġad viendra
Ġvi vez
Ġmar rant
Ġmar garet
Ġcommun Ã©ment
Ġnom me
Ġab ra
Ġab rog
Ġpos era
Ġfor mat
ose velt
Ġmil es
Ġmil an
Ġti mo
Ġpla ise
Ġprin ces
lo va
nes s
Ġk ing
Ġk ouch
fic at
Ġappr enez
ph al
Ġindi quÃ©e
Ġsui vez
Ġabord ables
Ġchange ant
Ġfi che
Ġbas culer
Ġuni fier
uri eux
ĠspÃ©ci fications
Ġgra v
Ġvol ent
ĠdÃ©cision nels
ĠÅĵ uf
Ġliber ia
Ġlan Ã§ant
ĠÃ©p ine
Ġhab il
ĠrÃ©un issant
na pp
oph one
Ġdoute uses
Ġsau ce
Ġcondu ites
Ġcondu irait
Ġvois ines
Ġinv oque
ĠÃ©du quÃ©s
Ġajou tÃ©s
Ġrenforcer ait
Ġ7 50
Ġloc omo
ĠÃ©tudi ante
ĠÃ©valu Ã©es
Ġouv rira
Ġtransf Ã©rÃ©s
Ġtransf Ã©rÃ©es
ĠÃ©cou ler
ĠdÃ©si gne
Ġbrit tan
ĠÃ©vo quant
ran gÃ©
Ġemb auche
Ġconser vatrice
Ġengage ant
Ġ12 9
Ġvit a
Ġretr ans
Ġdocument ation
Ġexclu sif
ĠexÃ©cu tive
Ġpie bal
ĠrÃ©flÃ©ch issons
Ġsim ulation
Ġapprouv ant
Ġconnaiss ant
Ġimpor tÃ©
ĠmontrÃ© al
Ġalterna tif
Ġfacil itent
Ġneu tres
Ġrent rent
Ġconsulta tifs
Ġbru y
Ġbat tant
Ġsouver aines
Ġro osevelt
Ġdeme urant
Ġcherche z
ĠrÃ©vÃ© lÃ©es
Ġbul l
Ġru di
Ġru ine
Ġsil ic
Ġmaxim ales
Ġbri tish
Ġlab els
Ġwe ber
Ġvert us
Ġfe me
Ġinjus tement
Ġfamili ers
Ġimm ora
Ġ197 6
Ġsent ait
Ġlou is
Ġtor tu
Ġdesc endu
Ġbio gaz
Ġcontes tÃ©
Ġcorri ge
Ġmagn Ã©tique
Ġgol d
Ġdoc teurs
ĠÃ©quival ents
Ġadress ant
Ġrestre inte
Ġvain cu
Ġarbit rage
Ġchem ises
Ġinfe ctÃ©es
Ġcolomb ien
Ġreviend rons
Ġindu it
Ġspor tive
omÃ© trie
ĠmÃ©l anger
Ġbor ner
Ġbulle tins
Ġconcentre rai
ĠdÃ©liv rÃ©
ĠdÃ©tes tent
Ġdoulou reuses
Ġproc lam
ĠthÃ©rap ies
ĠfaÃ§ ade
Ġcompli ce
Ġsyndic aux
ĠdÃ©boucher a
Ġnuis ible
Ġ195 6
Ġpath ogÃ¨nes
Ġfascin Ã©
Ġhomosex ualitÃ©
ĠrÃ©form Ã©e
Ġcontempora in
Ġamou reuse
Ġinfli gÃ©
Ġnutri ments
ĠinfÃ©rie ures
Ġattir ant
Ġplon gÃ©
Ġpond Ã©ration
Ġpromen er
ĠchÃ¢ teau
ĠÃ©pidÃ© mi
Ġzo om
Ġcad mium
ĠÃ©lÃ©ph ant
Ġpion nier
Ġabsur ditÃ©
Ġjume aux
Ġembry onnaires
Ġpit ts
bur gh
ĠrÃ©orient ation
Ġimper fe
Ġquarte t
ĠolÃ© odu
Ġbanlieu e
Ġchou ette
Ġdauph ins
Ġnostal gie
Ġpneu matiques
Ġabom in
Ġtpi y
Ġinvolont aire
Ġbicycle tte
ĠcrÃ¢ ne
Ġamoin d
Ġkid napp
ĠprÃ©lÃ¨ve ments
Ġbah reÃ¯n
Ġinvari ablement
ĠrÃ©cur rent
ĠrÃ©bel lion
Ġprobabil itÃ©s
Ġlibra ir
ĠrÃ©it Ã¨re
Ġcertifica ts
ĠÃ©chaf au
Ġnotori Ã©tÃ©
Ġabrog ation
Ġpiebal gs
7 5
b at
d issement
h im
h ier
i p
i ori
m ou
r oupe
t ric
Ġd h
on a
Ġc n
Ġc ler
Ġc ites
Ġc itÃ©es
Ġa lig
an Ã©
it udes
Ġt ante
Ġt um
Ġf Ãªtes
te dt
Ġen dÃ©mique
ĠÃ© diteurs
Ġr te
Ã¨ ches
Ġb onn
ĠrÃ© gn
Ġg isements
Ġre dÃ©c
Ġre haus
Ġpl d
Ġsur chauff
Ġeur og
Ġi z
Ġch urch
ts ine
Ġse re
end ijk
ĠÃ©ta lon
Ġmo trice
Ġmo ham
Ġca deaux
Ġtra ka
Ġai dons
Ġdi eux
Ġprop hÃ©
Ġdis ions
cti tude
ut to
Ġfin ie
Ġeff rÃ©
Ġinter rup
Ġper vers
Ġper ceptions
Ġson ores
Ġad mise
Ġvi k
Ġdo gme
Ġmar teau
Ġpers pic
Ġnom mÃ©s
Ġter ti
Ġab Ã®
Ġaccord era
Ġenv ol
Ġpoin ter
Ġop ium
ĠÃ©v in
Ġti endrons
Ã» ment
Ã» mes
Ġemp ar
Ġcontre ven
Ġass omb
Ġcar ottes
Ġpla que
Ġpense urs
Ġpe indre
Ġcol latÃ©ra
Ġcha vez
Ġmont rait
Ġtu telle
Ġcap tur
Ġmen u
ĠdÃ©bat tus
Ġfer ment
Ġfer ber
tro it
Ġir rÃ©s
Ġindi gÃ¨ne
Ġda mas
Ġsub venir
Ġchange ons
ĠfÃ© roce
Ġz oo
ĠdÃ©cla ra
ĠspÃ© culer
ĠprÃ©v alu
Ġta y
Ġreconn a
Ġrou tine
Ġrou nd
Ġ5 000
Ġali bi
Ġviol Ã©
Ġri ves
ĠÃ©qu at
Ġpi Ã¨ges
Ġpi Ã¨tre
ĠÃ©p Ã©e
Ġple ines
Ġtrouv ions
Ġcapit alistes
Ġessay ais
Ġvolont ariat
mette z
Ġinsta urÃ©e
ob i
Ġobser vant
Ġsc Ã¨nes
Ġaccepter ont
Ġ8 3
Ġdiscu tent
Ġregard s
Ġaffir mative
Ġsolid itÃ©
Ġmanifes tÃ©e
ĠprÃ©f Ã©rons
Ġunivers alitÃ©
tel lis
ran ca
ĠprocÃ©d ons
Ġdel l
Ġconser vent
Ġfil tres
Ġchance ux
Ġprofession n
ĠpÃ©n ibles
ĠpÃ©n uries
Ġroy ale
Ġinfor ma
ĠexÃ©cu tÃ©s
Ġlaisser ai
Ġorgan ique
ĠprÃ©ser ve
ĠidÃ© ologies
Ġconven ue
Ġconven ues
Ġphy tos
Ġdiscuter ons
Ġ0 5
Ġporter ait
Ġ13 7
Ġsatisfait es
Ġinflation niste
od ine
Ġfou les
Ġtransform ations
Ġradic alisme
ĠinÃ©g ale
Ġaccompagn Ã©es
Ġcommuni quent
Ġcommuni quÃ©es
Ġcompa rez
tch enko
Ġden iers
Ġinsp irent
Ġbienven ues
Ġretrouv Ã©e
Ġhi pp
ĠsÃ©le ctive
Ġdomin Ã©e
uss y
Ġdiminuer a
ĠrÃ©a jus
Ġmas quer
Ġcontac ter
we g
Ġphilosoph ique
ĠdÃ©sign Ã©s
ĠcomplÃ© tÃ©
Ġpolici Ã¨res
Ġmos quÃ©e
Ġbata illes
Ġbomb ard
Ġimpu tables
ĠsÃ©lection ner
Ġinex tric
ĠrÃ©cup Ã©rÃ©
Ġanticip Ã©
Ġaz ote
Ġcontenter ai
ĠdÃ©vas tateurs
Ġproje ction
Ġko hl
Ġcompliqu Ã©s
Ġplate formes
Ġfructu euses
Ġmad Ã¨re
Ġgel er
Ġnomin ations
jac ent
Ġauda cieuses
Ġesca liers
Ġadmet tent
ĠthÃ©rap eutiques
Ġalban aise
Ġassor tie
Ġort h
ĠrÃ©cipro ques
Ġsyri enne
Ġresser rer
ĠrÃ©ins ertion
Ġnutri tion
Ġnourr issons
ĠinterprÃ©tÃ© e
ĠrÃ©pres sives
Ġimpressionn ants
Ġvalor iser
ban k
corÃ© en
ĠonÃ© reuse
ĠmÃ©dioc res
ĠÃ©pouvan tables
ĠÃ©cra sÃ©
Ġincomb ent
Ġcoloni ale
Ġsupranation ale
Ġspirit uel
Ġmeurtri er
Ġtrau matisme
ĠfÃ¢ che
Ġfana tisme
ĠdÃ©savan tages
Ġfalsi fiÃ©s
Ġchrist oph
Ġinterlocu teur
Ġsympath ique
Ġrepar tir
Ġbh utto
Ġembau cher
Ġposter iori
ren ica
Ġscul pture
Ġencour us
Ġsymbol ise
Ġschmi d
Ġparf um
Ġbrus quement
Ġspont anÃ©ment
Ġalphab Ã©
Ġcohab itation
Ġstan ford
Ġimpitoy able
Ġcentim Ã¨tres
ĠÃ©dul cor
Ġgener al
Ġprotagon istes
Ġsul f
Ġsalaf ranca
Ġlag endijk
Ġschizoph rÃ©
Ġkenne dy
Ġfestiv al
Ġlud ford
Ġbuiten weg
Ġnichol son
Ġcommunautar isation
Ġeurog roupe
Ġtraka tellis
Ġphytos an
2 7
a ten
d eux
h ir
h at
o ger
p y
s t
u min
z aine
Ġp uri
Ġp ani
Ġp Ã¨ler
Ġa illent
Ġs ras
Ġs reb
an ier
is a
Ġe b
Ġla w
Ġla dite
ur ance
ur aient
Ġpa tr
ĠÃ ¶
Ġv este
Ġpar ie
Ġin Ã©qu
Ġin tim
li x
ĠdÃ© vi
ĠdÃ© gr
Ġma z
Ġma es
Ġma illon
Ġma aten
Ġdu ff
Ġfa bre
Ġg our
la ises
Ġsur nom
Ġi as
Ġi ouch
Ġch ass
Ġac trice
Ġra ts
Ġcons istÃ©
Ġdi ar
Ġvo tions
Ġso cle
Ġli gnÃ©e
Ġli ese
Ġser p
Ġam ateurs
Ġcomp ri
cti ble
Ġas sid
Ġco chons
Ġco ok
Ġins en
Ġson ore
Ġad venu
ĠdÃ©c oncer
ĠdÃ©c rets
Ġmar ty
Ġmar kov
bre u
Ġter gi
ĠdÃ©p lais
Ġann uellement
Ġtravail lais
Ġop c
Ġop el
Ġop Ã©rÃ©
Ġesp Ã©rais
ĠmÃ© tr
Ġcour u
Ġren ault
Ġaff Ã©r
Ġpe ace
am ine
Ġrepr ennent
Ġdisp er
Ġmin er
Ġlib Ã©ri
Ġci me
Ġconstitu ant
Ġk au
mis sile
ĠÃ§ Ãł
Ġmal tra
ĠdÃ©f ends
pi d
ph y
Ġdou che
Ġindi quÃ©es
Ġarri vants
Ġda y
Ġda vos
Ġsub ies
Ġfi bre
Ġabs ti
Ġban k
Ġord onnÃ©e
Ġbas ses
Ġta dji
ĠrÃ¨glement ation
Ġassemb lÃ©es
Ġavis Ã©
Ġactiv iste
Ġorient aux
ĠÃ©p uration
Ġsuc cesseurs
Ġexc itÃ©
Ġtrouv a
Ġja vier
Ġaliment ent
Ġconfi ant
Ġvolont ar
Ġmala dro
Ġatta quÃ©s
Ġsau vÃ©es
Ġanim Ã©s
Ġinv itant
ĠprÃª tent
Ġlaiss a
Ġpren iez
Ġha mb
Ġha arder
ĠÃ©n oncÃ©
Ġfis cher
mon de
ĠÃ©tudi ons
ĠÃ©tudi Ã©e
ĠÃ©valu Ã©e
Ġven deurs
Ġappar tiens
Ġapporter ait
Ġoubli Ã©e
Ġsol de
ĠdÃ©ta chÃ©es
Ġsenti s
Ġregard ais
Ġ9 1
Ġcal cu
Ġanti dumping
Ġgros si
Ġrecommand ons
gi eux
Ġimag inaire
Ġgu it
ĠdÃ©velopper a
ĠapprÃ© hen
Ġhu go
ĠthÃ© oriques
Ġenvoy Ã©es
Ġaborder ai
ĠprÃ©ser vÃ©
ĠprÃ©ser vÃ©e
ĠrÃ©uss isse
Ġafghan es
Ġrele vÃ©s
Ġfal la
Ġminim aux
Ġneu viÃ¨me
Ġsimpli fiÃ©es
Ġach Ã¨ve
ĠdÃ©n once
Ġlois ir
Ġcherche ur
Ġdirect oire
Ġdra peaux
Ġtravaille uses
Ġtrafic s
ĠdÃ©terminer a
Ġpropor tionnellement
Ġfaciliter ait
Ġtermin Ã©es
Ġremarqu ablement
Ġmarchand s
Ġinsuffis amment
Ġlin col
Ġel tsine
Ġsaur ont
Ġralenti t
Ġsoup Ã§ons
Ġjuge ons
Ġimpliquer a
Ġcontes tation
Ġfre d
Ġgol ds
Ġax Ã©s
ĠÃ©quival entes
Ġhoriz ons
ĠtchÃ© cos
ĠprÃ©con isÃ©e
ĠrÃ©mun Ã©rÃ©s
ĠhÃ©s itent
Ġinvesti gation
Ġaccomplis sements
Ġintelli gemment
Ġcraign ant
Ġmontagne uses
Ġtriste ment
Ġaddi tionnel
Ġsit uer
Ġapplaud ir
Ġinnoc ence
Ġgenti ls
Ġgali ce
ĠprÃ©judi ces
Ġoctro ie
Ġvigil ant
ĠpersÃ©cu tÃ©s
ĠÃ©limin Ã©s
Ġenfre ignent
Ġallu me
Ġallu mer
Ġinno ver
Ġhal lu
ĠcorÃ© en
Ġplai dent
Ġgro tes
dÃ©mocra te
Ġretir Ã©es
ĠreprÃ©senta tif
Ġquantita tive
Ġnaz isme
Ã¡n dez
Ġcerti ficat
dus tri
Ġexplosi fs
Ġbarb ares
cor ps
Ġfermi er
Ġabu sive
ĠobÃ© ir
ĠÃ©goÃ¯s te
Ġbombarde ment
Ġplant er
Ġeffray ante
Ġdau l
Ġminus cules
Ġfana tiques
Ġcurie use
Ġinflig Ã©s
ĠcÃ¢ ble
Ġut op
ĠdÃ©magog ie
Ġhen ry
aliment aire
Ġcata lan
Ġinfi me
Ġinsurmont ables
ĠindiffÃ©r ent
Ġrach at
Ġdiamant opoulou
Ġirri gation
Ġdestina taires
zÃ¡ lez
Ġgale ote
Ġgon zÃ¡lez
Ġrecense ment
Ġchal len
Ġpassere lle
Ġmoustiqu aires
Ġprorog ation
Ġinesti mable
Ġscann ers
Ġfias co
Ġdiap osi
ĠÃ©tag Ã¨re
Ġindiss oci
Ġadministre r
Ġnami bie
Ġlamfal ussy
Ġsalva dor
Ġlai tiÃ¨re
Ġbret ton
ĠalinÃ© a
Ġpitts burgh
Ġalig nement
Ġsreb renica
Ġiouch tchenko
ĠtchÃ©cos lova
" @
1 3
4 5
d ors
e uri
h ne
k u
m ne
p ation
p oint
t ota
v ol
v ili
Ġd ÃŃ
Ġl ord
Ġc un
Ġs ing
an ke
is ants
is ky
Ġe vi
in os
Ġpa is
Ġf ul
si ens
ĠÃ© ti
ĠÃ© mets
Ġj ord
ir Ã©
Ġb f
ĠrÃ© cessions
Ġg age
Ġg att
ch ais
Ġre manie
Ġpro venir
Ġav Ã©rÃ©es
Ġh in
end ants
Ġcons tants
ĠÃ©ta ges
Ġmo quer
Ġmo ines
Ġtra c
Ġtra jets
Ġaux ili
ga ard
Ġacc rÃ©
Ġal umin
vi o
ouver t
Ġper ry
ac Ã©e
ĠdÃ©c ret
Ġat yp
Ġfon dre
Ġdiff am
ct rices
ic s
ĠsÃ© grÃ©
Ġsom ali
Ġsom maire
ĠmÃ© ch
ĠmÃ© lan
Ġemp i
ver a
Ġcr Ã¨me
Ġcompr ises
Ġaff ran
Ġcas que
Ġcas tes
gu ant
Ġcha me
Ġlib Ã©rÃ©es
Ġsta es
Ġna ir
ph a
Ġir radi
Ġcoop Ã©rations
Ġmi d
Ġim man
Ġeu es
Ġconsom mÃ©
Ġreg rets
uri ers
Ġcommen cÃ¨rent
Ġenc lin
Ġenc yc
Ġtransp ara
Ġcomb ine
Ġw ur
Ġjuridi ctions
Ġmaj oritÃ©s
Ġjusti fiant
Ġpor taient
Ġcapit alisation
Ġconfi Ã©e
ĠarrÃª ta
Ġsuffis ait
Ġpeup lÃ©
lan ta
ĠprotÃ© ine
Ġ6 9
Ġcontinuer ai
ĠÃ©qui per
Ġporte use
Ġconsci enci
ĠÃ©n once
Ġus Ã©es
Ġreven ant
Ġhar ris
ign er
Ġexa ctitude
Ġbou ts
Ġoubli Ã©s
Ġcoord onnÃ©s
Ġ9 2
Ġinflu ences
Ġchois issant
Ġhabit uer
Ġcollab orent
Ġstatu e
Ġaccro che
Ġradi os
Ġharmon isÃ©s
Ġharmon ieux
Ġtes tÃ©
ĠrÃ©ussi ra
Ġcontinu ant
Ġlut tant
Ġatti rent
Ġretr an
Ġjudici euses
Ġsurve ille
ze k
ĠexÃ©cu tÃ©
ĠhÃ© ro
Ġsurpr ises
Ġconnaiss aient
Ġpou mons
Ġabou tisse
Ġbru tales
Ġred ire
Ġsup ers
Ġlit re
Ġencourage ante
Ġdirect rice
bres py
Ġval ise
Ġinflation nistes
Ġap te
Ġpay Ã©es
ĠfrÃ© nÃ©
Ġreli ant
chi ff
Ġprofiter ont
Ġfe ira
Ġsouci ent
Ġmol dova
Ġcommuni quÃ©s
Ġcu pi
Ġclari fiÃ©
Ġblo que
Ġher bes
Ġtun nels
Ġ197 5
Ġsaur ions
Ġsaur aient
ĠÃ©voquer ai
Ġattribu Ã©es
Ġignor Ã©es
Ġdomin ent
Ġfar ines
ĠlÃ© on
ĠcomplÃ© ments
Ġina per
Ġanc rÃ©
ĠprÃ©ven u
Ġmos co
ĠÃ©clair Ã©
udes cence
Ġinvesti gations
ĠdÃ©fav orables
ĠdÃ©lib Ã©rÃ©e
Ġexpl os
Ġentrepren euri
ĠpossÃ© dait
Ġanticip ation
Ġtas k
ĠmacÃ© don
ĠdÃ©tÃ©ri orer
Ġaci de
log ique
Ġclas ser
ĠdÃ©tour nement
ĠÃ©to ff
Ġfrontali er
ĠsÃ©cur itaires
Ġflor issante
ĠnÃ©glige ables
Ġbala y
Ġinconn us
Ġtremblement s
Ġvirtu ellement
Ġstruct urÃ©e
Ġgl isser
Ġinvo quÃ©
Ġaudiovis uelle
Ġaudiovis uels
Ġintimi der
Ġram os
ĠdÃ©par tements
Ġvieilles se
Ġquantita tives
Ġroum aine
Ġvaisse lle
Ġautoc ritique
Ġachar nÃ©
fel dt
Ġabstra ite
Ġrevendi quer
Ġabais sement
Ġpavil lons
Ġhecta re
Ġdras tiques
Ġmys tÃ©rie
ĠÃ©ter nellement
Ġatteind rons
Ġaccess oire
Ġandre w
Ġate lier
Ġlamb ert
Ġcouloir s
Ġinfin ie
Ġfaculta tif
ĠcoÃ¯nci de
Ġrech ange
Ġendet tÃ©s
Ġappa rait
ĠhÃ©licop tÃ¨re
Ġbafou Ã©s
Ġrajou ter
ĠprÃ©fÃ©r entiel
Ġtick et
ĠfraÃ® che
Ġeffroy able
Ġrecr udescence
Ġfol les
Ġchristi anisme
Ġplau sible
Ġhir os
Ġdilig ence
Ġutil itaires
entrepr ises
Ġauthenti citÃ©
Ġinterparlement aire
ĠaÃ©roportu aires
othÃ©rap ie
Ġvita mines
Ġiz quier
Ġchurch ill
Ġintim itÃ©
Ġdiar rh
Ġguit are
Ġlincol n
Ġhallu cin
Ġalumin ium
9 0
9 1
a la
c ond
c issement
d ront
d isent
h il
r endu
t ter
t urÃ©
v d
Ã ¦
Ġd am
es time
Ġl ue
Ġp ist
Ġp kk
Ġs ors
Ġs Ã¡n
ti co
Ġe li
Ġm ck
in ations
Ġla h
Ġla ser
Ġt endant
Ġt ogo
Ġle v
Ġle ctures
om Ã¨tres
Ġf unes
Ġen zy
Ġau dits
Ġau brespy
Ġj ensen
Ġpar ier
ĠdÃ© tenir
ĠdÃ© chiff
Ġma ras
ĠrÃ© curr
ĠrÃ© prÃ©hen
ĠrÃ© no
ĠrÃ© tor
Ġfa rou
Ġfa tale
Ġfa laise
Ġg ps
eu p
Ġcon tienne
os c
Ġpro file
au dra
Ġse mÃ©
Ġse ae
Ġav Ã©rera
Ġh un
Ġh oo
Ġpo ts
di ves
Ġra tif
Ġra fra
Ġmon archie
ĠÃ©ta y
mes tri
Ġsi b
Ġca chÃ©e
Ġdev inez
ys er
Ġdi ck
Ġvo tÃ©s
Ġy Ã©m
Ġser rer
Ġprop ul
Ġam ateur
Ġacc a
Ġar Ã¨ne
Ġas th
Ġentre voir
Ġag glom
Ġinter viendra
Ã©n itÃ©
Ġad m
Ġvi der
Ġmar re
Ġvou Ã©
ist ances
Ġni Ã©
Ġpri Ã¨re
Ġpri ma
Ġop en
ĠÃ©v itons
ĠÃ©v anou
Ġti r
Ġesp Ã©rances
Ġcontre dit
ĠprÃ©sent ez
Ġgouver nent
Ġcour ons
Ġcar ence
ĠnÃ©cess itÃ©s
gie uses
ĠgÃ©n Ã©rÃ©s
Ġhom olog
Ġgrand issent
Ġrepr enne
Ġlib Ã©rÃ©e
Ġva gin
Ġinc itent
Ġorg ue
Ġcor di
tie mment
Ġcoop Ã¨re
Ġremerci Ã©
ĠdÃ©s enga
Ġfi ch
Ġcontra ctÃ©
Ġjou ez
ici ens
Ġsupp ortÃ©
Ġpuis er
Ġris quÃ©e
Ġiniti er
Ġiniti aux
Ġbi ologistes
Ġver tÃ©
Ġsant os
Ġvol c
Ġform Ã©es
Ġsec ou
Ġali Ã©n
Ġrem ises
Ġparler ons
Ġchar me
ĠdÃ©ci dÃ©s
Ġarti culation
ĠÃ©p ineux
Ġcher chait
ĠindÃ© ter
Ġja unes
Ġentra vÃ©
Ġconsta tÃ©s
Ġaccomp lit
ĠrÃ©glement Ã©s
Ġobser vÃ©s
Ġlaiss ait
Ġajou tez
Ġsouten ait
Ġus ages
Ġaimer aient
Ġdonne ur
Ġoubli Ã©es
ĠreÃ§ ois
Ġregard ait
Ġadopter ons
Ġcal der
Ġpartis ane
Ġchois issons
Ġmari onne
Ġache miner
Ġache tez
Ġcou le
Ġorigine lle
Ġom i
ĠmÃ©r itait
Ġobs truction
Ġpen chÃ©s
Ġpen siez
Ġhu ghes
Ġport ons
Ġobli gent
Ġconvainc antes
ĠbÃ¢ tons
Ġexemp laires
Ġpros tate
char raf
Ġmatin Ã©e
cid itÃ©
Ġsignifica tivement
Ġconven tionnels
Ġsimpli fie
Ġkosov ars
Ġphy t
Ġfour mi
Ġdispose z
ĠrÃ©vÃ© lations
Ġprofit ant
Ġap lan
Ġvari ation
Ġprud entes
ĠirrÃ© fu
Ġrappro chent
Ġhy dra
Ġint ang
ĠrÃ©di gÃ©e
Ġdispar ues
Ġbreve tabilitÃ©
Ġaggra vent
Ġattra yant
Ġdispara Ã®tra
ĠrÃ©parti es
Ġaffi chÃ©e
Ġviv antes
Ġignor ant
Ġcontes tÃ©e
Ġarchite ctur
Ġbro ch
Ġcroa tes
Ġcompara tive
ĠÃ©cri vez
ĠrÃ©pu gn
Ġincon sid
Ġpolonais es
Ġmine ures
Ġlon gÃ©
Ġrembour sements
ĠÃ©tend ent
Ġinfe ctions
ĠgÃ¢ cher
Ġamus Ã©
Ġphysi cien
Ġmultination ale
Ġgenti ment
Ġste ph
Ġartifici els
ĠÃ©prouv Ã©
ĠÃ©m ouv
ĠexcÃ©dent aire
ĠdÃ©mission nÃ©
ĠpÃ¢ te
Ġprocure urs
ĠrelÃ¢ chement
Ġplas tiques
ĠredÃ© fini
ĠbiÃ©lorus ses
Ġdiam ants
ĠprÃ©mat urÃ©ment
ĠdÃ©coura ge
Ġmusi cien
Ġwh isky
Ġparent h
Ġparent al
ĠrÃ©para tions
Ġ195 7
Ġinje cter
Ġsympt Ã´me
Ġmyth es
ĠnÃ©cessiter ait
Ġnaz ie
ĠpÃ©nÃ© tration
Ġexpul sions
Ġparadox al
Ġallon gÃ©
ĠultÃ© rieurs
Ġmexic ain
Ġprocla mer
Ġsophisti quÃ©
Ġconqu Ãªte
Ġcontamin Ã©s
ĠcoopÃ©ra tives
ĠdÃ©mun ies
ĠnumÃ©r isation
ĠamÃ¨ ner
Ġincondi tionnelle
Ġbis cu
ĠprÃ©tendu ment
ĠchÃ¢ ti
Ġorthodo xie
Ġrit uel
ĠhypothÃ©c aire
Ġigno rez
Ġpul vÃ©r
Ġtransc end
ĠcommÃ©m orer
Ġtechnocra tes
ĠmÃ©tÃ© o
Ġinvers Ã©e
Ġinstin ct
Ġplaid oyer
Ġstig ma
ĠindonÃ©si en
Ġbern anke
Ġempir Ã©
bb els
Ġza pa
ĠhÃ©licop tÃ¨res
Ġjon athan
Ġgoe bbels
Ġtitu laires
Ġstabilis ateurs
Ġadjoin t
Ġpoup Ã©e
ĠprÃ©serva tifs
Ġlituan ien
Ġendor mi
ĠextrÃ©m iste
ĠÃ©ryth rÃ©e
Ġmagh reb
Ġautosuffis ance
Ġparamil itaires
Ġandal ousie
ĠÃ©quat oriale
ĠtchÃ©coslova quie
Ġnair obi
Ġrafra Ã®
ĠyÃ©m Ã©n
7 0
a tif
e le
k en
k op
m inement
u itÃ©
Ġc rai
Ġc ras
Ġs j
Ġs ten
is si
Ġe ver
Ġm r
it ure
Ġla mp
Ġle cteur
ĠÃ ¡
or um
or iser
Ġf iss
Ġf land
Ġv on
Ġv ire
Ġen vi
ĠÃ© ph
ĠÃ© las
Ġr oses
Ġr ums
Ġpar te
Ġpar anoÃ¯
Ġcom tÃ©
us h
Ġin tent
Ġin versement
ĠdÃ© vers
ĠdÃ© fier
ci le
Ġfa ctu
la v
Ġre ad
os aure
al cu
Ġch aises
ro b
Ġh il
end aire
Ġra mp
Ġmo tive
Ġca pp
Ġca cao
Ġimp lac
mb ou
ain g
Ġgr ou
Ġpoli ces
tr ina
Ġser ment
Ġprop ices
Ã©ra l
Ġar th
Ġar ros
da kis
vi ra
vi ers
at ol
Ġins olu
Ġvi endrai
Ġmar co
Ġmar quent
ĠrÃ©s ilien
ĠrÃ©s istances
Ġquel con
Ġman hat
Ã§ ais
Ġfor tu
lis h
Ġcro ate
Ġtrans vers
Ġtrans europÃ©en
ĠdÃ©b ute
Ġesp Ã©raient
Ġesp Ã©rions
Ġass istant
Ġcour onnÃ©
Ġpla tes
Ġpla Ã§ant
Ġgrand it
Ġutilis aient
Ġmet tions
Ġmet trons
Ġmal in
Ġmal tais
Ġsta tique
Ġinc alcu
Ġgar g
Ġmondi alisÃ©
pi ces
Ġcor ol
Ġcomment ateurs
Ġappr ise
Ġorganis ent
Ġorganis ateurs
Ġplan ning
Ġmi xtes
Ġfi chi
Ġbr osse
Ġnu its
Ġmis sile
Ġiniti Ã©s
ĠprÃ©c autions
Ġsens orie
Ġuni ce
Ġassemb ler
Ġrou lant
Ġsec ouÃ©
Ġviol Ã©es
Ġchar gement
Ġrep Ã©rer
ĠrÃ©c onf
Ġcontribu ons
Ġtrouver ait
Ġjusti fiÃ©s
Ġactiv isme
Ġorient e
Ġmodi fient
ari o
ĠbudgÃ© tisation
Ġrev ues
Ġrev irement
Ġaliment Ã©e
mand s
ĠÃ©che lles
land s
Ġinsta urant
Ġanim ation
Ġbar ils
Ġ6 1
ĠtÃ©lÃ© com
ĠprÃ©occup ants
Ġconsci entes
Ġexplo ite
Ġrend rai
Ġ8 4
Ġbou tique
Ġbou gent
Ġtard Ã©
Ġ9 4
Ġsin ge
ĠprÃ©f Ã©rer
Ġsor ties
Ġcamp os
Ġom ission
ran e
ĠgÃ© omÃ©trie
Ġrece vables
Ġappropri ation
Ġrefus Ã©e
Ġcontinu ation
Ġenvoy ez
ĠdÃ©fi ance
ĠapprÃ©ci able
Ġora les
Ġextra its
Ġrom ano
Ġexclu ent
ĠdÃ©mont rÃ©e
Ġaband onnÃ©es
Ġportu aire
Ġpron k
Ġcy an
Ġcop ier
Ġtrib ales
Ġestim ant
Ġfour che
Ġtri partite
Ġexamin ent
Ġpan acÃ©e
Ġro d
[...]
