#version: 0.2 - Trained by `huggingface/tokenizers`
Ġ d
e s
Ã ©
Ġ l
e n
o n
Ġ p
Ġ c
o u
Ġd e
t i
Ġ s
q u
r e
Ġ a
en t
e r
a n
a i
Ġ qu
Ġ e
i s
Ġ m
Ġ n
u r
l e
Ġl a
i n
ti on
u n
t e
a r
m ent
Ġ Ã
o r
Ġl e
i t
o m
Ġ t
Ġ r
Ġe t
s i
Ġ f
Ġp r
Ġl es
Ġ v
ĠÃ ł
ou s
Ġd es
ou r
Ġ un
Ġqu e
Ã ¨
on s
i l
Ġ en
es t
u s
a tion
on t
â Ģ
Ġc e
m e
âĢ Ļ
Ġ Ã©
a s
o p
an t
Ġa u
c e
v e
l i
n e
an s
qu e
a u
Ġd Ã©
Ġp ar
a l
Ġp our
ai s
t Ã©
c i
Ġ j
r i
Ġ b
o i
Ġc om
ai t
Ġd u
r a
t re
Ġr Ã©
r es
Ġp as
e u
Ġ in
Ġd ans
Ġun e
Ġ est
c h
Ġn ous
Ġ g
l le
o s
Ġ re
Ġqu i
m p
a t
Ġc on
Ġp l
Ġpr o
it Ã©
d e
p p
a g
Ġ C
Ġs ur
r Ã©
Ġn e
ai re
or t
le ment
en s
a b
Ġt r
l es
ur op
Ġs e
f f
Ã ª
d i
Ġc h
o l
en d
si on
t te
Ġpl us
Ġ P
n i
Ã¨ re
Ġd i
r o
t u
a c
ai n
Ġp o
Ã© s
Ã© e
i r
Ġ M
ur s
om m
er s
ou v
Ġj e
t er
Ġs u
i e
s e
Ġ il
Ġt ou
urop Ã©
Ġa v
J e
Ġ i
I l
Ġe x
Ġe uropÃ©
c es
m b
a ti
Ã© r
e l
qu es
Ġm e
a pp
Ã¨ s
ĠeuropÃ© en
Ġs ont
u i
si d
u l
p e
o is
Ġa c
a m
Ġs i
Ġde v
Ġv ous
y s
tion s
Ġcom m
Ġc ons
Ġa ve
Ġce tte
e ur
Ġp eu
t at
a v
un e
Ġcom p
Ġ o
oi r
an d
ation s
Ġ h
t es
en ce
u x
Ġm o
Ġpr Ã©
Ã© es
m es
an ce
Ġau x
i en
t r
is sion
Ġc ont
t en
e t
N ous
Ġave c
a le
u e
f i
on n
au x
ti que
L a
Ġp a
or d
o it
ĠC omm
Ġ te
Ġm on
Ġs ou
ĠÃ ª
Ġpo li
Ġc es
Ġ ent
Ġ ont
Ġf ait
Ġl i
Ġr app
L e
u re
Ġi mp
e lle
Ġg r
au t
Ġm ais
ou ve
Ġpr op
ĠÃª tre
Ġs er
ag e
Ġ -
Ã ł
Ġa n
o c
us si
Ġpar ti
Ġpa ys
g e
sid ent
a d
Ġcon c
l Ã¨
Ġt ra
g i
Ġ ou
on c
is s
ĠComm ission
o tre
ment s
Ġa pp
ĠÃ© tÃ©
ĠeuropÃ©en ne
v i
d u
L es
c ti
m i
Ġd is
on ne
ch e
Ã ´
ai res
Ãª me
tat s
p r
l Ã©
Ã© ri
Ġtou t
er t
Ġr es
U ni
Ġcom me
c on
a lement
Ã© t
ab le
re r
or s
in s
Ġ y
o ci
c u
Ġf aire
Ã© n
Uni on
f or
Ġp u
ai ent
E n
ĠP rÃ©
C e
o y
on d
t s
ĠÃ© t
Ġ 1
ĠÃ© g
Ġrapp ort
Ġv i
ĠÃ ī
Ġf in
si eur
a p
on sieur
ĠPrÃ© sident
Ġdi re
Ġtra v
l a
is e
Ġ 2
ant s
ouv er
Ġpoli tique
Ġqu es
c tion
Ġent re
l les
Ġc o
v ent
Ġn Ã©
Ġb ien
0 0
j our
ĠP ar
Ġs on
Ġp er
eu x
Ġa ussi
Ġn ouve
ĠdÃ© c
Ġm ar
Ġpeu t
con om
i que
Ġm es
it s
ti tu
E t
ai ne
Ġtr Ã¨s
c o
Ġ B
Ġle ur
v en
e il
ĠÃī tats
b re
Ġ S
al es
o si
Ġav ons
or te
Ġe ff
Ġv ou
Ġme mb
v es
end re
Ġ ?
ai l
ĠPar lement
e x
Ġ es
u t
Ġpro b
b li
ĠÃ©g alement
an de
Ġp ers
Ġm Ãªme
Ġimp ort
is t
ĠrÃ© s
Ġau t
Ġn om
E urop
l er
Ġn otre
ĠdÃ© p
ens e
Ġin ter
Europ e
m er
Ġt er
Ã¨ me
Ġd ro
al is
Ġp os
ol u
g n
in e
Ġa m
a te
ar d
Ġdi ff
Ġt ous
is i
Ġde ux
Ġ A
Ġac c
ĠC ons
en ti
Ġm an
Ġs a
Ġmemb res
Ġd oit
j et
Ġa l
a ce
il itÃ©
ces s
Ã §
Ġque l
Ġin s
il le
f in
Ġa s
o t
Ġc ert
p ar
b le
ou p
Ġde m
ĠÃ© conom
ĠCons eil
Ġs oci
Ġp ouv
Ġprob lÃ¨
c t
Ã© c
Ġce la
ur es
Ġpr Ã©s
Ã¨ res
m in
r ait
c te
Ġques tion
Ġf or
i c
Ġtrav ail
an g
Ġa d
ti ques
Ġs t
ain s
Ġo b
Ġ .
in t
Ġa r
us e
Ġs eu
tÃ© s
Ġd onc
os e
e mp
me t
ve l
mp s
Ġtr ans
tu re
Ġconc er
vel op
Ġ T
j e
an te
Ġ ,
al itÃ©
i v
Ġdev ons
Ġa t
M ais
Ġcomm un
c Ã©
Ġp re
Ġc r
Ġm a
Ġsu is
u ti
ĠdÃ© velop
Ġs es
tr u
Ġpro g
ĠdÃ© b
r ais
Ġn os
Ġm il
Ġ R
Ġex p
Ã© g
Ġj us
Ġprop osi
o b
l u
ti n
l is
ĠrÃ© p
Ġmar ch
Ġf a
ent e
Ã »
g ie
Ġc l
co re
Ġnom bre
r ai
Ġc ar
ĠdÃ© m
e au
Ġn i
Ġan n
Ġcont re
f s
g u
jour d
Ġen core
Ġc rÃ©
h ui
ac c
ĠM onsieur
Ġc ro
ci p
ĠrÃ© gi
Ġ ti
Ġmon de
omm es
ent s
Ġs ans
Ã ®
it u
u m
Ġ "
Ġin tÃ©
ce p
Ġe lle
Ġpro du
Ġde r
s er
Ġg ouver
Ã© li
Ġv o
ne ment
il s
itÃ© s
U n
Ġl ors
is es
ain es
Ġd onn
Ġn on
Ã ¹
Ġf ond
our s
Ġman i
om me
Ġr en
u er
Ġ Â
Ġre c
Ġvou d
o in
d Ã©
v re
i g
Ġle urs
en ir
u d
olu tion
Ġder ni
Ġpre mi
Ġ on
rÃ© s
Ã© qu
Ġpar t
c ation
Ġ G
ab les
Ġpr in
Ġd it
Ġs oit
Ġd ont
U E
l ar
ch er
Ġre p
ĠnÃ© cess
c er
eu re
Ãª tre
Ġ F
Ġa i
Ġte mps
Ġtou te
on g
Ġp ense
for m
mb le
an ge
n er
end ant
Ġm ain
Ġvoud rais
is te
si e
oi re
Ġparti cu
Ġf aut
ĠdÃ©velop pe
Ġcomp r
Ã©r ation
ĠprÃ©s ent
Ġr ais
Ġ L
Ġfin an
P our
Ġc as
v er
p u
Ġimport ant
Ġpu bli
Ġparticu li
Ġa b
M onsieur
ou t
Ġs itu
Ã¨ g
i mp
Ġo Ã¹
Ġpos si
cti ve
Ġ or
Ġre l
it er
Ġs ys
Ġcont r
Ġ2 00
Ġdro its
Ġpr i
l s
ĠÃ©t ait
Ġpo int
in si
ri b
Ġd oi
Ġc ol
ĠdÃ©veloppe ment
Ġ (
Ġgr and
oc ra
Ġ :
onn es
r Ãª
Ġb eau
uti lis
Ġg Ã©n
Ġs ommes
it oy
Ġ N
v ir
pr Ã¨s
c oup
n es
aut res
Ã ¢
Ġau jourd
Ġd om
Ã´ le
Ġil s
e z
Ġm ati
en de
Ġdiff Ã©r
Ġdoi vent
Ġs av
ĠÃ© v
Ġr Ã¨g
Ġa g
Ġce t
Ġf r
Ġmil li
Ġ D
Ġcon f
Ġsys t
ra m
Ã©c ur
r it
Ġf ois
Ġm in
te ment
ab ilitÃ©
ĠdÃ©b at
d es
el les
je cti
ĠproblÃ¨ me
n ation
ol o
s se
Ã©cur itÃ©
Ġ E
Ġsitu ation
d er
Ġb as
Ġproposi tion
qu oi
Ġbeau coup
j Ãł
Ġcon sid
an ti
Ġv rai
an is
ĠdÃ© jÃł
Ġpo si
Ġm al
ĠÃ©conom ique
Ġmarch Ã©
Ġdis p
en ces
qu er
Ġc itoy
Ġpoli tiques
Ġmani Ã¨re
ĠÃ© le
Ġs Ã©curitÃ©
Ġc a
Ã© ra
Ġ op
Ġes s
Ġme t
Ġm ont
Ġacc ord
Ġp e
Ġn ation
ĠÃ© c
Ġfinan ci
Ġac tu
Ġb es
ou te
ĠdÃ©m ocra
Ġser a
i m
Ġmo ins
Ġper met
Ġprog ram
as s
i ti
S i
isi on
si ons
D ans
E lle
Ġc ap
Ġa insi
Ġav ant
Ġm en
Ġas s
Ġa ff
Ġj our
Ġni ve
Ġli b
Ġch ose
Ġl Ã©g
Ġa ur
iss aire
Ã© di
ais s
Ġinter nation
ou pe
ud g
Ã¨re ment
Ġb udg
Ġpers onnes
ĠC h
e m
Ġl ui
ati ve
Ġdem and
Ġv ie
Ġtr ai
sie urs
p ons
Ġmes ures
Ġgouver nement
f ois
jour s
ate urs
Ġ1 9
Ġcons titu
Ġprop os
Ġpar ce
Ġtou jours
Ġ I
i ci
is se
a li
Ġg ar
Ġsou ti
el a
pu is
Ġm oi
Ġcitoy ens
Ġch a
Ġv otre
Ġconcer n
Ġav oir
Ġmain ten
onne ment
p Ã©
ĠdÃ© f
Ġmati Ã¨re
Ġmon di
b les
Ġau c
il i
ĠnÃ© g
Ġf er
Ġan s
Q u
Ġaut res
Ġsou h
elle ment
h Ã©
ad a
Ġgr oupe
ati que
d re
er ci
ag it
Ġtou tes
Ġres pons
Ġau tre
Ġl ong
Ġsi mp
d ui
t ant
Ġt ant
Ġc ent
Ġl Ãł
Ġann Ã©es
Ġex emp
Ġat t
ad re
b ilitÃ©
Ġsyst Ã¨me
v ers
l ons
r ont
Ġgr ande
Ġpro f
m is
Ġ J
A u
Ġrep rÃ©s
ai lle
us es
Ġcon n
Ġbes oin
cÃ© d
ĠÃ §
Ġdro it
C ela
Ġmo y
i Ã¨me
V ous
Ġi ci
acc ord
Ġnive au
Ġpl u
ĠÃ§ a
mb l
Ġcons Ã©qu
Ġcon tin
c ul
Ġpouv oir
Ġtr ois
Ġpour quoi
in tÃ©
Ce tte
ex p
am ment
p h
Ġentre pr
Ġe mp
Ġ K
c tions
ada me
g anis
Ġse cte
Ġres pe
Ġprin cip
Ġin c
ĠÂ «
es p
Ġob jecti
Un is
Ġ- -
tion ne
Ġv is
ĠproblÃ¨ mes
Ġques tions
Ġeff et
is l
Ġr est
Ġseu lement
P ar
Ġpas s
Ġparti e
Ġs oi
Ã© v
Ġf em
ort s
Ġcomm ission
i ques
Ġsu jet
or is
Ġs ous
Ġcert ains
Ġconcer ne
Ġ H
Ġpro jet
Ġpeu vent
Ã§ on
Ġ utilis
Ġser vi
Ġcomp te
Ġrais on
en ne
Ġpe ti
Ġte ch
Ġpers onne
ĠrÃ© f
ĠrÃ©gi on
Ġco op
Ġc or
an ces
Ã´ t
Ġv oi
Ġcol lÃ¨
vir onnement
Ġdev rait
n ent
Ġa fin
ent es
Il s
D e
o g
t ri
iss ance
i ons
mer ci
O n
Ġre merci
Å ĵ
Ġv a
el s
Ġc adre
Ġ Europe
o li
ti v
Ġde puis
s t
Ġexemp le
a Ã®
Ġpl an
Ġcont rib
or itÃ©
Ġv oir
Ġ âĢ
Ġmet tre
Ġins titu
Ġpouv ons
Ġce ux
o v
ĠM es
r aient
Ġpr endre
Ġad op
at ure
ar i
os es
d am
Ġnouve au
s ui
Ġf onc
Ġdem ande
Ġser ait
Ġquel ques
Ġp ens
ĠrÃ©s ul
i on
op ul
om p
d us
Ġal ors
Ġg ens
g Ã©
Ã Ģ
Ġsu b
ten tion
Ġv ue
Ġpour rait
ten ir
Ġdire ctive
Ġdis c
ĠdÃ© s
Ġch ange
Ġqu and
Ġp h
Ġvrai ment
Ġch oses
Ġi m
U ne
ra tÃ©
Ġd ur
Ġv ers
Ġmainten ant
r ent
Ġdom aine
ĠprÃ© sident
av ant
Ã© tÃ©
Ġcr ise
Ġp opul
Ã©ri c
c le
ve z
Ġc ours
ĠlÃ©g isl
Ġ 3
Ġgar anti
gu es
Ġst ratÃ©
ag es
Ġa prÃ¨s
Ġapp r
Ġav ait
Ġpossi ble
cess us
p endant
Ġme ille
Ġj ou
Ġen f
Ġnouve lle
Ġquel que
end u
Ġpro cessus
g r
Ġsu pp
Ġam ende
Ġb i
Ġprogram me
Ġtr op
Ġin di
Ġpro te
g ment
Ġcons omm
Ġb on
l ent
Ġh um
i es
te urs
dui re
Ġse in
Ġcoop Ã©ration
Ġres s
g er
Ġsav oir
Ġc ri
Ġe u
Ġfa Ã§on
Ġs Ã»
ves ti
Ġr is
Ġpr es
g ne
ĠnÃ©g oci
v ous
Ġc our
ag ne
am ais
Ġprote ction
m ment
ouv ent
ĠeuropÃ© ens
d ent
or itÃ©s
Ġsecte ur
v Ã©
Ġess enti
Ġl u
Ġli eu
aire ment
ven tion
ti e
qu i
Ġre g
Ġcom ment
use ment
a y
Ġr Ã´le
Ġj amais
Ã ī
Ġcon di
l oi
ĠrÃ© alis
Ġrapp orte
h omme
Ġ2 0
Ġpl ace
Ġj u
Ġn u
Ġmes ure
Ġconcern ant
Ġf i
Ġen g
Ġ %
que lle
Ã©t ait
tÃ© e
ag er
Ġla quelle
h eure
ant es
Ġsouti en
v is
Ġbas e
ri eur
Ġren for
Ġpremi Ã¨re
a ment
lle ment
p er
Ġs ens
g ent
x te
Ġave z
Ġentrepr ises
ĠprÃ© v
ant Ã©
fi c
ent re
ati ves
Ġcro issance
ĠrÃ© g
Ġeff ic
Ġm i
Ġpubli c
dus tri
Ġr ap
o ins
o rer
i de
Ġf ais
Ġb onne
Ã© ment
Ġmo ment
en u
Ġes p
ai r
rÃ© e
Ġ V
an c
ĠdÃ©c lar
ĠâĢ ĵ
Ġfem mes
ch es
Ġbudg et
Ġpr om
ĠreprÃ©s ent
ĠrÃ©s olution
ĠprÃ© c
ur i
Ġce l
c ture
Ġre cher
p ort
C es
sid ence
ĠÃ© tr
Ã©r ence
Ġs antÃ©
an n
om b
Ġcomm en
Ãª te
Ġi d
ĠÂ »
Ġposi tion
Ġar ri
Ġfond ament
ai te
Ġpr is
gi que
Ġre m
Ġn ot
Ġfor m
Ġv eu
ve ur
l on
Ġn ature
Ġv ol
qu Ã©
Ġcro is
Ġmilli ons
ati s
Ġrec onn
Ġparticuli er
Ġpro cÃ©d
as se
Ġres te
pÃ© ci
rÃª t
ĠrÃ©p ons
Ġs pÃ©ci
ĠnÃ©cess aire
Ġpu is
Ġe lles
au v
Ġor ganis
it es
Ġc ul
Ġter me
ĠM me
Ġfa veur
ĠrÃ© for
ĠrÃ¨g lement
res s
Ġpri x
ac tion
Ġr ien
Ã© conom
Ġcha que
ac itÃ©
ne ments
Ġp ai
ab lement
fi er
Ġsou li
Ġ O
au tre
e ff
ven ir
c a
mbl Ã©e
Ġo c
ri ons
Ġpro ch
Ġma j
ort er
lÃ© ment
g ni
Ġproposi tions
Ġac cep
ĠCh ine
Ġfonc tion
Ġsoi ent
Ġvo te
at t
Ġrap ide
aille urs
Ġ 5
Ġrapporte ur
ĠcollÃ¨ gues
ĠgÃ©n Ã©r
in ter
at s
Ġsu iv
Ġservi ces
Ã© rer
Ġter r
Ġrespons abilitÃ©
ti ve
Ġjus te
m oi
Ġsouh ait
Ġ !
fi cation
Ġ z
Ġm ois
Ġun ique
Ġin f
m an
ĠdÃ©p u
ĠÃ© vi
Ġnouve lles
Ġam Ã©ric
Ġtrai tÃ©
Ġenf ants
Ġpremi er
Ġsu ff
our ces
Ġsi gni
Ġnombre ux
ĠComm issaire
Ġv Ã©r
Ã©n Ã©
ĠsÃ» r
Ġm is
Ġvi ol
o le
i d
ĠdÃ© fin
ate ur
Ġt u
j ou
Ġco Ã»
Ġprodu its
Ġs Ã©ri
ac t
Åĵ u
Ġ19 9
Ġm Ã©di
on e
Ġm ise
r an
le x
Ġse mble
Ġo ff
a di
res sion
Ġamende ments
Ġdonn er
que l
Ġjus qu
ĠdÃ©c ision
Ġnot amment
mb re
n olo
ab ord
in g
Ġcomm une
Ġauc un
Ġs ouvent
Ġobjecti fs
vesti sse
Ġab s
ĠM adame
ti f
ci pe
Ġs al
or m
Ã©t aire
se z
hÃ© sion
uri di
Ġag ri
te ur
Ġj uridi
Ġplu sieurs
o de
Ġf ut
Ġlib er
ĠÃ© ch
Ã©n er
Ġcommun aut
l ab
av enir
t ent
Ġt ot
Ġcontr Ã´le
Ġparticuli Ã¨rement
Ġmi eux
esp Ã¨re
Ġg ra
sse mblÃ©e
Ġ 4
Ġcom b
r ons
Ġsu i
avant age
Ġv ale
il l
ro che
Ġpar ler
Ġc li
ĠrÃ© c
ang er
t ra
Ġpo in
ai de
Ġcondi tions
Ġcel ui
ar ti
Ã©nÃ© fi
ĠstratÃ© gie
Ġs tru
it aire
Ã©ner gie
ussi e
oc cu
Ġce lle
Ġnouve aux
Ġinstitu tions
Ġcomm issaire
or ation
Ġb Ã©nÃ©fi
Ġd ou
ĠrÃ© du
Ġpossi bilitÃ©
Ġser ont
Ġparti cip
Ġtech nolo
Ġprin cipe
Ġin form
Ġam Ã©li
ti m
uer re
ĠrÃ¨g les
ĠrÃ©pons e
app li
c our
ĠdÃ©mocra tie
Ġf our
alis ation
u es
Ġsoci Ã©tÃ©
Ġsouli gn
i er
ĠÃ© ner
Ġsi gn
Ġs Ã©
Ġapp li
Ġre f
Ġa tte
ĠdÃ© ci
Ġfond s
Ġf Ã©li
Ġr i
Ġen se
ĠprÃ© sidence
Ġcontrib u
r Ã¨s
Ã© d
Ġtr ouver
y p
Ġau gment
A l
Ġpeu x
Ã©conom ie
au tÃ©
Ġrecher che
Ġsoci ale
Ġcl airement
ĠÃ© tu
Ġb r
ais e
Ġd avantage
Ġv oy
Ġdiff ici
ure r
Ġin iti
ĠÃ© qu
Ãª che
Ġse lon
Ġjus ti
gr ation
f ri
Ġpar ten
Ġli m
ord re
Ġt Ã©
Ġse m
imp ort
ĠdÃ©c isi
is me
Ġs olution
ord in
en vironnement
Ġpoin ts
Ġv eux
Ġimport ante
ĠnÃ©goci ations
Ġ Je
Ġmondi ale
c ont
Ġre t
osi tion
ĠrÃ©p ond
C omme
Ġp endant
Ġqu alitÃ©
Ġcomp Ã©
er a
Ġt our
ouve z
vi ent
ut Ã´t
Ġp Ã©ri
Ġeffic ace
Ġderni er
Ġderni Ã¨re
n Ã©
Ġauc une
ur r
ĠÃ©conom iques
Åĵu vre
Ġc Ã´
ati ques
un es
Ġf av
c tu
Ġc an
Ġe ux
Ġmoy en
ĠR ussie
in form
Ġt aux
Ġcul ture
Ã ¯
i ent
Ġa li
Ġdiffici le
ĠPrÃ©sident e
ist oire
Ġf ac
a ur
iss ent
ĠdÃ©pu tÃ©s
sui te
Ġcert aines
g ence
Ġp le
Ġla r
Ġremerci er
ĠÃ©t aient
isse ment
Ġpl utÃ´t
Ġpr iv
Ġd Ã¨s
Ã¨ ne
Ġcert aine
Ġsu c
Ġsimp lement
Ãª mes
ri m
ra ph
Ġch e
Ġlors que
os er
Ġg uerre
tÃ© ri
Ġvou lons
Ġpar lement
lle m
c Ã¨s
Ġpopul ation
Ġress ources
Ġs ci
ĠeuropÃ©en nes
g rÃ©
al l
er re
is tre
emp loi
Ġcap it
T out
fi que
Ġ W
is ation
Ġmo di
in dre
dam es
Ġinternation ale
m Ãªme
Ġf ace
Ġeff orts
Ã© ch
Ġpass Ã©
ĠMes sieurs
a z
os si
Ġch ar
n ous
Ġf ont
Ġch er
Ġrespe ct
Ġn o
Ġs orte
li r
Ġcomm erci
Ġrem ar
Ġprop re
Ã© rÃ©
Ġp i
au d
bli g
Ġimp li
ard s
m atique
Ġdonn Ã©
Ġen ti
l o
Ġseu le
a re
ĠÃ©tr ang
ĠrÃ© un
ĠcrÃ© er
Ġpai x
Ġcons tru
ĠlÃ©gisl ation
l us
Ġapp el
ati f
ĠrÃ©gi ons
T oute
Ġvo tÃ©
Ġmarch Ã©s
Ġliber tÃ©
ci dent
Ġrel ations
Ġconsomm ateurs
qu ie
il les
c lÃ©
it able
Ġv u
Ġlu tte
ĠÃ©c rit
r as
Ġqu oi
te mps
ti me
ĠdÃ© t
D onc
ar m
Ġchange ment
Ġdev raient
Ġdi ri
Ġann Ã©e
Ġf ai
Ġcon fi
Ġdiff ic
t out
Ġex tr
oup es
Ġfor me
Ġp Ãªche
Ġconc lu
Ã¨ te
Ġ ir
ĠrÃ© alitÃ©
Ġconc urr
Ġmo d
ĠconsÃ©qu ent
ance ment
Ġf am
op h
. .
Ġp ouvez
ti s
g ue
ĠdiffÃ©r ents
Ġex iste
ense mble
Ġou tre
Ġdemand er
f ie
Ġsou tenir
aÃ® t
ĠrÃ©sul tats
Ġvoi e
ĠprÃ© occu
Ġlar ge
Ãī tat
ve ment
ar gent
Ġter mes
av oir
Ġte lle
Ġprog rÃ¨s
Ġ Åĵuvre
ĠdÃ©p ens
co le
Ġcert ain
Ġent endu
Ġsuff is
D es
Ġnu clÃ©
rÃª ts
ar itÃ©
ĠprÃ©c is
am in
Ġvol ont
Ġdonn Ã©es
Ġeff e
Ġaut oritÃ©s
Ġc ir
Ġv ais
Ġd oute
Ġc in
Ġtoute fois
Ġactu ellement
ti fs
Ġseu l
Ġconstitu e
Ġconn aiss
ĠprocÃ©d ure
Ġs y
Ġb an
es tion
ra le
00 0
lar g
Â »
ni que
me tte
Ġjuridi que
en g
Ġs oli
Ġg l
Ġtrans par
Ġgaranti r
Ġm Ã©
Ġre pr
Ġnombre uses
a ff
re t
Ġre tr
Ġpeu p
Ġsur tout
Ġa it
tiv itÃ©
Ġqu a
ca sion
on ti
Ġs ais
Ġactu elle
am ende
al u
s es
Ġrais ons
Ġrapide ment
Ġs c
Ġterr oris
Ġdeux iÃ¨me
Ġderni Ã¨res
dustri e
ri r
Ġcommunaut aire
Ġdev rions
t res
Ġt ent
Ġc i
Ġgouver nements
Ġstru cture
Ġveu t
Ã©ri que
Ġs us
ĠT ur
Ġexp li
Ġris que
er ce
" .
Ġas pe
Ġprodu ction
ĠnÃ©cess itÃ©
Ġh eure
er ve
ro du
Ġd oc
Ġv ois
or mes
Ġense mble
Q ue
gi es
Ġtrav ers
Ġli bre
ĠÃ©t ab
Ġpro tÃ©
Ã¨ mes
Ġti ens
Ġpubli que
Ġpre u
par t
l ais
end ance
Ġv er
Ġas sez
ĠrÃ©g lement
ar t
Ġre ven
Ġconf l
atis f
ĠE tats
ĠsÃ©ri e
Ġmoy ens
in c
Ġre mp
ĠA ssemblÃ©e
ĠpÃ©ri ode
Ġcl air
ter min
Ġcontin uer
Ġali ment
Ġch i
Ġen vironnement
tÃ© r
cte urs
M adame
cti ves
Ġplu part
ĠMes dames
Ġextr Ãªme
Ġ 6
Ġfinanci Ã¨re
Ġv oit
Ġmaj oritÃ©
iss ant
Ġle quel
r u
is tes
l Ãł
ann Ã©e
ĠnÃ©cess aires
heure usement
Ġcon v
Ġpr Ãª
aÃ® tre
Toute fois
Ġp ort
ni e
Ġje unes
Ġim m
ĠdÃ©cisi ons
Ġsouh aite
Ġaur ait
Ġca use
I n
Ġa ille
age ment
Ġen cour
Ġtr ouve
En fin
ĠrÃ© v
Ġvis ant
it aires
Ġtrav ailleurs
Ġins tru
Ġaur a
Ġ ;
ĠcrÃ© ation
Ġles que
end ra
Ġre v
ĠÃ©g ard
c ts
Al ors
Ġce pendant
Ġcompr om
av ons
fi ques
Ġt y
Ġt en
Ġp orte
Ġg en
Ġconcurr ence
Ġs atisf
Ġcompr is
t able
import ance
Ġobjecti f
Ġav is
il Ãł
Ġremerci e
Ġtr ouv
Ġin t
Ġin vestisse
Ġtr ain
ĠgÃ©nÃ©r al
Ġg estion
end s
B ien
tÃ© es
Ġconfi ance
ce l
Ġdom aines
Ġpour sui
Ġm Ã©t
Ġst abilitÃ©
Ġpermet tre
Ġa ni
ch Ã©
Ġgr oupes
inform ation
Ġr endre
o que
Ġin dÃ©
Ġcon te
intÃ© rÃªt
Ġaille urs
Ġcompr endre
A m
Ġo blig
ĠtÃ© lÃ©
ĠdiffÃ©r entes
ĠTur quie
Ġani m
ĠG r
ĠbÃ©nÃ©fi ci
Ġsou ten
mette z
Ġprogram mes
Ġrenfor cer
Ġmemb re
il es
ol lar
ĠintÃ© ress
Ġfr an
Ġf ort
ra k
Ã¢ ce
l and
Ġinternation al
Ġcons ci
Ġv os
Ġl oc
ĠdÃ©mocra tique
ĠintÃ© rÃªts
en si
Ġc oup
Ġgl ob
Ġte xte
Ġ 7
in f
og ue
Ġrespe c
Ġd ollar
Ã© cu
de mment
Ġal ler
ri mer
Ġl ais
ĠdÃ© termin
Ġsa vez
iv ers
amende ment
Ġcomm erce
Ġf orte
Ġpr atique
Ġdes tin
fri que
Ġty pe
cte ment
Ġex ist
ert s
ĠintÃ© rieur
is c
Ġm auv
om met
ĠrÃ©for me
Ġsigni fie
Ġconv ain
Ġren cont
Ġmeille ure
Ġmod Ã¨
ĠextrÃªme ment
Ġessenti el
ĠconsÃ©qu ences
Ġ Et
Ġex ig
Ġrapp el
ĠÃ©t ant
Ã¨ rent
titu de
en nent
Ġess ay
Ġr ou
Ġprojet s
E N
os Ã©
Ġsui te
larg issement
ĠÃ©ner gÃ©
ĠprÃ©occu p
ĠrÃ© ussi
lÃ© g
Ġaff aires
Ġsav ons
Ġprof es
Ġfr onti
Ġemp l
ĠrÃ© duire
Ġl oin
Ġ ouv
eur es
am Ã©li
Ġte l
Ġfin ancement
ĠrÃ©pond re
re mi
al ogue
Ġ1 0
Ġcontr Ã´
Ġt a
ĠfÃ©li c
ad op
Ġsoulign er
ĠgÃ©n Ã©ra
Ġpas ser
Ce pendant
Ġmilli ards
Ġtrans port
re z
Ġapp roche
in es
ard er
Ġe ur
oi res
Ġpas se
ĠÃī tat
Ġ Le
Ġlong temps
pr it
in dustrie
Ġdev ant
Ġaut ant
ĠdÃ©b ut
Ġdisp osi
Ġdoc u
qu ent
Ġal l
Ġdiri ge
Ġcomprom is
Ġ La
ob jecti
l ande
olu tions
Ġrec omm
Ġfi x
Ġj ours
Ġpers pe
an cer
au c
Ġtravail ler
ti r
Ġent ra
ĠÃ© p
a k
ĠcÃ´ tÃ©
m oins
Ġp au
Ġ 8
Ġpr Ã¨s
Ġcommun ic
is ter
Ġz one
Ġfav or
E st
Ġd ois
ap on
ĠcompÃ© ti
b onne
Ġ uti
ĠÃ©le ctions
Ġm ort
is bonne
d is
us se
ĠÃª tes
ĠrÃ©gi me
. "
i gn
en sion
Ġf ra
Ġdis cu
Ġconsid Ã©ra
Ġpau vre
ar de
Ġacc omp
Ġm ul
ist an
D E
Ã© tu
Ġjusti ce
Ã© p
Ġdi vers
ĠL isbonne
Ġdiffic ul
Ġai de
Ġh ab
Ġs au
ĠF r
ĠrÃ©sul tat
is er
Ã©g alitÃ©
Ġ20 1
a de
ni ques
Ġdi alogue
cul ture
Ġre Ã§
Ġtrans p
Ġlors qu
Ġop p
Ġlib Ã©r
ien nent
Ġgrand es
Ġsimp le
ĠdÃ© ch
Ġh ommes
om ment
met tre
Ġl ang
Ġab ord
h i
Ġconte xte
Ã¨ ce
v ant
Ġpreu ve
Ġvo ter
Ġsci enti
Ġr end
D eux
Ġvolont Ã©
Ġgen re
ac cep
Ġvi cti
oi x
Ġv ont
Ġdur able
Ġinform ations
Ġa mb
Ġqua tre
Ġv enir
Ġat tention
n ov
ac es
Ġ Il
Ġs enti
Ġac tions
ĠreprÃ©s ente
l ure
Ġti tre
at ri
Ġprop res
Ġprodu it
arti cle
Ġpour raient
Ġs ol
Ġqu ant
Ġsuc cÃ¨s
Ġsyst Ã¨mes
ĠÃ©tu di
Ġpu isse
Ġsupp lÃ©ment
u g
an moins
Ġcommen cer
Ġf isc
erci ce
Ã «
Ġd Ã»
Ġmin istre
Ġprincip es
Ġac tiv
Ã© gi
Ġnation aux
Ġse con
on de
du cation
Ã© le
Ġapp ar
ci te
Ġdemand Ã©
Ġn ormes
T u
Ġch ez
Ġparti es
Ġcon vient
Ġsoci al
Ġex c
Ġ 9
Ġs ommet
id Ã©e
objecti f
ĠrÃ©s ou
Ġman que
Ġbudg Ã©taire
n Ã©e
ati fs
Ġcin q
s s
ĠrÃ© se
Ġsi Ã¨
Ġfinanci ers
Ġaccord s
Ġsoli d
Ġins t
Ġc at
di d
Ġjou er
Ġimport ants
Ġm Ã©c
Ġce lles
Ġse p
Ġfor ce
Ġcan did
Ġ 000
Ġcommun autÃ©
ad hÃ©sion
Ġtrans f
Ġgr Ã¢ce
s ra
M al
Ġt ard
Ġ ur
Ġb l
ales ti
Ġgrand s
Ġd onne
Ġai der
Ġin dustri
Ġfa ci
utilis ation
Ġmal adi
Ġmani f
Ġtranspar ence
l in
Ġp ol
o re
appli cation
Ã© largissement
Ġimport ance
vir on
ond s
Ġvale urs
ce v
ĠrÃ© ellement
Ġa y
Ġcon cep
Ġtr ait
v oy
Ġcontr aire
Ã« l
u it
ĠprÃ© f
Ġf aud
ai mer
ĠÃ© n
ces si
ien ne
t ons
Ġre li
Ġce ci
Ġc al
Ġproch aine
lÃ© ments
Ġrel ative
ĠC on
ĠprÃ© cÃ©d
in ois
ĠrÃ© jou
Ġte lles
olu ment
Ġte ls
ĠmÃ©t h
m Ã©
Ġcommunic ation
Ġin v
ob jet
h a
Ġmen tion
L ors
Ġcr it
alu ation
y er
Ġch oix
ten ti
ĠvÃ©r itable
lab oration
Ġvi ent
a ch
ĠdÃ© si
ĠdÃ©clar ation
ar ri
Ġcap acitÃ©
Ġnation ales
op p
ĠdÃ©t ail
Ġvale ur
Ġpeti t
Ġv eil
Ġob ser
Ġple ine
Ġcertaine ment
ct ri
N e
Ġpro v
h istoire
Ġrapport s
on i
Ġen suite
ĠrÃ©sou dre
ag n
Ġparti s
ĠdÃ©pens es
O r
Ġactiv itÃ©s
C omment
M on
aimer ais
Ġy eux
g es
gi ques
ĠN ations
Ġque lle
Ã©ri ence
Ġpauvre tÃ©
Ġpr ise
Ġpar le
Ã©r ons
e ment
Ġcontrib uer
ĠC our
ussi ons
Ġch ac
llem agne
on es
Ġs or
Ġmont re
ĠrÃ©for mes
Ġb ou
op ri
Ġsem aine
b e
p rÃ©
Ġti ers
Ġid Ã©e
Ġb ure
Ġch ois
tionne l
Ġt Ã¢
Ġmondi al
Ġcomp lÃ¨
Ġfinanci Ã¨res
Ġm er
Ġdem ain
Ġdisp os
Ġfronti Ã¨res
N otre
eur os
gu eur
ai e
Ġterroris me
Ġsou ff
ĠnuclÃ© aire
Ġs an
v Ã©s
rit an
Ġaspe cts
Ġcons t
Ġcont ra
Ġreconn aiss
Ġform ul
ĠÃ©nergÃ© tique
t ation
ĠmodÃ¨ le
Ġl o
ag ri
Ġv en
ĠprÃ© par
Ġh aut
Ġh eures
Ġter rit
Ġ1 5
h an
Ġconc ent
titu tion
i tion
Ġconf ront
Ġmont rer
Ġsoci aux
Ġdisposi tions
C ert
Ġpo tenti
lis se
Ġvicti mes
app r
eff ic
Ġrecomm and
Ġfinanci er
Ġdi x
Pour quoi
Ġunique ment
Ġt enir
Ġpart age
Qu and
og raph
Ã©t ro
Ġm or
Ã© m
tr ui
Ġviol ence
Ġch Ã´
o ilÃł
Ġris ques
Ġfour ni
Ġb ut
Ġt h
Ġdis t
Ġimportant es
Ġor ient
Ġdollar s
v Ã©e
Ġparti r
2 0
Ġj eu
ĠÃ©qu ili
Ġpar venir
Ã§ ons
Ġh au
Ġm u
Ġpro t
ĠprÃ©s ente
Ġad min
Ġtot alement
ĠrÃ©du ction
ct ures
Ã© tÃ©s
Ġca mp
ĠprotÃ© ger
ce mment
Ġcli matique
Ġsolid aritÃ©
Ġcons tat
orm ais
Ã© ducation
Ã©t ais
Ġatt end
ĠA m
ĠI n
Ġadop tÃ©
d s
Ġaccep ter
es s
Ġp Ã©tro
e urs
ig ine
intÃ© gration
Ġfondament aux
Ġmeille ur
Ġs tat
Au jourd
Ġen vis
iÃ¨me ment
Ġex amin
E lles
Ġpres que
ĠcollÃ¨ gue
Ġse mbl
sra Ã«l
ĠFr ance
am en
Ġvou l
Ġabs olument
p tion
Ġpar mi
Ġch ers
Ġcr u
ve c
en nes
Ġg Ã©
Am Ã©rique
Ġl oi
ti ves
or i
tr ation
ĠfÃ©lic iter
Ġfer me
Ġcommen cÃ©
Ġprob ablement
in ion
Ġpar f
Ġse c
Ġrest er
ĠdÃ©f ense
Ġcent rale
Ġr adi
Ġdev enir
Ġdire ction
agri culture
Ġal lons
alesti ni
Ġnation al
ĠÃ© lÃ©ments
Ġdirige ants
Ġmul ti
Ġav aient
Ġentra Ã®
Ġmo der
ĠcoÃ» ts
Ġper mis
et s
ĠdÃ©velop per
Ġgr os
ven tions
l oit
Ã¨ de
Ġac tion
Ġpeup le
Ġs p
arm on
V oilÃł
Ġpr ises
ĠM ar
rib u
Ġcor re
di ci
Ġex cel
Ġh ist
ĠF onds
ĠdÃ©s ormais
Ġcomp lex
Ġpe ine
Ġsi x
Ġapp orter
Ġeur o
di re
u is
Ġcons ul
ĠamÃ©li orer
qu Ã©e
Ġass urer
ĠÃ©vi demment
Ġpri oritÃ©
Ġpeti tes
oc casion
Ġfem me
Ġan ti
Ġtra di
Ġf l
Ġcent r
Ġsub st
rÃ© ci
Ġ Y
tÃ© rieur
Ġservi ce
Ġin qui
Ġen fin
Ġrespons ables
rÃ© es
Ġch anger
Ġcons eil
ins t
Ġindi vi
ari at
as tr
res ser
ie z
fi Ã©
Ġveu lent
Ġnation ale
Ġform ation
Ġb ritan
Ġret our
Ġfran Ã§
Ġdifficul tÃ©s
Ġcomp orte
in iti
di c
co les
Ġv isi
Ã©t aires
ĠcrÃ© d
Ġc ou
Ã© tique
ĠrÃ© cemment
ĠB ar
alis tes
Ġimm Ã©di
Ġf il
ri min
Ġmon Ã©taire
Ġchange ments
onc er
acc Ã¨s
Ġc er
ĠmÃ©c anis
eur o
Ġt enu
Ġexp rim
l ac
Ġ Nous
Ãª cher
mis sions
p ens
Ġdis par
Ġconfl it
Ġaff ir
ue lle
Ġapp elle
ctive ment
Ġf u
Ġdev oir
es prit
or ganis
auv res
Ġri ches
Ġp auvres
Ġcrit Ã¨res
Ġappr opri
si que
Ġter min
Ġban ques
Ġprofes sion
alis te
Ġs ait
ĠprÃ©sent er
ĠdÃ© g
c ri
Ġtechnolo gie
ĠdÃ©ci dÃ©
m age
Ġ erre
av i
ag ir
p l
Ġpar fois
el on
ĠJ apon
Ġs ensi
Ġchi ff
port un
j us
Ġm Ãªmes
Ġrespec ter
ĠÃ©v o
Ġref us
Ġanim aux
Ġapp ro
or igine
Ġpri oritÃ©s
Ġl Ã©gi
ce ment
ĠÃ©v iter
Ã© pu
le z
Ġun ivers
Ġutilis er
Ġch inois
Ġan al
oc k
ist ance
ouv oir
Ġchac un
Ġpour ra
alis me
ĠchÃ´ mage
astr oph
at tention
Ġex ac
Ġmes s
A prÃ¨s
re ux
Ġun ies
d ro
t tes
Ġc iv
m Ãªmes
Ce ci
Ġch ance
Ġprop ose
ĠS ch
A insi
Ġp or
t on
Ġcomp Ã©t
Ġco lle
o d
effic acitÃ©
Ġt omb
Ġcat astroph
av ais
Ġcon dam
onn er
Ġfor ces
res se
av is
Ġorganis ations
au gment
Ġsoci Ã©tÃ©s
in er
Ġpens er
Ġagri cole
Ġtrois iÃ¨me
Ġrappel er
Ġl aiss
Ġatt a
Ġa jou
Ġen viron
Ġob ten
Ġs our
ne t
Ġli vre
Ġcontin u
Ġtrai tement
Ġsouhait er
ĠdÃ© fi
Ġdi min
Ġco hÃ©sion
Deux iÃ¨mement
ĠrÃ©s er
Ġvoi x
Ġinvestisse ments
ab s
a Ã¯
o x
Ġd ange
te l
uropÃ© ens
Ġcons er
ĠprocÃ©d ures
Ġsu g
Ġta x
l ant
Ġparten aires
A frique
Ġmin ist
ten ant
oi te
Ġg az
Ġ3 0
Ġpres sion
an i
Ġli gne
Ġt hÃ©
Ġre je
Ġex ercice
in vestisse
Ġprom ouvoir
ĠÃ©v Ã©
ĠprÃ©cis Ã©ment
e c
ĠComm un
Ġsuiv re
ĠrÃ©un ion
Ġp Ã©n
ch i
u el
Ġmil itaire
i b
Ġ ouver
ti rer
Qu el
es time
ti ent
Ġquel qu
c itÃ©
ĠS ud
ĠN ord
Ġconvain c
Ġpar ven
tionne lle
Ġju dici
Ġpublic s
h Ã©r
Ġin dis
us sion
ĠÃ©conom ies
Ġl ut
ais se
ĠB an
Ġveil ler
ur ent
Ġpour tant
Ġvi gueur
ĠT rai
s Ã©
le ur
Ġconf Ã©rence
im mi
ĠdÃ© l
oy au
adop tion
Ġou bli
Ġbes oins
Ġfour n
Ġs olutions
Ġpr end
ĠamÃ©ric aine
Ġes tim
Ġparticip ation
c ons
mi Ã¨re
ĠrÃ©f Ã©rence
u b
ĠÃ©conom ie
r ou
Ġ is
r is
ĠÃ©le vÃ©
ue il
Ġdisc ussion
Ġm ouve
Ġpr en
Ġqu ali
trui re
lisse ment
r lande
Ġav anc
Ġsecte urs
i eu
or ique
ag raph
y n
Ġdocu ment
qu Ã©s
Ġsur ve
Ġderni ers
ĠprÃ©sent Ã©
ĠgÃ©nÃ©ra le
t h
Ġmo t
Ġconc r
ti ne
p end
Ġamende ment
Ġpar ole
Ġmais on
Ã©qu ili
ĠconsÃ©qu ence
Ġcontribu tion
Ġheure ux
Ġ2 5
entre pr
Ġsign al
Ġprofession ne
Ġjour n
ag Ã©
Ġdisc rimin
a h
Ġpar agraph
Ġfait es
Ġlais ser
Ġstat ut
g an
ai si
Ġdev ra
Ġsoci ales
c ent
Ġeffet s
Ġz ones
Ġp ati
ĠdÃ© li
Ġ200 0
Ġpoursui vre
Ġm and
Ġcons ac
Ġcontin ue
Ġpeti te
Ġoc cu
Ġd ossi
Ġv it
ri er
Ġr ac
dui te
for me
Ġdisc ussions
Ġcon du
Ġmin u
Ġsuffis amment
Ġsu per
Ġh omme
ĠdÃ©clar Ã©
Ġoc cident
Ġcir cul
v itÃ©
Ġn our
lu sion
or ie
at oire
Ã©r ations
Ġcli m
ĠdÃ©f is
initi ative
Ġid Ã©es
Ġa Ã©ri
Ġpropos Ã©
M Ãªme
lÃ¨ ve
Ġco ordin
nov ation
d ence
h ab
ri ent
P er
ter n
l Ã©e
au jourd
Ġconf ir
ĠsÃ©ri eux
Ġtechnolo gies
ĠamÃ©li or
Ġrel atives
Ġsou le
Ã©g ard
Ġ Union
ĠpossibilitÃ© s
Ġmen ace
ras tru
Ġ U
ĠÃ© missions
Ġb Ã¢
i ge
Ġmauv ais
Ġn orm
ĠdÃ©p end
ĠA n
ĠcompÃ©ti tivitÃ©
on te
Ġconsid Ã¨re
Ġ k
ĠdÃ©m ont
ĠfÃ©li cite
Ġindis pens
Ġpleine ment
z e
Ġpr atiques
oi ci
lÃ© ch
Ġ1 2
Ġconsomm ation
Ġm onn
or me
l ation
ĠÃ©trang Ã¨re
ri e
" ,
Ġatte indre
Ġpeti ts
Cert ains
ni es
Ġcri min
) .
a prÃ¨s
Ġf ig
Ġdi pl
Ġfam ille
Ġa che
ĠÃ© lÃ©ment
app ro
Ġiniti ative
Ġci vi
Ġcont enu
ĠamÃ©ric ain
ĠBan que
ĩ a
Ġpos er
Ġass oci
olo gique
oyau me
l an
ĠdÃ© fic
iss ons
s us
Ġan ci
o les
Ġinternation ales
Ġcandid ats
ro y
Ġob tenir
en f
Ġconstitu ent
si ve
Ġb onnes
Ġfais ons
Ġ5 0
ĠrÃ©glement ation
Ġmo ts
Ġconsid Ã©ration
Ġh istoire
Ġdisp oni
Ġlu miÃ¨re
a mb
ul ation
Ġadop ter
Per mettez
Ġmal heureusement
Ġhum ains
A llemagne
Ġg ag
Ġparten ariat
cul teurs
qu Ã©es
Ã©t ab
ass urer
ĠCommun autÃ©
is ent
Ġmal grÃ©
ĠsiÃ¨ cle
it ation
Ġte mp
Ġaliment aire
Ġaux que
Ġpens ons
Ġpersonne l
Åĵ ur
ĠÃ ¢
Ġb re
land ais
f g
p s
Ġpr os
Ġlesque ls
an ci
is tration
Ġl iste
ab ri
Ġactu el
Ġs ort
Ġ1 1
a rer
Ġp ous
il a
it ent
Ġmin im
immi gration
Ã© tat
Ġmanif est
Ġcru ci
Ġter re
Ġpar lÃ©
a vez
S ur
Ġsem aines
Ġaut our
Ġhum an
Ġid enti
Ġsi m
Ġdur ant
Ġlesque lles
Ġay ant
Ġdi m
ain tenant
Mal heureusement
Ġag ir
ĠdÃ© ce
Ġexig ences
s p
Ġen vers
Ġar ti
os Ã©s
fi Ã©e
Ġass ur
Ġcir cons
Ġinstru ments
S elon
Ġmess age
ten ces
Ġt Ãªte
ĠreÃ§ u
Ġconstru ction
Ġcoordin ation
Ġse x
A ssemblÃ©e
che c
ĠR oyaume
Ġcl aire
Ġfaci le
n ant
Ġc ouv
Ġoff ici
Ġcondi tion
Ġfai ble
Ġconc lure
Ġtrav aux
Ġmainten ir
In de
O rient
ĠA l
Ġreg ard
Ġsui vi
.. .
Ġempl ois
Ġmand at
re ment
Ġdire ctement
ĠS u
Ġrespons able
Ġimp ossi
age ments
Ġpubli ques
ĠcompÃ© tences
Ġpu issent
Ġlong ue
Ġph ot
ĠtÃ¢ che
v ision
ist ra
ĠresponsabilitÃ© s
E S
Ġa llem
ĠC e
Ġpouv ait
Ġtr an
Ġiniti atives
it ablement
for mer
ĠpÃ©tro le
di ction
Ġad Ã©qu
Ġsur pr
ex ist
Ġde tte
Ġren ouve
ri ez
Ġprof ond
tru ction
Ġti rer
Ġproch ain
Ġparlement aire
de lÃł
ĠimmÃ©di ate
v isi
Ã¨ tes
us h
ĠintÃ© rÃªt
Ġposi tif
Ġfais ant
o des
Ġv ille
Ġb at
Ġcomb at
ĠcoÃ» t
ĠrÃ©jou is
Ġeng agement
C E
an ie
ĠC or
Ġimp orte
ĠprÃ©s er
O M
Ġr ur
Ġreven us
O N
Ġcomp ar
Ġh ier
Ġparagraph e
Ġm ag
Ġpro cÃ©
rÃ© h
ro Ã®
Ġar rÃª
c l
y se
ro g
ouver ture
bli que
le t
A N
Ġqu anti
Ġagri culteurs
Ġeffe ctivement
e use
ĠrÃ©alis er
r aine
Ġr ati
Ġfut ur
Ġmen er
fg han
ali e
Ġcivi le
O u
lu ence
Ġtrouv Ã©
V oici
ri Ã¨re
ĠB r
ĠÃ© qui
Ġtransp orts
P remi
Ġmati n
Ġm ission
Ġaut oris
Ġtech nique
fic ations
Ġm as
ĠrÃ©f lÃ©ch
au che
ac te
Ġconclu sion
ti en
ĠÃ©vi dent
Ġp en
Ã©v olution
Ġvoy ez
Ġperspe ctives
Ġp ie
Ġm us
Ġt est
rodu ction
Ġs oir
C et
Ġeffe ctu
a pe
Ġ1 8
ang es
Ġdisc ours
a si
ĠÃ© tat
Ġhum aine
man ie
res p
Ġli v
emp l
Q ui
p i
gn es
Ġfav oris
ĠprÃª ts
aisi r
Ġsy n
Ġminist res
Ġmonn aie
re g
Ġre le
Ġaut om
Ġmilli ers
Ġfavor able
ĠspÃ©ci fique
Ġen voy
op inion
ch ent
b lement
x im
ag ue
Ġpos e
or tÃ©
Ġnive aux
ĠintÃ© g
ĠspÃ©ci fiques
Ġhab it
M aintenant
Ġle cture
Ġcour t
ĠsupplÃ©ment aires
Ġadmin istra
Ã ĩa
Ġvi te
ĠB al
Ġfonction nement
o te
Ġcons iste
Ġpermet tant
investisse ment
A vec
Ġscienti fiques
r ant
pe ct
Ġoc casion
Ġimpossi ble
ĠrÃ©f u
Ġgra ve
amÃ©li orer
Ġbritan nique
Ġcol laboration
esp ace
ĠmÃ©di as
lex i
e mb
as e
ĠprÃ©s ence
ĠdÃ©velop p
cep tion
M a
Ġle t
il isation
Ġplan Ã¨te
Ġconnaiss ance
Ġfourni r
ĠTrai tÃ©
in novation
fri c
Ġconsci ence
Ġpr on
Ġcon form
Ãª tes
Ġper man
Ġ Les
qu Ãªte
Ġin ten
Ġtech niques
Ġlarge ment
Ġdev en
ti Ã©
Ġf abri
Ġpermet tra
Ġappr ouv
Ġcommunaut aires
er b
oy en
Ġop portun
Ġaugment ation
ĠÃ©vÃ© nements
at h
imp orte
st ac
ĠdÃ©ce mbre
Ġt able
Ġvi vre
Ġsouti ens
Ġvoit ure
Ġexac tement
o ff
Ġs ouv
Ġmont rÃ©
Ġprincip al
Ġin accep
and is
Ġpermet tr
Ġcircul ation
Ġt Ã´t
Ġposi tive
Ġatte int
I ran
ot h
Ġconstat er
us s
ĠindÃ© pend
Ġsimp li
Ġsan ctions
De puis
Ġfai bles
o tion
u ff
Ġre cev
ĠdÃ©f endre
Ġlut ter
C h
Ġc y
Ġconclu sions
Ġen dro
ĠM oyen
Ġav ions
Ġinter vention
v ie
ur gence
Ġpuis que
ĠdÃ©c ouv
Ġst ri
p endance
Ġt endance
Ġv Ã©
ĠCons titution
Ġuti le
Ġp oi
Ġcent re
Ã©ch ange
ĠÃ© vent
ĠGr Ã¨ce
Ġenti er
Ġcar act
Ġret ard
Ġprincip aux
Ġser aient
Ġar mes
k raine
Ġt on
Ġacc Ã¨s
Ġ200 7
Premi Ã¨rement
ĠCon vention
in tention
ĠP remi
Ġan g
Ġinstru ment
ĠR Ã©pu
ĠdÃ©m ar
ĠcrÃ© di
Ġpart out
ai tement
Ġv ision
alis er
imp act
n aires
ers onne
ĠrÃ©se au
ĠdÃ©bat s
Ġtrait er
ĠrÃ©fu gi
Ġ us
Ġfin alement
Ġempl oy
Ġaff aire
ĠfranÃ§ ais
Ġf lexi
am a
Ġconfl its
Ġcomp tes
Ġb al
vi er
Ġv as
Ġh a
Ġeng agements
Ġ200 8
que t
Ġtot al
ul er
Ġperspe ctive
Ã© anmoins
Ġmoi tiÃ©
Ġarri ver
Ġ ordin
Ġfer a
es te
Ġpos s
ĠE uropÃ©ens
ĠreprÃ©sent ants
Ġdossi er
qu ant
Ġm Ã©ri
Ġsigni fic
c Ã©e
Ġ Z
an im
Ġte llement
Ġper du
Ġparticip er
Ġche min
Ġfra pp
Ġindispens able
ĠdÃ©ch ets
Ġprov o
Ġexcel lent
ct or
Pour tant
Ġtrai te
Lors que
ĠcomplÃ¨ tement
Ã©v aluation
Ġli Ã©s
ru ption
T ous
v ation
Ġfait s
Ġdis tin
Ġres se
Ġmondi alisation
Ġencour ager
ĠK os
ĠnuclÃ© aires
tel li
ĠdÃ©c en
Ġadop tÃ©e
Ġreli gi
r on
Ġm ai
te mbre
c les
Ġpour rons
Ġcon ven
Ġcomp ag
ĠdÃ©ci der
Ġcr oire
tÃ©ri eure
Ġparf aitement
Ġex er
cte ur
Ġcaract Ã¨re
de c
cti f
Ġvi v
ili er
Ġdipl om
Ġr endu
Ġcor resp
ĠdÃ©clar ations
Ġper mettez
Ġcar b
ac tions
Ġcomp li
ĠN e
I B
Ġsouhaiter ais
g Ã©s
Ġd ate
Ġnouve l
ĠlibÃ©r alisation
Ġsenti ment
ĠI sraÃ«l
ĠprÃ©occup ations
ain tes
Ġbudg Ã©taires
Ġcri tique
N Ã©anmoins
Ġc Ã©
Ġv al
Ġau quel
at es
Ġdev enu
Ġrenfor cement
ĠdÃ© n
ĠÃ©c ou
ĠÃ©trang Ã¨res
ĠÃ©tab li
Ġmil itaires
ĠreprÃ©sent ent
Ġdi ver
Ġ1 00
Ġreg ret
ĠÃ© lab
Ġex ige
Ã©p oque
Ġpol lu
c tes
Ġt rib
Ġad ap
Ġprodu cteurs
intÃ© rieur
cont re
Ġp alestini
Ġparticuli Ã¨re
Ġmauv aise
Ġmaladi e
T ro
Ġs ouver
Ġg u
Ġcomm ence
Ġph y
ĠKos ov
ĠÃ© m
Ġcamp agne
Ġsour ce
M es
P eu
Ġp Ã¨re
Ġi gn
Ġcons ens
ĠrÃ©v ision
c s
h um
t age
Ġju in
Ã© ro
ĠnÃ© anmoins
Ġexp ort
Ġamb iti
Ġsep tembre
Ġcapit al
Ġoblig ations
Ġcorresp ond
Ġmo b
Ġ200 9
ces sion
c adre
Ġn eu
Ġex tra
ĠrÃ©f Ã©r
abs ence
a mp
Ġ En
Ġsu p
li er
Ġob stac
tionne lles
ĠvÃ©r itÃ©
ĠrÃ© par
n Ã©s
Ġin vesti
Ġser vir
Ġpeup les
P lus
Ġt oi
ro duire
Ġam is
min istration
Ġcontin ent
Ġcor ps
ĠmÃ© dec
Ġglob ale
Ġpotenti el
j oin
Ġpro duire
Ã¨me ment
Ġcomb ien
Ġr oute
ac tÃ©r
Ġterrit oire
rÃ© ti
Ġpoli ce
Ġcar actÃ©r
Ġavant ages
Ġarri ve
Ġreconn aÃ®tre
Ġent end
ĠdÃ©mocra tiques
Ã©ric ains
Ġp eur
Ġf eu
Ġli gnes
Ġprop ri
Ġsurve ill
Ġsecon d
Ġfaud ra
Ġdev ront
ĠdÃ©p art
Ġagri coles
Ġe mb
Ġeffic aces
fghan istan
ĠRÃ©pu blique
ĠP IB
Ġcons truire
Ġdisp ose
Ġpl ac
Ġil lÃ©g
Ġvou lez
Ġma tÃ©ri
Ġvois ins
Ġscienti fique
ĠprÃ© p
iss ante
Ġdisp osition
ĠÃ©quili b
Ġdim ension
ĠKosov o
Ã ¶
Ġre venir
Ġcon vi
Ġper d
Ġrel ation
Ġgra ves
Ġsor tir
ĠPremi er
c ations
Ġm Ã¨re
Ġac tive
Ġenti Ã¨rement
w e
ux elles
olo gie
Ġim ag
ĠdÃ© lÃ©g
Ġar gu
Ã©d iter
t alie
Ġ200 4
Ġpa yer
Ġinternation aux
Ġ4 0
Ġav enir
Ġstructure ls
our g
ĠrÃ©fugi Ã©s
Ġdiscu ter
Ġrais onn
Par ce
I rak
Ġi dÃ©
Ġnu it
ĠmÃ©di c
Ġl ois
ĠrÃ©f lex
ĠrÃ©alis Ã©
Ġnature llement
Ã©tu de
Ġmouve ment
l ise
Ã¨ ces
Ġai ent
Ġ19 8
Ġm at
Ġpu issance
Ġai des
Ġpris on
an cÃ©
Ġou ti
Ġemp loi
Ġesp Ã©rons
Ġfaud rait
Ġconsens us
ĠB el
Ġconn u
Ġmaladi es
M E
ĠM ais
Ġo ct
ĠR ou
ĠsÃ© par
Ġsup Ã©ri
Ġde me
tÃ© g
Ġch ang
ca ments
Ġlim ites
Ġpouvoir s
P ersonne
Ġatt endre
Ġreg arde
r os
us ses
Ġpa quet
Ġal tern
Ġfondament al
att a
Ġint rodu
A C
Ġt andis
Ã©n om
ĠrÃ©gion ale
amÃ©li oration
Ã©diter ran
on di
i ch
Ãª t
mb ler
ĠintÃ©ress ant
l or
Ġor gan
Ġprincip alement
Ġutilis Ã©
Ġchar ge
Ġdiscrimin ation
ĠmÃ©ri te
ĠB ush
ĠmÃ©di caments
ĠbÃ¢ ti
ĠBr uxelles
b er
Ġpro cÃ¨s
ĠdÃ© rou
at te
av ait
Ġtra du
Ġcro y
Ġclim at
Ġc Åĵur
Ġpour rions
Ġfonc tionne
Ġph Ã©nom
ĠrÃ©se aux
i ce
Ġs oins
ad ministration
Ġsurveill ance
Ġsoulign Ã©
OM C
empl ois
Ġinaccep table
Ġn um
Ġv ise
ĠPrÃ© sidence
Ġgouver n
ĠdiffÃ©r ence
Ġv aut
Ġca tÃ©g
Ġjuridi ques
Ġimpli que
uff is
Ã¨ nes
Ġpour ront
ex emp
ex c
exp Ã©rience
ĠprÃ©v oit
ĠmÃ©th ode
ĠimmÃ©diate ment
qu is
ĠrÃ© vÃ©
Ġexp Ã©rience
esp oir
Ġfac il
en contre
Ġc erve
app el
Ġconcent rer
Ġ1 3
Ġseu ls
Ġha usse
Ġd anger
Ġp orter
or de
ĠÃ© mer
ĠP a
am ique
cep ti
ĠstratÃ© gique
Ġ201 0
Ġmo indre
v Ã©es
ois e
Ġcha mp
augment ation
Ã© ni
Ġr ent
Ġb out
Ġpres se
Ġprom otion
Ġlim itÃ©
Ġchiff res
Ġcircons t
Ġa mi
app roche
ĠR om
I rlande
Ġqu o
Ġt ort
au ff
Ġdev ait
ĠÃ©t ape
Ġhum ain
Ġlang ue
Ġrec ours
si vement
utilis er
Ġbi ais
Ġconcep t
ĠprÃ© vention
ĠÃ©n orme
Ġd yn
Ã©r itÃ©
ĠÃ©c ri
Ġti ent
Ġl it
ĠâĢ ľ
sp agne
k i
Ġfin al
Ġeng ag
ĠdÃ©fin ition
Ġpopul ations
Ġterr ain
Ġaspe ct
T om
Ġt aille
ĠdiffÃ©r ences
Ġterroris tes
Ġradi c
ai der
Ġst atis
b es
Ġr al
Ġqu it
ĠprÃ© t
Ġpros p
ĠrÃ© el
os ent
Ġl our
er ait
in te
ĠA frique
Ġpopul aire
ĠsupplÃ©ment aire
opp osition
Ġsim il
roÃ® tre
Ġd r
Ġa ra
ai me
Ġrest ri
Ã© rÃ©e
Ġsouten u
S on
il ler
vi te
ense ig
Ġcap able
Ġcri tiques
Ġsembl ent
c tr
Ġv Ã©ri
Ġhuman itaire
ON U
n aire
ĠrÃ© elle
Ġpremi Ã¨res
Ã©v iter
Ġproch aines
Ġlim iter
Ġcher che
ĠtÃ©lÃ© ph
exist ence
oi e
ĠcrÃ© Ã©
lle z
armon isation
ĠprocÃ© der
ĠrÃ© t
Ġac tes
dÃ© m
P uis
Ġv illes
Ġac teurs
Ġlo gique
âĢ Ŀ
Ġde vez
Ġdev ient
Ġprof it
Ġpoi ds
Ã¨ que
Ġpar lons
ad ap
Ġpropos er
Ġgaranti e
auc ra
asi le
Ġmen ac
Ġcor ruption
ĠdÃ©fin ir
Ġconvain cu
h ors
ati e
d a
al ler
an vier
Ġau prÃ¨s
Ġma xim
ili ation
Â» .
Ã©quili bre
l am
Ġs ources
ue llement
fi Ã©s
Ġ200 6
Ġemp Ãªcher
Ã©ch elle
Ġbure aucra
Ã© cole
int roduction
Ġessenti ellement
ĠconsidÃ©ra ble
Ġerre ur
an e
ĠB er
Ġcommun es
Ġconform Ã©ment
l ov
ar b
Ġje une
) ,
Ġcomm is
ĠprÃ© sid
olo giques
Ġcapit aux
Ġminu tes
Ġpie d
in di
Ġcon tient
Ġsu d
Ġ1 4
Ġinf rastru
Ġgouvern ance
Ġsou mis
au tÃ©s
Ġapp rÃ©ci
Ġat ten
Ġdocu ments
Ġmu tu
Ġ UE
Ġs tim
ar ge
Ġrec ons
ing t
appli quer
Ġessay er
ĠrÃ© action
Ġex tÃ©rieur
ex iste
ĠcontrÃ´ les
ĠamÃ©ric ains
or Ã©
Ġpl ans
Ġexp loit
Ġab and
Ġvoi ci
Ġv ari
Ġj anvier
Ġb aisse
Ġcon vention
Ġch u
Ġessenti elle
ĠprÃ©v u
Ġreconnaiss ance
ĠrÃ©ser ves
e ments
u mer
ul g
ĠÃ©le ctor
ass ur
Ġmoy enne
g Ã©es
Ġst ock
Ġis ra
S A
Ġco hÃ©r
organis ation
Ġt ab
Ġcel lu
Ġremar que
Ġg arder
T AN
o h
Ġpar ents
al lÃ¨
Ġmar s
Ġlet tre
P E
Ġb anc
os Ã©e
Ġfor mes
rit ure
Ġple in
p ir
mi te
Ġal li
Ġcomplex e
A r
Ġg auche
Ġtrans form
Ġprof onde
Ġf aite
Ġsal ue
P L
g Ã©e
Ġvi ens
ĠÂ» .
Ġdivers itÃ©
u els
Ġconsid Ã©rer
Ġappr is
Ġdimin u
Ã¨ tres
ci d
onc Ã©
En suite
ĠL ib
Ġreven u
l Ã©es
in qui
ar ie
Ġre d
dÃ© pendance
Ġdiffic iles
U kraine
Ġch ances
Ġju ge
eng agement
E D
Ġp at
an che
eu vre
Ġin telli
ag ent
Ġte x
Ġent endre
Ġli re
Ġtrav aille
entrepr ise
ĠrÃ© gu
Ġ1 7
Ġentrepr ise
ĠcrÃ©d its
ĠmÃ©canis me
Ġfr au
Ġliber tÃ©s
Ġaliment aires
Ġcom itÃ©
om bre
Ġcomp rÃ©h
Ġsouhait ons
Ġsuff it
Ġhau te
Ġa fric
ve mbre
ass oci
ĠrÃ©pons es
Ã©cu tion
Ġconfront Ã©s
Ġpro ven
con que
M erci
Ġdire ctives
Ġmar iti
gn er
Ġrest ent
Ġdist ribu
Ġhist orique
ĠrÃ©flÃ©ch ir
i ra
Ġc lÃ©
Ġre jet
Ġtra fic
Ġam en
Ġexp rimer
Ġobser v
Ġmain tien
ĠsÃ© ance
Ġloc ales
ĠcontrÃ´ ler
Ġtermin er
a f
ĠP ME
Ġcomporte ment
Ġfil m
Ġobten u
end a
Ġreg arder
Ġacc Ã©
Ġabord er
ĠAm Ã©ricains
Ġmulti p
ĠÃ© li
Ġat titude
ĠdiffÃ©r ente
Ã© tr
Ġp acte
Ġpri m
Ġno vembre
2 00
Ġex cep
ĠÃ©le vÃ©s
ĠrÃ©ussi te
Ġexc lu
ĠdÃ©fic it
ti di
Ġm ains
in ation
Ġt ur
Ġpr ud
end um
pÃ© rer
Ġremp lac
ĠbÃ©nÃ©fici er
ĠprÃ©cÃ©d ent
S ans
Ġm ig
Ġb ons
Ġli Ã©es
Ġcirconst ances
M I
Ġt yp
Ġr Ãª
Ġv enu
Ġesp agn
ĠgÃ©nÃ©ra lement
Ġaccomp li
O TAN
Ġvi vent
Ġpremi ers
olo gne
Ġca us
ĠGr ande
Ġg re
Ġpa ci
acc ent
ĠI rak
Ġsug g
Ġ X
Ġvoy age
Ġouv ert
Ġdis ent
Ġ1 6
ĠdÃ©f aut
Que lle
f Ã©rence
Ġst ade
Ġstru ctures
Ġtou ch
Ġrel atif
Ġsuiv ante
hi cu
Ġsecon de
Ġs omme
ille t
Ġcl asse
ĠÃ©le ctr
Ġbudget s
inform ations
Ġes time
Ġtrai tÃ©s
exp rimer
Tro isi
ĠdÃ©lÃ©g ation
ĠRou manie
Ġn avi
ĠS t
des sus
Ġle ad
Ġun i
Ġco ord
Ġcompr ends
ĠrÃ©alis ation
Ġche fs
Ġremar ques
Ġcon ver
inter vention
o w
re use
Ġvou lais
ĠrÃ©v olution
Ġpati ents
Ġrenouve l
g ra
i ens
al uer
Ġprom es
ĠcompÃ©t ence
ĠvÃ© hicu
Ġv iennent
Ġsujet s
I T
un ivers
ont er
Ġcent aines
ront ali
Ġenf ant
Ġcommerci aux
adop ter
Ġrepr ises
Ġtransf rontali
Ġquo tidi
Ġs inc
Ġcons oli
Ġli mite
ĠÃ©tu des
Ġpi re
Ġparlement aires
Ġvois in
r ation
Ã© ter
alitÃ© s
â Ļ
Ġde hors
Ġexp Ã©ri
Ġ200 5
Ġno te
Ġforte ment
Ġrecommand ations
Ġajou ter
Ġgag ner
Ġn ord
Ġque lles
Ġpa y
Ġdes s
par avant
Ġallem and
ĠÃ©qui pe
i le
r un
Ġl ancer
on or
Ġf ou
Ġf rÃ©
Ġav ancer
Ġjou e
ĠmÃ©th odes
Ġindivi du
ĠcaractÃ©r is
A n
Ġper dre
ĠÃ©ch anges
Ġcatastroph e
Ġprog res
Ġfr u
Ġsci ence
i re
app elle
ĠrÃ©fÃ©r endum
en ez
ag ers
Ġ200 3
ĠvÃ©r itablement
Ġmodi fier
Ġappel Ã©
aff ir
Ġencour age
Ġfisc ale
ĠÃ©quili bre
Ġcentr ales
ĠrÃ©s erve
Ġins uffis
itoy ens
Ġtran si
Ã© ti
Ġen reg
ac tivitÃ©
Ġder riÃ¨re
ĠcoÃ» te
Ġouver te
Ġmus ul
a che
exp ression
ĠdÃ©fin iti
Ġcher cher
âĻ «
Ã¨ ve
l Ã©s
en ci
Ġprop or
ĠÃ©v aluation
Ġconcern Ã©s
exp loit
ra ge
Ã§ ant
imp ression
Ġsouti ent
Ġconcr Ã¨tes
Ġt ol
Ġf asse
Ġtr ouvent
Ġmar i
Ġcorre ctement
b ama
in Ã©
it ali
ĠprÃª t
Ġv oire
ĠR e
Ġmeille urs
prÃ© sident
exp li
Ġcommerci ales
Ġlang ues
ĠcrÃ©d it
un itÃ©
ĠdÃ© v
Ġaur ont
ĠnÃ©g li
Ġarri vÃ©
ĠNe w
Ġqu ot
Ġsys tÃ©
Ġop Ã©ration
Ġdisponi bles
ol ue
Ġrapp elle
Ġimp act
Ġmin oritÃ©s
ĠmÃ©canis mes
Ġnour riture
A ussi
rÃ© t
Ġmont rent
Ġfonction ner
Ġefficace ment
Ġexpli quer
Ã© rÃ©s
on ique
ti ci
J us
av ie
iss ait
ĠsÃ» re
Ġ6 0
Ġdange reux
is tÃ©
Ġconc itoyens
Ġab ou
Ġaugment er
Ġsubst ances
ent Ã´t
Ġbi entÃ´t
ĠnÃ©goci ation
Ġmoyen nes
ĠÃ©v olution
Ġoff re
ak istan
A sie
t ures
Ġs ac
Ġs ang
Ã§ u
Ġmodi fication
Peu t
Ġat tirer
Ġdisp oser
Ġdur Ã©e
ĠCor Ã©e
u le
y th
Ġconsid Ã©rÃ©
Ġph ase
id enti
Ġcan cer
N G
un i
Ã©r ant
Ġcomp ens
Ġvo ilÃł
ĠrÃ¨g le
Ġbi ens
Ġche f
Ġauxque ls
Ġa llez
ar k
rai gn
Ġdemand es
Ġfondament ale
Ġpriv Ã©
Ġfacil iter
Ġt end
ĠP akistan
Ġou i
Ã» t
Ã©tu des
ou tes
Ġcommun autÃ©s
im m
Ġoubli er
Ġ isl
ou d
Ġt ri
Ġpl aisir
ter net
Ġchang Ã©
Ġstatis tiques
os Ã©es
ros o
ais on
Ġbl anc
Ġvisi te
Ġcerve au
Ã¨ se
ĠD e
Ġ199 9
Ġsatisf ait
D Ã¨s
Ġc ens
it ations
Ġapp are
Ġfinan cer
Ġsitu ations
Au c
Ġprincip ale
aur ais
b res
Ġ âĻ«
ent rÃ©e
Ġcont raign
Ġcompr end
Ġinc roy
Ġrapporte urs
ĠÃ©tudi ants
Ġper tin
Ġsub s
Ġfam illes
ĠdÃ©termin er
Ġsep t
t t
u y
on om
enti el
Ġappli quer
Ġth Ã¨me
Ġla b
Ġdr oite
ou bli
ol Ã©
Ġcour age
g ents
Ġs oy
Ġv ingt
Ġmar che
Ġacc us
Ġal lÃ©
ct ur
Ġaccord er
Ġir rÃ©
u me
ac itÃ©s
cti fs
Ġconsomm ateur
Ġremar qu
Ġjudici aire
o bre
Ġpr ennent
Ġin uti
Ġfondament ales
Ġ ul
Ġf ille
ul n
Ġma ch
Ġsouli gne
Troisi Ã¨mement
b as
u sion
ex amen
ĠdÃ©ch arge
uln Ã©ra
it ables
se ur
Ġh ors
ĠgÃ©n Ã©ration
Ġdemand ons
ĠdÃ©pu tÃ©
Ġmoder ne
Ã©t aient
Ġmil ieu
Ġprof iter
ĠprÃ©ser ver
j u
Ġp es
Ġm Ã©r
ut ri
ct oire
ĠÃ©qu itable
g ouver
ai gn
in dÃ©pendance
Ġpro che
ĠdiffÃ©r ent
ĠÃ©tu de
Ġfaci lement
ĠBal k
o vi
ar me
it ant
il iser
Ġex cessi
ĠÃ©vi dence
Ġliv res
Ġrele ver
f ondi
Ġv ir
au rer
Ġpl Ã©ni
Ġex tÃ©rieure
Ġh an
Ġ itali
Ġcap acitÃ©s
omb e
Ġprot oc
ila tÃ©r
Ġinfrastru ctures
ĠrÃ©gu li
Ġp an
ar te
Ġtot ale
ĠÃ©tab lir
ĠCon fÃ©rence
Ġexprim Ã©
Ġextra ordin
Ã© laboration
Ġmarch and
Ġsus cepti
inf lation
Ġsau ve
Ġexport ations
ĠphÃ©nom Ã¨ne
ĠdÃ©c la
ĠsÃ©rie usement
Ġflexi bilitÃ©
re ts
ne l
ne x
ocra tes
Ġappr endre
ograph ique
dic ap
Ġsouver aine
Ġv ulnÃ©ra
ĠrÃ© di
ĠP ologne
ac tu
Ġpu iss
Ġactu elles
Ġprincip ales
ĠrÃ©flex ion
o Ã¹
ĠP ro
ĠH ong
Ġref lÃ¨
Ġrepr ise
Ġisra Ã©li
Ġn ations
Ġsou ci
Ġ200 1
Ġmont ant
Ġmeille ures
Ġappli cation
Ġdispos ons
S E
d it
Ġde mi
ap it
Ġfr oi
ĠbÃ©nÃ©fi ces
Ġglob al
N on
O Ã¹
Ġd omm
er tes
Ġf rais
rÃ© si
Ġmo de
Ġcap ables
Ġcontribu Ã©
Ġlais se
Ġpor tÃ©e
our ir
ĠP ort
Ġtransi tion
Ġhan dicap
ĠM a
mi ques
Ġses sion
Ġcomment aires
Ġtour isme
or di
Ġb ri
Ġre vient
Ġent rer
Ġtravail lÃ©
Ġconn aÃ®tre
Ġpens ent
Mal grÃ©
Ġcomp lÃ©ment
Ġvoy ons
exemp le
onn Ã©
Ġesp oir
land aise
ĠÃ©p oque
Ġl ien
en ant
Ġcr ises
Ġrelative ment
ĠBalk ans
Ġv ert
h e
Ġ- ,
Ġfac teurs
Ġanal ys
visi onnement
o blig
ĠlÃ©gisl atif
Ġaccep tÃ©
Ġbr ut
Ġ8 0
Ġbure au
gouver nement
on ie
Ġr usse
si di
aut ant
Ġar m
Ġaur aient
Ġinstitu tion
Ġfac teur
Ġsc Ã¨ne
Ġerre urs
ri ch
Ġprog resser
Ġacc r
ob tenir
Ġconn ais
tionne ls
at oires
Ġes prit
ĠF MI
Ġconn aÃ®t
Ġvas te
as ser
Ġpossi bles
re uses
an al
is ant
Ġr asse
ĠM al
Ġessenti els
Ġmaj eure
I sraÃ«l
Ġposi tions
ĠprÃ©par ation
Ġvi ande
Ġman ger
Ġag ences
Ġaur ons
ill age
ĠtÃ© moi
Ġm ises
or k
Ã¨ ge
ĠÃ©trang ers
Ġ iss
er c
is Ã©
si f
ĠF in
Ġor ig
ĠÃ©v olu
Ġvoul oir
Ġambiti eux
ĠplÃ©ni Ã¨re
Ġc la
ĠdÃ©l ai
Ġd o
ou er
Ġcommun i
Ġdivers es
d ation
Ġ ordre
ar es
Ġvou lu
Ġsub ventions
Ġdou ble
arm Ã©e
ĠconsidÃ©ra bles
Ġh onn
r il
Ġconstitu er
ret agne
Ġcal end
enseig nement
en h
Ġau paravant
Ġper te
Ġconstitu tion
Ġcal cul
Ġcon duite
alis Ã©
Ġexemp les
Ġ20 20
Ġcommerci al
Ġexamin er
c rit
vi end
Ġcar te
Ġcruci al
Ġquot as
Ġmati Ã¨res
ins titu
Ġob jet
Ġsav ent
s ter
as h
ain te
fi Ã©es
ĠrÃ©t ab
Ġg Ã©rer
Ã©r ance
Ġgar de
Ġchois ir
Ġre ti
ĠC O
Ġtr ou
Ġamb i
ĠcrÃ©di bilitÃ©
S a
Ġb les
ins tant
itu de
ĠÃ©c l
Ġquanti tÃ©
Ã ¡
Ġsu Ã©d
ĠdÃ©p l
Ġpriv il
Ġ200 2
Ġinvestisse urs
ĠtÃ©lÃ© vision
Ġferme ment
Ġcompag nies
ad es
ĠconsidÃ©ra blement
Ġcondu it
g yp
Ġf onde
li e
Ġo euvre
Ġ2 1
ĠprÃ©p arer
Ġcomp ter
Ġbre ve
ti es
Ġaff ec
C ar
ro vi
ĠrÃ¨glement s
ĠrÃ©du it
Ġfam ili
ĠPa ys
b ation
os ti
Ġch ale
Ġraisonn able
m ans
Ġsuiv ant
ĠÃ©qu iv
ctri citÃ©
ĠcomplÃ¨ te
Ġanal yse
Ġcellu les
Ġvoit ures
ĠÃ©vo quÃ©
o di
Ġo bli
Ġpermet tent
tis s
Ġf ins
Ã¨ vement
am er
ĠSu Ã¨de
l itÃ©
ar rÃª
ex cel
Ġacc ueil
Ġjou Ã©
Ġorganis ation
b al
en cour
on du
alis Ã©e
Ġcol lab
Ġcour ant
ar r
Ġactu els
Ġesp ace
ĠreprÃ©sent ant
Ġmodi fications
Ġprosp Ã©ritÃ©
Ġjus tement
C ha
en ons
Ġpar aÃ®t
Ġb ar
Ġutilis Ã©s
Ġsub sidi
Ġenti Ã¨re
Ġpr Ãªte
ne lle
Ġinter gouvernement
Ġim mi
Ġtent er
ster dam
ou Ã©
te lle
Ġins ister
Ġtravail lent
ĠÃ©le cteurs
Ġfavoris er
cid ents
Ġprotoc ole
ĠPort ug
c cident
Ġin nov
Ġtrib un
Ġcri mes
Ġappro fondi
on ce
ĠÃ©ner gie
Ġattend ons
Ġmoder n
ĠBar roso
Ġre lÃ¨ve
Ġeff ort
Ġparlement s
auc un
o ine
Ġf Ã©
ĠrÃ© si
Ġsou m
Ġconsul tation
Ġoccu p
e d
m ar
Ġsur f
ĠrÃ©gi mes
Ġcitoy en
Ġgaranti es
re tte
ur ant
ĠÃ© chec
Ġposi tifs
im ag
ĠdÃ©tail s
Ġop Ã©rations
Ġsy mb
Ġsatisf ais
Ġfig ure
Cha que
c k
Ġl ancÃ©
Ġt ch
and es
Ġcl ari
ĠU SA
ĠdÃ©cen nies
Ġ2 7
ĠrÃ©c ente
Ġretr ait
Ġrur al
g arde
Ã¢ ge
Ġju illet
c omm
Ã© chec
Ġe aux
Ġv ites
ĠdÃ© lais
Ġar gent
Ġestim ons
Ġgre c
N os
Ġj apon
Ġb el
Ġcont ent
ĠS erb
acc omp
Ġjour nÃ©e
Ġmention nÃ©
C P
Ġpos te
Ã® ne
ĠI I
Ġcombat tre
Ġral enti
ĠrÃ© cession
Ġin jus
Ġces se
Ġrecev oir
assur ance
C eux
T outes
e uses
Ġs in
ex amin
Ġphy sique
ĠvÃ©hicu les
E spagne
l en
Ġb ois
app rÃ©ci
Ġquel s
ph Ã¨re
Ġnature lles
Ġorient ations
Ġfu ture
Ġautom ob
Ġendro it
anim itÃ©
Ġmariti me
un is
Ġre qu
tte ment
Ġvo tes
Ġfr ont
Ġcalend rier
Ġsubsidi aritÃ©
Ġd iss
Ġh or
che ment
Ġqua si
Ã©tab lir
I talie
p it
t rÃ©
Ġh yp
Ġh uit
ĠdÃ©c ou
Ġcrimin alitÃ©
Ã©tr anger
A vant
Ġf au
Ġvi eux
eau coup
Ġmu sique
Ġprofond Ã©ment
Ġobstac les
Ġ Vous
ĠÃ© tions
ch auff
ĠP PE
Ġindi quÃ©
Ġchois i
Ġvoul ait
Ġdev rons
Ġinter prÃ©
Ġfer rovi
Ġim age
Ġsc and
Ġparven us
R e
ri me
ĠC ong
end ent
Ġtab ac
h armonisation
Ã© b
Ġla c
Ġet c
Ġre ce
Ġpl aÃ®t
Ġvi es
Ġco de
ex ercice
Ġsa ur
Ġreg rette
Ġcarb one
Ġp ure
Ġmo bilitÃ©
ĠprÃ© al
Ġpers onn
Ġ19 7
Ġpass agers
ĠrÃ©gion al
Ġinf luence
Ġfrau de
Ġcy cle
ĠPortug al
iss aires
ĠdÃ©p lac
Ġn av
Ġf al
Ġcon duire
ĠC op
Ġtou che
Ã´ ts
Ġmaj eur
Ã©tab lissement
mi que
Ġtyp es
5 0
de z
Ġpuis qu
Ġsy mp
Ġessay Ã©
Ġfavor ables
Ġdeven ue
P r
Ġr ob
Ġser ons
Ġapp ortÃ©
oy er
ex Ã©cution
Ã©qu i
ĠD ieu
Ġsouten ons
o k
in d
Ġet h
ag issant
Ġapp arti
Ġcl aires
imp li
Ġconcern Ã©es
Qu ant
vers e
Ġexcel l
Ġpermettr ait
o z
Ġc iter
ann Ã©es
Ġir landais
aff aire
P endant
Ġc am
Ġv endre
ch ant
Ġac tivitÃ©
ĠdÃ©s as
Ġcommerci ale
eng en
ĠentraÃ® ner
ĠlÃ©gi tim
Ġpollu tion
oh n
Ġs ent
Ġm erci
est ation
Ġann uel
Ġfut ures
Ġrencont rÃ©
oi ent
gu er
Ġfais ait
Ġpuis sions
Ġphot o
Ġrenouvel ables
t ables
Ġs port
Ġdi c
sse ment
Ġsouhait ent
Ġpratique ment
Ġs Ã©v
Ġn omm
Ġtr u
Ġa ch
an itÃ©
Ġli c
Ġfin ir
la ce
ĠdÃ©p ass
Ġma Ã®
ĠD an
Ġemp run
ĠK y
Ġcri me
eng ager
Ġver sion
ĠthÃ© orie
enh ague
f e
ĠB rÃ©si
ĠintÃ© ri
Ġ5 00
Ġlaiss Ã©
Ġcontinu ent
a ci
us er
Ġsi gne
Ġinter ven
Ġexp erts
Ġcri ti
Ġrou ti
Ġavanc Ã©es
S eu
end ue
av Ã¨re
ins tru
Ġph ras
Ġsupp rimer
Ġinf lu
Ġculture lle
Ġsol d
gyp te
Ġs il
ot o
Ġst ab
ĠindÃ© pendant
ĠSch engen
atte indre
m atiques
Ġsou p
Ġconcep tion
Ġfl ux
Ġa mp
Ġmo tiv
exploit ation
ĠCop enhague
B as
Ġb ate
alis Ã©s
ĠgÃ©n Ã©tique
ĠrÃ©un ions
Ġrev anche
Ġminim um
Jus qu
B eaucoup
s y
Ġin telle
Ġpro c
ĠrÃ©alis Ã©s
Ġeur os
Ġdifficul tÃ©
appro visionnement
o int
Ġla tine
Ã©r op
Ġli ens
Ġ2 4
Ġpropos Ã©s
Ġpi Ã¨ce
O ui
Ġr are
Ġrep ose
inf luence
Ġp ou
Ġprob able
Ġsoci aliste
Ġdit es
exp ort
Ġ% .
Ġ7 0
accep ter
m ation
ĠnÃ© cessi
Ġaccep table
ĠprÃ©occup ation
Ġenvis age
Ġpropri Ã©tÃ©
ĠÃ©li min
Ġpaci fique
Ġintelle ctu
ĠnÃ©cessi te
Ġh armon
Ġper form
ob ser
ĠcrÃ© e
Ġaff e
ĠH am
Ġ199 8
Ġtax e
lan tique
b ourg
Ġh Ã©
ĠS h
isi ons
Ġpersonne llement
ĠrÃ©gion ales
ĠO bama
Ġ9 0
Ġfourn it
Ġoct obre
Ġorig in
ĠB ulg
ĠrÃ©g ler
Ã©le ctricitÃ©
Ġcer tes
ĠextÃ©rieur es
ĠBrÃ©si l
h Ã©rence
Ġ On
Ġm ent
or ient
Ġr u
Ġb ilatÃ©r
Ġsur m
ĠP alestini
Ġdi vis
ain t
aut oritÃ©
Ġrel atifs
ĠCh yp
Ġchu te
l it
Ġad ress
Ġpart ager
aiss ent
ĠprÃ©c ise
Ġreli gie
Ġenvis ager
Ġch apit
ĠrÃ©p ondu
Ġpens Ã©
Ġhum aines
Ġpublic itÃ©
Ġinqui Ã©tudes
Ġcatastroph es
Ġoccident aux
Ġdeme ure
ci eux
Ġmulti la
Ġposs Ã¨de
Ġrecons truction
Ġbien ven
Ġcapit ale
Ġtemp or
ar rÃªt
ment ation
ĠC ro
Ġcommun s
ĠadÃ©qu ate
Ġapprouv Ã©
ti ennent
Ġf as
Ġpr ie
Ġau di
ĠrÃ© chauff
Ġil lus
ĠÃª tres
Ġsus p
Ġpreu ves
Ġexist ent
Ġsau ver
h ou
ĠA llemagne
Ġoff rir
Ġformul er
Ġrecommand ation
Ġprofessionne lle
hum anitÃ©
B retagne
Ġimport ations
Ġca uses
Ġrecher ches
Ġs pect
ĠprÃ© venir
Ġfin i
Ġinter ne
ĠG u
Ġenvironnement ale
Ġloc aux
Ġsec rÃ©t
Ġauxque lles
Ġmarchand ises
Ġn oir
ĠC an
Ġac te
cti vitÃ©
ente ment
ĠL iv
Ġpropos Ã©e
Ġdyn amique
Ġlead ers
k a
on y
ganis ation
Ġnature l
Ġconst ate
l as
app ar
Ġpens ais
Ġviol ations
Ġaccr ue
Ġpa p
ĠB CE
ĠdÃ©p it
Ġense ign
enf ants
E h
ĠrÃ© agir
Ġapp or
Ã©v rier
ĠamÃ©li oration
Ġconsci ents
Ġchiff re
Ġrestri ctions
ĠBulg arie
n Ã©es
Ġf o
ĠC ol
onn Ã©e
Ġconc iliation
Ġar tis
Ġpass age
Ġutilis ation
ĠÃ©tr oite
Ġb u
ass istance
Ġsal ari
Ġtechnolo gique
aur ait
ĠsystÃ© matique
examin er
Ġm orts
Ġinc ap
Ġsoli de
Ġretr aite
Ġanci ens
a j
Ġl on
Ġm erve
os se
ul aire
ĠÃ©v alu
omb ien
Ġarti cle
Ġpour suite
ĠC ar
Ġprob lÃ©
ĠG az
Ġpense z
ĠÃ©vi d
ĠmodÃ¨ les
ĠfranÃ§ aise
a jou
app orter
Ġli qui
Ġimp ression
Ġfonction naires
lov a
A gence
B on
Ġun s
Ġb lo
Ġresse mble
associ ation
m Ã©di
Ġ Ils
Ġs ovi
Ġdes truction
Ġdev iennent
Ġimp oser
Ġver tu
Ġenvironnement ales
te z
Ġb ord
Ġper tes
Ġress ort
ĠÃ©ch elle
appli que
ĠcomprÃ©h ension
Ġf all
Ġvi dÃ©
Ġinter venir
Ġorganis mes
Ġnavi res
ur Ã©
un animitÃ©
Ġex Ã©cu
Ġmar que
Ġop inion
Ġreconn u
eff et
ĠamÃ©ric aines
Ġparten aire
Ġa x
ĠS e
Ġcin qu
Ġinst all
ĠtÃ¢ ches
Ġconvainc re
ĠdÃ©li c
Ġargu ments
C ertes
t an
ĠÃ© coles
Ġre mettre
gn itÃ©
ĠprÃ©sident s
Ġpai ement
Ġinf Ã©ri
Ġaugment Ã©
Ġbl oc
Ġappropri Ã©e
i k
ent endre
ĠÃ©ch ange
Ġmention ner
augment er
Ġconser v
ĠdÃ©couv ert
Ġouti ls
Ġremarqu able
o Ã»t
u ad
Ġf Ã©vrier
Ġcont act
ĠA fghanistan
ĠprÃ©s ents
ĠdÃ©bat tre
tive ment
Ġindustri elle
ĠdÃ©p osÃ©
Ġpos t
Ġpri or
Ġcul tures
ĠintÃ©rieur es
ĠÃ©nergÃ© tiques
Ġsp Ã©c
ĠY ork
ĠrÃ©par ti
Ġin Ã©v
Ġdi gnitÃ©
Ġpouv aient
Ġfinan ces
ĠV erts
Ġinform ation
Ġ 0
en di
ĠÃ© lu
ag issait
ac k
Ġi rak
ĠlÃ©gisl atives
Ġban que
Ġsubst anti
allÃ¨ lement
ĠPalestini ens
Ġp sy
an a
Ġm ic
ay er
inter diction
Ġ199 7
ĠpÃªche urs
Ġsyn dic
ĠdÃ©sas tre
Ġd en
tr as
ĠG Ã©
Ġrest ru
Ġsupp ose
Ġreligi on
Ġintergouvernement ale
or gie
Ġf illes
Ġdes c
cu le
ĠE ur
Ġaff ai
Ġplan i
Ġpai ements
Ġpriv Ã©e
ĠdÃ©termin ation
cri ption
Ġk il
Ġsouveraine tÃ©
oblig ation
g ente
Ġde grÃ©
est re
Ġre j
Ġdis ait
Ġautre ment
vers aire
Ġpres sions
Ġsal aires
Ġconnaiss ent
chi te
v ons
Ġd on
ou g
ni er
ĠprÃ© cÃ©
Ġviol ation
Ġappli c
Ġhabit ants
Mes dames
ĠlÃ©gitim itÃ©
ĠS y
Ġor ateurs
Ġali ments
Ġconnaiss ons
Ġrev Ãªt
ajou ter
Ġf ils
il is
tÃ© rale
oi vent
Ġdis ant
Ġmen aces
Ġ199 0
Ġfix er
Ġorgan es
Ġvites se
or es
Ġg ui
Ġav ril
Ġh onte
Ġsou d
Ã´ pit
ĠT erre
Ġsimp les
Ġay ons
ctri ces
Or ganisation
ĠSerb ie
si as
Ġb il
Ġh om
ĠdÃ©c lin
ex tÃ©rieur
Ġfond Ã©e
Ġinc ont
ĠsÃ© le
Ġremar quer
Ġang lais
Ġf Ã©d
Ġutilis Ã©e
ĠprÃ©cis er
rÃ©ti ens
Ġmerve ille
O b
er ti
it ons
Ġpr ati
Ġin con
Ġcomm issaires
iss on
ĠintÃ© gr
Ġpriv Ã©s
ĠaÃ©ri en
i a
Ġm Ã©n
ĠÃ ®
Ġf ail
Ġdes sus
ant er
Ġac tifs
Ġadop tÃ©es
Ġorganis Ã©
ole il
Ġtent ative
Ġminu te
Ġb o
Ġcon join
Ġcro issante
ĠrÃ©si de
tr ait
Ġinter ventions
emp Ãªcher
ĠdÃ©b ou
ĠrÃ©p Ã©ter
Ġconcern ent
ĠgÃ©nÃ©r ations
onor able
Ġsurf ace
Ġr ation
Ġmo teur
Ġrapp ro
ĠrÃ©s olu
Ġrencont re
ĠAm Ã©rique
Ġache ter
Ġara be
hou sias
d Ã©c
in ions
li ons
ĠprÃ© ju
Ġtrans former
Ġress or
Ġdestin Ã©es
Ġindivi dus
li te
Ġvi ctoire
Ġmilli on
ĠI rlande
Ġretr ouver
ĠamÃ©lior ations
ĠdÃ©mar che
Ġneu f
ĠcohÃ©r ente
a tÃ©
a vec
Ġn aiss
Ġpour s
Ġmo des
ĠrÃ©p u
ĠrÃ©p erc
Ġpropos Ã©es
Ġmaxim um
ĠM ac
ie l
Ġli Ã©e
Ġco hÃ©rence
Ġph il
ĠlÃ©gisl ative
Ġfronti Ã¨re
Ġur b
Ġendro its
Ã©qui pe
Ġfin ance
ĠB os
gn Ã©
Ġat ti
Ġmondi aux
arri ve
Ġsignific ative
ĠexpÃ©ri ences
l ong
un ion
Ġle Ã§ons
as t
Ġpar oles
ĠrÃ©glement ations
Ġoblig atoire
Ã©diterran Ã©e
Ġsinc Ã¨rement
ĠHam as
ĠLiv re
ĠGÃ© orgie
ĠrÃ©s olutions
Ġcor ri
Ġexist antes
Ġbri Ã¨vement
export ation
it ants
tis ation
Ġrepr endre
Ġdestin Ã©s
Ġhab itu
Ġrati fication
Ġfru its
Ġqu in
ag Ã©e
ro it
Ġac qu
ĠE lle
vers itÃ©
ĠO NG
eff ond
inter net
Am sterdam
Ġhau teur
ĠChyp re
O ccident
r y
ĠÃ© tats
ter a
ux emb
ge ment
Ġpos Ã©
Ġatt entes
Ġvoisin age
Â «
or ies
Ġri che
ĠdÃ©velopp Ã©s
ĠreflÃ¨ te
Ġp Ã©ti
ol d
fi ci
Ġconstitu tionnel
cev oir
Ġsensi ble
Ġconser ver
Ġregret table
Ġextraordin aire
ĠGaz a
Ġb elle
Ġre qui
Ġre tirer
Ġsi te
Ġinc omp
Ġesp Ã¨ces
Ġur gent
comm un
Ġdic tat
ĠrÃ©chauff ement
Ġc op
de m
Ġsur vi
ĠM Ã©diterranÃ©e
Ġimp Ã©ra
ĠS i
ĠT ch
Qu oi
m a
Ġpoli tici
Ġvi a
ĠprÃ©sent ation
Au tre
Ġsupp ression
Ġsuffis ant
c y
ra y
Ġacc roÃ®tre
ĠintÃ© grÃ©
Ã©li min
Ġtomb er
l ou
Ġd ra
Ġdi z
Ġmet tent
Ġmen Ã©
Ãī tant
Ġeffic acitÃ©
Ġchi miques
Ġsignal er
exc lusion
Ġs tu
Ġen quÃªte
Ġcont ro
Ġdimin uer
ĠKy oto
ĠintÃ©ri eure
g rÃ©s
u elles
ou tine
Ġdro gue
Ġcl as
Ġdom in
Ġbas Ã©e
Ġessenti elles
ĠmÃ© m
Ġradi o
Ġfau te
ĠrÃ©perc ussions
v a
es ti
ĠÃ© du
au teur
ra t
Ġme ur
Ġdev i
Ġcomp os
ĠL ond
ver bal
Ġmen Ã©e
ĠcÃ´ tÃ©s
Ġall ait
Ġsenti r
anci en
Ġintrodu it
ĠbÃ¢ti ment
tras bourg
u k
Ġg ri
ĠÃ©le ctri
ĠprÃ©v ue
Ġsign Ã©
Ġno tion
Ġr yth
Ġsou mettre
Ġmar ge
Ġtrans it
Ġass umer
ĠCh arte
Ġconnaiss ances
Ġsouv enir
Ġm ur
ĠdÃ© tru
Ġin dustrie
Ġpro long
Ġser t
Ã©ra ble
Ġavant age
Ġrev oir
inf rastru
Ã©tu di
Ġtransf ert
Ġbanc aire
Ġsold ats
Ġm asse
Ġces ser
mi di
Ġrel ance
im age
Ġjusti fier
Ġrou ge
Ġcentr al
Ġgu Ã¨re
ĠrÃ©parti tion
h ique
ri ble
Ġb arri
Ġli Ã©
Ġrespe cte
Ġregarde z
r omp
Ġch ien
ni ers
ĠM c
ĠM ex
Ġutilis Ã©es
Ġcontrib ue
Ġuti lise
Ġbritan niques
A fghanistan
d on
ys t
ĠnÃ© er
Ġaut or
ine z
ĠdÃ©mocra tes
Ġaur ions
Ġsort es
h eur
i dÃ©
enti ss
Ġport ant
Ġrencont rer
Ġadministra tives
Ġremplac er
b i
Ġa si
Ġf aux
Ġch oc
ĠprÃ©sent Ã©e
Ġbas es
Ġvrai e
Ġcha mbre
ĠrÃ©c lam
ouv rir
aut oris
ĠS trasbourg
ĠG e
Ġvoi ent
abord er
Ġappropri Ã©
Ġpropor tion
er n
Ã¨ le
at titude
ac cÃ©
ĠM il
ĠA CP
Ġbr as
Ġsouff r
ĠtÃ©lÃ©ph one
Ġprim ordi
c Ã©s
m un
Ã© par
en cer
ĠPar ti
Ġins tant
ĠF ran
Ġsal le
Ã©diterran Ã©
G r
Ġl anc
Ġcomp let
Ġpubli Ã©
Ġsouh ai
auc une
ĠIn ternet
Ġmouve ments
Ġdiminu tion
h y
mi d
Ġvi vant
Ġmilli ard
Ġcandid at
Ġrestru ctur
li ance
Ġdev rais
Ġob je
Ġmen Ã©es
Ġlib res
Ġpens Ã©e
ĠdÃ©ci de
Ġajou tÃ©e
Ġavanc Ã©e
oug os
A R
Ġ we
ur de
oi tement
Ġre join
Ġcontinuer a
Ã©le ction
Ġactive ment
Ġmusul mans
Ġspect ac
M me
P T
R ien
ra lement
ten sion
Ġinter nes
ĠÃ©c ologique
ĠstratÃ© gies
ĠintÃ©g rÃ©e
Ġtch Ã¨que
ĠLond res
entiss age
m os
p ro
ort ent
ĠP our
onne ur
Ġvi ce
Ġvi vement
ĠdÃ©c ri
Ġprog ress
Ġprodu ctivitÃ©
Ġcontribu ables
Ġci b
Ġinv itÃ©
Ġnorm al
Ġsimil aires
Ġfall ait
d o
t ait
Ġ Qu
Ġpour rais
Ġ2 3
Ġes ti
ĠrÃ©p and
ĠrÃ©p Ã¨te
Ġcl Ã©s
Ġheure use
ĠdÃ©fic its
Ġscand ale
? "
Ġpas sion
ĠrÃ©du ctions
ĠÃ©ner gies
Ġtrouv ons
c ter
g Ã©di
Ġp il
al ent
ag nes
Ġmo tion
Ġcoop Ã©rer
Ġjou ent
ograph ie
ori z
Ġconsul t
ĠCro atie
ar g
lu sieurs
ĠgÃ©nÃ©r ales
Ġinvesti r
Ġdistribu tion
utri che
Ġsovi Ã©tique
Ġl in
in vite
Ġr usses
ch t
am i
Ġcont en
Ġpos tes
Ġexp l
Ġcomb in
Ġcommis sions
ĠaccÃ© lÃ©
Ġpap ier
Ġdes ign
lÃ¨ vent
Ġper Ã§
Ġinc l
Ġprotection n
Ġtour ner
Ġtax es
Ġreje ter
Ġallem ande
ĠÃ©lectr onique
Ġenreg ist
Ġbles s
Ġferrovi aire
in tes
Ġpo issons
Ġvi g
Ġcr ains
ig er
ĠprÃ©v oir
ĠsiÃ¨ ge
arrÃª ter
Ġjapon ais
N L
os oph
Ġre ten
Ġser ais
Ġop inions
ĠspÃ©ci al
Ġaugment e
Ġtent Ã©
Cert aines
ĠarrÃª ter
C A
c in
e k
on ais
si m
Ġdire cteur
Ġes c
Ġad hÃ©sion
Ġdemand ent
ĠÂ» ,
Ġexist ants
Ġatta ques
ĠrÃ©guli Ã¨rement
ĠprÃ©al able
Ġpsy ch
Ġphil osoph
Ġryth me
r om
Ġv ente
Ġg uer
Ġex amen
Ġpers uad
Ġinc ombe
Ġim ages
Ġress enti
Ġ199 6
Ġculture l
Ġinqui Ã©t
off re
Ġconver gence
Ġmach ine
C ombien
g entes
ar mes
Ġmon op
Ġtra gÃ©di
ĠdÃ©velop pÃ©
atri Ã¨me
anal yse
Ã© re
Ġc Ã©rÃ©
Ġr om
ch Ã©s
Ãª ts
ac ts
Ġac cident
Ġdis cip
Ġdire cte
ĠÃ©tr oitement
occu p
ĠlÃ©gi time
Ġouti l
m ission
Ġa p
Ġre mb
ĠP outine
Ã©r ences
Ġeng end
ĠrÃ©ussi r
Ġciv ils
ĠFin lande
es tement
an ais
as p
op portun
Ġb le
ĠA sie
Ġins pi
ĠT ED
Ġcommun iste
ĠG uerre
Ġemp Ãª
Ġarri Ã¨re
Ġsal u
Â» ,
ĠlibÃ©r aux
Ġindustri es
Ġenvoy Ã©
I S
r in
ra ction
Ġfor cÃ©
ĠnÃ©cess airement
ĠdÃ©t our
Ġclair s
Ġenvironnement aux
ess entiel
appro bation
Ġbre f
Ġtest s
ĠprÃ©sid enti
Ġincroy able
ĠproblÃ© matique
Ġs ti
Ġj eux
Ġfer ont
accord er
Ġriches se
ĠsupÃ©ri eur
Ġpromes ses
I D
t a
Ġ Uni
Ġt ox
Ġr ue
Ġv olu
ni versaire
Ġpo isson
int roduire
ĠT h
ass ent
oncer nant
ĠindÃ©pend ants
Ġespagn ol
l ine
u yer
Ġp ier
ch ons
Ġcon Ã§
co ol
Ġst able
Ġab us
Ġreconn aÃ®t
Ġparticip Ã©
Ġdiscu tÃ©
Ġsau f
Ġattend ent
Ġsec ret
Ġsug gÃ©
Ġsoule vÃ©
Ġexer cer
Ġtex tes
ĠvulnÃ©ra bles
ĠPro di
le urs
ĠÃ© lar
end ront
Ġfor Ãªts
Ġdonn ent
Ġdonn Ã©e
Ġsatisf aire
atri ce
Ġimag iner
Ġproven ance
Ġsurm onter
P lusieurs
qu ons
ĠdÃ© ri
os s
ĠÃ©v aluer
ĠrÃ©gion aux
Ġabord Ã©
Ġrend ent
ĠÃ©tudi er
Ġviv ons
v iennent
Ġc ad
or ce
or iques
Ġpour cent
fi ent
Ġimp ati
Ġapp orte
Ġquel conque
je un
aur ation
Ġloc al
Ġprofes seur
Ġpartis ans
Ġinten tions
ĠindÃ©pend ante
ĠdÃ©cen nie
Ġbureaucra tie
Ġcla use
E L
P as
g le
Ġp ilier
Ġt re
ĠÃ© loi
Ġb Ã©b
ĠprÃ© ven
Ġpoli ci
ĠÃ©t onn
ĠdÃ©p endance
Ġob s
Ġai mer
mis me
Ġv acc
Ġdire ct
Ġsoci alistes
Ġorganis Ã©e
ĠmÃ©r itent
av aient
lÃ© ter
Ġdire ctrices
Ġ2 2
Ġar r
Ġfer ait
Ġgra tu
Ã©rÃ© es
Ġfix Ã©
Ġpen cher
Ġexcell ente
Ġv erre
Ġconc ert
gu is
ong ro
Ġutilis ent
Ãī tats
Ġlang age
voy er
Ġhist oires
Ġpren ons
ĠCan ada
ĠC E
ĠprÃ© con
fi ant
ĠdÃ©c len
Ġop tim
isse ments
Ġfonc tions
ensi ble
ĠdÃ©mont rÃ©
Ġrur ales
Ġign or
Ġchale ure
Ġphras e
Ġdiz aines
s on
Ġm ac
al a
ais sez
ĠrÃ© els
ĠdÃ©p osÃ©s
Qu elles
Ġatt ribu
Ġouv rir
enf ant
Ġaltern ative
ĠcatÃ©g orie
Ġmultila tÃ©r
C oncernant
Ġp al
ist ant
Ġconsid Ã©rons
ĠÃ©tr ange
ĠÃ©ch app
Ġ201 1
Ġcomplex es
Ġtradi tion
Ġsimpli fication
Ġhonn Ãªte
encour ager
m Ã©e
Ġs oin
ur ants
Ġv in
Ġen d
Ġse mbler
Ġdi rais
Ġh y
Ġorient ale
Ġreje tÃ©
ĠÃ©lector ale
ĠdÃ©pl oy
Ġapparti ent
Ġden rÃ©es
o Ã¯
est ations
Ġin tention
acc ueil
Ġsoy ons
ĠSy rie
L eur
ar tÃ©
ĠM in
cu m
ĠE uropÃ©
Ġvie il
ĠstratÃ© giques
Ġremp lir
ĠdÃ©si r
amp leur
Ġinuti le
li f
ouv Ã©
Ġ? "
Ġcent res
Ġ199 5
Ġport ent
ĠÃ¢ ge
ĠRom s
ĠrÃª ve
in n
ĠrÃ© mun
Ġin vite
Ġg ard
end rait
Ġdis ons
Ġas se
ass in
Ġprom is
att ends
Ġconstru ctive
Ġdispos ent
Ġcontra ts
Ġterrit ori
Ġvit al
Ġpous s
dÃ©c ision
D u
l ait
Ġs aisir
oc ation
ĠB ro
Ġappr ouver
Ġsatisf action
ĠintÃ©ress ante
Ġjourn alistes
an di
Ġqu atriÃ¨me
Ġm Ã¨
Ġpar ad
la cement
Ġcha Ã®ne
ĠnÃ©goci er
Ġfai m
Ã©tique tage
Ġmutu elle
ĠcaractÃ©ris tiques
Ġisl am
Auc un
Ġsuscepti bles
Ġautomob ile
ĠfÃ©d Ã©r
Ġr ig
ter r
Ġmis sions
Ġsc Ã©n
Ġconseil s
Ġconfir mer
ĠcÃ© lÃ¨
adap ter
Ġchapit re
Ġc ab
ar c
Ġmo dÃ©
Ã¢ ts
Ġass is
ĠdÃ©f av
ĠdÃ©fin i
Ġpriv Ã©es
Ġsuc re
R O
s h
ti c
or gan
us ti
Ġin Ã©galitÃ©
Ġco dÃ©cision
ut ation
Ġann oncÃ©
Ġprodu isent
Ġmani p
Ġprin temps
imp oser
Ġsupp rim
att endre
Ġten sions
Ġterrit oires
Gr Ã¢ce
ĠscÃ©n ari
C omp
S es
b on
on iques
ar us
si ble
el ui
Ġaut onom
Ġinter institu
Ġseu les
acc roÃ®tre
Ġai me
mis tes
Ġport ug
Ġfisc ales
Ġconst amment
ĠentraÃ® ne
ĠÃ©vo quer
Ã ¼
en quÃªte
ien nes
Ġutilis ant
Ġgaranti ss
Ġopportun itÃ©s
ĠMex ique
Ġt ari
Ġr avi
Ġv ac
Ġv Ã©cu
eu ille
ĠM erci
Ġh ongro
tr oi
Ġconc rets
Ġes pÃ©rer
Ġrest re
ĠrÃ©alis te
Ġrenfor cÃ©e
ĠrÃ©c entes
Ġmas sive
Ġemploy Ã©s
ĠÃ©quilib rÃ©
ĠBel arus
Ġstock s
ĠrÃ© uss
at ur
Ġent am
Ġfin ale
ĠreprÃ©sent er
ĠmÃ©di ateur
Ġdou tes
ĠdÃ©g Ã¢ts
hab itude
Ġobstac le
Ġtransform ation
Ġf urent
ad resse
Ġcompr ennent
Ġca f
ass es
ĠI ran
Ġinc lure
Ġvis age
Ġprofessionne ls
Ġmanifest ations
Ġprison niers
an sion
le y
ar a
Ġv ain
Ġb us
Ġin vent
Ġne ttement
Ġh ui
Ġpouv ais
Ġfi er
Ġiniti ale
Ġdestin Ã©
appr entissage
cri re
entrepr ises
Ġsugg Ã¨re
A vez
v al
Ġl ait
Ġc uis
Ġle Ã§on
Ġen qu
ĠÃ© lus
ais ser
Ġpro ches
Ġtr oupes
ĠB ir
ist ent
Ġgouvernement ales
ĠvÃ©r itables
Ġsal uer
ĠrÃ©c ent
m en
ĠC om
Ġtrans at
ĠdÃ©b u
ĠdÃ©bat tu
Ġint roduire
Ġsensi bles
ĠdÃ©li b
ĠfrÃ© qu
ĠBos nie
d itÃ©
Ġs oleil
Ġaut oritÃ©
Ġtrans actions
ĠintÃ© gration
sie z
ĠgÃ©n Ã©
Ġmondi ales
Ġvir us
Ġs ites
Ġr ang
Ġv ague
ĠrÃ© vis
Ġpl af
ĠrÃ©p ression
Ġpass Ã©e
Ġrem Ã©di
ĠÃ©ch Ã©
Ġcompag nie
Ġpalestini en
b at
Ġf ant
ĠD Ã©pu
ĠbÃ¢ti ments
C on
Ġp Ã©r
our se
ra d
rÃ© g
Ġir an
inst ar
Ġconven u
ĠvidÃ© o
l ob
Ġpour riez
ri que
ĠrÃ© cu
end us
Ġac cessi
Ġac quis
Ġag gra
Ġconsid Ã©rÃ©e
Ġposi tives
Ġconstru it
ĠaÃ©ri ennes
Ġpolitici ens
de ment
Ġas pir
ĠlÃ©g ale
ing ton
Ġabs ten
Ġbr uit
Ġrepr is
Ġfort es
Ġmanif estement
Ġmor ale
Ġfourn isse
Ġcruci ale
Ġquotidi en
Ġf re
Ġen j
ens es
di te
Ġh Ã©r
Ġseu il
Ġcitoy enne
Ġindi c
Ġeng agÃ©
Ġpi Ã¨ces
ĠÃ©quilib rÃ©e
Ġaltern atives
Ġguer res
A pp
m ain
Ġt es
Ġmo tifs
Ã©ri r
ĠA r
Ġrep os
Ġdange reuses
Ġconsac rÃ©
Ġinten si
Ġabou ti
ĠsÃ©le ction
c Ã©es
i mb
Ġm orte
Ġf oi
oc troi
Ġpolitique ment
ĠB i
Ġad mettre
ĠrÃ©g ul
Ġsal aire
amende ments
Ġopp os
Ġconcr Ã¨te
Ġperman ent
Ġargu ment
Ġfal lu
ĠdÃ© te
ĠC ub
end rons
Ġh as
Ġser re
titu des
Ġter res
Ã¢ te
Ġindi que
Ġfut urs
arme ment
Ġrejoin dre
y e
it r
ĠP AC
Ġfr Ã¨re
Ġsuffis ante
ĠbÃ©nÃ©fici ent
Ã©m ission
Ġpron oncer
Ġsimil aire
Ġdomm ages
Ġquin ze
o tes
Ã¨ dent
Ġad ul
ĠT V
ĠG o
Ġcontr airement
Ġaccord Ã©e
Ġdou ani
Ġfix Ã©s
Ġuti les
Ġcontribuer a
Ġsor ti
Ġstri ctes
ĠmÃ©dec in
Ġprivil Ã©gi
Ġrig ou
E x
Ġre b
Ġsur vie
Ã©ra teurs
ĠpÃ©tro li
Ġappropri Ã©es
ĠvÃ©ri fier
Ġstim uler
ĠHong rie
Ġrece ttes
a w
i te
gn Ã©e
Ġconsid Ã¨rent
Ġconsid Ã©rations
ov ine
Ġmodern isation
g ences
m ine
Ġ Åĵu
an es
Ġin n
ag enda
Ġtr om
ain dre
Ġdev aient
Ġcl artÃ©
Ã® ner
ĠprÃ©sent ent
ĠreprÃ©sent ation
Ġappar aÃ®t
ĠprÃ©cÃ©d ente
Ġconst atÃ©
Ġquit ter
Ġpure ment
Ġbil an
Ġnaiss ance
Ġin ad
Ġan niversaire
Ġinstitu tionnel
Ġadop tÃ©s
ĠV I
Ġcontribu tions
Ġremercie ments
Ġis ol
Ġclim atiques
Ġordin ateur
dÃ©m ocrates
Ġexclu sivement
a us
l ers
Ġex ter
ĠrÃ©s istance
ĠA b
Ġvis as
Ġpersonne lle
Ġvoi es
ĠprÃ©v ues
inter prÃ©
Ġkil om
3 0
b all
Ġ )
or cer
Ġr h
Ġcon ne
ag Ã©s
ĠC I
iss ue
Ã©ri e
ĠdÃ©veloppe ments
Ġparticuli ers
Ġvis ent
Ġsouhait able
Ġref use
ĠentraÃ® nÃ©
ĠsecrÃ©t aire
L Ãł
Ġ ord
Ġc iel
Ġr ares
Ġvi de
ĠdÃ©c rit
cer titude
Ġag it
ĠI talie
ali mentation
Ġsc ol
Ġaffir mÃ©
ĠCong rÃ¨s
Ġlin guis
jeun er
is Ã©e
ar di
Ġr iv
au l
Ġac tif
Ġco eur
Ġman ge
ĠT om
Ã¨g es
Ġ19 6
ĠprÃ©v oy
ĠrÃ©c ents
Ġten ue
appr ouve
Ġth Ã¨mes
ĠIn de
Ġpati ent
ĠlimitÃ© e
Ġprogres sivement
identi tÃ©
Ġhyp oth
Ġsil ence
ĠprÃ©cÃ© demment
dem n
Ġbarri Ã¨res
A ut
en viron
Ġa Ã©rop
or ge
Ġpr enne
ĠprÃ©cÃ©d ents
Ġcomplex itÃ©
Ġrac isme
Ġdisponi ble
Ġatten tivement
L E
a jus
Ġs auv
Ġm ens
le ts
ĠÃ© largissement
Ġch em
for mes
ĠnÃ©g atif
ĠJ ohn
aff aires
Ġaccomp ag
ox y
Ġpromes se
Ġmic ro
Ġrequi ert
ĠremÃ©di er
E ur
ti ez
Ġpr endra
Ġen v
Ġan c
Ġst y
Ġdoi g
ĠdÃ©mocra ties
Ġindi re
Ġsoutien nent
ĠsÃ©rie use
ĠÃ¢ gÃ©es
Ġeffectu Ã©
ĠintÃ©g rer
ĠÃ©cou ter
ĠillÃ©g ale
Ġmac ro
lif Ã©ration
En tre
Ġrec ourir
ĠCh inois
Ġbon heur
ĠO r
Ġappli quÃ©es
Ġsubst ance
Ġenvoy er
Ġus age
Ġdistin ction
ĠBer lin
Ġafric ains
C elui
O L
ent ra
ur ie
ĠdÃ© ten
Ġin former
Ġcon forme
ro issement
Ġcomp ati
Ġmin oritÃ©
intÃ© rÃªts
Ġtent atives
Ġopp osition
ĠÃ©n ormes
Ġmor ce
Ġperman ente
Ġengag Ã©s
ĠmaÃ® tr
G M
l air
Ġb omb
ĠrÃ© ag
Ġsu it
Ġdev riez
um Ã©
Ġbas Ã©
Ġinstitu tionnelle
Ã©conom ique
Ġconsci ent
Ġconvainc ue
Ġproven ant
Ġlac unes
lova quie
ĠÃ© par
ag Ã©es
el l
Ġcons enti
Ġcro issant
Ġoblig ation
Ġmauvais es
Ġmat hÃ©
Ġnum Ã©ro
ĠX X
Ġcommuni quer
ĠsuÃ©d ois
Ġlon gues
Ġaffai bli
ĠmÃ©m oire
ĠtragÃ©di e
I s
Ã Ĭ
Ġac cidents
ad dam
Ġcontr aintes
ĠdÃ©s accord
Ġsuiv antes
Ġdestin Ã©e
Ġoccident ale
Ġarti cles
Ġphot os
instru ment
Ġa j
ĠdÃ© rog
ĠM ont
Ã©ri ques
ĠÃ©le vÃ©es
ca sions
tif ie
ĠdÃ©ci d
ĠmÃ© pr
Ġjeunes se
Ġcontra di
Ġunivers itÃ©s
Ġciv iles
Ġprovo quer
Ġconvi ction
ĠrÃ©di gÃ©
ash ington
Ġinstall ations
E tat
I ci
g rer
v ait
Ġle ver
Ã¨ tent
Ġin ond
am our
Ġent housias
Ġimp Ã´ts
ĠrÃ©s ol
Ġren vers
Ġcol Ã¨re
Ġmont agne
Ġ3 1
Ġcommen cent
Ġnature lle
ĠsÃ»r s
Ġabs olue
Ġimpli quer
Ġformul ation
Ġmag ni
ĠcatÃ©g ories
ĠdÃ©finiti ve
e tte
g Ã¨ne
h onorable
ou l
er ont
un di
Ġt ente
Ġdu re
ul sion
ĠPar is
ate l
Ġinc lu
ĠÃ©ch ouÃ©
ĠreÃ§ oivent
appr endre
Ġpourcent age
ĠinÃ©galitÃ© s
F in
r op
Ã© vent
ĠdÃ© tri
ĠprÃ© te
Ġpos ent
Ġop tion
Ġsign es
ĠW ashington
Ġparf ait
Ġpous ser
atta quer
ĠdÃ©cla rer
Ġv ent
ĠÃ© cole
Ġtr iste
app ui
Ġmon Ã©taires
Ġcl andes
Ġeng ager
Ġappli quÃ©e
Ġvolont aire
Ġautom atique
Ġopportun itÃ©
A F
ais ons
os sÃ©
ap es
Ġjus tifie
dui ra
Ġrenfor cÃ©
Ġproch ains
Ġmer c
Ġsoule ver
Ġsurpr is
Ġreligi eux
ĠdÃ©cla re
Ġpr ends
Ã¨ lement
Ġcon ventions
ui te
Ġgar Ã§on
Ġ3 5
ĠpÃ©ri odes
Ġreconnaiss ant
Ġindivi d
Ġrefus Ã©
Ġmultip li
expli quer
Ġressor tiss
ĠCub a
Ġhas ard
g ure
ar ch
Ġv ot
Ã¨ tement
ont r
ĠÃ© pr
as tique
Ġpar c
la h
orte ur
alis Ã©es
Ġlib Ã©ration
Ġrest era
Par mi
ĠdÃ©s Ã©quili
oph ob
Ġrou tes
organis er
Ġchinois e
Ġfroi de
commun ic
A g
g in
Ġ er
Ġs ages
Ġm ol
Ġdev ienne
Ġrec y
Ġ3 00
Ġ% ,
ĠrÃ©c onc
Ġaccomp lis
Ġsouff rent
Ġadministra tive
Ġcherche urs
Ġcaf Ã©
ĠdÃ©tri ment
e ctu
r ans
Ġpar cour
Ãª tres
Ġtrans mettre
imp ose
ĠrÃ©c omp
ĠmÃ© l
Ġur gence
Ġgag nÃ©
Ġbat aille
ĠÃ©qui p
Ġdeven us
ĠÃ©lab orer
Ġara bes
ĠpÃ©ti tions
al cool
Ġ2 9
Ġcr aign
Ã©v aluer
gr ants
Ġimpli quÃ©s
Ġstructure lles
Ġexist ant
dis ant
ĠdÃ©mont re
ĠrÃ©tab lir
Ã©par gne
V otre
k e
w an
Ġfer ai
ront er
oli que
Ġexpli que
Ġsouten ue
Ġaccomp lir
arri ver
ograph iques
Ġache tÃ©
Ġpen sions
Ġesti ment
ĠBir manie
Ġf lo
ter re
Ġ2 8
ĠdÃ©c ouver
ang lais
Ġad hÃ©
Ġop tions
ĠrÃ©g ulation
Ġchar ges
ila tÃ©rale
Ġsurpr ise
ath ie
Ġpermettr ont
Ġnum Ã©rique
Ġtex ti
excel l
ĠTV A
Ġd ram
Ġp orts
Ġf assent
Ġen ce
Ġg asp
os c
Ġch at
Ġmo ments
ĠdÃ©p asse
Ġinter diction
Ã©c ou
Ġz Ã©ro
Ġchar bon
Ġhist oriques
Ġanci en
Ġdiplom atie
Ġpuiss ances
O C
a que
v res
en vis
Ã¨ tre
us tra
me mbre
Ġpl antes
di tion
Ġex trÃ©
Ġdro gues
Ġtravail lons
ĠprÃ©sent Ã©s
Ġconsac rer
anci enne
ĠÃ©m o
Ġengag Ã©e
v age
Ġd an
Ġen ne
Ġpl ate
gu Ã©
Ġrec ul
pu le
Ġbr Ã»
Ġopp osÃ©s
ess ayer
ĠÃ©vÃ© nement
Ġcrimin els
Ġamen er
ĠcÃ©lÃ¨ bre
v oir
en sions
or g
or tÃ©s
tÃ© n
ure au
ge ant
Ġmarch er
Ġmet tant
Ġass istance
ĠdÃ©f end
Ġatt ent
ĠlÃ©gisl ations
Ġopp osÃ©
ĠpÃ©n ale
Ġquali fiÃ©e
Ġpron onc
h ier
l ue
o ts
Ã ³
Ġf Ãªte
Ġpr ag
at aires
ĠÃ©t apes
ĠA ra
ĠÃ©conom istes
ĠdÃ©b ar
Ġexp lo
tin ation
Ġform ule
ĠtÃ©lÃ© communic
Ġconfir mÃ©
Ch ac
ĠmatÃ©ri el
Ġcoord onner
Ġfo ot
Ġsalari Ã©s
ĠÃ® les
A D
l ites
u ve
Ã Ń
Ġin forme
Ġsur p
Ġcont acts
Ġser ai
Ġ2 6
Ġcr aintes
Ġfond Ã©
Ġatte inte
Ġir landaise
Ġexpli cation
Ġfran ch
Ġven ons
20 1
ĠdÃ©pend ent
ĠLib an
univers itÃ©
Ob jet
Ġchaleure usement
n on
le m
ĠC ela
se urs
Ġprop ag
ĠB ureau
em ark
Ġfer mer
Ġfondament alement
Ġenvironnement al
Ġpol onais
Ġbienven ue
T el
o quer
Ġm ille
Ġm Ã©diterranÃ©
Ġr amen
si fication
Ġj oin
Ġcon nex
Ġco ali
ang ers
Ġst and
velop pe
Ġag rÃ©
Ġutilis ateurs
Ġris quent
ĠV er
att end
orm Ã©ment
Ġsign ature
Ġchar gÃ©
Ġten us
Ġdiscu tons
Ġjeu di
Ġrefus er
Ġtemp Ã©ra
orient ation
Ġdictat ure
imb ab
me ts
Ã©t endre
ĠG en
Ġappel er
Ġimm ob
ĠbÃ©nÃ©fici aires
Ġall ant
Ġvicti me
Ġcrit Ã¨re
Ġaffir mer
Ġjourn al
Ġpalestini enne
Ġdyn am
Ġmig r
Ġsac ri
Auc une
Ġambi tions
ĠDan emark
Ã´pit al
k o
Ġc re
and a
Ġgr andi
Ġense ig
Ġtranspar ente
ach at
Ġven ue
Ġpartage ons
Ġsimpli fier
ĠBel gique
Ġobserv ations
Ġappare mment
Ġcontro vers
O S
Ġp age
est er
Ġdu quel
Ġre viend
Ġli eux
ĠL uxemb
ĠÃ©le vÃ©e
Åĵ il
ĠrÃ©c ol
Ġidenti tÃ©
ĠarrÃª tÃ©
ĠBal tique
Ġdiplom atique
infrastru cture
A s
Ġde ttes
or p
ab and
ĠM ad
ĠdÃ©c ent
Europ ol
Ġmani Ã¨res
ĠgÃ©nÃ©r aux
Ġcontribu ent
Ġexpli quÃ©
ĠlibÃ©r al
Ġsan ction
Ġaffir me
Ġdomm age
mÃ©di aire
Ġvolu me
Ġp ont
in vesti
Ġr ay
si ques
Ġpr ouver
Ġre con
Ġme tte
gn ent
intÃ© gr
ĠbÃ©nÃ©fici e
Ġrappel Ã©
Ġindustri els
ĠÃ©n ormÃ©ment
Ġmor al
Ġdist ance
Ġmoder nes
Ġtempor aire
Ġrestructur ation
L aissez
is ons
ur b
Ġv illage
Ġdi v
am Ã©ric
iv er
Ġconf usion
Ġesp Ã¨re
Ġoc casions
Ġconstru ctif
Ġlibre ment
Ġsembl ait
Ġsp or
Ġtermin Ã©
T ant
i des
in ts
Ġtr ente
tr Ãªme
ĠS addam
Ġacc orde
Ġaccord Ã©
Ġass ure
Ġvie ille
Ġentrepr en
Ġrecher cher
Ġfac ilitÃ©
Ġpor tÃ©
Ġdossi ers
Ġalli Ã©s
Ġmusul man
Ġtribun al
ĠLuxemb ourg
A t
H eure
g enti
en n
en tique
Ġm ourir
ur g
ĠdÃ© tÃ©ri
ĠrÃ© cip
Ġdi rai
Ġman quer
Ġins pe
Ġfor um
pÃ© rÃ©
ĠK h
tÃ©ri eurs
Ġdispar u
Ġhandicap Ã©es
apprÃ©ci e
ĠCom itÃ©
m ann
Ġl ai
Ġa jus
Ġau teurs
ĠdÃ© r
lÃ© b
isi ble
ĠdÃ©bat tons
Ġmal ade
Par allÃ¨lement
ĠV an
lon e
eff ort
ĠrÃ©c la
ĠbÃ©nÃ©fi ce
ĠprÃ©f Ã¨re
Ġconfront Ã©e
Ġpat rim
Ġprud ence
oubli ons
Ġbreve ts
ĠÃ©du c
e y
ti er
ti Ã¨me
Ġf ati
ch Ã©e
Ġre met
Ġpl aintes
ff aires
Ġch ans
ir ait
ĠS ommet
ĠS lovaquie
Ġfor mer
Ġar b
je urs
Ġma jeurs
Ġvoud rions
ĠD o
Ġgaranti t
Ġformul Ã©es
Ġhau tement
Ġconvainc us
Ġtend ances
Ġsoum ise
Ġbate au
Ġincont est
f ait
ou ff
Ġm ine
me urs
itÃ© e
Ġsur ven
Ġdi agn
mb lement
Ġcour se
ras ser
Ġmul tination
Ġfisc aux
Ġstim ul
Ġobserv ateurs
ougos l
Comp te
ĠÃ© larg
ci tement
vi dence
intÃ© grer
Ġdur ables
inc lusion
Ġsenti ments
Ġcamp agnes
Ġoubli Ã©
Ġfabri c
ĠmÃ©dec ins
Ġsoy ez
Ġtribun aux
gle terre
A S
or iste
vi endra
Ġju ger
Ġmanif este
Ġciv ilisation
Ġprovo quÃ©
Ġjuge ment
T elle
Ġl ou
Ġt onnes
us age
ĠrÃ© form
ati vitÃ©
lÃ© naire
ĠD ar
ili ers
ĠK ar
Ġbi odi
ĠprÃ©c ises
Ġten ant
alesti ne
Ġoffici elle
Ġtable au
adap tation
Ġmultip les
Ġcontent er
Ġeth niques
ĠMac Ã©d
cy cle
Ġbiodi versitÃ©
k istan
Ġm Ã¨ne
Ġv rais
Ġpar lent
Ġtr omp
ĠP alestine
ĠprÃ©sent Ã©es
rib uer
Ġbi ologique
Ġviol ences
Ġcolle ctive
Ġsurve iller
Ġcouv rir
ĠÃ©lab orÃ©
ĠÃ©cri te
Ġrare ment
Ġrappro cher
l y
Ġd os
Ġa gi
Ġe au
ar itÃ©s
si ves
tÃ© ralement
Ġre mis
Ġsou lÃ¨ve
Ġvi able
Ã©c ri
rai ni
ĠN ice
ĠnÃ©g ative
Ġinform Ã©s
Ġfra g
ribu tion
Ġresse mbl
Ġsin on
don Ã©
d ans
ar ra
it h
as tri
au tion
Ġent our
aut o
gi ci
tionne llement
Ġexig er
Ġrecomm ande
Ġconst ante
Ġatta que
ĠÃ©lab or
affir mer
Ġfroi d
Ġintellectu elle
Ġsyndic ats
ĠnÃ©er landais
ĠFran Ã§
Ġm Ã¨tres
onn Ã©s
mi cycle
ĠdÃ©c Ã¨s
Ġrec ueil
Ġai m
Ġchac une
Ġsor tie
Ġtradi tions
Ġjourn aux
Ġsex uelle
ĠcÃ© lÃ©b
Ġtradu it
ĠVI H
ĠtÃ©lÃ©communic ations
Ġcoali tion
ti fication
Ġt uer
Ġconc rÃ©ti
ĠS ol
Ġ. ..
ĠT unis
Ġrespec tÃ©
inst auration
Ġparven u
Ġprofond es
Ġindividu els
Ġisl amique
n am
Ġs Åĵur
ar s
il lÃ©
ĠÃ© man
ci dence
res pons
Ġtou cher
ĠÃ©c ar
Ġculture lles
Ġrespect ent
Ġloc ale
Ġall ou
Ġsensi b
Ġtomb e
Ġbat tre
Ġplac er
Ġaband onner
ĠsystÃ©matique ment
Ġfail lite
Ġvac ances
Ġer ron
Ã© mer
Ġe m
is tr
ĠrÃ© duite
Ġcon cevoir
Ġconc ret
ist ons
Ġcro it
Ġop Ã©rateurs
Ġfer ons
Ġsub ir
endu es
Ġesp Ã¨ce
Ġouv re
Ġlo gici
ĠpÃ©n al
oise aux
ĠLib ye
Ġreligie uses
Ġinterinstitu tionnel
Ġressortiss ants
Ġpatrim oine
R Ã©
Ġs ois
an o
ĠdÃ© jeuner
Ġpl ur
Ġsu pr
Ġent rÃ©e
Ġappli quÃ©
ĠdÃ©cisi onne
Ġjudici aires
Ġavanc Ã©s
Ġespagn ole
Ġconsoli dation
excel lent
opportun itÃ©
astri cht
Ġf ossÃ©
Ġpar allÃ¨
ĠprÃ© cieux
Ġtra duire
Ġpos Ã©e
Ġfa Ã§ons
ĠE spagne
oli tique
Ġindi quer
Ġabs urde
ĠlÃ©gi ti
Ġconfir me
cl av
ĠMa astricht
mos phÃ¨re
ĠprÃ©te xte
Ġun ion
ĠÃ© tique
as sion
bli c
ĠA u
ĠdÃ©m ographique
Ġpass ent
ĠdÃ©s es
Ġorganis er
Ġsus citÃ©
Ġcommunic ations
ĠgÃ© ographique
ĠTrai tÃ©s
Ġpie ds
ĠZ imbab
ĠsuÃ©d oise
Ġlic enci
ougosl avie
C elle
k in
Ġ Un
qu ait
Ġf en
il li
Ġcon j
de v
ro b
Ġav oc
Ġex ception
Ġpa re
Ġrapp roche
Ã´ tre
Ġcomme t
Ġter rib
Ġter rible
Ġexp osÃ©
Ġrep rodu
ĠL itu
Ġag ence
Ġpass ant
Ġdou b
ĠW al
Ġdestin ation
Ġconcent ration
chite cture
effond rement
Ã©limin ation
occup ation
ÃĬ tes
A fin
c ar
e b
Ġp air
in i
in v
Ġex cÃ©d
aut om
Ġpu issant
ise z
Ġar me
Ġtot alitÃ©
Ġinvestisse ment
Ġcontra diction
Ġexcessi ve
Ġsuscepti ble
Ġrecy cl
Ã© lab
Ġl entement
ĠrÃ© d
Ġg enti
ac qu
ac cident
Ġil li
ĠS a
Ġam us
Ġcli ents
ĠdÃ©pens er
Ġ201 2
ĠdÃ©couv rir
Ġprofonde ur
autoris ation
Ġcitoyenne tÃ©
A ux
s titu
Ġp un
Ġs atel
di cation
Ġch aud
Ġcont amin
Ġti ennent
Ġatt ra
Ġarri vÃ©s
Ġgra vitÃ©
Ġremp li
Ġfisc alitÃ©
Ġsim ul
Ġcompens ation
Ġpours uit
Ġpier re
ĠEuropÃ© enne
ĠMacÃ©d oine
S oy
g a
Ġ [
ai lles
Ġm ass
ĠrÃ© sid
Ġre cti
Ġpro fi
Ġch rÃ©tiens
Ġcomp assion
ĠB en
Ġdur abilitÃ©
atis ation
att ra
Ġ199 4
Ġessay ons
reg istre
Ġfaibles se
Ġsignific atif
Ġtol Ã©rance
Ġfonde ment
Ġnav ig
ĠTch Ã©t
Ġtrom pe
m Ã©s
Ġl ende
Ġje ter
av ance
Ġsci ences
Ġinst amment
Ġunivers el
Ġdange reuse
Ġfeu ille
ĠspÃ©c ul
Ġkilom Ã¨tres
an gi
si fs
Ġdi ct
Ġex am
Ġave ug
dÃ© rale
Ġbi bli
ĠsÃ» rement
Ġcomb usti
Ġri di
ĠprÃ©f Ã©rÃ©
Ġexamin Ã©
Ġinqui Ã©tude
Ġarti fici
ĠÃ©cou tÃ©
Ġign orer
ĠprÃ©t end
Ġitali en
Ġclari fier
Ġinjus ti
Autre ment
ĠÃ©lar gie
ĠrÃ© ve
Ġch auff
Ġdi vision
ex er
Ġai d
Ġfr us
Ġretr ouve
Ġtouch Ã©s
Ġsouhai tÃ©
ĠdÃ©fav oris
A utriche
Ġd angers
Ġp ert
ti ers
as pect
ĠM old
Ġme urent
pe au
Ġh armonisation
ex ception
Ã©c us
Ġarri vÃ©e
Ġadmin istration
ĠprocÃ© dÃ©
ĠmÃ©dec ine
Ġpan ne
Ġcollab orer
Ġbo Ã®
Ġprimordi al
interprÃ© tation
ent ends
Ġf orts
Ġad resser
Ġti ss
Ġmin i
olo gues
Ġvis a
Ġrenfor ce
occu per
urr ence
tis me
ĠprÃª ter
ache ter
Ġobjet s
ĠbÃ©b Ã©
ĠMin istre
. -
I C
Ġ x
ac tiv
oc Ã©
ins titution
Ġinter dit
fin i
Ġcar tes
Ġren oncer
Ġsupp orter
Ġcapit alisme
Ġdirige ant
ĠsiÃ¨ cles
Ġfl ot
Ġdipl Ã´
Ġsurpr enant
Ġoct roy
ĠRom e
ĠfÃ© min
Ġquasi ment
ĠÃ©limin er
Ġp ension
ar gu
it age
Ġt as
Ġen n
Ġpar al
Ġb aisser
ĠÃ©g al
Ġdiff usion
ĠD av
Ġpropos ons
Ġarri vent
ĠprÃ©occu pe
In ternet
Ġindispens ables
Ġdim ensions
Ġmag as
Ġtrou bles
Ġsatisfais ante
Ġstab ilisation
ĠUni es
Ġmagni fique
ocÃ© an
% .
O R
c op
c iter
l ot
Ġv ues
Ġun ani
ĠdÃ© truire
os itÃ©
ag isse
Ġimp arti
oc t
ex tension
Ġconstitu Ã©
ali b
Ġrest aur
Ġcour te
Ġprom et
Ġinform Ã©
Ġobser ver
Ġcondam ner
Ġcroy ons
Ġlab or
Ġapprofondi e
ĠgÃ©nÃ©tique ment
Ã©lab orer
Ġl oy
Ġl ancement
Ġqu arti
ra pp
ouv ons
Ġex ister
Ġimp osÃ©es
ĠB lair
eff ectu
Ġcomb ler
Ġbr ill
Lors qu
Quel qu
Ġcompar aison
Ġordin aires
anim aux
Ġconsoli der
Ġespoir s
Ġbreve t
ĠrÃ©cip ro
Ġdiagn osti
S V
g en
h ol
h yp
i eux
r ain
ri d
ĠrÃ© actions
Ġg el
Ġimp ose
Ã©n ormes
ĠdÃ©p asser
Ġconsid Ã©rÃ©s
Ã©ra p
Ġass istÃ©
oli e
ĠdÃ©cisi f
Ġ7 5
Ġanti cip
Ġrac onter
Ġplani fication
ĠimpÃ©ra tif
ĠscÃ©nari o
ĠLitu anie
u ie
v rer
ou b
om e
Ġne tt
ex trÃªme
imp osition
Ġgrande ment
Ġcomment aire
Ġrap ides
Ġri vi
Ġferme ture
Ġretour ner
Ġhuman itaires
ĠspÃ©cifique ment
ĠÃ©cri re
Ġnomm Ã©
ĠaÃ©rop orts
r its
u a
en registre
Ġs ond
Ġr ub
Ġcon Ã§u
Ġh Ã©s
Ġaut rich
Ġmain tes
Ġor al
Ã©ra le
Ġmont Ã©e
Ġsub i
Ġsub vention
Ġfonction nent
Ġsigni fier
Ġimpli cations
Ġanim al
Ġcouv re
ĠSu isse
pir ation
Ġfru ctu
accomp ag
Ġcinqu iÃ¨me
ĠDo ha
ĠTunis ie
E R
m Ã©t
p rÃ©s
ou re
Ġm uni
om in
Ġj amb
at ures
ĠM e
pe c
av ions
ĠdÃ©p lor
ĠL i
exp erts
Ġrespe ctu
Ġdou leur
Ġbure aux
Ġ15 0
Ġvoul aient
Ġcou leur
Ġcondam nÃ©
Ou est
Ġorgan e
ĠsÃ»re tÃ©
Ġfront ali
Ġenqu Ãªtes
Ġbibli oth
h onneur
Ġpar viend
res sions
omm age
Ġper p
ex ig
ĠR usses
Ġcar riÃ¨re
Ġpubli cation
Ġemp Ãªche
ĠpÃ©ri ph
ĠcÃ´ te
Ġculture ls
Ġmodi fiÃ©
Ġchar te
ĠsÃ©rie uses
tÃ©r itÃ©
Ġpoursui v
atri ces
Ġexprim Ã©es
Ġsex e
oz y
ĠCol omb
Ġinn oc
Chac un
A c
b ie
Ġn ul
Ġcon vers
Ġpro vis
Ġdev ions
Ġh oriz
lÃ¨ vement
Ġapp ort
Ġti endra
ĠN o
ĠrÃ©sul te
Ġnu lle
ĠrÃ©for mer
Ġparticip ants
Ġrev Ãª
hi p
Ġestim ations
ĠcrÃ©di ble
indi vi
ark ozy
Ġsurvi vre
ĠdÃ©sÃ©quili bres
I m
Ã ¤
en voyer
Ġc os
ĠÃ© ducation
ce lone
Ġb our
ag eux
ĠP e
and s
ĠprÃ© cip
Ġmar quÃ©
ĠD i
ĠnÃ©g atives
Ġadop te
ĠdÃ©s olÃ©
Ġlais sez
Ġcontra t
Ġcomporte ments
Ġcolle cte
ĠÃ©lectr oniques
ajus tement
Fin alement
ĠZimbab we
Ġmass ac
Ġlende main
Ġdes que
Ġqui conque
ex tra
ĠT i
ĠrÃ¨g ne
ĠE st
ĠÃ©c ologiques
Ġpersonne lles
ay e
ĠprÃ©v isions
Ġtechnolo giques
Ã¯ n
lo re
ha us
ĠdÃ©tail lÃ©e
Ġcorre cte
ĠdÃ©mont rer
ĠmatÃ©ri aux
Ġbanc aires
ĠexpÃ©ri ment
oud an
Ġconserv ateurs
s te
s ki
Ġch asse
av Ã©rer
ĠprÃ© m
ĠÃ©t endre
ense z
lu b
Ġrel ancer
Ġmont er
Ġmesure r
ĠspÃ©ci ale
ĠMar oc
Ġapplic ables
P ouvez
l ing
l aud
Ġs it
Ġpro je
ul aires
Ġo cÃ©
Ġmais ons
Ã©n ophob
ĠÃ©g ards
Ġti re
dÃ© bat
Ġcol on
Ġfisc al
Ġdispar aÃ®tre
avi ation
Ġquanti tÃ©s
Ġabou tir
Ġbel ge
Ġdiscip line
Ġtransat lantique
Ġx Ã©nophob
o o
Ġm ou
Ġr av
est es
au di
Ġin gÃ©
ir ont
ord anie
Ã©c art
Ġfor mid
Ġ19 4
Ġ4 00
Al liance
Ġno ter
Ġappel ons
ĠfÃ©lic itations
ĠdÃ©g ra
Ġordin ateurs
Ġtraite ments
ĠÃ©vid ente
Ġphilosoph ie
Aut oritÃ©
Ġinond ations
ĠconcrÃ©ti ser
9 9
l aire
Ġdu e
ag o
ab ou
Ġav ance
Ġmar gin
Ġins crit
Ġpouv ant
atis me
ĠO GM
Ġmort alitÃ©
Ġven ez
ĠBar celone
Ġobten us
Ġreje tte
ĠÃ©vent uellement
ĠÃ©mer gents
Ġrent rer
Ġenreg istre
Ġrasse mbler
Ġaffe ct
Ġprior itaires
Ġjoin dre
C S
C ontr
N ombre
on ge
in o
it ar
Ġf lu
pp e
ces sions
Ġser vent
ap h
ĠrÃ©p Ã©tÃ©
Ġsav ais
Ġgar s
Ġcha uss
Ġconn ue
Ġutilis ons
Ġparticip ent
ĠsÃ© jour
aur a
chÃ© nie
Ġconstat ons
ĠaÃ©ri enne
Ou tre
Ġmob iliser
Ġsatisfait s
actu alitÃ©
ĠprÃ©ju di
Ġprotectionn isme
Ġadul tes
Ġfoot ball
ĠTchÃ©t chÃ©nie
z ar
Ġ Une
ĠP SE
Ġapp uy
Ġnom in
Ġcr ainte
Ġti rÃ©
Ã® le
eff orts
ĠindÃ© pendance
Ġfix e
Ġprov in
Ġdist or
Ġpren ant
roÃ® t
Ġval able
Ġquotidi enne
ĠcomplÃ©ment aires
ĠbilatÃ©r aux
Ġbu lle
ĠrÃ©sol us
Ġen vie
op or
Ġg agn
Ġdi gne
Ġins istÃ©
Ġfor Ãªt
Ġcr oient
ob b
ĠdÃ©m ission
Ġti tres
Ġmont ants
Ġprof its
Ġentrepr is
Ġinc lus
ĠspÃ©ci alement
Ġpoin te
ses sion
ĠÃ©tab l
appr ouver
Ġaffir m
Ġdevoir s
Quel ques
Ġconcr Ã¨tement
ES B
Ġposs Ã¨dent
Ġvig il
Ġterritori ale
c urrence
es se
Ã© lor
Ġc ouverture
ri ques
Ġb ran
Ġre gr
ro its
av ancer
gi le
ail l
Ġtrans mis
Ġag ents
ĠdÃ©mocra tisation
Ġaff i
Ġph arm
Ġret ards
ctu ellement
sra Ã©li
ĠprÃ©f Ã©rable
Ġoccu pe
Ġrati fiÃ©
Ġcompli quÃ©
ĠrÃ©vÃ© lÃ©
ĠmÃ©n ages
Ġdevi endra
Ġflo tte
E I
al er
Ġj ui
ul Ã©
En core
Ġdom es
Ġfais aient
ill ages
import antes
ĠrÃ©glement aire
Ġsouff re
Ġsp ati
inst abilitÃ©
Ġfu sion
Ġsignal Ã©
ĠadÃ©qu at
Ġ198 0
Ġtradu ction
Ġsauve tage
Heure usement
Ġ Ċ
in verse
ac quis
vi ens
Ã§ a
Ġren v
Ġpart agent
Ġca mps
ĠlÃ©g Ã¨rement
ĠnÃ©g atifs
Ġdonner a
Ġappel Ã©e
Ã©le vage
ĠIn ter
investisse ments
Ġassoci Ã©s
inqui Ã©tude
Ġbate aux
ĠhÃ© las
n is
Ġb ande
Ġpl uri
Ġimp rÃ©
ĠrÃ©s umÃ©
gn Ã©s
Ġren f
ĠN iger
Ã¢ che
ature llement
Ġsoli des
ak h
atri Ã¨mement
ĠprÃ©cÃ©d entes
Ġveil le
Ġmess ages
Ġtransfrontali Ã¨re
Re garde
Ġeth nique
ĠFranÃ§ ais
Ġre lÃ¨vent
ag gra
Ġdire cts
ĠdÃ©p loi
og le
ari ats
Ġport es
ĠintÃ©ress antes
Ġinv iter
Ġcer cle
Ġchinois es
aÃ¯ ti
ĠCe tte
Ġemploy eurs
Ġfrapp Ã©
Ġamen Ã©
Ġreligie use
Ġleaders hip
ĠintÃ©gr ante
ĠrÃ©conc iliation
j ac
Ġ om
Ġn orme
in certitude
Ġf it
itÃ© es
Ġces sÃ©
Ġapp ui
Ġnom ination
Ġdonn ant
Ġinc iter
Ġsecon des
Ġdispar ition
ĠU kraine
Ġfabri cation
Ġambi gu
Ġsaur ait
Ġsages se
S e
Ã© vidence
Ã¨ ques
Ġpar viennent
ĠM M
Ġdev ise
Ġad mis
Ġvoud rait
ĠD ub
Ã©conom iques
ĠsÃ© p
Ġatte ints
Ġtour ne
Ġexpli cations
Ġten ons
Ġanim ale
Ġouver tement
Ġestim Ã©
Ġtort ure
ĠaccÃ©lÃ© rer
ĠDÃ©pu tÃ©s
Ġmultination ales
h o
y a
es c
an ou
ch nolo
mp ing
ens itÃ©
ĠM ich
Ġcomp lÃ©ter
ĠS arkozy
Ġsoci o
Ġtravail lant
ĠG ol
ĠN on
Ġass ister
Ġatt ach
exp rime
Ġrem ise
Ġsuiv ants
Ġtu Ã©
Ġcher chent
Ġstructure lle
Ġassur Ã©ment
ĠsÃ©par ation
Ġlead er
Ġuni forme
Ġprogres sive
Ġralenti ssement
Ġmerveille ux
arg o
Ġplaf ond
Ġattent ats
H ier
f our
Ġs aine
Ġt ap
ĠrÃ© ac
Ġch o
Ġtou chÃ©
Ġav Ã©rÃ©
ĠA ffaires
Ġpouv ions
Ġrest aurer
Ġterr oriste
Ġeffe ctive
Ġpoursui vi
Ġsol aire
Ġconcep ts
ges tions
ĠÃ©vent uelle
Ġdiver gences
Ġtransfrontali ers
Ġiss ue
Ġwe b
euille z
Ã©mer gence
rapp orteur
A ctuellement
N aturellement
ne ls
ci euse
ra di
Ġin effic
Ġch anti
ouv re
Ġsu ici
Ġav ion
Ġdev ises
ĠT ib
Ġsav ait
ĠD onc
Ġinc endi
Ġdemande urs
ĠdÃ©fin is
Ġci ble
Ġtransf erts
Ġconser vation
Ġjudici eux
ĠprÃ©p are
Ġvendre di
Ġcorri ger
ĠforcÃ© ment
intÃ©gr itÃ©
I N
Ġ oiseaux
Ġs Ã©cur
ĠÃ© mis
Ġin du
ouv ant
av ion
ap acitÃ©
Ġmar quer
ace u
Ġfi ables
Ġche ve
Ġsuffis antes
Ġimm ense
Ġexig ent
Ġvoter ons
arri vÃ©e
opp ose
Ġpotenti ellement
Ġgros se
Ġminist Ã¨re
Ġpren ez
Ġpuiss ants
Ġimmi grÃ©s
ĠfÃ© dÃ©rale
Ġsouffr ance
Ġrh Ã©t
ĠdÃ©bar rasser
m ir
Ġ Q
es tim
Ġf ossi
Ġh eur
onn Ã©es
Ġins iste
ĠrÃ©p utation
ver gure
ĠH usse
Ġaccep te
Ġoblig atoires
lisse ments
Ġsug gestions
Ġoccu per
Ġfig urent
Ġsouv iens
Ġlour de
Ġgrec que
Ġproc ure
Ġimpati ence
genti ne
Ġchans on
Ġrecycl age
exer cer
Contr airement
sraÃ©li ens
E T
t oi
ent rer
Ġle vÃ©e
Ġv entes
op Ã©ration
ĠrÃ© tic
ĠC o
ĠP N
Ġav ancÃ©
ces seur
Ġsou l
oc u
ĠS te
Ġar rÃªt
ĠcrÃ© ant
ĠF is
ĠgÃ©n oci
Ġfr anc
ĠD ans
Ġmin es
Ġconstitu tionnelle
Ġdou ze
ĠcompÃ©ti tive
ĠÃ©tudi Ã©
Ġpotenti els
Ġtur c
Ġsoum ises
Ã©re mment
ĠGen Ã¨ve
Ġunani me
Ġsit ue
ĠHusse in
i dÃ©m
u pp
al ise
ri g
Ġb ac
Ġb elles
ab e
Ġh onor
Ġent amer
oc currence
Ġapp els
Ġexp ression
Ġrep ort
Ġconsid Ã©rant
Ġaff ronter
Ġdou ce
Ġcher chÃ©
ĠrÃ©un i
Ġinst aurer
Ġindustri el
ĠrÃ©jou ir
ĠAn g
Ġautoris Ã©
Ġpron oncÃ©
ĠSt ock
Ġsauve garde
ĠisraÃ©li en
ĠcomplÃ©ment aire
Ġarm Ã©e
Ġinjus te
Ġfournisse urs
ĠXX I
idÃ©m ie
f ond
Ġp ages
is Ã©s
Ġn oire
Ġt ac
ci ens
at ten
Ġpl ai
ab oli
ol a
Ġh osti
Ġtra gique
vi demment
Ġper ception
Ġnom s
Ġal lusion
Ġad di
ĠR ob
Ġann uelle
ĠcrÃ© ativitÃ©
Ġrep oser
ĠprÃ©sent es
Ġparticuli Ã¨res
Qu atriÃ¨mement
ĠprÃ©v us
Ġremar quÃ©
Ġheure usement
Ġgen res
Ġglob alement
Ġitali enne
Ġtru c
Ġtru cs
uk raini
Ġcuis ine
Ġsty le
ĠdÃ©cent r
A LE
l og
ou e
Ġpr ouve
ĠdÃ© Ã§
ra bles
gn ation
Ġcar di
olo g
Ġprogram mation
isse z
ari tion
Ġsign er
import ation
Ġcin Ã©m
Ġexpli citement
Ġouv erts
Ġtradi tionnelle
Ġassoci ations
ĠÃ©tabli es
Ġambiti euse
Ġexploit er
imm ob
Ġapplic able
Ġfabric ants
A b
E C
V euillez
d itÃ©s
n alitÃ©
Ġl undi
at er
ens er
Ġh ommage
Ġces s
Ġconc lus
Ġco fin
Ġpos Ã©es
ass ade
Ġbi oc
ĠprÃ©par Ã©
ĠdÃ©g ager
cri p
Ġperman ence
Ġencourage ant
Ġclas sique
ĠdÃ©ploy Ã©s
Ġvieil lissement
envis ager
ĠMold avie
ou est
is la
Ġv ali
Ġpl ait
onne ments
Ġam end
Ġrec ru
Ġai dÃ©
ner a
Ġlib Ã©rer
Ġconcern Ã©
Ġrest Ã©
Ġjou ets
Ãī gypte
Ġsuiv ie
id itÃ©
Ġparten ariats
ĠrÃ©pond ent
Ġir respons
ĠdÃ©pens Ã©
Ġfran chement
ĠÃ©tudi ant
Ġhaut s
ĠindÃ©pend amment
Ġflexi ble
Ġposs Ã©d
Ġmari age
ĠdÃ©pass Ã©
Ġgarantiss ant
Ag enda
ĠlÃ©giti mes
N E
e aux
Ġl ance
is Ã©es
Ġse rez
end roit
ĠP Ã©
Ġco in
ĠA h
Ġpart ant
Ġrep ous
Ġdemand ant
Qu els
Ġbi zar
ĠO u
Ġlim itation
eng age
Ġcorre ct
ĠÃ©cl air
Ġcollab or
ĠÃ©lectri que
Ġparad ox
Ġence inte
Im ag
P ensez
e uropÃ©
o iles
Ġl og
Ġp eau
Ġin demn
Ġse ct
Ġcomp osition
Ġparti ellement
mi Ã¨res
ĠÃ©t endue
ĠG ali
Ġatt endant
Ġsoi gne
ĠlÃ©gisl atifs
Ġver te
Ġconsci ente
Ġexprim Ã©s
Ġciv il
Ġouver ture
Ġquali fiÃ©s
Ġnour rir
Ġlet tres
ĠsupÃ©ri eure
arb urants
inqui Ã¨te
Ġillus tre
ĠinfÃ©ri eur
ĠGo ogle
Ġautomatique ment
Ġpluri ann
a me
e ct
f as
ou i
er z
me u
op ie
ro ger
Ã©n Ã©g
Ġdiff Ã©remment
Ġmal heure
Ġess ais
Ġbi om
Ġress ent
Ãªte ments
inter venir
Ġgra vement
Ġrespec tÃ©s
Ġvisi ble
Ġoccident al
Ġnorm ale
Ġminim ales
Ġdiplom atiques
Ġfilm s
ĠÃ©valu ations
Ġrej oint
Ġasi atiques
ĠGe orge
Ġentam Ã©
Ġenj eux
f Ã©rer
ti ens
in ten
Ġav erti
lÃ¨ ves
Ġai mÃ©
Ġfr uit
nation al
Ġpass Ã©s
Ġimpli quant
Ġmod alitÃ©s
Ġexig ence
Ġrend ue
Ġsuper vision
Ġidenti fier
Ġdess ous
Ġirak ien
Ġconsult ations
ID A
b anie
c isme
f a
u alitÃ©
Ġ ukraini
ti ge
Ġs ap
Ġs Ã©qu
re uve
Ġun itÃ©
os yst
ĠM er
ĠT im
uti n
ĠG re
Ġbi ologiques
ĠdÃ©fin it
Ġall Ã©s
opp oser
ĠamÃ©lior Ã©
Ġanci ennes
Ġplac Ã©
ĠnÃ©gli ge
Ġappare il
Ġul tÃ©rieure
nex e
Ġimmi grants
Ġdon ateurs
Ġindic ateurs
ĠmÃ©pr is
Ġsimul tan
Ġprofi te
F R
k y
n a
v ote
Ġs ombre
Ġa per
Ã¨ vre
Ġen c
Ġj oie
Ġin quie
Ġcomp tent
ĠB e
lis te
Ġbeau tÃ©
ĠÃ©c ras
Ġatt endu
Ġpass Ã©es
Ġ199 2
Ġdou lou
Ġcommerci alisation
Ġur gente
Ġcal me
Ġbou le
ĠdÃ©fense urs
Ġriches ses
Ġtax ation
Ġassur Ã©
Ġquit tÃ©
Ġmig ration
ĠÃ©volu er
imag iner
Ã©cou ter
Ġr ues
Ġpour par
Ġb Ã©n
Ġb ille
ĠrÃ© elles
ol y
end rai
ĠP er
Ġcons ister
ĠÃ©t hique
Ġal arm
Ġfa Ã§
ĠprÃ©c aution
Ġaugment ent
ĠbÃ©nÃ©fici Ã©
Ġlo gement
Ġcer titude
Ġquali fications
Ġdiscrimin ations
ĠAn d
ĠmÃ©dic aux
Ġstock age
Ġcens ure
Ġdo ter
Ġincap able
ĠÃ©lectri ques
ĠextrÃ© mistes
OS CE
ĠboÃ® te
Ġformid able
Ġpourpar lers
e re
f eu
Ġqu ar
in Ã©e
te ments
Ġf ar
Ġun ie
al d
ort h
Ġch ir
ĠP h
Ġcont est
Ġprob abilitÃ©
Ġcl in
ĠÃ©v olutions
Ġgar Ã§ons
Ġautre fois
accord s
vÃ© ni
Ġcomprom et
Ġconfront Ã©
ess ence
Ġfl ag
ĠamÃ©lior Ã©e
ĠadÃ©qu ates
Ġstri cte
Ġdiminu Ã©
ĠcomprÃ©h ensible
Ġchale ur
ĠCong o
Ġperform ance
Ġfinance ments
ĠrÃ©d action
Ġcheve ux
E sp
o tiques
u ites
en v
Ġc uri
Ġc lub
Ġs pec
ĠC l
tr Ã¶
Ġimp osÃ©
Ġser ions
ĠS oudan
Ġinter romp
Ġinstitu tionnelles
ĠprÃ©c ision
ĠW i
ĠrÃ©un ir
Ġprochaine ment
Ġexprim Ã©e
Ġlaiss ent
Ġeffectu er
ber g
Ġexploit ations
Ġafric aine
Ġcoord onnÃ©e
Ġpes tici
Ġobli gÃ©
Ġinterven ants
Ġaffe cte
ĠinÃ©v itable
ĠdÃ©cri re
Ġdan ois
Ġchauss ures
Ġbioc arburants
trÃ¶ m
O h
e usement
n ons
p el
que mment
Ġin tr
ĠM or
Ġsou met
ad resser
ĠA sh
acc roissement
ĠI sraÃ©liens
Ġentrepr endre
Ġinf li
man che
ĠdÃ©fin ies
ĠÃ©tab lis
ĠprÃ©f Ã©rence
ĠdÃ©si re
Ġth Ã©rap
Ġsec ours
ĠcompÃ©t entes
ĠdÃ©l oc
Ġprofessionne l
Ġoccu pÃ©
Ġvit ale
Ġconnais sez
ĠinterprÃ© tation
ĠdÃ©plac er
ĠpÃ©r il
ĠCI G
Ġchem ins
Ġentrepren eurs
ou dite
ti l
Ġn ui
Ġr oi
ri ers
Ġin titu
di ens
Ġdi manche
Ġac cum
Ġmo tif
ard in
Ġop ti
Ġpens ait
Ġmi ra
Ġvol er
Ġdiri ger
ĠÃ©tab lit
ĠrÃ©v Ã¨le
Ġmention nÃ©s
Ġdispos Ã©s
Ġcontenu es
amb ition
Ġoffici ellement
Ġfaibles ses
Ġcontraign ant
ĠÃ©volu Ã©
ĠinÃ©v itablement
Ġsalu ons
Ġspec tre
H U
e uropÃ©ens
ve urs
ne lles
Ġg Ã¨nes
Ġex tÃ©rieurs
Ã©t hique
ĠdÃ©p lore
ĠcrÃ© Ã©e
ĠgÃ©n Ã©rer
Ġtrai tÃ©e
Ġmaj eures
appli quent
Ġimpli quÃ©es
Ġ201 3
Ġgros ses
Ġpous se
Ġadap ter
ĠaccÃ© der
Ġarm Ã©es
Ġiss us
obser vation
Ġappor tÃ©es
Ġmonop ole
y r
Ġp iliers
ti ver
Ġs cep
an z
Ġpr Ã´
Ġv ag
Ġv Ãªtements
Ġpar vient
Ġpa kistan
ins iste
Ġvou lions
ĠdÃ©p ense
Ġab orde
Ġconn us
ĠlÃ©gisl ature
Ġindi quent
Ġeng lob
Ġfra gile
Ġautoris Ã©s
Ġcarb urant
dÃ©m ocra
Ġmutu ellement
onom ie
Ġmach ines
ĠtÃ©moi gne
Ġcinqu ante
Ġprior itaire
Ã©tudi er
Ġoppos ants
ĠtempÃ©ra ture
Ġmigr ants
investi r
alib ans
ĠDub lin
ĠrhÃ©t orique
l d
v ienne
un s
Ġt angi
Ġb oire
at o
ol lah
ain ts
Ġex haus
ĠT out
Ġexp rime
Ġfa usse
Ġcl on
ĠlÃ©g isla
Ġabs ence
ĠdÃ©cisi ve
Ġci te
Ġconte mp
Ġdisposi tif
Ġappar aÃ®tre
ĠÃ©tabli e
Ġpalestini ens
Ġmob ilisation
atta que
Ġinuti les
Ġsatisfais ant
impli cation
Ġdoig t
arch ie
ĠrÃ©cla me
hol m
ĠprÃ©judi ce
Ġbac tÃ©ri
Ġbille ts
Ã© missions
Ġp atri
Ġm Ã¨res
Ġun ilatÃ©rale
Ġg agne
aut or
sident s
Ġconc entre
imp osent
Ġmet tons
Ġass assin
Ġvol s
ĠrÃ©alitÃ© s
ign ent
Ġven us
ĠchÃ´ meurs
Ġcondam nation
Ġcouv ert
Ġintelli gent
Ġgri ppe
Ġsembler ait
Ġmine urs
argu ment
Ġprovis oire
A ra
A SE
Ġl ent
en ko
Ġs chÃ©
Ġpr ouvÃ©
Ġen le
ais es
Ġdu rement
Ġg Ãª
Ġco Ã¯n
ĠPar ce
Ġeff or
UE M
ĠE lles
Ġcour ir
Ġreconn ais
Ġoff rent
Ġvoy ager
Ġdiffici lement
Ġtent ent
ĠprotÃ© ines
auc ase
Ġfra gment
Ġtransp osition
Ġhabit ant
Tro is
ĠmÃ©dic ale
Ġ198 9
Ġdeme urent
Ġsent ent
ĠprÃ©sidenti elles
Ġarr ange
aus tÃ©ritÃ©
ĠmathÃ© matiques
Ġdram atique
osc ou
ĠparallÃ¨ le
c tÃ©
Ġl obb
in gÃ©
ĠÃ ¨
Ġf arde
our ce
ĠdÃ© tention
Ġg lace
Ġsur c
Ġne ur
con i
Ġvi endra
ĠrÃ©s ister
Ġ3 7
Ġnature ls
ĠrÃ©du its
ĠreÃ§ oit
Ġexamin ons
Ġtradi tionnelles
ĠcompÃ©t ente
Ġprofessionne lles
Ġconform itÃ©
off rir
Ġtoi le
Ġraisonn ables
Ġmariti mes
Ġtur que
Ġsugg estion
Ġrouti Ã¨re
Ġperform ances
ĠÃ©tonn ant
Ġoptim iste
Ġportug aise
Ġinad mis
Ġtexti le
ustra lie
donÃ© sie
ĠNo Ã«l
c osse
h Ã´pital
Ã© lo
ĠÃ© tiez
Ġb att
ĠC amb
ĠM on
Ġsi da
Ġcomm and
Ġcons istant
vi c
ĠnÃ© fas
Ġeff ond
Ġam ie
Ġcompr enons
Ġconf Ã©rences
anis me
Ġess aie
ĠtraitÃ© es
Ġsigni fication
Ġsus cite
Ġtravers er
ĠprotÃ© gÃ©s
Ġinv itÃ©s
ha Ã¯
ĠSch ul
ĠaÃ©ri ens
ĠprÃ©ser vation
Ġbal ance
ĠmÃ©dic ament
Ġintelli gente
Ġincroy ablement
Ġamp leur
Ġhongro ise
Ġstand ard
L T
m on
Ġ Que
ent end
Ġr ail
ĠC aucase
ĠP ol
ul ture
Ġsi Ã¨ges
Ġimp os
ins crit
ĠdÃ©c our
Ġacc ru
Ġtrans mission
Ġcommun isme
Ġexp osÃ©s
Ġgouver ne
Ġren dement
Ã¢ tre
Ġmen tionne
Ġdisc rÃ©
Ġ3 2
Ġfi d
ĠV i
Ġ4 5
appr opri
inst aurer
Ġsensi bilitÃ©
Ġnorm alement
ĠlimitÃ© es
Ġradic ale
ĠÃ©quipe ments
An gleterre
Ġtre mblement
Ġiran ien
Is lam
Ġarb itr
a tre
y l
Ġr am
ĠdÃ© rÃ©g
Ġb Ã©t
Ġcon cessions
ter ie
Ġtou chent
Ġac teur
Ġh Ã´
ĠrÃ©p arer
ĠcrÃ© ent
ĠÃ©v Ã¨
Ġca de
Ġconstitu tionnelles
Ġcha os
ĠK en
Ġnot ation
id Ã©es
erre ur
Ġimpli quÃ©
ĠdÃ©termin ant
ĠdÃ©termin Ã©e
Ġconsul ter
Ġtran qu
appel er
Ġlit tÃ©ralement
ĠfrÃ© quemment
Ġspectac ulaire
Ġcad res
ĠrÃ©mun Ã©ration
ĠÃ©chÃ© ant
ĠColomb ie
ĠStock holm
A ss
V u
e lez
Ġs aisi
ai des
Ġv Ã©tÃ©
Ġb aiss
at tirer
Ġimp u
Ġimp Ã©ri
Ġann onc
Ġcro Ã®
Ġpremi Ã¨rement
ram me
ĠJ o
st an
Ġsol li
ĠrÃ©jou issons
Ġadmin istr
Ġtradi tionnels
ĠimmÃ©di at
Ġrac ont
ĠsÃ©v Ã¨res
ĠdÃ©lic at
Ġsouffr ances
ĠdÃ©cide urs
ĠgÃ©noci de
Ġpestici des
U R
f aire
t nam
Ġl istes
Ġp ain
Ġcom itÃ©s
ĠM oscou
Ġcomp orter
Ġh aine
ins ister
ĠB EI
Ġeff ray
Ġsa che
Ã§ ait
Ġexp ress
ĠintÃ© rim
Ġfond Ã©es
ĠÃ©le ction
ĠlÃ©g al
Ġconstitu era
exp Ã©ri
ĠÃ©tr anger
Ġindustri elles
Ġven ait
Ġcontinu itÃ©
Ġanci enne
Ġcircons cription
ĠcoÃ»te ux
ony me
Ġappor tÃ©e
Ġartis tes
Ġincap ables
oxy de
Ġfen Ãªtre
Ġrivi Ã¨re
Ġpharm aceu
m ise
Ġs phÃ¨re
ai es
Ġf oc
Ġb oute
ol at
ro yer
Ġcomm ises
Ġapp uyer
ose vic
ob s
Ġcl asses
Ġfi able
Ġstru ctur
Ġjuridique ment
Ġcontinuer ons
Ġcoup ables
Ġappropri Ã©s
Ġappro ches
Ġrati fier
ĠcohÃ©r ent
Ġpay Ã©
ĠconsidÃ©rÃ© es
Ġinnov ations
Ġfournit ure
Ġmodes te
Ġlanc Ã©e
Ġcombin aison
P l
a o
k er
k el
Ġ Å
Ġa oÃ»t
Ġv erts
al tern
Ġj ur
Ġre quÃªte
Ġne tte
ĠP o
Ġav iez
Ġmo teurs
et t
Ġdis sim
ĠÃ©g yp
Ġdisp osÃ©
ĠCh ili
exp ansion
st ab
ov is
ĠO ui
ĠrÃ©glement er
Ġrend us
Ġamb ition
Ġdispos Ã©e
Ġparf aite
inst all
Ġatta quer
Ġcontinu Ã©
Ġval oir
ĠillÃ©g al
Ġcellu le
Ġvir tu
ĠdÃ©bou cher
Ã¢te au
Ġmol Ã©cu
ĠdÃ©couver te
ĠadhÃ© rer
prÃ©s ent
Ġsoigne usement
ĠSchul z
T rÃ¨s
ti enne
qu ants
est res
ĠÃ© puis
ĠÃ© lÃ¨ves
li que
Ġpro vient
ort able
ul aritÃ©s
ĠS ec
Ġdiff us
ĠdiffÃ©r enci
Ġag res
Ġmal ades
Ġsouti endra
ĠK re
Ġinc onn
ĠbÃ©nÃ©fi que
Ġri gi
ensi ve
Ġtomb Ã©
Ġ25 0
Ġexcep tions
ĠMal te
Ġwe ek
Ġble u
ĠBi Ã©lor
Ġmorce au
AD N
ĠNiger ia
Ġfossi les
immob ilier
h om
h ommes
er ai
ar chitecture
Ġf lÃ©
ous e
Ġg oÃ»t
ĠC ali
ĠM Ã©di
Ġex act
Ġent rain
Ġconc ours
Ġinter net
Ġtrans met
ĠT u
ĠR i
Ġjus que
gu Ã©s
ĠN ouve
intÃ© resse
Ġemp re
Ġreg istre
Ġ199 3
Ġgra ph
ĠÃ©qu itables
import ants
Ã©ch app
Ã©ch elon
Ġpublique ment
Ġincl ut
OC DE
stitu t
enregistre ment
crip tions
O bama
h armon
Ġd or
re f
is tique
in telli
it ch
ra ctions
ab us
Ġcomp arer
Ġper mette
Ġmes ur
ler a
ct oires
int on
Ġat om
Ġcommun istes
Ġjus tes
Ġti enne
ĠD es
Ġabs or
Ġconfront ation
Ġmu si
Ġpous sÃ©
Ġfrapp e
Ġresse mbler
ĠdÃ©rou le
Ġaccueil lir
Ġasse mblÃ©e
ĠrÃ©ag i
effectu er
Ġmuni cip
Ġhoriz ont
ĠXXI e
ĠÃ¨ re
. âĢĿ
D i
S K
e ction
Ã© lÃ©ment
Ġl une
Ġla Ã¯
Ġt s
Ġf aille
il lent
Ġg este
ĠC omment
Ġch ant
tr ai
ĠB ang
ĠS w
Ġren dez
ĠN ob
Ġplu ie
Ã©v oquer
Ġappr ouve
ĠnÃ©goci Ã©
Ġorganis me
att ente
Ġche v
Ġtranspar ent
Ġappar u
Ġaider a
Ġstat u
Ġunivers elle
Ġpropri Ã©taires
Ġinsuffis ant
ĠreflÃ¨ tent
Ġpours uites
Ġenregist rÃ©
Ġlinguis tique
Ġaj out
Ġfarde au
Ġadministr ations
b r
d en
k ov
Ġd orm
on ale
Ġm am
Ġpar ent
Ġpar allÃ¨lement
Ġpro xim
ir ent
ĠprÃ© dÃ©
Ġparti cipe
ĠS al
ĠA L
ĠdÃ©m ant
Ġrec ord
Ġparticu les
ĠN or
Ġinc ert
Ġfi ers
Ġvol onti
Ġri gueur
Ġmodi fiÃ©s
Ġexc uses
Ġouver tes
ĠrÃ©flex ions
ĠprÃ©t endre
Ġtol Ã©rer
Ġrouti er
ĠdÃ©ri vÃ©s
ĠmÃ©l ange
Ġramen er
ĠDar four
Ġvolonti ers
Ġp av
Ġn at
Ġt ardi
ĠÃ© met
ĠdÃ© stab
Ġb arb
Ġre tenir
Ġpl ong
Ġent rÃ©
Ã©t ant
Ġvi abilitÃ©
la ve
Ġinter dire
isi bles
Ã©g ovine
Ġrep ro
Ġ19 5
Ġress ource
ĠreprÃ©sent Ã©
ĠJe an
Ġret omb
Ġoblig Ã©s
ĠdÃ©termin Ã©
Ġinst aur
ĠgÃ© op
Ġtermin Ã©e
Ġdistin guer
Ġcaus Ã©
ĠÃ©quiv al
Ġexter nes
OL AF
Ġrub rique
erz Ã©govine
Ġproxim itÃ©
D em
D urant
h eu
le o
Ġf act
Ġpar lait
Ġdu mping
ĠM an
Ġcomm ande
pr opor
Ġman quÃ©
ang le
Ġprog ression
Ġcl os
ĠF or
ende z
Ġnation alisme
ĠdÃ©s armement
ĠprÃ©sident e
Ġaccep tÃ©e
Ġfonction nÃ©
Ġchar gÃ©e
Ġcontinuer ont
Ġinst ances
ote chnolo
Ġstri ctement
Ġallemand s
ĠdÃ©v as
instru ments
Ġsoup les
Ġenseign ants
ĠMil osevic
ĠcÃ©rÃ© ales
Ġsti pule
ĠCali for
m ais
Ġd ents
Ġp Ã¢
Ġp Ã©d
Ġn Ã´tre
Ġj ardin
eu t
Ġpro lifÃ©ration
Ġdis propor
ĠrÃ©s olue
Ġca cher
Ġmainten u
Ġemp i
inter mÃ©diaire
Ġinf lation
ĠintÃ©ress Ã©s
ĠcompÃ©ti tion
ĠmÃ©c ont
Ġbou che
Ġsan itaires
Ġformul Ã©
Ġven ant
trui te
Ġorient al
ĠpÃ©n urie
Ġassoci Ã©
Ġsex es
Ġregard Ã©
visi ons
ĠdÃ©mar ches
ĠdÃ©faut s
Ġanalys es
Ġpersonn alitÃ©
Ġaccessi ble
ĠexcÃ©d ent
NE W
Ġexpress Ã©ment
F ace
b o
on ci
ou n
ai sie
Ġqu art
il lon
ag ence
Ġne ige
Ã©r al
Ã¨s es
Ġpu issante
ĠdÃ©p ression
enti elle
Ġman quent
ĠL am
Ġpubli er
ĠD Ã©
ĠI s
Ġconn ues
Ġemp ris
Ġpersonne ls
Ġbi otechnolo
Ġvol ati
Ġagri culture
Ġsign aux
aur aient
Ġfam ine
Ġport able
Ġint ro
Ġapporter a
Ġdispar itÃ©s
Ġoccident ales
hab itants
Ġidenti ques
Ġfabri quer
Ġphy siques
ĠapprÃ©ci Ã©
Ġinflu encer
Ġremb ourse
ĠdÃ©ten us
ĠTib et
ĠNob el
ĠdÃ©mant Ã¨lement
H erzÃ©govine
h iques
t or
z z
Ġp ur
ur ation
ur des
or re
Ġr attra
Ġf uite
ĠÃ© b
at mosphÃ¨re
ue ille
mi de
ĠlÃ©g Ã¨re
ann once
Ġsui vent
aff ai
inc lure
Ġremp lacement
Ġcoup s
Ġ9 5
Ġbl an
ĠdÃ©l oy
Ġviv ants
ĠcÃ© der
Ġlour ds
ĠdÃ©finiti f
ĠrÃ©tab lissement
Ġsubstanti elle
Ġsoud aine
Ġatti rÃ©
Ġstu pÃ©
Ġgri mp
ĠrÃ©cu pÃ©rer
ĠCl inton
E M
F I
in os
ait es
Ġg are
Ġconc l
Ġconc rÃ©
Ġper pÃ©
ĠrÃ©s umer
Ġad met
Ġvo let
Ġrais onnement
ĠlÃ©g u
Ġpres s
Ġmis Ã¨re
Ġpi ra
Ġpi res
Ġexc lure
Ã©m ocrates
Ġoffici elles
ĠdÃ©velopp Ã©e
Ġsymp athie
ĠhÃ© micycle
ĠfÃ©dÃ©r al
ĠdÃ©cisionne l
Ġrapproche ment
Ġperp Ã©t
ĠPÃ© kin
ĠAsh ton
h onn
Ã© lÃ©ments
te in
ne y
ac tifs
ĠB on
tin g
Ġni er
imp Ã´t
Ġmin uti
Ġcha Ã®
ĠV ie
Ġmaj or
Ã©rÃ© ment
Ġtrouv Ã©e
ĠprÃ©occup Ã©s
Ġindustri alisÃ©s
Ġparle z
Ġbou ger
Ġbou lot
Ġciv ilis
Ġparagraph es
Ġoffici el
Ġchang ent
ĠphÃ©nom Ã¨nes
Ġaband onnÃ©
Ġanalys er
ĠMc C
accÃ© lÃ©
ĠprÃ©sidenti elle
Ġindivid uelle
Ġmagas in
Ġautrich ienne
ĠxÃ©nophob ie
Imag inez
ĠBiÃ©lor ussie
c om
p ture
u aires
Ġ '
Ġa fghan
Ġn erve
Ġt un
si fier
Ġcont enir
rÃ©s or
Ġab ond
ĠE l
ass Ã©
Ġvie illes
Ġfer mÃ©
Par fois
Ãī videmment
ordin ateur
ĠcÃ´ ti
Ġmodi fiÃ©e
Ġpropre ment
Ġint ense
Ġpoursui vent
Ġprov iennent
ĠMar tin
Ġsoule vÃ©es
Ġmag az
Ġsecond aire
Ġlour d
Ġbureaucra tique
ĠisraÃ©li enne
ĠdÃ©cou le
Ġemprun ter
Ġprogress Ã©
Ġaspir ations
Ġridi cule
E uropÃ©ens
d its
Ã© lÃ¨ve
ou x
Ġs ain
Ġm yth
in a
si bles
Ġf ili
Ġpar am
os ex
ĠS om
Ġacc ro
Ġexp ansion
Ġann uels
ĠF lor
Ġfer ais
Ġinc ar
Ġinc orp
Ġpopul aires
Ġju gÃ©
Ġveu ille
Ġbr Ã¨ve
Ġretr ouv
inc apacitÃ©
Ġrev ue
ĠfÃ©lic itons
Ġquali fiÃ©
hab il
ĠdÃ©velopp Ã©es
Ġapprouv Ã©e
ĠvÃ© lo
ĠvÃ©ri fication
Ġinsuffis ante
ĠspÃ©c ulation
ern itÃ©
Ġenthousias me
ĠVer heu
Ġpert urb
ĠDav id
ĠMÃ©di ateur
ĠCalifor nie
ĠVerheu gen
E A
a ques
Ġc itÃ©
re di
Ġpar lant
Ġcont enant
Le urs
ĠÃ©t endu
ĠÃ©t hiques
Ġam Ã¨ne
Ġfor ment
ĠL et
Ġbas Ã©es
Ġop tique
intÃ© ress
ĠH aÃ¯ti
Ġprom ette
Ġsem estre
Ġfac ul
Ġpriv atisation
Ġencour agÃ©
Ġpasser a
Ġsan itaire
Ġfu mer
ĠrÃ©ser vÃ©
ĠdÃ©li v
Ġk m
Ġstri ct
ĠPa ci
Ġtouch Ã©es
Ġcla uses
Pr enons
rom pu
ĠdÃ©rog ation
autom ne
ĠchaÃ® nes
n an
Ġm our
Ġn ager
or tÃ©e
Ġf e
il er
au g
ĠdÃ© lÃ©
Ġre dÃ©
oir s
tr ons
tr ont
orte ment
ĠdÃ©p lace
ot ation
Ġst ag
Ġat ro
Ġfa me
ĠnÃ©cess iter
Ġor ale
ĠK ong
Ġinstitu tionnels
Ġjou eurs
ĠrÃ©alis Ã©e
Ġid entique
Ġpris ons
Ġmis si
Ġinform atique
ĠamÃ©li ore
yp ri
Ġvoy ages
Ġrespect ant
Ġvolont aires
Ġtravers e
ign ore
Ġcat al
Ġreconnaiss ent
Ġlaiss ant
Ġparven ue
Ġterre ur
Ġinaccep tables
Ch ers
Ġmat er
ĠrÃ©vÃ© ler
Ġmig rat
Ġrenouvel able
Ġdess in
Ġobli ger
Ġsymb ole
Ġretrait es
Ġsymp t
Seu le
Ġconten us
ĠagrÃ© able
ĠSol ana
activ itÃ©s
fini ment
Ġquarti er
Ġdispropor tion
C in
y o
Ã© larg
Ã© nie
ent amer
au de
Ġg ala
at om
Ġcon tiennent
ĠM us
app are
Ġcomp t
Ġpays age
ĠÃ©g alitÃ©
Ġdire ctes
Ġal b
Pour riez
ĠCh ar
ĠrÃ©alis Ã©es
Ġfi ctifs
ĠprÃ©v oient
Ġaccep tables
ĠdÃ©fin ie
Ġall Ã©e
ĠMar y
Ġfourn issent
Ġsuper fici
ĠintÃ©g rÃ©s
ĠrÃ©fÃ©rendum s
Ġcompens er
Ġ197 0
ĠSe con
tÃ©n uer
ĠGol fe
E s
S ous
Ġd Ã®ner
Ġc ig
ĠC omme
Ġcons tant
Ġcont our
ĠS lov
ĠdÃ©p endra
Ġcr aindre
uti litÃ©
ĠR oth
Ġrep as
ĠprÃ©sent ant
imp asse
Ġmal ent
ĠH ar
Ġadop tant
Ġdemande z
ĠO K
Ġsc r
Ġfavor ablement
Ġcat h
ĠBar ack
ĠÃ©lector al
ĠrÃ©di ger
Ġfonde ments
Ġaffec tÃ©s
obser v
Ġliqui ditÃ©s
ĠdÃ©tru it
organ es
ĠhÃ©r os
Ã³ n
exig ence
t ations
Ġ Unis
Ġs omb
Ġn ordi
Ãª tement
mb lÃ©
app uyer
et ter
aut onomie
pr its
Ã©n agement
ĠÃī gypte
Ġacc ent
Ġar bres
ĠÃ©v oque
Ġcha mps
Ġbi ologie
Ġju ges
import ant
Ġappel lent
Ġexist ante
Ġenvis agÃ©
Ġaction naires
ĠMar ie
Ġsoule vÃ©e
Ġdisponi bilitÃ©
ĠmÃ©dic al
identi fier
Ġcriti quer
ĠdÃ©lic ate
Ã´pit aux
Ġconjoin tement
Ġautonom e
Ġenn uy
ĠocÃ© ans
oly mp
a x
b ollah
l age
is ti
Ġm ous
our v
Ġen vir
Ġau rez
ri es
ĠrÃ© affir
Ġin vers
Ġne t
ol k
Ġdi oxyde
am me
ys er
Ã©t end
Ġper dent
ĠB ritan
ĠS an
ĠS anter
ĠG UE
Ġai ment
form Ã©ment
ez bollah
ĠlÃ©g ales
Ġenf re
Ġcommen Ã§ons
Ġjusti fication
all ais
Ġchi ens
Ġcoup able
Ġcandid ature
Ġprov oque
Ã©m ie
Ġmanifest ation
ĠÃ©cri v
Ġred ist
ĠvÃ©hicu le
actu elle
Ġincon vÃ©ni
201 3
Ġavoc ats
Ġlabor atoire
Ġbiblioth Ã¨que
Ġbizar re
Ġinadmis sible
ĠperpÃ© tu
Ġgala x
D Ã©s
V oy
h er
o lement
p rodu
u c
Ġ olymp
es clav
Ġdi rait
ĠM onti
ĠdÃ©p ourv
Ġins ur
uti lise
um Ã©e
Ġfond ations
Ġconsid Ã©r
ĠÃ©conomique ment
ĠdÃ©f endu
ĠK o
ĠH ezbollah
Ġris quer
Ġnu llement
Ġ199 1
Ġabs olu
Ġprofes seurs
objecti fs
Ġprot Ã¨ge
Ġappro bation
Ġquanti t
Ġeffectu Ã©s
ĠillÃ©g aux
ĠidÃ© ologique
Ġmaxim ale
Ar rÃª
ĠsuggÃ© rÃ©
ĠÃ©quip es
At lantique
Ġparviend rons
Regarde z
aboli tion
ĠGali leo
D A
c rits
i z
p ol
ĠÃ Ģ
or ateur
Ġv Ã©g
our ge
ri ra
Ġpl ais
Ġpro duite
ĠP al
ĠP roche
ĠM ah
vi ce
Ġtrans nation
ĠF ed
ĠprÃ©sent era
ĠN ic
ĠdÃ©f aill
Ġpass ait
Ġ6 5
Ġrespec tÃ©es
Ġfavor ise
Ġopp oser
Ġopp osÃ©e
Ġsol s
Ġay ez
ĠgÃ© ni
Ġdimin ue
ĠdÃ©l its
Ġjourn aliste
Ġoffici els
Ġmus Ã©e
Ġrele vant
Ġvas tes
Ġcarb urants
ĠrÃª ves
Ġoccup Ã©s
ĠÃ©chec s
Ġlogici els
Ġexam ine
Ac c
Ġsect orie
ĠAL DE
ĠPaci fique
d ra
e v
in ture
it t
ĠdÃ© ter
al lÃ©
Ġb ombe
Ġcon gÃ©
Ġpl astique
ĠP atten
ro is
ĠprÃ© co
Ã´ les
ĠÃ©t oiles
co fin
ĠrÃ©s olument
Ġpart agÃ©
ĠJ our
ĠH aut
Ġrem onte
ĠspÃ©ci fic
ĠrÃ©du isant
ĠÃ©ner gique
Ã©d Ã©ration
Ġche val
ĠindÃ© ni
ĠprÃ©par atifs
dic ations
Ġreje tÃ©e
ĠAl ors
Ġentend ons
Ġprosp Ã¨re
ĠdÃ©finiti vement
Ġcontraign ante
ĠsuggÃ© rer
Ġpropag ande
Ã©cri re
ĠÃ©tabl issant
ĠFis ch
ĠSlov Ã©nie
% ,
m s
m Ã¨re
Ġ Åĵil
Ġp Ãªcher
Ġc ub
is Ã©ment
Ġr avie
Ġb ovine
Ġg rÃ©
Ġcon former
Ġpro cl
ĠP ES
app ort
oc ations
Ġman gÃ©
Ġal lÃ©g
ĠnÃ©cess itent
Ġmin or
ay ant
Ġfi Ã¨vre
Ġiniti al
ĠcÃ´ tes
Ġlar ges
ĠmÃ© fi
nie urs
Ġrencont rÃ©s
Ã©le ctions
ĠY ougoslavie
Ġreligi ons
ĠdÃ©lÃ©g ations
Ġcerve aux
Ġtyp ique
Ġfou le
prÃ©sident e
Ã¡ n
aucun s
Ġinflu en
Ġblo quer
Ã©limin er
Ġpersuad Ã©
Ġrom an
Ġverre z
Ġsatel lite
ĠlÃ©gu mes
a Ã©rop
Â ´
Ġd il
Ġa ir
is on
ar isation
ĠrÃ© itÃ©
ch et
Ġre quis
ol f
ol Ã©e
ĠP ap
Ġo re
Ġapp ortent
ang Ã©
emp run
Ġmil lÃ©naire
Ġren voy
Ġcontr aints
Ġfr Ã¨res
ĠspÃ©ci aux
Ġaccep tÃ©s
Ġjusti fiÃ©e
Ġdiri gÃ©
Ġextr Ãªmes
Ġchi mique
Ġappar aissent
Ġsix iÃ¨me
Ġus ines
Ġexcep tionnelle
Ġcaus Ã©s
Ġnavi re
Ġpertin entes
Ġjapon aise
ok yo
Ġtransit oire
Ġnavig ation
Ġcig are
ĠvÃ©g Ã©t
H Ã©
I F
c onne
c itÃ©s
m ons
n iste
o tique
Ġc ra
ĠdÃ© Ã§u
Ġb or
Ġdi ction
tu me
ĠB o
ĠS ing
Ġor igine
Ġmont rant
oute z
isl am
Ġpens aient
Ġsouhait s
Ġiniti alement
Ġjusti fiÃ©
ĠÃ©tab lissements
Ġtrouv ait
ĠdÃ©mocratique ment
Ġrencont rent
Ġobser vÃ©
Ã©quili b
ĠidÃ© al
ĠÃ©mer ge
Ġmenac Ã©s
Ġindividu elles
ĠÃ©quiv oque
Ġlon gueur
Ġvacc in
inn ock
Ġaccessi bles
Ġmerc redi
Ġcraign ent
Ġenne mis
Ġsond ages
Ġcofin ancement
Ġnui re
Ġts un
f ord
g re
en j
is tÃ©ri
Ġin d
Ġex ag
am es
av ortement
Ġh on
Ġes prits
ĠA llem
tin s
Ġlib Ã©rale
ĠdÃ©f aite
Ġeng endre
ĠsÃ© cher
Ġimpli quent
Ġsus pens
In stitut
ĠLe h
Ġvoter ai
Ġcer ti
Ġsensi blement
Ġajou tÃ©
Ġtemp Ãªte
Ġrestri ction
enseig nements
Ar gentine
Ġpertin ente
Ġaccus ations
Ġhyp oc
Ġrob ot
erti se
Ġasi atique
Ġdouani Ã¨re
Ġexter ne
Ġclandes tine
Ġincendi es
ĠvÃ©tÃ© rin
A d
b urg
c tique
j a
u les
in ki
Ġv et
Ġch ron
Ġsou ches
Ġpays ans
iss ants
Ã´ mes
Ġsa chant
Ġfor esti
Ġst ation
Ġtrans europÃ©ens
itu el
Ġcontr aint
Ġag issent
Ġprof il
ĠK innock
els inki
ĠrÃ©alis tes
Ġesp aces
ĠV al
termin ation
Ġint ol
Ġsouten us
Ġtransf Ã©rer
Ġcontinu ons
th Ã¨se
Ġconsac rÃ©e
Ġbre fs
emb argo
Ġneu tr
Ġappare ils
Ġaccus Ã©
ĠbilatÃ©r ales
Ġconjoin te
Ġtromp er
Ġem men
Ġplur alisme
Ġterrib les
Ġflu ctu
Ġscr utin
B R
er me
Ġf an
ĠÃ© mettre
Ġre dev
ens eur
Ġo eu
oy ers
ĠdÃ©p lacement
ĠT he
Ġass istons
ari a
Ġ3 6
Ġindi en
Ġtu Ã©s
Ġ4 2
Ġref lÃ©ter
Ġconcurr ents
Ġsuffis ants
Ġver rons
Ġexist ence
Ġobser ve
ctri ce
Ġlo int
pi rer
Ġhabit uellement
ĠÃ©mer gentes
expli que
NG L
oblig ations
Ġsymb olique
Ġautomob iles
ĠindÃ©pendant es
Ġsusp ension
Ġesc omp
Ġtox iques
Ġcompati ble
Ġfati guÃ©
Ġirrespons able
Ġboule vers
Ara bie
ĠFisch ler
B ref
b ul
f t
en rich
Ġn az
ĠÃ ĩa
Ġv illages
Ġpl aide
ĠC entre
Ãª ter
Ġtra h
ĠT ai
ĠT okyo
anti l
Ġmet tra
Ġoff ert
Ã¯ s
ĠrÃ©un is
ĠrÃ©v ol
Ġsouten ant
ĠprÃ©f Ã©rences
ton ie
Ġcouv erts
ĠrÃ©fÃ©r ences
Ġcroy ez
Ġradic aux
ĠopÃ©ration nel
Ġsauve g
Ġreti rÃ©
Ġrequ ises
impli quer
Ġaudi ovis
Ġaimer ions
Ġconcert ation
Ġfre in
ĠMad rid
Ġallou Ã©s
ĠdÃ©gra dation
Ġmalheure ux
ĠbÃ©t ail
accÃ©lÃ© rer
o du
Ġn oci
li b
Ġb eaux
Ġcon g
ff Ã©r
Ġdev ais
Ġh i
Ġces sez
ĠB Ã¶
ex trÃ©
Ġad resse
ĠcrÃ© Ã©s
Ġconf ond
Ġmin istÃ©ri
Ġpropos ent
Ġappr end
Ġcul tiv
Ġdou ter
Ġtour nant
Ġcher ch
Ġsus pend
Ġsus citer
Ġsatisf aite
ĠdÃ©tail lÃ©es
Ġobser vation
Ġsp ir
organis ations
od a
ĠdÃ©mont rent
Ġcompar Ã©
Ġmas sif
Ġgu ise
Ġengag Ã©es
Ġradic alement
Ġafric ain
Ġfamili ale
Ġmotiv ation
ĠPour quoi
Ġparad is
Ġislam istes
Ġhongro is
Ġlinguis tiques
Ġsensib ilisation
ĠdÃ©favoris Ã©es
ĠflÃ© au
Ġvet o
E ss
O K
P rÃ©
g Ã©ri
k h
l ante
l issent
n ait
o euvre
Ġf leurs
que ment
Ġdu rer
res pect
Ġin novation
ĠM ed
Ġac tives
Ã©t ape
ĠdÃ©p oser
Ġann oncer
Ġrep orter
ĠF ond
ĠD el
ĠH ol
ĠdÃ©s Ã©quilibre
ĠsÃ» res
Ġref lÃ©
Ġconfi d
Ġretr ouvent
Ġsais on
ĠintÃ©ress Ã©
Ġall aient
ĠÃ©p au
ign or
Ġsec rets
ĠlÃ©gi fÃ©rer
Ġpati ence
Ġrac ines
Ġcorrespond ent
Ġlour des
Ġobli ge
Ġbar re
ĠÃ©man ant
ĠInter national
Ġvag ues
ĠLet tonie
c tÃ©s
h oriz
s in
Ġ Europol
Ġd us
Ġc u
ur itÃ©
in vent
te au
Ġen ch
ĠÃ© radi
ci euses
ĠP D
Ġdi visions
Ġi ra
Ġh Ã´pitaux
Ã´ me
ĠÃ©t ais
Ġaut o
ĠdÃ©m ons
Ġag enda
ass assin
Ġcomment er
ĠspÃ©ci alistes
Ġlim itÃ©s
Ã¯ tÃ©
Ġconstru cteurs
Ġabord Ã©s
ĠdÃ©tail lÃ©
Ġsouff ert
ĠgÃ© ographiques
Ġcou che
Ġcolle ctif
Ġparven ons
Ġconsac rÃ©s
fric ains
Ġadap tÃ©e
identi fication
Ġcontraign antes
Ġlab el
ĠirrÃ© g
Ġrequ ise
ĠsÃ©v Ã¨re
Ġstab iliser
aj oute
Ġtox ic
ĠBro k
ĠrÃ©vis er
ĠRob ert
D Ã©
m lin
Ġs log
Ġn Ã©e
ar y
ĠÃ© te
li ez
Ġin hÃ©r
os t
ag an
ac cum
Ġh onneur
Ġconc ilier
ĠS IDA
Ġad oles
Ġrec ouv
Ġcontr ainte
ende ttement
Ġinf ir
Ġinf ractions
Ġcli ent
Ġretr ai
Ġdoc tr
Ġten nis
ĠcompÃ©ti tifs
ug abe
Ġexc lus
Ġreconnaiss ons
ĠpÃ©n ales
ris ie
Ġcondu cteurs
Ġmanifest er
Ġassur ances
ĠÃ©vent ail
Personne llement
Ġradic al
Ġintelli gents
ume ur
actu el
ĠdÃ©cou lent
Ġsil enci
Ġstu p
pro lifÃ©ration
Ġpolici Ã¨re
ĠmultilatÃ©r al
Ġtari fs
Ġrestaur ant
Ġdiagnosti c
ĠcinÃ©m a
Ã©nÃ©g ro
Ġcontemp or
ĠCamb od
altern ative
C O
C a
C ons
e mbl
m ad
p our
u f
u ment
Ġl uxemb
Ġde grÃ©s
ti ce
ent ure
in Ã©galitÃ©
Ġr enseignements
ation al
al o
ci en
eu tiques
Ġch im
Ġdi lem
app uie
Ġh u
onne z
ins pe
ĠÃ©t ouff
ĠS p
ĠdÃ©p osÃ©es
exp lo
Ġinc itations
Ġsub issent
Ġim min
Ġcour ants
Ġcour ageux
ay ons
Ġsuffis ent
Ġtranspar entes
Ġreven di
Ġ6 00
ĠintÃ©ress ants
Ġorient ation
Quel que
ĠdÃ©n oncer
Ġaffec ter
Ġferrovi aires
Ġmeur tre
ĠempÃª chÃ©
Ġhy dro
Ġsauv ages
Ġvot ons
ĠrevÃª tent
Ġcuri eux
Ġclon age
ĠSec rÃ©t
ĠKre mlin
ĠSecon de
Ġluxemb ourge
- -
0 1
D R
F aites
m Ã©es
p t
Ġp ath
Ġc ents
ti mi
an ique
Ġe ut
Ġm enti
Ġr assur
Ġf oyers
Ġpr estations
op Ã©ra
ne z
Ġpour rez
Ġg ig
Ġg Ã¢teau
ĠP aul
Ġpo table
ĠprÃ© d
Ġimp osÃ©e
ĠA utriche
Ġcontre fa
ver sion
out ons
Ġcol oni
Ġaff ich
Ġgouvernement ale
Ġconstitu erait
Ġfer mes
hÃ© tique
Ġcor romp
Ġadop tion
ĠspÃ©ci ales
eff orcer
att ribution
Ġ4 8
Ġfac iles
lus coni
ĠprÃ©occu per
Ġ201 5
Ġprot est
Ġsembl able
ani ens
Ġassur Ã©e
Ġautoris er
Ġconvi endrait
Ġtransfrontali Ã¨res
Ġpes er
arrÃª te
Pr enez
ĠintÃ©grÃ© es
ĠrÃ©clam er
Ġabsten u
Ġprag matique
ĠdÃ©ses pÃ©rÃ©
Ġcombusti bles
Ġsimultan Ã©ment
Ġchir ur
A I
C omm
g Ã©rie
i ers
v ants
y an
Ġl y
Ġf at
our ser
op ti
au f
ci r
Ġb ain
Ġpl aign
Ġch rÃ©ti
ĠP as
Ġcont ente
iss es
Ġfin landaise
Ġam ou
isi tion
Ġst ress
ĠR E
Ġren de
Ã©qu iv
Ġpart agÃ©e
ĠL ou
iti Ã©
Ġass or
esp Ã¨ce
Ġjou issent
ĠqualitÃ© s
ĠprÃ©cis Ã©
ĠcompÃ©ti tif
ĠdÃ» ment
Ġpotenti elle
Ġrecommand er
Ġsembl ables
ĠthÃ© Ã¢tre
ĠbÃ¢ tir
Ġmonn aies
Ġfig urer
Ġsecond aires
Ġimag in
ĠprÃ©ju dici
bi otiques
Ġparcour ir
Soy ez
Ġchanti ers
intelli gence
ĠVie tnam
i ces
Â °
Ġc anc
Ġt oit
Ġdes tru
ĠÃ© lan
Ġin je
ch ose
ĠC es
ĠC as
ens Ã©
Ġch ypri
Ġent rent
Ġdis e
ĠdÃ©c oup
Ġob ti
ĠR Ã©s
Ġrep roduire
Ġbas se
Ġca che
ĠJ ac
Ġplan Ã©taire
Ġexist ait
Ġconseil ler
initi atives
ĠcompÃ©t ent
Ġcompar able
Ġinfrastru cture
Ġprim aire
Ġprud ent
ĠÃ©cl ai
ĠrÃ©pu blique
Ġcontradi ctoires
Ġdynam isme
Ġconvers ation
Ġlobb y
P I
b out
o od
s en
Ã© loi
Ġp Ã¨se
Ġc ouver
Ġn ov
in on
ĠdÃ© d
ĠdÃ© ception
Ġpl ainte
di ents
app arition
gn Ã©es
Ġar chite
ĠT rib
Ġcl Ã´
out ent
Ġbas er
ĠÃ©c osyst
Ġmen a
Ġpass ons
ĠH e
ĠH aye
ĠprÃ©v isible
Ġreconn ue
Ġaccep tent
Ġoff ertes
Ġret arder
Ġsc ru
Ġtransp orte
ĠY Ã©m
ĠadÃ©qu ats
pi re
Ġstatis tique
ĠcaractÃ©ris tique
Ġul time
ĠisraÃ©li ens
Ġrasse mbl
Ġadress Ã©
Ġincomp rÃ©h
ĠnÃ©er landaise
ĠinquiÃ©t ant
Ġmanip ul
ĠdÃ©lib Ã©rÃ©ment
ĠpÃ©troli ers
ĠdÃ©rog ations
Ġindivid uellement
abou tir
Ġprovin ce
ĠBritan niques
' "
b Ã©
j i
j an
Ġ os
Ġp and
Ġs oph
is sions
Ġr endra
ra h
Ġin hab
ch Ã©es
end er
Ġex tension
onn ent
Ġres ser
ins Ã©curitÃ©
Ġmar ins
ex ister
Ġman Åĵuvre
ĠT amp
ĠT AC
Ġrel Ã¢
Ġfer aient
Ġcor p
tri ce
ĠrÃ©sul tant
Ġeng age
Ġvais se
Ġsy ner
inf raction
Ġabord Ã©e
ĠdÃ©si gnÃ©
Ġrefus ent
orique ment
Ġsoule vÃ©s
ĠÃ¢ gÃ©s
Ġsyn onyme
Ġconvi ctions
inqui Ã©ter
Ġpaci fiques
Ġpay Ã©s
Ġfamili ales
Ġphras es
Ġaffai b
Ã©quipe ment
Ġspectac le
ĠdÃ©ploi ement
ĠMer kel
ĠTim or
install ation
aÃ©rop ort
ĠAllem ands
ĠCambod ge
H istoire
T andis
f at
t aient
Ġ w
Ġn utri
ar on
al on
Ġcon formes
ĠP acte
Ġav ais
Ã©r os
Ġdis aient
ot on
Ã©c oute
Ġfor cer
ic a
Ġmil itants
Ġmain tient
ls on
Ġpe ines
Ġnation alitÃ©
Ġconcern Ã©e
Ġfer mi
Ġrenfor Ã§ant
ĠprÃ©v al
ĠV enez
Ġri z
Al banie
Ġtour n
Ġenti tÃ©s
Ġban anes
ĠdÃ©termin Ã©s
Ġsep tiÃ¨me
Ġsouff le
rimin ation
Ġunivers itaire
aÃ¯ d
Ġfourn is
Ġmanifest ants
Ġcompar ables
Ġadministra tifs
Ġadap tÃ©
ĠBer lusconi
Ġfrau des
institu tions
Ġcriti quÃ©
Ġchapit res
Ġacqu ise
esti mer
ĠdÃ©tÃ©ri oration
Ġsupr Ãªme
OR K
Esp Ã©rons
Ġcade au
ĠNor v
honn Ãªte
ĠprÃ©co ce
ĠirrÃ©g ularitÃ©s
A y
D er
R este
c ris
l aient
m atisme
Ġp ommes
Ġa isÃ©ment
in former
Ġr endant
Ġv ienne
ri ment
Ġb ulg
Ġin se
Ġch Ã¨re
ĠM ED
ĠM ugabe
tes te
ale m
ĠÃ©t roit
ĠB u
Ġaut h
Ġpos session
imp ossi
Ġrest ant
ĠdÃ©s espoir
Ġsign ale
Ġsuc cessi
Ġver ra
Ġremp ortÃ©
Ã©p idÃ©mie
hi opie
Deux iÃ¨me
ĠdÃ©si rer
Ġquali fier
onte x
Ġmenac Ã©
Ġalli ance
Ġpertin ent
Ġreti re
Ġharmon iser
ĠGu ant
Ġsoud ain
idÃ© ologie
ĠprÃ©con ise
ĠmÃ¨ nent
fait s
Ġjamb es
Ġhonor ables
Ġintitu lÃ©
ĠgÃ©op olitique
Ġintro duite
Ġdiction naire
g Ã¨nes
m us
Ġp onc
Ġc enti
re usement
it airement
Ġun es
ĠC is
di ons
ĠM ande
ĠprÃ© cieuse
Ġdis pu
ĠÃ©g aux
Ġmar in
ĠS tre
ense ign
ĠcrÃ© anci
hui le
Ã©li te
Ġdoi ve
Ġ3 3
Ġrap iditÃ©
Ġfais ais
Ġ5 5
Ġoff rant
Ġappli quÃ©s
Ġri re
Ġcoup er
Ġentra ver
Ġvoter a
Ġdist ances
Ġaffir ment
Ġnour r
Ġintrodu ites
ĠapprÃ©ci er
Ġchu tÃ©
ow ski
Ġsubs titu
Ġdo tÃ©
Ġprivil Ã¨ge
Ġhor rible
Ġcontro verse
Ġchoc olat
Ġbless Ã©s
Ġobs ol
ĠrÃ©gul ateurs
Ġconnex ion
Ġcolon ies
ĠÃ©vÃ¨ nements
ĠKen ya
ĠNouve lle
horiz on
Ġsoph isti
. Â»
e mblÃ©e
l ations
l ux
Ġ $
Ġp Ãª
un g
Ġpar aÃ®tre
al liance
Ġb ale
Ġin Ã©g
Ġin grÃ©
Ġdi te
ac tive
mb res
fi ce
ist ants
emp Ãªche
ĠT rans
Ġab oli
Ġcontr as
ĠgÃ©n Ã¨re
Ã©ra dication
Ġnation alistes
Ġfinanci Ã¨rement
ĠCh ris
ĠJ u
exp osition
Ã©v Ã©
ĠrÃ©f Ã¨re
Ġbi Ã¨re
ay ez
aud it
Ġrepr end
inf lu
accep te
Ġinv o
Ġmor atoire
Ġtradi tionnel
Ġcou leurs
Ġcondam ne
amb assade
Ġregard ons
Ġliv rer
vie w
associ er
Ġtouch ant
ĠvulnÃ©ra bilitÃ©
Ġnav al
Seu l
ĠÃ©vid entes
ĠÃ©mo tions
Ġressembl ent
Ġcommet tre
hyp oth
Ġpluriann uel
ĠPh ili
Ã©larg ir
Ġgig antes
ĠTamp ere
ĠNorv Ã¨ge
M oi
P ro
V ou
d r
p es
u ela
Ã© mique
us alem
ĠÃ© lites
li Ã¨re
ĠrÃ© examen
Ġin ex
di en
app arti
ĠS er
ĠA t
ob tention
cer titudes
ĠN oire
Ġag issant
Ġvis er
Ġbi o
Ġindi cations
Ġcontribu able
Ġchar gÃ©s
Ġforme lle
Ġreven dications
Ġten sion
Ġdisposi tifs
Ġfix Ã©es
Ġth on
Ġexamin Ã©e
Ġsuper f
empl oy
Ġang le
Ġsignific atifs
ĠsÃ©par Ã©
Puis que
uni fication
imm unitÃ©
Ġcontraign ants
Ġaccueil li
Ġdra me
Ġpsych ologique
Ġressenti r
Ġsti p
Ġscol aire
Ġnett oy
Ġdistor sions
Ġflag r
Ġrembourse ment
ĠmÃ©fi ance
Ġtsun ami
c re
g nement
z erb
en z
ti ni
ent housias
Ġr acc
Ġpar aissent
Ġg Ã¢
mp e
Ġcon d
ten ance
Ġmon sieur
iss antes
Ġvi ole
Ġentre ten
Ġco tÃ©
Ġmar quÃ©e
osi tions
alis ations
Ġal lu
Ġtrans forme
ĠdÃ©b lo
Ġmil ieux
gu erre
ĠCh a
Ġvie ill
Ġexemp laire
Ġva che
Ġ9 9
Ġtrait ons
ĠAm sterdam
Ġcou l
Ġcondam nÃ©s
lant ation
Ġbal le
Ġordin aire
ĠillÃ©g ales
AC H
Ġisra Ã©lo
Ġpat ron
Ġterminer ai
Ġcens Ã©
ĠÃ® le
Ġinvent Ã©
Ġintensi fier
Ġinad Ã©qu
veloppe ment
Ġmette z
auto dÃ©
ĠÃ©car ts
Ġdesque ls
Ġaper Ã§u
ĠbÃ©n Ã©v
ĠcroÃ® tre
ĠSom alie
zerb aÃ¯d
r ist
Ġde bout
Ġs age
Ġm Ãª
Ġm ers
Ġla ment
un al
Ġch anter
Ã©r usalem
Ġter mine
gn ant
Ġins ul
ig ue
Ġfinan cÃ©s
Ġlong s
Ã´t res
aÃ® tra
ĠrÃ©alis ations
ĠV ienne
Ġappli que
Ġbr u
aur ont
Ġcapit ales
Ġno tes
Ġdemander ai
Ġstructure l
Ġmanifest Ã©
ĠdÃ©mar rer
Ġadap tÃ©es
Ġimag inez
Ġmat ch
Ġmenac ent
Ġrejet s
ĠdÃ©plac Ã©es
Ġsusp endre
Ġcompos ants
infrastru ctures
Ġengend rer
Ġportug ais
Ġmens onge
Ġinspe ctions
Ġajus tements
ĠÃ©larg ir
Ġtiss u
Ġparal ys
Ġineffic ace
Ġmissi les
c ra
j ordanie
u ge
v o
w n
es pÃ©rer
Ġp ond
er te
it ter
Ġt ue
ch a
ĠP E
ac tes
am Ã©nagement
av ancement
Ġli ti
ad ore
ĠB ill
ĠdÃ©p endre
Ġsa oudite
ĠdÃ©m ante
Ġdonn ons
Ã©qu itÃ©
Ġai dent
Ġfinan cÃ©
ĠreprÃ©sent ante
ĠO ccident
eff orce
tis Ã©
Ġban qui
ĠGr oupe
tÃ©rieur es
Ġsour is
Ġpren antes
ĠdÃ©velopp ent
Ġexige ant
Ġsouver ains
ĠrÃ©par ation
ĠdÃ©rou lement
Ġatten tifs
exploit er
Ġmodern iser
ĠdÃ©cou lant
Ġmotiv ations
Ġfo lle
nier ie
Ġincomp ati
Ġprolong er
ĠconÃ§ ue
Ġobs c
Ġfant astique
Ġenv oie
Ġconj onc
ĠTi mes
ĠintÃ©rim aire
ĠTrib unal
ĠVenez uela
ĠCis jordanie
a une
c orÃ©
d isc
g it
s ch
Ġl is
it z
Ġau da
di ctions
Ġcomp osÃ©e
ins crire
ĠÃ©g ale
Ġdire cteurs
Ġst ables
ĠR o
ĠR ich
ĠD G
Ġcha peau
Ġsoi x
ĠcollÃ¨ ge
Ġappli cations
ĠtÃ© moins
Ã©ch Ã©
Ġno tÃ©
Ġport ait
Ġ8 00
Ġcommencer ai
cev able
opp osent
Ġpartis an
Ġfourni es
Ġenvis agÃ©e
Ġrester ont
Ġsyn thÃ¨se
Ġval oris
Ġgu Ã©r
Ġplac Ã©s
Ġsinc Ã¨res
ĠnÃ©gli ger
Ġhonn Ãªtes
Ġfas cin
ĠsecrÃ©t ariat
Ġgui der
Ġtari f
Ġaveug le
Ġsurc roÃ®t
Ġdorm ir
Ġhi Ã©r
assassin at
ĠSecrÃ©t aire
ĠYÃ©m en
0 2
A i
S inon
s me
Ã© anti
Ġl an
Ġl Ã¨
Ġl ux
Ġp Ã©nÃ©
Ġde dans
Ġs lova
Ġqu Ãªte
un ique
Ġr o
Ġr assurer
Ġf us
Ġg Ã©rÃ©
Ġne z
Ġch ante
ol er
Ġme ts
Ġcomp lÃ©
Ġdire ctions
Ġmar qu
Ġmes sieurs
ĠS m
ĠdÃ©p osÃ©e
Ġter ri
ĠT aÃ¯
ĠrÃ©p res
ente z
Ġcar rÃ©
ĠF at
Ġpri mes
ĠÃ©le veurs
im a
exp l
Ġvis itÃ©
anc Ã©e
Ġdou ane
Ġatte intes
Ġtrait ent
Ġformul Ã©e
Ġmor ales
ani um
ĠarrÃª tÃ©s
Ġpermettr aient
Ġtransform Ã©
ĠentraÃ®ner a
Ġlic ence
Ġru pture
Ġconserv ateur
Ġdesc end
Ġmerveille use
Ġprati quer
Ġatti re
hy dro
Ġpil ote
ĠhÃ©r itage
aband on
Ġvrais embl
Ġaffect ent
Ġdomes tique
ĠultÃ©rieure ment
Ġmagaz ine
Ġretrai tÃ©s
1 0
N i
P A
a qu
c or
m ains
Ġc oute
Ġc oupes
ti g
Ġs o
an nexe
Ġm urs
Ġm Ã¢
Ġr ab
as es
li min
al it
tre r
Ġpl omb
Ġcomm Ã©m
Ġcomp osÃ©
oci ation
Ġentre tenir
Ġper fe
ex iger
ĠintÃ© resse
Ġab at
ĠN am
Ġrest Ã©s
ĠV oici
att ent
Ġsuc c
Ġmod estes
Ġhab itude
Ġbou c
Ġferme tÃ©
ĠcompÃ©t ents
ĠdÃ©n u
Ġmob iles
Ġmob ile
cepti cisme
ĠtÃ©lÃ©ph ones
Ġvoyage urs
Ġfamili al
Ġdivis Ã©
Ġmultila tÃ©rale
Ġimpression n
ĠinfÃ©ri eure
Ġbloc age
Ġcop ie
Ġautor itaire
accÃ© der
ougos lave
Ġexpl osi
ĠÃ©chapp er
Ġpouss Ã©e
Ġindire ctement
Ġenne mi
Ġincontest ablement
Ġfructu euse
indivi dus
ĠingÃ© nieurs
Ġnomin al
Ġsouples se
Ġmater nelle
D is
c al
f ense
r Ã´
Ġn aÃ®tre
or tÃ©es
Ġf oyer
Ġen vergure
Ġpar ts
Ġb ir
ĠrÃ© alise
os tat
ĠC anc
Ġse ction
ces seurs
am Ã¨ne
Ġcomp ortent
Ġcont este
onn ant
Ġimp ulsion
ĠB ien
ĠT e
Ġexp ul
Ġprodu ites
Ġren voyer
ĠG al
ĠÃ©c la
ĠJ Ã©rusalem
Ġcour ante
inter dire
Ġpi Ã¨ge
Ġsy ri
Ġaliment ation
Ġten eur
ĠtÃ©lÃ© vis
Ġanim ales
ines s
Ã©le ctor
ess aie
Ġanal o
Ġcolle ctives
impli que
Ġbless ures
ĠdÃ©bu tÃ©
Con formÃ©ment
ĠmaÃ®tr iser
Ġpropag ation
ĠdÃ©r ange
ĠnÃ©fas tes
ĠTai wan
c is
f euille
r ise
v abilitÃ©
Ġp Ã©ni
ou ch
Ġla tin
Ġun itÃ©s
âĢ ¦
Ġin appropri
Ġex h
ĠS aint
Ġpers Ã©cu
ic k
Ġma Ã¯s
ser v
ud isme
ĠÃ©v olue
ass umer
ĠI N
ĠJ eux
Ġrest Ã©e
Ġpopul aritÃ©
Ġform ations
Ġviol ent
Ġdonner ait
Ġdoc teur
Ġ7 00
Ġrou ges
Est onie
ĠFr ontex
accep tation
Ġappar tenant
ĠprÃ©f Ã¨rent
Ġinv itation
Ġsouff rir
Ġcorre ction
Ġassoci Ã©e
lan tiques
Ġrele vÃ©
Ġregret ter
Ġcorrespond ant
indi que
200 6
Ġsubs iste
Ġarm Ã©s
Ġclari fication
Ġtempor aires
Ġrej oins
Ġhom ologues
ĠdÃ©bou chÃ©
ĠbÃ©b Ã©s
Ġdoig ts
Ġmorce aux
Ġconsenti s
Ġrenvers er
laud issements
ĠschÃ© ma
enj eu
Ġconfid enti
Ġstup ide
H O
d Ã©e
l ants
n o
r ud
w in
Ġd inos
Ġp Ã¨s
Ġs ing
un n
om ph
Ġt endre
Ġt rim
Ġv e
Ã¨ lent
ci ent
ĠrÃ© examiner
Ġin hum
ff ice
app orte
ĠprÃ© le
Ġfin it
ĠS ah
ex Ã©cu
Ġinter rog
Ġpos sÃ©
Ġam our
ĠT haÃ¯
Ġprodu cteur
Ġon Ã©
Ġai gu
ĠdÃ©mocra te
Ġass ass
ali ment
Ġ3 4
Ġcour rier
Ġform Ã©
Ġinf ec
Ġviol ents
Ġjuridi ction
ĠÃ©ch antil
Ġdiri gÃ©e
Ġtent ation
ĠprÃ©f Ã©rer
ĠgÃ© nie
Ġassur ance
Ġfrapp er
Ġexer cÃ©e
exemp tion
Ġmutu el
Ġexploit ation
Ġsomme ts
ĠrÃ©volution naire
Ġtri p
Ġextraordin aires
Ġbrut ale
Ġdo tÃ©e
ĠII I
Ġrob ots
aci er
Ġirak ienne
ĠEur o
ĠrÃ©pu blic
Ġdomin ante
ĠMil lÃ©naire
ĠrÃ©pand ue
Ġreten u
Ġpal udisme
Ġscep tiques
Ġpakistan ais
Ġgraph ique
etter ing
ĠallÃ©g ations
zerbaÃ¯d jan
disc rimination
P eux
l Ã©ration
er ons
Ġn age
Ġt alent
Ġf ur
Ġv Åĵ
Ġv ocation
Ġen rich
li ers
al in
Ġex Ã©cution
am is
Ġparti el
Ġres titu
Ġy ougoslave
ap our
Ġinter pr
Ġins cri
Ġcr aint
ob oda
Ġann once
anti le
Ġass ume
cul ose
ĠrÃ©g lÃ©
ĠrÃ©g issant
Ġtu ber
ĠmÃ©di oc
ĠÃ©ch ouer
Ġexpli cite
inc itation
In donÃ©sie
ĠcontrÃ´ lÃ©e
Ġbl anche
Ġmention nÃ©e
Ġchois ie
ĠMar s
ah ar
Ġk urde
Qui conque
Ġexer gue
Ġdevenu es
Ġmenac Ã©e
Ġprud ents
Ġtri omph
Ġcalcul s
imag ine
Ġnomm er
ĠdÃ©pass ent
Ġsoup Ã§
ĠSh aron
Ġadress Ã©es
Ġliqui de
Ġpost aux
Ġrej oi
Ġurb aines
ĠpÃ©ti tion
Ġdra peau
Ġobje ctive
Ġscandale ux
Ġpil otes
Ġreten ue
Ġpier res
ĠfrÃ©qu ence
Ġrigou reux
ĠprÃ©voy ant
aband onner
ĠÃ©duc atif
Ġilli m
Ġcontamin ation
Ġfrus tration
accompag ner
ĠMich el
Ġindu b
Ġredist ribution
esclav age
Ġponc tu
ĠvÅĵ ux
, "
C elles
i ze
ur Ã©s
Ġt alibans
Ġr omp
Ġen ra
and er
ĠprÃ© dire
vi ons
Uni versitÃ©
ist res
Ġacc roissement
ot age
Ġar mÃ©
Ġfond ateurs
Ġrec our
Ġrep roduction
Ġrep osent
ĠF e
ram mes
Ġdemand ait
ici le
Ġsouti endrons
Ġprof itent
ĠH u
Ġgaranti s
ĠrÃ©du ites
ĠsÃ© du
Ġretr ouvÃ©
Ġuti litÃ©
ĠdÃ©si gnation
inst aller
Ġunivers itaires
Ġtomb Ã©e
hÃ©r itage
Ġregard ant
Ġus ine
ĠÃ©lector ales
cid ences
Ġred oub
ĠdÃ©pl oyer
Ġacqu Ã©rir
ĠprÃ©ven tive
Ġbomb arde
ĠMont Ã©nÃ©gro
Ġdoub lÃ©
Ġdict ateur
ua sion
Ġpoursuiv ra
Ġregr oup
Ġmira cle
ĠPo ettering
ĠSw oboda
ĠcÃ´ti Ã¨res
Ġprocl am
Ġdilem me
Ġcontrefa Ã§on
ĠRE ACH
ĠJac ques
ĠCha mbre
F aisons
T rop
c ours
h r
m ises
Ġ onc
Ġde lÃł
Ġle vÃ©
il Ã©
au re
ni Ã¨re
Ġdi am
ro Ã¯
ter ait
Ġcomp ort
Ġdis si
Ġdis ais
Ġ1 20
ĠT rÃ©sor
Ġprog resse
acc orde
Ġcompr en
ĠL an
Ġpri me
ĠD r
ĠD eux
ali ments
Ġatt ray
Ġprof itÃ©
Ġrespe ctifs
Ġcoop Ã©ra
Ġcor Ã©
Ġpai e
ill Ã©e
Ġcher chons
ĠmÃ©t al
Ġfix Ã©e
Ġsec r
Ġautoris ation
Ġtest er
Ġadministra tif
Ġflexi bles
Ġign orÃ©
Ġplac Ã©e
Ġrent abilitÃ©
Ġtur cs
ĠopÃ©ration nelle
Seu ls
ĠprÃ©cÃ© dÃ©
Ġhom osex
Ġurb aine
Ġobje ctions
Ġremb ourser
Ġautonom ie
Ġrestre indre
ĠdÃ©couver tes
Soy ons
ĠPN B
Ġrecru tement
Ġboute ille
Ġnerve ux
oton ou
enthousias me
Ġtuber culose
1 99
h Ã´
n ob
er Ã§
Ġm ien
in demn
ais er
Ġdu es
ĠrÃ© sidence
Ġin cident
ĠC ent
ĠC otonou
ĠM i
ĠM ondi
Ġav i
Ġex cÃ¨s
Ġmar di
ĠB olk
endre z
Ġas si
Ã©c lar
Ġob tient
Ġprodu ise
ig ne
ĠL ul
Ġconstitu ait
Ġprof onds
ĠK ir
Ġinc omb
Ġappr ennent
entre tenir
asse mblÃ©e
ĠgÃ©nÃ©r alisÃ©e
Ġ4 3
occu pe
Ġaugment ations
Ġtour nÃ©
ĠW e
ĠmÃ©t aph
Ã©p reuve
arri Ã¨re
ĠBar nier
Ġexac erb
resse ment
Ġbat tu
Ġpen che
Ġarriver a
este in
Ġcompli quÃ©e
Ġign ore
Ġcaus er
ĠtÃ©moi gn
ĠtÃ©moi gner
Ġinnov antes
Ġsymb oles
Ġcam ions
Ġfas c
Ġurb ain
Ġenregist rÃ©s
Ġgasp illage
Ġlai tiers
aggra ver
Ġinquie ts
ĠbactÃ©ri es
harmon iser
Ġblan chi
extrÃ© misme
Ġdoctr ine
d y
n ations
x tes
Ã© lu
Ġc oupe
Ġle vier
Ġt arder
Ġr entre
Ġun ilatÃ©r
Ġb af
os ons
lement ation
Ġdi alo
ers on
Ġh ali
ĠprÃ© limin
oc cident
Ġco di
Ã©c ran
ĠT ony
ĠR w
ĠdÃ©m ographiques
Ġon ze
Ã¨g ent
ls trÃ¶m
olo gue
ĠlÃ©g alement
Ġconn ait
Åĵ urs
Ġmi di
Ġreconn us
Ġorganis Ã©es
Ġabs ent
Ġimpli cation
Ġaccomp agn
ĠFr anc
Ġsolid aire
Ġbl Ã¢
ach Ã¨vement
Ġprot estations
Ġsignific atives
Ġinvesti ss
Ġmat ernitÃ©
appel ons
Ġrent able
Ġdistribu Ã©
Ġtend ent
Ġsubs istent
Ġcommuni quÃ©
aci o
Ġaudi tion
mÃ©di aires
Ġbo om
Ġproportion nalitÃ©
Ġinspi rÃ©
Ġfrag iles
Ġsupr an
Ġamus ant
indivi du
Ġbour si
ĠsÃ©p arer
orth od
ĠlÃ©gisla teurs
Pl utÃ´t
Ġmigrat oires
appare il
ĠBolk estein
. ,
A T
A ustralie
F ais
M e
c an
j ad
k m
n istes
n ographie
t al
u be
Ã© tiques
Ġp Ã¨res
Ġs lov
Ġm uti
Ġm Ã©d
or able
it y
Ġr ends
Ġf ri
ag ira
Ġi di
pe cts
par cours
Ġfond ation
ocra tie
ĠD u
ĠD im
Ġaur iez
em ment
Ġvis iter
ĠH er
Ġ3 8
Ġinf e
Ġdou z
Ġinform atiques
Ġlar mes
Ġmodi fiÃ©es
Ġci bles
Ġsol enne
ĠentraÃ® nent
ĠY ORK
Ġtenu es
Ġphot ograph
Ġrur ale
ĠcaractÃ©r ise
ĠsÃ©par Ã©ment
Ġremplac Ã©
ĠX I
ĠRe d
ĠvulnÃ©ra ble
Ġbles sÃ©
arr ass
Ġlic ences
Ġharmon ie
ĠbilatÃ©r al
ĠGu inÃ©e
Ġdesc endre
Ġration nelle
Ġhabitu des
Ġmeur tri
Ġcompos ante
ĠperÃ§ ue
CA M
entra Ã®ner
ĠrÃ©comp ense
tÃ©n u
Ġcombusti ble
itar isme
ingÃ© nierie
Ġvolati litÃ©
Ġrattra per
ĠdÃ©sespÃ©rÃ© ment
ĠThaÃ¯ lande
. )
j ug
Ã© rez
Ġl ente
on f
Ġp ne
ou ts
ti ssement
in va
Ġv end
al lons
ra ges
Ġcon fier
ag rÃ©
ĠP ra
ĠM o
Ġex erce
Ġtra Ã®ne
Ã©n orme
Ġmar ques
Ġpers iste
ĠdÃ©p endant
Ġinter mÃ©diaire
Ġpos Ã©s
Ġtravail liste
lis tes
ĠG Ã¶
Ġdom ination
Ġsoi rÃ©e
Ġsous cris
Ġdur Ã©
Ġtrop ic
Ġforme llement
Ġsy mÃ©t
Ġglob aux
Ġessay ant
ĠÃ©vo quÃ©e
Ġexac te
Ġconsac re
Ġnorm alisation
Ġidenti fiÃ©
Ġsex uel
Ġdiver sification
Ã¶ der
Ġperd ue
Ġsang u
imag ination
Ġralenti r
Ġment ale
Ġincon di
ĠinquiÃ©t ante
Ġaccompag nÃ©
Ġmacro Ã©conomique
Ġaj oute
ĠdÃ©ses pÃ©
Ġpare il
Ġrenv oi
Ġbaiss Ã©
Ġtun nel
ĠSing apour
Ġtransporte urs
ĠcrÃ©anci ers
orthod ox
l t
Ġd ress
re prÃ©sent
Ġa isÃ©
in dustri
te use
op tion
al ors
ra q
ĠC D
ro ge
Ġcomp tons
Ġtra giques
Ġco existence
ot yp
Ġpouv iez
Ġar bre
ĠdÃ©b rou
Ġexp lor
ĠgÃ©n ome
ĠdiffÃ©r ends
Ġpropos ant
ĠO rient
Ġporte feuille
Ġint Ã¨g
Ġprofes sions
Ġur gents
han a
Ġconfront Ã©es
aÃ¯ da
Ġrenouve llement
Ġeffectu Ã©es
Ġmenac er
Ġexcep tionnel
Ġsomme il
Ġtransfrontali er
Ġpropor tions
Ġcens Ã©s
Ġrob e
Ġrouti ers
Ġadress Ã©e
autoris er
Ġble ue
ĠempÃª chent
ĠdÃ©tour ner
Ġgarantiss ent
Ġmens ong
ĠmaÃ®tr ise
ĠdÃ©cid Ã©e
Ġenseig nement
Ġrecueil lir
Ġterrib lement
acqu isition
oct obre
Ġmassac re
Ġambigu Ã¯tÃ©
ĠrÃ©ac teurs
Ġquar ante
Ġintr ins
Ġstag nation
Acc ord
ĠingrÃ© dients
b org
h Ã¨re
h ard
s ons
y mÃ©t
Ġa ph
is ait
in et
ĠÃ© di
au te
Ġpar d
Ġg ou
at ti
ag on
ĠC al
ac tif
el d
av es
ĠprÃ© rog
tr aire
Ġli aison
Ġan nex
ge ance
ad is
ad mettre
Ġpers Ã©v
ĠdÃ©p rÃ©ci
ine jad
Ġas c
ĠT it
Ġprodu ctions
ĠF Ã©dÃ©ration
imp Ã´ts
ĠE x
Qu atre
esp Ã©rance
Ġindi quant
Ġcour be
fic atif
ĠdÃ©pu tÃ©e
tent ri
Ġcomb iner
ĠtÃ© m
Ġenti tÃ©
Ġextr ait
Ġexig Ã©
Ġmention nÃ©es
Ġdiscrimin atoire
Ġassoci ation
Ġrecev ront
ĠsupÃ©ri eurs
tiss ent
Ġgui de
Ġprimordi ale
Ġespagnol s
Ġtransat lantiques
Ġdouani Ã¨res
Ġreb elles
Ġbomb es
Ġinnoc ents
Ġregr oupe
ĠJo han
Ġatom ique
Ġtoxic om
Ġsoix ante
ĠTaÃ¯ wan
Ġperfe ction
serv atoire
, âĢĿ
a ve
Ġd og
Ã© min
Ġp omme
ou le
ur anium
Ġt al
Ġf leur
Ġf olie
ri te
ra ble
Ġin att
Ġpl ant
Ġtr au
end it
ac cidents
ĠM art
ati ne
ul ent
fi ants
lÃ© gi
Ġmar ine
ĠS ri
ler ai
Ġam or
ob stac
Ġann on
ĠL u
Ã¢ mes
Ġaccord Ã©s
ĠCh ira
Ġatt ente
ph ab
Ġprom en
ĠreprÃ©sent Ã©s
ĠprotÃ© gÃ©es
ĠrÃ©glement aires
Ġrenforcer a
Ġrespec tÃ©e
ĠÃ©tudi e
Ġdonne z
opp ression
Ġprot estation
Ġinqui Ã¨te
ĠJapon ais
Ġassur ant
Ġautoris Ã©e
Ġmas sives
Ġpositive ment
ĠÃ©vent uelles
Ġexport ateurs
Ġneu tre
Ġconvi ens
ĠprÃ©t endu
ĠprÃ©t endent
Ġhandicap Ã©s
Ġoccup Ã©e
Ġpersonn age
Ġdivis Ã©e
Ġnoir s
mos ph
ĠBro wn
Ġmanip ulation
Ġ196 0
Ġtexti les
ĠAra fat
Ġfranch ir
Ġlicenci ements
Ġspati ale
Ġsuspend ue
Ġchypri ote
ĠMondi ale
ĠRw anda
inva sion
ĠChira c
A h
Y ougoslavie
a sion
c ites
l ades
m ati
m Ã©diterranÃ©
Ġp aient
Ġla p
Ġpr est
Ġque ue
al ade
tÃ© rÃ©
Ġin co
Ġin cidents
ĠC ast
ab att
Ġtr ouvez
iss aient
ĠB ur
Ġins crits
ĠT cher
ĠcrÃ© ons
Ġmont agnes
ĠlÃ©g alitÃ©
Ġ19 3
ĠI r
Ġservi ra
Ġcor rÃ©
Ġrenfor cent
ĠV ice
ĠreprÃ©sent ait
Ġviol ente
ĠprÃ©occu pÃ©
eng agent
ru p
In ter
Ġint roduction
ĠÃ©p ouvant
ĠdÃ©ch i
ĠÃ©n um
Ġcontribuer ait
Ġconst a
Ġconseil lers
Ġvisi bilitÃ©
Ġvisi teurs
Ġaffir mation
Ġlaiss ons
ĠdÃ©l it
ĠAn nan
Ġval ables
Ġperd ants
An nÃ©e
expli cation
olÃ© ances
anal yser
imag in
Ġpersonn alitÃ©s
Ġapparti ennent
Ġciter ai
Ġintellectu els
Ġautor ise
Ġpersuad er
Ġmonop oles
Ġrestre int
Ġrepos ant
Ġreviend rait
Ġlogici el
Ġdesque lles
ĠprÃ©m atur
Ġcollabor ateurs
ĠnÃ©glige able
Ġcompromet tre
Ġexhaus tive
ĠredÃ© fin
ĠPES C
Ġminor itaires
hypoth Ã¨se
ĠRich ard
G E
M arie
h ist
m at
o tte
v aient
z u
Ġm eu
Ã¨ ves
Ġb illet
Ġb aign
ag isme
ĠM erc
Ġcomp lais
onn age
Ġimp rob
Ġtra Ã§
eil les
ĠS IS
Ġinter vient
Ġinter mÃ©diaires
ĠA li
par ti
Ġexp oser
Ġexp osÃ©es
ĠcrÃ© Ã©es
Ġfond er
ĠG i
ĠF erre
ĠN ap
Ġmin us
Ġ19 1
og Ã¨ne
oli d
Ġindi enne
Ġfi Ã¨re
omb rables
Ġrem ont
Ġrem Ã¨de
Ġinf raction
Ġappli quent
Ġatte ind
Ġple urer
Ġglob ales
Ġfix ation
ak is
Ġ8 5
Ġinv itons
Ġconsul tÃ©
Ġanti biotiques
Ġcou ches
ĠCommun autÃ©s
Ġlongue ment
Ġemb ry
ĠdÃ©rou lent
Ġbureaucra tiques
Ġtrou b
ĠDan ube
Ġsoup le
Is lande
Ġprocure ur
ĠdÃ©Ã§ us
ĠPal acio
ĠgÃ©ni al
Ġonc le
ĠJohan nes
A P
g lise
h or
r oi
v ille
Ġd ons
Ġd resser
Ã© pr
Ġp y
ou ement
er tion
Ġpr estation
Ġun iques
us t
as c
Ġpar viendra
Ġb ul
oi le
ĠrÃ© ussie
ĠrÃ© habil
Ġin tu
Ġpro lon
Ã©r aux
ĠprÃ© jug
Ġimp osent
Ã©t endue
ins piration
Ã©n at
ĠB retagne
ist ait
Ġsoci alement
lu sions
ĠN ational
Ġbas Ã©s
Ġfer ti
Ġatt ribuer
enne mi
avant ages
Ġsupp oser
ĠrÃ©alis able
Ġtrouver a
Ġaucune ment
Ġchar ger
Ġmod Ã©ration
Ġeffe ctif
aff ect
Ġver sions
ĠintÃ©ress Ã©es
amÃ©li ore
Ġcer tification
Ġis olÃ©
Ġsuper mar
Ġcircul er
Ġcrimin el
Ġassoci Ã©es
Ġgag nent
ĠCor b
Ġphy si
200 1
Ġexcep tionnelles
ĠfrÃ© quent
Ġcens Ã©e
Ġorigin ale
Ġdivis er
Ã©tudi ants
Ġpolici ers
atur a
ĠdÃ©te cter
Ġenseig nements
Ġmusulman e
RÃ© cemment
Ġtap is
olog istes
ĠmÃ©cont entement
ĠdÃ©ter mine
explo sion
autodÃ© termination
Ġsing es
nob yl
Ġblanchi ment
ĠprÃ©jug Ã©s
C om
i tement
r ations
x ic
Â ·
Ġm it
ur ait
om en
Ġf umÃ©e
ĠÃ© ve
ĠÃ© ter
al lem
Ġj un
Ġin g
Ġin cidences
ac cessi
Ġil lusion
Ġav er
Ġav Ã©rÃ©e
Ġme xic
ois eau
Ġcons entement
onn aires
Ġmon te
lÃ¨ ver
ĠdÃ©c ol
Ġmar ke
ĠB us
Ġeff orcer
ĠdÃ©p Ã´t
ĠA lex
ĠL ang
Ġcol l
ĠE C
Ġess ai
ĠJ ordanie
ĠK im
Ġsens Ã©e
Ġvol Ã©
Ġterr estres
Ġcomb ats
erre urs
Ġmul titude
Ġvisi bles
Ġrac onte
Ġassur Ã©s
Ġapprouv Ã©s
ĠÃ©vent uel
Ġang l
ĠcrÃ©di bles
Ġemploy Ã©
Ġbal tes
Ġsouver ain
ĠsÃ©par Ã©s
ĠdÃ©rou ler
ĠrÃ©gu lier
Ġprud ente
affir me
Ġpertin ence
ĠÃ©quiv alent
Ġoccup ent
accomp agne
Ġach Ã¨tent
ID GE
ĠscÃ©nari os
ĠgÃ©nÃ© tiques
Ġscol aires
excell ence
ĠWal lstrÃ¶m
ĠrÃ©cipro citÃ©
ĠpÃ©riph Ã©rie
ĠpÃ©riph Ã©riques
ĠsÃ©p are
Ġinterromp ue
Ġtangi ble
ĠmolÃ©cu les
ĠÃ©b ran
Ġcivilis ations
Ġmalent endu
BR IDGE
ĠRÃ©s erve
Ġredoub ler
Ġslov Ã¨ne
CAM BRIDGE
Ġmarke ting
c ale
c omme
h n
it ait
si vitÃ©
Ġf la
Ġdes cription
Ġin certitudes
Ġdans e
ch rÃ©tiens
Ġre ch
ĠC ohn
Ġtr istes
ff e
di a
ro t
Ġli er
Ġimp ortÃ©s
Ġgr ossi
Ġser be
mi es
Ġper Ã§u
Ġper mets
co tt
ĠdÃ©p ist
Ġat out
ĠrÃ©p Ã©ti
Ġvoud raient
ĠF rat
des s
Ġcent aine
ĠJ ack
Ġremerci ons
Ġpens Ã©es
ĠdÃ©s ert
Ġph ases
Ġjou it
Ġindi ffÃ©r
ats on
Ġgra titude
ill aud
Ġdemander ais
Ġremp orter
ĠprÃ©occup ent
ug anda
Ġexc use
ĠÃ©vo quÃ©s
Ġappro visionnement
Ġlut tent
Ġprend ront
Ġapprouv ons
ĠfranÃ§ais es
Ġcroy ance
exc user
ĠrÃ©vÃ© la
Ġral lier
ĠapprÃ©ci ation
Ġdess iner
Ġinsuffis antes
ĠdÃ©v ast
Ġexcessi f
Ġsurm ont
Ġbienven u
Ġengend rÃ©
ĠconÃ§ us
Ġvacc ins
Ġgratu itement
Ġcab illaud
organ e
Ġsupprim Ã©
ĠDÃ©pu tÃ©
Ġhypoth Ã¨se
Ġcompati bles
Ġmerc ure
excell ente
Ġlou able
cop e
Ġsignifier ait
Ġrespectu eux
europÃ© en
Ġretomb Ã©es
Ġsoudaine ment
ĠinconvÃ©ni ents
Ġluxembourge oise
Ã©quiv alent
Ġlux e
ĠTcher nobyl
ĠCorb ett
ĠFrat tini
T S
U N
c tÃ©es
d ul
Ġd at
is olement
Ġm ir
Ġn aÃ¯
te borg
Ġv endu
ci des
Ġb ra
Ġb ag
ol as
Ġdi ab
ĠM ik
Ġcomp tables
et h
et tes
onn aire
Ġimp rim
ge ments
ins cri
cu les
la di
Ġper dus
Ġdiff Ã¨re
gu Ã©e
Ġab att
ĠN i
Ġvrai es
Ġmen Ã©s
Ġrest ait
oli b
ĠmÃ©di atique
Ġgra d
Ġparticip ant
Ġaugment ant
Al lons
Ġsuc cesseur
ĠW atson
Ġno tions
Ġpi ano
ĠprÃ©occup ante
Ġtransp oser
jus t
Ġpros titution
Ġminim al
Ġtechnique ment
anim al
Ġtrib une
ĠÃ©m ises
Ġemb all
ĠprÃ©sid ences
Ġrecons truire
inqui Ã¨tent
Jus te
Ġpertin ents
ĠisraÃ©li ennes
ĠtÃ©moi gnent
ĠÃ©quiv aut
arr estation
Ġord res
Ġhypoth Ã©c
Ġparc ours
Ġreviend rai
Ġinspe cteurs
Ġdomes tiques
ĠFor um
Ġcath olique
Ġadoles c
Ġinse ctes
Ġconjonc ture
Ġslova que
Ġbir man
ĠpossÃ© der
ahar ienne
ĠLan ka
Ġhali eutiques
Ġaph teuse
U C
f ace
g or
i j
l ocu
o ter
v ard
Ġp omp
Ġs onne
is tiques
Ġm os
in cidence
ar ov
ar ak
or ld
al lu
Ġj al
Ġg amme
Ġcon venir
ĠC os
ĠP ri
ĠP osse
ĠM ur
ĠM ag
ĠM ic
Ã©r ait
Ġco ins
Ġdiff user
ĠA D
Ġins istons
Ġad mi
Ġat titudes
Ġat mosph
uti le
ĠrÃ©p onde
ĠL igue
Ġor ateur
Ġconf Ã¨re
Ġnation aliste
ĠdÃ©s olÃ©e
Ġvers er
Ġenf er
Ġsupp osÃ©
Ġconsomm er
Ġrenfor cÃ©es
Ġinf antile
ĠÃ©ch o
Ġfour nie
ras mus
Ġremp lace
Ġsouhaite z
ĠrÃ©v Ã¨lent
Ġrev iennent
ĠindÃ© finiment
ĠprÃ©occup ant
ign orer
Ġreconnaiss ante
Ġrecommand Ã©
abs or
Ġgaz odu
ĠamÃ©lior Ã©es
Ġminim ale
Ġregard ent
Ġfavoris ent
Ġfavoris ant
Ġsouv enez
ĠmatÃ©ri els
Ġmenac Ã©es
Ġalli Ã©
Ġpan ique
Ġinterven us
Ġorigin al
appar tenance
Ġexpl orer
ĠmodÃ© rÃ©s
Ġdynam iques
Ġsurven us
Ġcardi aque
Ġparam Ã¨tres
Ġatro citÃ©s
Cin qu
ĠdÃ©mons tration
mad inejad
Ġauth entique
Ġnaval s
A llez
m o
m ont
p Ã¨re
s tes
Ã º
Ġd ys
Ġd ras
Ġc ord
an y
Ġm ail
om Ã©
Ġr aci
ĠrÃ© affirmer
Ġre vi
Ġpro duira
ĠP H
Ġdi able
Ġdi ap
tu rer
ter ont
gi Ã¨ne
lÃ© ph
con f
ĠnÃ© olib
enti els
emp ire
ĠR Ã©volution
Ġcontre par
Ã¢ t
sse ments
ĠE r
Ġdemand a
Ġgouvernement aux
Ġmainten ue
cul ation
Ġjou eur
ĠgÃ©nÃ©r ositÃ©
Ġjusti fiÃ©es
aur ions
Ġall ocations
ĠÃ©p is
Ġprot ester
amen er
Ġappro visi
abs tenir
Ġsex uels
Ġmas cul
ĠÃ©vent uels
Ġus agers
ĠmÃ©ri di
Ġpropri Ã©taire
ĠsupÃ©ri eures
Ġatten tif
Ġsugg Ã¨rent
Ġindividu el
Ġremarqu ables
ĠFin ances
Ġorig ines
Ġhonn Ãªtement
apprÃ©ci er
Ġrece tte
ĠimpÃ©ra tivement
ĠÃ©lar gi
arc Ã¨lement
ĠdÃ©fini tions
ĠgÃ©nÃ© reux
Ġrigou reuse
Ġprononc Ã©e
ĠmÃ©diterranÃ© enne
Ġincontest able
Ġdistor sion
Ġtac tique
Ġcess ent
ĠdiscrÃ© tion
ĠVi Ãªt
ĠChar les
Ġcigare ttes
ĠÃ©radi quer
inspe ction
ĠÃ©cosyst Ã¨mes
Ġscru pule
ĠincomprÃ©h ensible
ĠStre et
Ġcond olÃ©ances
ĠpÃ¨s ent
Ġindub itablement
ĠtÃ©m oin
ĠPosse lt
2 000
B C
B endit
O tan
m ant
Ġ Qui
Ġl Ã¨ve
Ġqu alit
Ġm yst
in timi
our n
me ur
ĠÃ© ri
ĠdÃ© du
ĠdÃ© tient
Ġb ov
Ġin certitude
Ġg ains
os ur
at urÃ©
ĠM aur
Ġh arcÃ¨lement
Ġapp auv
Ġ1 000
Ġfin issent
la ci
ĠB ag
alis ent
Ġins table
lis es
Ġess aient
ass ure
ĠlÃ©g aux
ĠdÃ©f enseur
Ġcontin ents
Ġenf ance
Ġlu cra
Ġreconn ues
Ġcul p
Ġcontribu ant
aur ai
aur ons
ĠdÃ©t est
ĠdÃ©t ente
Ġgestion naires
ĠindÃ© si
Ġdisposi ons
ĠÃ©p idÃ©
Ġsep tentri
ĠÃ©n onc
Ġchanger a
Ġconseil lÃ©
Ġobten ez
Ġfourn issant
Ġcontinue llement
Ġeffectu Ã©e
Ġpoi gnÃ©e
Ġinsuffis ants
ĠvidÃ© os
Ġprotectionn istes
oxy gÃ¨ne
Ġgrandi r
Ġrecon sid
hyp oc
ĠÃ©clair c
ĠWi ki
Ġarrange ments
ĠFond ation
ĠGÃ¶ teborg
ĠtraÃ§ abilitÃ©
P S
S avez
a ures
v it
Ġd ose
Ġc ous
Ġs ains
qu aient
Ġn Ã©s
un d
or ent
Ġr Ã´les
Ġf le
Ġf ret
Ġpr it
Ġen de
us ine
me di
Ġb ilatÃ©rale
ra ture
Ġh iver
Ġan Ã©anti
ins ertion
for ment
Ġco des
ist ante
Ġins atisf
Ġfa usses
Ġti b
Ġti r
Ġfinan cÃ©es
Ġcas se
ĠN Ã©p
Ġop Ã©rer
Ġconcern ait
ĠdÃ©f lation
intÃ© resser
Ġ20 50
Ġ4 7
Ġsign ataires
Ġcapit aliste
Ġconstru ctives
Ġir aniens
Ġcir cu
Ġban ane
Ġtranspar ents
Ġencour agent
Ġinstru ctions
Ġfort une
ĠrÃ©jou it
Ġcontra ctu
Ġfig urant
Ġcy c
ĠidÃ© ologiques
uffis ance
Ġrejet ons
encour age
Ġsymp ath
Ġach ar
ĠCar aÃ¯
Ġrequi Ã¨rent
Ġprolong ation
Ġchoc s
Ġvain que
Ġenj eu
Eur o
Ġinclu ent
Ġprononc Ã©s
Ġpont s
fond issement
Ġsympt Ã´mes
Ġsauveg arder
Ġslog an
Ġpand Ã©mie
ĠTAC IS
Ġcontras te
Ġbanqui ers
ĠSah ara
lades h
ĠdÃ©pist age
ĠNÃ©p al
0 3
S L
f onc
h uit
Ġ Quand
on aise
Ġp ic
Ġp ane
ou ti
Ġs tÃ©rÃ©
re yer
Ġpr omp
il lons
Ġb ourse
ĠrÃ© sidents
os ant
Ġpl aindre
Ġpo che
Ġje tÃ©
Ġh Ã´pital
Ġimp asse
ad ress
pr ud
ins tein
ĠdÃ©p rim
Ġman uf
emp orter
Ġat tÃ©nuer
ĠcrÃ© ateurs
Ġass oup
Ã©v alu
ĠnÃ©goci ateurs
Ãī cosse
Ġpuis siez
Ġsuiv ra
ĠcoÃ» tÃ©
Ġaugment era
Ġappel Ã©s
ĠLe on
Ġall ouÃ©
hi te
ĠdÃ©g agÃ©
Ġlaiss Ã©e
Ġcruci aux
ĠÃ©m ission
Ġfeu illes
Ġpropri Ã©tÃ©s
ĠidÃ© aux
indi quer
ĠUE N
Ġvari Ã©tÃ©
ĠnÃ©gli gence
Ġexcessi fs
Ġexcessi vement
ĠprÃ©al ables
ĠmaÃ® tre
Ġproc Ã¨de
Ġblo quÃ©
Ġrestructur ations
ĠprÃ©ven tives
ĠdÃ©clen cher
ĠEuropÃ© en
Ġquotidien nement
Ġfre iner
ĠpÃ©troli Ã¨re
ĠpÃ©troli Ã¨res
aw a
Ġcontradi ctions
Ġsurp lus
arra f
Ġconj oint
Ġavoc at
Ġloy ale
Ġjui fs
Dem ain
Ġintol Ã©rable
honnÃªte tÃ©
Ġmarqu age
ĠSm ith
ĠIr landais
Ġtib Ã©t
E gypte
M ont
a el
c ad
d ad
g me
l ins
l audi
t o
v an
Ġm aire
Ġm ath
ch ar
ch ait
at a
ĠC amp
Ġtr ous
Ġdi ra
Ã©s itÃ©
ir ai
Ġcomp atri
Ġpa use
Ġparti elle
Ġparti cul
iss er
ond es
ĠS akh
Ġcas sÃ©
ĠN ig
Ġdom inÃ©
ĠE h
ĠE tat
Ġaccord ant
ĠJ ui
ĠK az
Ġrest auration
Ġgaranti ra
Ġarri vons
Ġaccep tÃ©es
ĠcoÃ» tent
Ġ4 4
Ġref let
Ġsem ences
ĠmÃ© tier
Ġport ables
ensi bles
ĠdÃ©termin ante
Ġpotenti elles
Ġenvis agÃ©es
Ġcou cher
ĠÃ©vo quÃ©es
ĠSch r
Ġcatastroph ique
ĠrÃ©ser ver
entrepr endre
Ġsort ent
Ġsyn t
ĠintÃ©g ralement
oubli e
Ġvites ses
ĠSerb es
apprÃ©ci ation
Ġnav ale
Ġemprun ts
Ġfas sions
Ġax Ã©e
Ġincont rÃ´
Ġmeur tres
Ã©re ra
Ġoptim ale
Ġislam iste
Ġfier tÃ©
ĠprivilÃ©gi Ã©
Ġconsenti r
Ġstand ards
Ġerron Ã©e
Ġclin iques
Ġbiotechnolo gie
Ġamou reux
Ã©clar ation
Ġintrins Ã¨que
ĠCaraÃ¯ bes
S oit
b an
o Ã»
Ġn Ã´tres
Ġr ace
Ġr avis
Ġv us
Ġv ende
ve dev
au er
ci de
Ġb rÃ©si
res que
Ġin time
Ġin verse
ro ites
ac teur
Ġmo ind
fi ait
Ġgr Ã¨ve
Ã©n avant
Ġvi ve
par ole
Ġar t
Ġconcer ner
ob les
um ul
Ġcol oss
ĠD Ã©mocrates
Ġaccord Ã©es
ĠÃ©c oute
cul p
Ġsoi gner
Ġtech n
Ġjou era
gr Ã¨s
Ġcour ent
Ġlu miÃ¨res
Ġsens ation
Ġrap atri
Ġaccep tons
Ġoff erte
Ġ4 6
ĠrÃ©du isent
Ġbr iser
Ġtour nÃ©e
Ġple u
ĠW orld
Ġrencont rÃ©es
Ġentra ve
ĠreÃ§ ues
Ġhau tes
Ġsouhaiter ions
Ġcondu isent
Ġadap tÃ©s
ĠmatÃ©ri au
ĠÃ©mer ger
Ġlour dement
Ġtab agisme
Ġtur ques
Ġtouch Ã©e
ĠcoÃ»te use
accomp lir
Ġcam Ã©ra
ĠentraÃ®ner ait
Ġhonte ux
Ġfail li
Ġcompos antes
Ġobje ction
ĠinvitÃ© e
ĠperÃ§ oivent
ĠTh om
ĠmultilatÃ©r ales
ĠrÃ©uss ites
Ġiran ienne
Ġadul te
Ġinclu ant
amÃ©ric aine
Ġsensib iliser
Ġpun ir
Ġpanne aux
Ġjamb e
Ġfrontali ers
Ġconvers ations
extra dition
Ġvigil ance
Ġrepous ser
Ġparadox e
Ġarbitr aire
Ġgalax ies
Ã©lector at
unn ites
Ġtal ents
ĠCos ta
ĠSakh arov
Ġmoind res
L aisse
P C
d Ã©s
f re
m onie
p orts
Ġd op
en vergure
Ġp ul
Ġc itÃ©s
ti t
Ġs aut
it or
Ġv endus
Ġj oli
Ġre vers
Ġcon cession
di r
ĠP rog
Ġpo Ã¨me
ul mans
ys tÃ©ri
av ril
Ġh oc
Ġh orm
Ġcont ag
Ġtra fi
Ã©ri a
Ã©t ch
Ġco ton
ĠdÃ©p ar
Ġat h
ĠcrÃ© atures
Ġ" .
ĠG au
ĠG ro
ĠG hana
Ġrep roche
Ġfinan cÃ©e
imp unitÃ©
ĠN ie
Ġop port
Si x
Ġmen ant
hÃ© micycle
ĠJ ar
ĠK urdes
Ġsous crire
Ġva ches
Ġsub ord
ĠprÃ©c isions
asse z
all ocation
ĠW hite
Ġmodi fie
Ġquoi que
ĠdÃ©t ach
Ġeffe ctifs
Ġrencont res
ĠÃ©p ous
ĠdÃ©si reux
Ġdist ribuer
Ġtradi tionnellement
ĠamÃ©lior ant
Ġhabit uelle
Ġcy cles
Ġdiplom ates
Ġpollu ants
Ġoct royer
Ġnum Ã©riques
Ġami es
Ġprogres sif
roso ft
Ġul tra
Ġiss ues
Ġtch Ã©tch
Ġbloc s
AR E
rom e
Ġaccompag nÃ©e
ĠXX e
Ġdan oise
attend ais
Ġcre us
Ġrecueil li
Ġtiss us
Ġparal y
ĠrÃ©cipro que
inten sifier
Ġpharmaceu tiques
Ġfact o
Ġnordi que
Ġennuy eux
Ġolymp iques
ĠJour nÃ©e
ĠministÃ©ri elle
Ġtarif aires
hydro gÃ¨ne
Ġbul les
Ġfla mb
ĠbrÃ©si li
M S
V os
a ussi
p li
p alestini
or Ã©e
Ġf Ã»t
Ġv ins
Ġun itaire
Ġque re
us te
ve ill
ĠdÃ© ser
Ġg onf
Ġg laci
Ġcon si
av oc
Ġcont ac
Ġsou terr
ĠÃ©g oÃ¯
Ġper mission
ex ige
Ġam Ã¨
Ã§ aient
Ġins upp
Ġob tiennent
Ġseu ils
Ġmil itar
Ġti rent
ĠL omÃ©
Ġsav ions
ĠÃ©v itÃ©
Ġmont rÃ©e
og Ã¨nes
eff or
Ġcomb att
Ġbr ou
ĠÃ©crit es
Ġty ran
Ġessay e
ĠcontrÃ´ lÃ©es
Ġpol onaise
mÃ© nie
Ġbou ge
Ġretour ne
jus tice
Ġcondam nÃ©e
yn n
Ġsuper vis
ĠU S
Ġcrimin elles
Ġcruci ales
ĠAl b
Ġrenouve ler
Ġemploy er
ĠdÃ©n omin
Ġimag inÃ©
Ġallemand es
ck er
oz one
Ġbu ts
ĠproblÃ© matiques
ĠÃ©vid ents
ĠexÃ©cu tif
Ġclas siques
Ġprogress iste
Ġconsult atif
ek en
inv iter
Ġsatel lites
oub arak
Ġnett oyer
ĠimprÃ© visi
Ġdoulou reux
ĠdÃ©loy ale
Ġmyth e
ĠdÃ©place ments
Ġcompt abilitÃ©
Ġcontour ner
Ġore illes
Ġfluctu ations
Ġredev ances
opti misme
ĠclÃ´ ture
ĠhiÃ©r archie
Ġvraisembl ablement
Ġdinos aures
abatt age
ĠMerc osur
Ġimprob able
ĠBag dad
hypoc risie
Ġparaly sie
2 5
E E
R appelons
d ites
h ai
t us
y pe
Ġp ion
Ġs ab
Ġs cepticisme
Ġm utation
it Ã´t
Ġt or
Ġr age
Ġf ous
ri ka
Ġb onnement
Ġb oite
Ġin cidence
ol s
ĠP CP
ĠP rin
ĠM ul
Ġav enture
Ġcons truite
Ġapp rÃ©h
ĠB ri
ĠB Ã¢
ĠS P
bli r
ĠdÃ©p Ã´ts
enti elles
Ġdem ie
ĠT oute
ob Ã©sitÃ©
tin ction
ĠdÃ©m Ã©n
Ġab u
Ġcontr aires
Ġadop tent
Ġpens es
Ġsub it
Ãī t
ĠrÃ©alis me
ĠV oilÃł
ĠprÃ©c aire
ĠO h
Ġsoulign ent
Ġsign atures
ĠbÃ©nÃ©fici ant
Ġessay ez
Ġpasse port
Ġopp ose
Ġur gentes
ĠmÃ©th od
ess ai
Ġexamin era
Ġcer cles
Ġpor c
Ġatta quÃ©
OM S
Ġmas sivement
Ġpron once
Ġexer cÃ©
Ġregret tons
ĠidÃ© ologie
Ġamen Ã©s
oubli er
ĠirrÃ© ver
Ġitali ens
Ġaffec tÃ©
Ġimpression nant
pro jet
cin q
Ġvot ant
ĠAra bes
ĠmÃ©diterranÃ© en
Ġerron Ã©
ĠdÃ©plor able
Ġsoul ager
Ġpharmaceu tique
ĠindÃ©ni able
ĠrÃ©itÃ© rer
Ġcorromp us
impossi bilitÃ©
otyp es
Ġdys fonc
B G
O ffice
c ol
h t
l ut
m as
p as
x i
es ses
Ġm aux
Ġm Ã»
it ler
Ġpr oie
ĠÃ© min
ĠrÃ© Ã©quilib
Ġin tra
Ġg ang
Ġre viens
at or
ff Ã©rence
Ġch aise
ĠP C
ac u
ĠM aintenant
ĠM itch
Ġav an
Ġimp lant
lÃ© chi
for estation
Ġvi des
Ġmar ges
ĠA vant
ĠA fricains
ĠT r
Ġexp ert
cep tions
dÃ© pend
Ġcompr ise
Ġab eilles
ĠD al
Ġass ise
ĠdÃ©f endent
Ġesp Ã©rant
ing ue
Ġtour istes
ctu rer
Ã©ch anges
Ġexpli quent
Ġglob e
Ġinst ants
ĠdÃ©si gner
Ġfl or
Ġcolle cti
Ġtomb ent
ĠdÃ©fi ci
ĠÃ©lÃ©ment aires
Ġsex uelles
exist ent
Ġcombat tu
Ġstri cts
Ġstim ulation
Ġintelli gence
ĠbÃ©nÃ©ficier ont
Ġpes si
ĠrÃ©guli Ã¨re
ĠMal aisie
ck et
Ġgrec ques
ĠmaÃ® tres
Ġpou let
Ġax es
ĠinfÃ©ri eurs
ajouter ai
Ob servatoire
Ġdictat ures
Ġcib lÃ©es
Ġconten ue
ĠdÃ©lib Ã©rations
Ġanc Ãªtres
Ġence intes
Ġlai tier
Nombre ux
Ġindemn itÃ©s
Ġsap er
Ġtranqu ille
Ã©chapp er
Ġtardi ve
Ġconcl ur
conne x
ĠsÃ©cher esse
Ġsilenci eux
Ġfermi ers
Ay ant
Ġflagr ante
ĠÃ©cla tÃ©
ĠPH ARE
Ġmanuf act
ĠJui fs
A zerbaÃ¯djan
a ys
g s
k s
m oud
r onte
Ġp el
Ġa Ã©r
Ġa lÃ©
Ġa ustra
Ġt aire
il isÃ©
Ġen cl
ĠdÃ© ni
Ġpo Ã¨te
ĠM oubarak
Ġcomp are
Ġimp ut
Ġan d
oc a
oc aus
mi re
che z
ĠrÃ©s ume
Ġsa medi
Ġfor cÃ©e
ĠT Ã©
Ġat mosphÃ¨re
Ġprodu ctive
Ġdonn ait
Ġdom icile
Ġdisp ers
ĠÃ©c oss
Ġlib el
ĠCh rist
ĠJ un
ĠH a
Ġplan Ã¨tes
Ġrenfor cÃ©s
Ġorganis Ã©s
att endent
Ġterr estre
Ġsouhait ait
Ġsal ut
ĠÃ©ch ou
Ġsoulign ant
ĠdÃ©ci dent
ĠrÃ©pond ant
ĠrÃ©pond rai
Ġtent ant
Ġtravers ent
Ġten ait
Ġtrouv aient
Ġrappel lent
ĠLa eken
Ġconcep tions
ĠdÃ©si rent
Ġdispos ant
ĠprÃ©par atoires
ĠpÃ©tro lier
Ġrefus ons
Ġchance lier
Ġjudici euse
ĠAn gleterre
Ġassoci er
Ġemb ar
Ġlois ir
Ġuni formes
ĠcoÃ»te uses
Ġiss u
Ã¡ vez
Ġach ats
Ġamp li
Ġartis tique
Ġcib lÃ©e
Ġsalu Ã©
Ġgratu it
Ġislam iques
ĠAb bas
Ġparcour u
ĠmÃ©diterranÃ© ens
ĠcÃ©lÃ©b rer
ĠÃ©tique tage
Ġartifici elle
Ġfrontali Ã¨res
Ġrenv oie
Ġineffic aces
Ġaverti ssement
Ġclin ique
ĠPol onais
Ġimpos ant
Ġchim ie
Ġgigantes que
Ġracc our
Ġliti ges
ĠFat ah
ĠprÃ©rog atives
ĠCast ro
intimi dation
Ġmath s
G A
c ence
i um
Ġl Ã¢
Ġp istes
Ġc Ã¢
re ction
an si
is prud
Ġm Ã©tÃ©
it uelle
Ġf lÃ¨
Ġf eux
Ã¨ les
op e
ĠdÃ© tiennent
ĠdÃ© teste
Ġin ch
Ġre la
Ã©r aient
Ġcons erve
Ġh ol
tr ent
onc ent
ĠÃ©t roites
Ġvi f
ĠB h
ĠS oci
ĠA pp
Ã©c ar
Ã©c la
Ġexp osition
acc us
Ġgouver ner
ĠL in
ĠN atura
Ġbas sin
Ġop Ã¨rent
Ġcap ture
Ġlib y
aiss es
exp osÃ©
ph el
Ġsub mer
Ġhum ili
Ġris quons
ĠrÃ©alis ent
Ġmi xte
Ġfondament alisme
ĠO M
ĠO s
Ġ4 1
Ġchar gÃ©es
ĠdÃ©pens Ã©s
Ġtravers Ã©
inc endi
Ġcomprendre z
ĠintÃ©ress Ã©e
ĠcontrÃ´ lÃ©
Ġappar ence
ĠmÃ©c anique
Ġdonne urs
roy able
Ġcouv rent
Ġmag ique
uss itÃ´t
Ġval ent
ĠmÃ©dic ales
ĠMais on
Ġcroy ances
Ġporter a
Ġexploit ants
Ġdo tÃ©s
ĠsÃ©v Ã¨rement
Ġorigin aire
Ġax e
ĠrÃ©solu es
effond rer
accueil lir
ĠrÃ©col te
Ġrecti fier
Ġlabor atoires
ĠrÃ©tic ence
Ġlog istique
ĠsÃ©qu ence
Ġenglob e
Ġtangi bles
Ġlent eur
Ġjur isprud
Ġlune ttes
ĠDÃ© fense
Ġsomb res
Ġchron ique
ĠMed vedev
Ġcorp ore
Vou lez
Ġangl aise
ĠMic rosoft
Ġcontrepar tie
ĠSchr Ã¶der
ocaus te
0 4
E mp
T E
V eux
h iver
t Ãªte
Ä į
Ġd ates
Ġc auche
Ġm ons
ur Ã©e
Ġt asse
Ġr oy
il la
Ġin cite
ĠP Ã©r
am Ã©ricains
Ġcomp table
Ġo f
Ġh onorable
Ġtra jet
Ã©t riques
Ġson ge
Ġvou liez
Ġpers Ã©cution
ĠÃ©conom iser
Ġdonn a
ĠF ED
Ġcompr endra
pu issance
Ġpubli Ã©e
Ġmal aria
Ġaur ais
aiss ance
ĠI V
Ġfer mÃ©e
ĠJ ames
exp ertise
Ġrespe ctivement
ĠH arb
Ġpens ant
Ġpres tige
Ġju gÃ©s
Ġesp Ã¨rent
Ġcommen Ã§a
ill Ã©s
Ġref uge
Ġtour nent
Ġpriv er
ĠrÃ©un ies
ĠdÃ©t resse
Ġconcurr entiel
Ġport uaires
ĠLa den
ĠdÃ©ch ar
Ġappar ue
Ġlo gements
ĠprÃ©par Ã©s
Ġattend ue
Ġenvis agent
ĠgÃ© ant
ĠimmÃ©di ates
pl an
Ġlaiss Ã©s
Ġtax i
Ġautoris Ã©es
Ġliv rais
Ġautom ne
ĠRÃ©pu blic
Ġexige ons
ĠidÃ© ale
Ġintrodu its
Ġdr Ã´le
Ġpuiss antes
Ġcalcul er
Ġsymb ol
Ġincap acitÃ©
Ġsubstanti el
Ġclas sification
ĠconÃ§ ues
Ġmanip uler
Con sid
ĠrÃ©cu p
Ġabsten us
ĠÅĵu vrer
Ġindire cte
Ġdram atiques
ĠrÃ©cla ment
Ġdict ateurs
Ġpert ur
Ġappuy Ã©
Ġinquie t
ĠÅ ķ
ĠprÃ©dÃ© cesseur
Ġly cÃ©e
Ġinscri te
affect ation
Ġtrafi quants
ĠBÃ¢ le
A V
H omme
L AF
N ul
P ire
P ouvons
T on
i mer
v in
Ġv Ã´tre
al ine
al arme
Ġsur vÃ©
rÃ© tien
di enne
Ġch ats
ac ulture
Ġpo t
Ġpo ches
ĠM un
am itiÃ©
Ġent rÃ©s
ad hÃ©
ins ur
Ġpu its
En se
Ġmar ier
ĠS ur
ĠA gence
Ġas tr
ang Ã©s
Ġad hÃ©r
Ã©g Ã©m
Ġpart agÃ©es
ĠF re
Ã¢ me
Ġmal aise
ative ment
vers aires
ĠH ow
Ġremerci ant
Ãī glise
Ġsens Ã©
asse oir
ĠbÃ©nÃ©fi ques
Ġimpli quÃ©e
Ġtent ons
Ġsus c
ĠprÃª tes
Ġmort es
Ã©gi de
ĠdÃ©g age
Ġsort ant
Ġmag ie
AN ASE
Ġinten sive
ĠrÃ©vÃ© lÃ©e
200 2
Ġsubs titution
uy ant
Ġimmi gration
Ġaudi tions
ĠdÃ©sastre ux
Ġesti mer
Ġvacc ination
Ġcab inet
Ġplaf onds
ĠÅĵu fs
ĠÃ©pr ouvent
Ġpair s
Ġrempli es
Ġpromet tre
Ġvali ditÃ©
env oi
ĠÃ©puis Ã©
Ġcatal yse
HÃ© las
ignor ance
ĠMED A
Ġavi aire
ĠrÃ©habil itation
Ġbov ins
ĠKaz akh
ĠsurvÃ© cu
D ieu
F aire
I I
J amais
Q aÃ¯da
i rer
m atis
n s
z a
Ġd ensitÃ©
on ald
Ġp ing
Ġc le
Ġs ale
er v
Ġn oy
Ġf ui
Ġb oy
Ġre par
ĠC at
ĠC aire
ens en
ĠM u
Ġav ouer
Ã©r ante
am ine
av al
Ġh uis
Ġh Ã¢te
fi ces
fi able
Ġprop ice
Ġtra je
Ġdis sidents
Ã´ te
ĠÃ©g ales
co t
ĠS il
ĠS ant
ĠS am
ĠS oleil
ard o
Ġas ymÃ©t
ic ago
Ġar chi
emp ris
Ġti mide
Ġprodu ctif
Ġcompr enant
Ġrel Ã¢che
Ġag issons
Ġconf Ã©rer
Ġmont Ã©
ĠCh icago
ili te
Ġfer iez
accord ent
ĠK ad
Ġadop tons
Ġ3 50
Ġjou ir
Ġnu age
Ġfi abilitÃ©
Ġrecher chÃ©
Ġcul te
Ġparler ai
ĠsÃ© ances
Ġfac ture
ĠW eb
Ġforme l
Ġentendu es
Ġvolont airement
ĠdeuxiÃ¨me ment
Ġcoup le
ĠprÃ©occup Ã©e
Ġsau ter
Ġsau vÃ©
Ġinst ance
Ġbl ague
Ġmor alement
Ã©m otion
Ġprot Ã¨gent
Ġsembl ant
Ġobten ue
Ġconsac rÃ©es
ĠbÃ¢ ton
ĠAn ge
Ġache vÃ©
ĠÃ¢ me
rog ance
Ġperman ents
Ġsouv i
Ġang ulaire
Ġprovo quent
Ġambiti euses
atta che
exc use
Ġtravaille ur
ĠinterprÃ© ter
obser ver
Ġorigin aires
ĠdÃ©sastre uses
Ġpolici er
ĠdÃ©battu e
Ġenv ah
Ġmacro Ã©conomiques
Ġinforme lle
ĠtempÃ©ra tures
Ġspor tives
Ġamend es
ĠBang ladesh
ĠMah moud
Ġneutr alitÃ©
opÃ©ra bilitÃ©
ĠchrÃ©ti enne
Ġprest ataires
Ġculp abilitÃ©
A SA
R Ã©s
S S
t end
u ves
Ġl Ã©
an Ã©ment
Ġn oyau
Ġla ver
Ġt Ã©n
si l
si de
Ġf ir
Ġv oc
Ġun is
Ã¨ nement
il lement
Ġj olie
ri Ã¨res
Ġb ond
Ġg ain
Ġpl aces
Ġch aude
ĠM ay
ul Ã©e
Ġh ar
Ġcont rer
Ġimp osÃ©s
Ġtra Ã®
vi d
ĠnÃ© o
Ġper cevoir
ĠdÃ©c ro
ĠS ar
Ġpos ter
ĠR oy
Ġexp on
ĠcrÃ© ative
rib ue
Ġsav aient
Ġconf ort
ĠE sp
Ġpe int
ĠlÃ©g er
ĠH elsinki
Ġ3 9
Ġju me
Ġnu ages
ĠO b
Ġremp lissent
Ã©le ver
Ġtrait ant
Ġcontribuer ont
Ġsouff rant
Ġfourni ra
Ġconvainc ante
immi grants
Ġpren ions
enf ance
Ġadopter a
emb all
Ġtrib ut
Ġperd ons
Ġvari ent
Ġmultip lier
Ġsinc Ã¨re
Ġfonctionner a
Ġfaciliter a
ĠrÃ©guli ers
Ġaffec tÃ©es
Ġhor rib
ĠintÃ©ri eurs
Ġstab ilis
Ġappor tÃ©s
Ġconjoin ts
Ġlanc Ã©es
hy giÃ¨ne
Ġremb ours
Ġpouss ent
ĠmodÃ© rÃ©e
ĠBi ble
ĠprÃ©voy ait
Ġaffaibli r
Ġmultipli cation
Ġray ons
ĠrÃ©form ateurs
ĠÃ©labor Ã©e
Ġquarti ers
Ã¤ n
aler te
Ġsuici de
Ġplai d
ĠfaÃ§ onner
Ġfid Ã¨le
expÃ©ri ences
Ġfili Ã¨re
Ġalb anais
ArrÃª te
ĠspÃ©cific itÃ©s
Ġimmin ente
Ġtrim estre
ĠXI X
Ġmensong es
ĠcorrÃ© lation
Ġjurisprud ence
ĠKazakh stan
9 8
M ar
O s
c arb
i rale
p ie
t ages
z i
Ã© mettre
Ġs able
an en
Ġm ut
li g
Ġb is
Ġpl at
Ġpl age
de dans
di ct
Ġch imp
ol ation
ĠP ack
Ġdi ront
Ġdi git
ĠM IT
Ġdev int
du le
che v
ex tinction
Ġpers istent
Ġnom bres
ot tes
ic acitÃ©
Ġar ra
Ġrep enser
Ġcompr enez
Ġgrand issante
ĠE v
Ġop tÃ©
ĠCh Ã¡vez
Ġ19 50
Ġsouti enne
Ġfer mÃ©s
Ġgrande ur
cul er
Ġemp ire
oli ques
ĠdÃ©s ordre
Ġfi let
Ġfi lets
ĠrÃ©g lÃ©e
ann ulation
Ġcommen Ã§ant
Ã©ner gies
Ġref onte
aff ronter
ĠprotÃ© gÃ©
Ġremp lit
Ġrou main
ĠcontrÃ´ lent
Ġdiscu te
ĠlibÃ©r ales
ĠcomplÃ¨ tes
Ġconcent rÃ©
ĠentraÃ® nant
Ġsp irale
Ġdispar aissent
ĠdÃ©g rad
agir ait
Ġsour ire
Ġminim iser
ĠdÃ©ce vant
cl Ã©s
Ġfabri quÃ©s
Ġbureaucra tes
Ġred onner
Ġquot a
Ġblanc s
ume urs
Ġinuti lement
Ġprivil Ã¨ges
Ġrequ ins
Ġinterven u
Ġsusp ici
Ġartis te
Ġvig ou
ĠmÃ¨ ner
Ġprag matisme
Ġimmob ili
Ġspor tifs
donÃ© si
Ġapport ant
ĠprÃ©m aturÃ©
Ġom ni
Ġclub s
dÃ©mocra tique
Ġfragment ation
ĠdÃ©rÃ©g lementation
ĠhÃ´ tel
Ġannonc Ã©e
Ġdor Ã©navant
Di x
affai b
Ġgrimp er
Ġfame ux
observ ateurs
ĠÃ©nergique ment
Ġhon orer
ĠLeh ne
yan mar
ĠmÃ©taph ore
Ġcomplais ance
Ãº n
Ġpane uropÃ©
ĠThom as
Ġchimp anz
A L
I R
J ohn
R ussie
S ou
n est
p ay
v oire
Ġd ame
Ã© te
ent er
it a
Ġt Ãªtes
ĠÃ© mette
ĠdÃ© cev
tÃ© rature
ĠrÃ© sident
os h
at aire
rÃ© gi
Ġse mblÃ©
ol it
end es
Ġje tte
Ġent er
Ġgr en
ad er
ise ment
ĠdÃ©c al
ven u
Ġes clav
Ġinter rompu
Ã©c l
ĠT IC
ĠR Ã¼
ĠcrÃ© era
Ġti rÃ©es
ĠG and
ĠL os
Ġsitu ent
Ġsitu Ã©s
Ġcontr ari
ĠN Ã©
Ġass iste
Ġaff ront
Ġlib Ã©rÃ©
Ġvis ages
aÃ® tront
ov a
Ġcours es
ĠV ir
Ġform Ã©s
Ġ5 6
inter roger
Ġoff ensive
all Ã©e
ĠW all
Ġno tification
Ġouv riers
Ġfra ction
Ġ201 4
Ġabord Ã©es
Ġur nes
Ġexamin Ã©es
ze mb
amb i
Ġsuivi es
exist ait
Ġrecev ra
Ġcommence z
Ġradic ales
Ġvari ations
Ġuni fiÃ©e
ĠopÃ©ration nels
ĠMal ms
Ġbois sons
Ġpersonn ages
commun aut
Ġautor itaires
Ġlanc Ã©s
Ġterritori ales
ĠmÃ¨ nera
ĠÃ©chÃ© ance
Ġfournisse ur
Ġisol Ã©s
Ġinforme l
amÃ©ric ain
Ġstimul ant
Ġressembl ait
Ġchauff age
Ġpanne au
oct royer
Ġloy autÃ©
Ġbrill ant
Ġcos mÃ©
Ġgagn ant
Ġhosti le
Ġbiom asse
ĠdÃ©loc alisations
Ġneur ones
Ġempre intes
Ġchev aux
ĠconcrÃ© tisation
Ġfacul t
Ġcerti fic
Ġcanc ers
ĠdÃ©d omm
ĠPhili pp
ĠIN D
Ġromp re
ĠMalms trÃ¶m
O GM
S t
V oud
i ro
l l
o bli
v ail
z bÃ©
Ġ /
Ġ ours
en qu
om Ã¨tre
Ġv arie
ĠÃ© lo
ri ront
ch age
Ġpl ante
ag ner
ĠC r
Ġsur g
am o
ĠprÃ© cieuses
Ġrapp elez
Ġgr aines
vi ol
ĠÃ©t roits
Ġes pÃ©rÃ©
Ġinter locu
Ġar rÃªts
ours es
ĠF ord
ĠL atine
ĠN et
ĠÃ©v itant
ĠE rasmus
ass Ã©s
Ġ19 30
ali er
Ġconn aisse
ĠK ab
Ġvis ites
ĠV ladi
ĠmÃ©di ation
Ġatte ign
nÃ© tique
Ġcher chant
Ġir ration
ĠdÃ©pens ent
Ġver ront
Ġchi ites
ĠÃ©p idÃ©mie
Ġth er
Ġvisi blement
Ġcolle ctivement
Ġtomb Ã©s
Ġatta che
Ġcrimin elle
Ġidenti fiÃ©s
Ġcouv rant
off res
Ġexer cent
Ġviv ait
Ġcompli quer
Ġlit tÃ©rature
ĠprÃ©sid Ã©
ĠapprÃ©ci e
Ġatten tive
Ġrecons titution
Ġjuge ments
Ġgre cs
affir mation
Ġextraordin airement
encour agement
ĠinterprÃ© tations
Ġcam ar
Ġenseign er
Ġmic ros
Ġsoud anais
Ġsouvenir s
ĠrÃ©pand u
Ġincl uses
Ġaggra ver
Ġrh ume
Ġfranch ise
Ġmigr ations
ĠDar win
Ġgouverne urs
ĠRi o
Ġhorizont ale
Ġhomosex uels
hÃ´ tel
ĠFranc is
Ġsupran ation
Ġgou tte
ĠFerre ro
adhÃ© rer
S ais
d rome
g o
k ach
p o
p ri
w ood
Ġ orthodox
Ġp Ã©
ti Ã¨re
in de
om o
om es
Ġpr or
Ġv aud
Ġen veloppe
ĠÃ© oli
ĠdÃ© di
Ġpar itaire
ri el
Ġin exist
Ġg Ã¨ne
Ġre viendra
Ġcon grÃ¨s
Ġtr ains
ĠP i
Ġcomp osent
Ġh Ã©li
ond ance
Ġentre ra
ĠB ig
ĠB ange
Ġinter culture
Ġinter dite
ine use
Ġdiff Ã¨rent
ĠA d
Ġman gent
Ġins ou
Ġar chitecture
ĠT er
Ġses sions
ĠR am
Ġexp orter
Ġcar re
Ġpart agÃ©s
Ġor ange
olo gies
Ġess ence
Ġmont rÃ©s
ĠÃ©c ran
Ġpermet tait
exp oser
Ġrest ons
Ġrest ants
ĠrÃ©f lÃ©chi
Ġnouveau tÃ©
Ġim meu
Ġindi gÃ¨nes
Ġoff res
Ġno ti
Ġpi le
ĠprotÃ© gÃ©e
Ġremp lis
Ġsouten ues
DE M
ĠlibÃ©r aliser
Ġchois is
Ġven aient
ĠprÃ©par atoire
Ġmor alitÃ©
Ġexamin Ã©s
ĠthÃ© orique
ĠthÃ© ories
Ġnour rit
ĠdÃ©pend ants
ĠAn dre
roy ez
Ġbat terie
Ġdistin gue
Ġdiver si
Ã¶ r
Ġimag ination
Ġaltern atifs
ĠdÃ©rou lÃ©
Ġ13 0
Ar mÃ©nie
200 3
ĠsystÃ© mique
Ġpes ant
Ġapprofondi r
Ġhor re
ĠÃ©valu Ã©
ĠdÃ©clen chÃ©
Ġattribu Ã©
ĠÃ©chapp Ã©
Ġgard ant
Ġvain cre
Ġrang s
ĠrÃ©vis Ã©
Ġoppos ons
envis age
Ġdoub ler
Ġexam ens
Ġenregistre r
Ġchanti er
Ġconsister ait
ĠlÃ©gisla teur
Ġpatri e
obs c
affai blir
aqu aculture
Ġabat tu
ĠRed ing
atti re
Ġreconsid Ã©rer
ĠJar zemb
ĠPÃ©r ou
zbÃ© kistan
ĠBange mann
O P
c rÃ©
d om
h u
h ans
h eures
l Ã¨re
s oci
v itÃ©s
en veloppe
Ġp iles
Ġs unnites
qu in
ai ment
ar iser
it ante
it anie
Ġpr ouvent
ĠdÃ© forestation
Ġj aune
Ġcom ble
Ġdans er
Ġne ts
di quer
ĠP ie
Ġdi eu
Ġac cess
Ġent rÃ©es
ĠÃ©g lises
Ġvi ves
ĠdÃ©c omp
Ġal ent
Ġins istance
Ġar ts
Ġconcer tÃ©e
Ġexp Ã©di
Ġcar ences
Ġfond ent
ĠG or
Ġpubli Ã©s
Ġor ch
Ġag isse
ĠD roits
ass ister
Ġavant ageux
Ã©di ction
aiss ait
Ġdemand Ã©e
Ġfer vent
ĠJ usti
ĠH el
Ġpres criptions
Ġfais able
ĠdÃ©clar ant
ĠO omen
Ġz o
Ġsigni fient
ĠÃ©qu itablement
Ġmoyen nant
ĠrÃ©un it
ĠprotÃ© geant
Ġtrouve rez
Ġcoup Ã©
ĠcontrÃ´ lÃ©s
ĠÃ©p reuve
ĠrÃ©sou dra
Ġconstat ation
Ġsp ont
Ġcentr aux
Ġcolle ction
Ġmand ats
fg hans
ĠarrÃª tÃ©e
Ġenvoy Ã©e
ĠdÃ©velopp ant
Ġapprouv Ã©es
Ġprovo quÃ©e
ĠIrak iens
ĠopÃ©ration nelles
ĠinterprÃ© tÃ©
Ġment alitÃ©
ĠdÃ©lic ates
Ġsubstanti elles
Ġsubstanti els
ĠmÃ©n age
ĠprivilÃ©gi er
Ġimpliquer ait
Ġclandes tins
Ġfen Ãªtres
Ġpare ille
ĠdÃ©favoris Ã©s
Ġfructu eux
oure usement
Ġrespectu euse
Ġmassac res
Ġaffirm ations
ocu tion
ĠrÃ©uni fication
Ġressent ent
ĠmolÃ©cu le
ĠHar vard
ĠvÃ©tÃ©rin aires
Ġcoute au
Ġlatin o
Ġpy ra
dess ous
Ġmir oir
absor ption
ĠÃ©clairc issements
empris onnement
ĠAnge les
ĠEv ans
ĠJarzemb owski
D ites
O IT
U S
W ald
l os
s k
s Ã©e
Ġd enti
Ġl oup
Ġc itation
Ġr ide
Ġce inture
ant h
au be
Ġpour rai
ri chi
Ġb lÃ©
Ġb ourses
ĠC amer
Ġsur viennent
ĠM ann
Ġav al
av Ã¨rent
Ġmon des
Ġser ve
lÃ¨ ge
Ġapp laudi
Ġfin ira
Ġaut oc
ĠA ir
ĠA ustralie
Ġman uel
Ã©c riture
Ġst op
ĠT alibans
Ã©g lise
ĠdÃ©m unis
Ã©qu ation
ĠD Ã©claration
Ġmin ce
anti cip
anis ation
Ã©ra bles
Ġcap t
Ġlib anais
Ġsub ti
Ġsupp ort
Ġsupp rime
ĠprÃ©v ision
Ġnot able
Ã©conom ies
Ġ5 4
Ġsuiv ront
Ġdonner ai
Ġbr us
Ġlim itent
Ġcan aux
Ġfac ilite
Ã©ch o
Ġenti Ã¨res
Ġpoursui vis
Ġfran chi
Ġessay ent
ĠcompÃ©ti tives
Ġconcent rations
Ġdix iÃ¨me
Ġfu sions
ĠrÃ©ser vÃ©e
Ġreje tÃ©s
Ġquali fication
lÃ¨ve ments
Ġconfir ment
Ġadap tation
Ġphy t
Ġmat uritÃ©
Ġral li
Ar ctique
200 5
gra de
Ġdess ins
Ġcompens ations
Ġincroy ables
Ġaccus Ã©s
ĠÃ©volu ent
Ġinnov ants
Ġlac une
Ġsusp endu
Ġbarri Ã¨re
yst Ã¨me
accÃ© lÃ©ration
Ġcombin Ã©e
Ġvig oureusement
Ġinspi rer
ĠfrÃ©qu entes
ĠrÃ©vis Ã©e
Ġfant Ã´me
Ġhypoth Ã¨ses
ĠaÃ©rop ort
Ã©vent ualitÃ©
ĠdÃ©fend ons
Ġcontrovers Ã©
Ġcontrovers Ã©e
Ġsurven u
ĠexcÃ©d ents
ĠPN R
meu tes
ĠÃ©cras ante
Ġopti misme
Ã©vÃ© nements
Ġinco hÃ©r
ĠrÃ©pÃ©ti tion
ĠMitch ell
Ġcauche mar
Ense mble
kach enko
ĠJusti ce
1 5
D Ã©mocrates
P resque
d h
j ten
l aires
m al
t z
u il
Ġd otation
an amo
op tique
op Ã©rer
ne llement
ĠdÃ© form
ĠdÃ© vers
Ġpar vienne
ĠrÃ© ci
ĠrÃ© ception
ch enko
Ġg ro
di e
ĠM onde
ĠM yanmar
ter ies
ui jten
Ġcons Ã©cu
Ġh ect
Ġmo que
fi a
mi des
Ġvi cieux
Ġco gni
Et ant
ĠA dam
Ġas sim
Ġfor cÃ©s
Ġad versaires
int ol
Ġtrans c
ob us
ĠL ag
ĠL ors
ĠE UR
Ġaccord ent
ĠCh e
ĠreprÃ©s ailles
Ġsous cri
ĠrÃ©sul tent
Ġindi cation
ĠprÃ©v aut
Ġform ules
att arder
Ġtu meur
ill us
Ġsign Ã©e
Ġref roi
Ġjusti fient
Ġsatisf ont
ĠmÃ©t aux
Ġentra ves
Ġappar us
Ġpol y
ĠgÃ© rÃ©e
ĠimmÃ©di ats
Ġcolle ctifs
Ġcondam nons
Ġpren ait
Ġsuper puissance
ĠarrÃª tÃ©es
Ġpollu eur
Ġmob ilis
ĠcatÃ©g oriquement
Ġrent rÃ©
ĠrÃ©t ro
associ e
ĠÃ©li gi
Ġtur bul
Ġfou et
ĠRe hn
ĠnÃ©gli gÃ©
ĠirrÃ© aliste
Ġrasse mblement
tiss ant
Ġdiss uad
Ġfal si
Ġach Ã¨te
Ġmotiv Ã©
Ġsovi Ã©tiques
ĠEur ostat
ĠTch ad
Ġdevi endrait
idÃ© al
Ġsti g
ĠÃ©loi gnÃ©s
ĠrÃ©uss it
Ġindic ateur
Ġcontradi ctoire
Ġimmob iliers
eb a
cop t
Ġanticip er
Ġsond age
extra ction
ĠingÃ© ni
jac entes
Ġtac tiques
ĠdÃ©centr alisation
Ġukraini en
Ġeffond rement
ĠdÃ©cour ager
Ġrigi de
ĠlaÃ¯ que
Ġnat alitÃ©
Ġconcl ut
Ġveuille z
intÃ©ress ent
ĠnÃ©cessiter a
Ġench Ã¨res
Ġbulg are
apparti ent
Ġconfidenti alitÃ©
Ġinfe cti
ĠPra gue
ĠintÃ¨g re
ĠdÃ©tente urs
ĠdÃ©par tement
ĠflÃ¨ che
Ġcatalyse ur
Ġtraje ctoire
Wald ner
C R
F ran
S ommes
S ouvent
d Ã©es
en i
en vers
Ġs illage
Ġe h
Ġm ienne
ĠÃ© lÃ¨ve
ĠÃ© lue
as me
as tiques
Ġpour v
Ġj adis
oi ds
ait re
Ġg estes
Ġre lÃ©
Ġpl aider
ĠC Ã´te
end raient
ĠP au
ĠP lan
se pt
Ġcons istait
tr aite
Ġapp arition
Ã©t onne
Ġinter view
Ġsa ch
Ġcl Ã´t
ĠdÃ©m ago
Ġderni Ã¨rement
ĠG Ã©n
ass oup
Ġlib Ã©rÃ©s
Ġfer ions
ĠdÃ©s agrÃ©
Ġindi ens
ĠO Ã¹
att le
ĠÃ©ch anger
Ġvoy ait
Ġlim itations
Ġrespect ons
Ġver tic
Ġencour agÃ©e
Ġencour agÃ©s
ak a
ĠprÃ©f Ã©rÃ©e
ha fi
Ġreconnaiss ants
Ġcorre ctes
Ġprend rait
Ġrac istes
Ġconfir mation
ila tÃ©ralement
Ġphot ographie
Ġenvoy Ã©s
Ġfrapp ant
Ġentend ent
Ġentend ue
Ġemb au
Ġ198 8
arb it
ĠcohÃ©r entes
Ġalli ons
ĠSt aline
Ġexcessi ves
Ġsouci er
ĠÃ©cl at
ĠdÃ©pl orer
Ġenseign ant
Ġincont ourn
Ġincon cevable
Ġradio actifs
Ġprolong Ã©e
Ġconten ait
ĠcÃ©rÃ© monie
Ġsauv age
Ġaccompag ner
ĠrÃ©ag issent
Ġcre user
ĠÃ©duc atifs
Ġgenti l
Ġattra per
ĠdiplÃ´ mes
Ġmagas ins
Ġbiblioth Ã¨ques
ĠPe ter
Ġaffirm ant
mir ation
Ġaddi tifs
ĠpossÃ©d ant
Ġscep tique
ato eba
Ġdissim uler
ĠvÃ©tÃ©rin aire
kh az
Ġchirur gie
ĠdÃ©blo quer
Ġbombarde ments
allem and
Ġdiab Ã¨te
any ah
Ġapprovisi onnements
ĠToute fois
Ġconclur ai
connex ion
ĠHarb our
Ġping ou
ĠVladi mir
Ġpror og
C l
H A
P rÃ¨s
m illi
p os
ou Ã©s
Ġs ons
er cu
an aise
in eux
in dic
un ir
or a
Ġen gr
li eu
al ue
Ġin adap
Ġin donÃ©si
ac er
Ã©r ants
el li
Ġcomm andes
av er
Ġcomp ose
Ġo eil
Ġent rant
Ġan tÃ©rieure
ge ons
Ġtra ce
vi ces
mi f
ĠS tu
ex h
Ġman teau
Ġob Ã©
int ensitÃ©
Ġat outs
ĠdÃ©b i
Ġexp ose
ob Ã©
ob je
ĠrÃ©p ercu
Ġni gÃ©ri
dÃ© veloppement
Ġcompr enne
imp u
imp ulsion
ĠÃ©le ver
Ã©ra diquer
ĠK e
ĠH ans
ratÃ© gie
Ġnu is
Ġcul tiver
eff ici
Ġsuff ira
ĠmÃ©di a
ing tiÃ¨me
Al gÃ©rie
Ġvoy ant
Ġlim itant
Ġsuc cession
Ġten ais
ĠbÃ©nÃ©fici era
Ġ7 8
Ġrou es
Ġall ong
Ġtransp lantation
hi b
Ã©le ctri
Ġreli er
ĠprÃ©par ons
ĠIn diens
Ġcou tu
Ġcou tume
ĠSch mid
Ġcondu cteur
ĠamÃ©lior ent
rie d
appro fondi
ush ima
pi ers
Ġfabri quÃ©
erb er
Ġbal ay
Ġdiver gence
Ġpalestini ennes
atta ques
Ġtradu isent
Ġpat tes
Ġespagn oles
ĠcaractÃ©ris Ã©
oubli ez
ĠirrÃ© gu
Ġphysique ment
Ġdiss oci
Ġdiss uasion
Ġax Ã©
ĠdÃ©sastre use
Ġprati quent
Ġpsych ologie
ĠÃ©loi gnÃ©
Ġgratu ite
ĠdÃ©bu ts
Ġisol Ã©e
ĠCI A
ĠÃ©par gner
ĠextrÃ© m
ÃŃ a
201 0
Ġimmob ilier
ĠparallÃ¨ les
autom ob
ĠrÃ©sid us
Ġrecti ficatif
ĠfÃ©min ine
accompag nement
Ġvigil ants
Ġsoul agement
Ġchant age
Ġdisproportion nÃ©e
ĠMus ulmans
DÃ©s ormais
Voy ez
ArrÃª tez
ĠspÃ©cific itÃ©
invent er
ĠLou kachenko
ĠprÃ©judici able
Ġimpressionn ante
Ġdissi per
Ġadolesc ents
ĠindÃ©si rables
outi ls
Ġinsupp ortable
Ġalent ours
D onnez
H I
I voire
R uijten
d eux
k ara
l ler
m uni
Ã ±
Ã© tisation
en Ã§ons
Ġs Åĵurs
Ġa isÃ©e
Ġla x
ar bre
Ġt ours
Ġv endent
Ġun ir
ont aine
ĠÃ© lÃ©ph
Ġpar adi
Ġb ro
Ġtr oupe
Ġch au
mb les
Ã©r as
av Ã¨nement
Ġh abilitÃ©
ĠprÃ© dis
Ġcont ester
Ġan tÃ©rieures
Ã©ri ons
Ġco hab
Ġes cient
Ġinter disant
Ġinter dites
Ġpos tu
ĠA ss
Ġman uels
Ġal cool
Ġins ulaires
ĠÃ©conom iste
Ġtrans mises
Ġcr uellement
ĠR and
Ġcl o
Ġcro issantes
um s
Ġrec uler
ĠF E
ĠF l
ĠF ab
ĠF uk
ocra tique
ĠD ire
Ġmal heur
ĠÃ©le ctricitÃ©
Ġca chÃ©
Ġmet tait
Ġpe inture
ĠÃ©c art
Ġmen ons
Ġobjecti ves
Ġpass ages
Ġsous crit
ĠH ug
Ġpopul istes
qui er
Ġfi le
Ġfi ctif
ĠreprÃ©sent erait
ĠspÃ©ci alisÃ©s
Ġ5 1
Ġterr ains
ĠcoÃ» tera
Ġatte ignent
inform atique
Ġsais is
inc orp
Ġport rait
ĠGr and
Ġrencont rons
Ġuti l
Ġamb assade
ĠprÃ©f Ã©r
Ġcontra ct
Ġorient er
ori ale
ĠBar Ã³n
ĠSch w
Ġsurpr en
Ġrati o
Ġsyn drome
Ġdiver gent
ĠillÃ©g alement
Ġconvi endra
ĠtÃ©lÃ©ph on
Ġvari ables
Ġexclu sive
Ġinsuffis ances
ĠmÃ©r ites
Ġbrut al
Ġaccr ues
Ġscand ales
Ġcam ion
orient er
appar aÃ®t
Ġirak iens
Ġplani fier
Ġtransit oires
ĠFran k
ĠdÃ©ri ve
val le
ĠdÃ©te ction
ĠÅĵu vres
Ġconne cter
Ġconnex es
ĠrÃ©col ter
inv itation
acqu Ã©rir
Ġfrus tr
ĠDi am
Ġspati al
Ġrenf lou
ĠdÃ©Ã§ ue
ĠpossÃ©d ons
ĠcoÃ¯n cidence
Ġarrange ment
ĠdÃ©lÃ© guÃ©s
iz oo
ĠNic olas
Ġmena Ã§ant
ĠGuant anamo
Ġobsol Ã¨tes
influ encer
Ġatmosph Ã©rique
Ġmyst Ã¨re
ĠMaur itanie
Ġhorm ones
Ġcollecti vitÃ©s
B e
P aul
T ON
a fric
b ri
c tÃ©e
d al
f er
l ass
l ines
o ques
Ġd its
Ġl ot
Ġl Ã¢che
on au
Ġp lier
Ġs aines
Ġm y
Ġm iel
ĠÃ ´
or Ã©s
Ġt onne
Ġr aff
Ġr enseignement
Ġv ingtiÃ¨me
Ã¨ cle
ĠÃ© lÃ©g
Ġau teur
li ques
ri ces
Ġb andes
ĠrÃ© cep
Ġpas sive
Ġpas sif
Ġg al
at han
Ġpl a
ui es
onn ons
Ġpoli o
Ġser vant
Ġser bes
gi ens
iss age
ins cription
ĠÃ©t oile
ĠB yr
ine mment
ot a
Ã©c rou
Ġtrans mise
ĠT w
Ġat tir
ĠR en
Ġcar t
ĠG old
sie tte
out ant
imp Ã©ri
Ġcol line
ĠgÃ©n Ã©rÃ©
ĠgÃ©n Ã¨rent
Ġmilli er
ĠE L
Ġbas ant
ass ons
Ġaff Ã©r
ĠI t
ali ers
ĠJ osÃ©
Ġinc ons
oris er
ann oncer
Ġfondament alistes
Ġfonction naire
Ġ5 8
inter roge
ĠdÃ©fin issent
Ġdou anes
ĠsÃ© min
ordin aire
ĠrÃ©pond s
ĠW est
tis Ã©e
Ġban lieu
Ġgl oire
Ġver dict
Ġaliment Ã©
Ġtransport er
Ġrecomm encer
Ġabord ons
Ġrend ons
Ġactiv istes
Ġchois issent
ĠIn donÃ©sie
Ġfu ir
organis mes
Ġunivers itÃ©
Ġquali fiÃ©es
pi des
Ġsimpli citÃ©
ĠÃ©cou lÃ©e
ĠÃ©m inemment
Ġprison nier
Ġbout on
ĠprÃ©sid entiel
Ġrejet tent
ĠRe agan
Ġirlandais es
Ġsalari ale
ĠSe attle
Ã©quipe ments
ĠtragÃ©di es
Ġautonom es
Ġbus iness
Ġdouani ers
ĠrÃ©comp ens
Ġplate forme
Ġattent at
Ġsacri fier
Ġsacri fices
Ġem m
Ġgenti lles
Ġbran che
Ġaffi cher
Ġjui f
ĠrÃ©ac teur
ĠAng lais
ĠprÃ´ ne
Ġtoile ttes
Ġfoc aliser
Ġmam an
Ġmajor itaire
ax e
ĠÃ©pau les
Ġrende ments
Ġsyner gies
Ġbale ines
ambassade ur
Ġsuperf lu
Ġsucc omb
Ġregroupe ment
Ã©pr ouve
Ġemball ages
Ġseptentri onale
Ġsouterr aines
ĠPhilipp ines
! "
A tt
L ON
S er
T r
j k
l able
p ent
t oc
y cle
Ġd ent
Ã© lande
Ã© lÃ¨vent
Ġl itu
Ġc aution
ou ille
ti endra
Ġa ussitÃ´t
Ġe ue
in justice
te ga
om ination
il lusion
ĠÃ© ni
que ts
ĠdÃ© mes
Ġpar lions
eu f
Ġin si
Ġpro di
end t
ĠP et
Ġsu re
Ã©r ales
Ġsou fre
Ġser iez
gi bilitÃ©
mi tisme
Ġvi ti
Ġentre tient
Ġco erci
ĠdÃ©c rÃ©
ĠB lo
ĠB lan
ĠS ier
Ġes qu
ĠrÃ©s out
Ġinter f
Ġinter min
alis ant
ine ment
Ã§ Ãł
use z
Ġat ter
ĠR os
Ġcontre car
acc ueille
Ġvo tÃ©e
Ġvo lets
rÃª te
ĠN ASA
Ġmet trait
Ġass istants
Ġmainten us
ĠK u
Ġvers Ã©
Ġjou et
Ġress ens
ĠdÃ©clar Ã©e
ĠreprÃ©sent Ã©e
Ġ5 7
ing rad
Ġ4 9
Ġfour mis
Ġref aire
unes se
Ġconnaiss ait
Ġexpli quant
Ġtravers ons
Ġaliment er
Ġpoursui ve
Ġfran co
Ġconcent rÃ©s
ĠAm Ã©ric
Ġvisi ons
aÃ¯ que
Ġindis cu
Ġestim ation
ĠÃ¢ gÃ©
off rent
Ġrendu es
Ġperd ure
Ġdeme urer
Ġrent ables
Ġquit te
Ġprim autÃ©
Ġcoord onnÃ©es
ache ver
Ġcourage use
Ġsurf aces
Ġhabitu Ã©s
bi te
ĠrÃ©clam ons
Ġmonop ol
Ġdiscip lin
Ġvolu mes
Ġprag matiques
Ġdiv orce
Ã©cri v
Ġaim ons
Ġilli cite
ĠSa oudite
Ġbrill ante
Ġgagn ants
Ġbiom Ã©triques
Ġopti mistes
ĠprÃ©dÃ© cesseurs
ĠstupÃ© fiants
Ġforesti Ã¨re
ĠprÃ©val oir
ĠMande lson
ĠpÃ©nÃ© trer
ĠCanc Ãºn
Ġassass inÃ©
Ġrestitu tions
Ġinterpr Ã¨tes
indemn isation
Ġincondi tionnel
obstac les
accessi bilitÃ©
ĠrÃ©vÃ©la teur
gor ith
Ġgazodu c
Cinqu iÃ¨mement
Ġcord es
Ġcompatri otes
Ġopport une
ĠXIX e
pay eur
approfondi r
ĠByr ne
ĠSier ra
T ra
g res
g hi
h on
h am
k ins
k ing
l ui
m ie
p ersonne
r al
u aire
Ġ oiseau
Ġp iste
ou lou
Ġs h
Ġs aisie
Ġm adame
Ġm Ã©ch
Ġr ose
Ġr otation
Ġun animitÃ©
il Ã©s
ĠÃ© meutes
au ph
Ġb eur
Ġin ventions
ch arge
di x
ac teurs
ain issement
Ġcomp osÃ©s
Ġo tage
Ġh Ã©ro
onn a
Ġsou cis
Ġimp ar
En viron
ĠÃ©t endues
ĠÃī t
ĠS Ã©nat
ĠA z
Ġins crire
min g
ĠR Ã©
Ġexp riment
gu isme
ig h
ĠG il
Ġmain tiennent
Ġpubli Ã©es
utilis ateur
ĠD am
ĠD aph
Ġbas que
Ġinc orre
ĠH itler
ari o
Ġvers ement
Ġpopul isme
Ġfais abilitÃ©
ĠV itor
Ġprom o
ĠprocÃ©d ur
Ġoc cul
inter action
inter opÃ©rabilitÃ©
Ġviol entes
Ġoff ice
ing Ã©rence
Ġdou x
ĠtÃ© les
ĠW olf
Ġno ble
ĠdÃ©t ache
Ġmod ulation
Ġretr ouvons
inc in
Ġimm enses
Ġgen oux
Ġall ocution
Ã©p anou
ĠprÃ©par Ã©e
Ġcentr alisÃ©e
Ġpropose z
Ġpor nographie
Ġavanc ent
ĠAl banie
Ġrenouve au
resp o
Ġtotal itaire
Ġconven able
Ġcompli quÃ©es
Ġraisonn ablement
ĠBel grade
atta cher
Ġquit tent
Ġafric aines
200 4
imm ense
Ġitali ennes
ĠrÃ©guli Ã¨res
ĠÃ©cl aire
Ġhor aires
Ġexcell ents
Seu lement
Ġintellectu el
Ġharmon isÃ©e
Ġtempor airement
ĠCol lÃ¨ge
ik anen
Ġressor tir
Ġincomp lÃ¨
Ġpolitici en
Ġincl use
Ġarr estations
Ġend omm
ĠdÃ©bu ter
ĠgÃ©nÃ© reuse
Ġanc rÃ©e
entra Ã®ne
ĠmathÃ© matique
oul os
Ġprononc Ã©es
Ġconnex ions
ĠÃ©car ter
ĠdÃ©plor ons
ĠLi ikanen
ĠMich ael
Ġbatt us
Ġrail s
Ġfid Ã¨les
Ġagres sive
Ġempre inte
Ġincert aine
ĠdÃ©vas tat
Ġfame use
her be
Ġtypique ment
emprun t
Ġpne um
hard t
Ġminus cule
ĠJohannes burg
ĠMul der
Ã©gÃ©m onie
ĠKad hafi
carb ures
Ġchimpanz Ã©s
intol Ã©rance
ĠVitor ino
6 0
C royez
F orce
G arde
H elsinki
R E
f eld
g Ã©n
m ait
Ġd auph
Ġc ray
re ev
ent ente
Ġqu ator
Ġn it
ur a
Ġla urÃ©
in ze
Ġv allÃ©e
as si
Ġpar i
Ġpar u
Ġpar ap
Ġpas sions
Ġin fin
Ġg olf
Ġg oÃ»
os ser
Ġcon duira
ĠC ologne
ĠC respo
Ġch Ã¨que
ac Ã©e
Ġex istÃ©
Ġsi en
Ġo tages
and re
fi ables
ad t
ad mets
Ġapp uie
onne t
Ġrapport ent
ĠdÃ©c Ã©d
ĠB ourse
ex cÃ©d
ĠrÃ©s ist
gn ons
Ġst ations
ĠrÃ©p rim
acc ro
um an
Ġprodu ctifs
Ġfond Ã©s
Ġren ation
Ġpart ent
ĠF ried
Ġsitu Ã©es
Ġag issements
Ã©ra teur
ĠCh i
Ġconstitu Ã©e
ali ens
hÃ© tiques
cul teur
esp Ã¨ces
Ġvis ait
Ġcompte z
ĠrÃ©f Ã©rer
Ġcor de
Ġgaranti sse
Ġsupp osÃ©s
Ġreg agner
Ġfi bres
ĠreprÃ©sent aient
att ach
Ġsuiv ons
Ġviol s
Åĵu f
Ġtour istique
ĠpÃ©ri odi
all as
Ġappel ait
Ġconfi g
aff ec
Ġver tes
ĠrÃ©v olutions
Am Ã©ricains
Ġrou e
Ġfix es
Ġexc lut
Ġinst aller
ĠprÃ©par ent
Ġconcent rent
Ã©tique tte
ĠrÃ©ser voir
ĠpÃ©n ins
Ġoffici ers
ĠAl gÃ©rie
Ġsimpli fiÃ©e
Ġretard Ã©
Ġfrapp Ã©s
Ġprovo quant
Ġcroy ait
Ġchamp ign
Ġcirconst ance
ĠtÃ©lÃ©ph oniques
Ġtransform Ã©e
Ġintelli gentes
Ġfrau dule
Troisi Ã¨me
Ġquotidi ens
Ġencourage ons
Ġmari Ã©
Ġsubs istance
Ġsouci e
he imer
Ġanalys Ã©
Ġanalys tes
Ġaffec tÃ©e
Ġapprofondi es
ĠdÃ©plac ent
Ġenvisage able
Ġdivis Ã©s
Ġpsych ologiques
ĠmultilatÃ©r alisme
ĠhonnÃªte tÃ©
Ġsupprim Ã©es
ĠÃ©chÃ© ances
Ex c
Ġkilom Ã¨tre
Ġexplo itÃ©
Ġexplo sion
ĠfacilitÃ© s
ey nes
Ġfrag ilitÃ©
Ġilli cites
ĠrÃ©ve iller
Ġflot tes
Ġoctroy Ã©e
esc alade
ĠAh madinejad
ASE AN
ĠhÃ´ te
Ass ociation
stan bul
expÃ©ri mentation
Ġpav illon
Ġrepro cher
Ġcommande ment
onci ation
ĠLam y
ĠMcC reev
Ġpromette ur
Ġnordi ques
Ġenvir ons
ĠÃ©criv ain
Ġinsur mont
Ġlament able
Ã©chÃ© ance
Ġcomport ant
Ġprolon gement
ĠÃ©pis ode
Ġinsatisf ais
ĠtchÃ©tch Ã¨ne
palestini en
ĠmÃ©thod ologie
impu issance
ĠMcCreev y
A O
B ER
H ol
S uite
c Ã´
i res
t ais
Ġ titu
ou ge
ti ser
Ġn er
ur Ã©es
Ġla ps
or mi
Ã¨ che
Ġen ver
al li
ch eur
Ġsur v
Ġse l
ĠP res
ir aient
Ġsi ff
Ġh Ã©ritÃ©
fi ante
Ġent oure
Ġimp itoy
Ġimp opul
Ġan nexe
vi Ã¨me
Ġmes dames
ĠB ow
ĠS ovi
Ġsa ou
Ġins tin
Ġins ensÃ©
Ġas pire
ĠConseil s
ĠT anz
Ġexp ressions
Ġfa uss
ĠcrÃ© ances
ĠG ore
ĠF er
ĠF ontaine
ĠL une
Ġcontr aindre
Ġdom iner
Ġaccord ons
Ġaff ronte
aiss ons
Ġ19 2
mis si
ĠJ ose
ĠJ ong
Par tout
Ġtech ni
ĠâĢ Ŀ
Ġ5 2
Ġsouhait ant
Ġsouhait ais
Ġsouhait aient
Ġabs tenir
Ġsuc cÃ©
Ġcapit aine
Ġsus men
Ġreven dication
Ġ6 2
Ġtrouv Ã©s
Ġoblig Ã©e
Ġrappel lerai
ĠreÃ§ ue
Ġappar ent
ss Ã©
Ġinst abilitÃ©
agri culteurs
Ġsembl aient
Ġfl ui
Ġinqui Ã©ter
ĠBar rot
Ġsouhaiter ait
ĠthÃ© matique
Ġoubli e
Ġrac ine
Ġnorm ales
Ġpous si
Ġimpossi bles
Ġcompar aisons
Ġautoris ations
Ġrecev ons
Ch er
Ġcy nique
Ġcy ber
Ġdistin cts
Ġconven tionnelles
Ġgu Ã©rir
Ġ198 7
Ġfacil itant
indi ffÃ©rence
Ġchu ter
An g
Ġfront s
ĠSh ang
Ġru de
ĠexÃ©cu tions
ĠEur atom
Ġsurvi v
Ġscandale use
ĠmodÃ© rÃ©
Ġenqu Ãªter
App laudissements
ĠÅĵu v
Ġchem ise
ĠÃ©par gne
Ġaffaibli e
ĠÃ©pr ouv
Ġsanction ner
Ġentrepren eur
ĠdiplÃ´ mÃ©s
Ġrestaur ants
Ġautrich ien
Ġperp lex
Ġapport ons
Ġ194 5
ĠimprÃ© v
Ġrenf erme
Ġaverti ssements
ĠnÃ©fas te
Ġarbitr aires
Ġboute illes
ĠperpÃ©t rÃ©s
ĠconsidÃ©r ants
Ġlobby ing
Ġcouver tes
Ġarchite ctes
ĠbÃ©nÃ©v oles
Ġidi ot
ĠdÃ©prÃ©ci ation
Ġmeu bles
ĠJack son
ĠhypothÃ©c aires
ĠPri x
cad res
ĠirrÃ©ver sible
Ġarchi ves
Ġhorrib les
Ġinterculture l
Ġride au
anth rop
ĠFuk ushima
Ġsusmen tion
0 5
T A
e i
i ori
m atie
m ala
n isme
p age
r ance
z heimer
Ġp aire
Ġc ui
ai gne
ar ag
Ġr atÃ©
Ġv enti
Ã¨ des
Ġpar itÃ©
Ġin aug
at tÃ©nuer
Ġcon ju
ens able
di m
Ġch ou
ol is
ie v
ul Ã©s
Ġsi enne
Ġh Ã¢
Ġh Ã©tÃ©
tr op
fi ons
ad j
Ġtra ces
Ġdis cer
pr om
Ġres pirer
Ġpu t
Ġvi ables
Ġco ol
ĠB as
ĠB ali
ĠdÃ©p os
ĠdÃ©p la
Ġinter dits
ate mala
ĠA g
enti ment
Ġtravail lait
ĠT ra
Ġexp osÃ©e
Ġexp ertise
ĠrÃ©p ert
Ġann uelles
Ġrep ortÃ©
ĠnÃ©cess itant
ĠL iste
Pour rais
out h
Ġor phel
ĠD Ã©p
Ġconf ortable
Ġgouvernement al
Ġgroupe ments
Ġprof itable
ĠK er
ĠK alin
Ġrespe ctives
oli tiques
Ġjou ant
Ġnouvelle ment
Ġnu isent
ager ie
ĠdÃ©clar ent
ĠreprÃ©sent era
Ġrem onter
Ġvol ant
Ġcomb inÃ©
Ġdou blement
ĠrÃ©du irait
ĠsÃ© isme
Ġtour ment
Ġcan adi
ĠcrÃ©er ait
Ġfai lles
art h
Ġrev u
Ġporte ur
Ġpoursui vie
Ġfix ant
Ġfra Ã®
Ġchois it
ĠIn stitu
Ġcou ler
organis me
Ġrefus ant
Ġunivers els
Ġcolle cter
Ġcatastroph iques
Ġcondam nÃ©es
ĠÃ©lÃ©ment aire
appro fondissement
anci ens
ĠCe ci
CE E
Ġmas sifs
Ġfavoris Ã©
Ġinten sif
Ġbal lon
Ġdiver sifier
Ġentend us
Ġemploi e
Ġintrodu isant
Ġrestri ctives
Ġatten dez
200 9
ĠrÃª ver
Ġcaus Ã©e
Ġconver sion
ĠcaractÃ©ris Ã©e
Ġencourage ants
ache mire
ĠdÃ©v aluation
Ġsac rÃ©
Ġlab o
Ġprotoc oles
ĠHong rois
Ã¡ nam
Ġcollab orÃ©
Ġsaur a
Ġ197 9
Ġcam Ã©ras
Ġenvisage ons
ĠGu atemala
Ġfail lites
Ġdevi endront
Ġcib ler
ĠcÃ©rÃ© br
occup ent
opportun itÃ©s
ĠÃ©loi gnÃ©es
Ġignor ent
Ġgard Ã©
ĠIran iens
ĠdÃ©sÃ©quili b
Ġgasp iller
Ġray on
Ġfabric ant
ĠÃ©labor Ã©s
ĠspÃ©cul atifs
Ġaid ant
Ġmini me
ĠdiplÃ´ me
ĠocÃ© an
ĠAng ela
ĠthÃ©rap ie
Ġgrosses se
Ġstructur Ã©
ĠÃ©gyp tien
Ġinconn u
Ġabsor b
Ġincert ain
Ġinstaur Ã©
ĠFlor ence
Ġgalax ie
Ġconfond re
accum ulation
ĠprÃ©d omin
Ġnettoy age
ĠdÃ©mante ler
ĠpÃ©ni ble
ĠprÃ©limin aire
ĠblÃ¢ mer
Ġdat ant
inscri vent
Ġraci ale
ĠNig Ã©ria
Ġpleu voir
ĠJun cker
ĠcosmÃ© tiques
ĠCr oix
khaz ie
Ġrenation alisation
ĠpÃ©nins ule
ĠKalin ingrad
Ã¡nam o
4 0
9 7
G B
I mp
M A
S upp
a e
b a
d ou
f lÃ©ch
h il
m od
s Ã©s
t ur
Ġp ente
Ġc urie
Ġc umul
Ġs Ã©c
Ġs entez
qu a
Ġa us
Ġm outons
Ġf Ã¢
Ġun ilatÃ©ralement
op oulos
ne aux
ra c
os pit
ag as
ĠC ert
Ġsur n
rÃ© er
ĠP an
Ġdi gnes
ĠM ins
pe z
Ġac ad
am ie
av iez
ĠprÃ© dictions
Ġpa piers
Ġconc ili
ĠÃī cosse
Ġfin landais
ĠS Ã©curitÃ©
orte z
ex ac
Ġsoci alisme
Ġcr ist
rai ment
ĠintÃ© resser
Ġfond ateur
Ġren oncÃ©
ĠF ace
Ġcitoy ennes
Ġfer mÃ©es
erci ces
ph Ã¨res
Ġemp ois
ĠdÃ©s avant
Ġju gÃ©e
ĠprocÃ©d Ã©s
ĠÃ©vi te
Ġsign Ã©s
Ġtrouver ons
Ġconstru ctions
Ġsc an
ĠrÃ©glement Ã©e
Ġpol Ã©mique
Ġorient Ã©e
ĠgÃ© rÃ©s
ĠgÃ© ographie
Ġatta chÃ©
Ġobten ues
ĠAn t
Ġ11 0
Ġmanifest ent
Ġencourager a
Ġmai gre
Ġinvesti s
Ġemb arrass
Ġ198 5
Ġnum Ã©r
exemp les
ĠvÃ©ri fie
ĠapprÃ©ci ons
Ġvari able
Ġred resser
Ġred ressement
Ġobserv ons
Ġdisposer ons
Ġprofiter a
ĠmÃ©r iter
ĠMa o
Ġrasse mble
arr y
ĠdÃ©cou ler
Ġpacifique ment
ĠinÃ©v itables
Ġhom ogÃ¨ne
Ġration nel
ĠdÃ©tru its
Ġprolong Ã©
Ġpersuad Ã©e
ĠdÃ©sir s
Ġaggra vÃ©
Ġmorte l
Ġenseig ne
Ġentour Ã©
Ġlicenci Ã©s
Ġreprodu ise
ĠdÃ©mission ner
Ġbran ches
ĠdÃ©centr alisÃ©e
bo ok
Ġfe rez
Voy ons
ĠdÃ©faill ances
Ġemmen er
enrich issement
Ġaudiovis uel
ĠDel ors
ĠPD G
Ġmenti r
ĠÃ©chantil lon
Ġrejoi gnent
ĠLul ling
Ġbaign ade
Ġsupermar chÃ©
Ġing Ã©rence
ĠEC HO
Ġende t
avoc at
effor cent
Ã©cla tement
ĠRÃ©public ains
nest y
ĠNet anyah
Ġpyra mide
Ġparadi gme
' s
B ill
D onne
I A
V i
e g
h Ã©s
v ens
Ã© mi
Ġl inÃ©
en berg
on z
on Ã§ons
Ġp li
or ations
Ġr oyaume
Ġr umeurs
si Ã¨cle
âĢ ĳ
âĢĻ Â«
que z
au trui
ĠdÃ© truite
ri culture
ĠC S
ĠC omp
ĠC ash
ens Ã©ment
Ġpo Ã©
app laud
av ier
ĠprÃ© lÃ¨vement
Ġimp Ã´t
mi ons
Ġdis que
ĠÃ©t onnÃ©
Ġfin alitÃ©
Ġbien faits
ĠS ac
ĠS ir
Ġpers ister
Ġinter pel
Ġacc ab
Ġacc roÃ®t
Ġal gÃ©ri
int rodu
ose z
Ġmil ices
tin es
Ġcar ic
Ã©li gibilitÃ©
Ġdonn Ã©s
ĠF ern
Ġsitu Ã©e
Ġgrand issant
ĠN ab
Ġag ro
ĠE instein
Ġop ter
Ġass urent
ĠlÃ©g ers
Ġcha mbres
ĠK la
Ã©v asion
tri ces
Ġplan che
dus a
Ġdur ablement
Ġnu isibles
ĠrÃ©g ression
ĠrÃ©g uler
ĠspÃ©ci alisÃ©es
Ġtu Ã©es
ill ant
Ġinform Ã©e
Ġiniti ales
nÃ© si
Ġple ins
Ġdoute ux
Ġci ment
Ġcoup les
ĠLe one
ĠLa mb
Ġopp osÃ©es
Ġvoter ont
Ġinst allÃ©
ore ille
Ġretour nÃ©
ĠdÃ©g Ã©n
ĠSch reyer
Ġpor cs
hÃ©r an
Ġveiller a
sÃ© mitisme
ĠSu u
ĠCor an
ĠdÃ©couv re
Ġbal ayer
Ġconven us
Ġconven ablement
Ġcommence ment
Ġemb argo
Ġscientifique ment
ĠLib er
ĠSt a
ĠdÃ©v o
gyp tiens
Ġintergouvernement al
Ġrequ in
ĠdÃ©sas tres
ĠKy i
Ġmotiv Ã©s
ĠChyp ri
appar ente
Ġmeur t
ami ante
ĠaccÃ©lÃ© rÃ©
Ġap aiser
ĠÃ©loi gnÃ©e
ĠmultilatÃ©r aux
ĠrÃ©uss issent
Ġrigou reuses
ĠdÃ©saccord s
Ã©vent uelles
ÃŃ n
Ġspor tif
Ġchans ons
Ġarb it
Ġenn uis
Ġchasse urs
ĠGre en
ĠGre cs
Ġalarm ante
Ġassassin ats
Ġenle vÃ©
Ġgouverne ur
Ġracont Ã©
ĠdÃ©loy ales
Ġolymp ique
ĠKo fi
Ġsectorie lles
ĠvÃ©gÃ©t ales
Ġrecouv rement
Ġinfir miÃ¨res
Ġsuccessi fs
ĠGuant Ã¡namo
mpe dusa
ĠpersÃ©v Ã©rance
ĠÃ©pouvant able
Ġtristes se
Ġdras tique
Ġlucra tif
Ġmanufact uri
incendi e
Ġbeur re
P u
R ec
V a
d in
h is
j o
l at
t y
z y
Å Ħ
Ġ Quel
Ġc end
re ra
er landais
ai d
Ġm Ã©g
Ġm iti
Ġm ystÃ©ri
ur rent
ar iste
Ġr ouvrir
au paravant
al le
Ġb er
Ġb Ãªte
oi ve
Ġin fi
at ar
ag ression
Ġsur s
ab ondance
Ġtr oÃ¯
Ġse ctions
di o
Ġch rÃ©tien
ĠP r
Ġdi vid
ain si
ir ation
Ġje t
Ġcons ent
ĠprÃ© side
Ġsou lÃ¨vent
Ġimp er
Ġimp acts
Ġser rÃ©
Ġy en
Ġvi er
Ġmar Ã©e
Ġmar ines
ĠB our
ĠB oli
ĠB ah
Ġimport ateurs
gn ants
ot ti
Ã©c osyst
ĠT ri
ĠdÃ©b ord
lis er
Ġvo eux
Ġren Ã©g
Ġsitu Ã©
ĠE N
Ġcap tures
Ġaff lux
vers er
ĠconsÃ©qu ente
Ġemp ortÃ©
Ġvis u
Ġsoi e
Ġcor rompu
Ġpopul iste
Ġsupp osÃ©e
Ġreg istres
Ãī c
entre tien
omb res
Ġtu ent
Ġ4 50
ier re
Ġatte ler
ĠrÃ©pond ra
Ġappel ant
Ġsc ann
Ġdoc tor
Ġimm un
Ġrev it
ĠmÃ©t ro
ĠLa mpedusa
Ġappar ten
Ġappar tement
Ġappar ues
Ġinv isible
ĠdÃ©si rons
Ġadmin ist
ĠgÃ© om
Sur tout
rog ation
empl oyer
Ch ris
Ġperdu es
ĠdÃ©cider a
Ġviv aient
Ġval ait
Ġdiver gentes
Ġtrib us
Ġadap tations
ĠÃ©m ise
ĠprÃ©p ond
Ġemploi ent
ĠdÃ©rou lÃ©e
Ġcroy ais
appel ait
Ġexcep tionnellement
Ġcaus Ã©es
imm Ã©di
Ġaccus ation
he ad
Ġsold at
Ġproc urer
Ġfas siez
Ġartis an
aj out
Ġprati quÃ©
ĠrÃ©clam Ã©
AR C
ĠinquiÃ©t antes
Ġble us
ĠÃ©tonn amment
ĠdÃ©ploy Ã©
Ġgard es
Ġ196 7
Ġindire cts
Ġrenvers ement
ĠadhÃ© rÃ©
urg ien
ĠÃ©tique ttes
ĠsÃ©cur itaire
Ġfranc s
Ġunanime ment
ĠcinÃ©m at
ĠschÃ© mas
Ġmam mif
Ġfacul tÃ©
Cin q
ĠBÃ¶ sch
Comm enÃ§ons
Ġobsol Ã¨te
hr endt
ĠDeux iÃ¨me
ĠdÃ©sespÃ© rÃ©e
ĠredÃ©fin ir
ĠstÃ©rÃ© otypes
ĠdÃ©nomin ateur
ĠÃ©coss ais
ĠGand hi
Ġpingou ins
Ġinsi gni
Ġquator ze
ĠTanz anie
ssÃ© tie
1 2
C onn
E u
M ieux
O k
O uganda
b us
c ales
m it
p in
p lus
Ġd ot
en vie
Ġc it
Ġc ac
Ġa ler
Ġn auf
or b
Ġle cteurs
Ġf Ã©ro
Ġv Åĵu
il Ã©e
Ġen dÃ©
ĠrÃ© organisation
Ġin finiment
Ġcon qu
de ur
app rÃªte
pe ur
ĠComm issaires
Ġent endez
Ġprop ager
Ġser as
ad or
ad hÃ¨re
Ġtra cÃ©
gi eux
ins truction
Ġrapport er
Ġbien veill
Ġmes urÃ©
ĠB ud
ard ons
ĠA c
Ġar du
ĠT or
gu ent
ĠF EM
Ġmain ts
ĠprÃ©sent ait
Ġcol onie
utilis ent
ĠN ich
ĠE s
ĠÃ©c us
ĠÃ©c rans
Ġsouti endront
Ġtrois iÃ¨mement
exp ulsion
Ġinc itants
esp Ã©rons
Ã©v olu
Ġsous traire
ĠâĢ ĺ
Ġris quÃ©
ĠreprÃ©sent ons
inter romp
inter valle
Ġsuff rage
Ġsigni fiait
Ã©nÃ© zu
Ġsal les
Ġtrouver ont
Al zheimer
Ġtour istiques
Ġpriv atis
Ġir ait
ĠdÃ©pens ons
aff i
Ġver b
ĠprÃª tÃ©
ĠbÃ©nÃ©fici aire
Ġrou mains
Ġouv rant
Ġpasser ait
ak i
dis cip
Ġmanque ments
opp osÃ©
ĠdÃ©tail lÃ©s
ĠgÃ© org
ori al
Ġmulti lin
Ġanti terr
Ġanti dÃ©mocratique
ĠY ou
Ġminist Ã¨res
Ġlut tes
Ġcivi ques
Ġpros pÃ©rer
ush arraf
ĠprÃ©ser v
Ġliv rÃ©
Ġfavoris era
emb ar
Ġperd ant
Ġ14 0
Ġtab ou
ĠSt an
Ġquotidi ennes
Ġmari Ã©e
Ġmari ages
ĠDe puis
Ġconstituer ont
Ġsoum ission
Ġach et
ĠÃ©limin Ã©
Ġpsy chi
ĠfÃ©d Ã©ration
Ġdesign ers
Ġinspi rÃ©e
ĠTh ess
Ġtre ize
ĠÃ©chapp e
Ġisol Ã©es
entra Ã®
Ġcompati bilitÃ©
ĠdÃ©cid Ã©es
Ġrenvers Ã©
Ġinclu sive
Ã©vent ail
ĠrÃ©col tes
Ġrecon version
amÃ©ric aines
Ġforum s
Ġaveug les
Ġrivi Ã¨res
Ġprovin ces
Ġaffi che
Ġcardi aques
olog iste
Ġukraini enne
Ġflag rant
autor Ã©g
Ġbatt ent
Ġretrouv Ã©s
ĠdÃ©liv rance
Ġenvir onnements
Ġloint ain
ĠBÃ¶ ge
rah am
Ġinhab ituel
Ġsyner gie
Ġcenti m
Ġbru its
ĠmÃ©dioc re
ĠCent rale
ĠDim as
ĠTit ley
ĠLang en
UC LAF
Ġcombatt ants
ĠTÃ© hÃ©ran
Ġastr onom
Ġsusc itent
Ġfir mes
pie d
ĠNÃ© erlandais
ĠBlan che
ĠMins k
ĠtroÃ¯ ka
9 6
A ffaires
D Ã©p
E U
F aut
c onc
k raini
l om
r itÃ©
Å ¡
es el
Ã© dÃ©
Ġl Ã©s
en c
Ġde Ã§Ãł
Ġs tÃ©r
qu enn
in k
in vention
om ac
op Ã©rations
au dition
ĠdÃ© lin
al onique
al phab
ci e
oi ff
ra yer
Ġg Ã¨re
Ġg Ã©rÃ©es
Ġg aler
os pe
Ġre ine
Ġre form
Ġcon fin
Ġpl uies
Ġse mi
Ġch Ã¨res
ol ont
Ġsu prÃ©
Ġi mb
Ġi tin
el ho
Ġac qui
Ġmo tiver
ten dez
Ġimp ensable
Ġgr is
Ġan orm
ins uffisance
ap erÃ§
ĠnÃ© ant
ut ent
Ġam ont
ĠA ct
Ã©c ras
Ã©c lair
emp orte
ĠT ob
Ġnos tal
Ġcl ore
Ã® t
Ġvoud ront
ĠG er
ĠG ra
Ġrep li
Ġpri er
ĠdiffÃ©r end
anti sÃ©mitisme
Ã©di e
Ġcha otique
ĠJ i
ĠH at
st raction
Ġinstitu ts
Ġplace ment
Ġprom eut
ĠreprÃ©sent ations
eff ets
Ġ! "
Ġoff rira
Ġabs trait
Ġappli quant
Ġfac tions
Ã©ch anger
Ġconfi Ã©
aff ich
Ġsus pects
inc omp
Ġ6 7
Ġporte urs
Ġanim Ã©
Ġrappel ons
Ġentra vent
ĠÃ©p ouse
DE R
Ġsol vabilitÃ©
Ġ9 6
Ġreli e
ĠmÃ©th ane
amen ei
Ġcru el
ori ens
Ġsp orts
Ġcorre ctions
Ġexprim ant
Ġdispar us
Ġfu sil
Ġobten ons
ĠdÃ©li m
Ġnorm aux
Ġcondition nalitÃ©
Ġautom atiques
Ġtable aux
ĠdÃ©mar rÃ©
Ġha usses
ĠÃ©cou lÃ©
Ġdiver gents
atte ler
exc lure
ĠtÃ©lÃ©ph onie
ĠprÃ©sid er
ow n
Ġconsoli dÃ©e
Ġtri angle
ĠmÃ©r it
Ġbrut alement
accomp lissement
Ġdiss Ã©min
Ġeuros cep
Ġpou b
Ġharmon isÃ©
Ġillus tration
Ġimpression nÃ©
Ġirak iennes
Ġincomp Ã©t
ĠQu arte
ĠBro th
terr issage
Ġsupprim Ã©s
Ġaspir ent
Ġisol er
interprÃ© ter
ĠrÃ©conc ilier
ĠÃ©mo tionnel
Ġexplo itÃ©es
Ġentour ant
ĠAu jourd
Ġaid Ã©s
ĠCo elho
inten sification
ĠdÃ©rÃ©g ulation
ĠÅ ł
Ġvirtu el
Ġjustes se
ĠdÃ©stab iliser
ĠBon ino
Ġperturb ations
ĠRoth ley
Ġenfre int
Ġspir itu
DR ES
ĠdÃ©coup lage
Ġcouver te
Ġbulg ares
Ġbale ine
Ġvaloris ation
Ġtropic ales
Ġannex es
mÃ©diterranÃ© enne
ĠAD N
Ġfle uve
Ġdop age
ĠGau lle
ĠSP G
ĠrÃ©cup Ã©ration
Ġcle f
ĠdÃ©cal age
LON DRES
excÃ©d ent
ĠPres tige
ĠShang hai
ĠDÃ©p ression
ĠThess alonique
kraini ens
ĠsuprÃ© matie
P assons
Z Ã©lande
d or
f r
h ad
l anges
o ol
o der
p la
s ur
u te
v ingt
es pe
Ġl ouer
Ġl isez
en voy
Ġp ans
ou til
Ġa te
Ġt unis
Ġf oie
Ġpr u
Ġv an
Ġv int
ĠÃ© mi
Ġb ic
ĠrÃ© examin
eu tique
Ġin cess
ĠC achemire
ens uit
ff icacitÃ©
ĠP L
ni r
and ais
ad o
ad mission
Ã©t ons
ĠÃ©t endus
Ġvi endront
Ġco que
Ġco inc
ĠdÃ©c er
ĠdÃ©c onne
Ġeff ici
Ġpers istance
ĠA prÃ¨s
Ġacc ueille
min er
Ġsuis se
ĠR as
ob e
gu Ã©es
Ġti rÃ©e
dÃ© jeuner
ĠL ab
ĠD Ã©m
Ġconf es
Ġconf is
Ġca mb
Ġass ument
Ġdemand ais
ali gner
mis er
Ġvis Ã©s
Ġvis uel
Ġrest es
Ġsoi f
ĠrÃ©f rig
ĠrÃ©sul ter
ĠdÃ©s avantage
Ġappr enons
ĠprÃ©v isi
ĠprÃ©v isibles
ĠrÃ©g issent
ĠdÃ©clar Ã©s
Ġviol er
ĠÃ©ch oue
rim o
ĠW illi
aud ace
Ġenti ers
Ġrou m
Ġrou le
Ġsol aires
Ġcal mer
Ġth Ã¨se
Ġvoul ue
Ġcru autÃ©
ori eux
Ġradi odi
Ġconsul tÃ©s
Ġcentr alisÃ©
Ġatta chement
Ġdange reusement
Ġvit aux
Ġsuper be
Premi er
Ch rÃ©tiens
ĠdÃ©n oncÃ©
Ġlogique ment
Ġaband onnÃ©s
ĠÃ©lector aux
Ġprim aires
ĠX ia
Ġclasse ment
Ġpropor tionnelle
ĠsystÃ© matiques
Ġpan el
Ġexaminer ons
ĠrÃ©si li
Ġsaur ons
Ġ197 3
Ġsymp a
Pr ends
Ġamp lement
ony mes
Ġliqui ditÃ©
Ġration alisation
Ġacqu ises
ĠrÃ©pand re
ĠaccÃ©lÃ© rÃ©e
Ġphilosoph e
Ġdiscip lines
Ġimpati ent
Ġpal lier
Ġsupprim Ã©e
Ġiran iennes
Ġmagni fiques
ĠKar as
Ġallou Ã©es
jac ente
Ġdouce ur
Ġenc ad
Ġchir urgien
Ġram Ã¨ne
Ġsolli citer
Ġbarb arie
ĠÃ©quival ente
Ġminuti eux
Ġafghan e
DÃ©s olÃ©
Ġtransnation ales
Ġcub ain
Ġrenvoy Ã©
ĠÃ©pau le
ĠinÃ©g al
ĠprÃ©fÃ©rer ais
Ġinvestiss ent
Ġsolenne lle
ĠdÃ©brou iller
Ġtrau matis
Ġrapatri ement
ĠWhite head
Ã©car ter
Ġexpon entielle
ĠFrancis co
ĠhÃ©li copt
Ġinsou ten
dom ad
Be hrendt
Ġgentilles se
Ġlitu an
ĠhÃ©ro Ã¯
incin Ã©ration
Ġnit ra
dim ension
ĠpoÃ© sie
ĠChypri otes
Ġmultilin guisme
Ġradiodi ff
D C
D H
L oin
M et
P R
b ig
l itÃ©s
r Ã¨tement
Ã© lan
Ġp oup
ti qu
Ġm Ã©ritÃ©
in en
om pe
om ali
Ġr as
Ġr umeur
Ã¨ nent
il d
est hÃ©
us tion
ĠÃ© co
as co
Ġpar lais
Ġg amin
ag Ã¨re
di ff
Ġch anges
ol fe
ĠP V
ir rÃ©g
ĠM oz
Ġav Ã©rÃ©s
Ġex ercices
sid es
ois se
am an
Ġcomm erÃ§
av a
Ġo x
ĠprÃ© dit
ten ariat
Ġres pi
Ã©t onner
ĠÃī cofin
ĠS T
ĠS c
ail ler
ex erce
Ġpers istante
Ġman Åĵu
Ġsa chent
Ġins pir
ot t
Ġfor ger
Ġat tÃ©nu
Ġvoud ra
pu y
Ġag ent
ĠÃ©c rits
Ġdemand era
ĠI raq
Ġgar dienne
ĠJ on
ov ie
ari es
Ġindi ennes
ĠprÃ©c Ã¨de
Ġnot ables
Ġ5 9
ĠdÃ©fin issant
ĠcoÃ» ter
ill ard
Ġdou bles
Ġextr aire
Ġfam ilier
Ġ6 4
Ġporte feu
Ġtrouv ais
ĠfÃ©lic itÃ©
Ġrend rait
Ġ9 8
Ġur gences
Ġtrait s
Ġobser vÃ©e
Ġprov ocation
Ġmontre ra
Ġprot agon
ess aye
Ġfl ou
Ġfu ites
Ġparven ions
Ġprend rons
th Ã¨nes
hab it
Ġcivi que
Ġhuman itÃ©
Ġsurpr endre
ON G
Ġ18 0
Ġfrapp Ã©e
Ġexer cÃ©es
Ġviv ante
Ġdiver tissement
Ġmob ili
ĠcatÃ©g orique
Ġlit tÃ©r
Ġprosp Ã¨res
ĠtÃ©lÃ©ph onique
Ġaband onnÃ©e
Ġexcep tionnels
Ġremplac Ã©s
Ġconver ti
Ġconver tir
Ġpan ier
Ġarm ateurs
Ġrasse mblÃ©
ĠrÃ©tab li
Ġtrou ble
Ġsin istre
Ġcriti quent
Ġharmon isÃ©es
Ġenseign Ã©
Ġdon ateur
va hi
ĠdÃ©cri te
ĠperÃ§ us
Ġprotectionn iste
Ġreten us
Ġattribu Ã©s
inn ombrables
ĠprivilÃ©gi Ã©e
Ġconne ctÃ©
Ġord onnÃ©
Ġsty lo
ĠAra bie
Ġentour ent
Ġsubvention ner
Ġmuni tions
Ã©nÃ©g al
Ġdoulou reuse
ĠdÃ©loc alisation
Ġprovisoire ment
ĠÃ©gyp tienne
Ġstatu ts
uc co
Ġhypoc rite
ĠprÃ©judici ables
ĠMande la
Ġincompati ble
Ġincompati bles
ĠcarrÃ© ment
attent at
ĠcorÃ© enne
Ġquere lles
ĠdÃ©ser tification
Os lo
Ġdigit ales
Ġimmobili Ã¨re
ĠÃ©oli enne
obsc uritÃ©
ĠÃ©ligi bles
Ġscan ner
ĠCash man
ĠNab ucco
ĠBour langes
immÃ©di at
Ġportefeu illes
P rimo
S ec
T elles
a oÃ»t
e p
k os
o ver
Ġd urs
Ġp ant
ou sie
Ġs Ã©n
Ġs ine
re uves
Ġr af
Ġv entre
our agan
ĠÃ© dul
ĠdÃ© duire
Ġpar don
al lez
Ġj oy
Ġpro ver
Ġpro active
Ġsur vient
Ġch ag
Ġch rom
ĠM as
app uyant
am or
Ġcomm er
av erti
Ġcomp tant
Ġh aÃ¯
Ġcont ents
Ġpa per
ord on
Ġsou pe
ge mment
pr op
Ġper cepti
ĠS ocrates
Ġpos ons
Ġacc ou
Ġal gorith
ot ype
Ġad h
Ġst ades
emp athie
ĠT s
Ġcl ose
Ġcar otte
Ġann uler
Ġren omm
ĠG ates
Ġcas ser
Ġcol lÃ©gi
ocra te
Ã¢ cle
ass ainissement
ĠlÃ©g Ã¨res
ĠCh ance
ĠI ou
ĠI stanbul
hÃ© m
ĠK eynes
ĠH il
ĠdÃ©s ord
Ġvers ements
Ġindi ces
Ġreconn aisse
Ã©conom iste
ĠO ost
inter connexion
Ġcomb ustion
Ġbr Ã¨ves
Ġcan al
Ġple ut
Ġfai sions
Ġir re
ĠÃ©tab lissement
inc iter
Ġaliment e
Ġimm unitÃ©
land er
Ġpasse ports
Ġsau mon
Ġexc lue
Ġ9 7
Ġ9 00
ĠrÃ©sou d
ĠprÃ©cÃ©d ant
Ġsor tis
Ġconcent rÃ©e
Ġattend ait
Ġvoul ant
Ġfl am
Ġdispar aÃ®t
Ġappro xim
Ġpor tÃ©es
od ac
ĠU krainiens
ĠdÃ©pend ante
emb ry
Ġperman entes
ĠdÃ©mar rage
Ġcompli ments
Ġcorrespond re
Ġ198 6
ĠsÃ©par Ã©e
ĠBer Ã¨s
indi ce
ĠcohÃ©r ents
oh l
Ġdistribu teurs
ĠÃ©quipe ment
Ġenreg istr
ĠallÃ© ger
ĠMa at
rich et
Ġcalcul Ã©
Ġdiss u
Ġnomm Ã©e
Ġbienven us
Ġkil os
Ġration aliser
Ġhabitu el
Ġhabitu elles
Ġdomin ant
Ġspectac ulaires
ĠQu inze
Ġpassion n
Ġjaponais es
Ġinspi rÃ©s
Ġimpati ents
Ġgard ent
Ġcuis iner
Ġabouti t
ĠOr tega
ĠmathÃ© mati
Ġmultipli Ã©
Ag riculture
ĠrÃ©comp enses
excell ents
ĠbrÃ» ler
Ġdiv ise
ĠÃ©larg issements
ĠWal lis
Ġtrompe use
ĠspÃ©cul ateurs
Ġparviend ront
anou kov
ĠrÃ©tic ents
ĠAnd erson
Ġpakistan aise
Ġempris onnÃ©s
Ġmajor itairement
Ġsuperfici e
Ġmalent endus
ĠrÃ©affir mÃ©
ĠinconvÃ©ni ent
ĠNic arag
Ġinfluen cÃ©
ĠinhÃ©r ents
ĠchrÃ©ti ennes
ĠinadÃ©qu ate
Ġparalys Ã©
Ġfascin ant
Ġtriomph e
ĠHer man
Ġdouz aine
parti te
Ġjun te
ĠmÃ©ridi onale
Ġvainque ur
ĠProg ramme
Ġlivrais on
ĠadhÃ©r ents
ĠEsp agn
ĠEL DR
ĠdÃ©tache ment
ĠOost lander
anoukov itch
C ont
I raq
N P
S ouv
T rans
c able
g raph
h osti
k op
n utri
o eil
r yth
s aharienne
v ages
Ġ +
Ġd ense
Ġd ures
en land
Ġp itiÃ©
Ġc Ã©li
Ġs ter
Ġs phÃ¨res
qu ions
Ġa Ã®
Ġqu an
is it
is aient
Ġm ord
Ġm asses
Ġf es
Ġen vahi
Ġau gure
ri rait
Ġb ap
Ġb ague
eu p
Ġin vention
ch w
Ġg olfe
os ses
Ġpl au
Ġch ol
Ġch air
ni ons
Ġdi ox
ac cession
ĠM ai
ĠM usharraf
se t
Ġex is
Ġcons ter
av ancÃ©e
Ġcomp lets
Ġo v
Ġh erb
Ġpa quets
Ġli aisons
ĠÃ©t ay
ĠÃ©g lise
Ġfin e
Ġco tis
Ġper tine
ex cÃ¨s
Ġinter conne
Ġinter dictions
ine fficacitÃ©
ĠA si
ĠA ri
ĠA ut
ĠA PE
Ġacc ises
Ġins istent
Ġas tu
Ġfor fait
Ġob session
Ġar sen
emp irer
ĠT richet
Ġat lantique
ĠdÃ©b Ã¢cle
ĠR oc
Ġmarch ent
Ġann ulÃ©
fs t
Ġti endront
ig o
Ġpri ori
ĠN otre
ĠÃ©v itÃ©e
Ġmin Ã©raux
des c
Ġop Ã©rant
Ġess or
ĠÃ©c ologistes
Ġass um
Ġgar ant
ĠdÃ©f endue
Ġrespons ab
Ġinc itÃ©
Ġinc itation
Ġvis Ã©
Ġrest Ã©es
og ne
Ġadop tions
ĠdÃ©s appr
ĠdÃ©s intÃ©gration
ĠnÃ©goci Ã©e
ĠrÃ©g Ã©n
Ġprom ets
ĠspÃ©ci alisÃ©
Ġsuiv is
ing s
ĠrÃ©c urr
ĠW ynn
Ġimpli cite
ĠrÃ©un issent
Ġconstru its
Ġdiri gent
aff lux
ĠTur cs
Ġport ail
Ġtrouv ant
Ġpoursui vons
inf ection
Ġ10 3
dis ent
Ã©le ctr
Ġpol len
Ġbou d
ess ay
ĠgÃ© ants
ĠMar g
ĠdÃ©li vrer
Ġcoordin ateur
enf er
Ġidenti tÃ©s
ĠAl muni
ĠCe pendant
Ġdistin ctes
Ġconven ons
ĠcÃ© dÃ©
ĠÃ©cou lÃ©es
Ġcorrespond ance
ĠrÃ©par tir
Ġcontinent ale
ĠcaractÃ©r isent
ĠÃ©quilib rÃ©es
Ġ198 4
ĠsÃ©par Ã©es
Ġnum Ã©ros
ulg ation
Ġtransform Ã©s
Ġpat rons
Ġvenu es
Ġcoord onnÃ©
Ġsouci eux
Ġbrut alitÃ©
Ġinnov ante
Ġoccup ation
Ġrequ Ãªtes
ĠCan aries
Ġinstall Ã©s
Ġsyndic at
ĠBos ton
ĠimpÃ©ra tifs
Ã©tudi e
ĠlÃ©gitime ment
Ġaimer ais
Ġasse mbl
arc ÃŃa
Ġinterinstitu tionnelle
ĠfrÃ©qu ences
Con tin
Ġtrom pÃ©
Ġmange ons
Ġenv oient
Ġenthousias te
OC M
Ġramen Ã©
Ġremet tent
Ġtromp ent
ly wood
Ġplur aliste
ĠÃ©tique tte
Ġoctroy Ã©s
ĠLi fe
Ġinscrit es
Ġaffect ant
esc ence
Ġpluriann uels
Ġconsister a
Ġcuri ositÃ©
Ġenle ver
Ġcommand Ã©
Ġmunicip ales
Ġminuti eusement
ĠamÃ©liore ra
ĠKo we
Ġplais anter
ĠHaut ala
Ġnoci fs
AI EA
Ġvaisse au
Ġrab ais
ĠEuro just
Ġillim itÃ©e
ĠsÃ©du is
Ġsecr Ã¨te
ĠBur undi
ffe ctivement
ĠdÃ©vast ateur
ĠintrinsÃ¨que ment
ĠDal aÃ¯
emball age
Ġmut ations
ĠRÃ¼ big
ĠCamer on
ĠTw itter
ĠCert ains
ĠFace book
applaud is
Ġmobili Ã¨res
Ġchrom os
ĠcÃ©li bat
Ġster ling
Ġpertine mment
ĠAlmuni a
C onc
G lob
L ui
R B
S ont
T a
V ingt
b rale
d ote
s ky
t endent
w ley
Ġ ombre
Ġd ort
Ġl isant
en lÃ¨vement
Ġc ant
ou f
Ġde l
qu ante
an ier
ai da
in se
un ies
un do
te ction
ar Ã©
ar mer
ar rogance
or n
Ġr ange
Ġf onci
ci ence
ri ce
Ġb oit
ra teur
ĠrÃ© utilisation
ĠrÃ© installation
Ġin imagin
Ġre lÃ¨vement
ag u
ĠC oupe
ens tein
ab y
ĠP en
ro gÃ©
ers son
ui ons
Ġdev rez
Ġcons omme
Ġcomp tait
aut oc
Ġprop h
Ġpays ages
ĠÃ©t atiques
ĠS olid
Ġimport ent
Ġam Ã©n
Ġad versaire
ĠT ex
ĠT rÃ¨s
acc ou
Ġcro issants
ĠG arcÃŃa
ĠF ront
Ġpri mi
ĠÃ©v alue
Ġag ressions
ĠE U
Ġmal nutri
ass ades
Ġpropos ait
ĠJ an
ĠK i
Ġvis Ã©es
oris ation
Ġinstitu ant
Ġsub sides
Ġcour amment
Ġpublic itaires
ĠV ol
Ġcel l
Ġarri vait
Ġnot oire
Ġform Ã©e
inter dÃ©pendance
Ġsuff irait
Ġabs ents
Ġsoulign Ã©e
ĠsÃ© cession
ĠdÃ©ci da
Ġvoy agent
Ġlim itr
Ġcan cÃ©
Ġchar itÃ©
ĠÃ©trang es
tis te
Ġvois ine
Ġint ensitÃ©
ĠGr osse
Ġrencont rÃ©e
accep tons
ss ent
Ġcontra ction
Ġformul Ã©s
Ġmor aux
Ġexac tes
Ġcondam nations
Ġrac iste
Ġcircul ent
hab ite
ĠamÃ©lior Ã©s
Ġache ver
Ġcircons criptions
Ou zbÃ©kistan
Ġfabri que
Ġang lo
Ġconven tionnelle
Ġcompli cations
ĠrÃ©par tis
Ġplac ent
Ġmaxim al
Ġhistorique ment
Ġremplac Ã©e
imm enses
Ġreti rÃ©s
Ġrob uste
Ġsent ais
Ġpou ce
Ġpou lets
Ġadress Ã©s
Ġurb ains
Ġdiz aine
Ġprogress ent
Ġexpl osÃ©
Ġtox ique
ĠrÃ©mun Ã©rations
ĠmÃ¨ tre
Ġinvent er
ĠAr gentine
Ġarme ments
Ġoctroy Ã©es
Ġaffi chÃ©
Ġattach Ã©s
rig ht
Ġillustre r
Ġfar ce
Ġeffor Ã§ons
ĠÃ©vÃ¨ nement
ĠimpÃ©ri aliste
Ġtransmet trai
Ġmesur Ã©e
ĠpÃ©d opor
Ġpira terie
Ġoeu vres
Ġtrah ison
ĠrÃ©vol te
Ġcontempor aine
ĠTrans n
Ã©vÃ© nement
Ġinsul te
ĠCanc un
ĠonÃ© reux
Ġtrip le
ĠarmÃ© ni
ĠMi gu
reprÃ©sent ant
ĠprÃ©matur Ã©e
ĠÃ©pidÃ© mies
Ġparticul aritÃ©s
zi o
Ġinterlocu teurs
Ġstop per
ĠingÃ©ni eur
Ã©lectri que
onau tique
ĠBoli vie
Ġpru demment
Ġox y
ĠNicarag ua
hosti litÃ©
Ġmalnutri tion
Ġlimitr oph
1 8
R app
m onde
p an
s eu
w s
x on
Ġ ut
Ġc yn
re b
Ġa mer
in age
ar chite
or ch
Ġt ar
Ġr onde
ous se
il ise
il lusions
Ġen di
me d
ĠdÃ© ris
Ġj oi
ĠrÃ© Ã©valuation
ch ron
Ġg er
Ġcon gÃ©s
Ġpl onge
ag a
ni k
ni ti
ĠM onnet
Ġsi d
Ġh ur
ue z
Ġli on
oc y
oc al
Ġtra cer
Ġtra Ã®ner
iss Ã©
Ġpu zz
ond ur
ĠÃ©t atique
Ġper dez
ĠB oud
Ġinter actions
par lement
ct ro
ang Ã©es
ĠT aj
Ġmarch ait
ĠcrÃ© ature
ĠcrÃ© atif
ĠF Ã©
ĠF SE
ĠL y
Ġcas que
Ġab er
Ġrel ais
rib e
ĠgÃ©n Ã©riques
ĠD anie
Ã©di tion
Ġconstitu tions
Ġgar age
ĠdÃ©f ensive
ĠH an
oli ve
Ġdur ent
Ġprote ctions
Ġcour tes
Ġcour ts
Ġ20 30
Ġmi gn
Ġpublic itÃ©s
ĠreprÃ©sent ative
Ġrem Ã¨des
Ġfonction nait
att raction
import ante
Ġple ure
lo ge
Ġir onique
ĠTur km
ĠrÃ©glement Ã©
Ġreven ons
In utile
ĠdÃ©termin ent
Ġrou ler
Ġ8 2
ĠFr Ã¨res
Ġabord able
nov ations
Ġaider ont
Ġdispos ait
ĠprÃ©par ations
Ġchance liÃ¨re
Ġnour ris
Ġtemp Ãªtes
ĠÃ¢ gÃ©e
Ġtran che
ĠarrÃª te
Ġmus cles
ĠrÃ©fugi Ã©
Ġdistin cte
ĠÃ©lab ore
ĠÃ©m otion
Ã©ro sion
Ġsinc Ã©ritÃ©
Ġcompens atoires
Ġcomprend ront
tt om
ĠcomplÃ©ment aritÃ©
Ġreti rÃ©e
Ġsatisfais ants
Ġbel ges
Ġsin o
Ġsin gu
Ġfau tes
Ġliqui des
Ġressor ti
Ġcop ine
Ġsurvi vants
ĠdÃ©tru isent
ĠÃ©tonn ante
Ġhy per
ĠdÃ©fav orable
ÃĬ tre
Ġvot ent
ophob ie
Ġmol Ã©c
ĠÃ©quip Ã©s
Ġcraign ons
Chac une
ĠVer ho
Ġray onnement
Ġreprodu isent
Ġattra pÃ©
ĠfÃ©min in
Ġimparti ale
Ġambigu Ã«
Ġattach Ã©e
Ġcho quant
estim Ã©
fond Ã©
EC HO
Ġlog o
Ġquar ts
Ġintitu lÃ©e
dÃ©mocra te
Ġeffray ant
ĠdiffÃ©renci ation
Ġabsor ber
Ġaccent u
ĠÃ©criv ains
ĠdÃ©pourv u
Ġdil ig
Ġemmen Ã©
enrich ir
ĠMed ina
Ġobti endrons
enseign er
Ġsubstitu er
ĠLul a
ĠunilatÃ©r ales
Ġpomp iers
Ġcircu its
ĠdÃ©char ges
Ġsuspici on
Ġesclav es
communaut aires
Ġinfecti euses
exh orte
ĠRand zio
Hol ocauste
ĠJose ph
Ã©cosyst Ã¨me
ĠgÃ©om Ã©t
fst adt
Ġcyn isme
ĠVerho fstadt
C o
F OR
K ong
P e
R I
S h
S IDA
l vi
t rÃ©s
w Ã©
z oph
Ġ Quelle
Ã© lar
on ales
on Ã§ant
Ġp ompe
ti endrons
Ġs omm
Ġs onner
Ġa iles
er g
is olation
Ġn ouer
Ġn obles
ar o
or ig
Ġen contre
ĠÃ© ro
ne c
ĠdÃ© cevoir
Ġpar king
tÃ© roÃ¯
Ġj oins
ĠrÃ© agit
ĠrÃ© duira
Ġin cul
ĠC ox
Ġsur venir
ab orde
Ġse gment
di eux
ĠP eut
Ġdi esel
ac tives
Ã©s us
ati ser
ul Ã©es
Ġdev iner
tr aient
ouve ment
Ġan alogue
ad dition
Ġapp laudissements
con tin
oy e
Ġper cÃ©e
ĠdÃ©c Ã©dÃ©
Ġmar quÃ©es
ĠB rit
ĠB ay
ĠS W
ist rie
Ġal our
Ġins istant
fin ancement
par ce
Ġcommun ique
lu ie
ĠcrÃ© atives
ĠcrÃ© ateur
Ġrec ense
Ġrec ouvre
vre z
ĠG ui
ĠG ordon
Ġprin ce
ĠL ama
Ã¨g lement
ĠN ass
Ġca chÃ©s
im mis
Ġaff am
em mes
ĠI T
Ġsouti endrai
ĠdÃ©f ectu
tionne ments
Ġpass ation
Ġvoi le
Ġvers Ã©es
Ġcri cket
Ġcour bes
ĠprÃ©c aritÃ©
Ġrecher chent
Ġarri vÃ©es
Ġform alitÃ©s
Ġaccep tant
Ġ5 3
ĠgÃ©nÃ©r alisÃ©es
moi res
ĠvÃ©r itÃ©s
ĠcontrÃ´le urs
Ġsoulign ons
Ġaugment erait
ĠW oo
Ġmodi fiant
Ġpi eux
Ġdiri gÃ©es
Ġforme lles
Ġconcurr encer
Ġconcurr entielle
Ġreven ue
Ġchi ite
Ġint enses
ĠLe inen
Ġuti lement
Ġtransp ortÃ©s
ĠlibÃ©r alisme
ĠÃ©tudi ent
Ġexc user
Ġ9 3
Ġinv ali
Ġobser vÃ©es
Ġprov oc
Ġvisi onnaire
Ġdispar itÃ©
Ġconser vÃ©
Ġreje tÃ©es
ĠpÃ©n aliser
chi zoph
Ġparven ues
Ġdiscrimin atoires
Ġconfir mÃ©e
Ġache vÃ©e
Ġtemp ore
Ġrenouve lÃ©
Ġsimpli fiÃ©
Ġarriver ons
Ġfrapp ent
Ġcompli citÃ©
ĠÃ©cou lÃ©s
Ġservir ait
Ġtradu its
exc lu
ĠÃ©mer gÃ©
Ġrestri ctive
ĠBer n
Ġexclu es
Ġuni fiÃ©
Ġpay e
Ã©ti t
Ġul tÃ©rieur
ĠtÃ©moi gnÃ©
Ġpou les
Ġfas cisme
Ġillus oire
Ġillus trent
appar ence
ĠexÃ©cu ter
Ġbloc us
Ġquin quenn
ĠdÃ©tru ites
Ġsouhai tions
Ġpassion nant
Ġenregist rÃ©es
Ġbless ure
Ġchaleure ux
ĠcÃ©lÃ¨ bres
rÃ©g ation
Ġaggra vÃ©e
Ġabsten ue
ĠrÃ©gul ateur
Ġcre ve
ĠKh amenei
Ġajus tement
ey nÃ©si
ĠÃ©labor Ã©es
Ġpun ition
ĠexpÃ©riment ations
IN I
Ġplai dÃ©
Ġindemn isation
Ġalarm ant
ĠgÃª ne
Ġlobb ies
ĠdÃ©cour age
Pl ath
Ġajout ant
Ġfact ures
ĠpÃ©d ago
Ġpira tes
Ġmous tiqu
Ġinvers er
Ġtransnation aux
ĠpÃªcher ies
Ġescomp tÃ©s
Ġnaz is
ĠDel hi
Ġsyri en
exÃ©cu tif
Ġdialo guer
Ġcodi fication
ĠsymÃ©t rie
Ġcoll ision
Ġintime ment
xi Ã©tÃ©
ĠrÃ©Ã©quilib rage
insur rection
affaib lissement
Ġturbul ences
automob ile
impÃ©ri alisme
personne l
Ġparap luie
affec ter
Exc usez
Ġnauf rage
Ġbic ycle
Ġboud dh
ĠGrosse tÃªte
2 2
A vons
G u
V enez
c issement
f es
m uss
n ar
p oint
s ant
u p
u zz
Ġ &
Ã© miques
Ġp in
Ġc oc
ou tre
ti mes
Ġs chizoph
Ġt om
Ġr anger
op oulou
ĠdÃ© tra
Ġpar cs
Ġpar aissait
ĠrÃ© b
ĠrÃ© introduire
os ni
ĠC ap
Ġse cour
ĠP it
ĠM en
Ġil lÃ©gi
Ġav ois
Ã©r ur
ul ant
ul sions
pe dia
Ġcomm ise
Ġcons omment
Ġh eb
Ġsou lÃ¨vement
Ġrapp ortÃ©
Ġgr as
Ġprop age
lÃ¨ rent
ins ol
Ã©n istan
eil le
ex cl
ĠdÃ©p ort
Ġinter agir
Ġinter viennent
Ġinter roger
ĠA insi
Ã©c ologie
min eux
Ġtrans forment
rais onn
Ġti rÃ©s
dÃ© p
ĠL ann
ĠL yn
ĠD eng
anti ni
ass oure
Ġdemand Ã©s
Ġgar diens
Ġsimp liste
ĠJ im
ĠK at
Ġvis uelle
Ġvers Ã©s
Ġbon us
Ġfi ction
ĠV igo
anc a
ĠprÃ©c urs
Ã©conom iser
Ġoff erts
Ġabs ente
ill Ã©es
Ġret ours
Ġconstru isent
Ġir ont
Ġsus pect
Ġfran che
Ġdiscu tÃ©e
Ġtransp osÃ©
Ġappar ente
ĠmÃ©c onn
Ġtransf Ã©rÃ©
Ġinv olont
Ġven geance
Ġfu meurs
Ġunivers elles
Ġvit alitÃ©
Ġcondu its
Ġmus cle
Ġdeven ait
Ġtotal itaires
Ġtotal itarisme
Ġpollu antes
Ġcorrespond antes
Ġperd urer
ĠsÃ©par atis
ĠdÃ©rou lÃ©es
ĠÃ©mer gent
ĠRom ney
Ġexploit ent
Ġalli ances
Ġtravaille z
ĠÃ©li re
200 7
Ġinstitution n
Ġbar rage
Re g
ĠdÃ©plac Ã©
Ġemprun tÃ©
ĠÃ©valu Ã©s
ĠCar diff
Ġblo quÃ©e
ĠintÃ©gr ant
Ġconjoin tes
Ġdra con
Ġcib lÃ©
ĠempÃª chant
Ġtre mp
ĠfÃ©dÃ©r alisme
ĠdÃ©fav or
Ġmorte ls
Ġrigou reusement
Ġinn ombrables
Aut ant
Ġenthousias tes
ĠdÃ©passe ment
Ġdommage able
Ġmanquer a
arra che
ars ovie
Ġcommet tent
Ġinjusti ce
Ġinjusti fiÃ©es
Ġenregistre ment
Ġsuici des
log es
europÃ© enne
Ġexhaus tif
Ã©lo ge
Dem ande
ĠpÃ©d oph
ĠLam assoure
Ġsomb rer
ĠdÃ©pourv ue
Ġinsur gÃ©s
Ġrisquer ait
Ġdil u
Ġexag Ã©rÃ©
ĠsÃ©cher esses
Ġhypoc risie
Ġescomp tÃ©
Ġcanc Ã©ri
Ġresser rement
Der nier
Ġbouc lier
Ġinappropri Ã©
Ġregroup er
Ġsecr Ã¨tes
ĠprÃ©limin aires
Ġconsta tÃ©es
ĠÃ©nonc Ã©s
ĠGro enland
Ġtyran nie
Ġavan Ã§ons
Ġloisir s
Ġpertur ber
ĠGÃ©n Ã©ral
Ġincontourn able
Ġnuis ances
Ġaffronte ments
Ġtechni ciens
Ġpoussi Ã¨re
affich age
ĠRas muss
ĠWilli am
Ġexis tenti
ĠTex as
ĠTransn istrie
Ġsid Ã©rur
Ġpuzz le
ĠTurkm Ã©nistan
Ġheb domad
ĠLann oye
ĠRasmuss en
) :
8 0
D Ã©ch
F aute
R ouge
S I
S T
] .
i Ã©
i tions
k land
n ouve
o eu
p oids
t ter
v Ã©r
w w
x ford
Å Ł
Ã© puis
Ġl ents
en ch
Ġc oiff
Ġs que
re lle
Ġa qu
er aient
an Ã©e
Ġn oires
in cident
or gue
Ġt rÃ©sor
Ġr amp
ĠdÃ© pe
Ġpar ach
Ġpour voir
Ġb av
ĠrÃ© tention
ĠrÃ© Ã©lection
ch ir
Ġg uit
Ġg ouff
Ġpl aint
Ġpl aques
pp i
Ġch Ã¢
Ġch asser
ĠP y
ĠP ir
Ġex on
Ġex ten
pe aux
av enture
Ġcomp tÃ©
aut os
Ã©n dez
Ġpu b
oy le
ĠÃ©t end
ĠB R
ĠB BC
ĠS R
ĠS av
ex amine
ĠrÃ©s istÃ©
ĠA s
ĠA ung
Ġsa pe
Ġdem andi
Ã©c ue
Ġar genti
Ġcr Ã¢
ĠdÃ©b it
ĠR app
Ġ" ,
ĠG ar
ĠprÃ©sent ons
Ġconf ection
jecti f
der a
Ġass umÃ©
Ġconstitu tionnels
ali Ã©n
Ġavoir s
Ġexemp tions
ĠK han
ĠK iev
ĠH en
ĠH all
els on
Ġplan e
Ġph are
Ġappr entissage
Ġbi don
ĠrÃ©g lÃ©s
Ġpublic ations
ĠV arsovie
Ġrecher chons
ĠspÃ©ci aliste
inter viens
Ġsuff ire
Ġviol on
Ġtot ales
Ġref er
all ong
are t
are mment
amin es
Ġimm or
Ġencour agÃ©es
Ġten ez
Ġloc alisation
Ġall ouer
ĠÃ©p reuves
ĠreÃ§ us
ĠlibÃ©r alisÃ©
Ġexc itant
Ġinst ables
cev ons
oni ens
Ġconcent rant
Ġexprim ons
ĠprÃ©senter ons
Ġanal y
resse urs
Ġtax er
ĠthÃ© matiques
ris ti
amb ule
Ġeffectu e
off ici
Ġbal les
Ġplac Ã©es
Ġtradu ctions
Ġami tiÃ©
Ġrecons titu
ĠcomprÃ©h ensibles
Ġuni form
Ġul tÃ©rieures
Ġaccr us
ork ov
Ġbar il
Ġhor aire
Ġsaur ais
ĠsÃ©v it
Ġcriti quÃ©e
ĠCro wley
Ġrestru cturer
Ġprati quÃ©e
ĠintÃ©gr alitÃ©
idÃ© o
Ġressenti ment
ĠdÃ©tour nÃ©
Ġignor Ã©e
Ġhy dr
Ġaime z
Ġtari fication
Ġrepos ait
ette z
Ġexplo itÃ©s
Ġinforme lles
Ġmusulman es
Ġsurven ue
ĠÃ©man e
respons abilitÃ©
ĠspÃ©cul ations
Ġartifici el
Ġartifici ellement
Ġchauff eur
Ġchauff eurs
ĠfÃ©min ines
rid ge
Ġrespectu euses
Ġcos tume
ĠxÃ©nophob es
Ġmargin alisation
Ġattach ons
Ġhosti les
Ġinterromp re
ĠMor illon
Ġdiffus Ã©
Ġrigi des
harmon ie
Ġdor mi
Ġnat ale
ĠperpÃ©t rÃ©es
ĠMcC art
ĠcÃ´ti Ã¨re
Ġmigrat oire
ĠÃ©merge ants
Ġsauveg ard
Ġsuccessi ves
ĠSer vice
Ġviole mment
Ġve cteur
ĠÃ©chantil lons
199 9
ĠtÃ©moign age
Ġpromen ade
hist oires
Ġjun gle
Ġgrad uelle
ĠHow itt
Ġvoc ab
ĠÃ©mette urs
Ġimmeu bles
Ġhect ares
ĠdÃ©bi teurs
Ġcontrecar rer
ĠBow is
agas car
Ġcend res
Ã©volu er
Ã©nÃ©zu Ã©li
ĠTob in
Ġeuroscep tiques
ĠcommerÃ§ ants
Ġcotis ations
ĠKowe Ã¯
1 1
7 0
9 0
E ffectivement
F A
L aissons
M ani
P olitique
R en
V I
b ert
c Ã¨rent
d og
g ar
h us
i onnage
l oc
l antes
m ers
t rÃ©e
Ġp unis
Ġc age
an niversaire
Ġm out
Ġm agn
Ġn Åĵ
Ġla ve
ar n
Ġv ase
Ġv esti
Ġv Ã©cue
ous s
Ġdes se
Ġun it
as pects
op pe
Ġj arg
Ġg am
os ait
Ġpl ats
Ġpro vidence
Ġpro hib
ĠC PI
ens ui
ĠP lus
ter ck
Ġex agÃ©
Ã©r aires
app rÃ©h
tr ans
Ġmon ument
Ġli tige
onne l
ins pirer
cu lement
ĠÃī gyptiens
Ġfin aux
Ġfin aliser
ap est
Ġques teurs
Ġmar oc
ĠS Ã©nÃ©gal
Ġpers istant
Ġimport er
Ġaut obus
ler ais
ler ait
ĠdÃ©p ou
Ġpos ez
isi tions
Ġman quait
Ġtravail listes
Ġad hÃ¨re
Ġar d
ĠT PI
ĠT atoeba
Ġcr is
ĠdÃ©b arr
tin a
Ġfa une
Ġcontre b
ĠcrÃ© atifs
acc ises
Ġprodu ctives
ĠG arri
cher ie
ner gie
Ġcol ons
ĠgÃ©n it
ĠN ature
Ġdom ine
Ġfr om
Ġmin eur
ĠE d
Ġmal s
ĠÃ©c li
Ġdemand aient
Ġconstitu aient
ĠdÃ©f aire
mis phÃ¨re
exp orter
exp rim
ĠK allas
ĠK GB
Ġva peur
Ġjou ait
Ġpres cription
ĠrÃ©alis ables
Ġbase ball
Ġprom ise
Ġcrois Ã©s
rÃªt ons
att ribuer
Ġtu y
Ġdonner ont
ĠrÃ©c it
Ġiniti Ã©
ĠW h
Ġface ttes
Ġfai blement
ĠmÃ© moires
Ġ6 3
Ġloc alement
Ġ7 3
ĠdÃ©termin ants
Ġouv rage
ĠLe w
Ġdiscu tions
Ġaccomp agne
Ġopp osent
hi op
Ġrend it
Ġveil lant
Ġcontra cter
Ġapporter ont
lac er
od orkov
Ġatta cher
Ġprend rai
ub er
Ġpren aient
Ġnour ri
Ġfig urait
Ġtran cher
ĠprÃ©ser vant
ĠrÃ©flÃ©ch issez
Ġsyn chron
Ch ez
ĠÃ©vent ualitÃ©
Ġang les
cadre ment
ĠmatÃ©ri elle
Ġ198 2
ĠsupÃ©ri oritÃ©
ĠrÃ©vÃ© lÃ©s
Ġfacil itation
ĠRom puy
Ġpat ernitÃ©
Ã©tr ang
Ġmari Ã©s
ĠRe garde
uni form
Ġtend ue
Ġcens Ã©es
asser ie
Ġaccueil lons
Ġaccueil lie
Ġpou dre
Ġillus trÃ©
Bon jour
Ġfall oir
Ġgui dÃ©
Ġbil ans
Ġobligatoire ment
Ġhabitu Ã©
Ġhabitu els
ĠperÃ§ oit
ĠTh at
Ġoptim al
Ġattribu tions
Ġasse oir
arc tique
ĠfrÃ©qu ents
Ġriv aliser
Ġmange z
Eur ostat
ĠMad agascar
Ġfati guÃ©e
ĠrÃ©form Ã©
Ġoctroy Ã©
effectu e
enregistre r
ĠhÃ©s itation
Ġpoursuiv rons
Ġproje ctions
estim ation
ĠrÃ©tic ences
ĠSte vens
Ġhosti litÃ©s
Ġirrespons ables
ĠsÃ©qu ences
Ġsaisi es
Ġinconn ue
hom osex
hom ophobie
Ġatom es
ĠdÃ©stab ilisation
Ġplong er
Ġbiotechnolo gies
habil lement
Ġtransnation ale
Ġore ille
ĠLeh man
Ġboulevers ements
Ġobsc ur
ĠlÃ¨ vres
ĠrÃ©public ain
ĠsoupÃ§ onne
ĠunilatÃ©r al
Ġdialo gues
Ġaccompagn Ã©s
Ġabatt us
Ġscrupule usement
Ġappauv ri
Euro just
Ġcontag ion
ĠAlb anais
Ġdysfonc tionnements
Ġpessi misme
Ġboy cott
ĠVir gin
Voud riez
Ġcamar ades
Fran chement
milli on
indic ateurs
ĠdÃ©vastat rices
Ġconfig uration
ĠBroth ers
Ġradiodiff usion
Ġquan tique
ĠRoc ard
ĠRapp orteur
ĠnÅĵ ud
terck x
A M
B r
G e
G ar
I P
L ib
S ui
V iens
h Ã©li
h orre
h umeur
h Ã©gÃ©monie
p osition
v olution
x e
Ã £
Ġ osÃ©
Ã© tions
Ġp is
Ġp uni
Ġc av
Ġc aisse
Ġc aisses
ti vent
Ġa nec
an ni
ur ies
Ġt rÃ©s
Ġf Åĵ
Ġen richi
as un
as sim
Ġau trui
ĠdÃ© raisonn
ci ons
ri tique
ĠrÃ© novation
Ġre de
at ts
at tÃ©nu
ĠC a
ĠC ab
ĠC et
Ġtr Ãª
ro quer
Ġpo itr
ĠM ouvement
Ġsu l
el la
Ġh ale
Ġh Ã©ri
Ġimp rud
Ġtra duira
du mping
Ġmar quÃ©s
ĠS Ã©
ĠS ou
ĠS and
ĠS terckx
ail s
Ġinter parlement
ĠprÃ©s omp
Ġfor ti
ĠR oss
ob ar
Ã» te
ĠdÃ©m ographie
gu ay
Ġprodu isant
Ġvo le
Ġrec apit
Ġvoud riez
ĠF AO
ĠL ud
ĠL anc
Ġfinan cent
Ġab ri
Ġor bite
Ġcol onne
ĠD is
Ġconf us
ĠE m
im ages
Ã©di a
ĠCh en
ĠI anoukovitch
Ġatt ribue
ĠJ Ã©sus
Ġcontin gents
cul aires
ĠH y
ĠH aug
ĠH ondur
st one
Ġjou ons
Ġsupp orte
Ġbi Ã©lor
ĠnÃ©goci e
Ġfi ch
ĠdÃ©clar ait
Ġprom ul
ĠreprÃ©sent Ã©es
ĠprÃ©c aires
ress Ã©
Ġfonction nant
Ġdou cement
Ġcontribu teurs
Ġtour nÃ©s
tis h
Ġconnaiss ais
Ġtent Ã©s
Ġver rait
Ġver rou
Ġrev ienne
Ġ7 2
ĠdÃ©termin Ã©es
Ġouv rent
ĠÃ©p ing
Ġ8 6
Ġfra cture
Ġdiscu tÃ©s
Ġdiscu table
Ã©p au
Ġhab ite
Ġsolid aires
Ġaider ait
arri vent
Ġveil lÃ©
Ġdispos era
Ġformul ations
Ġconfront er
Ġprot h
Ġenvis agÃ©s
Ġhist oriens
Ġlaiss Ã©es
Ġconvainc ant
Ġconsac rent
Ġidenti fiÃ©es
ĠSu Ã©d
Ġmag istra
Ġinten able
Ġcompli que
ĠdÃ©n ouement
hum our
Ġneu fs
Ġemb oute
ĠÃ©quilib rer
Ġperd ront
Ġorgan ise
ĠprÃ©t endue
Ġdiminu ent
200 8
ĠÃ©lectr om
Ġconsoli dÃ©
Ġsubs ister
Ġlab eur
Ġhandicap s
he id
Pr op
Ġexcell ence
ĠdÃ©pass Ã©e
Ġinterven ue
Ġment al
Ġinstall ation
Ġstu pides
Ġasi le
Ġobje ctivement
Ġpal ais
Ġhy bri
Ġapprouver a
Ġcab otage
Ġsupprim ant
aul t
Ġ196 8
arriver a
Ġsacri fice
Ġcontrovers es
Ġcontrovers Ã©es
intÃ©gr alitÃ©
Ġlou ables
Ġlou anges
ĠSol bes
ĠlÃ©giti mer
ĠSa ou
Ġinnoc entes
ĠdÃ©ploi e
Ġfar ine
Ġaccum ulÃ©
Ġassassin Ã©s
ĠMon Ã©taire
Ġvirtu elle
Ġbarb are
Ġincorp orer
ĠrÃ©affir me
ĠconsidÃ©r aient
Ġquantit atif
Ġminor itaire
ĠPD J
Ġmanipul ations
Ġinhab ituelle
ĠrelÃ¢ cher
Ġcoul oir
expl oration
Ġso ja
exÃ©cu ter
Ġattray ante
Ġsangu ins
ij ing
ĠWiki pedia
adress ent
pli cation
Ġmilitar isation
Ġbrou illard
Ãīt hiopie
Ġaustra li
ĠmÃ©tÃ© or
Emp ire
RÃ©s ul
ĠpaneuropÃ© en
Ġvaud rait
Ġaccess oires
Ġsurpren ante
ĠBlo kland
ghi z
Ġpsychi atri
Ġprover be
Glob alement
Ġlimitroph es
ĠdÃ©tra cteurs
Ġjarg on
ĠHondur as
R apport
T e
V idÃ©o
g ation
g ations
h Ã©e
o rez
p oli
r ure
Ã ²
Ġ osc
Ġd resse
Ġl ie
on al
ai mait
in titu
ar abe
Ġr a
Ġf irent
Ġv endues
Ġpar as
Ġj a
Ġj ach
Ġj oint
Ġb Åĵuf
ra teurs
ĠrÃ© organiser
Ġpas sez
Ġin estim
ch ill
os ph
os phÃ¨re
ag en
ag one
ĠC N
ĠC oca
rÃ© n
ĠP uis
Ġdi ag
ro vis
tu elle
ĠM Ãªme
Ġsi Ã©g
Ġcons istent
Ġo h
ĠprÃ© ambule
Ġimp osition
Ġgr ain
Ġgr Ã¨ves
Ġan tis
Ġan tÃ©rieurs
Ġparti tion
ad ul
Ġapp laud
ĠÃ©t al
Ġvi fs
Ġfin ales
ĠB uit
ĠS in
ĠS ans
Ġvou Ã©e
ot amment
ĠprÃ©s ume
ang ent
ĠT ous
Ġcr uelle
ĠrÃ©p rimer
cip ation
Ã® mes
itu ation
Ġren aissance
Ġpri ve
ĠN elson
ĠD ou
ĠE gypte
Ġdisp ens
Ġca chent
Ġpe urs
ass Ã©es
ass oni
Ġlib Ã¨re
Ġpropos era
Ġcontin gent
ĠK enne
ĠK ing
ĠH aw
og er
Ġfonc tionnel
Ġindi ce
Ġeng rais
anc Ã©es
Ġprom ouvant
Ġarri vant
Ġvol aille
ĠO ly
ĠgÃ©nÃ©r alisÃ©
inter view
Ġviol Ã©s
arti ste
ordin ateurs
ru guay
Ġconte xtes
Ġ7 4
Ġessay a
amÃ©li orations
ĠÃ©p izoo
Ġhab itent
Ġsau te
ĠFr assoni
Ġopp rim
Ġrend ait
Ġmer de
Ġprot otype
uis enberg
Ġcentr alisation
Ġconseil le
Ġconseil la
aisse ment
Ġveiller ons
tern itÃ©
Ġk eynÃ©si
Ġcondition nÃ©
Ġbat teries
Ġenvoy ons
Ġsouv ient
Ġprovo quÃ©es
Ġdistin ct
Ġmai gres
Ġcompli ment
Ġservir ont
Ġral lie
ĠvÃ©ri fiÃ©
Ġlimiter ai
Ġmutu els
appliquer a
Ġamen Ã©e
ĠdÃ©v ouement
Ġsac rÃ©e
Ġsubs aharienne
Ġpes sim
Ġmarchand ise
ĠrÃ©di gÃ©s
Ġhor mis
ĠprÃ©al ablement
Ġ197 4
ĠdÃ©plac Ã©s
Ġsent ons
export ations
ĠCol lins
ĠCar ol
Ġax Ã©es
Ġpost al
ĠMc M
Ġutilise z
Ġsouhai tÃ©e
ĠperÃ§ ues
Ġenregist rÃ©e
EL E
ĠprÃ©ven tif
ĠfrÃ©qu ente
App aremment
Ġmorte lle
Ġreb ond
ĠdÃ©ten u
Ġplate au
amÃ©ric anisme
ĠKh odorkov
ĠcÃ©lÃ©b rons
Ġerron Ã©es
Ġtrompe uses
Ġinjusti ces
Ġrub riques
exig ences
ĠprÃ©cip iter
Ġcolon isation
Ġmou che
ĠrÃ©pÃ©tÃ© es
jac ents
Ġmarquer a
Ġheur te
ĠthÃ©rap eutique
ĠbactÃ©ri e
Ġmusi cale
ĠFlor enz
Ġmous tiques
produ ctif
ĠdÃ©faill ance
ĠindÃ©ni ablement
Ġind iss
Ġnoci ves
Ġcong estion
Ġslog ans
Ġhydro carbures
Ġchirur gi
Ġplaign ent
ĠclÃ´ turer
Ġvaisse aux
Ġtourn ure
Ġdispu te
ĠpÃª ches
Ġauda cieux
expl orer
ĠprÃ©le ver
ĠrÃ©public ains
Ġrecour ant
Ġbag ages
ĠtibÃ©t ain
ĠNie lson
ĠimprÃ©visi bles
dÃ©pend amment
Ġcorpore ls
ĠtÃ©n acitÃ©
Ġomni prÃ©s
Ġdenti ste
assoup lissement
effici ence
ĠAz nar
ĠDaph nÃ©
ĠincomplÃ¨ te
Ġcray on
ĠSac coni
Ġdoctor at
Ġmammif Ã¨res
Ġinsouten able
ĠPV C
Sec undo
Ġchag rin
Ġdissu asi
Ġdiox ine
ĠpÃ©dopor nographie
orch estre
insol vabilitÃ©
Ġgouff re
ĠPir ker
ĠKoweÃ¯ t
dog an
Ġfrom age
ĠtrÃª ve
ĠBuit en
Ġpessim iste
7 5
A K
A sse
E rika
I M
I EC
P enses
S ud
V o
Y ork
b y
b els
c aux
d t
f ort
l issant
t our
u itÃ©
Ã Ł
Ä ĩ
Ġ ondes
en a
ou les
Ġa cides
ent agone
ur ne
in gues
in dis
ar ab
it atives
si er
si te
Ġf ab
Ġv Ã©nÃ©zuÃ©li
our t
me z
op ter
li a
ĠrÃ© gner
ĠrÃ© Ã©valuer
ĠrÃ© conf
Ġin Ã©lu
ch ets
Ġg Ã¨rent
ag issent
ĠC ity
di ez
ir ons
ir onie
ĠM oh
ĠM Ã©ndez
Je an
mb ourg
Ã©r ais
Ġcomp oser
Ġent rons
Ġimp rimer
ins ul
Ġy ens
ts ch
Ġvi ct
Ġvi endrait
ĠB re
ĠB at
ven ons
ĠS ystÃ¨me
bli ques
Ġpers uasion
ense urs
Ġdiff am
ĠA Ã§
ĠA vec
Ġacc use
Ġma fia
Ġmil itairement
ĠrÃ©p li
Ġcar rÃ©s
Ġni d
Ġcontre poids
ĠcrÃ© ations
um Ã©s
Ġren once
Ġrep ortÃ©e
ĠF ar
ĠF ARC
ĠL ie
ĠÃ©v acu
Ġag ression
ĠD uisenberg
Ġmin uit
Ġop Ã¨re
Ġgar dien
Ġmainten ues
ĠdÃ©f endant
Ġmondi alisÃ©e
ĠnÃ©g ation
Ġexemp tion
Ġconn aÃ®tra
Ġcoop Ã¨rent
Ġbi og
Ġcour antes
Ġlu eur
ay a
Ġcommen Ã§ait
Ġarri va
ĠspÃ©ci alisÃ©e
eff e
Ġsuff i
Ġsuff iront
ĠcoÃ» terait
ĠsÃ©ri es
ĠcontrÃ´le ur
Ġgra v
Ġappli quons
Ġbr ille
Ġbr isÃ©
Ġimpli citement
lo ts
Ġconstru ites
ĠprÃ©cis ant
eng agements
Ġrepr endra
Ġheure uses
Ġ6 8
Ġencour agement
Ġencour agements
Ġtrouv Ã©es
Ġconsci emment
Ġglob alisÃ©
Ġ7 6
ĠLa os
ak espe
Ġfavor i
Ġamb assades
atri culation
Ġcommencer a
Ġpartage ant
Ġanti missi
ĠSch ro
ĠrÃ©ser vÃ©s
ani a
Ġquali fie
Ġjourn Ã©es
Ġlaisser a
Ġcondu isant
ĠAn nÃ©e
Ġk urdes
Ġache teurs
anci er
Ġcompar Ã©e
Ġmatin s
ĠrÃ©flÃ©ch is
oth Ã©rap
Ġcaract Ã¨res
Ġprovo quÃ©s
Ġcompli ces
ĠdÃ©n omination
Ġcorrespond ants
Ġemb r
Ġorgan iques
Ġcroy aient
enseig ne
ĠvÃ©ri fications
dÃ©m ar
Ġstim ule
Ġvari ole
Ġ17 5
Ġdistribu Ã©s
Ġ16 0
ow er
affir m
ĠNew ton
Ġabou tissent
Ġsang lante
Ġcourage uses
Ġvingt aine
Ġaccus ent
Ġcalend riers
arr ange
Ġmodern itÃ©
ĠdÃ©pass ant
arrÃªt ent
Ġspect ateurs
Ġmerveille uses
ĠintÃ©gr itÃ©
ĠmÃ©n ager
ĠdÃ©bou che
Ġphil anthrop
Ġexpl oser
Ġcombin Ã©s
Ġap ais
Ġap titudes
Ġcad av
Ġgratu its
Ġattribu Ã©e
ĠrÃ©mun Ã©rÃ©
Ġhui tiÃ¨me
ĠpÃ©r enn
Ġsorti ra
ĠdÃ©crit es
Ġmicro bes
Ġclandes tin
ontr ol
alib an
ĠrevÃª tir
ĠprÃ©cip itation
Ġtap er
ET A
Ab khazie
Ġcess ation
ĠBe ijing
ĠAnd ersson
Ġeffond rÃ©
Ġbaiss es
ĠimpÃ©ri alistes
ĠcroÃ® t
Ġentrain Ã©
Ġhorizont al
Ġrecord s
ĠconcrÃ© tis
Ġpira tage
ĠFlor ide
Ġdisproportion nÃ©
Ġcigare tte
IF T
ĠHol lande
Ġnov atrices
Ġnourr issent
dr oite
ĠPE V
Ġinterrog ations
Ġcompren ait
ĠmÃ©d aille
ĠdÃ©pendant es
Ġpard onner
Ġtoxicom anie
Ġembry ons
Ġintu ition
ĠÃ©ve illÃ©
Ġgrad uellement
Ġsonne tte
Ġcircu it
Ġath lÃ¨
ĠimprÃ©visi ble
ĠdÃ©fici ences
ĠApp le
erv ateurs
ĠCat al
ĠRoy al
Ġcoutu mes
Ġclo che
ĠsÃ©min aire
toc ole
ĠÃ©ni Ã¨me
Ġchampign ons
Ġvier ge
autorÃ©g ulation
averti ssement
Ġpaper asserie
ĠDanie l
ĠNass auer
ĠWoo ds
Ġvocab ulaire
Mani f
ĠThat cher
attÃ©nu ation
obar omÃ¨tre
ĠLanc ker
ĠSuÃ©d ois
Ġfab ule
ĠinÃ©lu ct
ĠAÃ§ ores
A G
S ois
U A
f al
f ro
h aut
i f
n al
p a
s ans
u jet
Å Ĥ
en core
en cre
Ġp ique
qu ateur
re y
an iques
an archie
Ġqu ad
Ġn app
Ġn aissent
Ġn oct
in tr
in action
or ons
Ġle vÃ©es
Ġf onte
Ã¨ ler
ĠÃ© laboration
op inions
ĠdÃ© rob
ĠrÃ© it
ĠrÃ© inventer
Ġpas sifs
Ġg rammes
Ġre dÃ©mar
ĠC re
ĠC IT
ab ad
Ġse ize
ĠM id
Ġje tons
Ã©r ances
Ġme c
Ġcomp osi
and in
ĠprÃ© ten
Ġgr aisse
aut h
ad Ã©quation
onc tion
mi er
Ġdis iez
Ġres titution
ĠÃ©t age
ise ments
ĠdÃ©c or
ique ment
titu re
ĠB Ã©lar
ĠS L
ĠS antÃ©
ves titure
Ġinter action
Ġinter vienne
Ġdiff use
Ġman quons
Ġman oeuvre
ille z
ct ent
ĠprÃ©s upp
ic s
Ġtravail laient
ang oisse
Ġad orent
Ġst rat
int Ã¨g
mps on
ĠdÃ©b arrass
ĠR h
Ġcar g
itu des
ĠG auche
ĠG rad
lar y
ĠF orce
ĠL Ã©
ver b
Ġcol ombien
ĠN ai
ĠD j
ĠD oyle
Ġconf use
Ġmet tront
Ġaff lu
Ġdemand Ã©es
ali gnement
pÃ© ti
Ġcent rÃ©e
Ġconn aÃ®
exp riment
Ġpass ager
Ã©v ille
Ġcor ail
ĠâĢ Ķ
Ġim iter
Ġ3 000
Ġbi jou
Ġress us
Ġju gent
Ġarri vez
ĠO uganda
orter esse
Ġsal on
Ġvoy aient
ĠdÃ©cisi ves
Ġpi Ã©
Ġpi Ã©g
ĠrÃ©un ira
Ġconstru ctifs
fie ld
Ġremp lie
Ġ6 6
Ġconv o
Ġpoursui vant
Ġessay ait
ak s
Ġmul tim
Ġabord ent
Ġrend ront
Tu be
Ġmanque ment
Ġpol lin
Ġconcep teurs
mÃ© ni
Ġinv ari
Ġinv isibles
ach oppe
Ġbou cle
han ol
Ġorient Ã©
ess or
ĠMar sh
Ġpor tÃ©s
Ġcondam nant
Ġconser vant
immi grÃ©s
Ġis olement
Ġvit ales
Ġk g
Ġ12 5
Ġtemp le
Ġregard a
ĠrÃ©flÃ©ch it
ĠrÃ©flÃ©ch ie
Ġpen chÃ©
Ġliv rent
Ġemploy Ã©e
Ġparticiper ont
Ġcorrespond ante
Ġemb lÃ©
ĠÃ©quilib res
atte ind
Ġvari Ã©tÃ©s
ĠÃ©lector at
assur ances
Ġalli ez
ĠaccÃ© lÃ©ration
ĠÃ©li te
Ġexcep tÃ©
Ġcaus ent
ĠrÃ©volution naires
Ġfou lÃ©e
ĠsystÃ© miques
ĠirrÃ© f
Ġvir ul
anal ys
Ġsatisfais antes
Ġemprun teurs
Ġment aux
ĠadÃ©quate ment
Ġsalari ales
Ġbo euf
ĠrÃ©pu bliques
Ġcop ies
Ġstu dio
ĠGe b
Ġprogress istes
Ġignor ons
Ġignor Ã©s
ĠfÃ©dÃ©r aliste
val ue
ĠdÃ©battu es
Ġaspir ons
ĠprivilÃ©gi Ã©s
Ex amin
Ġconne ctÃ©s
Ġord onn
Ġriv aux
ĠJohn son
Ġmicro crÃ©
entra ver
Ġbomb ard
Ã©vent uels
ĠÃ©mo tionnelle
Ġaim ait
Ġgenti lle
Ġchaud s
ĠrÃ©ve illÃ©
ĠboÃ® tes
Ġanticip Ã©e
ĠhÃ©s itÃ©
ĠhÃ©s iter
ĠrÃ©pÃ©tÃ© e
Ġappuy ons
aggra vation
Ġincendi e
Ġmalheure use
Ġressent ons
ĠbÃ©n Ã©diction
Ġtranqu illement
Ġimpu issants
Ġannonc Ã©es
Ġtransmet tent
Ġmunicip alitÃ©s
oun d
Ġempris onnÃ©
Ġblan ches
ĠMcC ain
Ġparam il
Ġconstant es
Ġcath oliques
Ġsectorie lle
ĠThe ato
Ġinfir miÃ¨re
impossi ble
Ġaboli r
Ġgigantes ques
Ġsuperf lue
ĠbÃ©nÃ©v olat
Ġinappropri Ã©e
Ġenra cin
ĠtÃ©moign ages
Ġmuti lations
Ġdouz aines
Ġsangu in
Ġremont ent
Ġmexic aine
Ġgrossi Ã¨re
accus ation
Ġfui ent
Ġvigou reuse
Ġmicros cope
ĠLors que
Ġsach ions
Ã©criv ain
hon orer
Ġner fs
Ġcui vre
ĠlinÃ© aire
ĠcinÃ©mat ographique
ĠBud apest
irrÃ©g ularitÃ©s
ĠMoz amb
Ġrespi rat
ĠsÃ©n ateur
Ġfes tiv
Ġchol Ã©ra
Ġarsen al
Rapp elez
Ġendi guer
ĠTaj ani
ĠSW IFT
Ġcontreb ande
Ã£ o
Ġpoitr ine
Manif estement
ĠGrad in
1 4
4 5
D T
D ois
D Ã©b
H onorable
M oins
O PE
P AR
S auf
U ti
W eg
h al
u lle
u ck
w a
Ä ĥ
Ġ oser
Ġ olÃ©
Ġd ors
Ã© lÃ©
on a
Ġp end
Ġp iv
Ġp Ã©di
Ġp Ã©chÃ©
Ġs cul
qu atre
Ġa jour
ent rai
er o
an Ã©
le ver
in Ã©s
in je
Ġr ater
Ġv ents
Ġv alu
il o
il ation
Ġen velop
us chw
âĢ ľ
Ġau dit
li c
li one
Ġpar is
Ġin te
Ġin dÃ©c
ch on
ch ers
Ġg orge
at tre
at trait
Ġsur charge
rÃ© al
ens pan
di que
di mbourg
ĠP atri
ĠM os
ĠM el
ĠM ill
ĠM Ã¼
Ġex orb
ĠprÃ© diction
fi antes
Ġli mp
Ġser vie
Ġan onyme
oc ontrol
Ġtra duite
mi um
che min
ins pire
ĠPar k
ĠB ert
ĠS E
ĠS ara
ĠS Ã©ville
Ġinter rogÃ©
Ġpos ait
enti tÃ©
ang Ã©e
Ġad j
Ġad miration
Ġst alin
Ġar ch
vel t
je vo
ĠR od
ĠdÃ©m oli
Ġcontre dire
Ġren ouer
ĠG lob
ĠG onz
ĠF al
Ġab straction
ĠÃ©v itÃ©s
nation ale
ĠE cofin
Ġmont ent
Ġcap turer
ali Ã¨re
ĠdÃ©f er
ĠJ ane
Ġinc lusion
Ġutilis ations
og g
Ġdisc orde
Ġjou g
Ġsupp ortent
Ġcri er
gne z
ĠnÃ©goci Ã©s
ĠrÃ©alis ons
Ġju gÃ©es
ĠprÃ©v alent
Ġnot ations
Ġvol can
ĠrÃ¨glement ations
Ġoc tr
ĠmÃ©di ateurs
Ġgra ti
Ġsui ve
tim itÃ©
Ġri ve
Ġvoy agÃ©
ĠrÃ©pond it
nÃ© tiques
all y
Ġimpli quait
Ġconstru isons
Ġappel Ã©es
Ġdiri gÃ©s
Ġdoute use
eng rais
Ġrepr enant
inc itations
Ġremp la
Ġconv iennent
ĠprÃª teurs
ĠtÃ©lÃ© char
ĠintÃ©ress ent
inf li
Ġexig era
Ġdirige ante
ĠÃ©p ais
ak sin
Ġdiscu tÃ©es
ĠreÃ§ oive
Ġabord era
Ã©le vait
Ġcat alogue
ĠCon f
ĠtÃ¢ cher
Ġconcent rons
Ġorient Ã©es
Ġrester ait
Ġgros s
Ġanti personnel
Ġcolle ctÃ©es
Ġsour i
aÃ¯ re
Ġoubli ons
Ġestim Ã©s
Ġjourn alisme
Ġrati fiÃ©e
Ġautoris ant
Ġcourt ois
Ġretard Ã©e
ĠPremi Ã¨re
ĠÃ©m issaire
Ġinvesti t
ĠsÃ©par ent
ĠdÃ©rou lera
Ġlit tor
Ġmaxim iser
Ġnavi guer
Ġpay ent
Ġpay ons
Ġsac s
ĠÃ©cl ater
ĠprÃªte ur
ĠfÃ© con
comm ission
Ġbois son
Ġdiss olution
Ġmotiv Ã©e
ony mat
appar aÃ®tre
aj outent
ĠGaz prom
Ġblo quÃ©s
ĠdÃ©lic ats
Ġsubstanti ellement
Ġcorri gÃ©
Ġacqu it
Ġcompos ant
Ġlanc ent
Ġpersuad Ã©s
Ġengend rÃ©s
Ġengend rent
ĠdÃ©clen chement
Ġentam Ã©es
Ġaspir ation
Ġintensi fs
ajus ter
Ġdure ra
Ġmultipli ent
ĠbrÃ» le
Ġsurp Ãªche
Ġcontrovers Ã©s
RÃ© flÃ©ch
car est
acqu itter
Ġridi cul
Ġprovis oires
Ġproje ter
Ġbulle tin
aggra ve
Ġom is
Ġom et
Ġcho quÃ©
Ġrecru ter
Ġsoumet tra
Ġmira cles
Ġenglob er
Ġeffor cÃ©
Ġeffor cÃ©s
Ġsurc apacitÃ©
Ġcommand ant
ĠsensibilitÃ© s
ĠintÃ©rim aires
Ġagres sif
Ġrigi ditÃ©
Ġmusi ciens
Ġtardi vement
ĠÃ©met tent
ĠMan uel
ĠDÃ© veloppement
ĠIs lam
Ġmagaz ines
ĠPES D
Ġroman tique
Ã©quilib rer
Ad ministration
Ġloint aine
Ġimmin ent
Ġfat al
Ġassor ti
Ġengage ons
Ġentreten u
Ġcoul isses
ĠguÃ©r ison
Ġlan Ã§ons
tig lione
ĠdÃ©nu Ã©e
Ġanalo gues
ĠpersÃ©cu tions
aliment er
aliment aire
Ġenra yer
ĠcoopÃ©ra tive
Ġlap id
Ġatteind ra
Ġsupermar chÃ©s
ĠBus quin
ĠAlex ander
Ġvainque urs
Ġvende ur
Ġflamb Ã©e
Ġsupervis er
ĠPrin temps
ĠdÃ©mÃ©n agÃ©
Ġpessi mistes
Ġaustra le
Ġencl ins
Ġimput able
Ġhol landais
ĠMun ich
Ã©cl ai
ĠKab oul
anticip er
Ġdissuad er
Ġsure x
ĠFried man
Ġdiscer nement
Ã©mi gration
Ġdivid endes
ĠYou Tube
entraÃ® nement
Ġpoub elle
Ġnitra tes
ĠmanÅĵu vres
ĠAsi atiques
ĠSav ary
ĠStevens on
homosex ualitÃ©
ĠfÅĵ tus
Ġhale ine
Ġjach Ã¨re
akespe are
achoppe ment
ĠGeb hardt
ĠMozamb ique
Weg gen
uschw itz
D P
H aÃ¯ti
I E
M T
U K
g estion
h ar
i co
n app
p ain
s ins
Ġd ingue
Ġp Ã©t
Ġp Ã´le
Ġp Ã´les
Ġc Ã¨de
Ġc ock
ou illes
Ġs oc
Ġs pons
re Ã¯n
Ġa ci
Ġa fghans
er al
Ġe Ã»t
Ġn ie
ur ditÃ©
in verser
ar isme
or y
or ant
it ure
Ġr ond
Ġpr Ãªtre
il ie
il lÃ©g
est ri
âĢ ¢
au tions
Ġpar rain
Ġpar laient
ĠrÃ© orientation
Ġin op
Ġin utilis
Ġin tri
Ġin timi
Ġpl ages
de x
ĠP entagone
ac Ã©s
Ġpo ison
el ons
app auv
ul l
and ert
ĠprÃ© lÃ¨vements
onn era
ord s
Ġgr ille
Ġan onymes
onc ert
Ġres piration
Ġpu ce
ap art
Ġentre tien
Ġmar rant
ĠB ob
ĠB ak
ĠB ER
ĠS tat
ĠS tra
Ġinter rÃ©gi
Ġpos era
gn ait
Ġam oin
Ġins ol
Ã©c rit
ic ains
Ġad ore
Ġar demment
Ġar rog
ose velt
emp re
Ġtrans action
Ġcommun Ã©ment
[...]
