{
  "<pad>": 0,
  "<s>": 1,
  "</s>": 2,
  "<unk>": 3,
  "<mask>": 4,
  "!": 5,
  "\"": 6,
  "#": 7,
  "$": 8,
  "%": 9,
  "&": 10,
  "'": 11,
  "(": 12,
  ")": 13,
  "*": 14,
  "+": 15,
  ",": 16,
  "-": 17,
  ".": 18,
  "/": 19,
  "0": 20,
  "1": 21,
  "2": 22,
  "3": 23,
  "4": 24,
  "5": 25,
  "6": 26,
  "7": 27,
  "8": 28,
  "9": 29,
  ":": 30,
  ";": 31,
  "<": 32,
  "=": 33,
  ">": 34,
  "?": 35,
  "@": 36,
  "A": 37,
  "B": 38,
  "C": 39,
  "D": 40,
  "E": 41,
  "F": 42,
  "G": 43,
  "H": 44,
  "I": 45,
  "J": 46,
  "K": 47,
  "L": 48,
  "M": 49,
  "N": 50,
  "O": 51,
  "P": 52,
  "Q": 53,
  "R": 54,
  "S": 55,
  "T": 56,
  "U": 57,
  "V": 58,
  "W": 59,
  "X": 60,
  "Y": 61,
  "Z": 62,
  "[": 63,
  "\\": 64,
  "]": 65,
  "^": 66,
  "_": 67,
  "`": 68,
  "a": 69,
  "b": 70,
  "c": 71,
  "d": 72,
  "e": 73,
  "f": 74,
  "g": 75,
  "h": 76,
  "i": 77,
  "j": 78,
  "k": 79,
  "l": 80,
  "m": 81,
  "n": 82,
  "o": 83,
  "p": 84,
  "q": 85,
  "r": 86,
  "s": 87,
  "t": 88,
  "u": 89,
  "v": 90,
  "w": 91,
  "x": 92,
  "y": 93,
  "z": 94,
  "{": 95,
  "|": 96,
  "}": 97,
  "~": 98,
  "¡": 99,
  "¢": 100,
  "£": 101,
  "¤": 102,
  "¥": 103,
  "¦": 104,
  "§": 105,
  "¨": 106,
  "©": 107,
  "ª": 108,
  "«": 109,
  "¬": 110,
  "®": 111,
  "¯": 112,
  "°": 113,
  "±": 114,
  "²": 115,
  "³": 116,
  "´": 117,
  "µ": 118,
  "¶": 119,
  "·": 120,
  "¸": 121,
  "¹": 122,
  "º": 123,
  "»": 124,
  "¼": 125,
  "½": 126,
  "¾": 127,
  "¿": 128,
  "À": 129,
  "Á": 130,
  "Â": 131,
  "Ã": 132,
  "Ä": 133,
  "Å": 134,
  "Æ": 135,
  "Ç": 136,
  "È": 137,
  "É": 138,
  "Ê": 139,
  "Ë": 140,
  "Ì": 141,
  "Í": 142,
  "Î": 143,
  "Ï": 144,
  "Ð": 145,
  "Ñ": 146,
  "Ò": 147,
  "Ó": 148,
  "Ô": 149,
  "Õ": 150,
  "Ö": 151,
  "×": 152,
  "Ø": 153,
  "Ù": 154,
  "Ú": 155,
  "Û": 156,
  "Ü": 157,
  "Ý": 158,
  "Þ": 159,
  "ß": 160,
  "à": 161,
  "á": 162,
  "â": 163,
  "ã": 164,
  "ä": 165,
  "å": 166,
  "æ": 167,
  "ç": 168,
  "è": 169,
  "é": 170,
  "ê": 171,
  "ë": 172,
  "ì": 173,
  "í": 174,
  "î": 175,
  "ï": 176,
  "ð": 177,
  "ñ": 178,
  "ò": 179,
  "ó": 180,
  "ô": 181,
  "õ": 182,
  "ö": 183,
  "÷": 184,
  "ø": 185,
  "ù": 186,
  "ú": 187,
  "û": 188,
  "ü": 189,
  "ý": 190,
  "þ": 191,
  "ÿ": 192,
  "Ā": 193,
  "ā": 194,
  "Ă": 195,
  "ă": 196,
  "Ą": 197,
  "ą": 198,
  "Ć": 199,
  "ć": 200,
  "Ĉ": 201,
  "ĉ": 202,
  "Ċ": 203,
  "ċ": 204,
  "Č": 205,
  "č": 206,
  "Ď": 207,
  "ď": 208,
  "Đ": 209,
  "đ": 210,
  "Ē": 211,
  "ē": 212,
  "Ĕ": 213,
  "ĕ": 214,
  "Ė": 215,
  "ė": 216,
  "Ę": 217,
  "ę": 218,
  "Ě": 219,
  "ě": 220,
  "Ĝ": 221,
  "ĝ": 222,
  "Ğ": 223,
  "ğ": 224,
  "Ġ": 225,
  "ġ": 226,
  "Ģ": 227,
  "ģ": 228,
  "Ĥ": 229,
  "ĥ": 230,
  "Ħ": 231,
  "ħ": 232,
  "Ĩ": 233,
  "ĩ": 234,
  "Ī": 235,
  "ī": 236,
  "Ĭ": 237,
  "ĭ": 238,
  "Į": 239,
  "į": 240,
  "İ": 241,
  "ı": 242,
  "Ĳ": 243,
  "ĳ": 244,
  "Ĵ": 245,
  "ĵ": 246,
  "Ķ": 247,
  "ķ": 248,
  "ĸ": 249,
  "Ĺ": 250,
  "ĺ": 251,
  "Ļ": 252,
  "ļ": 253,
  "Ľ": 254,
  "ľ": 255,
  "Ŀ": 256,
  "ŀ": 257,
  "Ł": 258,
  "ł": 259,
  "Ń": 260,
  "Ġd": 261,
  "es": 262,
  "Ã©": 263,
  "Ġl": 264,
  "en": 265,
  "on": 266,
  "Ġp": 267,
  "Ġc": 268,
  "ou": 269,
  "Ġde": 270,
  "ti": 271,
  "Ġs": 272,
  "qu": 273,
  "re": 274,
  "Ġa": 275,
  "ent": 276,
  "er": 277,
  "an": 278,
  "ai": 279,
  "Ġqu": 280,
  "Ġe": 281,
  "is": 282,
  "Ġm": 283,
  "Ġn": 284,
  "ur": 285,
  "le": 286,
  "Ġla": 287,
  "in": 288,
  "tion": 289,
  "un": 290,
  "te": 291,
  "ar": 292,
  "ment": 293,
  "ĠÃ": 294,
  "or": 295,
  "Ġle": 296,
  "it": 297,
  "om": 298,
  "Ġt": 299,
  "Ġr": 300,
  "Ġet": 301,
  "si": 302,
  "Ġf": 303,
  "Ġpr": 304,
  "Ġles": 305,
  "Ġv": 306,
  "ĠÃł": 307,
  "ous": 308,
  "Ġdes": 309,
  "our": 310,
  "Ġun": 311,
  "Ġque": 312,
  "Ã¨": 313,
  "ons": 314,
  "il": 315,
  "Ġen": 316,
  "est": 317,
  "us": 318,
  "ation": 319,
  "ont": 320,
  "âĢ": 321,
  "Ġce": 322,
  "me": 323,
  "âĢĻ": 324,
  "ĠÃ©": 325,
  "as": 326,
  "op": 327,
  "ant": 328,
  "Ġau": 329,
  "ce": 330,
  "ve": 331,
  "li": 332,
  "ne": 333,
  "ans": 334,
  "que": 335,
  "au": 336,
  "ĠdÃ©": 337,
  "Ġpar": 338,
  "al": 339,
  "Ġpour": 340,
  "ais": 341,
  "tÃ©": 342,
  "ci": 343,
  "Ġj": 344,
  "ri": 345,
  "Ġb": 346,
  "oi": 347,
  "Ġcom": 348,
  "ait": 349,
  "Ġdu": 350,
  "ra": 351,
  "tre": 352,
  "ĠrÃ©": 353,
  "res": 354,
  "Ġpas": 355,
  "eu": 356,
  "Ġin": 357,
  "Ġdans": 358,
  "Ġune": 359,
  "Ġest": 360,
  "ch": 361,
  "Ġnous": 362,
  "Ġg": 363,
  "lle": 364,
  "os": 365,
  "Ġre": 366,
  "Ġqui": 367,
  "mp": 368,
  "at": 369,
  "Ġcon": 370,
  "Ġpl": 371,
  "Ġpro": 372,
  "itÃ©": 373,
  "de": 374,
  "pp": 375,
  "ag": 376,
  "ĠC": 377,
  "Ġsur": 378,
  "rÃ©": 379,
  "Ġne": 380,
  "aire": 381,
  "ort": 382,
  "lement": 383,
  "ens": 384,
  "ab": 385,
  "Ġtr": 386,
  "les": 387,
  "urop": 388,
  "Ġse": 389,
  "ff": 390,
  "Ãª": 391,
  "di": 392,
  "Ġch": 393,
  "ol": 394,
  "end": 395,
  "sion": 396,
  "tte": 397,
  "Ġplus": 398,
  "ĠP": 399,
  "ni": 400,
  "Ã¨re": 401,
  "Ġdi": 402,
  "ro": 403,
  "tu": 404,
  "ac": 405,
  "ain": 406,
  "Ġpo": 407,
  "Ã©s": 408,
  "Ã©e": 409,
  "ir": 410,
  "ĠM": 411,
  "urs": 412,
  "omm": 413,
  "ers": 414,
  "ouv": 415,
  "Ġje": 416,
  "ter": 417,
  "Ġsu": 418,
  "ie": 419,
  "se": 420,
  "Ġil": 421,
  "Ġtou": 422,
  "uropÃ©": 423,
  "Ġav": 424,
  "Je": 425,
  "Ġi": 426,
  "Il": 427,
  "Ġex": 428,
  "ĠeuropÃ©": 429,
  "ces": 430,
  "mb": 431,
  "ati": 432,
  "Ã©r": 433,
  "el": 434,
  "ques": 435,
  "Ġme": 436,
  "app": 437,
  "Ã¨s": 438,
  "ĠeuropÃ©en": 439,
  "Ġsont": 440,
  "ui": 441,
  "sid": 442,
  "ul": 443,
  "pe": 444,
  "ois": 445,
  "Ġac": 446,
  "am": 447,
  "Ġsi": 448,
  "Ġdev": 449,
  "Ġvous": 450,
  "ys": 451,
  "tions": 452,
  "Ġcomm": 453,
  "Ġcons": 454,
  "Ġave": 455,
  "Ġcette": 456,
  "eur": 457,
  "Ġpeu": 458,
  "tat": 459,
  "av": 460,
  "une": 461,
  "Ġcomp": 462,
  "Ġo": 463,
  "oir": 464,
  "and": 465,
  "ations": 466,
  "Ġh": 467,
  "tes": 468,
  "ence": 469,
  "ux": 470,
  "Ġmo": 471,
  "ĠprÃ©": 472,
  "Ã©es": 473,
  "mes": 474,
  "ance": 475,
  "Ġaux": 476,
  "ien": 477,
  "tr": 478,
  "ission": 479,
  "Ġcont": 480,
  "ten": 481,
  "et": 482,
  "Nous": 483,
  "Ġavec": 484,
  "ale": 485,
  "ue": 486,
  "fi": 487,
  "onn": 488,
  "aux": 489,
  "tique": 490,
  "La": 491,
  "Ġpa": 492,
  "ord": 493,
  "oit": 494,
  "ĠComm": 495,
  "Ġte": 496,
  "Ġmon": 497,
  "Ġsou": 498,
  "ĠÃª": 499,
  "Ġpoli": 500,
  "Ġces": 501,
  "Ġent": 502,
  "Ġont": 503,
  "Ġfait": 504,
  "Ġli": 505,
  "Ġrapp": 506,
  "Le": 507,
  "ure": 508,
  "Ġimp": 509,
  "elle": 510,
  "Ġgr": 511,
  "aut": 512,
  "Ġmais": 513,
  "ouve": 514,
  "Ġprop": 515,
  "ĠÃªtre": 516,
  "Ġser": 517,
  "age": 518,
  "Ġ-": 519,
  "Ãł": 520,
  "Ġan": 521,
  "oc": 522,
  "ussi": 523,
  "Ġparti": 524,
  "Ġpays": 525,
  "ge": 526,
  "sident": 527,
  "ad": 528,
  "Ġconc": 529,
  "lÃ¨": 530,
  "Ġtra": 531,
  "gi": 532,
  "Ġou": 533,
  "onc": 534,
  "iss": 535,
  "ĠCommission": 536,
  "otre": 537,
  "ments": 538,
  "Ġapp": 539,
  "ĠÃ©tÃ©": 540,
  "ĠeuropÃ©enne": 541,
  "vi": 542,
  "du": 543,
  "Les": 544,
  "cti": 545,
  "mi": 546,
  "Ġdis": 547,
  "onne": 548,
  "che": 549,
  "Ã´": 550,
  "aires": 551,
  "Ãªme": 552,
  "tats": 553,
  "pr": 554,
  "lÃ©": 555,
  "Ã©ri": 556,
  "Ġtout": 557,
  "ert": 558,
  "Ġres": 559,
  "Uni": 560,
  "Ġcomme": 561,
  "con": 562,
  "alement": 563,
  "Ã©t": 564,
  "able": 565,
  "rer": 566,
  "ors": 567,
  "ins": 568,
  "Ġy": 569,
  "oci": 570,
  "cu": 571,
  "Ġfaire": 572,
  "Ã©n": 573,
  "Union": 574,
  "for": 575,
  "Ġpu": 576,
  "aient": 577,
  "En": 578,
  "ĠPrÃ©": 579,
  "Ce": 580,
  "oy": 581,
  "ond": 582,
  "ts": 583,
  "ĠÃ©t": 584,
  "Ġ1": 585,
  "ĠÃ©g": 586,
  "Ġrapport": 587,
  "Ġvi": 588,
  "ĠÃī": 589,
  "Ġfin": 590,
  "sieur": 591,
  "ap": 592,
  "onsieur": 593,
  "ĠPrÃ©sident": 594,
  "Ġdire": 595,
  "Ġtrav": 596,
  "la": 597,
  "ise": 598,
  "Ġ2": 599,
  "ants": 600,
  "ouver": 601,
  "Ġpolitique": 602,
  "Ġques": 603,
  "ction": 604,
  "Ġentre": 605,
  "lles": 606,
  "Ġco": 607,
  "vent": 608,
  "ĠnÃ©": 609,
  "Ġbien": 610,
  "00": 611,
  "jour": 612,
  "ĠPar": 613,
  "Ġson": 614,
  "Ġper": 615,
  "eux": 616,
  "Ġaussi": 617,
  "Ġnouve": 618,
  "ĠdÃ©c": 619,
  "Ġmar": 620,
  "Ġpeut": 621,
  "conom": 622,
  "ique": 623,
  "Ġmes": 624,
  "its": 625,
  "titu": 626,
  "Et": 627,
  "aine": 628,
  "ĠtrÃ¨s": 629,
  "co": 630,
  "ĠB": 631,
  "Ġleur": 632,
  "ven": 633,
  "eil": 634,
  "ĠÃītats": 635,
  "bre": 636,
  "ĠS": 637,
  "ales": 638,
  "osi": 639,
  "Ġavons": 640,
  "orte": 641,
  "Ġeff": 642,
  "Ġvou": 643,
  "Ġmemb": 644,
  "ves": 645,
  "endre": 646,
  "Ġ?": 647,
  "ail": 648,
  "ĠParlement": 649,
  "ex": 650,
  "Ġes": 651,
  "ut": 652,
  "Ġprob": 653,
  "bli": 654,
  "ĠÃ©galement": 655,
  "ande": 656,
  "Ġpers": 657,
  "ĠmÃªme": 658,
  "Ġimport": 659,
  "ist": 660,
  "ĠrÃ©s": 661,
  "Ġaut": 662,
  "Ġnom": 663,
  "Europ": 664,
  "ler": 665,
  "Ġnotre": 666,
  "ĠdÃ©p": 667,
  "ense": 668,
  "Ġinter": 669,
  "Europe": 670,
  "mer": 671,
  "Ġter": 672,
  "Ã¨me": 673,
  "Ġdro": 674,
  "alis": 675,
  "Ġpos": 676,
  "olu": 677,
  "gn": 678,
  "ine": 679,
  "Ġam": 680,
  "ate": 681,
  "ard": 682,
  "Ġdiff": 683,
  "Ġtous": 684,
  "isi": 685,
  "Ġdeux": 686,
  "ĠA": 687,
  "Ġacc": 688,
  "ĠCons": 689,
  "enti": 690,
  "Ġman": 691,
  "Ġsa": 692,
  "Ġmembres": 693,
  "Ġdoit": 694,
  "jet": 695,
  "Ġal": 696,
  "ace": 697,
  "ilitÃ©": 698,
  "cess": 699,
  "Ã§": 700,
  "Ġquel": 701,
  "Ġins": 702,
  "ille": 703,
  "fin": 704,
  "Ġas": 705,
  "ot": 706,
  "Ġcert": 707,
  "par": 708,
  "ble": 709,
  "oup": 710,
  "Ġdem": 711,
  "ĠÃ©conom": 712,
  "ĠConseil": 713,
  "Ġsoci": 714,
  "Ġpouv": 715,
  "ĠproblÃ¨": 716,
  "ct": 717,
  "Ã©c": 718,
  "Ġcela": 719,
  "ures": 720,
  "ĠprÃ©s": 721,
  "Ã¨res": 722,
  "min": 723,
  "rait": 724,
  "cte": 725,
  "Ġquestion": 726,
  "Ġfor": 727,
  "ic": 728,
  "Ġtravail": 729,
  "ang": 730,
  "Ġad": 731,
  "tiques": 732,
  "Ġst": 733,
  "ains": 734,
  "Ġob": 735,
  "Ġ.": 736,
  "int": 737,
  "Ġar": 738,
  "use": 739,
  "Ġseu": 740,
  "tÃ©s": 741,
  "Ġdonc": 742,
  "ose": 743,
  "emp": 744,
  "met": 745,
  "vel": 746,
  "mps": 747,
  "Ġtrans": 748,
  "ture": 749,
  "Ġconcer": 750,
  "velop": 751,
  "ĠT": 752,
  "je": 753,
  "ante": 754,
  "Ġ,": 755,
  "alitÃ©": 756,
  "iv": 757,
  "Ġdevons": 758,
  "Ġat": 759,
  "Mais": 760,
  "Ġcommun": 761,
  "cÃ©": 762,
  "Ġpre": 763,
  "Ġcr": 764,
  "Ġma": 765,
  "Ġsuis": 766,
  "uti": 767,
  "ĠdÃ©velop": 768,
  "Ġses": 769,
  "tru": 770,
  "Ġprog": 771,
  "ĠdÃ©b": 772,
  "rais": 773,
  "Ġnos": 774,
  "Ġmil": 775,
  "ĠR": 776,
  "Ġexp": 777,
  "Ã©g": 778,
  "Ġjus": 779,
  "Ġproposi": 780,
  "ob": 781,
  "lu": 782,
  "tin": 783,
  "lis": 784,
  "ĠrÃ©p": 785,
  "Ġmarch": 786,
  "Ġfa": 787,
  "ente": 788,
  "Ã»": 789,
  "gie": 790,
  "Ġcl": 791,
  "core": 792,
  "Ġnombre": 793,
  "rai": 794,
  "Ġcar": 795,
  "ĠdÃ©m": 796,
  "eau": 797,
  "Ġni": 798,
  "Ġann": 799,
  "Ġcontre": 800,
  "fs": 801,
  "gu": 802,
  "jourd": 803,
  "Ġencore": 804,
  "ĠcrÃ©": 805,
  "hui": 806,
  "acc": 807,
  "ĠMonsieur": 808,
  "Ġcro": 809,
  "cip": 810,
  "ĠrÃ©gi": 811,
  "Ġti": 812,
  "Ġmonde": 813,
  "ommes": 814,
  "ents": 815,
  "Ġsans": 816,
  "Ã®": 817,
  "itu": 818,
  "um": 819,
  "Ġ\"": 820,
  "ĠintÃ©": 821,
  "cep": 822,
  "Ġelle": 823,
  "Ġprodu": 824,
  "Ġder": 825,
  "ser": 826,
  "Ġgouver": 827,
  "Ã©li": 828,
  "Ġvo": 829,
  "nement": 830,
  "ils": 831,
  "itÃ©s": 832,
  "Un": 833,
  "Ġlors": 834,
  "ises": 835,
  "aines": 836,
  "Ġdonn": 837,
  "Ġnon": 838,
  "Ã¹": 839,
  "Ġfond": 840,
  "ours": 841,
  "Ġmani": 842,
  "omme": 843,
  "Ġren": 844,
  "uer": 845,
  "ĠÂ": 846,
  "Ġrec": 847,
  "Ġvoud": 848,
  "oin": 849,
  "dÃ©": 850,
  "vre": 851,
  "ig": 852,
  "Ġleurs": 853,
  "enir": 854,
  "ud": 855,
  "olution": 856,
  "Ġderni": 857,
  "Ġpremi": 858,
  "Ġon": 859,
  "rÃ©s": 860,
  "Ã©qu": 861,
  "Ġpart": 862,
  "cation": 863,
  "ĠG": 864,
  "ables": 865,
  "Ġprin": 866,
  "Ġdit": 867,
  "Ġsoit": 868,
  "Ġdont": 869,
  "UE": 870,
  "lar": 871,
  "cher": 872,
  "Ġrep": 873,
  "ĠnÃ©cess": 874,
  "cer": 875,
  "eure": 876,
  "Ãªtre": 877,
  "ĠF": 878,
  "Ġai": 879,
  "Ġtemps": 880,
  "Ġtoute": 881,
  "ong": 882,
  "Ġpense": 883,
  "form": 884,
  "mble": 885,
  "ange": 886,
  "ner": 887,
  "endant": 888,
  "Ġmain": 889,
  "Ġvoudrais": 890,
  "iste": 891,
  "sie": 892,
  "oire": 893,
  "Ġparticu": 894,
  "Ġfaut": 895,
  "ĠdÃ©veloppe": 896,
  "Ġcompr": 897,
  "Ã©ration": 898,
  "ĠprÃ©sent": 899,
  "Ġrais": 900,
  "ĠL": 901,
  "Ġfinan": 902,
  "Pour": 903,
  "Ġcas": 904,
  "ver": 905,
  "pu": 906,
  "Ġimportant": 907,
  "Ġpubli": 908,
  "Ġparticuli": 909,
  "Ġab": 910,
  "Monsieur": 911,
  "out": 912,
  "Ġsitu": 913,
  "Ã¨g": 914,
  "imp": 915,
  "ĠoÃ¹": 916,
  "Ġpossi": 917,
  "ctive": 918,
  "Ġor": 919,
  "Ġrel": 920,
  "iter": 921,
  "Ġsys": 922,
  "Ġcontr": 923,
  "Ġ200": 924,
  "Ġdroits": 925,
  "Ġpri": 926,
  "ls": 927,
  "ĠÃ©tait": 928,
  "Ġpoint": 929,
  "insi": 930,
  "rib": 931,
  "Ġdoi": 932,
  "Ġcol": 933,
  "ĠdÃ©veloppement": 934,
  "Ġ(": 935,
  "Ġgrand": 936,
  "ocra": 937,
  "Ġ:": 938,
  "onnes": 939,
  "rÃª": 940,
  "Ġbeau": 941,
  "utilis": 942,
  "ĠgÃ©n": 943,
  "Ġsommes": 944,
  "itoy": 945,
  "ĠN": 946,
  "vir": 947,
  "prÃ¨s": 948,
  "coup": 949,
  "nes": 950,
  "autres": 951,
  "Ã¢": 952,
  "Ġaujourd": 953,
  "Ġdom": 954,
  "Ã´le": 955,
  "Ġils": 956,
  "ez": 957,
  "Ġmati": 958,
  "ende": 959,
  "ĠdiffÃ©r": 960,
  "Ġdoivent": 961,
  "Ġsav": 962,
  "ĠÃ©v": 963,
  "ĠrÃ¨g": 964,
  "Ġag": 965,
  "Ġcet": 966,
  "Ġfr": 967,
  "Ġmilli": 968,
  "ĠD": 969,
  "Ġconf": 970,
  "Ġsyst": 971,
  "ram": 972,
  "Ã©cur": 973,
  "rit": 974,
  "Ġfois": 975,
  "Ġmin": 976,
  "tement": 977,
  "abilitÃ©": 978,
  "ĠdÃ©bat": 979,
  "des": 980,
  "elles": 981,
  "jecti": 982,
  "ĠproblÃ¨me": 983,
  "nation": 984,
  "olo": 985,
  "sse": 986,
  "Ã©curitÃ©": 987,
  "ĠE": 988,
  "Ġsituation": 989,
  "der": 990,
  "Ġbas": 991,
  "Ġproposition": 992,
  "quoi": 993,
  "Ġbeaucoup": 994,
  "jÃł": 995,
  "Ġconsid": 996,
  "anti": 997,
  "Ġvrai": 998,
  "anis": 999,
  "ĠdÃ©jÃł": 1000,
  "Ġposi": 1001,
  "Ġmal": 1002,
  "ĠÃ©conomique": 1003,
  "ĠmarchÃ©": 1004,
  "Ġdisp": 1005,
  "ences": 1006,
  "quer": 1007,
  "Ġcitoy": 1008,
  "Ġpolitiques": 1009,
  "ĠmaniÃ¨re": 1010,
  "ĠÃ©le": 1011,
  "ĠsÃ©curitÃ©": 1012,
  "Ġca": 1013,
  "Ã©ra": 1014,
  "Ġop": 1015,
  "Ġess": 1016,
  "Ġmet": 1017,
  "Ġmont": 1018,
  "Ġaccord": 1019,
  "Ġpe": 1020,
  "Ġnation": 1021,
  "ĠÃ©c": 1022,
  "Ġfinanci": 1023,
  "Ġactu": 1024,
  "Ġbes": 1025,
  "oute": 1026,
  "ĠdÃ©mocra": 1027,
  "Ġsera": 1028,
  "im": 1029,
  "Ġmoins": 1030,
  "Ġpermet": 1031,
  "Ġprogram": 1032,
  "ass": 1033,
  "iti": 1034,
  "Si": 1035,
  "ision": 1036,
  "sions": 1037,
  "Dans": 1038,
  "Elle": 1039,
  "Ġcap": 1040,
  "Ġainsi": 1041,
  "Ġavant": 1042,
  "Ġmen": 1043,
  "Ġass": 1044,
  "Ġaff": 1045,
  "Ġjour": 1046,
  "Ġnive": 1047,
  "Ġlib": 1048,
  "Ġchose": 1049,
  "ĠlÃ©g": 1050,
  "Ġaur": 1051,
  "issaire": 1052,
  "Ã©di": 1053,
  "aiss": 1054,
  "Ġinternation": 1055,
  "oupe": 1056,
  "udg": 1057,
  "Ã¨rement": 1058,
  "Ġbudg": 1059,
  "Ġpersonnes": 1060,
  "ĠCh": 1061,
  "em": 1062,
  "Ġlui": 1063,
  "ative": 1064,
  "Ġdemand": 1065,
  "Ġvie": 1066,
  "Ġtrai": 1067,
  "sieurs": 1068,
  "pons": 1069,
  "Ġmesures": 1070,
  "Ġgouvernement": 1071,
  "fois": 1072,
  "jours": 1073,
  "ateurs": 1074,
  "Ġ19": 1075,
  "Ġconstitu": 1076,
  "Ġpropos": 1077,
  "Ġparce": 1078,
  "Ġtoujours": 1079,
  "ĠI": 1080,
  "ici": 1081,
  "isse": 1082,
  "ali": 1083,
  "Ġgar": 1084,
  "Ġsouti": 1085,
  "ela": 1086,
  "puis": 1087,
  "Ġmoi": 1088,
  "Ġcitoyens": 1089,
  "Ġcha": 1090,
  "Ġvotre": 1091,
  "Ġconcern": 1092,
  "Ġavoir": 1093,
  "Ġmainten": 1094,
  "onnement": 1095,
  "pÃ©": 1096,
  "ĠdÃ©f": 1097,
  "ĠmatiÃ¨re": 1098,
  "Ġmondi": 1099,
  "bles": 1100,
  "Ġauc": 1101,
  "ili": 1102,
  "ĠnÃ©g": 1103,
  "Ġfer": 1104,
  "Ġans": 1105,
  "Qu": 1106,
  "Ġautres": 1107,
  "Ġsouh": 1108,
  "ellement": 1109,
  "hÃ©": 1110,
  "ada": 1111,
  "Ġgroupe": 1112,
  "atique": 1113,
  "dre": 1114,
  "erci": 1115,
  "agit": 1116,
  "Ġtoutes": 1117,
  "Ġrespons": 1118,
  "Ġautre": 1119,
  "Ġlong": 1120,
  "Ġsimp": 1121,
  "dui": 1122,
  "tant": 1123,
  "Ġtant": 1124,
  "Ġcent": 1125,
  "ĠlÃł": 1126,
  "ĠannÃ©es": 1127,
  "Ġexemp": 1128,
  "Ġatt": 1129,
  "adre": 1130,
  "bilitÃ©": 1131,
  "ĠsystÃ¨me": 1132,
  "vers": 1133,
  "lons": 1134,
  "ront": 1135,
  "Ġgrande": 1136,
  "Ġprof": 1137,
  "mis": 1138,
  "ĠJ": 1139,
  "Au": 1140,
  "ĠreprÃ©s": 1141,
  "aille": 1142,
  "uses": 1143,
  "Ġconn": 1144,
  "Ġbesoin": 1145,
  "cÃ©d": 1146,
  "ĠÃ§": 1147,
  "Ġdroit": 1148,
  "Cela": 1149,
  "Ġmoy": 1150,
  "iÃ¨me": 1151,
  "Vous": 1152,
  "Ġici": 1153,
  "accord": 1154,
  "Ġniveau": 1155,
  "Ġplu": 1156,
  "ĠÃ§a": 1157,
  "mbl": 1158,
  "ĠconsÃ©qu": 1159,
  "Ġcontin": 1160,
  "cul": 1161,
  "Ġpouvoir": 1162,
  "Ġtrois": 1163,
  "Ġpourquoi": 1164,
  "intÃ©": 1165,
  "Cette": 1166,
  "exp": 1167,
  "amment": 1168,
  "ph": 1169,
  "Ġentrepr": 1170,
  "Ġemp": 1171,
  "ĠK": 1172,
  "ctions": 1173,
  "adame": 1174,
  "ganis": 1175,
  "Ġsecte": 1176,
  "Ġrespe": 1177,
  "Ġprincip": 1178,
  "Ġinc": 1179,
  "ĠÂ«": 1180,
  "esp": 1181,
  "Ġobjecti": 1182,
  "Unis": 1183,
  "Ġ--": 1184,
  "tionne": 1185,
  "Ġvis": 1186,
  "ĠproblÃ¨mes": 1187,
  "Ġquestions": 1188,
  "Ġeffet": 1189,
  "isl": 1190,
  "Ġrest": 1191,
  "Ġseulement": 1192,
  "Par": 1193,
  "Ġpass": 1194,
  "Ġpartie": 1195,
  "Ġsoi": 1196,
  "Ã©v": 1197,
  "Ġfem": 1198,
  "orts": 1199,
  "Ġcommission": 1200,
  "iques": 1201,
  "Ġsujet": 1202,
  "oris": 1203,
  "Ġsous": 1204,
  "Ġcertains": 1205,
  "Ġconcerne": 1206,
  "ĠH": 1207,
  "Ġprojet": 1208,
  "Ġpeuvent": 1209,
  "Ã§on": 1210,
  "Ġutilis": 1211,
  "Ġservi": 1212,
  "Ġcompte": 1213,
  "Ġraison": 1214,
  "enne": 1215,
  "Ġpeti": 1216,
  "Ġtech": 1217,
  "Ġpersonne": 1218,
  "ĠrÃ©f": 1219,
  "ĠrÃ©gion": 1220,
  "Ġcoop": 1221,
  "Ġcor": 1222,
  "ances": 1223,
  "Ã´t": 1224,
  "Ġvoi": 1225,
  "ĠcollÃ¨": 1226,
  "vironnement": 1227,
  "Ġdevrait": 1228,
  "nent": 1229,
  "Ġafin": 1230,
  "entes": 1231,
  "Ils": 1232,
  "De": 1233,
  "og": 1234,
  "tri": 1235,
  "issance": 1236,
  "ions": 1237,
  "merci": 1238,
  "On": 1239,
  "Ġremerci": 1240,
  "Åĵ": 1241,
  "Ġva": 1242,
  "els": 1243,
  "Ġcadre": 1244,
  "ĠEurope": 1245,
  "oli": 1246,
  "tiv": 1247,
  "Ġdepuis": 1248,
  "st": 1249,
  "Ġexemple": 1250,
  "aÃ®": 1251,
  "Ġplan": 1252,
  "Ġcontrib": 1253,
  "oritÃ©": 1254,
  "Ġvoir": 1255,
  "ĠâĢ": 1256,
  "Ġmettre": 1257,
  "Ġinstitu": 1258,
  "Ġpouvons": 1259,
  "Ġceux": 1260,
  "ov": 1261,
  "ĠMes": 1262,
  "raient": 1263,
  "Ġprendre": 1264,
  "Ġadop": 1265,
  "ature": 1266,
  "ari": 1267,
  "oses": 1268,
  "dam": 1269,
  "Ġnouveau": 1270,
  "sui": 1271,
  "Ġfonc": 1272,
  "Ġdemande": 1273,
  "Ġserait": 1274,
  "Ġquelques": 1275,
  "Ġpens": 1276,
  "ĠrÃ©sul": 1277,
  "ion": 1278,
  "opul": 1279,
  "omp": 1280,
  "dus": 1281,
  "Ġalors": 1282,
  "Ġgens": 1283,
  "gÃ©": 1284,
  "ÃĢ": 1285,
  "Ġsub": 1286,
  "tention": 1287,
  "Ġvue": 1288,
  "Ġpourrait": 1289,
  "tenir": 1290,
  "Ġdirective": 1291,
  "Ġdisc": 1292,
  "ĠdÃ©s": 1293,
  "Ġchange": 1294,
  "Ġquand": 1295,
  "Ġph": 1296,
  "Ġvraiment": 1297,
  "Ġchoses": 1298,
  "Ġim": 1299,
  "Une": 1300,
  "ratÃ©": 1301,
  "Ġdur": 1302,
  "Ġvers": 1303,
  "Ġmaintenant": 1304,
  "rent": 1305,
  "Ġdomaine": 1306,
  "ĠprÃ©sident": 1307,
  "avant": 1308,
  "Ã©tÃ©": 1309,
  "Ġcrise": 1310,
  "Ġpopul": 1311,
  "Ã©ric": 1312,
  "cle": 1313,
  "vez": 1314,
  "Ġcours": 1315,
  "ĠlÃ©gisl": 1316,
  "Ġ3": 1317,
  "Ġgaranti": 1318,
  "gues": 1319,
  "ĠstratÃ©": 1320,
  "ages": 1321,
  "ĠaprÃ¨s": 1322,
  "Ġappr": 1323,
  "Ġavait": 1324,
  "Ġpossible": 1325,
  "cessus": 1326,
  "pendant": 1327,
  "Ġmeille": 1328,
  "Ġjou": 1329,
  "Ġenf": 1330,
  "Ġnouvelle": 1331,
  "Ġquelque": 1332,
  "endu": 1333,
  "Ġprocessus": 1334,
  "gr": 1335,
  "Ġsupp": 1336,
  "Ġamende": 1337,
  "Ġbi": 1338,
  "Ġprogramme": 1339,
  "Ġtrop": 1340,
  "Ġindi": 1341,
  "Ġprote": 1342,
  "gment": 1343,
  "Ġconsomm": 1344,
  "Ġbon": 1345,
  "lent": 1346,
  "Ġhum": 1347,
  "ies": 1348,
  "teurs": 1349,
  "duire": 1350,
  "Ġsein": 1351,
  "ĠcoopÃ©ration": 1352,
  "Ġress": 1353,
  "ger": 1354,
  "Ġsavoir": 1355,
  "Ġcri": 1356,
  "Ġeu": 1357,
  "ĠfaÃ§on": 1358,
  "ĠsÃ»": 1359,
  "vesti": 1360,
  "Ġris": 1361,
  "Ġpres": 1362,
  "gne": 1363,
  "ĠnÃ©goci": 1364,
  "vous": 1365,
  "Ġcour": 1366,
  "agne": 1367,
  "amais": 1368,
  "Ġprotection": 1369,
  "mment": 1370,
  "ouvent": 1371,
  "ĠeuropÃ©ens": 1372,
  "dent": 1373,
  "oritÃ©s": 1374,
  "Ġsecteur": 1375,
  "vÃ©": 1376,
  "Ġessenti": 1377,
  "Ġlu": 1378,
  "Ġlieu": 1379,
  "airement": 1380,
  "vention": 1381,
  "tie": 1382,
  "qui": 1383,
  "Ġreg": 1384,
  "Ġcomment": 1385,
  "usement": 1386,
  "ay": 1387,
  "ĠrÃ´le": 1388,
  "Ġjamais": 1389,
  "Ãī": 1390,
  "Ġcondi": 1391,
  "loi": 1392,
  "ĠrÃ©alis": 1393,
  "Ġrapporte": 1394,
  "homme": 1395,
  "Ġ20": 1396,
  "Ġplace": 1397,
  "Ġju": 1398,
  "Ġnu": 1399,
  "Ġmesure": 1400,
  "Ġconcernant": 1401,
  "Ġfi": 1402,
  "Ġeng": 1403,
  "Ġ%": 1404,
  "quelle": 1405,
  "Ã©tait": 1406,
  "tÃ©e": 1407,
  "ager": 1408,
  "Ġlaquelle": 1409,
  "heure": 1410,
  "antes": 1411,
  "Ġsoutien": 1412,
  "vis": 1413,
  "Ġbase": 1414,
  "rieur": 1415,
  "Ġrenfor": 1416,
  "ĠpremiÃ¨re": 1417,
  "ament": 1418,
  "llement": 1419,
  "per": 1420,
  "Ġsens": 1421,
  "gent": 1422,
  "xte": 1423,
  "Ġavez": 1424,
  "Ġentreprises": 1425,
  "ĠprÃ©v": 1426,
  "antÃ©": 1427,
  "fic": 1428,
  "entre": 1429,
  "atives": 1430,
  "Ġcroissance": 1431,
  "ĠrÃ©g": 1432,
  "Ġeffic": 1433,
  "Ġmi": 1434,
  "Ġpublic": 1435,
  "dustri": 1436,
  "Ġrap": 1437,
  "oins": 1438,
  "orer": 1439,
  "ide": 1440,
  "Ġfais": 1441,
  "Ġbonne": 1442,
  "Ã©ment": 1443,
  "Ġmoment": 1444,
  "enu": 1445,
  "Ġesp": 1446,
  "air": 1447,
  "rÃ©e": 1448,
  "ĠV": 1449,
  "anc": 1450,
  "ĠdÃ©clar": 1451,
  "ĠâĢĵ": 1452,
  "Ġfemmes": 1453,
  "ches": 1454,
  "Ġbudget": 1455,
  "Ġprom": 1456,
  "ĠreprÃ©sent": 1457,
  "ĠrÃ©solution": 1458,
  "ĠprÃ©c": 1459,
  "uri": 1460,
  "Ġcel": 1461,
  "cture": 1462,
  "Ġrecher": 1463,
  "port": 1464,
  "Ces": 1465,
  "sidence": 1466,
  "ĠÃ©tr": 1467,
  "Ã©rence": 1468,
  "ĠsantÃ©": 1469,
  "ann": 1470,
  "omb": 1471,
  "Ġcommen": 1472,
  "Ãªte": 1473,
  "Ġid": 1474,
  "ĠÂ»": 1475,
  "Ġposition": 1476,
  "Ġarri": 1477,
  "Ġfondament": 1478,
  "aite": 1479,
  "Ġpris": 1480,
  "gique": 1481,
  "Ġrem": 1482,
  "Ġnot": 1483,
  "Ġform": 1484,
  "Ġveu": 1485,
  "veur": 1486,
  "lon": 1487,
  "Ġnature": 1488,
  "Ġvol": 1489,
  "quÃ©": 1490,
  "Ġcrois": 1491,
  "Ġmillions": 1492,
  "atis": 1493,
  "Ġreconn": 1494,
  "Ġparticulier": 1495,
  "ĠprocÃ©d": 1496,
  "asse": 1497,
  "Ġreste": 1498,
  "pÃ©ci": 1499,
  "rÃªt": 1500,
  "ĠrÃ©pons": 1501,
  "ĠspÃ©ci": 1502,
  "ĠnÃ©cessaire": 1503,
  "Ġpuis": 1504,
  "Ġelles": 1505,
  "auv": 1506,
  "Ġorganis": 1507,
  "ites": 1508,
  "Ġcul": 1509,
  "Ġterme": 1510,
  "ĠMme": 1511,
  "Ġfaveur": 1512,
  "ĠrÃ©for": 1513,
  "ĠrÃ¨glement": 1514,
  "ress": 1515,
  "Ġprix": 1516,
  "action": 1517,
  "Ġrien": 1518,
  "Ã©conom": 1519,
  "Ġchaque": 1520,
  "acitÃ©": 1521,
  "nements": 1522,
  "Ġpai": 1523,
  "ablement": 1524,
  "fier": 1525,
  "Ġsouli": 1526,
  "ĠO": 1527,
  "autre": 1528,
  "eff": 1529,
  "venir": 1530,
  "ca": 1531,
  "mblÃ©e": 1532,
  "Ġoc": 1533,
  "rions": 1534,
  "Ġproch": 1535,
  "Ġmaj": 1536,
  "orter": 1537,
  "lÃ©ment": 1538,
  "gni": 1539,
  "Ġpropositions": 1540,
  "Ġaccep": 1541,
  "ĠChine": 1542,
  "Ġfonction": 1543,
  "Ġsoient": 1544,
  "Ġvote": 1545,
  "att": 1546,
  "Ġrapide": 1547,
  "ailleurs": 1548,
  "Ġ5": 1549,
  "Ġrapporteur": 1550,
  "ĠcollÃ¨gues": 1551,
  "ĠgÃ©nÃ©r": 1552,
  "inter": 1553,
  "ats": 1554,
  "Ġsuiv": 1555,
  "Ġservices": 1556,
  "Ã©rer": 1557,
  "Ġterr": 1558,
  "ĠresponsabilitÃ©": 1559,
  "tive": 1560,
  "Ġjuste": 1561,
  "moi": 1562,
  "Ġsouhait": 1563,
  "Ġ!": 1564,
  "fication": 1565,
  "Ġz": 1566,
  "Ġmois": 1567,
  "Ġunique": 1568,
  "Ġinf": 1569,
  "man": 1570,
  "ĠdÃ©pu": 1571,
  "ĠÃ©vi": 1572,
  "Ġnouvelles": 1573,
  "ĠamÃ©ric": 1574,
  "ĠtraitÃ©": 1575,
  "Ġenfants": 1576,
  "Ġpremier": 1577,
  "Ġsuff": 1578,
  "ources": 1579,
  "Ġsigni": 1580,
  "Ġnombreux": 1581,
  "ĠCommissaire": 1582,
  "ĠvÃ©r": 1583,
  "Ã©nÃ©": 1584,
  "ĠsÃ»r": 1585,
  "Ġmis": 1586,
  "Ġviol": 1587,
  "ole": 1588,
  "id": 1589,
  "ĠdÃ©fin": 1590,
  "ateur": 1591,
  "Ġtu": 1592,
  "jou": 1593,
  "ĠcoÃ»": 1594,
  "Ġproduits": 1595,
  "ĠsÃ©ri": 1596,
  "act": 1597,
  "Åĵu": 1598,
  "Ġ199": 1599,
  "ĠmÃ©di": 1600,
  "one": 1601,
  "Ġmise": 1602,
  "ran": 1603,
  "lex": 1604,
  "Ġsemble": 1605,
  "Ġoff": 1606,
  "adi": 1607,
  "ression": 1608,
  "Ġamendements": 1609,
  "Ġdonner": 1610,
  "quel": 1611,
  "Ġjusqu": 1612,
  "ĠdÃ©cision": 1613,
  "Ġnotamment": 1614,
  "mbre": 1615,
  "nolo": 1616,
  "abord": 1617,
  "ing": 1618,
  "Ġcommune": 1619,
  "Ġaucun": 1620,
  "Ġsouvent": 1621,
  "Ġobjectifs": 1622,
  "vestisse": 1623,
  "Ġabs": 1624,
  "ĠMadame": 1625,
  "tif": 1626,
  "cipe": 1627,
  "Ġsal": 1628,
  "orm": 1629,
  "Ã©taire": 1630,
  "sez": 1631,
  "hÃ©sion": 1632,
  "uridi": 1633,
  "Ġagri": 1634,
  "teur": 1635,
  "Ġjuridi": 1636,
  "Ġplusieurs": 1637,
  "ode": 1638,
  "Ġfut": 1639,
  "Ġliber": 1640,
  "ĠÃ©ch": 1641,
  "Ã©ner": 1642,
  "Ġcommunaut": 1643,
  "lab": 1644,
  "avenir": 1645,
  "tent": 1646,
  "Ġtot": 1647,
  "ĠcontrÃ´le": 1648,
  "ĠparticuliÃ¨rement": 1649,
  "Ġmieux": 1650,
  "espÃ¨re": 1651,
  "Ġgra": 1652,
  "ssemblÃ©e": 1653,
  "Ġ4": 1654,
  "Ġcomb": 1655,
  "rons": 1656,
  "Ġsui": 1657,
  "avantage": 1658,
  "Ġvale": 1659,
  "ill": 1660,
  "roche": 1661,
  "Ġparler": 1662,
  "Ġcli": 1663,
  "ĠrÃ©c": 1664,
  "anger": 1665,
  "tra": 1666,
  "Ġpoin": 1667,
  "aide": 1668,
  "Ġconditions": 1669,
  "Ġcelui": 1670,
  "arti": 1671,
  "Ã©nÃ©fi": 1672,
  "ĠstratÃ©gie": 1673,
  "Ġstru": 1674,
  "itaire": 1675,
  "Ã©nergie": 1676,
  "ussie": 1677,
  "occu": 1678,
  "Ġcelle": 1679,
  "Ġnouveaux": 1680,
  "Ġinstitutions": 1681,
  "Ġcommissaire": 1682,
  "oration": 1683,
  "ĠbÃ©nÃ©fi": 1684,
  "Ġdou": 1685,
  "ĠrÃ©du": 1686,
  "ĠpossibilitÃ©": 1687,
  "Ġseront": 1688,
  "Ġparticip": 1689,
  "Ġtechnolo": 1690,
  "Ġprincipe": 1691,
  "Ġinform": 1692,
  "ĠamÃ©li": 1693,
  "tim": 1694,
  "uerre": 1695,
  "ĠrÃ¨gles": 1696,
  "ĠrÃ©ponse": 1697,
  "appli": 1698,
  "cour": 1699,
  "ĠdÃ©mocratie": 1700,
  "Ġfour": 1701,
  "alisation": 1702,
  "ues": 1703,
  "ĠsociÃ©tÃ©": 1704,
  "Ġsoulign": 1705,
  "ier": 1706,
  "ĠÃ©ner": 1707,
  "Ġsign": 1708,
  "ĠsÃ©": 1709,
  "Ġappli": 1710,
  "Ġref": 1711,
  "Ġatte": 1712,
  "ĠdÃ©ci": 1713,
  "Ġfonds": 1714,
  "ĠfÃ©li": 1715,
  "Ġri": 1716,
  "Ġense": 1717,
  "ĠprÃ©sidence": 1718,
  "Ġcontribu": 1719,
  "rÃ¨s": 1720,
  "Ã©d": 1721,
  "Ġtrouver": 1722,
  "yp": 1723,
  "Ġaugment": 1724,
  "Al": 1725,
  "Ġpeux": 1726,
  "Ã©conomie": 1727,
  "autÃ©": 1728,
  "Ġrecherche": 1729,
  "Ġsociale": 1730,
  "Ġclairement": 1731,
  "ĠÃ©tu": 1732,
  "Ġbr": 1733,
  "aise": 1734,
  "Ġdavantage": 1735,
  "Ġvoy": 1736,
  "Ġdiffici": 1737,
  "urer": 1738,
  "Ġiniti": 1739,
  "ĠÃ©qu": 1740,
  "Ãªche": 1741,
  "Ġselon": 1742,
  "Ġjusti": 1743,
  "gration": 1744,
  "fri": 1745,
  "Ġparten": 1746,
  "Ġlim": 1747,
  "ordre": 1748,
  "ĠtÃ©": 1749,
  "Ġsem": 1750,
  "import": 1751,
  "ĠdÃ©cisi": 1752,
  "isme": 1753,
  "Ġsolution": 1754,
  "ordin": 1755,
  "environnement": 1756,
  "Ġpoints": 1757,
  "Ġveux": 1758,
  "Ġimportante": 1759,
  "ĠnÃ©gociations": 1760,
  "ĠJe": 1761,
  "Ġmondiale": 1762,
  "cont": 1763,
  "Ġret": 1764,
  "osition": 1765,
  "ĠrÃ©pond": 1766,
  "Comme": 1767,
  "Ġpendant": 1768,
  "ĠqualitÃ©": 1769,
  "ĠcompÃ©": 1770,
  "era": 1771,
  "Ġtour": 1772,
  "ouvez": 1773,
  "vient": 1774,
  "utÃ´t": 1775,
  "ĠpÃ©ri": 1776,
  "Ġefficace": 1777,
  "Ġdernier": 1778,
  "ĠderniÃ¨re": 1779,
  "nÃ©": 1780,
  "Ġaucune": 1781,
  "urr": 1782,
  "ĠÃ©conomiques": 1783,
  "Åĵuvre": 1784,
  "ĠcÃ´": 1785,
  "atiques": 1786,
  "unes": 1787,
  "Ġfav": 1788,
  "ctu": 1789,
  "Ġcan": 1790,
  "Ġeux": 1791,
  "Ġmoyen": 1792,
  "ĠRussie": 1793,
  "inform": 1794,
  "Ġtaux": 1795,
  "Ġculture": 1796,
  "Ã¯": 1797,
  "ient": 1798,
  "Ġali": 1799,
  "Ġdifficile": 1800,
  "ĠPrÃ©sidente": 1801,
  "istoire": 1802,
  "Ġfac": 1803,
  "aur": 1804,
  "issent": 1805,
  "ĠdÃ©putÃ©s": 1806,
  "suite": 1807,
  "Ġcertaines": 1808,
  "gence": 1809,
  "Ġple": 1810,
  "Ġlar": 1811,
  "Ġremercier": 1812,
  "ĠÃ©taient": 1813,
  "issement": 1814,
  "ĠplutÃ´t": 1815,
  "Ġpriv": 1816,
  "ĠdÃ¨s": 1817,
  "Ã¨ne": 1818,
  "Ġcertaine": 1819,
  "Ġsuc": 1820,
  "Ġsimplement": 1821,
  "Ãªmes": 1822,
  "rim": 1823,
  "raph": 1824,
  "Ġche": 1825,
  "Ġlorsque": 1826,
  "oser": 1827,
  "Ġguerre": 1828,
  "tÃ©ri": 1829,
  "Ġvoulons": 1830,
  "Ġparlement": 1831,
  "llem": 1832,
  "cÃ¨s": 1833,
  "Ġpopulation": 1834,
  "Ġressources": 1835,
  "Ġsci": 1836,
  "ĠeuropÃ©ennes": 1837,
  "grÃ©": 1838,
  "all": 1839,
  "erre": 1840,
  "istre": 1841,
  "emploi": 1842,
  "Ġcapit": 1843,
  "Tout": 1844,
  "fique": 1845,
  "ĠW": 1846,
  "isation": 1847,
  "Ġmodi": 1848,
  "indre": 1849,
  "dames": 1850,
  "Ġinternationale": 1851,
  "mÃªme": 1852,
  "Ġface": 1853,
  "Ġefforts": 1854,
  "Ã©ch": 1855,
  "ĠpassÃ©": 1856,
  "ĠMessieurs": 1857,
  "az": 1858,
  "ossi": 1859,
  "Ġchar": 1860,
  "nous": 1861,
  "Ġfont": 1862,
  "Ġcher": 1863,
  "Ġrespect": 1864,
  "Ġno": 1865,
  "Ġsorte": 1866,
  "lir": 1867,
  "Ġcommerci": 1868,
  "Ġremar": 1869,
  "Ġpropre": 1870,
  "Ã©rÃ©": 1871,
  "Ġpi": 1872,
  "aud": 1873,
  "blig": 1874,
  "Ġimpli": 1875,
  "ards": 1876,
  "matique": 1877,
  "ĠdonnÃ©": 1878,
  "Ġenti": 1879,
  "lo": 1880,
  "Ġseule": 1881,
  "are": 1882,
  "ĠÃ©trang": 1883,
  "ĠrÃ©un": 1884,
  "ĠcrÃ©er": 1885,
  "Ġpaix": 1886,
  "Ġconstru": 1887,
  "ĠlÃ©gislation": 1888,
  "lus": 1889,
  "Ġappel": 1890,
  "atif": 1891,
  "ĠrÃ©gions": 1892,
  "Toute": 1893,
  "ĠvotÃ©": 1894,
  "ĠmarchÃ©s": 1895,
  "ĠlibertÃ©": 1896,
  "cident": 1897,
  "Ġrelations": 1898,
  "Ġconsommateurs": 1899,
  "quie": 1900,
  "illes": 1901,
  "clÃ©": 1902,
  "itable": 1903,
  "Ġvu": 1904,
  "Ġlutte": 1905,
  "ĠÃ©crit": 1906,
  "ras": 1907,
  "Ġquoi": 1908,
  "temps": 1909,
  "time": 1910,
  "ĠdÃ©t": 1911,
  "Donc": 1912,
  "arm": 1913,
  "Ġchangement": 1914,
  "Ġdevraient": 1915,
  "Ġdiri": 1916,
  "ĠannÃ©e": 1917,
  "Ġfai": 1918,
  "Ġconfi": 1919,
  "Ġdiffic": 1920,
  "tout": 1921,
  "Ġextr": 1922,
  "oupes": 1923,
  "Ġforme": 1924,
  "ĠpÃªche": 1925,
  "Ġconclu": 1926,
  "Ã¨te": 1927,
  "Ġir": 1928,
  "ĠrÃ©alitÃ©": 1929,
  "Ġconcurr": 1930,
  "Ġmod": 1931,
  "ĠconsÃ©quent": 1932,
  "ancement": 1933,
  "Ġfam": 1934,
  "oph": 1935,
  "..": 1936,
  "Ġpouvez": 1937,
  "tis": 1938,
  "gue": 1939,
  "ĠdiffÃ©rents": 1940,
  "Ġexiste": 1941,
  "ensemble": 1942,
  "Ġoutre": 1943,
  "Ġdemander": 1944,
  "fie": 1945,
  "Ġsoutenir": 1946,
  "aÃ®t": 1947,
  "ĠrÃ©sultats": 1948,
  "Ġvoie": 1949,
  "ĠprÃ©occu": 1950,
  "Ġlarge": 1951,
  "Ãītat": 1952,
  "vement": 1953,
  "argent": 1954,
  "Ġtermes": 1955,
  "avoir": 1956,
  "Ġtelle": 1957,
  "ĠprogrÃ¨s": 1958,
  "ĠÅĵuvre": 1959,
  "ĠdÃ©pens": 1960,
  "cole": 1961,
  "Ġcertain": 1962,
  "Ġentendu": 1963,
  "Ġsuffis": 1964,
  "Des": 1965,
  "ĠnuclÃ©": 1966,
  "rÃªts": 1967,
  "aritÃ©": 1968,
  "ĠprÃ©cis": 1969,
  "amin": 1970,
  "Ġvolont": 1971,
  "ĠdonnÃ©es": 1972,
  "Ġeffe": 1973,
  "ĠautoritÃ©s": 1974,
  "Ġcir": 1975,
  "Ġvais": 1976,
  "Ġdoute": 1977,
  "Ġcin": 1978,
  "Ġtoutefois": 1979,
  "Ġactuellement": 1980,
  "tifs": 1981,
  "Ġseul": 1982,
  "Ġconstitue": 1983,
  "Ġconnaiss": 1984,
  "ĠprocÃ©dure": 1985,
  "Ġsy": 1986,
  "Ġban": 1987,
  "estion": 1988,
  "rale": 1989,
  "000": 1990,
  "larg": 1991,
  "Â»": 1992,
  "nique": 1993,
  "mette": 1994,
  "Ġjuridique": 1995,
  "eng": 1996,
  "Ġsoli": 1997,
  "Ġgl": 1998,
  "Ġtranspar": 1999,
  "Ġgarantir": 2000,
  "ĠmÃ©": 2001,
  "Ġrepr": 2002,
  "Ġnombreuses": 2003,
  "aff": 2004,
  "ret": 2005,
  "Ġretr": 2006,
  "Ġpeup": 2007,
  "Ġsurtout": 2008,
  "Ġait": 2009,
  "tivitÃ©": 2010,
  "Ġqua": 2011,
  "casion": 2012,
  "onti": 2013,
  "Ġsais": 2014,
  "Ġactuelle": 2015,
  "amende": 2016,
  "alu": 2017,
  "ses": 2018,
  "Ġraisons": 2019,
  "Ġrapidement": 2020,
  "Ġsc": 2021,
  "Ġterroris": 2022,
  "ĠdeuxiÃ¨me": 2023,
  "ĠderniÃ¨res": 2024,
  "dustrie": 2025,
  "rir": 2026,
  "Ġcommunautaire": 2027,
  "Ġdevrions": 2028,
  "tres": 2029,
  "Ġtent": 2030,
  "Ġci": 2031,
  "Ġgouvernements": 2032,
  "Ġstructure": 2033,
  "Ġveut": 2034,
  "Ã©rique": 2035,
  "Ġsus": 2036,
  "ĠTur": 2037,
  "Ġexpli": 2038,
  "Ġrisque": 2039,
  "erce": 2040,
  "\".": 2041,
  "Ġaspe": 2042,
  "Ġproduction": 2043,
  "ĠnÃ©cessitÃ©": 2044,
  "Ġheure": 2045,
  "erve": 2046,
  "rodu": 2047,
  "Ġdoc": 2048,
  "Ġvois": 2049,
  "ormes": 2050,
  "Ġensemble": 2051,
  "Que": 2052,
  "gies": 2053,
  "Ġtravers": 2054,
  "Ġlibre": 2055,
  "ĠÃ©tab": 2056,
  "ĠprotÃ©": 2057,
  "Ã¨mes": 2058,
  "Ġtiens": 2059,
  "Ġpublique": 2060,
  "Ġpreu": 2061,
  "part": 2062,
  "lais": 2063,
  "endance": 2064,
  "Ġver": 2065,
  "Ġassez": 2066,
  "ĠrÃ©glement": 2067,
  "art": 2068,
  "Ġreven": 2069,
  "Ġconfl": 2070,
  "atisf": 2071,
  "ĠEtats": 2072,
  "ĠsÃ©rie": 2073,
  "Ġmoyens": 2074,
  "inc": 2075,
  "Ġremp": 2076,
  "ĠAssemblÃ©e": 2077,
  "ĠpÃ©riode": 2078,
  "Ġclair": 2079,
  "termin": 2080,
  "Ġcontinuer": 2081,
  "Ġaliment": 2082,
  "Ġchi": 2083,
  "Ġenvironnement": 2084,
  "tÃ©r": 2085,
  "cteurs": 2086,
  "Madame": 2087,
  "ctives": 2088,
  "Ġplupart": 2089,
  "ĠMesdames": 2090,
  "ĠextrÃªme": 2091,
  "Ġ6": 2092,
  "ĠfinanciÃ¨re": 2093,
  "Ġvoit": 2094,
  "ĠmajoritÃ©": 2095,
  "issant": 2096,
  "Ġlequel": 2097,
  "ru": 2098,
  "istes": 2099,
  "lÃł": 2100,
  "annÃ©e": 2101,
  "ĠnÃ©cessaires": 2102,
  "heureusement": 2103,
  "Ġconv": 2104,
  "ĠprÃª": 2105,
  "aÃ®tre": 2106,
  "Toutefois": 2107,
  "Ġport": 2108,
  "nie": 2109,
  "Ġjeunes": 2110,
  "Ġimm": 2111,
  "ĠdÃ©cisions": 2112,
  "Ġsouhaite": 2113,
  "Ġaurait": 2114,
  "Ġcause": 2115,
  "In": 2116,
  "Ġaille": 2117,
  "agement": 2118,
  "Ġencour": 2119,
  "Ġtrouve": 2120,
  "Enfin": 2121,
  "ĠrÃ©v": 2122,
  "Ġvisant": 2123,
  "itaires": 2124,
  "Ġtravailleurs": 2125,
  "Ġinstru": 2126,
  "Ġaura": 2127,
  "Ġ;": 2128,
  "ĠcrÃ©ation": 2129,
  "Ġlesque": 2130,
  "endra": 2131,
  "Ġrev": 2132,
  "ĠÃ©gard": 2133,
  "cts": 2134,
  "Alors": 2135,
  "Ġcependant": 2136,
  "Ġcomprom": 2137,
  "avons": 2138,
  "fiques": 2139,
  "Ġty": 2140,
  "Ġten": 2141,
  "Ġporte": 2142,
  "Ġgen": 2143,
  "Ġconcurrence": 2144,
  "Ġsatisf": 2145,
  "Ġcompris": 2146,
  "table": 2147,
  "importance": 2148,
  "Ġobjectif": 2149,
  "Ġavis": 2150,
  "ilÃł": 2151,
  "Ġremercie": 2152,
  "Ġtrouv": 2153,
  "Ġint": 2154,
  "Ġinvestisse": 2155,
  "Ġtrain": 2156,
  "ĠgÃ©nÃ©ral": 2157,
  "Ġgestion": 2158,
  "ends": 2159,
  "Bien": 2160,
  "tÃ©es": 2161,
  "Ġconfiance": 2162,
  "cel": 2163,
  "Ġdomaines": 2164,
  "Ġpoursui": 2165,
  "ĠmÃ©t": 2166,
  "ĠstabilitÃ©": 2167,
  "Ġpermettre": 2168,
  "Ġani": 2169,
  "chÃ©": 2170,
  "Ġgroupes": 2171,
  "information": 2172,
  "Ġrendre": 2173,
  "oque": 2174,
  "ĠindÃ©": 2175,
  "Ġconte": 2176,
  "intÃ©rÃªt": 2177,
  "Ġailleurs": 2178,
  "Ġcomprendre": 2179,
  "Am": 2180,
  "Ġoblig": 2181,
  "ĠtÃ©lÃ©": 2182,
  "ĠdiffÃ©rentes": 2183,
  "ĠTurquie": 2184,
  "Ġanim": 2185,
  "ĠGr": 2186,
  "ĠbÃ©nÃ©fici": 2187,
  "Ġsouten": 2188,
  "mettez": 2189,
  "Ġprogrammes": 2190,
  "Ġrenforcer": 2191,
  "Ġmembre": 2192,
  "iles": 2193,
  "ollar": 2194,
  "ĠintÃ©ress": 2195,
  "Ġfran": 2196,
  "Ġfort": 2197,
  "rak": 2198,
  "Ã¢ce": 2199,
  "land": 2200,
  "Ġinternational": 2201,
  "Ġconsci": 2202,
  "Ġvos": 2203,
  "Ġloc": 2204,
  "ĠdÃ©mocratique": 2205,
  "ĠintÃ©rÃªts": 2206,
  "ensi": 2207,
  "Ġcoup": 2208,
  "Ġglob": 2209,
  "Ġtexte": 2210,
  "Ġ7": 2211,
  "inf": 2212,
  "ogue": 2213,
  "Ġrespec": 2214,
  "Ġdollar": 2215,
  "Ã©cu": 2216,
  "demment": 2217,
  "Ġaller": 2218,
  "rimer": 2219,
  "Ġlais": 2220,
  "ĠdÃ©termin": 2221,
  "Ġsavez": 2222,
  "ivers": 2223,
  "amendement": 2224,
  "Ġcommerce": 2225,
  "Ġforte": 2226,
  "Ġpratique": 2227,
  "Ġdestin": 2228,
  "frique": 2229,
  "Ġtype": 2230,
  "ctement": 2231,
  "Ġexist": 2232,
  "erts": 2233,
  "ĠintÃ©rieur": 2234,
  "isc": 2235,
  "Ġmauv": 2236,
  "ommet": 2237,
  "ĠrÃ©forme": 2238,
  "Ġsignifie": 2239,
  "Ġconvain": 2240,
  "Ġrencont": 2241,
  "Ġmeilleure": 2242,
  "ĠmodÃ¨": 2243,
  "ĠextrÃªmement": 2244,
  "Ġessentiel": 2245,
  "ĠconsÃ©quences": 2246,
  "ĠEt": 2247,
  "Ġexig": 2248,
  "Ġrappel": 2249,
  "ĠÃ©tant": 2250,
  "Ã¨rent": 2251,
  "titude": 2252,
  "ennent": 2253,
  "Ġessay": 2254,
  "Ġrou": 2255,
  "Ġprojets": 2256,
  "EN": 2257,
  "osÃ©": 2258,
  "Ġsuite": 2259,
  "largissement": 2260,
  "ĠÃ©nergÃ©": 2261,
  "ĠprÃ©occup": 2262,
  "ĠrÃ©ussi": 2263,
  "lÃ©g": 2264,
  "Ġaffaires": 2265,
  "Ġsavons": 2266,
  "Ġprofes": 2267,
  "Ġfronti": 2268,
  "Ġempl": 2269,
  "ĠrÃ©duire": 2270,
  "Ġloin": 2271,
  "Ġouv": 2272,
  "eures": 2273,
  "amÃ©li": 2274,
  "Ġtel": 2275,
  "Ġfinancement": 2276,
  "ĠrÃ©pondre": 2277,
  "remi": 2278,
  "alogue": 2279,
  "Ġ10": 2280,
  "ĠcontrÃ´": 2281,
  "Ġta": 2282,
  "ĠfÃ©lic": 2283,
  "adop": 2284,
  "Ġsouligner": 2285,
  "ĠgÃ©nÃ©ra": 2286,
  "Ġpasser": 2287,
  "Cependant": 2288,
  "Ġmilliards": 2289,
  "Ġtransport": 2290,
  "rez": 2291,
  "Ġapproche": 2292,
  "ines": 2293,
  "arder": 2294,
  "Ġeur": 2295,
  "oires": 2296,
  "Ġpasse": 2297,
  "ĠÃītat": 2298,
  "ĠLe": 2299,
  "Ġlongtemps": 2300,
  "prit": 2301,
  "industrie": 2302,
  "Ġdevant": 2303,
  "Ġautant": 2304,
  "ĠdÃ©but": 2305,
  "Ġdisposi": 2306,
  "Ġdocu": 2307,
  "quent": 2308,
  "Ġall": 2309,
  "Ġdirige": 2310,
  "Ġcompromis": 2311,
  "ĠLa": 2312,
  "objecti": 2313,
  "lande": 2314,
  "olutions": 2315,
  "Ġrecomm": 2316,
  "Ġfix": 2317,
  "Ġjours": 2318,
  "Ġperspe": 2319,
  "ancer": 2320,
  "auc": 2321,
  "Ġtravailler": 2322,
  "tir": 2323,
  "Ġentra": 2324,
  "ĠÃ©p": 2325,
  "ak": 2326,
  "ĠcÃ´tÃ©": 2327,
  "moins": 2328,
  "Ġpau": 2329,
  "Ġ8": 2330,
  "ĠprÃ¨s": 2331,
  "Ġcommunic": 2332,
  "ister": 2333,
  "Ġzone": 2334,
  "Ġfavor": 2335,
  "Est": 2336,
  "Ġdois": 2337,
  "apon": 2338,
  "ĠcompÃ©ti": 2339,
  "bonne": 2340,
  "Ġuti": 2341,
  "ĠÃ©lections": 2342,
  "Ġmort": 2343,
  "isbonne": 2344,
  "dis": 2345,
  "usse": 2346,
  "ĠÃªtes": 2347,
  "ĠrÃ©gime": 2348,
  ".\"": 2349,
  "ign": 2350,
  "ension": 2351,
  "Ġfra": 2352,
  "Ġdiscu": 2353,
  "ĠconsidÃ©ra": 2354,
  "Ġpauvre": 2355,
  "arde": 2356,
  "Ġaccomp": 2357,
  "Ġmul": 2358,
  "istan": 2359,
  "DE": 2360,
  "Ã©tu": 2361,
  "Ġjustice": 2362,
  "Ã©p": 2363,
  "Ġdivers": 2364,
  "ĠLisbonne": 2365,
  "Ġdifficul": 2366,
  "Ġaide": 2367,
  "Ġhab": 2368,
  "Ġsau": 2369,
  "ĠFr": 2370,
  "ĠrÃ©sultat": 2371,
  "iser": 2372,
  "Ã©galitÃ©": 2373,
  "Ġ201": 2374,
  "ade": 2375,
  "niques": 2376,
  "Ġdialogue": 2377,
  "culture": 2378,
  "ĠreÃ§": 2379,
  "Ġtransp": 2380,
  "Ġlorsqu": 2381,
  "Ġopp": 2382,
  "ĠlibÃ©r": 2383,
  "iennent": 2384,
  "Ġgrandes": 2385,
  "Ġsimple": 2386,
  "ĠdÃ©ch": 2387,
  "Ġhommes": 2388,
  "omment": 2389,
  "mettre": 2390,
  "Ġlang": 2391,
  "Ġabord": 2392,
  "hi": 2393,
  "Ġcontexte": 2394,
  "Ã¨ce": 2395,
  "vant": 2396,
  "Ġpreuve": 2397,
  "Ġvoter": 2398,
  "Ġscienti": 2399,
  "Ġrend": 2400,
  "Deux": 2401,
  "ĠvolontÃ©": 2402,
  "Ġgenre": 2403,
  "accep": 2404,
  "Ġvicti": 2405,
  "oix": 2406,
  "Ġvont": 2407,
  "Ġdurable": 2408,
  "Ġinformations": 2409,
  "Ġamb": 2410,
  "Ġquatre": 2411,
  "Ġvenir": 2412,
  "Ġattention": 2413,
  "nov": 2414,
  "aces": 2415,
  "ĠIl": 2416,
  "Ġsenti": 2417,
  "Ġactions": 2418,
  "ĠreprÃ©sente": 2419,
  "lure": 2420,
  "Ġtitre": 2421,
  "atri": 2422,
  "Ġpropres": 2423,
  "Ġproduit": 2424,
  "article": 2425,
  "Ġpourraient": 2426,
  "Ġsol": 2427,
  "Ġquant": 2428,
  "ĠsuccÃ¨s": 2429,
  "ĠsystÃ¨mes": 2430,
  "ĠÃ©tudi": 2431,
  "Ġpuisse": 2432,
  "ĠsupplÃ©ment": 2433,
  "ug": 2434,
  "anmoins": 2435,
  "Ġcommencer": 2436,
  "Ġfisc": 2437,
  "ercice": 2438,
  "Ã«": 2439,
  "ĠdÃ»": 2440,
  "Ġministre": 2441,
  "Ġprincipes": 2442,
  "Ġactiv": 2443,
  "Ã©gi": 2444,
  "Ġnationaux": 2445,
  "Ġsecon": 2446,
  "onde": 2447,
  "ducation": 2448,
  "Ã©le": 2449,
  "Ġappar": 2450,
  "cite": 2451,
  "ĠdemandÃ©": 2452,
  "Ġnormes": 2453,
  "Tu": 2454,
  "Ġchez": 2455,
  "Ġparties": 2456,
  "Ġconvient": 2457,
  "Ġsocial": 2458,
  "Ġexc": 2459,
  "Ġ9": 2460,
  "Ġsommet": 2461,
  "idÃ©e": 2462,
  "objectif": 2463,
  "ĠrÃ©sou": 2464,
  "Ġmanque": 2465,
  "ĠbudgÃ©taire": 2466,
  "nÃ©e": 2467,
  "atifs": 2468,
  "Ġcinq": 2469,
  "ss": 2470,
  "ĠrÃ©se": 2471,
  "ĠsiÃ¨": 2472,
  "Ġfinanciers": 2473,
  "Ġaccords": 2474,
  "Ġsolid": 2475,
  "Ġinst": 2476,
  "Ġcat": 2477,
  "did": 2478,
  "Ġjouer": 2479,
  "Ġimportants": 2480,
  "ĠmÃ©c": 2481,
  "Ġcelles": 2482,
  "Ġsep": 2483,
  "Ġforce": 2484,
  "Ġcandid": 2485,
  "Ġ000": 2486,
  "ĠcommunautÃ©": 2487,
  "adhÃ©sion": 2488,
  "Ġtransf": 2489,
  "ĠgrÃ¢ce": 2490,
  "sra": 2491,
  "Mal": 2492,
  "Ġtard": 2493,
  "Ġur": 2494,
  "Ġbl": 2495,
  "alesti": 2496,
  "Ġgrands": 2497,
  "Ġdonne": 2498,
  "Ġaider": 2499,
  "Ġindustri": 2500,
  "Ġfaci": 2501,
  "utilisation": 2502,
  "Ġmaladi": 2503,
  "Ġmanif": 2504,
  "Ġtransparence": 2505,
  "lin": 2506,
  "Ġpol": 2507,
  "ore": 2508,
  "application": 2509,
  "Ã©largissement": 2510,
  "Ġimportance": 2511,
  "viron": 2512,
  "onds": 2513,
  "Ġvaleurs": 2514,
  "cev": 2515,
  "ĠrÃ©ellement": 2516,
  "Ġay": 2517,
  "Ġconcep": 2518,
  "Ġtrait": 2519,
  "voy": 2520,
  "Ġcontraire": 2521,
  "Ã«l": 2522,
  "uit": 2523,
  "ĠprÃ©f": 2524,
  "Ġfaud": 2525,
  "aimer": 2526,
  "ĠÃ©n": 2527,
  "cessi": 2528,
  "ienne": 2529,
  "tons": 2530,
  "Ġreli": 2531,
  "Ġceci": 2532,
  "Ġcal": 2533,
  "Ġprochaine": 2534,
  "lÃ©ments": 2535,
  "Ġrelative": 2536,
  "ĠCon": 2537,
  "ĠprÃ©cÃ©d": 2538,
  "inois": 2539,
  "ĠrÃ©jou": 2540,
  "Ġtelles": 2541,
  "olument": 2542,
  "Ġtels": 2543,
  "ĠmÃ©th": 2544,
  "mÃ©": 2545,
  "Ġcommunication": 2546,
  "Ġinv": 2547,
  "objet": 2548,
  "ha": 2549,
  "Ġmention": 2550,
  "Lors": 2551,
  "Ġcrit": 2552,
  "aluation": 2553,
  "yer": 2554,
  "Ġchoix": 2555,
  "tenti": 2556,
  "ĠvÃ©ritable": 2557,
  "laboration": 2558,
  "Ġvient": 2559,
  "ach": 2560,
  "ĠdÃ©si": 2561,
  "ĠdÃ©claration": 2562,
  "arri": 2563,
  "ĠcapacitÃ©": 2564,
  "Ġnationales": 2565,
  "opp": 2566,
  "ĠdÃ©tail": 2567,
  "Ġvaleur": 2568,
  "Ġpetit": 2569,
  "Ġveil": 2570,
  "Ġobser": 2571,
  "Ġpleine": 2572,
  "Ġcertainement": 2573,
  "ctri": 2574,
  "Ne": 2575,
  "Ġprov": 2576,
  "histoire": 2577,
  "Ġrapports": 2578,
  "oni": 2579,
  "Ġensuite": 2580,
  "ĠrÃ©soudre": 2581,
  "agn": 2582,
  "Ġpartis": 2583,
  "ĠdÃ©penses": 2584,
  "Or": 2585,
  "ĠactivitÃ©s": 2586,
  "Comment": 2587,
  "Mon": 2588,
  "aimerais": 2589,
  "Ġyeux": 2590,
  "ges": 2591,
  "giques": 2592,
  "ĠNations": 2593,
  "Ġquelle": 2594,
  "Ã©rience": 2595,
  "ĠpauvretÃ©": 2596,
  "Ġprise": 2597,
  "Ġparle": 2598,
  "Ã©rons": 2599,
  "ement": 2600,
  "Ġcontribuer": 2601,
  "ĠCour": 2602,
  "ussions": 2603,
  "Ġchac": 2604,
  "llemagne": 2605,
  "ones": 2606,
  "Ġsor": 2607,
  "Ġmontre": 2608,
  "ĠrÃ©formes": 2609,
  "Ġbou": 2610,
  "opri": 2611,
  "Ġsemaine": 2612,
  "be": 2613,
  "prÃ©": 2614,
  "Ġtiers": 2615,
  "ĠidÃ©e": 2616,
  "Ġbure": 2617,
  "Ġchois": 2618,
  "tionnel": 2619,
  "ĠtÃ¢": 2620,
  "Ġmondial": 2621,
  "ĠcomplÃ¨": 2622,
  "ĠfinanciÃ¨res": 2623,
  "Ġmer": 2624,
  "Ġdemain": 2625,
  "Ġdispos": 2626,
  "ĠfrontiÃ¨res": 2627,
  "Notre": 2628,
  "euros": 2629,
  "gueur": 2630,
  "aie": 2631,
  "Ġterrorisme": 2632,
  "Ġsouff": 2633,
  "ĠnuclÃ©aire": 2634,
  "Ġsan": 2635,
  "vÃ©s": 2636,
  "ritan": 2637,
  "Ġaspects": 2638,
  "Ġconst": 2639,
  "Ġcontra": 2640,
  "Ġreconnaiss": 2641,
  "Ġformul": 2642,
  "ĠÃ©nergÃ©tique": 2643,
  "tation": 2644,
  "ĠmodÃ¨le": 2645,
  "Ġlo": 2646,
  "agri": 2647,
  "Ġven": 2648,
  "ĠprÃ©par": 2649,
  "Ġhaut": 2650,
  "Ġheures": 2651,
  "Ġterrit": 2652,
  "Ġ15": 2653,
  "han": 2654,
  "Ġconcent": 2655,
  "titution": 2656,
  "ition": 2657,
  "Ġconfront": 2658,
  "Ġmontrer": 2659,
  "Ġsociaux": 2660,
  "Ġdispositions": 2661,
  "Cert": 2662,
  "Ġpotenti": 2663,
  "lisse": 2664,
  "Ġvictimes": 2665,
  "appr": 2666,
  "effic": 2667,
  "Ġrecommand": 2668,
  "Ġfinancier": 2669,
  "Ġdix": 2670,
  "Pourquoi": 2671,
  "Ġuniquement": 2672,
  "Ġtenir": 2673,
  "Ġpartage": 2674,
  "Quand": 2675,
  "ograph": 2676,
  "Ã©tro": 2677,
  "Ġmor": 2678,
  "Ã©m": 2679,
  "trui": 2680,
  "Ġviolence": 2681,
  "ĠchÃ´": 2682,
  "oilÃł": 2683,
  "Ġrisques": 2684,
  "Ġfourni": 2685,
  "Ġbut": 2686,
  "Ġth": 2687,
  "Ġdist": 2688,
  "Ġimportantes": 2689,
  "Ġorient": 2690,
  "Ġdollars": 2691,
  "vÃ©e": 2692,
  "Ġpartir": 2693,
  "20": 2694,
  "Ġjeu": 2695,
  "ĠÃ©quili": 2696,
  "Ġparvenir": 2697,
  "Ã§ons": 2698,
  "Ġhau": 2699,
  "Ġmu": 2700,
  "Ġprot": 2701,
  "ĠprÃ©sente": 2702,
  "Ġadmin": 2703,
  "Ġtotalement": 2704,
  "ĠrÃ©duction": 2705,
  "ctures": 2706,
  "Ã©tÃ©s": 2707,
  "Ġcamp": 2708,
  "ĠprotÃ©ger": 2709,
  "cemment": 2710,
  "Ġclimatique": 2711,
  "ĠsolidaritÃ©": 2712,
  "Ġconstat": 2713,
  "ormais": 2714,
  "Ã©ducation": 2715,
  "Ã©tais": 2716,
  "Ġattend": 2717,
  "ĠAm": 2718,
  "ĠIn": 2719,
  "ĠadoptÃ©": 2720,
  "ds": 2721,
  "Ġaccepter": 2722,
  "ess": 2723,
  "ĠpÃ©tro": 2724,
  "eurs": 2725,
  "igine": 2726,
  "intÃ©gration": 2727,
  "Ġfondamentaux": 2728,
  "Ġmeilleur": 2729,
  "Ġstat": 2730,
  "Aujourd": 2731,
  "Ġenvis": 2732,
  "iÃ¨mement": 2733,
  "Ġexamin": 2734,
  "Elles": 2735,
  "Ġpresque": 2736,
  "ĠcollÃ¨gue": 2737,
  "Ġsembl": 2738,
  "sraÃ«l": 2739,
  "ĠFrance": 2740,
  "amen": 2741,
  "Ġvoul": 2742,
  "Ġabsolument": 2743,
  "ption": 2744,
  "Ġparmi": 2745,
  "Ġchers": 2746,
  "Ġcru": 2747,
  "vec": 2748,
  "ennes": 2749,
  "ĠgÃ©": 2750,
  "AmÃ©rique": 2751,
  "Ġloi": 2752,
  "tives": 2753,
  "ori": 2754,
  "tration": 2755,
  "ĠfÃ©liciter": 2756,
  "Ġferme": 2757,
  "ĠcommencÃ©": 2758,
  "Ġprobablement": 2759,
  "inion": 2760,
  "Ġparf": 2761,
  "Ġsec": 2762,
  "Ġrester": 2763,
  "ĠdÃ©fense": 2764,
  "Ġcentrale": 2765,
  "Ġradi": 2766,
  "Ġdevenir": 2767,
  "Ġdirection": 2768,
  "agriculture": 2769,
  "Ġallons": 2770,
  "alestini": 2771,
  "Ġnational": 2772,
  "ĠÃ©lÃ©ments": 2773,
  "Ġdirigeants": 2774,
  "Ġmulti": 2775,
  "Ġavaient": 2776,
  "ĠentraÃ®": 2777,
  "Ġmoder": 2778,
  "ĠcoÃ»ts": 2779,
  "Ġpermis": 2780,
  "ets": 2781,
  "ĠdÃ©velopper": 2782,
  "Ġgros": 2783,
  "ventions": 2784,
  "loit": 2785,
  "Ã¨de": 2786,
  "Ġaction": 2787,
  "Ġpeuple": 2788,
  "Ġsp": 2789,
  "armon": 2790,
  "VoilÃł": 2791,
  "Ġprises": 2792,
  "ĠMar": 2793,
  "ribu": 2794,
  "Ġcorre": 2795,
  "dici": 2796,
  "Ġexcel": 2797,
  "Ġhist": 2798,
  "ĠFonds": 2799,
  "ĠdÃ©sormais": 2800,
  "Ġcomplex": 2801,
  "Ġpeine": 2802,
  "Ġsix": 2803,
  "Ġapporter": 2804,
  "Ġeuro": 2805,
  "dire": 2806,
  "uis": 2807,
  "Ġconsul": 2808,
  "ĠamÃ©liorer": 2809,
  "quÃ©e": 2810,
  "Ġassurer": 2811,
  "ĠÃ©videmment": 2812,
  "ĠprioritÃ©": 2813,
  "Ġpetites": 2814,
  "occasion": 2815,
  "Ġfemme": 2816,
  "Ġanti": 2817,
  "Ġtradi": 2818,
  "Ġfl": 2819,
  "Ġcentr": 2820,
  "Ġsubst": 2821,
  "rÃ©ci": 2822,
  "ĠY": 2823,
  "tÃ©rieur": 2824,
  "Ġservice": 2825,
  "Ġinqui": 2826,
  "Ġenfin": 2827,
  "Ġresponsables": 2828,
  "rÃ©es": 2829,
  "Ġchanger": 2830,
  "Ġconseil": 2831,
  "inst": 2832,
  "Ġindivi": 2833,
  "ariat": 2834,
  "astr": 2835,
  "resser": 2836,
  "iez": 2837,
  "fiÃ©": 2838,
  "Ġveulent": 2839,
  "Ġnationale": 2840,
  "Ġformation": 2841,
  "Ġbritan": 2842,
  "Ġretour": 2843,
  "ĠfranÃ§": 2844,
  "ĠdifficultÃ©s": 2845,
  "Ġcomporte": 2846,
  "initi": 2847,
  "dic": 2848,
  "coles": 2849,
  "Ġvisi": 2850,
  "Ã©taires": 2851,
  "ĠcrÃ©d": 2852,
  "Ġcou": 2853,
  "Ã©tique": 2854,
  "ĠrÃ©cemment": 2855,
  "ĠBar": 2856,
  "alistes": 2857,
  "ĠimmÃ©di": 2858,
  "Ġfil": 2859,
  "rimin": 2860,
  "ĠmonÃ©taire": 2861,
  "Ġchangements": 2862,
  "oncer": 2863,
  "accÃ¨s": 2864,
  "Ġcer": 2865,
  "ĠmÃ©canis": 2866,
  "euro": 2867,
  "Ġtenu": 2868,
  "Ġexprim": 2869,
  "lac": 2870,
  "ĠNous": 2871,
  "Ãªcher": 2872,
  "missions": 2873,
  "pens": 2874,
  "Ġdispar": 2875,
  "Ġconflit": 2876,
  "Ġaffir": 2877,
  "uelle": 2878,
  "Ġappelle": 2879,
  "ctivement": 2880,
  "Ġfu": 2881,
  "Ġdevoir": 2882,
  "esprit": 2883,
  "organis": 2884,
  "auvres": 2885,
  "Ġriches": 2886,
  "Ġpauvres": 2887,
  "ĠcritÃ¨res": 2888,
  "Ġappropri": 2889,
  "sique": 2890,
  "Ġtermin": 2891,
  "Ġbanques": 2892,
  "Ġprofession": 2893,
  "aliste": 2894,
  "Ġsait": 2895,
  "ĠprÃ©senter": 2896,
  "ĠdÃ©g": 2897,
  "cri": 2898,
  "Ġtechnologie": 2899,
  "ĠdÃ©cidÃ©": 2900,
  "mage": 2901,
  "Ġerre": 2902,
  "avi": 2903,
  "agir": 2904,
  "pl": 2905,
  "Ġparfois": 2906,
  "elon": 2907,
  "ĠJapon": 2908,
  "Ġsensi": 2909,
  "Ġchiff": 2910,
  "portun": 2911,
  "jus": 2912,
  "ĠmÃªmes": 2913,
  "Ġrespecter": 2914,
  "ĠÃ©vo": 2915,
  "Ġrefus": 2916,
  "Ġanimaux": 2917,
  "Ġappro": 2918,
  "origine": 2919,
  "ĠprioritÃ©s": 2920,
  "ĠlÃ©gi": 2921,
  "cement": 2922,
  "ĠÃ©viter": 2923,
  "Ã©pu": 2924,
  "lez": 2925,
  "Ġunivers": 2926,
  "Ġutiliser": 2927,
  "Ġchinois": 2928,
  "Ġanal": 2929,
  "ock": 2930,
  "istance": 2931,
  "ouvoir": 2932,
  "Ġchacun": 2933,
  "Ġpourra": 2934,
  "alisme": 2935,
  "ĠchÃ´mage": 2936,
  "astroph": 2937,
  "attention": 2938,
  "Ġexac": 2939,
  "Ġmess": 2940,
  "AprÃ¨s": 2941,
  "reux": 2942,
  "Ġunies": 2943,
  "dro": 2944,
  "ttes": 2945,
  "Ġciv": 2946,
  "mÃªmes": 2947,
  "Ceci": 2948,
  "Ġchance": 2949,
  "Ġpropose": 2950,
  "ĠSch": 2951,
  "Ainsi": 2952,
  "Ġpor": 2953,
  "ton": 2954,
  "ĠcompÃ©t": 2955,
  "Ġcolle": 2956,
  "od": 2957,
  "efficacitÃ©": 2958,
  "Ġtomb": 2959,
  "Ġcatastroph": 2960,
  "avais": 2961,
  "Ġcondam": 2962,
  "onner": 2963,
  "Ġforces": 2964,
  "resse": 2965,
  "avis": 2966,
  "Ġorganisations": 2967,
  "augment": 2968,
  "ĠsociÃ©tÃ©s": 2969,
  "iner": 2970,
  "Ġpenser": 2971,
  "Ġagricole": 2972,
  "ĠtroisiÃ¨me": 2973,
  "Ġrappeler": 2974,
  "Ġlaiss": 2975,
  "Ġatta": 2976,
  "Ġajou": 2977,
  "Ġenviron": 2978,
  "Ġobten": 2979,
  "Ġsour": 2980,
  "net": 2981,
  "Ġlivre": 2982,
  "Ġcontinu": 2983,
  "Ġtraitement": 2984,
  "Ġsouhaiter": 2985,
  "ĠdÃ©fi": 2986,
  "Ġdimin": 2987,
  "ĠcohÃ©sion": 2988,
  "DeuxiÃ¨mement": 2989,
  "ĠrÃ©ser": 2990,
  "Ġvoix": 2991,
  "Ġinvestissements": 2992,
  "abs": 2993,
  "aÃ¯": 2994,
  "ox": 2995,
  "Ġdange": 2996,
  "tel": 2997,
  "uropÃ©ens": 2998,
  "Ġconser": 2999,
  "ĠprocÃ©dures": 3000,
  "Ġsug": 3001,
  "Ġtax": 3002,
  "lant": 3003,
  "Ġpartenaires": 3004,
  "Afrique": 3005,
  "Ġminist": 3006,
  "tenant": 3007,
  "oite": 3008,
  "Ġgaz": 3009,
  "Ġ30": 3010,
  "Ġpression": 3011,
  "ani": 3012,
  "Ġligne": 3013,
  "ĠthÃ©": 3014,
  "Ġreje": 3015,
  "Ġexercice": 3016,
  "investisse": 3017,
  "Ġpromouvoir": 3018,
  "ĠÃ©vÃ©": 3019,
  "ĠprÃ©cisÃ©ment": 3020,
  "ec": 3021,
  "ĠCommun": 3022,
  "Ġsuivre": 3023,
  "ĠrÃ©union": 3024,
  "ĠpÃ©n": 3025,
  "chi": 3026,
  "uel": 3027,
  "Ġmilitaire": 3028,
  "ib": 3029,
  "Ġouver": 3030,
  "tirer": 3031,
  "Quel": 3032,
  "estime": 3033,
  "tient": 3034,
  "Ġquelqu": 3035,
  "citÃ©": 3036,
  "ĠSud": 3037,
  "ĠNord": 3038,
  "Ġconvainc": 3039,
  "Ġparven": 3040,
  "tionnelle": 3041,
  "Ġjudici": 3042,
  "Ġpublics": 3043,
  "hÃ©r": 3044,
  "Ġindis": 3045,
  "ussion": 3046,
  "ĠÃ©conomies": 3047,
  "Ġlut": 3048,
  "aisse": 3049,
  "ĠBan": 3050,
  "Ġveiller": 3051,
  "urent": 3052,
  "Ġpourtant": 3053,
  "Ġvigueur": 3054,
  "ĠTrai": 3055,
  "sÃ©": 3056,
  "leur": 3057,
  "ĠconfÃ©rence": 3058,
  "immi": 3059,
  "ĠdÃ©l": 3060,
  "oyau": 3061,
  "adoption": 3062,
  "Ġoubli": 3063,
  "Ġbesoins": 3064,
  "Ġfourn": 3065,
  "Ġsolutions": 3066,
  "Ġprend": 3067,
  "ĠamÃ©ricaine": 3068,
  "Ġestim": 3069,
  "Ġparticipation": 3070,
  "cons": 3071,
  "miÃ¨re": 3072,
  "ĠrÃ©fÃ©rence": 3073,
  "ub": 3074,
  "ĠÃ©conomie": 3075,
  "rou": 3076,
  "Ġis": 3077,
  "ris": 3078,
  "ĠÃ©levÃ©": 3079,
  "ueil": 3080,
  "Ġdiscussion": 3081,
  "Ġmouve": 3082,
  "Ġpren": 3083,
  "Ġquali": 3084,
  "truire": 3085,
  "lissement": 3086,
  "rlande": 3087,
  "Ġavanc": 3088,
  "Ġsecteurs": 3089,
  "ieu": 3090,
  "orique": 3091,
  "agraph": 3092,
  "yn": 3093,
  "Ġdocument": 3094,
  "quÃ©s": 3095,
  "Ġsurve": 3096,
  "Ġderniers": 3097,
  "ĠprÃ©sentÃ©": 3098,
  "ĠgÃ©nÃ©rale": 3099,
  "th": 3100,
  "Ġmot": 3101,
  "Ġconcr": 3102,
  "tine": 3103,
  "pend": 3104,
  "Ġamendement": 3105,
  "Ġparole": 3106,
  "Ġmaison": 3107,
  "Ã©quili": 3108,
  "ĠconsÃ©quence": 3109,
  "Ġcontribution": 3110,
  "Ġheureux": 3111,
  "Ġ25": 3112,
  "entrepr": 3113,
  "Ġsignal": 3114,
  "Ġprofessionne": 3115,
  "Ġjourn": 3116,
  "agÃ©": 3117,
  "Ġdiscrimin": 3118,
  "ah": 3119,
  "Ġparagraph": 3120,
  "Ġfaites": 3121,
  "Ġlaisser": 3122,
  "Ġstatut": 3123,
  "gan": 3124,
  "aisi": 3125,
  "Ġdevra": 3126,
  "Ġsociales": 3127,
  "cent": 3128,
  "Ġeffets": 3129,
  "Ġzones": 3130,
  "Ġpati": 3131,
  "ĠdÃ©li": 3132,
  "Ġ2000": 3133,
  "Ġpoursuivre": 3134,
  "Ġmand": 3135,
  "Ġconsac": 3136,
  "Ġcontinue": 3137,
  "Ġpetite": 3138,
  "Ġoccu": 3139,
  "Ġdossi": 3140,
  "Ġvit": 3141,
  "rier": 3142,
  "Ġrac": 3143,
  "duite": 3144,
  "forme": 3145,
  "Ġdiscussions": 3146,
  "Ġcondu": 3147,
  "Ġminu": 3148,
  "Ġsuffisamment": 3149,
  "Ġsuper": 3150,
  "Ġhomme": 3151,
  "ĠdÃ©clarÃ©": 3152,
  "Ġoccident": 3153,
  "Ġcircul": 3154,
  "vitÃ©": 3155,
  "Ġnour": 3156,
  "lusion": 3157,
  "orie": 3158,
  "atoire": 3159,
  "Ã©rations": 3160,
  "Ġclim": 3161,
  "ĠdÃ©fis": 3162,
  "initiative": 3163,
  "ĠidÃ©es": 3164,
  "ĠaÃ©ri": 3165,
  "ĠproposÃ©": 3166,
  "MÃªme": 3167,
  "lÃ¨ve": 3168,
  "Ġcoordin": 3169,
  "novation": 3170,
  "dence": 3171,
  "hab": 3172,
  "rient": 3173,
  "Per": 3174,
  "tern": 3175,
  "lÃ©e": 3176,
  "aujourd": 3177,
  "Ġconfir": 3178,
  "ĠsÃ©rieux": 3179,
  "Ġtechnologies": 3180,
  "ĠamÃ©lior": 3181,
  "Ġrelatives": 3182,
  "Ġsoule": 3183,
  "Ã©gard": 3184,
  "ĠUnion": 3185,
  "ĠpossibilitÃ©s": 3186,
  "Ġmenace": 3187,
  "rastru": 3188,
  "ĠU": 3189,
  "ĠÃ©missions": 3190,
  "ĠbÃ¢": 3191,
  "ige": 3192,
  "Ġmauvais": 3193,
  "Ġnorm": 3194,
  "ĠdÃ©pend": 3195,
  "ĠAn": 3196,
  "ĠcompÃ©titivitÃ©": 3197,
  "onte": 3198,
  "ĠconsidÃ¨re": 3199,
  "Ġk": 3200,
  "ĠdÃ©mont": 3201,
  "ĠfÃ©licite": 3202,
  "Ġindispens": 3203,
  "Ġpleinement": 3204,
  "ze": 3205,
  "Ġpratiques": 3206,
  "oici": 3207,
  "lÃ©ch": 3208,
  "Ġ12": 3209,
  "Ġconsommation": 3210,
  "Ġmonn": 3211,
  "orme": 3212,
  "lation": 3213,
  "ĠÃ©trangÃ¨re": 3214,
  "rie": 3215,
  "\",": 3216,
  "Ġatteindre": 3217,
  "Ġpetits": 3218,
  "Certains": 3219,
  "nies": 3220,
  "Ġcrimin": 3221,
  ").": 3222,
  "aprÃ¨s": 3223,
  "Ġfig": 3224,
  "Ġdipl": 3225,
  "Ġfamille": 3226,
  "Ġache": 3227,
  "ĠÃ©lÃ©ment": 3228,
  "appro": 3229,
  "Ġinitiative": 3230,
  "Ġcivi": 3231,
  "Ġcontenu": 3232,
  "ĠamÃ©ricain": 3233,
  "ĠBanque": 3234,
  "ĩa": 3235,
  "Ġposer": 3236,
  "Ġassoci": 3237,
  "ologique": 3238,
  "oyaume": 3239,
  "lan": 3240,
  "ĠdÃ©fic": 3241,
  "issons": 3242,
  "sus": 3243,
  "Ġanci": 3244,
  "oles": 3245,
  "Ġinternationales": 3246,
  "Ġcandidats": 3247,
  "roy": 3248,
  "Ġobtenir": 3249,
  "enf": 3250,
  "Ġconstituent": 3251,
  "sive": 3252,
  "Ġbonnes": 3253,
  "Ġfaisons": 3254,
  "Ġ50": 3255,
  "ĠrÃ©glementation": 3256,
  "Ġmots": 3257,
  "ĠconsidÃ©ration": 3258,
  "Ġhistoire": 3259,
  "Ġdisponi": 3260,
  "ĠlumiÃ¨re": 3261,
  "amb": 3262,
  "ulation": 3263,
  "Ġadopter": 3264,
  "Permettez": 3265,
  "Ġmalheureusement": 3266,
  "Ġhumains": 3267,
  "Allemagne": 3268,
  "Ġgag": 3269,
  "Ġpartenariat": 3270,
  "culteurs": 3271,
  "quÃ©es": 3272,
  "Ã©tab": 3273,
  "assurer": 3274,
  "ĠCommunautÃ©": 3275,
  "isent": 3276,
  "ĠmalgrÃ©": 3277,
  "ĠsiÃ¨cle": 3278,
  "itation": 3279,
  "Ġtemp": 3280,
  "Ġalimentaire": 3281,
  "Ġauxque": 3282,
  "Ġpensons": 3283,
  "Ġpersonnel": 3284,
  "Åĵur": 3285,
  "ĠÃ¢": 3286,
  "Ġbre": 3287,
  "landais": 3288,
  "fg": 3289,
  "ps": 3290,
  "Ġpros": 3291,
  "Ġlesquels": 3292,
  "anci": 3293,
  "istration": 3294,
  "Ġliste": 3295,
  "abri": 3296,
  "Ġactuel": 3297,
  "Ġsort": 3298,
  "Ġ11": 3299,
  "arer": 3300,
  "Ġpous": 3301,
  "ila": 3302,
  "itent": 3303,
  "Ġminim": 3304,
  "immigration": 3305,
  "Ã©tat": 3306,
  "Ġmanifest": 3307,
  "Ġcruci": 3308,
  "Ġterre": 3309,
  "ĠparlÃ©": 3310,
  "avez": 3311,
  "Sur": 3312,
  "Ġsemaines": 3313,
  "Ġautour": 3314,
  "Ġhuman": 3315,
  "Ġidenti": 3316,
  "Ġsim": 3317,
  "Ġdurant": 3318,
  "Ġlesquelles": 3319,
  "Ġayant": 3320,
  "Ġdim": 3321,
  "aintenant": 3322,
  "Malheureusement": 3323,
  "Ġagir": 3324,
  "ĠdÃ©ce": 3325,
  "Ġexigences": 3326,
  "sp": 3327,
  "Ġenvers": 3328,
  "Ġarti": 3329,
  "osÃ©s": 3330,
  "fiÃ©e": 3331,
  "Ġassur": 3332,
  "Ġcircons": 3333,
  "Ġinstruments": 3334,
  "Selon": 3335,
  "Ġmessage": 3336,
  "tences": 3337,
  "ĠtÃªte": 3338,
  "ĠreÃ§u": 3339,
  "Ġconstruction": 3340,
  "Ġcoordination": 3341,
  "Ġsex": 3342,
  "AssemblÃ©e": 3343,
  "chec": 3344,
  "ĠRoyaume": 3345,
  "Ġclaire": 3346,
  "Ġfacile": 3347,
  "nant": 3348,
  "Ġcouv": 3349,
  "Ġoffici": 3350,
  "Ġcondition": 3351,
  "Ġfaible": 3352,
  "Ġconclure": 3353,
  "Ġtravaux": 3354,
  "Ġmaintenir": 3355,
  "Inde": 3356,
  "Orient": 3357,
  "ĠAl": 3358,
  "Ġregard": 3359,
  "Ġsuivi": 3360,
  "...": 3361,
  "Ġemplois": 3362,
  "Ġmandat": 3363,
  "rement": 3364,
  "Ġdirectement": 3365,
  "ĠSu": 3366,
  "Ġresponsable": 3367,
  "Ġimpossi": 3368,
  "agements": 3369,
  "Ġpubliques": 3370,
  "ĠcompÃ©tences": 3371,
  "Ġpuissent": 3372,
  "Ġlongue": 3373,
  "Ġphot": 3374,
  "ĠtÃ¢che": 3375,
  "vision": 3376,
  "istra": 3377,
  "ĠresponsabilitÃ©s": 3378,
  "ES": 3379,
  "Ġallem": 3380,
  "ĠCe": 3381,
  "Ġpouvait": 3382,
  "Ġtran": 3383,
  "Ġinitiatives": 3384,
  "itablement": 3385,
  "former": 3386,
  "ĠpÃ©trole": 3387,
  "diction": 3388,
  "ĠadÃ©qu": 3389,
  "Ġsurpr": 3390,
  "exist": 3391,
  "Ġdette": 3392,
  "Ġrenouve": 3393,
  "riez": 3394,
  "Ġprofond": 3395,
  "truction": 3396,
  "Ġtirer": 3397,
  "Ġprochain": 3398,
  "Ġparlementaire": 3399,
  "delÃł": 3400,
  "ĠimmÃ©diate": 3401,
  "visi": 3402,
  "Ã¨tes": 3403,
  "ush": 3404,
  "ĠintÃ©rÃªt": 3405,
  "Ġpositif": 3406,
  "Ġfaisant": 3407,
  "odes": 3408,
  "Ġville": 3409,
  "Ġbat": 3410,
  "Ġcombat": 3411,
  "ĠcoÃ»t": 3412,
  "ĠrÃ©jouis": 3413,
  "Ġengagement": 3414,
  "CE": 3415,
  "anie": 3416,
  "ĠCor": 3417,
  "Ġimporte": 3418,
  "ĠprÃ©ser": 3419,
  "OM": 3420,
  "Ġrur": 3421,
  "Ġrevenus": 3422,
  "ON": 3423,
  "Ġcompar": 3424,
  "Ġhier": 3425,
  "Ġparagraphe": 3426,
  "Ġmag": 3427,
  "ĠprocÃ©": 3428,
  "rÃ©h": 3429,
  "roÃ®": 3430,
  "ĠarrÃª": 3431,
  "cl": 3432,
  "yse": 3433,
  "rog": 3434,
  "ouverture": 3435,
  "blique": 3436,
  "let": 3437,
  "AN": 3438,
  "Ġquanti": 3439,
  "Ġagriculteurs": 3440,
  "Ġeffectivement": 3441,
  "euse": 3442,
  "ĠrÃ©aliser": 3443,
  "raine": 3444,
  "Ġrati": 3445,
  "Ġfutur": 3446,
  "Ġmener": 3447,
  "fghan": 3448,
  "alie": 3449,
  "Ġcivile": 3450,
  "Ou": 3451,
  "luence": 3452,
  "ĠtrouvÃ©": 3453,
  "Voici": 3454,
  "riÃ¨re": 3455,
  "ĠBr": 3456,
  "ĠÃ©qui": 3457,
  "Ġtransports": 3458,
  "Premi": 3459,
  "Ġmatin": 3460,
  "Ġmission": 3461,
  "Ġautoris": 3462,
  "Ġtechnique": 3463,
  "fications": 3464,
  "Ġmas": 3465,
  "ĠrÃ©flÃ©ch": 3466,
  "auche": 3467,
  "acte": 3468,
  "Ġconclusion": 3469,
  "tien": 3470,
  "ĠÃ©vident": 3471,
  "Ġpen": 3472,
  "Ã©volution": 3473,
  "Ġvoyez": 3474,
  "Ġperspectives": 3475,
  "Ġpie": 3476,
  "Ġmus": 3477,
  "Ġtest": 3478,
  "roduction": 3479,
  "Ġsoir": 3480,
  "Cet": 3481,
  "Ġeffectu": 3482,
  "ape": 3483,
  "Ġ18": 3484,
  "anges": 3485,
  "Ġdiscours": 3486,
  "asi": 3487,
  "ĠÃ©tat": 3488,
  "Ġhumaine": 3489,
  "manie": 3490,
  "resp": 3491,
  "Ġliv": 3492,
  "empl": 3493,
  "Qui": 3494,
  "pi": 3495,
  "gnes": 3496,
  "Ġfavoris": 3497,
  "ĠprÃªts": 3498,
  "aisir": 3499,
  "Ġsyn": 3500,
  "Ġministres": 3501,
  "Ġmonnaie": 3502,
  "reg": 3503,
  "Ġrele": 3504,
  "Ġautom": 3505,
  "Ġmilliers": 3506,
  "Ġfavorable": 3507,
  "ĠspÃ©cifique": 3508,
  "Ġenvoy": 3509,
  "opinion": 3510,
  "chent": 3511,
  "blement": 3512,
  "xim": 3513,
  "ague": 3514,
  "Ġpose": 3515,
  "ortÃ©": 3516,
  "Ġniveaux": 3517,
  "ĠintÃ©g": 3518,
  "ĠspÃ©cifiques": 3519,
  "Ġhabit": 3520,
  "Maintenant": 3521,
  "Ġlecture": 3522,
  "Ġcourt": 3523,
  "ĠsupplÃ©mentaires": 3524,
  "Ġadministra": 3525,
  "Ãĩa": 3526,
  "Ġvite": 3527,
  "ĠBal": 3528,
  "Ġfonctionnement": 3529,
  "ote": 3530,
  "Ġconsiste": 3531,
  "Ġpermettant": 3532,
  "investissement": 3533,
  "Avec": 3534,
  "Ġscientifiques": 3535,
  "rant": 3536,
  "pect": 3537,
  "Ġoccasion": 3538,
  "Ġimpossible": 3539,
  "ĠrÃ©fu": 3540,
  "Ġgrave": 3541,
  "amÃ©liorer": 3542,
  "Ġbritannique": 3543,
  "Ġcollaboration": 3544,
  "espace": 3545,
  "ĠmÃ©dias": 3546,
  "lexi": 3547,
  "emb": 3548,
  "ase": 3549,
  "ĠprÃ©sence": 3550,
  "ĠdÃ©velopp": 3551,
  "ception": 3552,
  "Ma": 3553,
  "Ġlet": 3554,
  "ilisation": 3555,
  "ĠplanÃ¨te": 3556,
  "Ġconnaissance": 3557,
  "Ġfournir": 3558,
  "ĠTraitÃ©": 3559,
  "innovation": 3560,
  "fric": 3561,
  "Ġconscience": 3562,
  "Ġpron": 3563,
  "Ġconform": 3564,
  "Ãªtes": 3565,
  "Ġperman": 3566,
  "ĠLes": 3567,
  "quÃªte": 3568,
  "Ġinten": 3569,
  "Ġtechniques": 3570,
  "Ġlargement": 3571,
  "Ġdeven": 3572,
  "tiÃ©": 3573,
  "Ġfabri": 3574,
  "Ġpermettra": 3575,
  "Ġapprouv": 3576,
  "Ġcommunautaires": 3577,
  "erb": 3578,
  "oyen": 3579,
  "Ġopportun": 3580,
  "Ġaugmentation": 3581,
  "ĠÃ©vÃ©nements": 3582,
  "ath": 3583,
  "importe": 3584,
  "stac": 3585,
  "ĠdÃ©cembre": 3586,
  "Ġtable": 3587,
  "Ġvivre": 3588,
  "Ġsoutiens": 3589,
  "Ġvoiture": 3590,
  "Ġexactement": 3591,
  "off": 3592,
  "Ġsouv": 3593,
  "ĠmontrÃ©": 3594,
  "Ġprincipal": 3595,
  "Ġinaccep": 3596,
  "andis": 3597,
  "Ġpermettr": 3598,
  "Ġcirculation": 3599,
  "ĠtÃ´t": 3600,
  "Ġpositive": 3601,
  "Ġatteint": 3602,
  "Iran": 3603,
  "oth": 3604,
  "Ġconstater": 3605,
  "uss": 3606,
  "ĠindÃ©pend": 3607,
  "Ġsimpli": 3608,
  "Ġsanctions": 3609,
  "Depuis": 3610,
  "Ġfaibles": 3611,
  "otion": 3612,
  "uff": 3613,
  "Ġrecev": 3614,
  "ĠdÃ©fendre": 3615,
  "Ġlutter": 3616,
  "Ch": 3617,
  "Ġcy": 3618,
  "Ġconclusions": 3619,
  "Ġendro": 3620,
  "ĠMoyen": 3621,
  "Ġavions": 3622,
  "Ġintervention": 3623,
  "vie": 3624,
  "urgence": 3625,
  "Ġpuisque": 3626,
  "ĠdÃ©couv": 3627,
  "Ġstri": 3628,
  "pendance": 3629,
  "Ġtendance": 3630,
  "ĠvÃ©": 3631,
  "ĠConstitution": 3632,
  "Ġutile": 3633,
  "Ġpoi": 3634,
  "Ġcentre": 3635,
  "Ã©change": 3636,
  "ĠÃ©vent": 3637,
  "ĠGrÃ¨ce": 3638,
  "Ġentier": 3639,
  "Ġcaract": 3640,
  "Ġretard": 3641,
  "Ġprincipaux": 3642,
  "Ġseraient": 3643,
  "Ġarmes": 3644,
  "kraine": 3645,
  "Ġton": 3646,
  "ĠaccÃ¨s": 3647,
  "Ġ2007": 3648,
  "PremiÃ¨rement": 3649,
  "ĠConvention": 3650,
  "intention": 3651,
  "ĠPremi": 3652,
  "Ġang": 3653,
  "Ġinstrument": 3654,
  "ĠRÃ©pu": 3655,
  "ĠdÃ©mar": 3656,
  "ĠcrÃ©di": 3657,
  "Ġpartout": 3658,
  "aitement": 3659,
  "Ġvision": 3660,
  "aliser": 3661,
  "impact": 3662,
  "naires": 3663,
  "ersonne": 3664,
  "ĠrÃ©seau": 3665,
  "ĠdÃ©bats": 3666,
  "Ġtraiter": 3667,
  "ĠrÃ©fugi": 3668,
  "Ġus": 3669,
  "Ġfinalement": 3670,
  "Ġemploy": 3671,
  "Ġaffaire": 3672,
  "ĠfranÃ§ais": 3673,
  "Ġflexi": 3674,
  "ama": 3675,
  "Ġconflits": 3676,
  "Ġcomptes": 3677,
  "Ġbal": 3678,
  "vier": 3679,
  "Ġvas": 3680,
  "Ġha": 3681,
  "Ġengagements": 3682,
  "Ġ2008": 3683,
  "quet": 3684,
  "Ġtotal": 3685,
  "uler": 3686,
  "Ġperspective": 3687,
  "Ã©anmoins": 3688,
  "ĠmoitiÃ©": 3689,
  "Ġarriver": 3690,
  "Ġordin": 3691,
  "Ġfera": 3692,
  "este": 3693,
  "Ġposs": 3694,
  "ĠEuropÃ©ens": 3695,
  "ĠreprÃ©sentants": 3696,
  "Ġdossier": 3697,
  "quant": 3698,
  "ĠmÃ©ri": 3699,
  "Ġsignific": 3700,
  "cÃ©e": 3701,
  "ĠZ": 3702,
  "anim": 3703,
  "Ġtellement": 3704,
  "Ġperdu": 3705,
  "Ġparticiper": 3706,
  "Ġchemin": 3707,
  "Ġfrapp": 3708,
  "Ġindispensable": 3709,
  "ĠdÃ©chets": 3710,
  "Ġprovo": 3711,
  "Ġexcellent": 3712,
  "ctor": 3713,
  "Pourtant": 3714,
  "Ġtraite": 3715,
  "Lorsque": 3716,
  "ĠcomplÃ¨tement": 3717,
  "Ã©valuation": 3718,
  "ĠliÃ©s": 3719,
  "ruption": 3720,
  "Tous": 3721,
  "vation": 3722,
  "Ġfaits": 3723,
  "Ġdistin": 3724,
  "Ġresse": 3725,
  "Ġmondialisation": 3726,
  "Ġencourager": 3727,
  "ĠKos": 3728,
  "ĠnuclÃ©aires": 3729,
  "telli": 3730,
  "ĠdÃ©cen": 3731,
  "ĠadoptÃ©e": 3732,
  "Ġreligi": 3733,
  "ron": 3734,
  "Ġmai": 3735,
  "tembre": 3736,
  "cles": 3737,
  "Ġpourrons": 3738,
  "Ġconven": 3739,
  "Ġcompag": 3740,
  "ĠdÃ©cider": 3741,
  "Ġcroire": 3742,
  "tÃ©rieure": 3743,
  "Ġparfaitement": 3744,
  "Ġexer": 3745,
  "cteur": 3746,
  "ĠcaractÃ¨re": 3747,
  "dec": 3748,
  "ctif": 3749,
  "Ġviv": 3750,
  "ilier": 3751,
  "Ġdiplom": 3752,
  "Ġrendu": 3753,
  "Ġcorresp": 3754,
  "ĠdÃ©clarations": 3755,
  "Ġpermettez": 3756,
  "Ġcarb": 3757,
  "actions": 3758,
  "Ġcompli": 3759,
  "ĠNe": 3760,
  "IB": 3761,
  "Ġsouhaiterais": 3762,
  "gÃ©s": 3763,
  "Ġdate": 3764,
  "Ġnouvel": 3765,
  "ĠlibÃ©ralisation": 3766,
  "Ġsentiment": 3767,
  "ĠIsraÃ«l": 3768,
  "ĠprÃ©occupations": 3769,
  "aintes": 3770,
  "ĠbudgÃ©taires": 3771,
  "Ġcritique": 3772,
  "NÃ©anmoins": 3773,
  "ĠcÃ©": 3774,
  "Ġval": 3775,
  "Ġauquel": 3776,
  "ates": 3777,
  "Ġdevenu": 3778,
  "Ġrenforcement": 3779,
  "ĠdÃ©n": 3780,
  "ĠÃ©cou": 3781,
  "ĠÃ©trangÃ¨res": 3782,
  "ĠÃ©tabli": 3783,
  "Ġmilitaires": 3784,
  "ĠreprÃ©sentent": 3785,
  "Ġdiver": 3786,
  "Ġ100": 3787,
  "Ġregret": 3788,
  "ĠÃ©lab": 3789,
  "Ġexige": 3790,
  "Ã©poque": 3791,
  "Ġpollu": 3792,
  "ctes": 3793,
  "Ġtrib": 3794,
  "Ġadap": 3795,
  "Ġproducteurs": 3796,
  "intÃ©rieur": 3797,
  "contre": 3798,
  "Ġpalestini": 3799,
  "ĠparticuliÃ¨re": 3800,
  "Ġmauvaise": 3801,
  "Ġmaladie": 3802,
  "Tro": 3803,
  "Ġsouver": 3804,
  "Ġgu": 3805,
  "Ġcommence": 3806,
  "Ġphy": 3807,
  "ĠKosov": 3808,
  "ĠÃ©m": 3809,
  "Ġcampagne": 3810,
  "Ġsource": 3811,
  "Mes": 3812,
  "Peu": 3813,
  "ĠpÃ¨re": 3814,
  "Ġign": 3815,
  "Ġconsens": 3816,
  "ĠrÃ©vision": 3817,
  "cs": 3818,
  "hum": 3819,
  "tage": 3820,
  "Ġjuin": 3821,
  "Ã©ro": 3822,
  "ĠnÃ©anmoins": 3823,
  "Ġexport": 3824,
  "Ġambiti": 3825,
  "Ġseptembre": 3826,
  "Ġcapital": 3827,
  "Ġobligations": 3828,
  "Ġcorrespond": 3829,
  "Ġmob": 3830,
  "Ġ2009": 3831,
  "cession": 3832,
  "cadre": 3833,
  "Ġneu": 3834,
  "Ġextra": 3835,
  "ĠrÃ©fÃ©r": 3836,
  "absence": 3837,
  "amp": 3838,
  "ĠEn": 3839,
  "Ġsup": 3840,
  "lier": 3841,
  "Ġobstac": 3842,
  "tionnelles": 3843,
  "ĠvÃ©ritÃ©": 3844,
  "ĠrÃ©par": 3845,
  "nÃ©s": 3846,
  "Ġinvesti": 3847,
  "Ġservir": 3848,
  "Ġpeuples": 3849,
  "Plus": 3850,
  "Ġtoi": 3851,
  "roduire": 3852,
  "Ġamis": 3853,
  "ministration": 3854,
  "Ġcontinent": 3855,
  "Ġcorps": 3856,
  "ĠmÃ©dec": 3857,
  "Ġglobale": 3858,
  "Ġpotentiel": 3859,
  "join": 3860,
  "Ġproduire": 3861,
  "Ã¨mement": 3862,
  "Ġcombien": 3863,
  "Ġroute": 3864,
  "actÃ©r": 3865,
  "Ġterritoire": 3866,
  "rÃ©ti": 3867,
  "Ġpolice": 3868,
  "ĠcaractÃ©r": 3869,
  "Ġavantages": 3870,
  "Ġarrive": 3871,
  "ĠreconnaÃ®tre": 3872,
  "Ġentend": 3873,
  "ĠdÃ©mocratiques": 3874,
  "Ã©ricains": 3875,
  "Ġpeur": 3876,
  "Ġfeu": 3877,
  "Ġlignes": 3878,
  "Ġpropri": 3879,
  "Ġsurveill": 3880,
  "Ġsecond": 3881,
  "Ġfaudra": 3882,
  "Ġdevront": 3883,
  "ĠdÃ©part": 3884,
  "Ġagricoles": 3885,
  "Ġemb": 3886,
  "Ġefficaces": 3887,
  "fghanistan": 3888,
  "ĠRÃ©publique": 3889,
  "ĠPIB": 3890,
  "Ġconstruire": 3891,
  "Ġdispose": 3892,
  "Ġplac": 3893,
  "ĠillÃ©g": 3894,
  "Ġvoulez": 3895,
  "ĠmatÃ©ri": 3896,
  "Ġvoisins": 3897,
  "Ġscientifique": 3898,
  "ĠprÃ©p": 3899,
  "issante": 3900,
  "Ġdisposition": 3901,
  "ĠÃ©quilib": 3902,
  "Ġdimension": 3903,
  "ĠKosovo": 3904,
  "Ã¶": 3905,
  "Ġrevenir": 3906,
  "Ġconvi": 3907,
  "Ġperd": 3908,
  "Ġrelation": 3909,
  "Ġgraves": 3910,
  "Ġsortir": 3911,
  "ĠPremier": 3912,
  "cations": 3913,
  "ĠmÃ¨re": 3914,
  "Ġactive": 3915,
  "ĠentiÃ¨rement": 3916,
  "we": 3917,
  "uxelles": 3918,
  "ologie": 3919,
  "Ġimag": 3920,
  "ĠdÃ©lÃ©g": 3921,
  "Ġargu": 3922,
  "Ã©diter": 3923,
  "talie": 3924,
  "Ġ2004": 3925,
  "Ġpayer": 3926,
  "Ġinternationaux": 3927,
  "Ġ40": 3928,
  "Ġavenir": 3929,
  "Ġstructurels": 3930,
  "ourg": 3931,
  "ĠrÃ©fugiÃ©s": 3932,
  "Ġdiscuter": 3933,
  "Ġraisonn": 3934,
  "Parce": 3935,
  "Irak": 3936,
  "ĠidÃ©": 3937,
  "Ġnuit": 3938,
  "ĠmÃ©dic": 3939,
  "Ġlois": 3940,
  "ĠrÃ©flex": 3941,
  "ĠrÃ©alisÃ©": 3942,
  "Ġnaturellement": 3943,
  "Ã©tude": 3944,
  "Ġmouvement": 3945,
  "lise": 3946,
  "Ã¨ces": 3947,
  "Ġaient": 3948,
  "Ġ198": 3949,
  "Ġmat": 3950,
  "Ġpuissance": 3951,
  "Ġaides": 3952,
  "Ġprison": 3953,
  "ancÃ©": 3954,
  "Ġouti": 3955,
  "Ġemploi": 3956,
  "ĠespÃ©rons": 3957,
  "Ġfaudrait": 3958,
  "Ġconsensus": 3959,
  "ĠBel": 3960,
  "Ġconnu": 3961,
  "Ġmaladies": 3962,
  "ME": 3963,
  "ĠMais": 3964,
  "Ġoct": 3965,
  "ĠRou": 3966,
  "ĠsÃ©par": 3967,
  "ĠsupÃ©ri": 3968,
  "Ġdeme": 3969,
  "tÃ©g": 3970,
  "Ġchang": 3971,
  "caments": 3972,
  "Ġlimites": 3973,
  "Ġpouvoirs": 3974,
  "Personne": 3975,
  "Ġattendre": 3976,
  "Ġregarde": 3977,
  "ros": 3978,
  "usses": 3979,
  "Ġpaquet": 3980,
  "Ġaltern": 3981,
  "Ġfondamental": 3982,
  "atta": 3983,
  "Ġintrodu": 3984,
  "AC": 3985,
  "Ġtandis": 3986,
  "Ã©nom": 3987,
  "ĠrÃ©gionale": 3988,
  "amÃ©lioration": 3989,
  "Ã©diterran": 3990,
  "ondi": 3991,
  "ich": 3992,
  "Ãªt": 3993,
  "mbler": 3994,
  "ĠintÃ©ressant": 3995,
  "lor": 3996,
  "Ġorgan": 3997,
  "Ġprincipalement": 3998,
  "ĠutilisÃ©": 3999,
  "Ġcharge": 4000,
  "Ġdiscrimination": 4001,
  "ĠmÃ©rite": 4002,
  "ĠBush": 4003,
  "ĠmÃ©dicaments": 4004,
  "ĠbÃ¢ti": 4005,
  "ĠBruxelles": 4006,
  "ber": 4007,
  "ĠprocÃ¨s": 4008,
  "ĠdÃ©rou": 4009,
  "atte": 4010,
  "avait": 4011,
  "Ġtradu": 4012,
  "Ġcroy": 4013,
  "Ġclimat": 4014,
  "ĠcÅĵur": 4015,
  "Ġpourrions": 4016,
  "Ġfonctionne": 4017,
  "ĠphÃ©nom": 4018,
  "ĠrÃ©seaux": 4019,
  "ice": 4020,
  "Ġsoins": 4021,
  "administration": 4022,
  "Ġsurveillance": 4023,
  "ĠsoulignÃ©": 4024,
  "OMC": 4025,
  "emplois": 4026,
  "Ġinacceptable": 4027,
  "Ġnum": 4028,
  "Ġvise": 4029,
  "ĠPrÃ©sidence": 4030,
  "Ġgouvern": 4031,
  "ĠdiffÃ©rence": 4032,
  "Ġvaut": 4033,
  "ĠcatÃ©g": 4034,
  "Ġjuridiques": 4035,
  "Ġimplique": 4036,
  "uffis": 4037,
  "Ã¨nes": 4038,
  "Ġpourront": 4039,
  "exemp": 4040,
  "exc": 4041,
  "expÃ©rience": 4042,
  "ĠprÃ©voit": 4043,
  "ĠmÃ©thode": 4044,
  "ĠimmÃ©diatement": 4045,
  "quis": 4046,
  "ĠrÃ©vÃ©": 4047,
  "ĠexpÃ©rience": 4048,
  "espoir": 4049,
  "Ġfacil": 4050,
  "encontre": 4051,
  "Ġcerve": 4052,
  "appel": 4053,
  "Ġconcentrer": 4054,
  "Ġ13": 4055,
  "Ġseuls": 4056,
  "Ġhausse": 4057,
  "Ġdanger": 4058,
  "Ġporter": 4059,
  "orde": 4060,
  "ĠÃ©mer": 4061,
  "ĠPa": 4062,
  "amique": 4063,
  "cepti": 4064,
  "ĠstratÃ©gique": 4065,
  "Ġ2010": 4066,
  "Ġmoindre": 4067,
  "vÃ©es": 4068,
  "oise": 4069,
  "Ġchamp": 4070,
  "augmentation": 4071,
  "Ã©ni": 4072,
  "Ġrent": 4073,
  "Ġbout": 4074,
  "Ġpresse": 4075,
  "Ġpromotion": 4076,
  "ĠlimitÃ©": 4077,
  "Ġchiffres": 4078,
  "Ġcirconst": 4079,
  "Ġami": 4080,
  "approche": 4081,
  "ĠRom": 4082,
  "Irlande": 4083,
  "Ġquo": 4084,
  "Ġtort": 4085,
  "auff": 4086,
  "Ġdevait": 4087,
  "ĠÃ©tape": 4088,
  "Ġhumain": 4089,
  "Ġlangue": 4090,
  "Ġrecours": 4091,
  "sivement": 4092,
  "utiliser": 4093,
  "Ġbiais": 4094,
  "Ġconcept": 4095,
  "ĠprÃ©vention": 4096,
  "ĠÃ©norme": 4097,
  "Ġdyn": 4098,
  "Ã©ritÃ©": 4099,
  "ĠÃ©cri": 4100,
  "Ġtient": 4101,
  "Ġlit": 4102,
  "ĠâĢľ": 4103,
  "spagne": 4104,
  "ki": 4105,
  "Ġfinal": 4106,
  "Ġengag": 4107,
  "ĠdÃ©finition": 4108,
  "Ġpopulations": 4109,
  "Ġterrain": 4110,
  "Ġaspect": 4111,
  "Tom": 4112,
  "Ġtaille": 4113,
  "ĠdiffÃ©rences": 4114,
  "Ġterroristes": 4115,
  "Ġradic": 4116,
  "aider": 4117,
  "Ġstatis": 4118,
  "bes": 4119,
  "Ġral": 4120,
  "Ġquit": 4121,
  "ĠprÃ©t": 4122,
  "Ġprosp": 4123,
  "ĠrÃ©el": 4124,
  "osent": 4125,
  "Ġlour": 4126,
  "erait": 4127,
  "inte": 4128,
  "ĠAfrique": 4129,
  "Ġpopulaire": 4130,
  "ĠsupplÃ©mentaire": 4131,
  "opposition": 4132,
  "Ġsimil": 4133,
  "roÃ®tre": 4134,
  "Ġdr": 4135,
  "Ġara": 4136,
  "aime": 4137,
  "Ġrestri": 4138,
  "Ã©rÃ©e": 4139,
  "Ġsoutenu": 4140,
  "Son": 4141,
  "iller": 4142,
  "vite": 4143,
  "enseig": 4144,
  "Ġcapable": 4145,
  "Ġcritiques": 4146,
  "Ġsemblent": 4147,
  "ctr": 4148,
  "ĠvÃ©ri": 4149,
  "Ġhumanitaire": 4150,
  "ONU": 4151,
  "naire": 4152,
  "ĠrÃ©elle": 4153,
  "ĠpremiÃ¨res": 4154,
  "Ã©viter": 4155,
  "Ġprochaines": 4156,
  "Ġlimiter": 4157,
  "Ġcherche": 4158,
  "ĠtÃ©lÃ©ph": 4159,
  "existence": 4160,
  "oie": 4161,
  "ĠcrÃ©Ã©": 4162,
  "llez": 4163,
  "armonisation": 4164,
  "ĠprocÃ©der": 4165,
  "ĠrÃ©t": 4166,
  "Ġactes": 4167,
  "dÃ©m": 4168,
  "Puis": 4169,
  "Ġvilles": 4170,
  "Ġacteurs": 4171,
  "Ġlogique": 4172,
  "âĢĿ": 4173,
  "Ġdevez": 4174,
  "Ġdevient": 4175,
  "Ġprofit": 4176,
  "Ġpoids": 4177,
  "Ã¨que": 4178,
  "Ġparlons": 4179,
  "adap": 4180,
  "Ġproposer": 4181,
  "Ġgarantie": 4182,
  "aucra": 4183,
  "asile": 4184,
  "Ġmenac": 4185,
  "Ġcorruption": 4186,
  "ĠdÃ©finir": 4187,
  "Ġconvaincu": 4188,
  "hors": 4189,
  "atie": 4190,
  "da": 4191,
  "aller": 4192,
  "anvier": 4193,
  "ĠauprÃ¨s": 4194,
  "Ġmaxim": 4195,
  "iliation": 4196,
  "Â».": 4197,
  "Ã©quilibre": 4198,
  "lam": 4199,
  "Ġsources": 4200,
  "uellement": 4201,
  "fiÃ©s": 4202,
  "Ġ2006": 4203,
  "ĠempÃªcher": 4204,
  "Ã©chelle": 4205,
  "Ġbureaucra": 4206,
  "Ã©cole": 4207,
  "introduction": 4208,
  "Ġessentiellement": 4209,
  "ĠconsidÃ©rable": 4210,
  "Ġerreur": 4211,
  "ane": 4212,
  "ĠBer": 4213,
  "Ġcommunes": 4214,
  "ĠconformÃ©ment": 4215,
  "lov": 4216,
  "arb": 4217,
  "Ġjeune": 4218,
  "),": 4219,
  "Ġcommis": 4220,
  "ĠprÃ©sid": 4221,
  "ologiques": 4222,
  "Ġcapitaux": 4223,
  "Ġminutes": 4224,
  "Ġpied": 4225,
  "indi": 4226,
  "Ġcontient": 4227,
  "Ġsud": 4228,
  "Ġ14": 4229,
  "Ġinfrastru": 4230,
  "Ġgouvernance": 4231,
  "Ġsoumis": 4232,
  "autÃ©s": 4233,
  "ĠapprÃ©ci": 4234,
  "Ġatten": 4235,
  "Ġdocuments": 4236,
  "Ġmutu": 4237,
  "ĠUE": 4238,
  "Ġstim": 4239,
  "arge": 4240,
  "Ġrecons": 4241,
  "ingt": 4242,
  "appliquer": 4243,
  "Ġessayer": 4244,
  "ĠrÃ©action": 4245,
  "ĠextÃ©rieur": 4246,
  "existe": 4247,
  "ĠcontrÃ´les": 4248,
  "ĠamÃ©ricains": 4249,
  "orÃ©": 4250,
  "Ġplans": 4251,
  "Ġexploit": 4252,
  "Ġaband": 4253,
  "Ġvoici": 4254,
  "Ġvari": 4255,
  "Ġjanvier": 4256,
  "Ġbaisse": 4257,
  "Ġconvention": 4258,
  "Ġchu": 4259,
  "Ġessentielle": 4260,
  "ĠprÃ©vu": 4261,
  "Ġreconnaissance": 4262,
  "ĠrÃ©serves": 4263,
  "ements": 4264,
  "umer": 4265,
  "ulg": 4266,
  "ĠÃ©lector": 4267,
  "assur": 4268,
  "Ġmoyenne": 4269,
  "gÃ©es": 4270,
  "Ġstock": 4271,
  "Ġisra": 4272,
  "SA": 4273,
  "ĠcohÃ©r": 4274,
  "organisation": 4275,
  "Ġtab": 4276,
  "Ġcellu": 4277,
  "Ġremarque": 4278,
  "Ġgarder": 4279,
  "TAN": 4280,
  "oh": 4281,
  "Ġparents": 4282,
  "allÃ¨": 4283,
  "Ġmars": 4284,
  "Ġlettre": 4285,
  "PE": 4286,
  "Ġbanc": 4287,
  "osÃ©e": 4288,
  "Ġformes": 4289,
  "riture": 4290,
  "Ġplein": 4291,
  "pir": 4292,
  "mite": 4293,
  "Ġalli": 4294,
  "Ġcomplexe": 4295,
  "Ar": 4296,
  "Ġgauche": 4297,
  "Ġtransform": 4298,
  "Ġprofonde": 4299,
  "Ġfaite": 4300,
  "Ġsalue": 4301,
  "PL": 4302,
  "gÃ©e": 4303,
  "Ġviens": 4304,
  "ĠÂ».": 4305,
  "ĠdiversitÃ©": 4306,
  "uels": 4307,
  "ĠconsidÃ©rer": 4308,
  "Ġappris": 4309,
  "Ġdiminu": 4310,
  "Ã¨tres": 4311,
  "cid": 4312,
  "oncÃ©": 4313,
  "Ensuite": 4314,
  "ĠLib": 4315,
  "Ġrevenu": 4316,
  "lÃ©es": 4317,
  "inqui": 4318,
  "arie": 4319,
  "Ġred": 4320,
  "dÃ©pendance": 4321,
  "Ġdifficiles": 4322,
  "Ukraine": 4323,
  "Ġchances": 4324,
  "Ġjuge": 4325,
  "engagement": 4326,
  "ED": 4327,
  "Ġpat": 4328,
  "anche": 4329,
  "euvre": 4330,
  "Ġintelli": 4331,
  "agent": 4332,
  "Ġtex": 4333,
  "Ġentendre": 4334,
  "Ġlire": 4335,
  "Ġtravaille": 4336,
  "entreprise": 4337,
  "ĠrÃ©gu": 4338,
  "Ġ17": 4339,
  "Ġentreprise": 4340,
  "ĠcrÃ©dits": 4341,
  "ĠmÃ©canisme": 4342,
  "Ġfrau": 4343,
  "ĠlibertÃ©s": 4344,
  "Ġalimentaires": 4345,
  "ĠcomitÃ©": 4346,
  "ombre": 4347,
  "ĠcomprÃ©h": 4348,
  "Ġsouhaitons": 4349,
  "Ġsuffit": 4350,
  "Ġhaute": 4351,
  "Ġafric": 4352,
  "vembre": 4353,
  "associ": 4354,
  "ĠrÃ©ponses": 4355,
  "Ã©cution": 4356,
  "ĠconfrontÃ©s": 4357,
  "Ġproven": 4358,
  "conque": 4359,
  "Merci": 4360,
  "Ġdirectives": 4361,
  "Ġmariti": 4362,
  "gner": 4363,
  "Ġrestent": 4364,
  "Ġdistribu": 4365,
  "Ġhistorique": 4366,
  "ĠrÃ©flÃ©chir": 4367,
  "ira": 4368,
  "ĠclÃ©": 4369,
  "Ġrejet": 4370,
  "Ġtrafic": 4371,
  "Ġamen": 4372,
  "Ġexprimer": 4373,
  "Ġobserv": 4374,
  "Ġmaintien": 4375,
  "ĠsÃ©ance": 4376,
  "Ġlocales": 4377,
  "ĠcontrÃ´ler": 4378,
  "Ġterminer": 4379,
  "af": 4380,
  "ĠPME": 4381,
  "Ġcomportement": 4382,
  "Ġfilm": 4383,
  "Ġobtenu": 4384,
  "enda": 4385,
  "Ġregarder": 4386,
  "ĠaccÃ©": 4387,
  "Ġaborder": 4388,
  "ĠAmÃ©ricains": 4389,
  "Ġmultip": 4390,
  "ĠÃ©li": 4391,
  "Ġattitude": 4392,
  "ĠdiffÃ©rente": 4393,
  "Ã©tr": 4394,
  "Ġpacte": 4395,
  "Ġprim": 4396,
  "Ġnovembre": 4397,
  "200": 4398,
  "Ġexcep": 4399,
  "ĠÃ©levÃ©s": 4400,
  "ĠrÃ©ussite": 4401,
  "Ġexclu": 4402,
  "ĠdÃ©ficit": 4403,
  "tidi": 4404,
  "Ġmains": 4405,
  "ination": 4406,
  "Ġtur": 4407,
  "Ġprud": 4408,
  "endum": 4409,
  "pÃ©rer": 4410,
  "Ġremplac": 4411,
  "ĠbÃ©nÃ©ficier": 4412,
  "ĠprÃ©cÃ©dent": 4413,
  "Sans": 4414,
  "Ġmig": 4415,
  "Ġbons": 4416,
  "ĠliÃ©es": 4417,
  "Ġcirconstances": 4418,
  "MI": 4419,
  "Ġtyp": 4420,
  "ĠrÃª": 4421,
  "Ġvenu": 4422,
  "Ġespagn": 4423,
  "ĠgÃ©nÃ©ralement": 4424,
  "Ġaccompli": 4425,
  "OTAN": 4426,
  "Ġvivent": 4427,
  "Ġpremiers": 4428,
  "ologne": 4429,
  "Ġcaus": 4430,
  "ĠGrande": 4431,
  "Ġgre": 4432,
  "Ġpaci": 4433,
  "accent": 4434,
  "ĠIrak": 4435,
  "Ġsugg": 4436,
  "ĠX": 4437,
  "Ġvoyage": 4438,
  "Ġouvert": 4439,
  "Ġdisent": 4440,
  "Ġ16": 4441,
  "ĠdÃ©faut": 4442,
  "Quelle": 4443,
  "fÃ©rence": 4444,
  "Ġstade": 4445,
  "Ġstructures": 4446,
  "Ġtouch": 4447,
  "Ġrelatif": 4448,
  "Ġsuivante": 4449,
  "hicu": 4450,
  "Ġseconde": 4451,
  "Ġsomme": 4452,
  "illet": 4453,
  "Ġclasse": 4454,
  "ĠÃ©lectr": 4455,
  "Ġbudgets": 4456,
  "informations": 4457,
  "Ġestime": 4458,
  "ĠtraitÃ©s": 4459,
  "exprimer": 4460,
  "Troisi": 4461,
  "ĠdÃ©lÃ©gation": 4462,
  "ĠRoumanie": 4463,
  "Ġnavi": 4464,
  "ĠSt": 4465,
  "dessus": 4466,
  "Ġlead": 4467,
  "Ġuni": 4468,
  "Ġcoord": 4469,
  "Ġcomprends": 4470,
  "ĠrÃ©alisation": 4471,
  "Ġchefs": 4472,
  "Ġremarques": 4473,
  "Ġconver": 4474,
  "intervention": 4475,
  "ow": 4476,
  "reuse": 4477,
  "Ġvoulais": 4478,
  "ĠrÃ©volution": 4479,
  "Ġpatients": 4480,
  "Ġrenouvel": 4481,
  "gra": 4482,
  "iens": 4483,
  "aluer": 4484,
  "Ġpromes": 4485,
  "ĠcompÃ©tence": 4486,
  "ĠvÃ©hicu": 4487,
  "Ġviennent": 4488,
  "Ġsujets": 4489,
  "IT": 4490,
  "univers": 4491,
  "onter": 4492,
  "Ġcentaines": 4493,
  "rontali": 4494,
  "Ġenfant": 4495,
  "Ġcommerciaux": 4496,
  "adopter": 4497,
  "Ġreprises": 4498,
  "Ġtransfrontali": 4499,
  "Ġquotidi": 4500,
  "Ġsinc": 4501,
  "Ġconsoli": 4502,
  "Ġlimite": 4503,
  "ĠÃ©tudes": 4504,
  "Ġpire": 4505,
  "Ġparlementaires": 4506,
  "Ġvoisin": 4507,
  "ration": 4508,
  "Ã©ter": 4509,
  "alitÃ©s": 4510,
  "âĻ": 4511,
  "Ġdehors": 4512,
  "ĠexpÃ©ri": 4513,
  "Ġ2005": 4514,
  "Ġnote": 4515,
  "Ġfortement": 4516,
  "Ġrecommandations": 4517,
  "Ġajouter": 4518,
  "Ġgagner": 4519,
  "Ġnord": 4520,
  "Ġquelles": 4521,
  "Ġpay": 4522,
  "Ġdess": 4523,
  "paravant": 4524,
  "Ġallemand": 4525,
  "ĠÃ©quipe": 4526,
  "ile": 4527,
  "run": 4528,
  "Ġlancer": 4529,
  "onor": 4530,
  "Ġfou": 4531,
  "ĠfrÃ©": 4532,
  "Ġavancer": 4533,
  "Ġjoue": 4534,
  "ĠmÃ©thodes": 4535,
  "Ġindividu": 4536,
  "ĠcaractÃ©ris": 4537,
  "An": 4538,
  "Ġperdre": 4539,
  "ĠÃ©changes": 4540,
  "Ġcatastrophe": 4541,
  "Ġprogres": 4542,
  "Ġfru": 4543,
  "Ġscience": 4544,
  "ire": 4545,
  "appelle": 4546,
  "ĠrÃ©fÃ©rendum": 4547,
  "enez": 4548,
  "agers": 4549,
  "Ġ2003": 4550,
  "ĠvÃ©ritablement": 4551,
  "Ġmodifier": 4552,
  "ĠappelÃ©": 4553,
  "affir": 4554,
  "Ġencourage": 4555,
  "Ġfiscale": 4556,
  "ĠÃ©quilibre": 4557,
  "Ġcentrales": 4558,
  "ĠrÃ©serve": 4559,
  "Ġinsuffis": 4560,
  "itoyens": 4561,
  "Ġtransi": 4562,
  "Ã©ti": 4563,
  "Ġenreg": 4564,
  "activitÃ©": 4565,
  "ĠderriÃ¨re": 4566,
  "ĠcoÃ»te": 4567,
  "Ġouverte": 4568,
  "Ġmusul": 4569,
  "ache": 4570,
  "expression": 4571,
  "ĠdÃ©finiti": 4572,
  "Ġchercher": 4573,
  "âĻ«": 4574,
  "Ã¨ve": 4575,
  "lÃ©s": 4576,
  "enci": 4577,
  "Ġpropor": 4578,
  "ĠÃ©valuation": 4579,
  "ĠconcernÃ©s": 4580,
  "exploit": 4581,
  "rage": 4582,
  "Ã§ant": 4583,
  "impression": 4584,
  "Ġsoutient": 4585,
  "ĠconcrÃ¨tes": 4586,
  "Ġtol": 4587,
  "Ġfasse": 4588,
  "Ġtrouvent": 4589,
  "Ġmari": 4590,
  "Ġcorrectement": 4591,
  "bama": 4592,
  "inÃ©": 4593,
  "itali": 4594,
  "ĠprÃªt": 4595,
  "Ġvoire": 4596,
  "ĠRe": 4597,
  "Ġmeilleurs": 4598,
  "prÃ©sident": 4599,
  "expli": 4600,
  "Ġcommerciales": 4601,
  "Ġlangues": 4602,
  "ĠcrÃ©dit": 4603,
  "unitÃ©": 4604,
  "ĠdÃ©v": 4605,
  "Ġauront": 4606,
  "ĠnÃ©gli": 4607,
  "ĠarrivÃ©": 4608,
  "ĠNew": 4609,
  "Ġquot": 4610,
  "ĠsystÃ©": 4611,
  "ĠopÃ©ration": 4612,
  "Ġdisponibles": 4613,
  "olue": 4614,
  "Ġrappelle": 4615,
  "Ġimpact": 4616,
  "ĠminoritÃ©s": 4617,
  "ĠmÃ©canismes": 4618,
  "Ġnourriture": 4619,
  "Aussi": 4620,
  "rÃ©t": 4621,
  "Ġmontrent": 4622,
  "Ġfonctionner": 4623,
  "Ġefficacement": 4624,
  "Ġexpliquer": 4625,
  "Ã©rÃ©s": 4626,
  "onique": 4627,
  "tici": 4628,
  "Jus": 4629,
  "avie": 4630,
  "issait": 4631,
  "ĠsÃ»re": 4632,
  "Ġ60": 4633,
  "Ġdangereux": 4634,
  "istÃ©": 4635,
  "Ġconcitoyens": 4636,
  "Ġabou": 4637,
  "Ġaugmenter": 4638,
  "Ġsubstances": 4639,
  "entÃ´t": 4640,
  "ĠbientÃ´t": 4641,
  "ĠnÃ©gociation": 4642,
  "Ġmoyennes": 4643,
  "ĠÃ©volution": 4644,
  "Ġoffre": 4645,
  "akistan": 4646,
  "Asie": 4647,
  "tures": 4648,
  "Ġsac": 4649,
  "Ġsang": 4650,
  "Ã§u": 4651,
  "Ġmodification": 4652,
  "Peut": 4653,
  "Ġattirer": 4654,
  "Ġdisposer": 4655,
  "ĠdurÃ©e": 4656,
  "ĠCorÃ©e": 4657,
  "ule": 4658,
  "yth": 4659,
  "ĠconsidÃ©rÃ©": 4660,
  "Ġphase": 4661,
  "identi": 4662,
  "Ġcancer": 4663,
  "NG": 4664,
  "uni": 4665,
  "Ã©rant": 4666,
  "Ġcompens": 4667,
  "ĠvoilÃł": 4668,
  "ĠrÃ¨gle": 4669,
  "Ġbiens": 4670,
  "Ġchef": 4671,
  "Ġauxquels": 4672,
  "Ġallez": 4673,
  "ark": 4674,
  "raign": 4675,
  "Ġdemandes": 4676,
  "Ġfondamentale": 4677,
  "ĠprivÃ©": 4678,
  "Ġfaciliter": 4679,
  "Ġtend": 4680,
  "ĠPakistan": 4681,
  "Ġoui": 4682,
  "Ã»t": 4683,
  "Ã©tudes": 4684,
  "outes": 4685,
  "ĠcommunautÃ©s": 4686,
  "imm": 4687,
  "Ġoublier": 4688,
  "Ġisl": 4689,
  "oud": 4690,
  "Ġtri": 4691,
  "Ġplaisir": 4692,
  "ternet": 4693,
  "ĠchangÃ©": 4694,
  "Ġstatistiques": 4695,
  "osÃ©es": 4696,
  "roso": 4697,
  "aison": 4698,
  "Ġblanc": 4699,
  "Ġvisite": 4700,
  "Ġcerveau": 4701,
  "Ã¨se": 4702,
  "ĠDe": 4703,
  "Ġ1999": 4704,
  "Ġsatisfait": 4705,
  "DÃ¨s": 4706,
  "Ġcens": 4707,
  "itations": 4708,
  "Ġappare": 4709,
  "Ġfinancer": 4710,
  "Ġsituations": 4711,
  "Auc": 4712,
  "Ġprincipale": 4713,
  "aurais": 4714,
  "bres": 4715,
  "ĠâĻ«": 4716,
  "entrÃ©e": 4717,
  "Ġcontraign": 4718,
  "Ġcomprend": 4719,
  "Ġincroy": 4720,
  "Ġrapporteurs": 4721,
  "ĠÃ©tudiants": 4722,
  "Ġpertin": 4723,
  "Ġsubs": 4724,
  "Ġfamilles": 4725,
  "ĠdÃ©terminer": 4726,
  "Ġsept": 4727,
  "tt": 4728,
  "uy": 4729,
  "onom": 4730,
  "entiel": 4731,
  "Ġappliquer": 4732,
  "ĠthÃ¨me": 4733,
  "Ġlab": 4734,
  "Ġdroite": 4735,
  "oubli": 4736,
  "olÃ©": 4737,
  "Ġcourage": 4738,
  "gents": 4739,
  "Ġsoy": 4740,
  "Ġvingt": 4741,
  "Ġmarche": 4742,
  "Ġaccus": 4743,
  "ĠallÃ©": 4744,
  "ctur": 4745,
  "Ġaccorder": 4746,
  "ĠirrÃ©": 4747,
  "ume": 4748,
  "acitÃ©s": 4749,
  "ctifs": 4750,
  "Ġconsommateur": 4751,
  "Ġremarqu": 4752,
  "Ġjudiciaire": 4753,
  "obre": 4754,
  "Ġprennent": 4755,
  "Ġinuti": 4756,
  "Ġfondamentales": 4757,
  "Ġul": 4758,
  "Ġfille": 4759,
  "uln": 4760,
  "Ġmach": 4761,
  "Ġsouligne": 4762,
  "TroisiÃ¨mement": 4763,
  "bas": 4764,
  "usion": 4765,
  "examen": 4766,
  "ĠdÃ©charge": 4767,
  "ulnÃ©ra": 4768,
  "itables": 4769,
  "seur": 4770,
  "Ġhors": 4771,
  "ĠgÃ©nÃ©ration": 4772,
  "Ġdemandons": 4773,
  "ĠdÃ©putÃ©": 4774,
  "Ġmoderne": 4775,
  "Ã©taient": 4776,
  "Ġmilieu": 4777,
  "Ġprofiter": 4778,
  "ĠprÃ©server": 4779,
  "ju": 4780,
  "Ġpes": 4781,
  "ĠmÃ©r": 4782,
  "utri": 4783,
  "ctoire": 4784,
  "ĠÃ©quitable": 4785,
  "gouver": 4786,
  "aign": 4787,
  "indÃ©pendance": 4788,
  "Ġproche": 4789,
  "ĠdiffÃ©rent": 4790,
  "ĠÃ©tude": 4791,
  "Ġfacilement": 4792,
  "ĠBalk": 4793,
  "ovi": 4794,
  "arme": 4795,
  "itant": 4796,
  "iliser": 4797,
  "Ġexcessi": 4798,
  "ĠÃ©vidence": 4799,
  "Ġlivres": 4800,
  "Ġrelever": 4801,
  "fondi": 4802,
  "Ġvir": 4803,
  "aurer": 4804,
  "ĠplÃ©ni": 4805,
  "ĠextÃ©rieure": 4806,
  "Ġhan": 4807,
  "Ġitali": 4808,
  "ĠcapacitÃ©s": 4809,
  "ombe": 4810,
  "Ġprotoc": 4811,
  "ilatÃ©r": 4812,
  "Ġinfrastructures": 4813,
  "ĠrÃ©guli": 4814,
  "Ġpan": 4815,
  "arte": 4816,
  "Ġtotale": 4817,
  "ĠÃ©tablir": 4818,
  "ĠConfÃ©rence": 4819,
  "ĠexprimÃ©": 4820,
  "Ġextraordin": 4821,
  "Ã©laboration": 4822,
  "Ġmarchand": 4823,
  "Ġsuscepti": 4824,
  "inflation": 4825,
  "Ġsauve": 4826,
  "Ġexportations": 4827,
  "ĠphÃ©nomÃ¨ne": 4828,
  "ĠdÃ©cla": 4829,
  "ĠsÃ©rieusement": 4830,
  "ĠflexibilitÃ©": 4831,
  "rets": 4832,
  "nel": 4833,
  "nex": 4834,
  "ocrates": 4835,
  "Ġapprendre": 4836,
  "ographique": 4837,
  "dicap": 4838,
  "Ġsouveraine": 4839,
  "ĠvulnÃ©ra": 4840,
  "ĠrÃ©di": 4841,
  "ĠPologne": 4842,
  "actu": 4843,
  "Ġpuiss": 4844,
  "Ġactuelles": 4845,
  "Ġprincipales": 4846,
  "ĠrÃ©flexion": 4847,
  "oÃ¹": 4848,
  "ĠPro": 4849,
  "ĠHong": 4850,
  "ĠreflÃ¨": 4851,
  "Ġreprise": 4852,
  "ĠisraÃ©li": 4853,
  "Ġnations": 4854,
  "Ġsouci": 4855,
  "Ġ2001": 4856,
  "Ġmontant": 4857,
  "Ġmeilleures": 4858,
  "Ġapplication": 4859,
  "Ġdisposons": 4860,
  "SE": 4861,
  "dit": 4862,
  "Ġdemi": 4863,
  "apit": 4864,
  "Ġfroi": 4865,
  "ĠbÃ©nÃ©fices": 4866,
  "Ġglobal": 4867,
  "Non": 4868,
  "OÃ¹": 4869,
  "Ġdomm": 4870,
  "ertes": 4871,
  "Ġfrais": 4872,
  "rÃ©si": 4873,
  "Ġmode": 4874,
  "Ġcapables": 4875,
  "ĠcontribuÃ©": 4876,
  "Ġlaisse": 4877,
  "ĠportÃ©e": 4878,
  "ourir": 4879,
  "ĠPort": 4880,
  "Ġtransition": 4881,
  "Ġhandicap": 4882,
  "ĠMa": 4883,
  "miques": 4884,
  "Ġsession": 4885,
  "Ġcommentaires": 4886,
  "Ġtourisme": 4887,
  "ordi": 4888,
  "Ġbri": 4889,
  "Ġrevient": 4890,
  "Ġentrer": 4891,
  "ĠtravaillÃ©": 4892,
  "ĠconnaÃ®tre": 4893,
  "Ġpensent": 4894,
  "MalgrÃ©": 4895,
  "ĠcomplÃ©ment": 4896,
  "Ġvoyons": 4897,
  "exemple": 4898,
  "onnÃ©": 4899,
  "Ġespoir": 4900,
  "landaise": 4901,
  "ĠÃ©poque": 4902,
  "Ġlien": 4903,
  "enant": 4904,
  "Ġcrises": 4905,
  "Ġrelativement": 4906,
  "ĠBalkans": 4907,
  "Ġvert": 4908,
  "he": 4909,
  "Ġ-,": 4910,
  "Ġfacteurs": 4911,
  "Ġanalys": 4912,
  "visionnement": 4913,
  "oblig": 4914,
  "ĠlÃ©gislatif": 4915,
  "ĠacceptÃ©": 4916,
  "Ġbrut": 4917,
  "Ġ80": 4918,
  "Ġbureau": 4919,
  "gouvernement": 4920,
  "onie": 4921,
  "Ġrusse": 4922,
  "sidi": 4923,
  "autant": 4924,
  "Ġarm": 4925,
  "Ġauraient": 4926,
  "Ġinstitution": 4927,
  "Ġfacteur": 4928,
  "ĠscÃ¨ne": 4929,
  "Ġerreurs": 4930,
  "rich": 4931,
  "Ġprogresser": 4932,
  "Ġaccr": 4933,
  "obtenir": 4934,
  "Ġconnais": 4935,
  "tionnels": 4936,
  "atoires": 4937,
  "Ġesprit": 4938,
  "ĠFMI": 4939,
  "ĠconnaÃ®t": 4940,
  "Ġvaste": 4941,
  "asser": 4942,
  "Ġpossibles": 4943,
  "reuses": 4944,
  "anal": 4945,
  "isant": 4946,
  "Ġrasse": 4947,
  "ĠMal": 4948,
  "Ġessentiels": 4949,
  "Ġmajeure": 4950,
  "IsraÃ«l": 4951,
  "Ġpositions": 4952,
  "ĠprÃ©paration": 4953,
  "Ġviande": 4954,
  "Ġmanger": 4955,
  "Ġagences": 4956,
  "Ġaurons": 4957,
  "illage": 4958,
  "ĠtÃ©moi": 4959,
  "Ġmises": 4960,
  "ork": 4961,
  "Ã¨ge": 4962,
  "ĠÃ©trangers": 4963,
  "Ġiss": 4964,
  "erc": 4965,
  "isÃ©": 4966,
  "sif": 4967,
  "ĠFin": 4968,
  "Ġorig": 4969,
  "ĠÃ©volu": 4970,
  "Ġvouloir": 4971,
  "Ġambitieux": 4972,
  "ĠplÃ©niÃ¨re": 4973,
  "Ġcla": 4974,
  "ĠdÃ©lai": 4975,
  "Ġdo": 4976,
  "ouer": 4977,
  "Ġcommuni": 4978,
  "Ġdiverses": 4979,
  "dation": 4980,
  "Ġordre": 4981,
  "ares": 4982,
  "Ġvoulu": 4983,
  "Ġsubventions": 4984,
  "Ġdouble": 4985,
  "armÃ©e": 4986,
  "ĠconsidÃ©rables": 4987,
  "Ġhonn": 4988,
  "ril": 4989,
  "Ġconstituer": 4990,
  "retagne": 4991,
  "Ġcalend": 4992,
  "enseignement": 4993,
  "enh": 4994,
  "Ġauparavant": 4995,
  "Ġperte": 4996,
  "Ġconstitution": 4997,
  "Ġcalcul": 4998,
  "Ġconduite": 4999,
  "alisÃ©": 5000,
  "Ġexemples": 5001,
  "Ġ2020": 5002,
  "Ġcommercial": 5003,
  "Ġexaminer": 5004,
  "crit": 5005,
  "viend": 5006,
  "Ġcarte": 5007,
  "Ġcrucial": 5008,
  "Ġquotas": 5009,
  "ĠmatiÃ¨res": 5010,
  "institu": 5011,
  "Ġobjet": 5012,
  "Ġsavent": 5013,
  "ster": 5014,
  "ash": 5015,
  "ainte": 5016,
  "fiÃ©es": 5017,
  "ĠrÃ©tab": 5018,
  "ĠgÃ©rer": 5019,
  "Ã©rance": 5020,
  "Ġgarde": 5021,
  "Ġchoisir": 5022,
  "Ġreti": 5023,
  "ĠCO": 5024,
  "Ġtrou": 5025,
  "Ġambi": 5026,
  "ĠcrÃ©dibilitÃ©": 5027,
  "Sa": 5028,
  "Ġbles": 5029,
  "instant": 5030,
  "itude": 5031,
  "ĠÃ©cl": 5032,
  "ĠquantitÃ©": 5033,
  "Ã¡": 5034,
  "ĠsuÃ©d": 5035,
  "ĠdÃ©pl": 5036,
  "Ġprivil": 5037,
  "Ġ2002": 5038,
  "Ġinvestisseurs": 5039,
  "ĠtÃ©lÃ©vision": 5040,
  "Ġfermement": 5041,
  "Ġcompagnies": 5042,
  "ades": 5043,
  "ĠconsidÃ©rablement": 5044,
  "Ġconduit": 5045,
  "gyp": 5046,
  "Ġfonde": 5047,
  "lie": 5048,
  "Ġoeuvre": 5049,
  "Ġ21": 5050,
  "ĠprÃ©parer": 5051,
  "Ġcompter": 5052,
  "Ġbreve": 5053,
  "ties": 5054,
  "Ġaffec": 5055,
  "Car": 5056,
  "rovi": 5057,
  "ĠrÃ¨glements": 5058,
  "ĠrÃ©duit": 5059,
  "Ġfamili": 5060,
  "ĠPays": 5061,
  "bation": 5062,
  "osti": 5063,
  "Ġchale": 5064,
  "Ġraisonnable": 5065,
  "mans": 5066,
  "Ġsuivant": 5067,
  "ĠÃ©quiv": 5068,
  "ctricitÃ©": 5069,
  "ĠcomplÃ¨te": 5070,
  "Ġanalyse": 5071,
  "Ġcellules": 5072,
  "Ġvoitures": 5073,
  "ĠÃ©voquÃ©": 5074,
  "odi": 5075,
  "Ġobli": 5076,
  "Ġpermettent": 5077,
  "tiss": 5078,
  "Ġfins": 5079,
  "Ã¨vement": 5080,
  "amer": 5081,
  "ĠSuÃ¨de": 5082,
  "litÃ©": 5083,
  "arrÃª": 5084,
  "excel": 5085,
  "Ġaccueil": 5086,
  "ĠjouÃ©": 5087,
  "Ġorganisation": 5088,
  "bal": 5089,
  "encour": 5090,
  "ondu": 5091,
  "alisÃ©e": 5092,
  "Ġcollab": 5093,
  "Ġcourant": 5094,
  "arr": 5095,
  "Ġactuels": 5096,
  "Ġespace": 5097,
  "ĠreprÃ©sentant": 5098,
  "Ġmodifications": 5099,
  "ĠprospÃ©ritÃ©": 5100,
  "Ġjustement": 5101,
  "Cha": 5102,
  "enons": 5103,
  "ĠparaÃ®t": 5104,
  "Ġbar": 5105,
  "ĠutilisÃ©s": 5106,
  "Ġsubsidi": 5107,
  "ĠentiÃ¨re": 5108,
  "ĠprÃªte": 5109,
  "nelle": 5110,
  "Ġintergouvernement": 5111,
  "Ġimmi": 5112,
  "Ġtenter": 5113,
  "sterdam": 5114,
  "ouÃ©": 5115,
  "telle": 5116,
  "Ġinsister": 5117,
  "Ġtravaillent": 5118,
  "ĠÃ©lecteurs": 5119,
  "Ġfavoriser": 5120,
  "cidents": 5121,
  "Ġprotocole": 5122,
  "ĠPortug": 5123,
  "ccident": 5124,
  "Ġinnov": 5125,
  "Ġtribun": 5126,
  "Ġcrimes": 5127,
  "Ġapprofondi": 5128,
  "once": 5129,
  "ĠÃ©nergie": 5130,
  "Ġattendons": 5131,
  "Ġmodern": 5132,
  "ĠBarroso": 5133,
  "ĠrelÃ¨ve": 5134,
  "Ġeffort": 5135,
  "Ġparlements": 5136,
  "aucun": 5137,
  "oine": 5138,
  "ĠfÃ©": 5139,
  "ĠrÃ©si": 5140,
  "Ġsoum": 5141,
  "Ġconsultation": 5142,
  "Ġoccup": 5143,
  "ed": 5144,
  "mar": 5145,
  "Ġsurf": 5146,
  "ĠrÃ©gimes": 5147,
  "Ġcitoyen": 5148,
  "Ġgaranties": 5149,
  "rette": 5150,
  "urant": 5151,
  "ĠÃ©chec": 5152,
  "Ġpositifs": 5153,
  "imag": 5154,
  "ĠdÃ©tails": 5155,
  "ĠopÃ©rations": 5156,
  "Ġsymb": 5157,
  "Ġsatisfais": 5158,
  "Ġfigure": 5159,
  "Chaque": 5160,
  "ck": 5161,
  "ĠlancÃ©": 5162,
  "Ġtch": 5163,
  "andes": 5164,
  "Ġclari": 5165,
  "ĠUSA": 5166,
  "ĠdÃ©cennies": 5167,
  "Ġ27": 5168,
  "ĠrÃ©cente": 5169,
  "Ġretrait": 5170,
  "Ġrural": 5171,
  "garde": 5172,
  "Ã¢ge": 5173,
  "Ġjuillet": 5174,
  "comm": 5175,
  "Ã©chec": 5176,
  "Ġeaux": 5177,
  "Ġvites": 5178,
  "ĠdÃ©lais": 5179,
  "Ġargent": 5180,
  "Ġestimons": 5181,
  "Ġgrec": 5182,
  "Nos": 5183,
  "Ġjapon": 5184,
  "Ġbel": 5185,
  "Ġcontent": 5186,
  "ĠSerb": 5187,
  "accomp": 5188,
  "ĠjournÃ©e": 5189,
  "ĠmentionnÃ©": 5190,
  "CP": 5191,
  "Ġposte": 5192,
  "Ã®ne": 5193,
  "ĠII": 5194,
  "Ġcombattre": 5195,
  "Ġralenti": 5196,
  "ĠrÃ©cession": 5197,
  "Ġinjus": 5198,
  "Ġcesse": 5199,
  "Ġrecevoir": 5200,
  "assurance": 5201,
  "Ceux": 5202,
  "Toutes": 5203,
  "euses": 5204,
  "Ġsin": 5205,
  "examin": 5206,
  "Ġphysique": 5207,
  "ĠvÃ©hicules": 5208,
  "Espagne": 5209,
  "len": 5210,
  "Ġbois": 5211,
  "apprÃ©ci": 5212,
  "Ġquels": 5213,
  "phÃ¨re": 5214,
  "Ġnaturelles": 5215,
  "Ġorientations": 5216,
  "Ġfuture": 5217,
  "Ġautomob": 5218,
  "Ġendroit": 5219,
  "animitÃ©": 5220,
  "Ġmaritime": 5221,
  "unis": 5222,
  "Ġrequ": 5223,
  "ttement": 5224,
  "Ġvotes": 5225,
  "Ġfront": 5226,
  "Ġcalendrier": 5227,
  "ĠsubsidiaritÃ©": 5228,
  "Ġdiss": 5229,
  "Ġhor": 5230,
  "chement": 5231,
  "Ġquasi": 5232,
  "Ã©tablir": 5233,
  "Italie": 5234,
  "pit": 5235,
  "trÃ©": 5236,
  "Ġhyp": 5237,
  "Ġhuit": 5238,
  "ĠdÃ©cou": 5239,
  "ĠcriminalitÃ©": 5240,
  "Ã©tranger": 5241,
  "Avant": 5242,
  "Ġfau": 5243,
  "Ġvieux": 5244,
  "eaucoup": 5245,
  "Ġmusique": 5246,
  "ĠprofondÃ©ment": 5247,
  "Ġobstacles": 5248,
  "ĠVous": 5249,
  "ĠÃ©tions": 5250,
  "chauff": 5251,
  "ĠPPE": 5252,
  "ĠindiquÃ©": 5253,
  "Ġchoisi": 5254,
  "Ġvoulait": 5255,
  "Ġdevrons": 5256,
  "ĠinterprÃ©": 5257,
  "Ġferrovi": 5258,
  "Ġimage": 5259,
  "Ġscand": 5260,
  "Ġparvenus": 5261,
  "Re": 5262,
  "rime": 5263,
  "ĠCong": 5264,
  "endent": 5265,
  "Ġtabac": 5266,
  "harmonisation": 5267,
  "Ã©b": 5268,
  "Ġlac": 5269,
  "Ġetc": 5270,
  "Ġrece": 5271,
  "ĠplaÃ®t": 5272,
  "Ġvies": 5273,
  "Ġcode": 5274,
  "exercice": 5275,
  "Ġsaur": 5276,
  "Ġregrette": 5277,
  "Ġcarbone": 5278,
  "Ġpure": 5279,
  "ĠmobilitÃ©": 5280,
  "ĠprÃ©al": 5281,
  "Ġpersonn": 5282,
  "Ġ197": 5283,
  "Ġpassagers": 5284,
  "ĠrÃ©gional": 5285,
  "Ġinfluence": 5286,
  "Ġfraude": 5287,
  "Ġcycle": 5288,
  "ĠPortugal": 5289,
  "issaires": 5290,
  "ĠdÃ©plac": 5291,
  "Ġnav": 5292,
  "Ġfal": 5293,
  "Ġconduire": 5294,
  "ĠCop": 5295,
  "Ġtouche": 5296,
  "Ã´ts": 5297,
  "Ġmajeur": 5298,
  "Ã©tablissement": 5299,
  "mique": 5300,
  "Ġtypes": 5301,
  "50": 5302,
  "dez": 5303,
  "Ġpuisqu": 5304,
  "Ġsymp": 5305,
  "ĠessayÃ©": 5306,
  "Ġfavorables": 5307,
  "Ġdevenue": 5308,
  "Pr": 5309,
  "Ġrob": 5310,
  "Ġserons": 5311,
  "ĠapportÃ©": 5312,
  "oyer": 5313,
  "exÃ©cution": 5314,
  "Ã©qui": 5315,
  "ĠDieu": 5316,
  "Ġsoutenons": 5317,
  "ok": 5318,
  "ind": 5319,
  "Ġeth": 5320,
  "agissant": 5321,
  "Ġapparti": 5322,
  "Ġclaires": 5323,
  "impli": 5324,
  "ĠconcernÃ©es": 5325,
  "Quant": 5326,
  "verse": 5327,
  "Ġexcell": 5328,
  "Ġpermettrait": 5329,
  "oz": 5330,
  "Ġciter": 5331,
  "annÃ©es": 5332,
  "Ġirlandais": 5333,
  "affaire": 5334,
  "Pendant": 5335,
  "Ġcam": 5336,
  "Ġvendre": 5337,
  "chant": 5338,
  "ĠactivitÃ©": 5339,
  "ĠdÃ©sas": 5340,
  "Ġcommerciale": 5341,
  "engen": 5342,
  "ĠentraÃ®ner": 5343,
  "ĠlÃ©gitim": 5344,
  "Ġpollution": 5345,
  "ohn": 5346,
  "Ġsent": 5347,
  "Ġmerci": 5348,
  "estation": 5349,
  "Ġannuel": 5350,
  "Ġfutures": 5351,
  "ĠrencontrÃ©": 5352,
  "oient": 5353,
  "guer": 5354,
  "Ġfaisait": 5355,
  "Ġpuissions": 5356,
  "Ġphoto": 5357,
  "Ġrenouvelables": 5358,
  "tables": 5359,
  "Ġsport": 5360,
  "Ġdic": 5361,
  "ssement": 5362,
  "Ġsouhaitent": 5363,
  "Ġpratiquement": 5364,
  "ĠsÃ©v": 5365,
  "Ġnomm": 5366,
  "Ġtru": 5367,
  "Ġach": 5368,
  "anitÃ©": 5369,
  "Ġlic": 5370,
  "Ġfinir": 5371,
  "lace": 5372,
  "ĠdÃ©pass": 5373,
  "ĠmaÃ®": 5374,
  "ĠDan": 5375,
  "Ġemprun": 5376,
  "ĠKy": 5377,
  "Ġcrime": 5378,
  "engager": 5379,
  "Ġversion": 5380,
  "ĠthÃ©orie": 5381,
  "enhague": 5382,
  "fe": 5383,
  "ĠBrÃ©si": 5384,
  "ĠintÃ©ri": 5385,
  "Ġ500": 5386,
  "ĠlaissÃ©": 5387,
  "Ġcontinuent": 5388,
  "aci": 5389,
  "user": 5390,
  "Ġsigne": 5391,
  "Ġinterven": 5392,
  "Ġexperts": 5393,
  "Ġcriti": 5394,
  "Ġrouti": 5395,
  "ĠavancÃ©es": 5396,
  "Seu": 5397,
  "endue": 5398,
  "avÃ¨re": 5399,
  "instru": 5400,
  "Ġphras": 5401,
  "Ġsupprimer": 5402,
  "Ġinflu": 5403,
  "Ġculturelle": 5404,
  "Ġsold": 5405,
  "gypte": 5406,
  "Ġsil": 5407,
  "oto": 5408,
  "Ġstab": 5409,
  "ĠindÃ©pendant": 5410,
  "ĠSchengen": 5411,
  "atteindre": 5412,
  "matiques": 5413,
  "Ġsoup": 5414,
  "Ġconception": 5415,
  "Ġflux": 5416,
  "Ġamp": 5417,
  "Ġmotiv": 5418,
  "exploitation": 5419,
  "ĠCopenhague": 5420,
  "Bas": 5421,
  "Ġbate": 5422,
  "alisÃ©s": 5423,
  "ĠgÃ©nÃ©tique": 5424,
  "ĠrÃ©unions": 5425,
  "Ġrevanche": 5426,
  "Ġminimum": 5427,
  "Jusqu": 5428,
  "Beaucoup": 5429,
  "sy": 5430,
  "Ġintelle": 5431,
  "Ġproc": 5432,
  "ĠrÃ©alisÃ©s": 5433,
  "Ġeuros": 5434,
  "ĠdifficultÃ©": 5435,
  "approvisionnement": 5436,
  "oint": 5437,
  "Ġlatine": 5438,
  "Ã©rop": 5439,
  "Ġliens": 5440,
  "Ġ24": 5441,
  "ĠproposÃ©s": 5442,
  "ĠpiÃ¨ce": 5443,
  "Oui": 5444,
  "Ġrare": 5445,
  "Ġrepose": 5446,
  "influence": 5447,
  "Ġpou": 5448,
  "Ġprobable": 5449,
  "Ġsocialiste": 5450,
  "Ġdites": 5451,
  "export": 5452,
  "Ġ%.": 5453,
  "Ġ70": 5454,
  "accepter": 5455,
  "mation": 5456,
  "ĠnÃ©cessi": 5457,
  "Ġacceptable": 5458,
  "ĠprÃ©occupation": 5459,
  "Ġenvisage": 5460,
  "ĠpropriÃ©tÃ©": 5461,
  "ĠÃ©limin": 5462,
  "Ġpacifique": 5463,
  "Ġintellectu": 5464,
  "ĠnÃ©cessite": 5465,
  "Ġharmon": 5466,
  "Ġperform": 5467,
  "obser": 5468,
  "ĠcrÃ©e": 5469,
  "Ġaffe": 5470,
  "ĠHam": 5471,
  "Ġ1998": 5472,
  "Ġtaxe": 5473,
  "lantique": 5474,
  "bourg": 5475,
  "ĠhÃ©": 5476,
  "ĠSh": 5477,
  "isions": 5478,
  "Ġpersonnellement": 5479,
  "ĠrÃ©gionales": 5480,
  "ĠObama": 5481,
  "Ġ90": 5482,
  "Ġfournit": 5483,
  "Ġoctobre": 5484,
  "Ġorigin": 5485,
  "ĠBulg": 5486,
  "ĠrÃ©gler": 5487,
  "Ã©lectricitÃ©": 5488,
  "Ġcertes": 5489,
  "ĠextÃ©rieures": 5490,
  "ĠBrÃ©sil": 5491,
  "hÃ©rence": 5492,
  "ĠOn": 5493,
  "Ġment": 5494,
  "orient": 5495,
  "Ġru": 5496,
  "ĠbilatÃ©r": 5497,
  "Ġsurm": 5498,
  "ĠPalestini": 5499,
  "Ġdivis": 5500,
  "aint": 5501,
  "autoritÃ©": 5502,
  "Ġrelatifs": 5503,
  "ĠChyp": 5504,
  "Ġchute": 5505,
  "lit": 5506,
  "Ġadress": 5507,
  "Ġpartager": 5508,
  "aissent": 5509,
  "ĠprÃ©cise": 5510,
  "Ġreligie": 5511,
  "Ġenvisager": 5512,
  "Ġchapit": 5513,
  "ĠrÃ©pondu": 5514,
  "ĠpensÃ©": 5515,
  "Ġhumaines": 5516,
  "ĠpublicitÃ©": 5517,
  "ĠinquiÃ©tudes": 5518,
  "Ġcatastrophes": 5519,
  "Ġoccidentaux": 5520,
  "Ġdemeure": 5521,
  "cieux": 5522,
  "Ġmultila": 5523,
  "ĠpossÃ¨de": 5524,
  "Ġreconstruction": 5525,
  "Ġbienven": 5526,
  "Ġcapitale": 5527,
  "Ġtempor": 5528,
  "arrÃªt": 5529,
  "mentation": 5530,
  "ĠCro": 5531,
  "Ġcommuns": 5532,
  "ĠadÃ©quate": 5533,
  "ĠapprouvÃ©": 5534,
  "tiennent": 5535,
  "Ġfas": 5536,
  "Ġprie": 5537,
  "Ġaudi": 5538,
  "ĠrÃ©chauff": 5539,
  "Ġillus": 5540,
  "ĠÃªtres": 5541,
  "Ġsusp": 5542,
  "Ġpreuves": 5543,
  "Ġexistent": 5544,
  "Ġsauver": 5545,
  "hou": 5546,
  "ĠAllemagne": 5547,
  "Ġoffrir": 5548,
  "Ġformuler": 5549,
  "Ġrecommandation": 5550,
  "Ġprofessionnelle": 5551,
  "humanitÃ©": 5552,
  "Bretagne": 5553,
  "Ġimportations": 5554,
  "Ġcauses": 5555,
  "Ġrecherches": 5556,
  "Ġspect": 5557,
  "ĠprÃ©venir": 5558,
  "Ġfini": 5559,
  "Ġinterne": 5560,
  "ĠGu": 5561,
  "Ġenvironnementale": 5562,
  "Ġlocaux": 5563,
  "ĠsecrÃ©t": 5564,
  "Ġauxquelles": 5565,
  "Ġmarchandises": 5566,
  "Ġnoir": 5567,
  "ĠCan": 5568,
  "Ġacte": 5569,
  "ctivitÃ©": 5570,
  "entement": 5571,
  "ĠLiv": 5572,
  "ĠproposÃ©e": 5573,
  "Ġdynamique": 5574,
  "Ġleaders": 5575,
  "ka": 5576,
  "ony": 5577,
  "ganisation": 5578,
  "Ġnaturel": 5579,
  "Ġconstate": 5580,
  "las": 5581,
  "appar": 5582,
  "Ġpensais": 5583,
  "Ġviolations": 5584,
  "Ġaccrue": 5585,
  "Ġpap": 5586,
  "ĠBCE": 5587,
  "ĠdÃ©pit": 5588,
  "Ġenseign": 5589,
  "enfants": 5590,
  "Eh": 5591,
  "ĠrÃ©agir": 5592,
  "Ġappor": 5593,
  "Ã©vrier": 5594,
  "ĠamÃ©lioration": 5595,
  "Ġconscients": 5596,
  "Ġchiffre": 5597,
  "Ġrestrictions": 5598,
  "ĠBulgarie": 5599,
  "nÃ©es": 5600,
  "Ġfo": 5601,
  "ĠCol": 5602,
  "onnÃ©e": 5603,
  "Ġconciliation": 5604,
  "Ġartis": 5605,
  "Ġpassage": 5606,
  "Ġutilisation": 5607,
  "ĠÃ©troite": 5608,
  "Ġbu": 5609,
  "assistance": 5610,
  "Ġsalari": 5611,
  "Ġtechnologique": 5612,
  "aurait": 5613,
  "ĠsystÃ©matique": 5614,
  "examiner": 5615,
  "Ġmorts": 5616,
  "Ġincap": 5617,
  "Ġsolide": 5618,
  "Ġretraite": 5619,
  "Ġanciens": 5620,
  "aj": 5621,
  "Ġlon": 5622,
  "Ġmerve": 5623,
  "osse": 5624,
  "ulaire": 5625,
  "ĠÃ©valu": 5626,
  "ombien": 5627,
  "Ġarticle": 5628,
  "Ġpoursuite": 5629,
  "ĠCar": 5630,
  "ĠproblÃ©": 5631,
  "ĠGaz": 5632,
  "Ġpensez": 5633,
  "ĠÃ©vid": 5634,
  "ĠmodÃ¨les": 5635,
  "ĠfranÃ§aise": 5636,
  "ajou": 5637,
  "apporter": 5638,
  "Ġliqui": 5639,
  "Ġimpression": 5640,
  "Ġfonctionnaires": 5641,
  "lova": 5642,
  "Agence": 5643,
  "Bon": 5644,
  "Ġuns": 5645,
  "Ġblo": 5646,
  "Ġressemble": 5647,
  "association": 5648,
  "mÃ©di": 5649,
  "ĠIls": 5650,
  "Ġsovi": 5651,
  "Ġdestruction": 5652,
  "Ġdeviennent": 5653,
  "Ġimposer": 5654,
  "Ġvertu": 5655,
  "Ġenvironnementales": 5656,
  "tez": 5657,
  "Ġbord": 5658,
  "Ġpertes": 5659,
  "Ġressort": 5660,
  "ĠÃ©chelle": 5661,
  "applique": 5662,
  "ĠcomprÃ©hension": 5663,
  "Ġfall": 5664,
  "ĠvidÃ©": 5665,
  "Ġintervenir": 5666,
  "Ġorganismes": 5667,
  "Ġnavires": 5668,
  "urÃ©": 5669,
  "unanimitÃ©": 5670,
  "ĠexÃ©cu": 5671,
  "Ġmarque": 5672,
  "Ġopinion": 5673,
  "Ġreconnu": 5674,
  "effet": 5675,
  "ĠamÃ©ricaines": 5676,
  "Ġpartenaire": 5677,
  "Ġax": 5678,
  "ĠSe": 5679,
  "Ġcinqu": 5680,
  "Ġinstall": 5681,
  "ĠtÃ¢ches": 5682,
  "Ġconvaincre": 5683,
  "ĠdÃ©lic": 5684,
  "Ġarguments": 5685,
  "Certes": 5686,
  "tan": 5687,
  "ĠÃ©coles": 5688,
  "Ġremettre": 5689,
  "gnitÃ©": 5690,
  "ĠprÃ©sidents": 5691,
  "Ġpaiement": 5692,
  "ĠinfÃ©ri": 5693,
  "ĠaugmentÃ©": 5694,
  "Ġbloc": 5695,
  "ĠappropriÃ©e": 5696,
  "ik": 5697,
  "entendre": 5698,
  "ĠÃ©change": 5699,
  "Ġmentionner": 5700,
  "augmenter": 5701,
  "Ġconserv": 5702,
  "ĠdÃ©couvert": 5703,
  "Ġoutils": 5704,
  "Ġremarquable": 5705,
  "oÃ»t": 5706,
  "uad": 5707,
  "ĠfÃ©vrier": 5708,
  "Ġcontact": 5709,
  "ĠAfghanistan": 5710,
  "ĠprÃ©sents": 5711,
  "ĠdÃ©battre": 5712,
  "tivement": 5713,
  "Ġindustrielle": 5714,
  "ĠdÃ©posÃ©": 5715,
  "Ġpost": 5716,
  "Ġprior": 5717,
  "Ġcultures": 5718,
  "ĠintÃ©rieures": 5719,
  "ĠÃ©nergÃ©tiques": 5720,
  "ĠspÃ©c": 5721,
  "ĠYork": 5722,
  "ĠrÃ©parti": 5723,
  "ĠinÃ©v": 5724,
  "ĠdignitÃ©": 5725,
  "Ġpouvaient": 5726,
  "Ġfinances": 5727,
  "ĠVerts": 5728,
  "Ġinformation": 5729,
  "Ġ0": 5730,
  "endi": 5731,
  "ĠÃ©lu": 5732,
  "agissait": 5733,
  "ack": 5734,
  "Ġirak": 5735,
  "ĠlÃ©gislatives": 5736,
  "Ġbanque": 5737,
  "Ġsubstanti": 5738,
  "allÃ¨lement": 5739,
  "ĠPalestiniens": 5740,
  "Ġpsy": 5741,
  "ana": 5742,
  "Ġmic": 5743,
  "ayer": 5744,
  "interdiction": 5745,
  "Ġ1997": 5746,
  "ĠpÃªcheurs": 5747,
  "Ġsyndic": 5748,
  "ĠdÃ©sastre": 5749,
  "Ġden": 5750,
  "tras": 5751,
  "ĠGÃ©": 5752,
  "Ġrestru": 5753,
  "Ġsuppose": 5754,
  "Ġreligion": 5755,
  "Ġintergouvernementale": 5756,
  "orgie": 5757,
  "Ġfilles": 5758,
  "Ġdesc": 5759,
  "cule": 5760,
  "ĠEur": 5761,
  "Ġaffai": 5762,
  "Ġplani": 5763,
  "Ġpaiements": 5764,
  "ĠprivÃ©e": 5765,
  "ĠdÃ©termination": 5766,
  "cription": 5767,
  "Ġkil": 5768,
  "ĠsouverainetÃ©": 5769,
  "obligation": 5770,
  "gente": 5771,
  "ĠdegrÃ©": 5772,
  "estre": 5773,
  "Ġrej": 5774,
  "Ġdisait": 5775,
  "Ġautrement": 5776,
  "versaire": 5777,
  "Ġpressions": 5778,
  "Ġsalaires": 5779,
  "Ġconnaissent": 5780,
  "chite": 5781,
  "vons": 5782,
  "Ġdon": 5783,
  "oug": 5784,
  "nier": 5785,
  "ĠprÃ©cÃ©": 5786,
  "Ġviolation": 5787,
  "Ġapplic": 5788,
  "Ġhabitants": 5789,
  "Mesdames": 5790,
  "ĠlÃ©gitimitÃ©": 5791,
  "ĠSy": 5792,
  "Ġorateurs": 5793,
  "Ġaliments": 5794,
  "Ġconnaissons": 5795,
  "ĠrevÃªt": 5796,
  "ajouter": 5797,
  "Ġfils": 5798,
  "ilis": 5799,
  "tÃ©rale": 5800,
  "oivent": 5801,
  "Ġdisant": 5802,
  "Ġmenaces": 5803,
  "Ġ1990": 5804,
  "Ġfixer": 5805,
  "Ġorganes": 5806,
  "Ġvitesse": 5807,
  "ores": 5808,
  "Ġgui": 5809,
  "Ġavril": 5810,
  "Ġhonte": 5811,
  "Ġsoud": 5812,
  "Ã´pit": 5813,
  "ĠTerre": 5814,
  "Ġsimples": 5815,
  "Ġayons": 5816,
  "ctrices": 5817,
  "Organisation": 5818,
  "ĠSerbie": 5819,
  "sias": 5820,
  "Ġbil": 5821,
  "Ġhom": 5822,
  "ĠdÃ©clin": 5823,
  "extÃ©rieur": 5824,
  "ĠfondÃ©e": 5825,
  "Ġincont": 5826,
  "ĠsÃ©le": 5827,
  "Ġremarquer": 5828,
  "Ġanglais": 5829,
  "ĠfÃ©d": 5830,
  "ĠutilisÃ©e": 5831,
  "ĠprÃ©ciser": 5832,
  "rÃ©tiens": 5833,
  "Ġmerveille": 5834,
  "Ob": 5835,
  "erti": 5836,
  "itons": 5837,
  "Ġprati": 5838,
  "Ġincon": 5839,
  "Ġcommissaires": 5840,
  "isson": 5841,
  "ĠintÃ©gr": 5842,
  "ĠprivÃ©s": 5843,
  "ĠaÃ©rien": 5844,
  "ia": 5845,
  "ĠmÃ©n": 5846,
  "ĠÃ®": 5847,
  "Ġfail": 5848,
  "Ġdessus": 5849,
  "anter": 5850,
  "Ġactifs": 5851,
  "ĠadoptÃ©es": 5852,
  "ĠorganisÃ©": 5853,
  "oleil": 5854,
  "Ġtentative": 5855,
  "Ġminute": 5856,
  "Ġbo": 5857,
  "Ġconjoin": 5858,
  "Ġcroissante": 5859,
  "ĠrÃ©side": 5860,
  "trait": 5861,
  "Ġinterventions": 5862,
  "empÃªcher": 5863,
  "ĠdÃ©bou": 5864,
  "ĠrÃ©pÃ©ter": 5865,
  "Ġconcernent": 5866,
  "ĠgÃ©nÃ©rations": 5867,
  "onorable": 5868,
  "Ġsurface": 5869,
  "Ġration": 5870,
  "Ġmoteur": 5871,
  "Ġrappro": 5872,
  "ĠrÃ©solu": 5873,
  "Ġrencontre": 5874,
  "ĠAmÃ©rique": 5875,
  "Ġacheter": 5876,
  "Ġarabe": 5877,
  "housias": 5878,
  "dÃ©c": 5879,
  "inions": 5880,
  "lions": 5881,
  "ĠprÃ©ju": 5882,
  "Ġtransformer": 5883,
  "Ġressor": 5884,
  "ĠdestinÃ©es": 5885,
  "Ġindividus": 5886,
  "lite": 5887,
  "Ġvictoire": 5888,
  "Ġmillion": 5889,
  "ĠIrlande": 5890,
  "Ġretrouver": 5891,
  "ĠamÃ©liorations": 5892,
  "ĠdÃ©marche": 5893,
  "Ġneuf": 5894,
  "ĠcohÃ©rente": 5895,
  "atÃ©": 5896,
  "avec": 5897,
  "Ġnaiss": 5898,
  "Ġpours": 5899,
  "Ġmodes": 5900,
  "ĠrÃ©pu": 5901,
  "ĠrÃ©perc": 5902,
  "ĠproposÃ©es": 5903,
  "Ġmaximum": 5904,
  "ĠMac": 5905,
  "iel": 5906,
  "ĠliÃ©e": 5907,
  "ĠcohÃ©rence": 5908,
  "Ġphil": 5909,
  "ĠlÃ©gislative": 5910,
  "ĠfrontiÃ¨re": 5911,
  "Ġurb": 5912,
  "Ġendroits": 5913,
  "Ã©quipe": 5914,
  "Ġfinance": 5915,
  "ĠBos": 5916,
  "gnÃ©": 5917,
  "Ġatti": 5918,
  "Ġmondiaux": 5919,
  "arrive": 5920,
  "Ġsignificative": 5921,
  "ĠexpÃ©riences": 5922,
  "long": 5923,
  "union": 5924,
  "ĠleÃ§ons": 5925,
  "ast": 5926,
  "Ġparoles": 5927,
  "ĠrÃ©glementations": 5928,
  "Ġobligatoire": 5929,
  "Ã©diterranÃ©e": 5930,
  "ĠsincÃ¨rement": 5931,
  "ĠHamas": 5932,
  "ĠLivre": 5933,
  "ĠGÃ©orgie": 5934,
  "ĠrÃ©solutions": 5935,
  "Ġcorri": 5936,
  "Ġexistantes": 5937,
  "ĠbriÃ¨vement": 5938,
  "exportation": 5939,
  "itants": 5940,
  "tisation": 5941,
  "Ġreprendre": 5942,
  "ĠdestinÃ©s": 5943,
  "Ġhabitu": 5944,
  "Ġratification": 5945,
  "Ġfruits": 5946,
  "Ġquin": 5947,
  "agÃ©e": 5948,
  "roit": 5949,
  "Ġacqu": 5950,
  "ĠElle": 5951,
  "versitÃ©": 5952,
  "ĠONG": 5953,
  "effond": 5954,
  "internet": 5955,
  "Amsterdam": 5956,
  "Ġhauteur": 5957,
  "ĠChypre": 5958,
  "Occident": 5959,
  "ry": 5960,
  "ĠÃ©tats": 5961,
  "tera": 5962,
  "uxemb": 5963,
  "gement": 5964,
  "ĠposÃ©": 5965,
  "Ġattentes": 5966,
  "Ġvoisinage": 5967,
  "Â«": 5968,
  "ories": 5969,
  "Ġriche": 5970,
  "ĠdÃ©veloppÃ©s": 5971,
  "ĠreflÃ¨te": 5972,
  "ĠpÃ©ti": 5973,
  "old": 5974,
  "fici": 5975,
  "Ġconstitutionnel": 5976,
  "cevoir": 5977,
  "Ġsensible": 5978,
  "Ġconserver": 5979,
  "Ġregrettable": 5980,
  "Ġextraordinaire": 5981,
  "ĠGaza": 5982,
  "Ġbelle": 5983,
  "Ġrequi": 5984,
  "Ġretirer": 5985,
  "Ġsite": 5986,
  "Ġincomp": 5987,
  "ĠespÃ¨ces": 5988,
  "Ġurgent": 5989,
  "commun": 5990,
  "Ġdictat": 5991,
  "ĠrÃ©chauffement": 5992,
  "Ġcop": 5993,
  "dem": 5994,
  "Ġsurvi": 5995,
  "ĠMÃ©diterranÃ©e": 5996,
  "ĠimpÃ©ra": 5997,
  "ĠSi": 5998,
  "ĠTch": 5999,
  "Quoi": 6000,
  "ma": 6001,
  "Ġpolitici": 6002,
  "Ġvia": 6003,
  "ĠprÃ©sentation": 6004,
  "Autre": 6005,
  "Ġsuppression": 6006,
  "Ġsuffisant": 6007,
  "cy": 6008,
  "ray": 6009,
  "ĠaccroÃ®tre": 6010,
  "ĠintÃ©grÃ©": 6011,
  "Ã©limin": 6012,
  "Ġtomber": 6013,
  "lou": 6014,
  "Ġdra": 6015,
  "Ġdiz": 6016,
  "Ġmettent": 6017,
  "ĠmenÃ©": 6018,
  "Ãītant": 6019,
  "ĠefficacitÃ©": 6020,
  "Ġchimiques": 6021,
  "Ġsignaler": 6022,
  "exclusion": 6023,
  "Ġstu": 6024,
  "ĠenquÃªte": 6025,
  "Ġcontro": 6026,
  "Ġdiminuer": 6027,
  "ĠKyoto": 6028,
  "ĠintÃ©rieure": 6029,
  "grÃ©s": 6030,
  "uelles": 6031,
  "outine": 6032,
  "Ġdrogue": 6033,
  "Ġclas": 6034,
  "Ġdomin": 6035,
  "ĠbasÃ©e": 6036,
  "Ġessentielles": 6037,
  "ĠmÃ©m": 6038,
  "Ġradio": 6039,
  "Ġfaute": 6040,
  "ĠrÃ©percussions": 6041,
  "va": 6042,
  "esti": 6043,
  "ĠÃ©du": 6044,
  "auteur": 6045,
  "rat": 6046,
  "Ġmeur": 6047,
  "Ġdevi": 6048,
  "Ġcompos": 6049,
  "ĠLond": 6050,
  "verbal": 6051,
  "ĠmenÃ©e": 6052,
  "ĠcÃ´tÃ©s": 6053,
  "Ġallait": 6054,
  "Ġsentir": 6055,
  "ancien": 6056,
  "Ġintroduit": 6057,
  "ĠbÃ¢timent": 6058,
  "trasbourg": 6059,
  "uk": 6060,
  "Ġgri": 6061,
  "ĠÃ©lectri": 6062,
  "ĠprÃ©vue": 6063,
  "ĠsignÃ©": 6064,
  "Ġnotion": 6065,
  "Ġryth": 6066,
  "Ġsoumettre": 6067,
  "Ġmarge": 6068,
  "Ġtransit": 6069,
  "Ġassumer": 6070,
  "ĠCharte": 6071,
  "Ġconnaissances": 6072,
  "Ġsouvenir": 6073,
  "Ġmur": 6074,
  "ĠdÃ©tru": 6075,
  "Ġindustrie": 6076,
  "Ġprolong": 6077,
  "Ġsert": 6078,
  "Ã©rable": 6079,
  "Ġavantage": 6080,
  "Ġrevoir": 6081,
  "infrastru": 6082,
  "Ã©tudi": 6083,
  "Ġtransfert": 6084,
  "Ġbancaire": 6085,
  "Ġsoldats": 6086,
  "Ġmasse": 6087,
  "Ġcesser": 6088,
  "midi": 6089,
  "Ġrelance": 6090,
  "image": 6091,
  "Ġjustifier": 6092,
  "Ġrouge": 6093,
  "Ġcentral": 6094,
  "ĠguÃ¨re": 6095,
  "ĠrÃ©partition": 6096,
  "hique": 6097,
  "rible": 6098,
  "Ġbarri": 6099,
  "ĠliÃ©": 6100,
  "Ġrespecte": 6101,
  "Ġregardez": 6102,
  "romp": 6103,
  "Ġchien": 6104,
  "niers": 6105,
  "ĠMc": 6106,
  "ĠMex": 6107,
  "ĠutilisÃ©es": 6108,
  "Ġcontribue": 6109,
  "Ġutilise": 6110,
  "Ġbritanniques": 6111,
  "Afghanistan": 6112,
  "don": 6113,
  "yst": 6114,
  "ĠnÃ©er": 6115,
  "Ġautor": 6116,
  "inez": 6117,
  "ĠdÃ©mocrates": 6118,
  "Ġaurions": 6119,
  "Ġsortes": 6120,
  "heur": 6121,
  "idÃ©": 6122,
  "entiss": 6123,
  "Ġportant": 6124,
  "Ġrencontrer": 6125,
  "Ġadministratives": 6126,
  "Ġremplacer": 6127,
  "bi": 6128,
  "Ġasi": 6129,
  "Ġfaux": 6130,
  "Ġchoc": 6131,
  "ĠprÃ©sentÃ©e": 6132,
  "Ġbases": 6133,
  "Ġvraie": 6134,
  "Ġchambre": 6135,
  "ĠrÃ©clam": 6136,
  "ouvrir": 6137,
  "autoris": 6138,
  "ĠStrasbourg": 6139,
  "ĠGe": 6140,
  "Ġvoient": 6141,
  "aborder": 6142,
  "ĠappropriÃ©": 6143,
  "Ġproportion": 6144,
  "ern": 6145,
  "Ã¨le": 6146,
  "attitude": 6147,
  "accÃ©": 6148,
  "ĠMil": 6149,
  "ĠACP": 6150,
  "Ġbras": 6151,
  "Ġsouffr": 6152,
  "ĠtÃ©lÃ©phone": 6153,
  "Ġprimordi": 6154,
  "cÃ©s": 6155,
  "mun": 6156,
  "Ã©par": 6157,
  "encer": 6158,
  "ĠParti": 6159,
  "Ġinstant": 6160,
  "ĠFran": 6161,
  "Ġsalle": 6162,
  "Ã©diterranÃ©": 6163,
  "Gr": 6164,
  "Ġlanc": 6165,
  "Ġcomplet": 6166,
  "ĠpubliÃ©": 6167,
  "Ġsouhai": 6168,
  "aucune": 6169,
  "ĠInternet": 6170,
  "Ġmouvements": 6171,
  "Ġdiminution": 6172,
  "hy": 6173,
  "mid": 6174,
  "Ġvivant": 6175,
  "Ġmilliard": 6176,
  "Ġcandidat": 6177,
  "Ġrestructur": 6178,
  "liance": 6179,
  "Ġdevrais": 6180,
  "Ġobje": 6181,
  "ĠmenÃ©es": 6182,
  "Ġlibres": 6183,
  "ĠpensÃ©e": 6184,
  "ĠdÃ©cide": 6185,
  "ĠajoutÃ©e": 6186,
  "ĠavancÃ©e": 6187,
  "ougos": 6188,
  "AR": 6189,
  "Ġwe": 6190,
  "urde": 6191,
  "oitement": 6192,
  "Ġrejoin": 6193,
  "Ġcontinuera": 6194,
  "Ã©lection": 6195,
  "Ġactivement": 6196,
  "Ġmusulmans": 6197,
  "Ġspectac": 6198,
  "Mme": 6199,
  "PT": 6200,
  "Rien": 6201,
  "ralement": 6202,
  "tension": 6203,
  "Ġinternes": 6204,
  "ĠÃ©cologique": 6205,
  "ĠstratÃ©gies": 6206,
  "ĠintÃ©grÃ©e": 6207,
  "ĠtchÃ¨que": 6208,
  "ĠLondres": 6209,
  "entissage": 6210,
  "mos": 6211,
  "pro": 6212,
  "ortent": 6213,
  "ĠPour": 6214,
  "onneur": 6215,
  "Ġvice": 6216,
  "Ġvivement": 6217,
  "ĠdÃ©cri": 6218,
  "Ġprogress": 6219,
  "ĠproductivitÃ©": 6220,
  "Ġcontribuables": 6221,
  "Ġcib": 6222,
  "ĠinvitÃ©": 6223,
  "Ġnormal": 6224,
  "Ġsimilaires": 6225,
  "Ġfallait": 6226,
  "do": 6227,
  "tait": 6228,
  "ĠQu": 6229,
  "Ġpourrais": 6230,
  "Ġ23": 6231,
  "Ġesti": 6232,
  "ĠrÃ©pand": 6233,
  "ĠrÃ©pÃ¨te": 6234,
  "ĠclÃ©s": 6235,
  "Ġheureuse": 6236,
  "ĠdÃ©ficits": 6237,
  "Ġscandale": 6238,
  "?\"": 6239,
  "Ġpassion": 6240,
  "ĠrÃ©ductions": 6241,
  "ĠÃ©nergies": 6242,
  "Ġtrouvons": 6243,
  "cter": 6244,
  "gÃ©di": 6245,
  "Ġpil": 6246,
  "alent": 6247,
  "agnes": 6248,
  "Ġmotion": 6249,
  "ĠcoopÃ©rer": 6250,
  "Ġjouent": 6251,
  "ographie": 6252,
  "oriz": 6253,
  "Ġconsult": 6254,
  "ĠCroatie": 6255,
  "arg": 6256,
  "lusieurs": 6257,
  "ĠgÃ©nÃ©rales": 6258,
  "Ġinvestir": 6259,
  "Ġdistribution": 6260,
  "utriche": 6261,
  "ĠsoviÃ©tique": 6262,
  "Ġlin": 6263,
  "invite": 6264,
  "Ġrusses": 6265,
  "cht": 6266,
  "ami": 6267,
  "Ġconten": 6268,
  "Ġpostes": 6269,
  "Ġexpl": 6270,
  "Ġcombin": 6271,
  "Ġcommissions": 6272,
  "ĠaccÃ©lÃ©": 6273,
  "Ġpapier": 6274,
  "Ġdesign": 6275,
  "lÃ¨vent": 6276,
  "ĠperÃ§": 6277,
  "Ġincl": 6278,
  "Ġprotectionn": 6279,
  "Ġtourner": 6280,
  "Ġtaxes": 6281,
  "Ġrejeter": 6282,
  "Ġallemande": 6283,
  "ĠÃ©lectronique": 6284,
  "Ġenregist": 6285,
  "Ġbless": 6286,
  "Ġferroviaire": 6287,
  "intes": 6288,
  "Ġpoissons": 6289,
  "Ġvig": 6290,
  "Ġcrains": 6291,
  "iger": 6292,
  "ĠprÃ©voir": 6293,
  "ĠsiÃ¨ge": 6294,
  "arrÃªter": 6295,
  "Ġjaponais": 6296,
  "NL": 6297,
  "osoph": 6298,
  "Ġreten": 6299,
  "Ġserais": 6300,
  "Ġopinions": 6301,
  "ĠspÃ©cial": 6302,
  "Ġaugmente": 6303,
  "ĠtentÃ©": 6304,
  "Certaines": 6305,
  "ĠarrÃªter": 6306,
  "CA": 6307,
  "cin": 6308,
  "ek": 6309,
  "onais": 6310,
  "sim": 6311,
  "Ġdirecteur": 6312,
  "Ġesc": 6313,
  "ĠadhÃ©sion": 6314,
  "Ġdemandent": 6315,
  "ĠÂ»,": 6316,
  "Ġexistants": 6317,
  "Ġattaques": 6318,
  "ĠrÃ©guliÃ¨rement": 6319,
  "ĠprÃ©alable": 6320,
  "Ġpsych": 6321,
  "Ġphilosoph": 6322,
  "Ġrythme": 6323,
  "rom": 6324,
  "Ġvente": 6325,
  "Ġguer": 6326,
  "Ġexamen": 6327,
  "Ġpersuad": 6328,
  "Ġincombe": 6329,
  "Ġimages": 6330,
  "Ġressenti": 6331,
  "Ġ1996": 6332,
  "Ġculturel": 6333,
  "ĠinquiÃ©t": 6334,
  "offre": 6335,
  "Ġconvergence": 6336,
  "Ġmachine": 6337,
  "Combien": 6338,
  "gentes": 6339,
  "armes": 6340,
  "Ġmonop": 6341,
  "ĠtragÃ©di": 6342,
  "ĠdÃ©veloppÃ©": 6343,
  "atriÃ¨me": 6344,
  "analyse": 6345,
  "Ã©re": 6346,
  "ĠcÃ©rÃ©": 6347,
  "Ġrom": 6348,
  "chÃ©s": 6349,
  "Ãªts": 6350,
  "acts": 6351,
  "Ġaccident": 6352,
  "Ġdiscip": 6353,
  "Ġdirecte": 6354,
  "ĠÃ©troitement": 6355,
  "occup": 6356,
  "ĠlÃ©gitime": 6357,
  "Ġoutil": 6358,
  "mission": 6359,
  "Ġap": 6360,
  "Ġremb": 6361,
  "ĠPoutine": 6362,
  "Ã©rences": 6363,
  "Ġengend": 6364,
  "ĠrÃ©ussir": 6365,
  "Ġcivils": 6366,
  "ĠFinlande": 6367,
  "estement": 6368,
  "anais": 6369,
  "asp": 6370,
  "opportun": 6371,
  "Ġble": 6372,
  "ĠAsie": 6373,
  "Ġinspi": 6374,
  "ĠTED": 6375,
  "Ġcommuniste": 6376,
  "ĠGuerre": 6377,
  "ĠempÃª": 6378,
  "ĠarriÃ¨re": 6379,
  "Ġsalu": 6380,
  "Â»,": 6381,
  "ĠlibÃ©raux": 6382,
  "Ġindustries": 6383,
  "ĠenvoyÃ©": 6384,
  "IS": 6385,
  "rin": 6386,
  "raction": 6387,
  "ĠforcÃ©": 6388,
  "ĠnÃ©cessairement": 6389,
  "ĠdÃ©tour": 6390,
  "Ġclairs": 6391,
  "Ġenvironnementaux": 6392,
  "essentiel": 6393,
  "approbation": 6394,
  "Ġbref": 6395,
  "Ġtests": 6396,
  "ĠprÃ©sidenti": 6397,
  "Ġincroyable": 6398,
  "ĠproblÃ©matique": 6399,
  "Ġsti": 6400,
  "Ġjeux": 6401,
  "Ġferont": 6402,
  "accorder": 6403,
  "Ġrichesse": 6404,
  "ĠsupÃ©rieur": 6405,
  "Ġpromesses": 6406,
  "ID": 6407,
  "ta": 6408,
  "ĠUni": 6409,
  "Ġtox": 6410,
  "Ġrue": 6411,
  "Ġvolu": 6412,
  "niversaire": 6413,
  "Ġpoisson": 6414,
  "introduire": 6415,
  "ĠTh": 6416,
  "assent": 6417,
  "oncernant": 6418,
  "ĠindÃ©pendants": 6419,
  "Ġespagnol": 6420,
  "line": 6421,
  "uyer": 6422,
  "Ġpier": 6423,
  "chons": 6424,
  "ĠconÃ§": 6425,
  "cool": 6426,
  "Ġstable": 6427,
  "Ġabus": 6428,
  "ĠreconnaÃ®t": 6429,
  "ĠparticipÃ©": 6430,
  "ĠdiscutÃ©": 6431,
  "Ġsauf": 6432,
  "Ġattendent": 6433,
  "Ġsecret": 6434,
  "ĠsuggÃ©": 6435,
  "ĠsoulevÃ©": 6436,
  "Ġexercer": 6437,
  "Ġtextes": 6438,
  "ĠvulnÃ©rables": 6439,
  "ĠProdi": 6440,
  "leurs": 6441,
  "ĠÃ©lar": 6442,
  "endront": 6443,
  "ĠforÃªts": 6444,
  "Ġdonnent": 6445,
  "ĠdonnÃ©e": 6446,
  "Ġsatisfaire": 6447,
  "atrice": 6448,
  "Ġimaginer": 6449,
  "Ġprovenance": 6450,
  "Ġsurmonter": 6451,
  "Plusieurs": 6452,
  "quons": 6453,
  "ĠdÃ©ri": 6454,
  "oss": 6455,
  "ĠÃ©valuer": 6456,
  "ĠrÃ©gionaux": 6457,
  "ĠabordÃ©": 6458,
  "Ġrendent": 6459,
  "ĠÃ©tudier": 6460,
  "Ġvivons": 6461,
  "viennent": 6462,
  "Ġcad": 6463,
  "orce": 6464,
  "oriques": 6465,
  "Ġpourcent": 6466,
  "fient": 6467,
  "Ġimpati": 6468,
  "Ġapporte": 6469,
  "Ġquelconque": 6470,
  "jeun": 6471,
  "auration": 6472,
  "Ġlocal": 6473,
  "Ġprofesseur": 6474,
  "Ġpartisans": 6475,
  "Ġintentions": 6476,
  "ĠindÃ©pendante": 6477,
  "ĠdÃ©cennie": 6478,
  "Ġbureaucratie": 6479,
  "Ġclause": 6480,
  "EL": 6481,
  "Pas": 6482,
  "gle": 6483,
  "Ġpilier": 6484,
  "Ġtre": 6485,
  "ĠÃ©loi": 6486,
  "ĠbÃ©b": 6487,
  "ĠprÃ©ven": 6488,
  "Ġpolici": 6489,
  "ĠÃ©tonn": 6490,
  "ĠdÃ©pendance": 6491,
  "Ġobs": 6492,
  "Ġaimer": 6493,
  "misme": 6494,
  "Ġvacc": 6495,
  "Ġdirect": 6496,
  "Ġsocialistes": 6497,
  "ĠorganisÃ©e": 6498,
  "ĠmÃ©ritent": 6499,
  "avaient": 6500,
  "lÃ©ter": 6501,
  "Ġdirectrices": 6502,
  "Ġ22": 6503,
  "Ġarr": 6504,
  "Ġferait": 6505,
  "Ġgratu": 6506,
  "Ã©rÃ©es": 6507,
  "ĠfixÃ©": 6508,
  "Ġpencher": 6509,
  "Ġexcellente": 6510,
  "Ġverre": 6511,
  "Ġconcert": 6512,
  "guis": 6513,
  "ongro": 6514,
  "Ġutilisent": 6515,
  "Ãītats": 6516,
  "Ġlangage": 6517,
  "voyer": 6518,
  "Ġhistoires": 6519,
  "Ġprenons": 6520,
  "ĠCanada": 6521,
  "ĠCE": 6522,
  "ĠprÃ©con": 6523,
  "fiant": 6524,
  "ĠdÃ©clen": 6525,
  "Ġoptim": 6526,
  "issements": 6527,
  "Ġfonctions": 6528,
  "ensible": 6529,
  "ĠdÃ©montrÃ©": 6530,
  "Ġrurales": 6531,
  "Ġignor": 6532,
  "Ġchaleure": 6533,
  "Ġphrase": 6534,
  "Ġdizaines": 6535,
  "son": 6536,
  "Ġmac": 6537,
  "ala": 6538,
  "aissez": 6539,
  "ĠrÃ©els": 6540,
  "ĠdÃ©posÃ©s": 6541,
  "Quelles": 6542,
  "Ġattribu": 6543,
  "Ġouvrir": 6544,
  "enfant": 6545,
  "Ġalternative": 6546,
  "ĠcatÃ©gorie": 6547,
  "ĠmultilatÃ©r": 6548,
  "Concernant": 6549,
  "Ġpal": 6550,
  "istant": 6551,
  "ĠconsidÃ©rons": 6552,
  "ĠÃ©trange": 6553,
  "ĠÃ©chapp": 6554,
  "Ġ2011": 6555,
  "Ġcomplexes": 6556,
  "Ġtradition": 6557,
  "Ġsimplification": 6558,
  "ĠhonnÃªte": 6559,
  "encourager": 6560,
  "mÃ©e": 6561,
  "Ġsoin": 6562,
  "urants": 6563,
  "Ġvin": 6564,
  "Ġend": 6565,
  "Ġsembler": 6566,
  "Ġdirais": 6567,
  "Ġhy": 6568,
  "Ġorientale": 6569,
  "ĠrejetÃ©": 6570,
  "ĠÃ©lectorale": 6571,
  "ĠdÃ©ploy": 6572,
  "Ġappartient": 6573,
  "ĠdenrÃ©es": 6574,
  "oÃ¯": 6575,
  "estations": 6576,
  "Ġintention": 6577,
  "accueil": 6578,
  "Ġsoyons": 6579,
  "ĠSyrie": 6580,
  "Leur": 6581,
  "artÃ©": 6582,
  "ĠMin": 6583,
  "cum": 6584,
  "ĠEuropÃ©": 6585,
  "Ġvieil": 6586,
  "ĠstratÃ©giques": 6587,
  "Ġremplir": 6588,
  "ĠdÃ©sir": 6589,
  "ampleur": 6590,
  "Ġinutile": 6591,
  "lif": 6592,
  "ouvÃ©": 6593,
  "Ġ?\"": 6594,
  "Ġcentres": 6595,
  "Ġ1995": 6596,
  "Ġportent": 6597,
  "ĠÃ¢ge": 6598,
  "ĠRoms": 6599,
  "ĠrÃªve": 6600,
  "inn": 6601,
  "ĠrÃ©mun": 6602,
  "Ġinvite": 6603,
  "Ġgard": 6604,
  "endrait": 6605,
  "Ġdisons": 6606,
  "Ġasse": 6607,
  "assin": 6608,
  "Ġpromis": 6609,
  "attends": 6610,
  "Ġconstructive": 6611,
  "Ġdisposent": 6612,
  "Ġcontrats": 6613,
  "Ġterritori": 6614,
  "Ġvital": 6615,
  "Ġpouss": 6616,
  "dÃ©cision": 6617,
  "Du": 6618,
  "lait": 6619,
  "Ġsaisir": 6620,
  "ocation": 6621,
  "ĠBro": 6622,
  "Ġapprouver": 6623,
  "Ġsatisfaction": 6624,
  "ĠintÃ©ressante": 6625,
  "Ġjournalistes": 6626,
  "andi": 6627,
  "ĠquatriÃ¨me": 6628,
  "ĠmÃ¨": 6629,
  "Ġparad": 6630,
  "lacement": 6631,
  "ĠchaÃ®ne": 6632,
  "ĠnÃ©gocier": 6633,
  "Ġfaim": 6634,
  "Ã©tiquetage": 6635,
  "Ġmutuelle": 6636,
  "ĠcaractÃ©ristiques": 6637,
  "Ġislam": 6638,
  "Aucun": 6639,
  "Ġsusceptibles": 6640,
  "Ġautomobile": 6641,
  "ĠfÃ©dÃ©r": 6642,
  "Ġrig": 6643,
  "terr": 6644,
  "Ġmissions": 6645,
  "ĠscÃ©n": 6646,
  "Ġconseils": 6647,
  "Ġconfirmer": 6648,
  "ĠcÃ©lÃ¨": 6649,
  "adapter": 6650,
  "Ġchapitre": 6651,
  "Ġcab": 6652,
  "arc": 6653,
  "ĠmodÃ©": 6654,
  "Ã¢ts": 6655,
  "Ġassis": 6656,
  "ĠdÃ©fav": 6657,
  "ĠdÃ©fini": 6658,
  "ĠprivÃ©es": 6659,
  "Ġsucre": 6660,
  "RO": 6661,
  "sh": 6662,
  "tic": 6663,
  "organ": 6664,
  "usti": 6665,
  "ĠinÃ©galitÃ©": 6666,
  "ĠcodÃ©cision": 6667,
  "utation": 6668,
  "ĠannoncÃ©": 6669,
  "Ġproduisent": 6670,
  "Ġmanip": 6671,
  "Ġprintemps": 6672,
  "imposer": 6673,
  "Ġsupprim": 6674,
  "attendre": 6675,
  "Ġtensions": 6676,
  "Ġterritoires": 6677,
  "GrÃ¢ce": 6678,
  "ĠscÃ©nari": 6679,
  "Comp": 6680,
  "Ses": 6681,
  "bon": 6682,
  "oniques": 6683,
  "arus": 6684,
  "sible": 6685,
  "elui": 6686,
  "Ġautonom": 6687,
  "Ġinterinstitu": 6688,
  "Ġseules": 6689,
  "accroÃ®tre": 6690,
  "Ġaime": 6691,
  "mistes": 6692,
  "Ġportug": 6693,
  "Ġfiscales": 6694,
  "Ġconstamment": 6695,
  "ĠentraÃ®ne": 6696,
  "ĠÃ©voquer": 6697,
  "Ã¼": 6698,
  "enquÃªte": 6699,
  "iennes": 6700,
  "Ġutilisant": 6701,
  "Ġgarantiss": 6702,
  "ĠopportunitÃ©s": 6703,
  "ĠMexique": 6704,
  "Ġtari": 6705,
  "Ġravi": 6706,
  "Ġvac": 6707,
  "ĠvÃ©cu": 6708,
  "euille": 6709,
  "ĠMerci": 6710,
  "Ġhongro": 6711,
  "troi": 6712,
  "Ġconcrets": 6713,
  "ĠespÃ©rer": 6714,
  "Ġrestre": 6715,
  "ĠrÃ©aliste": 6716,
  "ĠrenforcÃ©e": 6717,
  "ĠrÃ©centes": 6718,
  "Ġmassive": 6719,
  "ĠemployÃ©s": 6720,
  "ĠÃ©quilibrÃ©": 6721,
  "ĠBelarus": 6722,
  "Ġstocks": 6723,
  "ĠrÃ©uss": 6724,
  "atur": 6725,
  "Ġentam": 6726,
  "Ġfinale": 6727,
  "ĠreprÃ©senter": 6728,
  "ĠmÃ©diateur": 6729,
  "Ġdoutes": 6730,
  "ĠdÃ©gÃ¢ts": 6731,
  "habitude": 6732,
  "Ġobstacle": 6733,
  "Ġtransformation": 6734,
  "Ġfurent": 6735,
  "adresse": 6736,
  "Ġcomprennent": 6737,
  "Ġcaf": 6738,
  "asses": 6739,
  "ĠIran": 6740,
  "Ġinclure": 6741,
  "Ġvisage": 6742,
  "Ġprofessionnels": 6743,
  "Ġmanifestations": 6744,
  "Ġprisonniers": 6745,
  "ansion": 6746,
  "ley": 6747,
  "ara": 6748,
  "Ġvain": 6749,
  "Ġbus": 6750,
  "Ġinvent": 6751,
  "Ġnettement": 6752,
  "Ġhui": 6753,
  "Ġpouvais": 6754,
  "Ġfier": 6755,
  "Ġinitiale": 6756,
  "ĠdestinÃ©": 6757,
  "apprentissage": 6758,
  "crire": 6759,
  "entreprises": 6760,
  "ĠsuggÃ¨re": 6761,
  "Avez": 6762,
  "val": 6763,
  "Ġlait": 6764,
  "Ġcuis": 6765,
  "ĠleÃ§on": 6766,
  "Ġenqu": 6767,
  "ĠÃ©lus": 6768,
  "aisser": 6769,
  "Ġproches": 6770,
  "Ġtroupes": 6771,
  "ĠBir": 6772,
  "istent": 6773,
  "Ġgouvernementales": 6774,
  "ĠvÃ©ritables": 6775,
  "Ġsaluer": 6776,
  "ĠrÃ©cent": 6777,
  "men": 6778,
  "ĠCom": 6779,
  "Ġtransat": 6780,
  "ĠdÃ©bu": 6781,
  "ĠdÃ©battu": 6782,
  "Ġintroduire": 6783,
  "Ġsensibles": 6784,
  "ĠdÃ©lib": 6785,
  "ĠfrÃ©qu": 6786,
  "ĠBosnie": 6787,
  "ditÃ©": 6788,
  "Ġsoleil": 6789,
  "ĠautoritÃ©": 6790,
  "Ġtransactions": 6791,
  "ĠintÃ©gration": 6792,
  "siez": 6793,
  "ĠgÃ©nÃ©": 6794,
  "Ġmondiales": 6795,
  "Ġvirus": 6796,
  "Ġsites": 6797,
  "Ġrang": 6798,
  "Ġvague": 6799,
  "ĠrÃ©vis": 6800,
  "Ġplaf": 6801,
  "ĠrÃ©pression": 6802,
  "ĠpassÃ©e": 6803,
  "ĠremÃ©di": 6804,
  "ĠÃ©chÃ©": 6805,
  "Ġcompagnie": 6806,
  "Ġpalestinien": 6807,
  "bat": 6808,
  "Ġfant": 6809,
  "ĠDÃ©pu": 6810,
  "ĠbÃ¢timents": 6811,
  "Con": 6812,
  "ĠpÃ©r": 6813,
  "ourse": 6814,
  "rad": 6815,
  "rÃ©g": 6816,
  "Ġiran": 6817,
  "instar": 6818,
  "Ġconvenu": 6819,
  "ĠvidÃ©o": 6820,
  "lob": 6821,
  "Ġpourriez": 6822,
  "rique": 6823,
  "ĠrÃ©cu": 6824,
  "endus": 6825,
  "Ġaccessi": 6826,
  "Ġacquis": 6827,
  "Ġaggra": 6828,
  "ĠconsidÃ©rÃ©e": 6829,
  "Ġpositives": 6830,
  "Ġconstruit": 6831,
  "ĠaÃ©riennes": 6832,
  "Ġpoliticiens": 6833,
  "dement": 6834,
  "Ġaspir": 6835,
  "ĠlÃ©gale": 6836,
  "ington": 6837,
  "Ġabsten": 6838,
  "Ġbruit": 6839,
  "Ġrepris": 6840,
  "Ġfortes": 6841,
  "Ġmanifestement": 6842,
  "Ġmorale": 6843,
  "Ġfournisse": 6844,
  "Ġcruciale": 6845,
  "Ġquotidien": 6846,
  "Ġfre": 6847,
  "Ġenj": 6848,
  "enses": 6849,
  "dite": 6850,
  "ĠhÃ©r": 6851,
  "Ġseuil": 6852,
  "Ġcitoyenne": 6853,
  "Ġindic": 6854,
  "ĠengagÃ©": 6855,
  "ĠpiÃ¨ces": 6856,
  "ĠÃ©quilibrÃ©e": 6857,
  "Ġalternatives": 6858,
  "Ġguerres": 6859,
  "App": 6860,
  "main": 6861,
  "Ġtes": 6862,
  "Ġmotifs": 6863,
  "Ã©rir": 6864,
  "ĠAr": 6865,
  "Ġrepos": 6866,
  "Ġdangereuses": 6867,
  "ĠconsacrÃ©": 6868,
  "Ġintensi": 6869,
  "Ġabouti": 6870,
  "ĠsÃ©lection": 6871,
  "cÃ©es": 6872,
  "imb": 6873,
  "Ġmorte": 6874,
  "Ġfoi": 6875,
  "octroi": 6876,
  "Ġpolitiquement": 6877,
  "ĠBi": 6878,
  "Ġadmettre": 6879,
  "ĠrÃ©gul": 6880,
  "Ġsalaire": 6881,
  "amendements": 6882,
  "Ġoppos": 6883,
  "ĠconcrÃ¨te": 6884,
  "Ġpermanent": 6885,
  "Ġargument": 6886,
  "Ġfallu": 6887,
  "ĠdÃ©te": 6888,
  "ĠCub": 6889,
  "endrons": 6890,
  "Ġhas": 6891,
  "Ġserre": 6892,
  "titudes": 6893,
  "Ġterres": 6894,
  "Ã¢te": 6895,
  "Ġindique": 6896,
  "Ġfuturs": 6897,
  "armement": 6898,
  "Ġrejoindre": 6899,
  "ye": 6900,
  "itr": 6901,
  "ĠPAC": 6902,
  "ĠfrÃ¨re": 6903,
  "Ġsuffisante": 6904,
  "ĠbÃ©nÃ©ficient": 6905,
  "Ã©mission": 6906,
  "Ġprononcer": 6907,
  "Ġsimilaire": 6908,
  "Ġdommages": 6909,
  "Ġquinze": 6910,
  "otes": 6911,
  "Ã¨dent": 6912,
  "Ġadul": 6913,
  "ĠTV": 6914,
  "ĠGo": 6915,
  "Ġcontrairement": 6916,
  "ĠaccordÃ©e": 6917,
  "Ġdouani": 6918,
  "ĠfixÃ©s": 6919,
  "Ġutiles": 6920,
  "Ġcontribuera": 6921,
  "Ġsorti": 6922,
  "Ġstrictes": 6923,
  "ĠmÃ©decin": 6924,
  "ĠprivilÃ©gi": 6925,
  "Ġrigou": 6926,
  "Ex": 6927,
  "Ġreb": 6928,
  "Ġsurvie": 6929,
  "Ã©rateurs": 6930,
  "ĠpÃ©troli": 6931,
  "ĠappropriÃ©es": 6932,
  "ĠvÃ©rifier": 6933,
  "Ġstimuler": 6934,
  "ĠHongrie": 6935,
  "Ġrecettes": 6936,
  "aw": 6937,
  "ite": 6938,
  "gnÃ©e": 6939,
  "ĠconsidÃ¨rent": 6940,
  "ĠconsidÃ©rations": 6941,
  "ovine": 6942,
  "Ġmodernisation": 6943,
  "gences": 6944,
  "mine": 6945,
  "ĠÅĵu": 6946,
  "anes": 6947,
  "Ġinn": 6948,
  "agenda": 6949,
  "Ġtrom": 6950,
  "aindre": 6951,
  "Ġdevaient": 6952,
  "ĠclartÃ©": 6953,
  "Ã®ner": 6954,
  "ĠprÃ©sentent": 6955,
  "ĠreprÃ©sentation": 6956,
  "ĠapparaÃ®t": 6957,
  "ĠprÃ©cÃ©dente": 6958,
  "ĠconstatÃ©": 6959,
  "Ġquitter": 6960,
  "Ġpurement": 6961,
  "Ġbilan": 6962,
  "Ġnaissance": 6963,
  "Ġinad": 6964,
  "Ġanniversaire": 6965,
  "Ġinstitutionnel": 6966,
  "ĠadoptÃ©s": 6967,
  "ĠVI": 6968,
  "Ġcontributions": 6969,
  "Ġremerciements": 6970,
  "Ġisol": 6971,
  "Ġclimatiques": 6972,
  "Ġordinateur": 6973,
  "dÃ©mocrates": 6974,
  "Ġexclusivement": 6975,
  "aus": 6976,
  "lers": 6977,
  "Ġexter": 6978,
  "ĠrÃ©sistance": 6979,
  "ĠAb": 6980,
  "Ġvisas": 6981,
  "Ġpersonnelle": 6982,
  "Ġvoies": 6983,
  "ĠprÃ©vues": 6984,
  "interprÃ©": 6985,
  "Ġkilom": 6986,
  "30": 6987,
  "ball": 6988,
  "Ġ)": 6989,
  "orcer": 6990,
  "Ġrh": 6991,
  "Ġconne": 6992,
  "agÃ©s": 6993,
  "ĠCI": 6994,
  "issue": 6995,
  "Ã©rie": 6996,
  "ĠdÃ©veloppements": 6997,
  "Ġparticuliers": 6998,
  "Ġvisent": 6999,
  "Ġsouhaitable": 7000,
  "Ġrefuse": 7001,
  "ĠentraÃ®nÃ©": 7002,
  "ĠsecrÃ©taire": 7003,
  "LÃł": 7004,
  "Ġord": 7005,
  "Ġciel": 7006,
  "Ġrares": 7007,
  "Ġvide": 7008,
  "ĠdÃ©crit": 7009,
  "certitude": 7010,
  "Ġagit": 7011,
  "ĠItalie": 7012,
  "alimentation": 7013,
  "Ġscol": 7014,
  "ĠaffirmÃ©": 7015,
  "ĠCongrÃ¨s": 7016,
  "Ġlinguis": 7017,
  "jeuner": 7018,
  "isÃ©e": 7019,
  "ardi": 7020,
  "Ġriv": 7021,
  "aul": 7022,
  "Ġactif": 7023,
  "Ġcoeur": 7024,
  "Ġmange": 7025,
  "ĠTom": 7026,
  "Ã¨ges": 7027,
  "Ġ196": 7028,
  "ĠprÃ©voy": 7029,
  "ĠrÃ©cents": 7030,
  "Ġtenue": 7031,
  "approuve": 7032,
  "ĠthÃ¨mes": 7033,
  "ĠInde": 7034,
  "Ġpatient": 7035,
  "ĠlimitÃ©e": 7036,
  "Ġprogressivement": 7037,
  "identitÃ©": 7038,
  "Ġhypoth": 7039,
  "Ġsilence": 7040,
  "ĠprÃ©cÃ©demment": 7041,
  "demn": 7042,
  "ĠbarriÃ¨res": 7043,
  "Aut": 7044,
  "environ": 7045,
  "ĠaÃ©rop": 7046,
  "orge": 7047,
  "Ġprenne": 7048,
  "ĠprÃ©cÃ©dents": 7049,
  "ĠcomplexitÃ©": 7050,
  "Ġracisme": 7051,
  "Ġdisponible": 7052,
  "Ġattentivement": 7053,
  "LE": 7054,
  "ajus": 7055,
  "Ġsauv": 7056,
  "Ġmens": 7057,
  "lets": 7058,
  "ĠÃ©largissement": 7059,
  "Ġchem": 7060,
  "formes": 7061,
  "ĠnÃ©gatif": 7062,
  "ĠJohn": 7063,
  "affaires": 7064,
  "Ġaccompag": 7065,
  "oxy": 7066,
  "Ġpromesse": 7067,
  "Ġmicro": 7068,
  "Ġrequiert": 7069,
  "ĠremÃ©dier": 7070,
  "Eur": 7071,
  "tiez": 7072,
  "Ġprendra": 7073,
  "Ġenv": 7074,
  "Ġanc": 7075,
  "Ġsty": 7076,
  "Ġdoig": 7077,
  "ĠdÃ©mocraties": 7078,
  "Ġindire": 7079,
  "Ġsoutiennent": 7080,
  "ĠsÃ©rieuse": 7081,
  "ĠÃ¢gÃ©es": 7082,
  "ĠeffectuÃ©": 7083,
  "ĠintÃ©grer": 7084,
  "ĠÃ©couter": 7085,
  "ĠillÃ©gale": 7086,
  "Ġmacro": 7087,
  "lifÃ©ration": 7088,
  "Entre": 7089,
  "Ġrecourir": 7090,
  "ĠChinois": 7091,
  "Ġbonheur": 7092,
  "ĠOr": 7093,
  "ĠappliquÃ©es": 7094,
  "Ġsubstance": 7095,
  "Ġenvoyer": 7096,
  "Ġusage": 7097,
  "Ġdistinction": 7098,
  "ĠBerlin": 7099,
  "Ġafricains": 7100,
  "Celui": 7101,
  "OL": 7102,
  "entra": 7103,
  "urie": 7104,
  "ĠdÃ©ten": 7105,
  "Ġinformer": 7106,
  "Ġconforme": 7107,
  "roissement": 7108,
  "Ġcompati": 7109,
  "ĠminoritÃ©": 7110,
  "intÃ©rÃªts": 7111,
  "Ġtentatives": 7112,
  "Ġopposition": 7113,
  "ĠÃ©normes": 7114,
  "Ġmorce": 7115,
  "Ġpermanente": 7116,
  "ĠengagÃ©s": 7117,
  "ĠmaÃ®tr": 7118,
  "GM": 7119,
  "lair": 7120,
  "Ġbomb": 7121,
  "ĠrÃ©ag": 7122,
  "Ġsuit": 7123,
  "Ġdevriez": 7124,
  "umÃ©": 7125,
  "ĠbasÃ©": 7126,
  "Ġinstitutionnelle": 7127,
  "Ã©conomique": 7128,
  "Ġconscient": 7129,
  "Ġconvaincue": 7130,
  "Ġprovenant": 7131,
  "Ġlacunes": 7132,
  "lovaquie": 7133,
  "ĠÃ©par": 7134,
  "agÃ©es": 7135,
  "ell": 7136,
  "Ġconsenti": 7137,
  "Ġcroissant": 7138,
  "Ġobligation": 7139,
  "Ġmauvaises": 7140,
  "ĠmathÃ©": 7141,
  "ĠnumÃ©ro": 7142,
  "ĠXX": 7143,
  "Ġcommuniquer": 7144,
  "ĠsuÃ©dois": 7145,
  "Ġlongues": 7146,
  "Ġaffaibli": 7147,
  "ĠmÃ©moire": 7148,
  "ĠtragÃ©die": 7149,
  "Is": 7150,
  "ÃĬ": 7151,
  "Ġaccidents": 7152,
  "addam": 7153,
  "Ġcontraintes": 7154,
  "ĠdÃ©saccord": 7155,
  "Ġsuivantes": 7156,
  "ĠdestinÃ©e": 7157,
  "Ġoccidentale": 7158,
  "Ġarticles": 7159,
  "Ġphotos": 7160,
  "instrument": 7161,
  "Ġaj": 7162,
  "ĠdÃ©rog": 7163,
  "ĠMont": 7164,
  "Ã©riques": 7165,
  "ĠÃ©levÃ©es": 7166,
  "casions": 7167,
  "tifie": 7168,
  "ĠdÃ©cid": 7169,
  "ĠmÃ©pr": 7170,
  "Ġjeunesse": 7171,
  "Ġcontradi": 7172,
  "ĠuniversitÃ©s": 7173,
  "Ġciviles": 7174,
  "Ġprovoquer": 7175,
  "Ġconviction": 7176,
  "ĠrÃ©digÃ©": 7177,
  "ashington": 7178,
  "Ġinstallations": 7179,
  "Etat": 7180,
  "Ici": 7181,
  "grer": 7182,
  "vait": 7183,
  "Ġlever": 7184,
  "Ã¨tent": 7185,
  "Ġinond": 7186,
  "amour": 7187,
  "Ġenthousias": 7188,
  "ĠimpÃ´ts": 7189,
  "ĠrÃ©sol": 7190,
  "Ġrenvers": 7191,
  "ĠcolÃ¨re": 7192,
  "Ġmontagne": 7193,
  "Ġ31": 7194,
  "Ġcommencent": 7195,
  "Ġnaturelle": 7196,
  "ĠsÃ»rs": 7197,
  "Ġabsolue": 7198,
  "Ġimpliquer": 7199,
  "Ġformulation": 7200,
  "Ġmagni": 7201,
  "ĠcatÃ©gories": 7202,
  "ĠdÃ©finitive": 7203,
  "ette": 7204,
  "gÃ¨ne": 7205,
  "honorable": 7206,
  "oul": 7207,
  "eront": 7208,
  "undi": 7209,
  "Ġtente": 7210,
  "Ġdure": 7211,
  "ulsion": 7212,
  "ĠParis": 7213,
  "atel": 7214,
  "Ġinclu": 7215,
  "ĠÃ©chouÃ©": 7216,
  "ĠreÃ§oivent": 7217,
  "apprendre": 7218,
  "Ġpourcentage": 7219,
  "ĠinÃ©galitÃ©s": 7220,
  "Fin": 7221,
  "rop": 7222,
  "Ã©vent": 7223,
  "ĠdÃ©tri": 7224,
  "ĠprÃ©te": 7225,
  "Ġposent": 7226,
  "Ġoption": 7227,
  "Ġsignes": 7228,
  "ĠWashington": 7229,
  "Ġparfait": 7230,
  "Ġpousser": 7231,
  "attaquer": 7232,
  "ĠdÃ©clarer": 7233,
  "Ġvent": 7234,
  "ĠÃ©cole": 7235,
  "Ġtriste": 7236,
  "appui": 7237,
  "ĠmonÃ©taires": 7238,
  "Ġclandes": 7239,
  "Ġengager": 7240,
  "ĠappliquÃ©e": 7241,
  "Ġvolontaire": 7242,
  "Ġautomatique": 7243,
  "ĠopportunitÃ©": 7244,
  "AF": 7245,
  "aisons": 7246,
  "ossÃ©": 7247,
  "apes": 7248,
  "Ġjustifie": 7249,
  "duira": 7250,
  "ĠrenforcÃ©": 7251,
  "Ġprochains": 7252,
  "Ġmerc": 7253,
  "Ġsoulever": 7254,
  "Ġsurpris": 7255,
  "Ġreligieux": 7256,
  "ĠdÃ©clare": 7257,
  "Ġprends": 7258,
  "Ã¨lement": 7259,
  "Ġconventions": 7260,
  "uite": 7261,
  "ĠgarÃ§on": 7262,
  "Ġ35": 7263,
  "ĠpÃ©riodes": 7264,
  "Ġreconnaissant": 7265,
  "Ġindivid": 7266,
  "ĠrefusÃ©": 7267,
  "Ġmultipli": 7268,
  "expliquer": 7269,
  "Ġressortiss": 7270,
  "ĠCuba": 7271,
  "Ġhasard": 7272,
  "gure": 7273,
  "arch": 7274,
  "Ġvot": 7275,
  "Ã¨tement": 7276,
  "ontr": 7277,
  "ĠÃ©pr": 7278,
  "astique": 7279,
  "Ġparc": 7280,
  "lah": 7281,
  "orteur": 7282,
  "alisÃ©es": 7283,
  "ĠlibÃ©ration": 7284,
  "Ġrestera": 7285,
  "Parmi": 7286,
  "ĠdÃ©sÃ©quili": 7287,
  "ophob": 7288,
  "Ġroutes": 7289,
  "organiser": 7290,
  "Ġchinoise": 7291,
  "Ġfroide": 7292,
  "communic": 7293,
  "Ag": 7294,
  "gin": 7295,
  "Ġer": 7296,
  "Ġsages": 7297,
  "Ġmol": 7298,
  "Ġdevienne": 7299,
  "Ġrecy": 7300,
  "Ġ300": 7301,
  "Ġ%,": 7302,
  "ĠrÃ©conc": 7303,
  "Ġaccomplis": 7304,
  "Ġsouffrent": 7305,
  "Ġadministrative": 7306,
  "Ġchercheurs": 7307,
  "ĠcafÃ©": 7308,
  "ĠdÃ©triment": 7309,
  "ectu": 7310,
  "rans": 7311,
  "Ġparcour": 7312,
  "Ãªtres": 7313,
  "Ġtransmettre": 7314,
  "impose": 7315,
  "ĠrÃ©comp": 7316,
  "ĠmÃ©l": 7317,
  "Ġurgence": 7318,
  "ĠgagnÃ©": 7319,
  "Ġbataille": 7320,
  "ĠÃ©quip": 7321,
  "Ġdevenus": 7322,
  "ĠÃ©laborer": 7323,
  "Ġarabes": 7324,
  "ĠpÃ©titions": 7325,
  "alcool": 7326,
  "Ġ29": 7327,
  "Ġcraign": 7328,
  "Ã©valuer": 7329,
  "grants": 7330,
  "ĠimpliquÃ©s": 7331,
  "Ġstructurelles": 7332,
  "Ġexistant": 7333,
  "disant": 7334,
  "ĠdÃ©montre": 7335,
  "ĠrÃ©tablir": 7336,
  "Ã©pargne": 7337,
  "Votre": 7338,
  "ke": 7339,
  "wan": 7340,
  "Ġferai": 7341,
  "ronter": 7342,
  "olique": 7343,
  "Ġexplique": 7344,
  "Ġsoutenue": 7345,
  "Ġaccomplir": 7346,
  "arriver": 7347,
  "ographiques": 7348,
  "ĠachetÃ©": 7349,
  "Ġpensions": 7350,
  "Ġestiment": 7351,
  "ĠBirmanie": 7352,
  "Ġflo": 7353,
  "terre": 7354,
  "Ġ28": 7355,
  "ĠdÃ©couver": 7356,
  "anglais": 7357,
  "ĠadhÃ©": 7358,
  "Ġoptions": 7359,
  "ĠrÃ©gulation": 7360,
  "Ġcharges": 7361,
  "ilatÃ©rale": 7362,
  "Ġsurprise": 7363,
  "athie": 7364,
  "Ġpermettront": 7365,
  "ĠnumÃ©rique": 7366,
  "Ġtexti": 7367,
  "excell": 7368,
  "ĠTVA": 7369,
  "Ġdram": 7370,
  "Ġports": 7371,
  "Ġfassent": 7372,
  "Ġence": 7373,
  "Ġgasp": 7374,
  "osc": 7375,
  "Ġchat": 7376,
  "Ġmoments": 7377,
  "ĠdÃ©passe": 7378,
  "Ġinterdiction": 7379,
  "Ã©cou": 7380,
  "ĠzÃ©ro": 7381,
  "Ġcharbon": 7382,
  "Ġhistoriques": 7383,
  "Ġancien": 7384,
  "Ġdiplomatie": 7385,
  "Ġpuissances": 7386,
  "OC": 7387,
  "aque": 7388,
  "vres": 7389,
  "envis": 7390,
  "Ã¨tre": 7391,
  "ustra": 7392,
  "membre": 7393,
  "Ġplantes": 7394,
  "dition": 7395,
  "ĠextrÃ©": 7396,
  "Ġdrogues": 7397,
  "Ġtravaillons": 7398,
  "ĠprÃ©sentÃ©s": 7399,
  "Ġconsacrer": 7400,
  "ancienne": 7401,
  "ĠÃ©mo": 7402,
  "ĠengagÃ©e": 7403,
  "vage": 7404,
  "Ġdan": 7405,
  "Ġenne": 7406,
  "Ġplate": 7407,
  "guÃ©": 7408,
  "Ġrecul": 7409,
  "pule": 7410,
  "ĠbrÃ»": 7411,
  "ĠopposÃ©s": 7412,
  "essayer": 7413,
  "ĠÃ©vÃ©nement": 7414,
  "Ġcriminels": 7415,
  "Ġamener": 7416,
  "ĠcÃ©lÃ¨bre": 7417,
  "voir": 7418,
  "ensions": 7419,
  "org": 7420,
  "ortÃ©s": 7421,
  "tÃ©n": 7422,
  "ureau": 7423,
  "geant": 7424,
  "Ġmarcher": 7425,
  "Ġmettant": 7426,
  "Ġassistance": 7427,
  "ĠdÃ©fend": 7428,
  "Ġattent": 7429,
  "ĠlÃ©gislations": 7430,
  "ĠopposÃ©": 7431,
  "ĠpÃ©nale": 7432,
  "ĠqualifiÃ©e": 7433,
  "Ġprononc": 7434,
  "hier": 7435,
  "lue": 7436,
  "ots": 7437,
  "Ã³": 7438,
  "ĠfÃªte": 7439,
  "Ġprag": 7440,
  "ataires": 7441,
  "ĠÃ©tapes": 7442,
  "ĠAra": 7443,
  "ĠÃ©conomistes": 7444,
  "ĠdÃ©bar": 7445,
  "Ġexplo": 7446,
  "tination": 7447,
  "Ġformule": 7448,
  "ĠtÃ©lÃ©communic": 7449,
  "ĠconfirmÃ©": 7450,
  "Chac": 7451,
  "ĠmatÃ©riel": 7452,
  "Ġcoordonner": 7453,
  "Ġfoot": 7454,
  "ĠsalariÃ©s": 7455,
  "ĠÃ®les": 7456,
  "AD": 7457,
  "lites": 7458,
  "uve": 7459,
  "ÃŃ": 7460,
  "Ġinforme": 7461,
  "Ġsurp": 7462,
  "Ġcontacts": 7463,
  "Ġserai": 7464,
  "Ġ26": 7465,
  "Ġcraintes": 7466,
  "ĠfondÃ©": 7467,
  "Ġatteinte": 7468,
  "Ġirlandaise": 7469,
  "Ġexplication": 7470,
  "Ġfranch": 7471,
  "Ġvenons": 7472,
  "201": 7473,
  "ĠdÃ©pendent": 7474,
  "ĠLiban": 7475,
  "universitÃ©": 7476,
  "Objet": 7477,
  "Ġchaleureusement": 7478,
  "non": 7479,
  "lem": 7480,
  "ĠCela": 7481,
  "seurs": 7482,
  "Ġpropag": 7483,
  "ĠBureau": 7484,
  "emark": 7485,
  "Ġfermer": 7486,
  "Ġfondamentalement": 7487,
  "Ġenvironnemental": 7488,
  "Ġpolonais": 7489,
  "Ġbienvenue": 7490,
  "Tel": 7491,
  "oquer": 7492,
  "Ġmille": 7493,
  "ĠmÃ©diterranÃ©": 7494,
  "Ġramen": 7495,
  "sification": 7496,
  "Ġjoin": 7497,
  "Ġconnex": 7498,
  "Ġcoali": 7499,
  "angers": 7500,
  "Ġstand": 7501,
  "veloppe": 7502,
  "ĠagrÃ©": 7503,
  "Ġutilisateurs": 7504,
  "Ġrisquent": 7505,
  "ĠVer": 7506,
  "attend": 7507,
  "ormÃ©ment": 7508,
  "Ġsignature": 7509,
  "ĠchargÃ©": 7510,
  "Ġtenus": 7511,
  "Ġdiscutons": 7512,
  "Ġjeudi": 7513,
  "Ġrefuser": 7514,
  "ĠtempÃ©ra": 7515,
  "orientation": 7516,
  "Ġdictature": 7517,
  "imbab": 7518,
  "mets": 7519,
  "Ã©tendre": 7520,
  "ĠGen": 7521,
  "Ġappeler": 7522,
  "Ġimmob": 7523,
  "ĠbÃ©nÃ©ficiaires": 7524,
  "Ġallant": 7525,
  "Ġvictime": 7526,
  "ĠcritÃ¨re": 7527,
  "Ġaffirmer": 7528,
  "Ġjournal": 7529,
  "Ġpalestinienne": 7530,
  "Ġdynam": 7531,
  "Ġmigr": 7532,
  "Ġsacri": 7533,
  "Aucune": 7534,
  "Ġambitions": 7535,
  "ĠDanemark": 7536,
  "Ã´pital": 7537,
  "ko": 7538,
  "Ġcre": 7539,
  "anda": 7540,
  "Ġgrandi": 7541,
  "Ġenseig": 7542,
  "Ġtransparente": 7543,
  "achat": 7544,
  "Ġvenue": 7545,
  "Ġpartageons": 7546,
  "Ġsimplifier": 7547,
  "ĠBelgique": 7548,
  "Ġobservations": 7549,
  "Ġapparemment": 7550,
  "Ġcontrovers": 7551,
  "OS": 7552,
  "Ġpage": 7553,
  "ester": 7554,
  "Ġduquel": 7555,
  "Ġreviend": 7556,
  "Ġlieux": 7557,
  "ĠLuxemb": 7558,
  "ĠÃ©levÃ©e": 7559,
  "Åĵil": 7560,
  "ĠrÃ©col": 7561,
  "ĠidentitÃ©": 7562,
  "ĠarrÃªtÃ©": 7563,
  "ĠBaltique": 7564,
  "Ġdiplomatique": 7565,
  "infrastructure": 7566,
  "As": 7567,
  "Ġdettes": 7568,
  "orp": 7569,
  "aband": 7570,
  "ĠMad": 7571,
  "ĠdÃ©cent": 7572,
  "Europol": 7573,
  "ĠmaniÃ¨res": 7574,
  "ĠgÃ©nÃ©raux": 7575,
  "Ġcontribuent": 7576,
  "ĠexpliquÃ©": 7577,
  "ĠlibÃ©ral": 7578,
  "Ġsanction": 7579,
  "Ġaffirme": 7580,
  "Ġdommage": 7581,
  "mÃ©diaire": 7582,
  "Ġvolume": 7583,
  "Ġpont": 7584,
  "investi": 7585,
  "Ġray": 7586,
  "siques": 7587,
  "Ġprouver": 7588,
  "Ġrecon": 7589,
  "Ġmette": 7590,
  "gnent": 7591,
  "intÃ©gr": 7592,
  "ĠbÃ©nÃ©ficie": 7593,
  "ĠrappelÃ©": 7594,
  "Ġindustriels": 7595,
  "ĠÃ©normÃ©ment": 7596,
  "Ġmoral": 7597,
  "Ġdistance": 7598,
  "Ġmodernes": 7599,
  "Ġtemporaire": 7600,
  "Ġrestructuration": 7601,
  "Laissez": 7602,
  "isons": 7603,
  "urb": 7604,
  "Ġvillage": 7605,
  "Ġdiv": 7606,
  "amÃ©ric": 7607,
  "iver": 7608,
  "Ġconfusion": 7609,
  "ĠespÃ¨re": 7610,
  "Ġoccasions": 7611,
  "Ġconstructif": 7612,
  "Ġlibrement": 7613,
  "Ġsemblait": 7614,
  "Ġspor": 7615,
  "ĠterminÃ©": 7616,
  "Tant": 7617,
  "ides": 7618,
  "ints": 7619,
  "Ġtrente": 7620,
  "trÃªme": 7621,
  "ĠSaddam": 7622,
  "Ġaccorde": 7623,
  "ĠaccordÃ©": 7624,
  "Ġassure": 7625,
  "Ġvieille": 7626,
  "Ġentrepren": 7627,
  "Ġrechercher": 7628,
  "ĠfacilitÃ©": 7629,
  "ĠportÃ©": 7630,
  "Ġdossiers": 7631,
  "ĠalliÃ©s": 7632,
  "Ġmusulman": 7633,
  "Ġtribunal": 7634,
  "ĠLuxembourg": 7635,
  "At": 7636,
  "Heure": 7637,
  "genti": 7638,
  "enn": 7639,
  "entique": 7640,
  "Ġmourir": 7641,
  "urg": 7642,
  "ĠdÃ©tÃ©ri": 7643,
  "ĠrÃ©cip": 7644,
  "Ġdirai": 7645,
  "Ġmanquer": 7646,
  "Ġinspe": 7647,
  "Ġforum": 7648,
  "pÃ©rÃ©": 7649,
  "ĠKh": 7650,
  "tÃ©rieurs": 7651,
  "Ġdisparu": 7652,
  "ĠhandicapÃ©es": 7653,
  "apprÃ©cie": 7654,
  "ĠComitÃ©": 7655,
  "mann": 7656,
  "Ġlai": 7657,
  "Ġajus": 7658,
  "Ġauteurs": 7659,
  "ĠdÃ©r": 7660,
  "lÃ©b": 7661,
  "isible": 7662,
  "ĠdÃ©battons": 7663,
  "Ġmalade": 7664,
  "ParallÃ¨lement": 7665,
  "ĠVan": 7666,
  "lone": 7667,
  "effort": 7668,
  "ĠrÃ©cla": 7669,
  "ĠbÃ©nÃ©fice": 7670,
  "ĠprÃ©fÃ¨re": 7671,
  "ĠconfrontÃ©e": 7672,
  "Ġpatrim": 7673,
  "Ġprudence": 7674,
  "oublions": 7675,
  "Ġbrevets": 7676,
  "ĠÃ©duc": 7677,
  "ey": 7678,
  "tier": 7679,
  "tiÃ¨me": 7680,
  "Ġfati": 7681,
  "chÃ©e": 7682,
  "Ġremet": 7683,
  "Ġplaintes": 7684,
  "ffaires": 7685,
  "Ġchans": 7686,
  "irait": 7687,
  "ĠSommet": 7688,
  "ĠSlovaquie": 7689,
  "Ġformer": 7690,
  "Ġarb": 7691,
  "jeurs": 7692,
  "Ġmajeurs": 7693,
  "Ġvoudrions": 7694,
  "ĠDo": 7695,
  "Ġgarantit": 7696,
  "ĠformulÃ©es": 7697,
  "Ġhautement": 7698,
  "Ġconvaincus": 7699,
  "Ġtendances": 7700,
  "Ġsoumise": 7701,
  "Ġbateau": 7702,
  "Ġincontest": 7703,
  "fait": 7704,
  "ouff": 7705,
  "Ġmine": 7706,
  "meurs": 7707,
  "itÃ©e": 7708,
  "Ġsurven": 7709,
  "Ġdiagn": 7710,
  "mblement": 7711,
  "Ġcourse": 7712,
  "rasser": 7713,
  "Ġmultination": 7714,
  "Ġfiscaux": 7715,
  "Ġstimul": 7716,
  "Ġobservateurs": 7717,
  "ougosl": 7718,
  "Compte": 7719,
  "ĠÃ©larg": 7720,
  "citement": 7721,
  "vidence": 7722,
  "intÃ©grer": 7723,
  "Ġdurables": 7724,
  "inclusion": 7725,
  "Ġsentiments": 7726,
  "Ġcampagnes": 7727,
  "ĠoubliÃ©": 7728,
  "Ġfabric": 7729,
  "ĠmÃ©decins": 7730,
  "Ġsoyez": 7731,
  "Ġtribunaux": 7732,
  "gleterre": 7733,
  "AS": 7734,
  "oriste": 7735,
  "viendra": 7736,
  "Ġjuger": 7737,
  "Ġmanifeste": 7738,
  "Ġcivilisation": 7739,
  "ĠprovoquÃ©": 7740,
  "Ġjugement": 7741,
  "Telle": 7742,
  "Ġlou": 7743,
  "Ġtonnes": 7744,
  "usage": 7745,
  "ĠrÃ©form": 7746,
  "ativitÃ©": 7747,
  "lÃ©naire": 7748,
  "ĠDar": 7749,
  "iliers": 7750,
  "ĠKar": 7751,
  "Ġbiodi": 7752,
  "ĠprÃ©cises": 7753,
  "Ġtenant": 7754,
  "alestine": 7755,
  "Ġofficielle": 7756,
  "Ġtableau": 7757,
  "adaptation": 7758,
  "Ġmultiples": 7759,
  "Ġcontenter": 7760,
  "Ġethniques": 7761,
  "ĠMacÃ©d": 7762,
  "cycle": 7763,
  "ĠbiodiversitÃ©": 7764,
  "kistan": 7765,
  "ĠmÃ¨ne": 7766,
  "Ġvrais": 7767,
  "Ġparlent": 7768,
  "Ġtromp": 7769,
  "ĠPalestine": 7770,
  "ĠprÃ©sentÃ©es": 7771,
  "ribuer": 7772,
  "Ġbiologique": 7773,
  "Ġviolences": 7774,
  "Ġcollective": 7775,
  "Ġsurveiller": 7776,
  "Ġcouvrir": 7777,
  "ĠÃ©laborÃ©": 7778,
  "ĠÃ©crite": 7779,
  "Ġrarement": 7780,
  "Ġrapprocher": 7781,
  "ly": 7782,
  "Ġdos": 7783,
  "Ġagi": 7784,
  "Ġeau": 7785,
  "aritÃ©s": 7786,
  "sives": 7787,
  "tÃ©ralement": 7788,
  "Ġremis": 7789,
  "ĠsoulÃ¨ve": 7790,
  "Ġviable": 7791,
  "Ã©cri": 7792,
  "raini": 7793,
  "ĠNice": 7794,
  "ĠnÃ©gative": 7795,
  "ĠinformÃ©s": 7796,
  "Ġfrag": 7797,
  "ribution": 7798,
  "Ġressembl": 7799,
  "Ġsinon": 7800,
  "donÃ©": 7801,
  "dans": 7802,
  "arra": 7803,
  "ith": 7804,
  "astri": 7805,
  "aution": 7806,
  "Ġentour": 7807,
  "auto": 7808,
  "gici": 7809,
  "tionnellement": 7810,
  "Ġexiger": 7811,
  "Ġrecommande": 7812,
  "Ġconstante": 7813,
  "Ġattaque": 7814,
  "ĠÃ©labor": 7815,
  "affirmer": 7816,
  "Ġfroid": 7817,
  "Ġintellectuelle": 7818,
  "Ġsyndicats": 7819,
  "ĠnÃ©erlandais": 7820,
  "ĠFranÃ§": 7821,
  "ĠmÃ¨tres": 7822,
  "onnÃ©s": 7823,
  "micycle": 7824,
  "ĠdÃ©cÃ¨s": 7825,
  "Ġrecueil": 7826,
  "Ġaim": 7827,
  "Ġchacune": 7828,
  "Ġsortie": 7829,
  "Ġtraditions": 7830,
  "Ġjournaux": 7831,
  "Ġsexuelle": 7832,
  "ĠcÃ©lÃ©b": 7833,
  "Ġtraduit": 7834,
  "ĠVIH": 7835,
  "ĠtÃ©lÃ©communications": 7836,
  "Ġcoalition": 7837,
  "tification": 7838,
  "Ġtuer": 7839,
  "ĠconcrÃ©ti": 7840,
  "ĠSol": 7841,
  "Ġ...": 7842,
  "ĠTunis": 7843,
  "ĠrespectÃ©": 7844,
  "instauration": 7845,
  "Ġparvenu": 7846,
  "Ġprofondes": 7847,
  "Ġindividuels": 7848,
  "Ġislamique": 7849,
  "nam": 7850,
  "ĠsÅĵur": 7851,
  "ars": 7852,
  "illÃ©": 7853,
  "ĠÃ©man": 7854,
  "cidence": 7855,
  "respons": 7856,
  "Ġtoucher": 7857,
  "ĠÃ©car": 7858,
  "Ġculturelles": 7859,
  "Ġrespectent": 7860,
  "Ġlocale": 7861,
  "Ġallou": 7862,
  "Ġsensib": 7863,
  "Ġtombe": 7864,
  "Ġbattre": 7865,
  "Ġplacer": 7866,
  "Ġabandonner": 7867,
  "ĠsystÃ©matiquement": 7868,
  "Ġfaillite": 7869,
  "Ġvacances": 7870,
  "Ġerron": 7871,
  "Ã©mer": 7872,
  "Ġem": 7873,
  "istr": 7874,
  "ĠrÃ©duite": 7875,
  "Ġconcevoir": 7876,
  "Ġconcret": 7877,
  "istons": 7878,
  "Ġcroit": 7879,
  "ĠopÃ©rateurs": 7880,
  "Ġferons": 7881,
  "Ġsubir": 7882,
  "endues": 7883,
  "ĠespÃ¨ce": 7884,
  "Ġouvre": 7885,
  "Ġlogici": 7886,
  "ĠpÃ©nal": 7887,
  "oiseaux": 7888,
  "ĠLibye": 7889,
  "Ġreligieuses": 7890,
  "Ġinterinstitutionnel": 7891,
  "Ġressortissants": 7892,
  "Ġpatrimoine": 7893,
  "RÃ©": 7894,
  "Ġsois": 7895,
  "ano": 7896,
  "ĠdÃ©jeuner": 7897,
  "Ġplur": 7898,
  "Ġsupr": 7899,
  "ĠentrÃ©e": 7900,
  "ĠappliquÃ©": 7901,
  "ĠdÃ©cisionne": 7902,
  "Ġjudiciaires": 7903,
  "ĠavancÃ©s": 7904,
  "Ġespagnole": 7905,
  "Ġconsolidation": 7906,
  "excellent": 7907,
  "opportunitÃ©": 7908,
  "astricht": 7909,
  "ĠfossÃ©": 7910,
  "ĠparallÃ¨": 7911,
  "ĠprÃ©cieux": 7912,
  "Ġtraduire": 7913,
  "ĠposÃ©e": 7914,
  "ĠfaÃ§ons": 7915,
  "ĠEspagne": 7916,
  "olitique": 7917,
  "Ġindiquer": 7918,
  "Ġabsurde": 7919,
  "ĠlÃ©giti": 7920,
  "Ġconfirme": 7921,
  "clav": 7922,
  "ĠMaastricht": 7923,
  "mosphÃ¨re": 7924,
  "ĠprÃ©texte": 7925,
  "Ġunion": 7926,
  "ĠÃ©tique": 7927,
  "assion": 7928,
  "blic": 7929,
  "ĠAu": 7930,
  "ĠdÃ©mographique": 7931,
  "Ġpassent": 7932,
  "ĠdÃ©ses": 7933,
  "Ġorganiser": 7934,
  "ĠsuscitÃ©": 7935,
  "Ġcommunications": 7936,
  "ĠgÃ©ographique": 7937,
  "ĠTraitÃ©s": 7938,
  "Ġpieds": 7939,
  "ĠZimbab": 7940,
  "ĠsuÃ©doise": 7941,
  "Ġlicenci": 7942,
  "ougoslavie": 7943,
  "Celle": 7944,
  "kin": 7945,
  "ĠUn": 7946,
  "quait": 7947,
  "Ġfen": 7948,
  "illi": 7949,
  "Ġconj": 7950,
  "dev": 7951,
  "rob": 7952,
  "Ġavoc": 7953,
  "Ġexception": 7954,
  "Ġpare": 7955,
  "Ġrapproche": 7956,
  "Ã´tre": 7957,
  "Ġcommet": 7958,
  "Ġterrib": 7959,
  "Ġterrible": 7960,
  "ĠexposÃ©": 7961,
  "Ġreprodu": 7962,
  "ĠLitu": 7963,
  "Ġagence": 7964,
  "Ġpassant": 7965,
  "Ġdoub": 7966,
  "ĠWal": 7967,
  "Ġdestination": 7968,
  "Ġconcentration": 7969,
  "chitecture": 7970,
  "effondrement": 7971,
  "Ã©limination": 7972,
  "occupation": 7973,
  "ÃĬtes": 7974,
  "Afin": 7975,
  "car": 7976,
  "eb": 7977,
  "Ġpair": 7978,
  "ini": 7979,
  "inv": 7980,
  "ĠexcÃ©d": 7981,
  "autom": 7982,
  "Ġpuissant": 7983,
  "isez": 7984,
  "Ġarme": 7985,
  "ĠtotalitÃ©": 7986,
  "Ġinvestissement": 7987,
  "Ġcontradiction": 7988,
  "Ġexcessive": 7989,
  "Ġsusceptible": 7990,
  "Ġrecycl": 7991,
  "Ã©lab": 7992,
  "Ġlentement": 7993,
  "ĠrÃ©d": 7994,
  "Ġgenti": 7995,
  "acqu": 7996,
  "accident": 7997,
  "Ġilli": 7998,
  "ĠSa": 7999,
  "Ġamus": 8000,
  "Ġclients": 8001,
  "ĠdÃ©penser": 8002,
  "Ġ2012": 8003,
  "ĠdÃ©couvrir": 8004,
  "Ġprofondeur": 8005,
  "autorisation": 8006,
  "ĠcitoyennetÃ©": 8007,
  "Aux": 8008,
  "stitu": 8009,
  "Ġpun": 8010,
  "Ġsatel": 8011,
  "dication": 8012,
  "Ġchaud": 8013,
  "Ġcontamin": 8014,
  "Ġtiennent": 8015,
  "Ġattra": 8016,
  "ĠarrivÃ©s": 8017,
  "ĠgravitÃ©": 8018,
  "Ġrempli": 8019,
  "ĠfiscalitÃ©": 8020,
  "Ġsimul": 8021,
  "Ġcompensation": 8022,
  "Ġpoursuit": 8023,
  "Ġpierre": 8024,
  "ĠEuropÃ©enne": 8025,
  "ĠMacÃ©doine": 8026,
  "Soy": 8027,
  "ga": 8028,
  "Ġ[": 8029,
  "ailles": 8030,
  "Ġmass": 8031,
  "ĠrÃ©sid": 8032,
  "Ġrecti": 8033,
  "Ġprofi": 8034,
  "ĠchrÃ©tiens": 8035,
  "Ġcompassion": 8036,
  "ĠBen": 8037,
  "ĠdurabilitÃ©": 8038,
  "atisation": 8039,
  "attra": 8040,
  "Ġ1994": 8041,
  "Ġessayons": 8042,
  "registre": 8043,
  "Ġfaiblesse": 8044,
  "Ġsignificatif": 8045,
  "ĠtolÃ©rance": 8046,
  "Ġfondement": 8047,
  "Ġnavig": 8048,
  "ĠTchÃ©t": 8049,
  "Ġtrompe": 8050,
  "mÃ©s": 8051,
  "Ġlende": 8052,
  "Ġjeter": 8053,
  "avance": 8054,
  "Ġsciences": 8055,
  "Ġinstamment": 8056,
  "Ġuniversel": 8057,
  "Ġdangereuse": 8058,
  "Ġfeuille": 8059,
  "ĠspÃ©cul": 8060,
  "ĠkilomÃ¨tres": 8061,
  "angi": 8062,
  "sifs": 8063,
  "Ġdict": 8064,
  "Ġexam": 8065,
  "Ġaveug": 8066,
  "dÃ©rale": 8067,
  "Ġbibli": 8068,
  "ĠsÃ»rement": 8069,
  "Ġcombusti": 8070,
  "Ġridi": 8071,
  "ĠprÃ©fÃ©rÃ©": 8072,
  "ĠexaminÃ©": 8073,
  "ĠinquiÃ©tude": 8074,
  "Ġartifici": 8075,
  "ĠÃ©coutÃ©": 8076,
  "Ġignorer": 8077,
  "ĠprÃ©tend": 8078,
  "Ġitalien": 8079,
  "Ġclarifier": 8080,
  "Ġinjusti": 8081,
  "Autrement": 8082,
  "ĠÃ©largie": 8083,
  "ĠrÃ©ve": 8084,
  "Ġchauff": 8085,
  "Ġdivision": 8086,
  "exer": 8087,
  "Ġaid": 8088,
  "Ġfrus": 8089,
  "Ġretrouve": 8090,
  "ĠtouchÃ©s": 8091,
  "ĠsouhaitÃ©": 8092,
  "ĠdÃ©favoris": 8093,
  "Autriche": 8094,
  "Ġdangers": 8095,
  "Ġpert": 8096,
  "tiers": 8097,
  "aspect": 8098,
  "ĠMold": 8099,
  "Ġmeurent": 8100,
  "peau": 8101,
  "Ġharmonisation": 8102,
  "exception": 8103,
  "Ã©cus": 8104,
  "ĠarrivÃ©e": 8105,
  "Ġadministration": 8106,
  "ĠprocÃ©dÃ©": 8107,
  "ĠmÃ©decine": 8108,
  "Ġpanne": 8109,
  "Ġcollaborer": 8110,
  "ĠboÃ®": 8111,
  "Ġprimordial": 8112,
  "interprÃ©tation": 8113,
  "entends": 8114,
  "Ġforts": 8115,
  "Ġadresser": 8116,
  "Ġtiss": 8117,
  "Ġmini": 8118,
  "ologues": 8119,
  "Ġvisa": 8120,
  "Ġrenforce": 8121,
  "occuper": 8122,
  "urrence": 8123,
  "tisme": 8124,
  "ĠprÃªter": 8125,
  "acheter": 8126,
  "Ġobjets": 8127,
  "ĠbÃ©bÃ©": 8128,
  "ĠMinistre": 8129,
  ".-": 8130,
  "IC": 8131,
  "Ġx": 8132,
  "activ": 8133,
  "ocÃ©": 8134,
  "institution": 8135,
  "Ġinterdit": 8136,
  "fini": 8137,
  "Ġcartes": 8138,
  "Ġrenoncer": 8139,
  "Ġsupporter": 8140,
  "Ġcapitalisme": 8141,
  "Ġdirigeant": 8142,
  "ĠsiÃ¨cles": 8143,
  "Ġflot": 8144,
  "ĠdiplÃ´": 8145,
  "Ġsurprenant": 8146,
  "Ġoctroy": 8147,
  "ĠRome": 8148,
  "ĠfÃ©min": 8149,
  "Ġquasiment": 8150,
  "ĠÃ©liminer": 8151,
  "Ġpension": 8152,
  "argu": 8153,
  "itage": 8154,
  "Ġtas": 8155,
  "Ġenn": 8156,
  "Ġparal": 8157,
  "Ġbaisser": 8158,
  "ĠÃ©gal": 8159,
  "Ġdiffusion": 8160,
  "ĠDav": 8161,
  "Ġproposons": 8162,
  "Ġarrivent": 8163,
  "ĠprÃ©occupe": 8164,
  "Internet": 8165,
  "Ġindispensables": 8166,
  "Ġdimensions": 8167,
  "Ġmagas": 8168,
  "Ġtroubles": 8169,
  "Ġsatisfaisante": 8170,
  "Ġstabilisation": 8171,
  "ĠUnies": 8172,
  "Ġmagnifique": 8173,
  "ocÃ©an": 8174,
  "%.": 8175,
  "OR": 8176,
  "cop": 8177,
  "citer": 8178,
  "lot": 8179,
  "Ġvues": 8180,
  "Ġunani": 8181,
  "ĠdÃ©truire": 8182,
  "ositÃ©": 8183,
  "agisse": 8184,
  "Ġimparti": 8185,
  "oct": 8186,
  "extension": 8187,
  "ĠconstituÃ©": 8188,
  "alib": 8189,
  "Ġrestaur": 8190,
  "Ġcourte": 8191,
  "Ġpromet": 8192,
  "ĠinformÃ©": 8193,
  "Ġobserver": 8194,
  "Ġcondamner": 8195,
  "Ġcroyons": 8196,
  "Ġlabor": 8197,
  "Ġapprofondie": 8198,
  "ĠgÃ©nÃ©tiquement": 8199,
  "Ã©laborer": 8200,
  "Ġloy": 8201,
  "Ġlancement": 8202,
  "Ġquarti": 8203,
  "rapp": 8204,
  "ouvons": 8205,
  "Ġexister": 8206,
  "ĠimposÃ©es": 8207,
  "ĠBlair": 8208,
  "effectu": 8209,
  "Ġcombler": 8210,
  "Ġbrill": 8211,
  "Lorsqu": 8212,
  "Quelqu": 8213,
  "Ġcomparaison": 8214,
  "Ġordinaires": 8215,
  "animaux": 8216,
  "Ġconsolider": 8217,
  "Ġespoirs": 8218,
  "Ġbrevet": 8219,
  "ĠrÃ©cipro": 8220,
  "Ġdiagnosti": 8221,
  "SV": 8222,
  "gen": 8223,
  "hol": 8224,
  "hyp": 8225,
  "ieux": 8226,
  "rain": 8227,
  "rid": 8228,
  "ĠrÃ©actions": 8229,
  "Ġgel": 8230,
  "Ġimpose": 8231,
  "Ã©normes": 8232,
  "ĠdÃ©passer": 8233,
  "ĠconsidÃ©rÃ©s": 8234,
  "Ã©rap": 8235,
  "ĠassistÃ©": 8236,
  "olie": 8237,
  "ĠdÃ©cisif": 8238,
  "Ġ75": 8239,
  "Ġanticip": 8240,
  "Ġraconter": 8241,
  "Ġplanification": 8242,
  "ĠimpÃ©ratif": 8243,
  "ĠscÃ©nario": 8244,
  "ĠLituanie": 8245,
  "uie": 8246,
  "vrer": 8247,
  "oub": 8248,
  "ome": 8249,
  "Ġnett": 8250,
  "extrÃªme": 8251,
  "imposition": 8252,
  "Ġgrandement": 8253,
  "Ġcommentaire": 8254,
  "Ġrapides": 8255,
  "Ġrivi": 8256,
  "Ġfermeture": 8257,
  "Ġretourner": 8258,
  "Ġhumanitaires": 8259,
  "ĠspÃ©cifiquement": 8260,
  "ĠÃ©crire": 8261,
  "ĠnommÃ©": 8262,
  "ĠaÃ©roports": 8263,
  "rits": 8264,
  "ua": 8265,
  "enregistre": 8266,
  "Ġsond": 8267,
  "Ġrub": 8268,
  "ĠconÃ§u": 8269,
  "ĠhÃ©s": 8270,
  "Ġautrich": 8271,
  "Ġmaintes": 8272,
  "Ġoral": 8273,
  "Ã©rale": 8274,
  "ĠmontÃ©e": 8275,
  "Ġsubi": 8276,
  "Ġsubvention": 8277,
  "Ġfonctionnent": 8278,
  "Ġsignifier": 8279,
  "Ġimplications": 8280,
  "Ġanimal": 8281,
  "Ġcouvre": 8282,
  "ĠSuisse": 8283,
  "piration": 8284,
  "Ġfructu": 8285,
  "accompag": 8286,
  "ĠcinquiÃ¨me": 8287,
  "ĠDoha": 8288,
  "ĠTunisie": 8289,
  "ER": 8290,
  "mÃ©t": 8291,
  "prÃ©s": 8292,
  "oure": 8293,
  "Ġmuni": 8294,
  "omin": 8295,
  "Ġjamb": 8296,
  "atures": 8297,
  "ĠMe": 8298,
  "pec": 8299,
  "avions": 8300,
  "ĠdÃ©plor": 8301,
  "ĠLi": 8302,
  "experts": 8303,
  "Ġrespectu": 8304,
  "Ġdouleur": 8305,
  "Ġbureaux": 8306,
  "Ġ150": 8307,
  "Ġvoulaient": 8308,
  "Ġcouleur": 8309,
  "ĠcondamnÃ©": 8310,
  "Ouest": 8311,
  "Ġorgane": 8312,
  "ĠsÃ»retÃ©": 8313,
  "Ġfrontali": 8314,
  "ĠenquÃªtes": 8315,
  "Ġbiblioth": 8316,
  "honneur": 8317,
  "Ġparviend": 8318,
  "ressions": 8319,
  "ommage": 8320,
  "Ġperp": 8321,
  "exig": 8322,
  "ĠRusses": 8323,
  "ĠcarriÃ¨re": 8324,
  "Ġpublication": 8325,
  "ĠempÃªche": 8326,
  "ĠpÃ©riph": 8327,
  "ĠcÃ´te": 8328,
  "Ġculturels": 8329,
  "ĠmodifiÃ©": 8330,
  "Ġcharte": 8331,
  "ĠsÃ©rieuses": 8332,
  "tÃ©ritÃ©": 8333,
  "Ġpoursuiv": 8334,
  "atrices": 8335,
  "ĠexprimÃ©es": 8336,
  "Ġsexe": 8337,
  "ozy": 8338,
  "ĠColomb": 8339,
  "Ġinnoc": 8340,
  "Chacun": 8341,
  "Ac": 8342,
  "bie": 8343,
  "Ġnul": 8344,
  "Ġconvers": 8345,
  "Ġprovis": 8346,
  "Ġdevions": 8347,
  "Ġhoriz": 8348,
  "lÃ¨vement": 8349,
  "Ġapport": 8350,
  "Ġtiendra": 8351,
  "ĠNo": 8352,
  "ĠrÃ©sulte": 8353,
  "Ġnulle": 8354,
  "ĠrÃ©former": 8355,
  "Ġparticipants": 8356,
  "ĠrevÃª": 8357,
  "hip": 8358,
  "Ġestimations": 8359,
  "ĠcrÃ©dible": 8360,
  "indivi": 8361,
  "arkozy": 8362,
  "Ġsurvivre": 8363,
  "ĠdÃ©sÃ©quilibres": 8364,
  "Im": 8365,
  "Ã¤": 8366,
  "envoyer": 8367,
  "Ġcos": 8368,
  "ĠÃ©ducation": 8369,
  "celone": 8370,
  "Ġbour": 8371,
  "ageux": 8372,
  "ĠPe": 8373,
  "ands": 8374,
  "ĠprÃ©cip": 8375,
  "ĠmarquÃ©": 8376,
  "ĠDi": 8377,
  "ĠnÃ©gatives": 8378,
  "Ġadopte": 8379,
  "ĠdÃ©solÃ©": 8380,
  "Ġlaissez": 8381,
  "Ġcontrat": 8382,
  "Ġcomportements": 8383,
  "Ġcollecte": 8384,
  "ĠÃ©lectroniques": 8385,
  "ajustement": 8386,
  "Finalement": 8387,
  "ĠZimbabwe": 8388,
  "Ġmassac": 8389,
  "Ġlendemain": 8390,
  "Ġdesque": 8391,
  "Ġquiconque": 8392,
  "extra": 8393,
  "ĠTi": 8394,
  "ĠrÃ¨gne": 8395,
  "ĠEst": 8396,
  "ĠÃ©cologiques": 8397,
  "Ġpersonnelles": 8398,
  "aye": 8399,
  "ĠprÃ©visions": 8400,
  "Ġtechnologiques": 8401,
  "Ã¯n": 8402,
  "lore": 8403,
  "haus": 8404,
  "ĠdÃ©taillÃ©e": 8405,
  "Ġcorrecte": 8406,
  "ĠdÃ©montrer": 8407,
  "ĠmatÃ©riaux": 8408,
  "Ġbancaires": 8409,
  "ĠexpÃ©riment": 8410,
  "oudan": 8411,
  "Ġconservateurs": 8412,
  "ste": 8413,
  "ski": 8414,
  "Ġchasse": 8415,
  "avÃ©rer": 8416,
  "ĠprÃ©m": 8417,
  "ĠÃ©tendre": 8418,
  "ensez": 8419,
  "lub": 8420,
  "Ġrelancer": 8421,
  "Ġmonter": 8422,
  "Ġmesurer": 8423,
  "ĠspÃ©ciale": 8424,
  "ĠMaroc": 8425,
  "Ġapplicables": 8426,
  "Pouvez": 8427,
  "ling": 8428,
  "laud": 8429,
  "Ġsit": 8430,
  "Ġproje": 8431,
  "ulaires": 8432,
  "ĠocÃ©": 8433,
  "Ġmaisons": 8434,
  "Ã©nophob": 8435,
  "ĠÃ©gards": 8436,
  "Ġtire": 8437,
  "dÃ©bat": 8438,
  "Ġcolon": 8439,
  "Ġfiscal": 8440,
  "ĠdisparaÃ®tre": 8441,
  "aviation": 8442,
  "ĠquantitÃ©s": 8443,
  "Ġaboutir": 8444,
  "Ġbelge": 8445,
  "Ġdiscipline": 8446,
  "Ġtransatlantique": 8447,
  "ĠxÃ©nophob": 8448,
  "oo": 8449,
  "Ġmou": 8450,
  "Ġrav": 8451,
  "estes": 8452,
  "audi": 8453,
  "ĠingÃ©": 8454,
  "iront": 8455,
  "ordanie": 8456,
  "Ã©cart": 8457,
  "Ġformid": 8458,
  "Ġ194": 8459,
  "Ġ400": 8460,
  "Alliance": 8461,
  "Ġnoter": 8462,
  "Ġappelons": 8463,
  "ĠfÃ©licitations": 8464,
  "ĠdÃ©gra": 8465,
  "Ġordinateurs": 8466,
  "Ġtraitements": 8467,
  "ĠÃ©vidente": 8468,
  "Ġphilosophie": 8469,
  "AutoritÃ©": 8470,
  "Ġinondations": 8471,
  "ĠconcrÃ©tiser": 8472,
  "99": 8473,
  "laire": 8474,
  "Ġdue": 8475,
  "ago": 8476,
  "abou": 8477,
  "Ġavance": 8478,
  "Ġmargin": 8479,
  "Ġinscrit": 8480,
  "Ġpouvant": 8481,
  "atisme": 8482,
  "ĠOGM": 8483,
  "ĠmortalitÃ©": 8484,
  "Ġvenez": 8485,
  "ĠBarcelone": 8486,
  "Ġobtenus": 8487,
  "Ġrejette": 8488,
  "ĠÃ©ventuellement": 8489,
  "ĠÃ©mergents": 8490,
  "Ġrentrer": 8491,
  "Ġenregistre": 8492,
  "Ġrassembler": 8493,
  "Ġaffect": 8494,
  "Ġprioritaires": 8495,
  "Ġjoindre": 8496,
  "CS": 8497,
  "Contr": 8498,
  "Nombre": 8499,
  "onge": 8500,
  "ino": 8501,
  "itar": 8502,
  "Ġflu": 8503,
  "ppe": 8504,
  "cessions": 8505,
  "Ġservent": 8506,
  "aph": 8507,
  "ĠrÃ©pÃ©tÃ©": 8508,
  "Ġsavais": 8509,
  "Ġgars": 8510,
  "Ġchauss": 8511,
  "Ġconnue": 8512,
  "Ġutilisons": 8513,
  "Ġparticipent": 8514,
  "ĠsÃ©jour": 8515,
  "aura": 8516,
  "chÃ©nie": 8517,
  "Ġconstatons": 8518,
  "ĠaÃ©rienne": 8519,
  "Outre": 8520,
  "Ġmobiliser": 8521,
  "Ġsatisfaits": 8522,
  "actualitÃ©": 8523,
  "ĠprÃ©judi": 8524,
  "Ġprotectionnisme": 8525,
  "Ġadultes": 8526,
  "Ġfootball": 8527,
  "ĠTchÃ©tchÃ©nie": 8528,
  "zar": 8529,
  "ĠUne": 8530,
  "ĠPSE": 8531,
  "Ġappuy": 8532,
  "Ġnomin": 8533,
  "Ġcrainte": 8534,
  "ĠtirÃ©": 8535,
  "Ã®le": 8536,
  "efforts": 8537,
  "ĠindÃ©pendance": 8538,
  "Ġfixe": 8539,
  "Ġprovin": 8540,
  "Ġdistor": 8541,
  "Ġprenant": 8542,
  "roÃ®t": 8543,
  "Ġvalable": 8544,
  "Ġquotidienne": 8545,
  "ĠcomplÃ©mentaires": 8546,
  "ĠbilatÃ©raux": 8547,
  "Ġbulle": 8548,
  "ĠrÃ©solus": 8549,
  "Ġenvie": 8550,
  "opor": 8551,
  "Ġgagn": 8552,
  "Ġdigne": 8553,
  "ĠinsistÃ©": 8554,
  "ĠforÃªt": 8555,
  "Ġcroient": 8556,
  "obb": 8557,
  "ĠdÃ©mission": 8558,
  "Ġtitres": 8559,
  "Ġmontants": 8560,
  "Ġprofits": 8561,
  "Ġentrepris": 8562,
  "Ġinclus": 8563,
  "ĠspÃ©cialement": 8564,
  "Ġpointe": 8565,
  "session": 8566,
  "ĠÃ©tabl": 8567,
  "approuver": 8568,
  "Ġaffirm": 8569,
  "Ġdevoirs": 8570,
  "Quelques": 8571,
  "ĠconcrÃ¨tement": 8572,
  "ESB": 8573,
  "ĠpossÃ¨dent": 8574,
  "Ġvigil": 8575,
  "Ġterritoriale": 8576,
  "currence": 8577,
  "esse": 8578,
  "Ã©lor": 8579,
  "Ġcouverture": 8580,
  "riques": 8581,
  "Ġbran": 8582,
  "Ġregr": 8583,
  "roits": 8584,
  "avancer": 8585,
  "gile": 8586,
  "aill": 8587,
  "Ġtransmis": 8588,
  "Ġagents": 8589,
  "ĠdÃ©mocratisation": 8590,
  "Ġaffi": 8591,
  "Ġpharm": 8592,
  "Ġretards": 8593,
  "ctuellement": 8594,
  "sraÃ©li": 8595,
  "ĠprÃ©fÃ©rable": 8596,
  "Ġoccupe": 8597,
  "ĠratifiÃ©": 8598,
  "ĠcompliquÃ©": 8599,
  "ĠrÃ©vÃ©lÃ©": 8600,
  "ĠmÃ©nages": 8601,
  "Ġdeviendra": 8602,
  "Ġflotte": 8603,
  "EI": 8604,
  "aler": 8605,
  "Ġjui": 8606,
  "ulÃ©": 8607,
  "Encore": 8608,
  "Ġdomes": 8609,
  "Ġfaisaient": 8610,
  "illages": 8611,
  "importantes": 8612,
  "ĠrÃ©glementaire": 8613,
  "Ġsouffre": 8614,
  "Ġspati": 8615,
  "instabilitÃ©": 8616,
  "Ġfusion": 8617,
  "ĠsignalÃ©": 8618,
  "ĠadÃ©quat": 8619,
  "Ġ1980": 8620,
  "Ġtraduction": 8621,
  "Ġsauvetage": 8622,
  "Heureusement": 8623,
  "ĠĊ": 8624,
  "inverse": 8625,
  "acquis": 8626,
  "viens": 8627,
  "Ã§a": 8628,
  "Ġrenv": 8629,
  "Ġpartagent": 8630,
  "Ġcamps": 8631,
  "ĠlÃ©gÃ¨rement": 8632,
  "ĠnÃ©gatifs": 8633,
  "Ġdonnera": 8634,
  "ĠappelÃ©e": 8635,
  "Ã©levage": 8636,
  "ĠInter": 8637,
  "investissements": 8638,
  "ĠassociÃ©s": 8639,
  "inquiÃ©tude": 8640,
  "Ġbateaux": 8641,
  "ĠhÃ©las": 8642,
  "nis": 8643,
  "Ġbande": 8644,
  "Ġpluri": 8645,
  "ĠimprÃ©": 8646,
  "ĠrÃ©sumÃ©": 8647,
  "gnÃ©s": 8648,
  "Ġrenf": 8649,
  "ĠNiger": 8650,
  "Ã¢che": 8651,
  "aturellement": 8652,
  "Ġsolides": 8653,
  "akh": 8654,
  "atriÃ¨mement": 8655,
  "ĠprÃ©cÃ©dentes": 8656,
  "Ġveille": 8657,
  "Ġmessages": 8658,
  "ĠtransfrontaliÃ¨re": 8659,
  "Regarde": 8660,
  "Ġethnique": 8661,
  "ĠFranÃ§ais": 8662,
  "ĠrelÃ¨vent": 8663,
  "aggra": 8664,
  "Ġdirects": 8665,
  "ĠdÃ©ploi": 8666,
  "ogle": 8667,
  "ariats": 8668,
  "Ġportes": 8669,
  "ĠintÃ©ressantes": 8670,
  "Ġinviter": 8671,
  "Ġcercle": 8672,
  "Ġchinoises": 8673,
  "aÃ¯ti": 8674,
  "ĠCette": 8675,
  "Ġemployeurs": 8676,
  "ĠfrappÃ©": 8677,
  "ĠamenÃ©": 8678,
  "Ġreligieuse": 8679,
  "Ġleadership": 8680,
  "ĠintÃ©grante": 8681,
  "ĠrÃ©conciliation": 8682,
  "jac": 8683,
  "Ġom": 8684,
  "Ġnorme": 8685,
  "incertitude": 8686,
  "Ġfit": 8687,
  "itÃ©es": 8688,
  "ĠcessÃ©": 8689,
  "Ġappui": 8690,
  "Ġnomination": 8691,
  "Ġdonnant": 8692,
  "Ġinciter": 8693,
  "Ġsecondes": 8694,
  "Ġdisparition": 8695,
  "ĠUkraine": 8696,
  "Ġfabrication": 8697,
  "Ġambigu": 8698,
  "Ġsaurait": 8699,
  "Ġsagesse": 8700,
  "Se": 8701,
  "Ã©vidence": 8702,
  "Ã¨ques": 8703,
  "Ġparviennent": 8704,
  "ĠMM": 8705,
  "Ġdevise": 8706,
  "Ġadmis": 8707,
  "Ġvoudrait": 8708,
  "ĠDub": 8709,
  "Ã©conomiques": 8710,
  "ĠsÃ©p": 8711,
  "Ġatteints": 8712,
  "Ġtourne": 8713,
  "Ġexplications": 8714,
  "Ġtenons": 8715,
  "Ġanimale": 8716,
  "Ġouvertement": 8717,
  "ĠestimÃ©": 8718,
  "Ġtorture": 8719,
  "ĠaccÃ©lÃ©rer": 8720,
  "ĠDÃ©putÃ©s": 8721,
  "Ġmultinationales": 8722,
  "ho": 8723,
  "ya": 8724,
  "esc": 8725,
  "anou": 8726,
  "chnolo": 8727,
  "mping": 8728,
  "ensitÃ©": 8729,
  "ĠMich": 8730,
  "ĠcomplÃ©ter": 8731,
  "ĠSarkozy": 8732,
  "Ġsocio": 8733,
  "Ġtravaillant": 8734,
  "ĠGol": 8735,
  "ĠNon": 8736,
  "Ġassister": 8737,
  "Ġattach": 8738,
  "exprime": 8739,
  "Ġremise": 8740,
  "Ġsuivants": 8741,
  "ĠtuÃ©": 8742,
  "Ġcherchent": 8743,
  "Ġstructurelle": 8744,
  "ĠassurÃ©ment": 8745,
  "ĠsÃ©paration": 8746,
  "Ġleader": 8747,
  "Ġuniforme": 8748,
  "Ġprogressive": 8749,
  "Ġralentissement": 8750,
  "Ġmerveilleux": 8751,
  "argo": 8752,
  "Ġplafond": 8753,
  "Ġattentats": 8754,
  "Hier": 8755,
  "four": 8756,
  "Ġsaine": 8757,
  "Ġtap": 8758,
  "ĠrÃ©ac": 8759,
  "Ġcho": 8760,
  "ĠtouchÃ©": 8761,
  "ĠavÃ©rÃ©": 8762,
  "ĠAffaires": 8763,
  "Ġpouvions": 8764,
  "Ġrestaurer": 8765,
  "Ġterroriste": 8766,
  "Ġeffective": 8767,
  "Ġpoursuivi": 8768,
  "Ġsolaire": 8769,
  "Ġconcepts": 8770,
  "gestions": 8771,
  "ĠÃ©ventuelle": 8772,
  "Ġdivergences": 8773,
  "Ġtransfrontaliers": 8774,
  "Ġissue": 8775,
  "Ġweb": 8776,
  "euillez": 8777,
  "Ã©mergence": 8778,
  "rapporteur": 8779,
  "Actuellement": 8780,
  "Naturellement": 8781,
  "nels": 8782,
  "cieuse": 8783,
  "radi": 8784,
  "Ġineffic": 8785,
  "Ġchanti": 8786,
  "ouvre": 8787,
  "Ġsuici": 8788,
  "Ġavion": 8789,
  "Ġdevises": 8790,
  "ĠTib": 8791,
  "Ġsavait": 8792,
  "ĠDonc": 8793,
  "Ġincendi": 8794,
  "Ġdemandeurs": 8795,
  "ĠdÃ©finis": 8796,
  "Ġcible": 8797,
  "Ġtransferts": 8798,
  "Ġconservation": 8799,
  "Ġjudicieux": 8800,
  "ĠprÃ©pare": 8801,
  "Ġvendredi": 8802,
  "Ġcorriger": 8803,
  "ĠforcÃ©ment": 8804,
  "intÃ©gritÃ©": 8805,
  "IN": 8806,
  "Ġoiseaux": 8807,
  "ĠsÃ©cur": 8808,
  "ĠÃ©mis": 8809,
  "Ġindu": 8810,
  "ouvant": 8811,
  "avion": 8812,
  "apacitÃ©": 8813,
  "Ġmarquer": 8814,
  "aceu": 8815,
  "Ġfiables": 8816,
  "Ġcheve": 8817,
  "Ġsuffisantes": 8818,
  "Ġimmense": 8819,
  "Ġexigent": 8820,
  "Ġvoterons": 8821,
  "arrivÃ©e": 8822,
  "oppose": 8823,
  "Ġpotentiellement": 8824,
  "Ġgrosse": 8825,
  "ĠministÃ¨re": 8826,
  "Ġprenez": 8827,
  "Ġpuissants": 8828,
  "ĠimmigrÃ©s": 8829,
  "ĠfÃ©dÃ©rale": 8830,
  "Ġsouffrance": 8831,
  "ĠrhÃ©t": 8832,
  "ĠdÃ©barrasser": 8833,
  "mir": 8834,
  "ĠQ": 8835,
  "estim": 8836,
  "Ġfossi": 8837,
  "Ġheur": 8838,
  "onnÃ©es": 8839,
  "Ġinsiste": 8840,
  "ĠrÃ©putation": 8841,
  "vergure": 8842,
  "ĠHusse": 8843,
  "Ġaccepte": 8844,
  "Ġobligatoires": 8845,
  "lissements": 8846,
  "Ġsuggestions": 8847,
  "Ġoccuper": 8848,
  "Ġfigurent": 8849,
  "Ġsouviens": 8850,
  "Ġlourde": 8851,
  "Ġgrecque": 8852,
  "Ġprocure": 8853,
  "Ġimpatience": 8854,
  "gentine": 8855,
  "Ġchanson": 8856,
  "Ġrecyclage": 8857,
  "exercer": 8858,
  "Contrairement": 8859,
  "sraÃ©liens": 8860,
  "ET": 8861,
  "toi": 8862,
  "entrer": 8863,
  "ĠlevÃ©e": 8864,
  "Ġventes": 8865,
  "opÃ©ration": 8866,
  "ĠrÃ©tic": 8867,
  "ĠCo": 8868,
  "ĠPN": 8869,
  "ĠavancÃ©": 8870,
  "cesseur": 8871,
  "Ġsoul": 8872,
  "ocu": 8873,
  "ĠSte": 8874,
  "ĠarrÃªt": 8875,
  "ĠcrÃ©ant": 8876,
  "ĠFis": 8877,
  "ĠgÃ©noci": 8878,
  "Ġfranc": 8879,
  "ĠDans": 8880,
  "Ġmines": 8881,
  "Ġconstitutionnelle": 8882,
  "Ġdouze": 8883,
  "ĠcompÃ©titive": 8884,
  "ĠÃ©tudiÃ©": 8885,
  "Ġpotentiels": 8886,
  "Ġturc": 8887,
  "Ġsoumises": 8888,
  "Ã©remment": 8889,
  "ĠGenÃ¨ve": 8890,
  "Ġunanime": 8891,
  "Ġsitue": 8892,
  "ĠHussein": 8893,
  "idÃ©m": 8894,
  "upp": 8895,
  "alise": 8896,
  "rig": 8897,
  "Ġbac": 8898,
  "Ġbelles": 8899,
  "abe": 8900,
  "Ġhonor": 8901,
  "Ġentamer": 8902,
  "occurrence": 8903,
  "Ġappels": 8904,
  "Ġexpression": 8905,
  "Ġreport": 8906,
  "ĠconsidÃ©rant": 8907,
  "Ġaffronter": 8908,
  "Ġdouce": 8909,
  "ĠcherchÃ©": 8910,
  "ĠrÃ©uni": 8911,
  "Ġinstaurer": 8912,
  "Ġindustriel": 8913,
  "ĠrÃ©jouir": 8914,
  "ĠAng": 8915,
  "ĠautorisÃ©": 8916,
  "ĠprononcÃ©": 8917,
  "ĠStock": 8918,
  "Ġsauvegarde": 8919,
  "ĠisraÃ©lien": 8920,
  "ĠcomplÃ©mentaire": 8921,
  "ĠarmÃ©e": 8922,
  "Ġinjuste": 8923,
  "Ġfournisseurs": 8924,
  "ĠXXI": 8925,
  "idÃ©mie": 8926,
  "fond": 8927,
  "Ġpages": 8928,
  "isÃ©s": 8929,
  "Ġnoire": 8930,
  "Ġtac": 8931,
  "ciens": 8932,
  "atten": 8933,
  "Ġplai": 8934,
  "aboli": 8935,
  "ola": 8936,
  "Ġhosti": 8937,
  "Ġtragique": 8938,
  "videmment": 8939,
  "Ġperception": 8940,
  "Ġnoms": 8941,
  "Ġallusion": 8942,
  "Ġaddi": 8943,
  "ĠRob": 8944,
  "Ġannuelle": 8945,
  "ĠcrÃ©ativitÃ©": 8946,
  "Ġreposer": 8947,
  "ĠprÃ©sentes": 8948,
  "ĠparticuliÃ¨res": 8949,
  "QuatriÃ¨mement": 8950,
  "ĠprÃ©vus": 8951,
  "ĠremarquÃ©": 8952,
  "Ġheureusement": 8953,
  "Ġgenres": 8954,
  "Ġglobalement": 8955,
  "Ġitalienne": 8956,
  "Ġtruc": 8957,
  "Ġtrucs": 8958,
  "ukraini": 8959,
  "Ġcuisine": 8960,
  "Ġstyle": 8961,
  "ĠdÃ©centr": 8962,
  "ALE": 8963,
  "log": 8964,
  "oue": 8965,
  "Ġprouve": 8966,
  "ĠdÃ©Ã§": 8967,
  "rables": 8968,
  "gnation": 8969,
  "Ġcardi": 8970,
  "olog": 8971,
  "Ġprogrammation": 8972,
  "issez": 8973,
  "arition": 8974,
  "Ġsigner": 8975,
  "importation": 8976,
  "ĠcinÃ©m": 8977,
  "Ġexplicitement": 8978,
  "Ġouverts": 8979,
  "Ġtraditionnelle": 8980,
  "Ġassociations": 8981,
  "ĠÃ©tablies": 8982,
  "Ġambitieuse": 8983,
  "Ġexploiter": 8984,
  "immob": 8985,
  "Ġapplicable": 8986,
  "Ġfabricants": 8987,
  "Ab": 8988,
  "EC": 8989,
  "Veuillez": 8990,
  "ditÃ©s": 8991,
  "nalitÃ©": 8992,
  "Ġlundi": 8993,
  "ater": 8994,
  "enser": 8995,
  "Ġhommage": 8996,
  "Ġcess": 8997,
  "Ġconclus": 8998,
  "Ġcofin": 8999,
  "ĠposÃ©es": 9000,
  "assade": 9001,
  "Ġbioc": 9002,
  "ĠprÃ©parÃ©": 9003,
  "ĠdÃ©gager": 9004,
  "crip": 9005,
  "Ġpermanence": 9006,
  "Ġencourageant": 9007,
  "Ġclassique": 9008,
  "ĠdÃ©ployÃ©s": 9009,
  "Ġvieillissement": 9010,
  "envisager": 9011,
  "ĠMoldavie": 9012,
  "ouest": 9013,
  "isla": 9014,
  "Ġvali": 9015,
  "Ġplait": 9016,
  "onnements": 9017,
  "Ġamend": 9018,
  "Ġrecru": 9019,
  "ĠaidÃ©": 9020,
  "nera": 9021,
  "ĠlibÃ©rer": 9022,
  "ĠconcernÃ©": 9023,
  "ĠrestÃ©": 9024,
  "Ġjouets": 9025,
  "Ãīgypte": 9026,
  "Ġsuivie": 9027,
  "iditÃ©": 9028,
  "Ġpartenariats": 9029,
  "ĠrÃ©pondent": 9030,
  "Ġirrespons": 9031,
  "ĠdÃ©pensÃ©": 9032,
  "Ġfranchement": 9033,
  "ĠÃ©tudiant": 9034,
  "Ġhauts": 9035,
  "ĠindÃ©pendamment": 9036,
  "Ġflexible": 9037,
  "ĠpossÃ©d": 9038,
  "Ġmariage": 9039,
  "ĠdÃ©passÃ©": 9040,
  "Ġgarantissant": 9041,
  "Agenda": 9042,
  "ĠlÃ©gitimes": 9043,
  "NE": 9044,
  "eaux": 9045,
  "Ġlance": 9046,
  "isÃ©es": 9047,
  "Ġserez": 9048,
  "endroit": 9049,
  "ĠPÃ©": 9050,
  "Ġcoin": 9051,
  "ĠAh": 9052,
  "Ġpartant": 9053,
  "Ġrepous": 9054,
  "Ġdemandant": 9055,
  "Quels": 9056,
  "Ġbizar": 9057,
  "ĠOu": 9058,
  "Ġlimitation": 9059,
  "engage": 9060,
  "Ġcorrect": 9061,
  "ĠÃ©clair": 9062,
  "Ġcollabor": 9063,
  "ĠÃ©lectrique": 9064,
  "Ġparadox": 9065,
  "Ġenceinte": 9066,
  "Imag": 9067,
  "Pensez": 9068,
  "europÃ©": 9069,
  "oiles": 9070,
  "Ġlog": 9071,
  "Ġpeau": 9072,
  "Ġindemn": 9073,
  "Ġsect": 9074,
  "Ġcomposition": 9075,
  "Ġpartiellement": 9076,
  "miÃ¨res": 9077,
  "ĠÃ©tendue": 9078,
  "ĠGali": 9079,
  "Ġattendant": 9080,
  "Ġsoigne": 9081,
  "ĠlÃ©gislatifs": 9082,
  "Ġverte": 9083,
  "Ġconsciente": 9084,
  "ĠexprimÃ©s": 9085,
  "Ġcivil": 9086,
  "Ġouverture": 9087,
  "ĠqualifiÃ©s": 9088,
  "Ġnourrir": 9089,
  "Ġlettres": 9090,
  "ĠsupÃ©rieure": 9091,
  "arburants": 9092,
  "inquiÃ¨te": 9093,
  "Ġillustre": 9094,
  "ĠinfÃ©rieur": 9095,
  "ĠGoogle": 9096,
  "Ġautomatiquement": 9097,
  "Ġpluriann": 9098,
  "ame": 9099,
  "ect": 9100,
  "fas": 9101,
  "oui": 9102,
  "erz": 9103,
  "meu": 9104,
  "opie": 9105,
  "roger": 9106,
  "Ã©nÃ©g": 9107,
  "ĠdiffÃ©remment": 9108,
  "Ġmalheure": 9109,
  "Ġessais": 9110,
  "Ġbiom": 9111,
  "Ġressent": 9112,
  "Ãªtements": 9113,
  "intervenir": 9114,
  "Ġgravement": 9115,
  "ĠrespectÃ©s": 9116,
  "Ġvisible": 9117,
  "Ġoccidental": 9118,
  "Ġnormale": 9119,
  "Ġminimales": 9120,
  "Ġdiplomatiques": 9121,
  "Ġfilms": 9122,
  "ĠÃ©valuations": 9123,
  "Ġrejoint": 9124,
  "Ġasiatiques": 9125,
  "ĠGeorge": 9126,
  "ĠentamÃ©": 9127,
  "Ġenjeux": 9128,
  "fÃ©rer": 9129,
  "tiens": 9130,
  "inten": 9131,
  "Ġaverti": 9132,
  "lÃ¨ves": 9133,
  "ĠaimÃ©": 9134,
  "Ġfruit": 9135,
  "national": 9136,
  "ĠpassÃ©s": 9137,
  "Ġimpliquant": 9138,
  "ĠmodalitÃ©s": 9139,
  "Ġexigence": 9140,
  "Ġrendue": 9141,
  "Ġsupervision": 9142,
  "Ġidentifier": 9143,
  "Ġdessous": 9144,
  "Ġirakien": 9145,
  "Ġconsultations": 9146,
  "IDA": 9147,
  "banie": 9148,
  "cisme": 9149,
  "fa": 9150,
  "ualitÃ©": 9151,
  "Ġukraini": 9152,
  "tige": 9153,
  "Ġsap": 9154,
  "ĠsÃ©qu": 9155,
  "reuve": 9156,
  "ĠunitÃ©": 9157,
  "osyst": 9158,
  "ĠMer": 9159,
  "ĠTim": 9160,
  "utin": 9161,
  "ĠGre": 9162,
  "Ġbiologiques": 9163,
  "ĠdÃ©finit": 9164,
  "ĠallÃ©s": 9165,
  "opposer": 9166,
  "ĠamÃ©liorÃ©": 9167,
  "Ġanciennes": 9168,
  "ĠplacÃ©": 9169,
  "ĠnÃ©glige": 9170,
  "Ġappareil": 9171,
  "ĠultÃ©rieure": 9172,
  "nexe": 9173,
  "Ġimmigrants": 9174,
  "Ġdonateurs": 9175,
  "Ġindicateurs": 9176,
  "ĠmÃ©pris": 9177,
  "Ġsimultan": 9178,
  "Ġprofite": 9179,
  "FR": 9180,
  "ky": 9181,
  "na": 9182,
  "vote": 9183,
  "Ġsombre": 9184,
  "Ġaper": 9185,
  "Ã¨vre": 9186,
  "Ġenc": 9187,
  "Ġjoie": 9188,
  "Ġinquie": 9189,
  "Ġcomptent": 9190,
  "ĠBe": 9191,
  "liste": 9192,
  "ĠbeautÃ©": 9193,
  "ĠÃ©cras": 9194,
  "Ġattendu": 9195,
  "ĠpassÃ©es": 9196,
  "Ġ1992": 9197,
  "Ġdoulou": 9198,
  "Ġcommercialisation": 9199,
  "Ġurgente": 9200,
  "Ġcalme": 9201,
  "Ġboule": 9202,
  "ĠdÃ©fenseurs": 9203,
  "Ġrichesses": 9204,
  "Ġtaxation": 9205,
  "ĠassurÃ©": 9206,
  "ĠquittÃ©": 9207,
  "Ġmigration": 9208,
  "ĠÃ©voluer": 9209,
  "imaginer": 9210,
  "Ã©couter": 9211,
  "Ġrues": 9212,
  "Ġpourpar": 9213,
  "ĠbÃ©n": 9214,
  "Ġbille": 9215,
  "ĠrÃ©elles": 9216,
  "oly": 9217,
  "endrai": 9218,
  "ĠPer": 9219,
  "Ġconsister": 9220,
  "ĠÃ©thique": 9221,
  "Ġalarm": 9222,
  "ĠfaÃ§": 9223,
  "ĠprÃ©caution": 9224,
  "Ġaugmentent": 9225,
  "ĠbÃ©nÃ©ficiÃ©": 9226,
  "Ġlogement": 9227,
  "Ġcertitude": 9228,
  "Ġqualifications": 9229,
  "Ġdiscriminations": 9230,
  "ĠAnd": 9231,
  "ĠmÃ©dicaux": 9232,
  "Ġstockage": 9233,
  "Ġcensure": 9234,
  "Ġdoter": 9235,
  "Ġincapable": 9236,
  "ĠÃ©lectriques": 9237,
  "ĠextrÃ©mistes": 9238,
  "OSCE": 9239,
  "ĠboÃ®te": 9240,
  "Ġformidable": 9241,
  "Ġpourparlers": 9242,
  "ere": 9243,
  "feu": 9244,
  "Ġquar": 9245,
  "inÃ©e": 9246,
  "tements": 9247,
  "Ġfar": 9248,
  "Ġunie": 9249,
  "ald": 9250,
  "orth": 9251,
  "Ġchir": 9252,
  "ĠPh": 9253,
  "Ġcontest": 9254,
  "ĠprobabilitÃ©": 9255,
  "Ġclin": 9256,
  "ĠÃ©volutions": 9257,
  "ĠgarÃ§ons": 9258,
  "Ġautrefois": 9259,
  "accords": 9260,
  "vÃ©ni": 9261,
  "Ġcompromet": 9262,
  "ĠconfrontÃ©": 9263,
  "essence": 9264,
  "Ġflag": 9265,
  "ĠamÃ©liorÃ©e": 9266,
  "ĠadÃ©quates": 9267,
  "Ġstricte": 9268,
  "ĠdiminuÃ©": 9269,
  "ĠcomprÃ©hensible": 9270,
  "Ġchaleur": 9271,
  "ĠCongo": 9272,
  "Ġperformance": 9273,
  "Ġfinancements": 9274,
  "ĠrÃ©daction": 9275,
  "Ġcheveux": 9276,
  "Esp": 9277,
  "otiques": 9278,
  "uites": 9279,
  "env": 9280,
  "Ġcuri": 9281,
  "Ġclub": 9282,
  "Ġspec": 9283,
  "ĠCl": 9284,
  "trÃ¶": 9285,
  "ĠimposÃ©": 9286,
  "Ġserions": 9287,
  "ĠSoudan": 9288,
  "Ġinterromp": 9289,
  "Ġinstitutionnelles": 9290,
  "ĠprÃ©cision": 9291,
  "ĠWi": 9292,
  "ĠrÃ©unir": 9293,
  "Ġprochainement": 9294,
  "ĠexprimÃ©e": 9295,
  "Ġlaissent": 9296,
  "Ġeffectuer": 9297,
  "berg": 9298,
  "Ġexploitations": 9299,
  "Ġafricaine": 9300,
  "ĠcoordonnÃ©e": 9301,
  "Ġpestici": 9302,
  "ĠobligÃ©": 9303,
  "Ġintervenants": 9304,
  "Ġaffecte": 9305,
  "ĠinÃ©vitable": 9306,
  "ĠdÃ©crire": 9307,
  "Ġdanois": 9308,
  "Ġchaussures": 9309,
  "Ġbiocarburants": 9310,
  "trÃ¶m": 9311,
  "Oh": 9312,
  "eusement": 9313,
  "nons": 9314,
  "pel": 9315,
  "quemment": 9316,
  "Ġintr": 9317,
  "ĠMor": 9318,
  "Ġsoumet": 9319,
  "adresser": 9320,
  "ĠAsh": 9321,
  "accroissement": 9322,
  "ĠIsraÃ©liens": 9323,
  "Ġentreprendre": 9324,
  "Ġinfli": 9325,
  "manche": 9326,
  "ĠdÃ©finies": 9327,
  "ĠÃ©tablis": 9328,
  "ĠprÃ©fÃ©rence": 9329,
  "ĠdÃ©sire": 9330,
  "ĠthÃ©rap": 9331,
  "Ġsecours": 9332,
  "ĠcompÃ©tentes": 9333,
  "ĠdÃ©loc": 9334,
  "Ġprofessionnel": 9335,
  "ĠoccupÃ©": 9336,
  "Ġvitale": 9337,
  "Ġconnaissez": 9338,
  "ĠinterprÃ©tation": 9339,
  "ĠdÃ©placer": 9340,
  "ĠpÃ©ril": 9341,
  "ĠCIG": 9342,
  "Ġchemins": 9343,
  "Ġentrepreneurs": 9344,
  "oudite": 9345,
  "til": 9346,
  "Ġnui": 9347,
  "Ġroi": 9348,
  "riers": 9349,
  "Ġintitu": 9350,
  "diens": 9351,
  "Ġdimanche": 9352,
  "Ġaccum": 9353,
  "Ġmotif": 9354,
  "ardin": 9355,
  "Ġopti": 9356,
  "Ġpensait": 9357,
  "Ġmira": 9358,
  "Ġvoler": 9359,
  "Ġdiriger": 9360,
  "ĠÃ©tablit": 9361,
  "ĠrÃ©vÃ¨le": 9362,
  "ĠmentionnÃ©s": 9363,
  "ĠdisposÃ©s": 9364,
  "Ġcontenues": 9365,
  "ambition": 9366,
  "Ġofficiellement": 9367,
  "Ġfaiblesses": 9368,
  "Ġcontraignant": 9369,
  "ĠÃ©voluÃ©": 9370,
  "ĠinÃ©vitablement": 9371,
  "Ġsaluons": 9372,
  "Ġspectre": 9373,
  "HU": 9374,
  "europÃ©ens": 9375,
  "veurs": 9376,
  "nelles": 9377,
  "ĠgÃ¨nes": 9378,
  "ĠextÃ©rieurs": 9379,
  "Ã©thique": 9380,
  "ĠdÃ©plore": 9381,
  "ĠcrÃ©Ã©e": 9382,
  "ĠgÃ©nÃ©rer": 9383,
  "ĠtraitÃ©e": 9384,
  "Ġmajeures": 9385,
  "appliquent": 9386,
  "ĠimpliquÃ©es": 9387,
  "Ġ2013": 9388,
  "Ġgrosses": 9389,
  "Ġpousse": 9390,
  "Ġadapter": 9391,
  "ĠaccÃ©der": 9392,
  "ĠarmÃ©es": 9393,
  "Ġissus": 9394,
  "observation": 9395,
  "ĠapportÃ©es": 9396,
  "Ġmonopole": 9397,
  "yr": 9398,
  "Ġpiliers": 9399,
  "tiver": 9400,
  "Ġscep": 9401,
  "anz": 9402,
  "ĠprÃ´": 9403,
  "Ġvag": 9404,
  "ĠvÃªtements": 9405,
  "Ġparvient": 9406,
  "Ġpakistan": 9407,
  "insiste": 9408,
  "Ġvoulions": 9409,
  "ĠdÃ©pense": 9410,
  "Ġaborde": 9411,
  "Ġconnus": 9412,
  "ĠlÃ©gislature": 9413,
  "Ġindiquent": 9414,
  "Ġenglob": 9415,
  "Ġfragile": 9416,
  "ĠautorisÃ©s": 9417,
  "Ġcarburant": 9418,
  "dÃ©mocra": 9419,
  "Ġmutuellement": 9420,
  "onomie": 9421,
  "Ġmachines": 9422,
  "ĠtÃ©moigne": 9423,
  "Ġcinquante": 9424,
  "Ġprioritaire": 9425,
  "Ã©tudier": 9426,
  "Ġopposants": 9427,
  "ĠtempÃ©rature": 9428,
  "Ġmigrants": 9429,
  "investir": 9430,
  "alibans": 9431,
  "ĠDublin": 9432,
  "ĠrhÃ©torique": 9433,
  "ld": 9434,
  "vienne": 9435,
  "uns": 9436,
  "Ġtangi": 9437,
  "Ġboire": 9438,
  "ato": 9439,
  "ollah": 9440,
  "aints": 9441,
  "Ġexhaus": 9442,
  "ĠTout": 9443,
  "Ġexprime": 9444,
  "Ġfausse": 9445,
  "Ġclon": 9446,
  "ĠlÃ©gisla": 9447,
  "Ġabsence": 9448,
  "ĠdÃ©cisive": 9449,
  "Ġcite": 9450,
  "Ġcontemp": 9451,
  "Ġdispositif": 9452,
  "ĠapparaÃ®tre": 9453,
  "ĠÃ©tablie": 9454,
  "Ġpalestiniens": 9455,
  "Ġmobilisation": 9456,
  "attaque": 9457,
  "Ġinutiles": 9458,
  "Ġsatisfaisant": 9459,
  "implication": 9460,
  "Ġdoigt": 9461,
  "archie": 9462,
  "ĠrÃ©clame": 9463,
  "holm": 9464,
  "ĠprÃ©judice": 9465,
  "ĠbactÃ©ri": 9466,
  "Ġbillets": 9467,
  "Ã©missions": 9468,
  "Ġpatri": 9469,
  "ĠmÃ¨res": 9470,
  "ĠunilatÃ©rale": 9471,
  "Ġgagne": 9472,
  "autor": 9473,
  "sidents": 9474,
  "Ġconcentre": 9475,
  "imposent": 9476,
  "Ġmettons": 9477,
  "Ġassassin": 9478,
  "Ġvols": 9479,
  "ĠrÃ©alitÃ©s": 9480,
  "ignent": 9481,
  "Ġvenus": 9482,
  "ĠchÃ´meurs": 9483,
  "Ġcondamnation": 9484,
  "Ġcouvert": 9485,
  "Ġintelligent": 9486,
  "Ġgrippe": 9487,
  "Ġsemblerait": 9488,
  "Ġmineurs": 9489,
  "argument": 9490,
  "Ġprovisoire": 9491,
  "Ara": 9492,
  "ASE": 9493,
  "Ġlent": 9494,
  "enko": 9495,
  "ĠschÃ©": 9496,
  "ĠprouvÃ©": 9497,
  "Ġenle": 9498,
  "aises": 9499,
  "Ġdurement": 9500,
  "ĠgÃª": 9501,
  "ĠcoÃ¯n": 9502,
  "ĠParce": 9503,
  "Ġeffor": 9504,
  "UEM": 9505,
  "ĠElles": 9506,
  "Ġcourir": 9507,
  "Ġreconnais": 9508,
  "Ġoffrent": 9509,
  "Ġvoyager": 9510,
  "Ġdifficilement": 9511,
  "Ġtentent": 9512,
  "ĠprotÃ©ines": 9513,
  "aucase": 9514,
  "Ġfragment": 9515,
  "Ġtransposition": 9516,
  "Ġhabitant": 9517,
  "Trois": 9518,
  "ĠmÃ©dicale": 9519,
  "Ġ1989": 9520,
  "Ġdemeurent": 9521,
  "Ġsentent": 9522,
  "ĠprÃ©sidentielles": 9523,
  "Ġarrange": 9524,
  "austÃ©ritÃ©": 9525,
  "ĠmathÃ©matiques": 9526,
  "Ġdramatique": 9527,
  "oscou": 9528,
  "ĠparallÃ¨le": 9529,
  "ctÃ©": 9530,
  "Ġlobb": 9531,
  "ingÃ©": 9532,
  "ĠÃ¨": 9533,
  "Ġfarde": 9534,
  "ource": 9535,
  "ĠdÃ©tention": 9536,
  "Ġglace": 9537,
  "Ġsurc": 9538,
  "Ġneur": 9539,
  "coni": 9540,
  "Ġviendra": 9541,
  "ĠrÃ©sister": 9542,
  "Ġ37": 9543,
  "Ġnaturels": 9544,
  "ĠrÃ©duits": 9545,
  "ĠreÃ§oit": 9546,
  "Ġexaminons": 9547,
  "Ġtraditionnelles": 9548,
  "ĠcompÃ©tente": 9549,
  "Ġprofessionnelles": 9550,
  "ĠconformitÃ©": 9551,
  "offrir": 9552,
  "Ġtoile": 9553,
  "Ġraisonnables": 9554,
  "Ġmaritimes": 9555,
  "Ġturque": 9556,
  "Ġsuggestion": 9557,
  "ĠroutiÃ¨re": 9558,
  "Ġperformances": 9559,
  "ĠÃ©tonnant": 9560,
  "Ġoptimiste": 9561,
  "Ġportugaise": 9562,
  "Ġinadmis": 9563,
  "Ġtextile": 9564,
  "ustralie": 9565,
  "donÃ©sie": 9566,
  "ĠNoÃ«l": 9567,
  "cosse": 9568,
  "hÃ´pital": 9569,
  "Ã©lo": 9570,
  "ĠÃ©tiez": 9571,
  "Ġbatt": 9572,
  "ĠCamb": 9573,
  "ĠMon": 9574,
  "Ġsida": 9575,
  "Ġcommand": 9576,
  "Ġconsistant": 9577,
  "vic": 9578,
  "ĠnÃ©fas": 9579,
  "Ġeffond": 9580,
  "Ġamie": 9581,
  "Ġcomprenons": 9582,
  "ĠconfÃ©rences": 9583,
  "anisme": 9584,
  "Ġessaie": 9585,
  "ĠtraitÃ©es": 9586,
  "Ġsignification": 9587,
  "Ġsuscite": 9588,
  "Ġtraverser": 9589,
  "ĠprotÃ©gÃ©s": 9590,
  "ĠinvitÃ©s": 9591,
  "haÃ¯": 9592,
  "ĠSchul": 9593,
  "ĠaÃ©riens": 9594,
  "ĠprÃ©servation": 9595,
  "Ġbalance": 9596,
  "ĠmÃ©dicament": 9597,
  "Ġintelligente": 9598,
  "Ġincroyablement": 9599,
  "Ġampleur": 9600,
  "Ġhongroise": 9601,
  "Ġstandard": 9602,
  "LT": 9603,
  "mon": 9604,
  "ĠQue": 9605,
  "entend": 9606,
  "Ġrail": 9607,
  "ĠCaucase": 9608,
  "ĠPol": 9609,
  "ulture": 9610,
  "ĠsiÃ¨ges": 9611,
  "Ġimpos": 9612,
  "inscrit": 9613,
  "ĠdÃ©cour": 9614,
  "Ġaccru": 9615,
  "Ġtransmission": 9616,
  "Ġcommunisme": 9617,
  "ĠexposÃ©s": 9618,
  "Ġgouverne": 9619,
  "Ġrendement": 9620,
  "Ã¢tre": 9621,
  "Ġmentionne": 9622,
  "ĠdiscrÃ©": 9623,
  "Ġ32": 9624,
  "Ġfid": 9625,
  "ĠVi": 9626,
  "Ġ45": 9627,
  "appropri": 9628,
  "instaurer": 9629,
  "ĠsensibilitÃ©": 9630,
  "Ġnormalement": 9631,
  "ĠlimitÃ©es": 9632,
  "Ġradicale": 9633,
  "ĠÃ©quipements": 9634,
  "Angleterre": 9635,
  "Ġtremblement": 9636,
  "Ġiranien": 9637,
  "Islam": 9638,
  "Ġarbitr": 9639,
  "atre": 9640,
  "yl": 9641,
  "Ġram": 9642,
  "ĠdÃ©rÃ©g": 9643,
  "ĠbÃ©t": 9644,
  "Ġconcessions": 9645,
  "terie": 9646,
  "Ġtouchent": 9647,
  "Ġacteur": 9648,
  "ĠhÃ´": 9649,
  "ĠrÃ©parer": 9650,
  "ĠcrÃ©ent": 9651,
  "ĠÃ©vÃ¨": 9652,
  "Ġcade": 9653,
  "Ġconstitutionnelles": 9654,
  "Ġchaos": 9655,
  "ĠKen": 9656,
  "Ġnotation": 9657,
  "idÃ©es": 9658,
  "erreur": 9659,
  "ĠimpliquÃ©": 9660,
  "ĠdÃ©terminant": 9661,
  "ĠdÃ©terminÃ©e": 9662,
  "Ġconsulter": 9663,
  "Ġtranqu": 9664,
  "appeler": 9665,
  "ĠlittÃ©ralement": 9666,
  "ĠfrÃ©quemment": 9667,
  "Ġspectaculaire": 9668,
  "Ġcadres": 9669,
  "ĠrÃ©munÃ©ration": 9670,
  "ĠÃ©chÃ©ant": 9671,
  "ĠColombie": 9672,
  "ĠStockholm": 9673,
  "Ass": 9674,
  "Vu": 9675,
  "elez": 9676,
  "Ġsaisi": 9677,
  "aides": 9678,
  "ĠvÃ©tÃ©": 9679,
  "Ġbaiss": 9680,
  "attirer": 9681,
  "Ġimpu": 9682,
  "ĠimpÃ©ri": 9683,
  "Ġannonc": 9684,
  "ĠcroÃ®": 9685,
  "ĠpremiÃ¨rement": 9686,
  "ramme": 9687,
  "ĠJo": 9688,
  "stan": 9689,
  "Ġsolli": 9690,
  "ĠrÃ©jouissons": 9691,
  "Ġadministr": 9692,
  "Ġtraditionnels": 9693,
  "ĠimmÃ©diat": 9694,
  "Ġracont": 9695,
  "ĠsÃ©vÃ¨res": 9696,
  "ĠdÃ©licat": 9697,
  "Ġsouffrances": 9698,
  "ĠdÃ©cideurs": 9699,
  "ĠgÃ©nocide": 9700,
  "Ġpesticides": 9701,
  "UR": 9702,
  "faire": 9703,
  "tnam": 9704,
  "Ġlistes": 9705,
  "Ġpain": 9706,
  "ĠcomitÃ©s": 9707,
  "ĠMoscou": 9708,
  "Ġcomporter": 9709,
  "Ġhaine": 9710,
  "insister": 9711,
  "ĠBEI": 9712,
  "Ġeffray": 9713,
  "Ġsache": 9714,
  "Ã§ait": 9715,
  "Ġexpress": 9716,
  "ĠintÃ©rim": 9717,
  "ĠfondÃ©es": 9718,
  "ĠÃ©lection": 9719,
  "ĠlÃ©gal": 9720,
  "Ġconstituera": 9721,
  "expÃ©ri": 9722,
  "ĠÃ©tranger": 9723,
  "Ġindustrielles": 9724,
  "Ġvenait": 9725,
  "ĠcontinuitÃ©": 9726,
  "Ġancienne": 9727,
  "Ġcirconscription": 9728,
  "ĠcoÃ»teux": 9729,
  "onyme": 9730,
  "ĠapportÃ©e": 9731,
  "Ġartistes": 9732,
  "Ġincapables": 9733,
  "oxyde": 9734,
  "ĠfenÃªtre": 9735,
  "ĠriviÃ¨re": 9736,
  "Ġpharmaceu": 9737,
  "mise": 9738,
  "ĠsphÃ¨re": 9739,
  "aies": 9740,
  "Ġfoc": 9741,
  "Ġboute": 9742,
  "olat": 9743,
  "royer": 9744,
  "Ġcommises": 9745,
  "Ġappuyer": 9746,
  "osevic": 9747,
  "obs": 9748,
  "Ġclasses": 9749,
  "Ġfiable": 9750,
  "Ġstructur": 9751,
  "Ġjuridiquement": 9752,
  "Ġcontinuerons": 9753,
  "Ġcoupables": 9754,
  "ĠappropriÃ©s": 9755,
  "Ġapproches": 9756,
  "Ġratifier": 9757,
  "ĠcohÃ©rent": 9758,
  "ĠpayÃ©": 9759,
  "ĠconsidÃ©rÃ©es": 9760,
  "Ġinnovations": 9761,
  "Ġfourniture": 9762,
  "Ġmodeste": 9763,
  "ĠlancÃ©e": 9764,
  "Ġcombinaison": 9765,
  "Pl": 9766,
  "ao": 9767,
  "ker": 9768,
  "kel": 9769,
  "ĠÅ": 9770,
  "ĠaoÃ»t": 9771,
  "Ġverts": 9772,
  "altern": 9773,
  "Ġjur": 9774,
  "ĠrequÃªte": 9775,
  "Ġnette": 9776,
  "ĠPo": 9777,
  "Ġaviez": 9778,
  "Ġmoteurs": 9779,
  "ett": 9780,
  "Ġdissim": 9781,
  "ĠÃ©gyp": 9782,
  "ĠdisposÃ©": 9783,
  "ĠChili": 9784,
  "expansion": 9785,
  "stab": 9786,
  "ovis": 9787,
  "ĠOui": 9788,
  "ĠrÃ©glementer": 9789,
  "Ġrendus": 9790,
  "Ġambition": 9791,
  "ĠdisposÃ©e": 9792,
  "Ġparfaite": 9793,
  "install": 9794,
  "Ġattaquer": 9795,
  "ĠcontinuÃ©": 9796,
  "Ġvaloir": 9797,
  "ĠillÃ©gal": 9798,
  "Ġcellule": 9799,
  "Ġvirtu": 9800,
  "ĠdÃ©boucher": 9801,
  "Ã¢teau": 9802,
  "ĠmolÃ©cu": 9803,
  "ĠdÃ©couverte": 9804,
  "ĠadhÃ©rer": 9805,
  "prÃ©sent": 9806,
  "Ġsoigneusement": 9807,
  "ĠSchulz": 9808,
  "TrÃ¨s": 9809,
  "tienne": 9810,
  "quants": 9811,
  "estres": 9812,
  "ĠÃ©puis": 9813,
  "ĠÃ©lÃ¨ves": 9814,
  "lique": 9815,
  "Ġprovient": 9816,
  "ortable": 9817,
  "ularitÃ©s": 9818,
  "ĠSec": 9819,
  "Ġdiffus": 9820,
  "ĠdiffÃ©renci": 9821,
  "Ġagres": 9822,
  "Ġmalades": 9823,
  "Ġsoutiendra": 9824,
  "ĠKre": 9825,
  "Ġinconn": 9826,
  "ĠbÃ©nÃ©fique": 9827,
  "Ġrigi": 9828,
  "ensive": 9829,
  "ĠtombÃ©": 9830,
  "Ġ250": 9831,
  "Ġexceptions": 9832,
  "ĠMalte": 9833,
  "Ġweek": 9834,
  "Ġbleu": 9835,
  "ĠBiÃ©lor": 9836,
  "Ġmorceau": 9837,
  "ADN": 9838,
  "ĠNigeria": 9839,
  "Ġfossiles": 9840,
  "immobilier": 9841,
  "hom": 9842,
  "hommes": 9843,
  "erai": 9844,
  "architecture": 9845,
  "ĠflÃ©": 9846,
  "ouse": 9847,
  "ĠgoÃ»t": 9848,
  "ĠCali": 9849,
  "ĠMÃ©di": 9850,
  "Ġexact": 9851,
  "Ġentrain": 9852,
  "Ġconcours": 9853,
  "Ġinternet": 9854,
  "Ġtransmet": 9855,
  "ĠTu": 9856,
  "ĠRi": 9857,
  "Ġjusque": 9858,
  "guÃ©s": 9859,
  "ĠNouve": 9860,
  "intÃ©resse": 9861,
  "Ġempre": 9862,
  "Ġregistre": 9863,
  "Ġ1993": 9864,
  "Ġgraph": 9865,
  "ĠÃ©quitables": 9866,
  "importants": 9867,
  "Ã©chapp": 9868,
  "Ã©chelon": 9869,
  "Ġpubliquement": 9870,
  "Ġinclut": 9871,
  "OCDE": 9872,
  "stitut": 9873,
  "enregistrement": 9874,
  "criptions": 9875,
  "Obama": 9876,
  "harmon": 9877,
  "Ġdor": 9878,
  "ref": 9879,
  "istique": 9880,
  "intelli": 9881,
  "itch": 9882,
  "ractions": 9883,
  "abus": 9884,
  "Ġcomparer": 9885,
  "Ġpermette": 9886,
  "Ġmesur": 9887,
  "lera": 9888,
  "ctoires": 9889,
  "inton": 9890,
  "Ġatom": 9891,
  "Ġcommunistes": 9892,
  "Ġjustes": 9893,
  "Ġtienne": 9894,
  "ĠDes": 9895,
  "Ġabsor": 9896,
  "Ġconfrontation": 9897,
  "Ġmusi": 9898,
  "ĠpoussÃ©": 9899,
  "Ġfrappe": 9900,
  "Ġressembler": 9901,
  "ĠdÃ©roule": 9902,
  "Ġaccueillir": 9903,
  "ĠassemblÃ©e": 9904,
  "ĠrÃ©agi": 9905,
  "effectuer": 9906,
  "Ġmunicip": 9907,
  "Ġhorizont": 9908,
  "ĠXXIe": 9909,
  "ĠÃ¨re": 9910,
  ".âĢĿ": 9911,
  "Di": 9912,
  "SK": 9913,
  "ection": 9914,
  "Ã©lÃ©ment": 9915,
  "Ġlune": 9916,
  "ĠlaÃ¯": 9917,
  "Ġts": 9918,
  "Ġfaille": 9919,
  "illent": 9920,
  "Ġgeste": 9921,
  "ĠComment": 9922,
  "Ġchant": 9923,
  "trai": 9924,
  "ĠBang": 9925,
  "ĠSw": 9926,
  "Ġrendez": 9927,
  "ĠNob": 9928,
  "Ġpluie": 9929,
  "Ã©voquer": 9930,
  "Ġapprouve": 9931,
  "ĠnÃ©gociÃ©": 9932,
  "Ġorganisme": 9933,
  "attente": 9934,
  "Ġchev": 9935,
  "Ġtransparent": 9936,
  "Ġapparu": 9937,
  "Ġaidera": 9938,
  "Ġstatu": 9939,
  "Ġuniverselle": 9940,
  "ĠpropriÃ©taires": 9941,
  "Ġinsuffisant": 9942,
  "ĠreflÃ¨tent": 9943,
  "Ġpoursuites": 9944,
  "ĠenregistrÃ©": 9945,
  "Ġlinguistique": 9946,
  "Ġajout": 9947,
  "Ġfardeau": 9948,
  "Ġadministrations": 9949,
  "br": 9950,
  "den": 9951,
  "kov": 9952,
  "Ġdorm": 9953,
  "onale": 9954,
  "Ġmam": 9955,
  "Ġparent": 9956,
  "ĠparallÃ¨lement": 9957,
  "Ġproxim": 9958,
  "irent": 9959,
  "ĠprÃ©dÃ©": 9960,
  "Ġparticipe": 9961,
  "ĠSal": 9962,
  "ĠAL": 9963,
  "ĠdÃ©mant": 9964,
  "Ġrecord": 9965,
  "Ġparticules": 9966,
  "ĠNor": 9967,
  "Ġincert": 9968,
  "Ġfiers": 9969,
  "Ġvolonti": 9970,
  "Ġrigueur": 9971,
  "ĠmodifiÃ©s": 9972,
  "Ġexcuses": 9973,
  "Ġouvertes": 9974,
  "ĠrÃ©flexions": 9975,
  "ĠprÃ©tendre": 9976,
  "ĠtolÃ©rer": 9977,
  "Ġroutier": 9978,
  "ĠdÃ©rivÃ©s": 9979,
  "ĠmÃ©lange": 9980,
  "Ġramener": 9981,
  "ĠDarfour": 9982,
  "Ġvolontiers": 9983,
  "Ġpav": 9984,
  "Ġnat": 9985,
  "Ġtardi": 9986,
  "ĠÃ©met": 9987,
  "ĠdÃ©stab": 9988,
  "Ġbarb": 9989,
  "Ġretenir": 9990,
  "Ġplong": 9991,
  "ĠentrÃ©": 9992,
  "Ã©tant": 9993,
  "ĠviabilitÃ©": 9994,
  "lave": 9995,
  "Ġinterdire": 9996,
  "isibles": 9997,
  "Ã©govine": 9998,
  "Ġrepro": 9999,
  "Ġ195": 10000,
  "Ġressource": 10001,
  "ĠreprÃ©sentÃ©": 10002,
  "ĠJean": 10003,
  "Ġretomb": 10004,
  "ĠobligÃ©s": 10005,
  "ĠdÃ©terminÃ©": 10006,
  "Ġinstaur": 10007,
  "ĠgÃ©op": 10008,
  "ĠterminÃ©e": 10009,
  "Ġdistinguer": 10010,
  "ĠcausÃ©": 10011,
  "ĠÃ©quival": 10012,
  "Ġexternes": 10013,
  "OLAF": 10014,
  "Ġrubrique": 10015,
  "erzÃ©govine": 10016,
  "ĠproximitÃ©": 10017,
  "Dem": 10018,
  "Durant": 10019,
  "heu": 10020,
  "leo": 10021,
  "Ġfact": 10022,
  "Ġparlait": 10023,
  "Ġdumping": 10024,
  "ĠMan": 10025,
  "Ġcommande": 10026,
  "propor": 10027,
  "ĠmanquÃ©": 10028,
  "angle": 10029,
  "Ġprogression": 10030,
  "Ġclos": 10031,
  "ĠFor": 10032,
  "endez": 10033,
  "Ġnationalisme": 10034,
  "ĠdÃ©sarmement": 10035,
  "ĠprÃ©sidente": 10036,
  "ĠacceptÃ©e": 10037,
  "ĠfonctionnÃ©": 10038,
  "ĠchargÃ©e": 10039,
  "Ġcontinueront": 10040,
  "Ġinstances": 10041,
  "otechnolo": 10042,
  "Ġstrictement": 10043,
  "Ġallemands": 10044,
  "ĠdÃ©vas": 10045,
  "instruments": 10046,
  "Ġsouples": 10047,
  "Ġenseignants": 10048,
  "ĠMilosevic": 10049,
  "ĠcÃ©rÃ©ales": 10050,
  "Ġstipule": 10051,
  "ĠCalifor": 10052,
  "mais": 10053,
  "Ġdents": 10054,
  "ĠpÃ¢": 10055,
  "ĠpÃ©d": 10056,
  "ĠnÃ´tre": 10057,
  "Ġjardin": 10058,
  "eut": 10059,
  "ĠprolifÃ©ration": 10060,
  "Ġdispropor": 10061,
  "ĠrÃ©solue": 10062,
  "Ġcacher": 10063,
  "Ġmaintenu": 10064,
  "Ġempi": 10065,
  "intermÃ©diaire": 10066,
  "Ġinflation": 10067,
  "ĠintÃ©ressÃ©s": 10068,
  "ĠcompÃ©tition": 10069,
  "ĠmÃ©cont": 10070,
  "Ġbouche": 10071,
  "Ġsanitaires": 10072,
  "ĠformulÃ©": 10073,
  "Ġvenant": 10074,
  "truite": 10075,
  "Ġoriental": 10076,
  "ĠpÃ©nurie": 10077,
  "ĠassociÃ©": 10078,
  "Ġsexes": 10079,
  "ĠregardÃ©": 10080,
  "visions": 10081,
  "ĠdÃ©marches": 10082,
  "ĠdÃ©fauts": 10083,
  "Ġanalyses": 10084,
  "ĠpersonnalitÃ©": 10085,
  "Ġaccessible": 10086,
  "ĠexcÃ©dent": 10087,
  "NEW": 10088,
  "ĠexpressÃ©ment": 10089,
  "Face": 10090,
  "bo": 10091,
  "onci": 10092,
  "oun": 10093,
  "aisie": 10094,
  "Ġquart": 10095,
  "illon": 10096,
  "agence": 10097,
  "Ġneige": 10098,
  "Ã©ral": 10099,
  "Ã¨ses": 10100,
  "Ġpuissante": 10101,
  "ĠdÃ©pression": 10102,
  "entielle": 10103,
  "Ġmanquent": 10104,
  "ĠLam": 10105,
  "Ġpublier": 10106,
  "ĠDÃ©": 10107,
  "ĠIs": 10108,
  "Ġconnues": 10109,
  "Ġempris": 10110,
  "Ġpersonnels": 10111,
  "Ġbiotechnolo": 10112,
  "Ġvolati": 10113,
  "Ġagriculture": 10114,
  "Ġsignaux": 10115,
  "auraient": 10116,
  "Ġfamine": 10117,
  "Ġportable": 10118,
  "Ġintro": 10119,
  "Ġapportera": 10120,
  "ĠdisparitÃ©s": 10121,
  "Ġoccidentales": 10122,
  "habitants": 10123,
  "Ġidentiques": 10124,
  "Ġfabriquer": 10125,
  "Ġphysiques": 10126,
  "ĠapprÃ©ciÃ©": 10127,
  "Ġinfluencer": 10128,
  "Ġrembourse": 10129,
  "ĠdÃ©tenus": 10130,
  "ĠTibet": 10131,
  "ĠNobel": 10132,
  "ĠdÃ©mantÃ¨lement": 10133,
  "HerzÃ©govine": 10134,
  "hiques": 10135,
  "tor": 10136,
  "zz": 10137,
  "Ġpur": 10138,
  "uration": 10139,
  "urdes": 10140,
  "orre": 10141,
  "Ġrattra": 10142,
  "Ġfuite": 10143,
  "ĠÃ©b": 10144,
  "atmosphÃ¨re": 10145,
  "ueille": 10146,
  "mide": 10147,
  "ĠlÃ©gÃ¨re": 10148,
  "annonce": 10149,
  "Ġsuivent": 10150,
  "affai": 10151,
  "inclure": 10152,
  "Ġremplacement": 10153,
  "Ġcoups": 10154,
  "Ġ95": 10155,
  "Ġblan": 10156,
  "ĠdÃ©loy": 10157,
  "Ġvivants": 10158,
  "ĠcÃ©der": 10159,
  "Ġlourds": 10160,
  "ĠdÃ©finitif": 10161,
  "ĠrÃ©tablissement": 10162,
  "Ġsubstantielle": 10163,
  "Ġsoudaine": 10164,
  "ĠattirÃ©": 10165,
  "ĠstupÃ©": 10166,
  "Ġgrimp": 10167,
  "ĠrÃ©cupÃ©rer": 10168,
  "ĠClinton": 10169,
  "EM": 10170,
  "FI": 10171,
  "inos": 10172,
  "aites": 10173,
  "Ġgare": 10174,
  "Ġconcl": 10175,
  "ĠconcrÃ©": 10176,
  "ĠperpÃ©": 10177,
  "ĠrÃ©sumer": 10178,
  "Ġadmet": 10179,
  "Ġvolet": 10180,
  "Ġraisonnement": 10181,
  "ĠlÃ©gu": 10182,
  "Ġpress": 10183,
  "ĠmisÃ¨re": 10184,
  "Ġpira": 10185,
  "Ġpires": 10186,
  "Ġexclure": 10187,
  "Ã©mocrates": 10188,
  "Ġofficielles": 10189,
  "ĠdÃ©veloppÃ©e": 10190,
  "Ġsympathie": 10191,
  "ĠhÃ©micycle": 10192,
  "ĠfÃ©dÃ©ral": 10193,
  "ĠdÃ©cisionnel": 10194,
  "Ġrapprochement": 10195,
  "ĠperpÃ©t": 10196,
  "ĠPÃ©kin": 10197,
  "ĠAshton": 10198,
  "honn": 10199,
  "Ã©lÃ©ments": 10200,
  "tein": 10201,
  "ney": 10202,
  "actifs": 10203,
  "ĠBon": 10204,
  "ting": 10205,
  "Ġnier": 10206,
  "impÃ´t": 10207,
  "Ġminuti": 10208,
  "ĠchaÃ®": 10209,
  "ĠVie": 10210,
  "Ġmajor": 10211,
  "Ã©rÃ©ment": 10212,
  "ĠtrouvÃ©e": 10213,
  "ĠprÃ©occupÃ©s": 10214,
  "ĠindustrialisÃ©s": 10215,
  "Ġparlez": 10216,
  "Ġbouger": 10217,
  "Ġboulot": 10218,
  "Ġcivilis": 10219,
  "Ġparagraphes": 10220,
  "Ġofficiel": 10221,
  "Ġchangent": 10222,
  "ĠphÃ©nomÃ¨nes": 10223,
  "ĠabandonnÃ©": 10224,
  "Ġanalyser": 10225,
  "ĠMcC": 10226,
  "accÃ©lÃ©": 10227,
  "ĠprÃ©sidentielle": 10228,
  "Ġindividuelle": 10229,
  "Ġmagasin": 10230,
  "Ġautrichienne": 10231,
  "ĠxÃ©nophobie": 10232,
  "Imaginez": 10233,
  "ĠBiÃ©lorussie": 10234,
  "com": 10235,
  "pture": 10236,
  "uaires": 10237,
  "Ġ'": 10238,
  "Ġafghan": 10239,
  "Ġnerve": 10240,
  "Ġtun": 10241,
  "sifier": 10242,
  "Ġcontenir": 10243,
  "rÃ©sor": 10244,
  "Ġabond": 10245,
  "ĠEl": 10246,
  "assÃ©": 10247,
  "Ġvieilles": 10248,
  "ĠfermÃ©": 10249,
  "Parfois": 10250,
  "Ãīvidemment": 10251,
  "ordinateur": 10252,
  "ĠcÃ´ti": 10253,
  "ĠmodifiÃ©e": 10254,
  "Ġproprement": 10255,
  "Ġintense": 10256,
  "Ġpoursuivent": 10257,
  "Ġproviennent": 10258,
  "ĠMartin": 10259,
  "ĠsoulevÃ©es": 10260,
  "Ġmagaz": 10261,
  "Ġsecondaire": 10262,
  "Ġlourd": 10263,
  "Ġbureaucratique": 10264,
  "ĠisraÃ©lienne": 10265,
  "ĠdÃ©coule": 10266,
  "Ġemprunter": 10267,
  "ĠprogressÃ©": 10268,
  "Ġaspirations": 10269,
  "Ġridicule": 10270,
  "EuropÃ©ens": 10271,
  "dits": 10272,
  "Ã©lÃ¨ve": 10273,
  "oux": 10274,
  "Ġsain": 10275,
  "Ġmyth": 10276,
  "ina": 10277,
  "sibles": 10278,
  "Ġfili": 10279,
  "Ġparam": 10280,
  "osex": 10281,
  "ĠSom": 10282,
  "Ġaccro": 10283,
  "Ġexpansion": 10284,
  "Ġannuels": 10285,
  "ĠFlor": 10286,
  "Ġferais": 10287,
  "Ġincar": 10288,
  "Ġincorp": 10289,
  "Ġpopulaires": 10290,
  "ĠjugÃ©": 10291,
  "Ġveuille": 10292,
  "ĠbrÃ¨ve": 10293,
  "Ġretrouv": 10294,
  "incapacitÃ©": 10295,
  "Ġrevue": 10296,
  "ĠfÃ©licitons": 10297,
  "ĠqualifiÃ©": 10298,
  "habil": 10299,
  "ĠdÃ©veloppÃ©es": 10300,
  "ĠapprouvÃ©e": 10301,
  "ĠvÃ©lo": 10302,
  "ĠvÃ©rification": 10303,
  "Ġinsuffisante": 10304,
  "ĠspÃ©culation": 10305,
  "ernitÃ©": 10306,
  "Ġenthousiasme": 10307,
  "ĠVerheu": 10308,
  "Ġperturb": 10309,
  "ĠDavid": 10310,
  "ĠMÃ©diateur": 10311,
  "ĠCalifornie": 10312,
  "ĠVerheugen": 10313,
  "EA": 10314,
  "aques": 10315,
  "ĠcitÃ©": 10316,
  "redi": 10317,
  "Ġparlant": 10318,
  "Ġcontenant": 10319,
  "Leurs": 10320,
  "ĠÃ©tendu": 10321,
  "ĠÃ©thiques": 10322,
  "ĠamÃ¨ne": 10323,
  "Ġforment": 10324,
  "ĠLet": 10325,
  "ĠbasÃ©es": 10326,
  "Ġoptique": 10327,
  "intÃ©ress": 10328,
  "ĠHaÃ¯ti": 10329,
  "Ġpromette": 10330,
  "Ġsemestre": 10331,
  "Ġfacul": 10332,
  "Ġprivatisation": 10333,
  "ĠencouragÃ©": 10334,
  "Ġpassera": 10335,
  "Ġsanitaire": 10336,
  "Ġfumer": 10337,
  "ĠrÃ©servÃ©": 10338,
  "ĠdÃ©liv": 10339,
  "Ġkm": 10340,
  "Ġstrict": 10341,
  "ĠPaci": 10342,
  "ĠtouchÃ©es": 10343,
  "Ġclauses": 10344,
  "Prenons": 10345,
  "rompu": 10346,
  "ĠdÃ©rogation": 10347,
  "automne": 10348,
  "ĠchaÃ®nes": 10349,
  "nan": 10350,
  "Ġmour": 10351,
  "Ġnager": 10352,
  "ortÃ©e": 10353,
  "Ġfe": 10354,
  "iler": 10355,
  "aug": 10356,
  "ĠdÃ©lÃ©": 10357,
  "ĠredÃ©": 10358,
  "oirs": 10359,
  "trons": 10360,
  "tront": 10361,
  "ortement": 10362,
  "ĠdÃ©place": 10363,
  "otation": 10364,
  "Ġstag": 10365,
  "Ġatro": 10366,
  "Ġfame": 10367,
  "ĠnÃ©cessiter": 10368,
  "Ġorale": 10369,
  "ĠKong": 10370,
  "Ġinstitutionnels": 10371,
  "Ġjoueurs": 10372,
  "ĠrÃ©alisÃ©e": 10373,
  "Ġidentique": 10374,
  "Ġprisons": 10375,
  "Ġmissi": 10376,
  "Ġinformatique": 10377,
  "ĠamÃ©liore": 10378,
  "ypri": 10379,
  "Ġvoyages": 10380,
  "Ġrespectant": 10381,
  "Ġvolontaires": 10382,
  "Ġtraverse": 10383,
  "ignore": 10384,
  "Ġcatal": 10385,
  "Ġreconnaissent": 10386,
  "Ġlaissant": 10387,
  "Ġparvenue": 10388,
  "Ġterreur": 10389,
  "Ġinacceptables": 10390,
  "Chers": 10391,
  "Ġmater": 10392,
  "ĠrÃ©vÃ©ler": 10393,
  "Ġmigrat": 10394,
  "Ġrenouvelable": 10395,
  "Ġdessin": 10396,
  "Ġobliger": 10397,
  "Ġsymbole": 10398,
  "Ġretraites": 10399,
  "Ġsympt": 10400,
  "Seule": 10401,
  "Ġcontenus": 10402,
  "ĠagrÃ©able": 10403,
  "ĠSolana": 10404,
  "activitÃ©s": 10405,
  "finiment": 10406,
  "Ġquartier": 10407,
  "Ġdisproportion": 10408,
  "Cin": 10409,
  "yo": 10410,
  "Ã©larg": 10411,
  "Ã©nie": 10412,
  "entamer": 10413,
  "aude": 10414,
  "Ġgala": 10415,
  "atom": 10416,
  "Ġcontiennent": 10417,
  "ĠMus": 10418,
  "appare": 10419,
  "Ġcompt": 10420,
  "Ġpaysage": 10421,
  "ĠÃ©galitÃ©": 10422,
  "Ġdirectes": 10423,
  "Ġalb": 10424,
  "Pourriez": 10425,
  "ĠChar": 10426,
  "ĠrÃ©alisÃ©es": 10427,
  "Ġfictifs": 10428,
  "ĠprÃ©voient": 10429,
  "Ġacceptables": 10430,
  "ĠdÃ©finie": 10431,
  "ĠallÃ©e": 10432,
  "ĠMary": 10433,
  "Ġfournissent": 10434,
  "Ġsuperfici": 10435,
  "ĠintÃ©grÃ©s": 10436,
  "ĠrÃ©fÃ©rendums": 10437,
  "Ġcompenser": 10438,
  "Ġ1970": 10439,
  "ĠSecon": 10440,
  "tÃ©nuer": 10441,
  "ĠGolfe": 10442,
  "Es": 10443,
  "Sous": 10444,
  "ĠdÃ®ner": 10445,
  "Ġcig": 10446,
  "ĠComme": 10447,
  "Ġconstant": 10448,
  "Ġcontour": 10449,
  "ĠSlov": 10450,
  "ĠdÃ©pendra": 10451,
  "Ġcraindre": 10452,
  "utilitÃ©": 10453,
  "ĠRoth": 10454,
  "Ġrepas": 10455,
  "ĠprÃ©sentant": 10456,
  "impasse": 10457,
  "Ġmalent": 10458,
  "ĠHar": 10459,
  "Ġadoptant": 10460,
  "Ġdemandez": 10461,
  "ĠOK": 10462,
  "Ġscr": 10463,
  "Ġfavorablement": 10464,
  "Ġcath": 10465,
  "ĠBarack": 10466,
  "ĠÃ©lectoral": 10467,
  "ĠrÃ©diger": 10468,
  "Ġfondements": 10469,
  "ĠaffectÃ©s": 10470,
  "observ": 10471,
  "ĠliquiditÃ©s": 10472,
  "ĠdÃ©truit": 10473,
  "organes": 10474,
  "ĠhÃ©ros": 10475,
  "Ã³n": 10476,
  "exigence": 10477,
  "tations": 10478,
  "ĠUnis": 10479,
  "Ġsomb": 10480,
  "Ġnordi": 10481,
  "Ãªtement": 10482,
  "mblÃ©": 10483,
  "appuyer": 10484,
  "etter": 10485,
  "autonomie": 10486,
  "prits": 10487,
  "Ã©nagement": 10488,
  "ĠÃīgypte": 10489,
  "Ġaccent": 10490,
  "Ġarbres": 10491,
  "ĠÃ©voque": 10492,
  "Ġchamps": 10493,
  "Ġbiologie": 10494,
  "Ġjuges": 10495,
  "important": 10496,
  "Ġappellent": 10497,
  "Ġexistante": 10498,
  "ĠenvisagÃ©": 10499,
  "Ġactionnaires": 10500,
  "ĠMarie": 10501,
  "ĠsoulevÃ©e": 10502,
  "ĠdisponibilitÃ©": 10503,
  "ĠmÃ©dical": 10504,
  "identifier": 10505,
  "Ġcritiquer": 10506,
  "ĠdÃ©licate": 10507,
  "Ã´pitaux": 10508,
  "Ġconjointement": 10509,
  "Ġautonome": 10510,
  "Ġennuy": 10511,
  "ĠocÃ©ans": 10512,
  "olymp": 10513,
  "ax": 10514,
  "bollah": 10515,
  "lage": 10516,
  "isti": 10517,
  "Ġmous": 10518,
  "ourv": 10519,
  "Ġenvir": 10520,
  "Ġaurez": 10521,
  "ries": 10522,
  "ĠrÃ©affir": 10523,
  "Ġinvers": 10524,
  "Ġnet": 10525,
  "olk": 10526,
  "Ġdioxyde": 10527,
  "amme": 10528,
  "yser": 10529,
  "Ã©tend": 10530,
  "Ġperdent": 10531,
  "ĠBritan": 10532,
  "ĠSan": 10533,
  "ĠSanter": 10534,
  "ĠGUE": 10535,
  "Ġaiment": 10536,
  "formÃ©ment": 10537,
  "ezbollah": 10538,
  "ĠlÃ©gales": 10539,
  "Ġenfre": 10540,
  "ĠcommenÃ§ons": 10541,
  "Ġjustification": 10542,
  "allais": 10543,
  "Ġchiens": 10544,
  "Ġcoupable": 10545,
  "Ġcandidature": 10546,
  "Ġprovoque": 10547,
  "Ã©mie": 10548,
  "Ġmanifestation": 10549,
  "ĠÃ©criv": 10550,
  "Ġredist": 10551,
  "ĠvÃ©hicule": 10552,
  "actuelle": 10553,
  "ĠinconvÃ©ni": 10554,
  "2013": 10555,
  "Ġavocats": 10556,
  "Ġlaboratoire": 10557,
  "ĠbibliothÃ¨que": 10558,
  "Ġbizarre": 10559,
  "Ġinadmissible": 10560,
  "ĠperpÃ©tu": 10561,
  "Ġgalax": 10562,
  "DÃ©s": 10563,
  "Voy": 10564,
  "her": 10565,
  "olement": 10566,
  "produ": 10567,
  "uc": 10568,
  "Ġolymp": 10569,
  "esclav": 10570,
  "Ġdirait": 10571,
  "ĠMonti": 10572,
  "ĠdÃ©pourv": 10573,
  "Ġinsur": 10574,
  "utilise": 10575,
  "umÃ©e": 10576,
  "Ġfondations": 10577,
  "ĠconsidÃ©r": 10578,
  "ĠÃ©conomiquement": 10579,
  "ĠdÃ©fendu": 10580,
  "ĠKo": 10581,
  "ĠHezbollah": 10582,
  "Ġrisquer": 10583,
  "Ġnullement": 10584,
  "Ġ1991": 10585,
  "Ġabsolu": 10586,
  "Ġprofesseurs": 10587,
  "objectifs": 10588,
  "ĠprotÃ¨ge": 10589,
  "Ġapprobation": 10590,
  "Ġquantit": 10591,
  "ĠeffectuÃ©s": 10592,
  "ĠillÃ©gaux": 10593,
  "ĠidÃ©ologique": 10594,
  "Ġmaximale": 10595,
  "ArrÃª": 10596,
  "ĠsuggÃ©rÃ©": 10597,
  "ĠÃ©quipes": 10598,
  "Atlantique": 10599,
  "Ġparviendrons": 10600,
  "Regardez": 10601,
  "abolition": 10602,
  "ĠGalileo": 10603,
  "DA": 10604,
  "crits": 10605,
  "iz": 10606,
  "pol": 10607,
  "ĠÃĢ": 10608,
  "orateur": 10609,
  "ĠvÃ©g": 10610,
  "ourge": 10611,
  "rira": 10612,
  "Ġplais": 10613,
  "Ġproduite": 10614,
  "ĠPal": 10615,
  "ĠProche": 10616,
  "ĠMah": 10617,
  "vice": 10618,
  "Ġtransnation": 10619,
  "ĠFed": 10620,
  "ĠprÃ©sentera": 10621,
  "ĠNic": 10622,
  "ĠdÃ©faill": 10623,
  "Ġpassait": 10624,
  "Ġ65": 10625,
  "ĠrespectÃ©es": 10626,
  "Ġfavorise": 10627,
  "Ġopposer": 10628,
  "ĠopposÃ©e": 10629,
  "Ġsols": 10630,
  "Ġayez": 10631,
  "ĠgÃ©ni": 10632,
  "Ġdiminue": 10633,
  "ĠdÃ©lits": 10634,
  "Ġjournaliste": 10635,
  "Ġofficiels": 10636,
  "ĠmusÃ©e": 10637,
  "Ġrelevant": 10638,
  "Ġvastes": 10639,
  "Ġcarburants": 10640,
  "ĠrÃªves": 10641,
  "ĠoccupÃ©s": 10642,
  "ĠÃ©checs": 10643,
  "Ġlogiciels": 10644,
  "Ġexamine": 10645,
  "Acc": 10646,
  "Ġsectorie": 10647,
  "ĠALDE": 10648,
  "ĠPacifique": 10649,
  "dra": 10650,
  "ev": 10651,
  "inture": 10652,
  "itt": 10653,
  "ĠdÃ©ter": 10654,
  "allÃ©": 10655,
  "Ġbombe": 10656,
  "ĠcongÃ©": 10657,
  "Ġplastique": 10658,
  "ĠPatten": 10659,
  "rois": 10660,
  "ĠprÃ©co": 10661,
  "Ã´les": 10662,
  "ĠÃ©toiles": 10663,
  "cofin": 10664,
  "ĠrÃ©solument": 10665,
  "ĠpartagÃ©": 10666,
  "ĠJour": 10667,
  "ĠHaut": 10668,
  "Ġremonte": 10669,
  "ĠspÃ©cific": 10670,
  "ĠrÃ©duisant": 10671,
  "ĠÃ©nergique": 10672,
  "Ã©dÃ©ration": 10673,
  "Ġcheval": 10674,
[...]
