{"<pad>":0,"<s>":1,"</s>":2,"<unk>":3,"<mask>":4,"!":5,"\"":6,"#":7,"$":8,"%":9,"&":10,"'":11,"(":12,")":13,"*":14,"+":15,",":16,"-":17,".":18,"/":19,"0":20,"1":21,"2":22,"3":23,"4":24,"5":25,"6":26,"7":27,"8":28,"9":29,":":30,";":31,"<":32,"=":33,">":34,"?":35,"@":36,"A":37,"B":38,"C":39,"D":40,"E":41,"F":42,"G":43,"H":44,"I":45,"J":46,"K":47,"L":48,"M":49,"N":50,"O":51,"P":52,"Q":53,"R":54,"S":55,"T":56,"U":57,"V":58,"W":59,"X":60,"Y":61,"Z":62,"[":63,"\\":64,"]":65,"^":66,"_":67,"`":68,"a":69,"b":70,"c":71,"d":72,"e":73,"f":74,"g":75,"h":76,"i":77,"j":78,"k":79,"l":80,"m":81,"n":82,"o":83,"p":84,"q":85,"r":86,"s":87,"t":88,"u":89,"v":90,"w":91,"x":92,"y":93,"z":94,"{":95,"|":96,"}":97,"~":98,"¡":99,"¢":100,"£":101,"¤":102,"¥":103,"¦":104,"§":105,"¨":106,"©":107,"ª":108,"«":109,"¬":110,"®":111,"¯":112,"°":113,"±":114,"²":115,"³":116,"´":117,"µ":118,"¶":119,"·":120,"¸":121,"¹":122,"º":123,"»":124,"¼":125,"½":126,"¾":127,"¿":128,"À":129,"Á":130,"Â":131,"Ã":132,"Ä":133,"Å":134,"Æ":135,"Ç":136,"È":137,"É":138,"Ê":139,"Ë":140,"Ì":141,"Í":142,"Î":143,"Ï":144,"Ð":145,"Ñ":146,"Ò":147,"Ó":148,"Ô":149,"Õ":150,"Ö":151,"×":152,"Ø":153,"Ù":154,"Ú":155,"Û":156,"Ü":157,"Ý":158,"Þ":159,"ß":160,"à":161,"á":162,"â":163,"ã":164,"ä":165,"å":166,"æ":167,"ç":168,"è":169,"é":170,"ê":171,"ë":172,"ì":173,"í":174,"î":175,"ï":176,"ð":177,"ñ":178,"ò":179,"ó":180,"ô":181,"õ":182,"ö":183,"÷":184,"ø":185,"ù":186,"ú":187,"û":188,"ü":189,"ý":190,"þ":191,"ÿ":192,"Ā":193,"ā":194,"Ă":195,"ă":196,"Ą":197,"ą":198,"Ć":199,"ć":200,"Ĉ":201,"ĉ":202,"Ċ":203,"ċ":204,"Č":205,"č":206,"Ď":207,"ď":208,"Đ":209,"đ":210,"Ē":211,"ē":212,"Ĕ":213,"ĕ":214,"Ė":215,"ė":216,"Ę":217,"ę":218,"Ě":219,"ě":220,"Ĝ":221,"ĝ":222,"Ğ":223,"ğ":224,"Ġ":225,"ġ":226,"Ģ":227,"ģ":228,"Ĥ":229,"ĥ":230,"Ħ":231,"ħ":232,"Ĩ":233,"ĩ":234,"Ī":235,"ī":236,"Ĭ":237,"ĭ":238,"Į":239,"į":240,"İ":241,"ı":242,"Ĳ":243,"ĳ":244,"Ĵ":245,"ĵ":246,"Ķ":247,"ķ":248,"ĸ":249,"Ĺ":250,"ĺ":251,"Ļ":252,"ļ":253,"Ľ":254,"ľ":255,"Ŀ":256,"ŀ":257,"Ł":258,"ł":259,"Ń":260,"Ġd":261,"es":262,"Ã©":263,"Ġl":264,"en":265,"on":266,"Ġp":267,"Ġc":268,"ou":269,"Ġde":270,"ti":271,"Ġs":272,"qu":273,"re":274,"Ġa":275,"ent":276,"er":277,"an":278,"ai":279,"Ġqu":280,"Ġe":281,"is":282,"Ġm":283,"Ġn":284,"ur":285,"le":286,"Ġla":287,"in":288,"tion":289,"un":290,"te":291,"ar":292,"ment":293,"ĠÃ":294,"or":295,"Ġle":296,"it":297,"om":298,"Ġr":299,"Ġt":300,"Ġet":301,"si":302,"Ġf":303,"Ġpr":304,"Ġles":305,"Ġv":306,"ĠÃł":307,"ous":308,"Ġdes":309,"our":310,"Ġun":311,"Ġque":312,"Ã¨":313,"ons":314,"il":315,"Ġen":316,"est":317,"us":318,"ation":319,"ont":320,"âĢ":321,"Ġce":322,"me":323,"âĢĻ":324,"as":325,"ĠÃ©":326,"op":327,"ant":328,"Ġau":329,"ce":330,"ve":331,"li":332,"ne":333,"ans":334,"que":335,"au":336,"ĠdÃ©":337,"Ġpar":338,"al":339,"Ġpour":340,"ais":341,"tÃ©":342,"ci":343,"Ġj":344,"ri":345,"Ġb":346,"oi":347,"Ġcom":348,"ait":349,"Ġdu":350,"ra":351,"tre":352,"ĠrÃ©":353,"res":354,"Ġpas":355,"eu":356,"Ġin":357,"Ġdans":358,"Ġune":359,"Ġest":360,"ch":361,"Ġnous":362,"Ġg":363,"lle":364,"os":365,"Ġre":366,"Ġqui":367,"mp":368,"at":369,"Ġcon":370,"Ġpl":371,"Ġpro":372,"itÃ©":373,"de":374,"pp":375,"ag":376,"ĠC":377,"Ġsur":378,"rÃ©":379,"Ġne":380,"aire":381,"ort":382,"lement":383,"ens":384,"ab":385,"Ġtr":386,"les":387,"urop":388,"Ġse":389,"ff":390,"Ãª":391,"di":392,"Ġch":393,"ol":394,"end":395,"sion":396,"tte":397,"Ġplus":398,"ĠP":399,"ni":400,"Ã¨re":401,"Ġdi":402,"ro":403,"ac":404,"tu":405,"Ġpo":406,"ain":407,"Ã©s":408,"Ã©e":409,"ir":410,"ĠM":411,"urs":412,"omm":413,"ers":414,"ouv":415,"Ġje":416,"ter":417,"Ġsu":418,"ie":419,"se":420,"Ġil":421,"Ġtou":422,"uropÃ©":423,"Ġav":424,"Je":425,"Ġi":426,"Il":427,"Ġex":428,"ĠeuropÃ©":429,"ces":430,"mb":431,"ati":432,"Ã©r":433,"el":434,"ques":435,"Ġme":436,"app":437,"Ã¨s":438,"ĠeuropÃ©en":439,"Ġsont":440,"ui":441,"sid":442,"ul":443,"pe":444,"ois":445,"Ġac":446,"am":447,"Ġsi":448,"Ġdev":449,"Ġvous":450,"ys":451,"tions":452,"Ġcomm":453,"Ġcons":454,"Ġave":455,"Ġcette":456,"eur":457,"Ġpeu":458,"tat":459,"av":460,"une":461,"Ġcomp":462,"Ġo":463,"oir":464,"and":465,"ations":466,"Ġh":467,"tes":468,"ence":469,"ux":470,"Ġmo":471,"ĠprÃ©":472,"Ã©es":473,"mes":474,"ance":475,"Ġaux":476,"ien":477,"tr":478,"ission":479,"Ġcont":480,"ten":481,"et":482,"Nous":483,"Ġavec":484,"ale":485,"ue":486,"fi":487,"onn":488,"aux":489,"tique":490,"La":491,"Ġpa":492,"ord":493,"oit":494,"ĠComm":495,"Ġte":496,"Ġmon":497,"Ġsou":498,"ĠÃª":499,"Ġpoli":500,"Ġces":501,"Ġent":502,"Ġont":503,"Ġfait":504,"Ġli":505,"Ġrapp":506,"Le":507,"ure":508,"Ġimp":509,"elle":510,"Ġgr":511,"aut":512,"Ġmais":513,"ouve":514,"Ġprop":515,"Ġser":516,"ĠÃªtre":517,"age":518,"Ġ-":519,"Ãł":520,"Ġan":521,"oc":522,"ussi":523,"Ġparti":524,"Ġpays":525,"ge":526,"sident":527,"ad":528,"Ġconc":529,"lÃ¨":530,"Ġtra":531,"gi":532,"Ġou":533,"onc":534,"iss":535,"ĠCommission":536,"otre":537,"ments":538,"Ġapp":539,"ĠÃ©tÃ©":540,"ĠeuropÃ©enne":541,"vi":542,"du":543,"Les":544,"cti":545,"mi":546,"Ġdis":547,"onne":548,"che":549,"Ã´":550,"aires":551,"tats":552,"Ãªme":553,"pr":554,"lÃ©":555,"Ã©ri":556,"Ġtout":557,"ert":558,"Ġres":559,"Uni":560,"Ġcomme":561,"con":562,"alement":563,"Ã©t":564,"able":565,"rer":566,"ors":567,"ins":568,"oci":569,"Ġy":570,"cu":571,"Ġfaire":572,"Ã©n":573,"Union":574,"for":575,"Ġpu":576,"aient":577,"En":578,"ĠPrÃ©":579,"Ce":580,"oy":581,"ond":582,"ts":583,"Ġ1":584,"ĠÃ©t":585,"ĠÃ©g":586,"Ġrapport":587,"Ġvi":588,"ĠÃī":589,"Ġfin":590,"sieur":591,"ap":592,"onsieur":593,"ĠPrÃ©sident":594,"Ġdire":595,"Ġtrav":596,"la":597,"ise":598,"Ġ2":599,"ants":600,"ouver":601,"Ġpolitique":602,"ction":603,"Ġques":604,"Ġentre":605,"lles":606,"Ġco":607,"vent":608,"ĠnÃ©":609,"Ġbien":610,"00":611,"jour":612,"ĠPar":613,"Ġson":614,"Ġper":615,"eux":616,"Ġaussi":617,"Ġnouve":618,"ĠdÃ©c":619,"Ġmar":620,"Ġpeut":621,"conom":622,"ique":623,"Ġmes":624,"its":625,"titu":626,"Et":627,"aine":628,"ĠtrÃ¨s":629,"co":630,"ĠB":631,"Ġleur":632,"ven":633,"ĠÃītats":634,"eil":635,"bre":636,"ĠS":637,"ales":638,"osi":639,"Ġavons":640,"orte":641,"Ġeff":642,"Ġvou":643,"Ġmemb":644,"ves":645,"endre":646,"ail":647,"Ġ?":648,"ĠParlement":649,"ex":650,"ut":651,"Ġprob":652,"Ġes":653,"bli":654,"ande":655,"ĠÃ©galement":656,"Ġpers":657,"ĠmÃªme":658,"Ġimport":659,"ist":660,"ĠrÃ©s":661,"Ġaut":662,"Ġnom":663,"Europ":664,"ler":665,"Ġnotre":666,"ĠdÃ©p":667,"ense":668,"Ġinter":669,"Europe":670,"mer":671,"Ġter":672,"Ã¨me":673,"Ġdro":674,"alis":675,"Ġpos":676,"olu":677,"ine":678,"gn":679,"Ġam":680,"ate":681,"ard":682,"Ġdiff":683,"Ġtous":684,"isi":685,"Ġdeux":686,"ĠA":687,"Ġacc":688,"ĠCons":689,"enti":690,"Ġman":691,"Ġsa":692,"Ġmembres":693,"Ġdoit":694,"jet":695,"Ġal":696,"ace":697,"ilitÃ©":698,"cess":699,"Ã§":700,"Ġquel":701,"Ġins":702,"ille":703,"fin":704,"Ġas":705,"ot":706,"Ġcert":707,"par":708,"ble":709,"oup":710,"Ġdem":711,"ĠConseil":712,"ĠÃ©conom":713,"Ġsoci":714,"Ġpouv":715,"ĠproblÃ¨":716,"ct":717,"Ġcela":718,"Ã©c":719,"ures":720,"ĠprÃ©s":721,"Ã¨res":722,"rait":723,"min":724,"cte":725,"Ġquestion":726,"Ġfor":727,"ic":728,"Ġtravail":729,"ang":730,"Ġad":731,"tiques":732,"Ġst":733,"ains":734,"Ġob":735,"int":736,"use":737,"Ġar":738,"Ġseu":739,"tÃ©s":740,"ose":741,"Ġdonc":742,"emp":743,"met":744,"vel":745,"mps":746,"Ġtrans":747,"Ġconcer":748,"ture":749,"velop":750,"ĠT":751,"je":752,"ante":753,"alitÃ©":754,"iv":755,"Ġdevons":756,"Ġat":757,"Mais":758,"Ġcommun":759,"Ġpre":760,"cÃ©":761,"Ġcr":762,"Ġma":763,"Ġsuis":764,"uti":765,"ĠdÃ©velop":766,"Ġses":767,"tru":768,"Ġprog":769,"ĠdÃ©b":770,"rais":771,"Ġnos":772,"Ġmil":773,"ĠR":774,"Ã©g":775,"Ġexp":776,"Ġjus":777,"Ġ.":778,"ob":779,"Ġproposi":780,"lu":781,"tin":782,"lis":783,"Ġfa":784,"Ġmarch":785,"ĠrÃ©p":786,"Ã»":787,"ente":788,"gie":789,"core":790,"Ġcl":791,"Ġnombre":792,"rai":793,"ĠdÃ©m":794,"Ġcar":795,"eau":796,"Ġni":797,"Ġcontre":798,"Ġann":799,"Ġ,":800,"fs":801,"gu":802,"jourd":803,"Ġencore":804,"ĠcrÃ©":805,"hui":806,"acc":807,"ĠMonsieur":808,"cip":809,"Ġcro":810,"ĠrÃ©gi":811,"Ġti":812,"Ġmonde":813,"ommes":814,"ents":815,"Ġsans":816,"Ã®":817,"itu":818,"um":819,"cep":820,"ĠintÃ©":821,"Ġ\"":822,"Ġprodu":823,"Ġelle":824,"Ġder":825,"ser":826,"Ã©li":827,"Ġgouver":828,"ils":829,"Ġvo":830,"nement":831,"itÃ©s":832,"Un":833,"Ġlors":834,"ises":835,"aines":836,"Ġdonn":837,"Ġnon":838,"Ã¹":839,"Ġfond":840,"ours":841,"Ġmani":842,"Ġren":843,"omme":844,"uer":845,"ĠÂ":846,"Ġrec":847,"oin":848,"Ġvoud":849,"dÃ©":850,"vre":851,"ig":852,"Ġleurs":853,"enir":854,"olution":855,"ud":856,"Ġderni":857,"Ġpremi":858,"Ġon":859,"Ã©qu":860,"rÃ©s":861,"Ġpart":862,"cation":863,"ĠG":864,"Ġprin":865,"ables":866,"Ġsoit":867,"Ġdit":868,"Ġdont":869,"UE":870,"lar":871,"cher":872,"Ġrep":873,"ĠnÃ©cess":874,"cer":875,"eure":876,"Ãªtre":877,"ĠF":878,"Ġtemps":879,"Ġai":880,"Ġtoute":881,"ong":882,"Ġpense":883,"mble":884,"form":885,"ange":886,"ner":887,"endant":888,"Ġmain":889,"Ġvoudrais":890,"iste":891,"sie":892,"oire":893,"Ġparticu":894,"Ġfaut":895,"Ġcompr":896,"Ã©ration":897,"ĠdÃ©veloppe":898,"Ġrais":899,"ĠprÃ©sent":900,"ĠL":901,"Ġfinan":902,"Pour":903,"Ġcas":904,"ver":905,"pu":906,"Ġimportant":907,"Ġpubli":908,"Ġparticuli":909,"Monsieur":910,"Ġab":911,"imp":912,"out":913,"Ġsitu":914,"Ã¨g":915,"ĠoÃ¹":916,"Ġpossi":917,"ctive":918,"Ġor":919,"Ġrel":920,"iter":921,"Ġsys":922,"Ġcontr":923,"Ġ200":924,"ls":925,"Ġdroits":926,"Ġpri":927,"Ġpoint":928,"ĠÃ©tait":929,"insi":930,"rib":931,"Ġdoi":932,"Ġcol":933,"Ġ(":934,"ĠdÃ©veloppement":935,"Ġgrand":936,"ocra":937,"onnes":938,"Ġ:":939,"rÃª":940,"Ġbeau":941,"ĠgÃ©n":942,"Ġsommes":943,"utilis":944,"itoy":945,"ĠN":946,"vir":947,"nes":948,"prÃ¨s":949,"coup":950,"autres":951,"Ã¢":952,"Ġdom":953,"Ġaujourd":954,"Ã´le":955,"ez":956,"Ġmati":957,"Ġils":958,"ende":959,"ĠdiffÃ©r":960,"Ġsav":961,"Ġdoivent":962,"ĠÃ©v":963,"ĠrÃ¨g":964,"Ġcet":965,"Ġfr":966,"Ġag":967,"Ġconf":968,"Ġmilli":969,"ĠD":970,"ram":971,"Ġsyst":972,"Ã©cur":973,"rit":974,"Ġfois":975,"Ġmin":976,"des":977,"ĠdÃ©bat":978,"abilitÃ©":979,"tement":980,"elles":981,"jecti":982,"ĠproblÃ¨me":983,"nation":984,"sse":985,"olo":986,"Ã©curitÃ©":987,"ĠE":988,"Ġsituation":989,"der":990,"Ġbas":991,"Ġproposition":992,"Ġconsid":993,"quoi":994,"Ġbeaucoup":995,"jÃł":996,"anti":997,"Ġvrai":998,"anis":999,"Ġposi":1000,"ĠdÃ©jÃł":1001,"Ġmal":1002,"ĠÃ©conomique":1003,"ĠmarchÃ©":1004,"ences":1005,"Ġdisp":1006,"quer":1007,"Ġcitoy":1008,"ĠmaniÃ¨re":1009,"Ġpolitiques":1010,"ĠÃ©le":1011,"ĠsÃ©curitÃ©":1012,"Ġca":1013,"Ã©ra":1014,"Ġop":1015,"Ġess":1016,"Ġmet":1017,"Ġmont":1018,"Ġpe":1019,"Ġaccord":1020,"Ġnation":1021,"ĠÃ©c":1022,"Ġfinanci":1023,"Ġactu":1024,"Ġbes":1025,"oute":1026,"ĠdÃ©mocra":1027,"im":1028,"Ġsera":1029,"Ġmoins":1030,"Ġpermet":1031,"ass":1032,"Ġprogram":1033,"iti":1034,"Si":1035,"ision":1036,"sions":1037,"Dans":1038,"Ġcap":1039,"Ġainsi":1040,"Elle":1041,"Ġavant":1042,"Ġmen":1043,"Ġass":1044,"Ġaff":1045,"Ġjour":1046,"Ġnive":1047,"Ġlib":1048,"Ġchose":1049,"ĠlÃ©g":1050,"Ġaur":1051,"issaire":1052,"Ġinternation":1053,"Ã©di":1054,"oupe":1055,"aiss":1056,"udg":1057,"Ã¨rement":1058,"Ġbudg":1059,"Ġpersonnes":1060,"ĠCh":1061,"em":1062,"Ġlui":1063,"ative":1064,"Ġdemand":1065,"Ġvie":1066,"Ġtrai":1067,"sieurs":1068,"pons":1069,"Ġmesures":1070,"fois":1071,"Ġgouvernement":1072,"jours":1073,"ateurs":1074,"Ġ19":1075,"Ġconstitu":1076,"Ġpropos":1077,"Ġparce":1078,"Ġtoujours":1079,"ici":1080,"ĠI":1081,"ali":1082,"Ġsouti":1083,"isse":1084,"Ġgar":1085,"puis":1086,"ela":1087,"Ġmoi":1088,"Ġcitoyens":1089,"Ġvotre":1090,"Ġcha":1091,"Ġconcern":1092,"Ġavoir":1093,"Ġmainten":1094,"onnement":1095,"pÃ©":1096,"ĠdÃ©f":1097,"Ġmondi":1098,"ĠmatiÃ¨re":1099,"bles":1100,"Ġauc":1101,"ili":1102,"ĠnÃ©g":1103,"Ġfer":1104,"Ġans":1105,"Qu":1106,"Ġautres":1107,"Ġsouh":1108,"ellement":1109,"hÃ©":1110,"ada":1111,"Ġgroupe":1112,"agit":1113,"atique":1114,"dre":1115,"erci":1116,"Ġtoutes":1117,"Ġrespons":1118,"Ġautre":1119,"Ġlong":1120,"Ġsimp":1121,"dui":1122,"tant":1123,"Ġcent":1124,"Ġtant":1125,"Ġexemp":1126,"Ġatt":1127,"ĠannÃ©es":1128,"ĠlÃł":1129,"adre":1130,"bilitÃ©":1131,"vers":1132,"ĠsystÃ¨me":1133,"lons":1134,"Ġgrande":1135,"ront":1136,"Ġprof":1137,"mis":1138,"ĠJ":1139,"ĠreprÃ©s":1140,"Au":1141,"aille":1142,"uses":1143,"Ġconn":1144,"cÃ©d":1145,"Ġbesoin":1146,"Ġdroit":1147,"Cela":1148,"ĠÃ§":1149,"Vous":1150,"Ġmoy":1151,"accord":1152,"iÃ¨me":1153,"Ġici":1154,"Ġniveau":1155,"Ġplu":1156,"ĠconsÃ©qu":1157,"Ġcontin":1158,"mbl":1159,"ĠÃ§a":1160,"cul":1161,"Ġtrois":1162,"Ġpouvoir":1163,"intÃ©":1164,"Ġpourquoi":1165,"exp":1166,"Cette":1167,"amment":1168,"ph":1169,"ctions":1170,"Ġentrepr":1171,"ĠK":1172,"Ġemp":1173,"ganis":1174,"adame":1175,"Ġprincip":1176,"Ġsecte":1177,"Ġrespe":1178,"esp":1179,"Ġinc":1180,"ĠÂ«":1181,"Unis":1182,"Ġ--":1183,"Ġobjecti":1184,"Ġvis":1185,"tionne":1186,"ĠproblÃ¨mes":1187,"Ġquestions":1188,"Ġeffet":1189,"isl":1190,"Ġrest":1191,"Ġseulement":1192,"Par":1193,"Ġpass":1194,"Ġpartie":1195,"Ġsoi":1196,"Ã©v":1197,"Ġfem":1198,"orts":1199,"Ġcommission":1200,"iques":1201,"oris":1202,"Ġsujet":1203,"Ġsous":1204,"Ġcertains":1205,"Ġconcerne":1206,"ĠH":1207,"Ġprojet":1208,"Ġpeuvent":1209,"Ã§on":1210,"Ġservi":1211,"Ġutilis":1212,"Ġcompte":1213,"Ġraison":1214,"enne":1215,"Ġpeti":1216,"Ġtech":1217,"Ġpersonne":1218,"ĠrÃ©f":1219,"ĠrÃ©gion":1220,"Ġcoop":1221,"Ġcor":1222,"Ã´t":1223,"ances":1224,"Ġvoi":1225,"Ġdevrait":1226,"vironnement":1227,"entes":1228,"nent":1229,"Ġafin":1230,"ĠcollÃ¨":1231,"Ils":1232,"De":1233,"tri":1234,"og":1235,"ions":1236,"issance":1237,"merci":1238,"On":1239,"Ġremerci":1240,"Åĵ":1241,"Ġva":1242,"els":1243,"Ġcadre":1244,"oli":1245,"ĠEurope":1246,"tiv":1247,"Ġdepuis":1248,"Ġexemple":1249,"st":1250,"Ġplan":1251,"aÃ®":1252,"Ġcontrib":1253,"oritÃ©":1254,"Ġvoir":1255,"Ġmettre":1256,"ĠâĢ":1257,"Ġpouvons":1258,"Ġceux":1259,"Ġinstitu":1260,"ov":1261,"raient":1262,"Ġprendre":1263,"ĠMes":1264,"ature":1265,"Ġadop":1266,"oses":1267,"ari":1268,"dam":1269,"Ġfonc":1270,"Ġnouveau":1271,"Ġdemande":1272,"sui":1273,"Ġserait":1274,"Ġquelques":1275,"ĠrÃ©sul":1276,"Ġpens":1277,"ion":1278,"opul":1279,"omp":1280,"dus":1281,"Ġalors":1282,"Ġgens":1283,"ÃĢ":1284,"gÃ©":1285,"tention":1286,"Ġsub":1287,"Ġpourrait":1288,"Ġvue":1289,"Ġdirective":1290,"tenir":1291,"Ġdisc":1292,"ĠdÃ©s":1293,"Ġchange":1294,"Ġquand":1295,"Ġvraiment":1296,"Ġchoses":1297,"Ġph":1298,"Une":1299,"Ġim":1300,"ratÃ©":1301,"Ġdur":1302,"Ġmaintenant":1303,"Ġvers":1304,"Ġdomaine":1305,"rent":1306,"avant":1307,"Ã©tÃ©":1308,"Ġcrise":1309,"vez":1310,"ĠprÃ©sident":1311,"Ġpopul":1312,"cle":1313,"Ã©ric":1314,"ĠlÃ©gisl":1315,"Ġcours":1316,"Ġ3":1317,"Ġgaranti":1318,"ĠstratÃ©":1319,"gues":1320,"ages":1321,"Ġavait":1322,"Ġappr":1323,"ĠaprÃ¨s":1324,"Ġpossible":1325,"pendant":1326,"cessus":1327,"Ġjou":1328,"Ġenf":1329,"Ġmeille":1330,"Ġquelque":1331,"Ġnouvelle":1332,"endu":1333,"gr":1334,"Ġprocessus":1335,"Ġsupp":1336,"Ġamende":1337,"Ġprogramme":1338,"Ġbi":1339,"Ġtrop":1340,"Ġindi":1341,"Ġprote":1342,"Ġconsomm":1343,"gment":1344,"Ġbon":1345,"Ġhum":1346,"lent":1347,"ies":1348,"duire":1349,"Ġsein":1350,"teurs":1351,"Ġress":1352,"ĠcoopÃ©ration":1353,"Ġsavoir":1354,"Ġcri":1355,"ger":1356,"Ġeu":1357,"vesti":1358,"ĠfaÃ§on":1359,"ĠsÃ»":1360,"Ġris":1361,"Ġpres":1362,"gne":1363,"vous":1364,"ĠnÃ©goci":1365,"Ġcour":1366,"agne":1367,"amais":1368,"Ġprotection":1369,"oritÃ©s":1370,"ouvent":1371,"mment":1372,"ĠeuropÃ©ens":1373,"dent":1374,"Ġsecteur":1375,"Ġessenti":1376,"vÃ©":1377,"Ġlieu":1378,"Ġlu":1379,"airement":1380,"vention":1381,"tie":1382,"qui":1383,"Ġreg":1384,"usement":1385,"Ãī":1386,"Ġcomment":1387,"ay":1388,"Ġjamais":1389,"ĠrÃ´le":1390,"Ġcondi":1391,"loi":1392,"homme":1393,"ĠrÃ©alis":1394,"Ġrapporte":1395,"Ġ20":1396,"Ġplace":1397,"Ġnu":1398,"Ġju":1399,"Ġmesure":1400,"Ġconcernant":1401,"Ã©tait":1402,"Ġeng":1403,"quelle":1404,"Ġfi":1405,"tÃ©e":1406,"Ġ%":1407,"ager":1408,"Ġlaquelle":1409,"heure":1410,"Ġsoutien":1411,"vis":1412,"antes":1413,"rieur":1414,"Ġrenfor":1415,"Ġbase":1416,"ĠpremiÃ¨re":1417,"ament":1418,"per":1419,"llement":1420,"Ġsens":1421,"gent":1422,"xte":1423,"Ġavez":1424,"Ġentreprises":1425,"ĠprÃ©v":1426,"entre":1427,"antÃ©":1428,"fic":1429,"atives":1430,"Ġcroissance":1431,"ĠrÃ©g":1432,"Ġmi":1433,"Ġpublic":1434,"dustri":1435,"Ġeffic":1436,"Ġrap":1437,"oins":1438,"orer":1439,"ide":1440,"Ġfais":1441,"Ġbonne":1442,"Ã©ment":1443,"Ġmoment":1444,"enu":1445,"air":1446,"rÃ©e":1447,"ĠV":1448,"Ġesp":1449,"anc":1450,"ĠdÃ©clar":1451,"Ġfemmes":1452,"ĠâĢĵ":1453,"ches":1454,"Ġbudget":1455,"Ġprom":1456,"ĠreprÃ©sent":1457,"ĠrÃ©solution":1458,"uri":1459,"ĠprÃ©c":1460,"Ġcel":1461,"cture":1462,"Ġrecher":1463,"port":1464,"Ces":1465,"sidence":1466,"Ã©rence":1467,"ĠÃ©tr":1468,"ann":1469,"ĠsantÃ©":1470,"omb":1471,"Ġcommen":1472,"Ãªte":1473,"Ġposition":1474,"Ġfondament":1475,"ĠÂ»":1476,"Ġid":1477,"Ġarri":1478,"aite":1479,"Ġpris":1480,"Ġnot":1481,"gique":1482,"Ġrem":1483,"Ġveu":1484,"Ġform":1485,"veur":1486,"Ġnature":1487,"lon":1488,"quÃ©":1489,"Ġvol":1490,"Ġcrois":1491,"Ġmillions":1492,"atis":1493,"Ġreconn":1494,"Ġparticulier":1495,"ĠprocÃ©d":1496,"asse":1497,"Ġreste":1498,"pÃ©ci":1499,"rÃªt":1500,"ĠspÃ©ci":1501,"Ġpuis":1502,"ĠrÃ©pons":1503,"ĠnÃ©cessaire":1504,"auv":1505,"Ġelles":1506,"Ġorganis":1507,"ites":1508,"Ġcul":1509,"Ġterme":1510,"ĠMme":1511,"Ġfaveur":1512,"ĠrÃ©for":1513,"ĠrÃ¨glement":1514,"ress":1515,"action":1516,"Ġprix":1517,"Ã©conom":1518,"Ġrien":1519,"Ġpai":1520,"Ġchaque":1521,"acitÃ©":1522,"nements":1523,"ablement":1524,"fier":1525,"autre":1526,"Ġsouli":1527,"eff":1528,"rions":1529,"venir":1530,"mblÃ©e":1531,"ca":1532,"ĠO":1533,"Ġoc":1534,"Ġmaj":1535,"Ġproch":1536,"orter":1537,"lÃ©ment":1538,"Ġpropositions":1539,"Ġaccep":1540,"gni":1541,"ĠChine":1542,"Ġfonction":1543,"Ġvote":1544,"Ġsoient":1545,"att":1546,"ailleurs":1547,"Ġrapide":1548,"Ġ5":1549,"Ġrapporteur":1550,"inter":1551,"ĠgÃ©nÃ©r":1552,"ĠcollÃ¨gues":1553,"ats":1554,"Ġservices":1555,"Ã©rer":1556,"Ġsuiv":1557,"Ġterr":1558,"ĠresponsabilitÃ©":1559,"moi":1560,"Ġjuste":1561,"tive":1562,"Ġsouhait":1563,"fication":1564,"Ġmois":1565,"Ġz":1566,"Ġ!":1567,"Ġunique":1568,"Ġinf":1569,"man":1570,"ĠdÃ©pu":1571,"Ġnouvelles":1572,"ĠÃ©vi":1573,"ĠamÃ©ric":1574,"ĠtraitÃ©":1575,"Ġpremier":1576,"Ġenfants":1577,"ources":1578,"Ġsuff":1579,"ĠCommissaire":1580,"ĠvÃ©r":1581,"Ġsigni":1582,"Ġnombreux":1583,"ĠsÃ»r":1584,"Ã©nÃ©":1585,"Ġmis":1586,"Ġviol":1587,"id":1588,"ole":1589,"ĠdÃ©fin":1590,"ateur":1591,"jou":1592,"ĠcoÃ»":1593,"Ġtu":1594,"Ġproduits":1595,"ĠsÃ©ri":1596,"Åĵu":1597,"act":1598,"Ġ199":1599,"ran":1600,"one":1601,"Ġmise":1602,"ĠmÃ©di":1603,"lex":1604,"Ġsemble":1605,"Ġoff":1606,"adi":1607,"ression":1608,"Ġdonner":1609,"Ġamendements":1610,"quel":1611,"Ġjusqu":1612,"Ġnotamment":1613,"ĠdÃ©cision":1614,"mbre":1615,"abord":1616,"ing":1617,"nolo":1618,"Ġcommune":1619,"Ġaucun":1620,"vestisse":1621,"tif":1622,"Ġsouvent":1623,"Ġobjectifs":1624,"Ġabs":1625,"ĠMadame":1626,"Ġsal":1627,"cipe":1628,"Ã©taire":1629,"orm":1630,"uridi":1631,"hÃ©sion":1632,"sez":1633,"teur":1634,"Ġjuridi":1635,"Ġagri":1636,"Ġplusieurs":1637,"Ã©ner":1638,"Ġliber":1639,"Ġfut":1640,"avenir":1641,"ode":1642,"Ġcommunaut":1643,"lab":1644,"tent":1645,"Ġtot":1646,"espÃ¨re":1647,"Ġmieux":1648,"ĠÃ©ch":1649,"ĠcontrÃ´le":1650,"ĠparticuliÃ¨rement":1651,"Ġgra":1652,"ssemblÃ©e":1653,"Ġ4":1654,"Ġcomb":1655,"rons":1656,"avantage":1657,"Ġsui":1658,"Ġvale":1659,"ill":1660,"Ġparler":1661,"roche":1662,"Ġcli":1663,"ĠrÃ©c":1664,"aide":1665,"anger":1666,"Ġpoin":1667,"tra":1668,"Ġconditions":1669,"Ġcelui":1670,"arti":1671,"Ã©nÃ©fi":1672,"ĠstratÃ©gie":1673,"Ã©nergie":1674,"Ġstru":1675,"itaire":1676,"occu":1677,"ussie":1678,"Ġcelle":1679,"Ġinstitutions":1680,"Ġnouveaux":1681,"Ġcommissaire":1682,"Ġdou":1683,"oration":1684,"ĠbÃ©nÃ©fi":1685,"ĠrÃ©du":1686,"ĠpossibilitÃ©":1687,"Ġseront":1688,"Ġparticip":1689,"Ġtechnolo":1690,"Ġprincipe":1691,"ĠamÃ©li":1692,"tim":1693,"ĠrÃ¨gles":1694,"appli":1695,"uerre":1696,"Ġinform":1697,"ĠrÃ©ponse":1698,"cour":1699,"alisation":1700,"ĠdÃ©mocratie":1701,"Ġfour":1702,"ues":1703,"ĠsociÃ©tÃ©":1704,"Ġsoulign":1705,"ier":1706,"ĠsÃ©":1707,"ĠÃ©ner":1708,"Ġsign":1709,"Ġref":1710,"Ġappli":1711,"Ġatte":1712,"ĠdÃ©ci":1713,"Ġfonds":1714,"Ġri":1715,"ĠfÃ©li":1716,"Ġcontribu":1717,"ĠprÃ©sidence":1718,"Ġense":1719,"rÃ¨s":1720,"Ã©d":1721,"yp":1722,"Ġtrouver":1723,"Ã©conomie":1724,"Ġaugment":1725,"Al":1726,"Ġpeux":1727,"autÃ©":1728,"Ġrecherche":1729,"Ġsociale":1730,"ĠÃ©tu":1731,"Ġclairement":1732,"aise":1733,"Ġbr":1734,"Ġdavantage":1735,"Ġdiffici":1736,"Ġvoy":1737,"Ġiniti":1738,"urer":1739,"ĠÃ©qu":1740,"Ãªche":1741,"Ġselon":1742,"gration":1743,"Ġjusti":1744,"fri":1745,"Ġparten":1746,"Ġlim":1747,"import":1748,"Ã©lÃ©":1749,"Ġsem":1750,"ordre":1751,"ĠdÃ©cisi":1752,"isme":1753,"environnement":1754,"Ġsolution":1755,"ordin":1756,"Ġpoints":1757,"Ġveux":1758,"Ġimportante":1759,"Ġmondiale":1760,"ĠnÃ©gociations":1761,"ĠJe":1762,"cont":1763,"osition":1764,"ĠrÃ©pond":1765,"Ġret":1766,"Comme":1767,"Ġpendant":1768,"ĠqualitÃ©":1769,"ouvez":1770,"vient":1771,"era":1772,"ĠcompÃ©":1773,"Ġtour":1774,"utÃ´t":1775,"ĠpÃ©ri":1776,"Ġefficace":1777,"Ġdernier":1778,"nÃ©":1779,"ĠderniÃ¨re":1780,"Ġaucune":1781,"urr":1782,"atiques":1783,"Åĵuvre":1784,"ĠÃ©conomiques":1785,"unes":1786,"ĠcÃ´":1787,"ctu":1788,"Ġcan":1789,"Ġfav":1790,"Ġeux":1791,"inform":1792,"ĠRussie":1793,"Ġmoyen":1794,"Ġtaux":1795,"Ġculture":1796,"Ã¯":1797,"ient":1798,"Ġdifficile":1799,"Ġali":1800,"Ġfac":1801,"ĠPrÃ©sidente":1802,"istoire":1803,"aur":1804,"issent":1805,"ĠdÃ©putÃ©s":1806,"suite":1807,"Ġcertaines":1808,"Ġple":1809,"gence":1810,"Ġlar":1811,"Ġremercier":1812,"ĠÃ©taient":1813,"Ġpriv":1814,"ĠplutÃ´t":1815,"Ã¨ne":1816,"issement":1817,"Ġcertaine":1818,"ĠdÃ¨s":1819,"Ġsuc":1820,"Ġsimplement":1821,"rim":1822,"raph":1823,"Ãªmes":1824,"Ġche":1825,"Ġlorsque":1826,"oser":1827,"Ġvoulons":1828,"tÃ©ri":1829,"Ġguerre":1830,"cÃ¨s":1831,"Ġressources":1832,"Ġpopulation":1833,"llem":1834,"Ġparlement":1835,"ĠeuropÃ©ennes":1836,"Ġsci":1837,"grÃ©":1838,"all":1839,"erre":1840,"emploi":1841,"istre":1842,"Ġcapit":1843,"Tout":1844,"ĠW":1845,"isation":1846,"fique":1847,"mÃªme":1848,"indre":1849,"Ġmodi":1850,"Ġinternationale":1851,"dames":1852,"Ġface":1853,"Ã©ch":1854,"ĠpassÃ©":1855,"Ġefforts":1856,"nous":1857,"ĠMessieurs":1858,"az":1859,"Ġfont":1860,"ossi":1861,"Ġchar":1862,"Ġcher":1863,"Ġsorte":1864,"Ġrespect":1865,"Ġno":1866,"lir":1867,"Ġcommerci":1868,"Ġpropre":1869,"Ã©rÃ©":1870,"Ġpi":1871,"Ġremar":1872,"aud":1873,"blig":1874,"Ġimpli":1875,"ards":1876,"ĠdonnÃ©":1877,"matique":1878,"Ġenti":1879,"lo":1880,"Ġseule":1881,"are":1882,"ĠÃ©trang":1883,"ĠrÃ©un":1884,"Ġpaix":1885,"Ġconstru":1886,"ĠcrÃ©er":1887,"lus":1888,"ĠlÃ©gislation":1889,"Ġappel":1890,"Toute":1891,"atif":1892,"ĠrÃ©gions":1893,"ĠvotÃ©":1894,"ĠmarchÃ©s":1895,"ĠlibertÃ©":1896,"cident":1897,"Ġrelations":1898,"Ġconsommateurs":1899,"itable":1900,"quie":1901,"illes":1902,"clÃ©":1903,"Ġvu":1904,"Ġlutte":1905,"ĠÃ©crit":1906,"ras":1907,"temps":1908,"Ġquoi":1909,"arm":1910,"Donc":1911,"time":1912,"Ġdevraient":1913,"Ġchangement":1914,"ĠdÃ©t":1915,"Ġdiri":1916,"ĠannÃ©e":1917,"Ġconfi":1918,"Ġfai":1919,"Ġextr":1920,"Ġdiffic":1921,"oupes":1922,"tout":1923,"Ġforme":1924,"ĠrÃ©alitÃ©":1925,"Ġconclu":1926,"ĠpÃªche":1927,"Ġconcurr":1928,"Ã¨te":1929,"Ġir":1930,"Ġmod":1931,"ĠconsÃ©quent":1932,"ancement":1933,"..":1934,"Ġfam":1935,"oph":1936,"Ġpouvez":1937,"tis":1938,"gue":1939,"ensemble":1940,"ĠdiffÃ©rents":1941,"Ġoutre":1942,"Ġdemander":1943,"Ġexiste":1944,"Ġsoutenir":1945,"fie":1946,"ĠrÃ©sultats":1947,"aÃ®t":1948,"Ġvoie":1949,"ĠprÃ©occu":1950,"Ãītat":1951,"argent":1952,"vement":1953,"Ġlarge":1954,"avoir":1955,"ĠprogrÃ¨s":1956,"Ġtelle":1957,"Ġtermes":1958,"ĠÅĵuvre":1959,"ĠdÃ©pens":1960,"cole":1961,"Ġcertain":1962,"Ġentendu":1963,"Des":1964,"rÃªts":1965,"ĠnuclÃ©":1966,"amin":1967,"Ġvolont":1968,"Ġsuffis":1969,"Ġeffe":1970,"ĠautoritÃ©s":1971,"ĠprÃ©cis":1972,"aritÃ©":1973,"ĠdonnÃ©es":1974,"Ġcir":1975,"Ġvais":1976,"Ġdoute":1977,"Ġcin":1978,"Ġtoutefois":1979,"tifs":1980,"Ġconstitue":1981,"Ġactuellement":1982,"ĠprocÃ©dure":1983,"Ġban":1984,"Ġseul":1985,"Ġconnaiss":1986,"estion":1987,"Ġsy":1988,"rale":1989,"Â»":1990,"000":1991,"nique":1992,"larg":1993,"mette":1994,"Ġjuridique":1995,"eng":1996,"Ġgl":1997,"Ġtranspar":1998,"Ġsoli":1999,"aff":2000,"Ġrepr":2001,"ret":2002,"Ġnombreuses":2003,"Ġgarantir":2004,"ĠmÃ©":2005,"Ġretr":2006,"Ġpeup":2007,"tivitÃ©":2008,"Ġait":2009,"Ġsurtout":2010,"Ġqua":2011,"casion":2012,"onti":2013,"amende":2014,"Ġsais":2015,"Ġraisons":2016,"Ġactuelle":2017,"alu":2018,"ses":2019,"Ġrapidement":2020,"Ġterroris":2021,"Ġsc":2022,"dustrie":2023,"ĠdeuxiÃ¨me":2024,"Ġdevrions":2025,"rir":2026,"Ġcommunautaire":2027,"ĠderniÃ¨res":2028,"tres":2029,"Ġveut":2030,"Ã©rique":2031,"Ġgouvernements":2032,"Ġci":2033,"Ġtent":2034,"Ġstructure":2035,"Ġrisque":2036,"\".":2037,"erce":2038,"Ġsus":2039,"ĠTur":2040,"Ġaspe":2041,"Ġproduction":2042,"Ġexpli":2043,"ĠnÃ©cessitÃ©":2044,"erve":2045,"Ġdoc":2046,"rodu":2047,"Ġheure":2048,"Ġvois":2049,"gies":2050,"ormes":2051,"Ġensemble":2052,"ĠÃ©tab":2053,"Que":2054,"Ã¨mes":2055,"Ġtravers":2056,"Ġlibre":2057,"ĠprotÃ©":2058,"Ġpreu":2059,"Ġtiens":2060,"part":2061,"Ġpublique":2062,"lais":2063,"art":2064,"endance":2065,"Ġconfl":2066,"Ġver":2067,"ĠrÃ©glement":2068,"atisf":2069,"ĠEtats":2070,"ĠsÃ©rie":2071,"Ġreven":2072,"Ġassez":2073,"Ġmoyens":2074,"inc":2075,"Ġremp":2076,"ĠAssemblÃ©e":2077,"Ġclair":2078,"ĠpÃ©riode":2079,"termin":2080,"Ġcontinuer":2081,"Ġchi":2082,"cteurs":2083,"Ġaliment":2084,"Ġenvironnement":2085,"tÃ©r":2086,"ĠextrÃªme":2087,"ctives":2088,"Ġplupart":2089,"Madame":2090,"ĠMesdames":2091,"ĠfinanciÃ¨re":2092,"Ġ6":2093,"Ġvoit":2094,"annÃ©e":2095,"lÃł":2096,"ĠmajoritÃ©":2097,"issant":2098,"istes":2099,"Ġlequel":2100,"ru":2101,"ĠprÃª":2102,"heureusement":2103,"Toutefois":2104,"Ġconv":2105,"ĠnÃ©cessaires":2106,"aÃ®tre":2107,"Ġport":2108,"Ġjeunes":2109,"nie":2110,"Ġimm":2111,"Ġsouhaite":2112,"ĠdÃ©cisions":2113,"In":2114,"Ġcause":2115,"Ġaurait":2116,"agement":2117,"Enfin":2118,"ĠrÃ©v":2119,"Ġaille":2120,"Ġencour":2121,"Ġtrouve":2122,"Ġtravailleurs":2123,"itaires":2124,"Ġinstru":2125,"Ġvisant":2126,"Ġlesque":2127,"Ġaura":2128,"Ġcependant":2129,"ĠÃ©gard":2130,"Ġrev":2131,"endra":2132,"ĠcrÃ©ation":2133,"cts":2134,"avons":2135,"Ġcomprom":2136,"Ġ;":2137,"fiques":2138,"Alors":2139,"Ġty":2140,"Ġten":2141,"Ġporte":2142,"Ġgen":2143,"Ġconcurrence":2144,"Ġsatisf":2145,"importance":2146,"Ġcompris":2147,"table":2148,"Ġavis":2149,"ilÃł":2150,"Ġobjectif":2151,"Ġremercie":2152,"Ġinvestisse":2153,"Ġtrouv":2154,"Ġtrain":2155,"Ġint":2156,"ĠgÃ©nÃ©ral":2157,"Ġgestion":2158,"ends":2159,"Ġconfiance":2160,"tÃ©es":2161,"Bien":2162,"cel":2163,"Ġdomaines":2164,"Ġani":2165,"information":2166,"ĠmÃ©t":2167,"Ġpoursui":2168,"ĠstabilitÃ©":2169,"Ġpermettre":2170,"chÃ©":2171,"oque":2172,"Ġgroupes":2173,"intÃ©rÃªt":2174,"Ġrendre":2175,"ĠindÃ©":2176,"Ġconte":2177,"Am":2178,"Ġcomprendre":2179,"Ġoblig":2180,"ĠtÃ©lÃ©":2181,"Ġailleurs":2182,"ĠdiffÃ©rentes":2183,"ĠTurquie":2184,"Ġanim":2185,"ĠGr":2186,"Ġprogrammes":2187,"ĠbÃ©nÃ©fici":2188,"mettez":2189,"Ġsouten":2190,"iles":2191,"Ġrenforcer":2192,"Ã¢ce":2193,"rak":2194,"ollar":2195,"ĠintÃ©ress":2196,"Ġfran":2197,"Ġfort":2198,"Ġmembre":2199,"Ġinternational":2200,"land":2201,"Ġconsci":2202,"Ġvos":2203,"ĠintÃ©rÃªts":2204,"ĠdÃ©mocratique":2205,"ensi":2206,"Ġcoup":2207,"Ġloc":2208,"Ġglob":2209,"Ġtexte":2210,"inf":2211,"Ġ7":2212,"Ġrespec":2213,"Ã©cu":2214,"Ġdollar":2215,"ogue":2216,"Ġsavez":2217,"rimer":2218,"amendement":2219,"Ġlais":2220,"Ġaller":2221,"demment":2222,"ĠdÃ©termin":2223,"Ġcommerce":2224,"Ġdestin":2225,"ivers":2226,"Ġforte":2227,"frique":2228,"Ġpratique":2229,"erts":2230,"Ġtype":2231,"ctement":2232,"ĠintÃ©rieur":2233,"ommet":2234,"Ġexist":2235,"isc":2236,"ĠrÃ©forme":2237,"Ġmauv":2238,"ĠextrÃªmement":2239,"Ġrencont":2240,"Ġmeilleure":2241,"Ġsignifie":2242,"ĠmodÃ¨":2243,"Ġconvain":2244,"ĠconsÃ©quences":2245,"Ġessentiel":2246,"Ġexig":2247,"ĠEt":2248,"Ã¨rent":2249,"ĠÃ©tant":2250,"Ġrappel":2251,"titude":2252,"Ġrou":2253,"EN":2254,"ennent":2255,"Ġprojets":2256,"Ġessay":2257,"Ġsuite":2258,"osÃ©":2259,"ĠprÃ©occup":2260,"ĠÃ©nergÃ©":2261,"largissement":2262,"Ġsavons":2263,"Ġfronti":2264,"ĠrÃ©ussi":2265,"Ġaffaires":2266,"ĠrÃ©duire":2267,"Ġprofes":2268,"Ġempl":2269,"Ġouv":2270,"amÃ©li":2271,"Ġloin":2272,"eures":2273,"Ġtel":2274,"ĠrÃ©pondre":2275,"Ġ10":2276,"Ġfinancement":2277,"remi":2278,"lÃ©g":2279,"adop":2280,"ĠcontrÃ´":2281,"ĠfÃ©lic":2282,"Ġta":2283,"alogue":2284,"Ġsouligner":2285,"ĠgÃ©nÃ©ra":2286,"Ġpasser":2287,"Cependant":2288,"Ġtransport":2289,"ines":2290,"rez":2291,"Ġmilliards":2292,"arder":2293,"Ġapproche":2294,"oires":2295,"industrie":2296,"Ġlongtemps":2297,"Ġpasse":2298,"ĠLe":2299,"Ġall":2300,"prit":2301,"ĠdÃ©but":2302,"Ġdisposi":2303,"Ġdocu":2304,"ĠÃītat":2305,"Ġautant":2306,"Ġeur":2307,"Ġdirige":2308,"Ġcompromis":2309,"Ġdevant":2310,"ĠLa":2311,"quent":2312,"objecti":2313,"lande":2314,"auc":2315,"Ġjours":2316,"Ġrecomm":2317,"Ġperspe":2318,"olutions":2319,"Ġfix":2320,"tir":2321,"ancer":2322,"Ġtravailler":2323,"Ġentra":2324,"moins":2325,"Ġpau":2326,"ĠÃ©p":2327,"ak":2328,"Ġ8":2329,"Ġcommunic":2330,"ĠcÃ´tÃ©":2331,"Ġfavor":2332,"Est":2333,"ister":2334,"ĠprÃ¨s":2335,"apon":2336,"Ġuti":2337,"Ġdois":2338,"Ġzone":2339,"ĠÃ©lections":2340,"ĠcompÃ©ti":2341,"Ġmort":2342,"bonne":2343,".\"":2344,"ign":2345,"usse":2346,"ĠÃªtes":2347,"dis":2348,"ĠrÃ©gime":2349,"Ġfra":2350,"isbonne":2351,"Ġdiscu":2352,"ension":2353,"Ġpauvre":2354,"ĠconsidÃ©ra":2355,"Ġmul":2356,"Ġaccomp":2357,"DE":2358,"arde":2359,"Ã©tu":2360,"Ã©p":2361,"istan":2362,"Ġdivers":2363,"Ġdifficul":2364,"Ġjustice":2365,"ĠLisbonne":2366,"Ġsau":2367,"ĠrÃ©sultat":2368,"ĠFr":2369,"Ã©galitÃ©":2370,"iser":2371,"Ġhab":2372,"ade":2373,"Ġaide":2374,"ĠreÃ§":2375,"niques":2376,"iennent":2377,"Ġtransp":2378,"culture":2379,"Ġdialogue":2380,"Ġlorsqu":2381,"Ġopp":2382,"ĠlibÃ©r":2383,"Ġ201":2384,"ĠdÃ©ch":2385,"Ġsimple":2386,"omment":2387,"Ġgrandes":2388,"Ġhommes":2389,"mettre":2390,"Ġlang":2391,"Ġpreuve":2392,"hi":2393,"Ã¨ce":2394,"Ġvoter":2395,"Ġabord":2396,"vant":2397,"Ġcontexte":2398,"Ġrend":2399,"Ġscienti":2400,"Ġgenre":2401,"Deux":2402,"ĠvolontÃ©":2403,"accep":2404,"Ġvont":2405,"oix":2406,"Ġvicti":2407,"Ġvenir":2408,"Ġamb":2409,"Ġdurable":2410,"Ġinformations":2411,"Ġquatre":2412,"Ġattention":2413,"nov":2414,"Ġsenti":2415,"Ġactions":2416,"lure":2417,"ĠreprÃ©sente":2418,"ĠIl":2419,"aces":2420,"article":2421,"Ġtitre":2422,"Ġproduit":2423,"Ġpropres":2424,"atri":2425,"Ġpourraient":2426,"Ġsol":2427,"ĠsuccÃ¨s":2428,"Ġquant":2429,"ĠsystÃ¨mes":2430,"ĠÃ©tudi":2431,"Ġpuisse":2432,"ĠsupplÃ©ment":2433,"Ġcommencer":2434,"Ġfisc":2435,"anmoins":2436,"ĠdÃ»":2437,"ug":2438,"Ã«":2439,"Ġprincipes":2440,"Ġministre":2441,"ercice":2442,"Ã©gi":2443,"Ġnationaux":2444,"Ġactiv":2445,"Ã©le":2446,"Ġsecon":2447,"ducation":2448,"onde":2449,"ĠdemandÃ©":2450,"Ġappar":2451,"Tu":2452,"cite":2453,"Ġnormes":2454,"Ġparties":2455,"Ġexc":2456,"Ġsocial":2457,"Ġconvient":2458,"Ġchez":2459,"idÃ©e":2460,"Ġ9":2461,"Ġsommet":2462,"objectif":2463,"Ġmanque":2464,"atifs":2465,"ĠbudgÃ©taire":2466,"Ġcinq":2467,"ĠrÃ©sou":2468,"ss":2469,"nÃ©e":2470,"ĠsiÃ¨":2471,"ĠrÃ©se":2472,"Ġfinanciers":2473,"Ġaccords":2474,"did":2475,"Ġcat":2476,"Ġinst":2477,"Ġforce":2478,"Ġjouer":2479,"Ġcandid":2480,"Ġsolid":2481,"adhÃ©sion":2482,"Ġimportants":2483,"Ġcelles":2484,"Ġsep":2485,"Ġ000":2486,"ĠmÃ©c":2487,"ĠgrÃ¢ce":2488,"Ġtransf":2489,"ĠcommunautÃ©":2490,"Ġtard":2491,"Mal":2492,"Ġur":2493,"sra":2494,"alesti":2495,"Ġgrands":2496,"Ġdonne":2497,"lin":2498,"Ġindustri":2499,"Ġfaci":2500,"utilisation":2501,"Ġaider":2502,"Ġmanif":2503,"Ġmaladi":2504,"Ġbl":2505,"application":2506,"Ġpol":2507,"Ã©largissement":2508,"Ġtransparence":2509,"ore":2510,"onds":2511,"Ġimportance":2512,"Ġvaleurs":2513,"viron":2514,"cev":2515,"Ġay":2516,"Ġconcep":2517,"ĠrÃ©ellement":2518,"Ġtrait":2519,"voy":2520,"aimer":2521,"Ġfaud":2522,"ienne":2523,"uit":2524,"Ġcontraire":2525,"Ã«l":2526,"ĠprÃ©f":2527,"cessi":2528,"ĠÃ©n":2529,"Ġcal":2530,"tons":2531,"Ġceci":2532,"Ġreli":2533,"Ġprochaine":2534,"Ġrelative":2535,"ĠCon":2536,"ĠprÃ©cÃ©d":2537,"Ã©m":2538,"inois":2539,"ĠrÃ©jou":2540,"olument":2541,"Ġtelles":2542,"ĠmÃ©th":2543,"objet":2544,"Ġcommunication":2545,"Ġtels":2546,"Ġmention":2547,"ha":2548,"Ġinv":2549,"Ġcrit":2550,"Lors":2551,"yer":2552,"aluation":2553,"ĠvÃ©ritable":2554,"Ġchoix":2555,"tenti":2556,"Ġvient":2557,"arri":2558,"laboration":2559,"ach":2560,"ĠcapacitÃ©":2561,"opp":2562,"ĠdÃ©claration":2563,"Ġnationales":2564,"ĠdÃ©si":2565,"Ġcertainement":2566,"Ġveil":2567,"Ġpetit":2568,"Ġvaleur":2569,"Ġpleine":2570,"ĠdÃ©tail":2571,"mÃ©":2572,"ctri":2573,"Ġprov":2574,"histoire":2575,"Ġobser":2576,"Ne":2577,"Ġensuite":2578,"oni":2579,"Ġrapports":2580,"ĠrÃ©soudre":2581,"agn":2582,"ĠdÃ©penses":2583,"Ġpartis":2584,"Comment":2585,"aimerais":2586,"Or":2587,"ĠactivitÃ©s":2588,"Mon":2589,"Ġquelle":2590,"ĠpauvretÃ©":2591,"giques":2592,"Ġyeux":2593,"ĠNations":2594,"ges":2595,"Ã©rience":2596,"Ã©rons":2597,"Ġcontribuer":2598,"Ġprise":2599,"Ġparle":2600,"ement":2601,"ĠCour":2602,"ussions":2603,"Ġchac":2604,"Ġsor":2605,"ones":2606,"ĠrÃ©formes":2607,"llemagne":2608,"prÃ©":2609,"opri":2610,"Ġbou":2611,"Ġmontre":2612,"Ġsemaine":2613,"be":2614,"Ġchois":2615,"Ġtiers":2616,"Ġmondial":2617,"Ġbure":2618,"ĠfinanciÃ¨res":2619,"tionnel":2620,"ĠcomplÃ¨":2621,"Ġmer":2622,"ĠtÃ¢":2623,"ĠfrontiÃ¨res":2624,"Ġdispos":2625,"euros":2626,"Ġdemain":2627,"Notre":2628,"ĠidÃ©e":2629,"aie":2630,"gueur":2631,"Ġterrorisme":2632,"Ġsan":2633,"ĠnuclÃ©aire":2634,"Ġsouff":2635,"vÃ©s":2636,"Ġconst":2637,"Ġaspects":2638,"Ġcontra":2639,"ritan":2640,"Ġreconnaiss":2641,"ĠÃ©nergÃ©tique":2642,"tation":2643,"agri":2644,"Ġformul":2645,"Ġlo":2646,"Ġven":2647,"ĠmodÃ¨le":2648,"ĠprÃ©par":2649,"Ġhaut":2650,"Ġterrit":2651,"titution":2652,"Ġ15":2653,"ition":2654,"Ġheures":2655,"Ġconcent":2656,"Ġmontrer":2657,"han":2658,"Ġdispositions":2659,"Ġsociaux":2660,"Ġconfront":2661,"appr":2662,"lisse":2663,"Ġpotenti":2664,"effic":2665,"Ġvictimes":2666,"Cert":2667,"Ġfinancier":2668,"Ġrecommand":2669,"Ġpartage":2670,"Ġtenir":2671,"ograph":2672,"Ġuniquement":2673,"Pourquoi":2674,"Quand":2675,"Ã©tro":2676,"ĠÃ©lÃ©":2677,"Ġdix":2678,"Ġmor":2679,"trui":2680,"ĠchÃ´":2681,"Ġviolence":2682,"oilÃł":2683,"Ġth":2684,"Ġbut":2685,"Ġrisques":2686,"Ġfourni":2687,"Ġorient":2688,"Ġdist":2689,"Ġdollars":2690,"Ġimportantes":2691,"Ġjeu":2692,"Ġpartir":2693,"Ġprot":2694,"vÃ©e":2695,"Ġparvenir":2696,"Ġhau":2697,"Ã§ons":2698,"ctures":2699,"Ġadmin":2700,"20":2701,"Ġtotalement":2702,"ĠrÃ©duction":2703,"Ġmu":2704,"cemment":2705,"ĠprÃ©sente":2706,"ĠÃ©quili":2707,"Ã©tÃ©s":2708,"Ġconstat":2709,"ĠprotÃ©ger":2710,"Ã©ducation":2711,"Ġcamp":2712,"ormais":2713,"Ġclimatique":2714,"Ã©tais":2715,"ĠsolidaritÃ©":2716,"ĠAm":2717,"Ġattend":2718,"ds":2719,"ĠIn":2720,"Ġaccepter":2721,"ess":2722,"ĠadoptÃ©":2723,"ĠpÃ©tro":2724,"intÃ©gration":2725,"igine":2726,"Ġfondamentaux":2727,"eurs":2728,"Aujourd":2729,"Ġenvis":2730,"iÃ¨mement":2731,"Ġmeilleur":2732,"Ġstat":2733,"Ġexamin":2734,"Ġpresque":2735,"Elles":2736,"ĠcollÃ¨gue":2737,"ĠFrance":2738,"Ġsembl":2739,"amen":2740,"sraÃ«l":2741,"Ġabsolument":2742,"Ġparmi":2743,"Ġvoul":2744,"Ġcru":2745,"Ġchers":2746,"ption":2747,"ĠgÃ©":2748,"AmÃ©rique":2749,"ennes":2750,"vec":2751,"tives":2752,"ĠfÃ©liciter":2753,"Ġloi":2754,"ori":2755,"tration":2756,"Ġprobablement":2757,"agriculture":2758,"Ġradi":2759,"Ġsec":2760,"Ġdirection":2761,"Ġrester":2762,"ĠdÃ©fense":2763,"Ġferme":2764,"ĠcommencÃ©":2765,"Ġcentrale":2766,"Ġdevenir":2767,"inion":2768,"Ġparf":2769,"Ġallons":2770,"alestini":2771,"Ġavaient":2772,"Ġdirigeants":2773,"Ġmulti":2774,"Ġnational":2775,"ĠÃ©lÃ©ments":2776,"Ġmoder":2777,"ĠcoÃ»ts":2778,"ĠentraÃ®":2779,"ets":2780,"ĠdÃ©velopper":2781,"loit":2782,"Ġgros":2783,"Ġpermis":2784,"ventions":2785,"Ã¨de":2786,"armon":2787,"ĠFonds":2788,"Ġcorre":2789,"Ġpeuple":2790,"VoilÃł":2791,"dici":2792,"ribu":2793,"Ġsp":2794,"ĠMar":2795,"Ġprises":2796,"Ġhist":2797,"Ġsix":2798,"Ġcomplex":2799,"ĠdÃ©sormais":2800,"dire":2801,"Ġaction":2802,"Ġpeine":2803,"Ġexcel":2804,"quÃ©e":2805,"Ġapporter":2806,"Ġconsul":2807,"ĠamÃ©liorer":2808,"occasion":2809,"ĠprioritÃ©":2810,"Ġeuro":2811,"uis":2812,"Ġfemme":2813,"Ġpetites":2814,"ĠÃ©videmment":2815,"Ġassurer":2816,"Ġanti":2817,"Ġtradi":2818,"Ġcentr":2819,"ĠY":2820,"rÃ©ci":2821,"Ġservice":2822,"Ġsubst":2823,"tÃ©rieur":2824,"Ġfl":2825,"Ġenfin":2826,"rÃ©es":2827,"Ġresponsables":2828,"Ġinqui":2829,"Ġchanger":2830,"inst":2831,"Ġconseil":2832,"ariat":2833,"resser":2834,"fiÃ©":2835,"Ġindivi":2836,"astr":2837,"Ġformation":2838,"initi":2839,"Ġveulent":2840,"ĠdifficultÃ©s":2841,"dic":2842,"iez":2843,"Ġcomporte":2844,"Ġnationale":2845,"ĠfranÃ§":2846,"Ġbritan":2847,"Ġretour":2848,"coles":2849,"Ã©tique":2850,"Ġvisi":2851,"ĠrÃ©cemment":2852,"accÃ¨s":2853,"Ġcou":2854,"ĠmonÃ©taire":2855,"ĠcrÃ©d":2856,"Ġchangements":2857,"ĠimmÃ©di":2858,"Ġcer":2859,"Ġfil":2860,"rimin":2861,"Ã©taires":2862,"ĠBar":2863,"alistes":2864,"euro":2865,"oncer":2866,"Ġexprim":2867,"Ġtenu":2868,"Ãªcher":2869,"ĠmÃ©canis":2870,"Ġconflit":2871,"lac":2872,"pens":2873,"Ġdevoir":2874,"missions":2875,"ĠNous":2876,"esprit":2877,"organis":2878,"Ġdispar":2879,"ctivement":2880,"Ġappelle":2881,"Ġaffir":2882,"Ġfu":2883,"auvres":2884,"ĠcritÃ¨res":2885,"Ġpauvres":2886,"uelle":2887,"Ġriches":2888,"Ġappropri":2889,"sique":2890,"Ġtermin":2891,"aliste":2892,"Ġbanques":2893,"Ġprofession":2894,"Ġsait":2895,"ĠprÃ©senter":2896,"ĠdÃ©g":2897,"mage":2898,"agir":2899,"ĠdÃ©cidÃ©":2900,"cri":2901,"avi":2902,"Ġtechnologie":2903,"ĠJapon":2904,"Ġerre":2905,"elon":2906,"pl":2907,"Ġsensi":2908,"portun":2909,"Ġchiff":2910,"Ġrespecter":2911,"jus":2912,"ĠÃ©vo":2913,"Ġrefus":2914,"Ġparfois":2915,"Ġanimaux":2916,"ĠmÃªmes":2917,"origine":2918,"Ġappro":2919,"ĠlÃ©gi":2920,"ĠprioritÃ©s":2921,"cement":2922,"Ġutiliser":2923,"Ġchacun":2924,"Ã©pu":2925,"lez":2926,"Ġchinois":2927,"ouvoir":2928,"ĠÃ©viter":2929,"ock":2930,"istance":2931,"ĠchÃ´mage":2932,"Ġunivers":2933,"Ġanal":2934,"astroph":2935,"Ġpourra":2936,"attention":2937,"reux":2938,"Ġmess":2939,"AprÃ¨s":2940,"dro":2941,"Ġciv":2942,"mÃªmes":2943,"Ġunies":2944,"Ġexac":2945,"Ġpropose":2946,"alisme":2947,"ttes":2948,"Ceci":2949,"Ainsi":2950,"Ġchance":2951,"Ġpor":2952,"efficacitÃ©":2953,"ton":2954,"ĠcompÃ©t":2955,"ĠSch":2956,"od":2957,"Ġtomb":2958,"avais":2959,"Ġcolle":2960,"Ġcatastroph":2961,"Ġcondam":2962,"onner":2963,"augment":2964,"resse":2965,"avis":2966,"Ġorganisations":2967,"Ġforces":2968,"iner":2969,"Ġagricole":2970,"ĠsociÃ©tÃ©s":2971,"ĠtroisiÃ¨me":2972,"Ġpenser":2973,"Ġrappeler":2974,"Ġlaiss":2975,"Ġsour":2976,"Ġajou":2977,"Ġatta":2978,"Ġcontinu":2979,"net":2980,"Ġlivre":2981,"Ġobten":2982,"Ġenviron":2983,"Ġsouhaiter":2984,"Ġdimin":2985,"Ġtraitement":2986,"ĠdÃ©fi":2987,"abs":2988,"Ġinvestissements":2989,"DeuxiÃ¨mement":2990,"ox":2991,"uropÃ©ens":2992,"ĠcohÃ©sion":2993,"ĠrÃ©ser":2994,"Ġvoix":2995,"Ġdange":2996,"aÃ¯":2997,"ĠprocÃ©dures":2998,"tel":2999,"Ġconser":3000,"Ġtax":3001,"Afrique":3002,"lant":3003,"Ġsug":3004,"Ġpartenaires":3005,"Ġminist":3006,"tenant":3007,"ĠthÃ©":3008,"oite":3009,"Ġgaz":3010,"Ġ30":3011,"Ġpression":3012,"ani":3013,"Ġligne":3014,"investisse":3015,"Ġreje":3016,"Ġpromouvoir":3017,"ĠCommun":3018,"ĠÃ©vÃ©":3019,"chi":3020,"Ġexercice":3021,"ĠrÃ©union":3022,"ec":3023,"ĠpÃ©n":3024,"Ġsuivre":3025,"ĠprÃ©cisÃ©ment":3026,"Ġmilitaire":3027,"uel":3028,"estime":3029,"tient":3030,"tirer":3031,"Ġquelqu":3032,"Ġouver":3033,"ĠSud":3034,"ĠNord":3035,"Ġjudici":3036,"Ġconvainc":3037,"citÃ©":3038,"hÃ©r":3039,"Quel":3040,"Ġpublics":3041,"ib":3042,"Ġparven":3043,"tionnelle":3044,"Ġlut":3045,"ussion":3046,"Ġpourtant":3047,"Ġindis":3048,"ĠÃ©conomies":3049,"Ġveiller":3050,"ĠBan":3051,"urent":3052,"aisse":3053,"ĠTrai":3054,"immi":3055,"Ġvigueur":3056,"adoption":3057,"sÃ©":3058,"ĠconfÃ©rence":3059,"leur":3060,"Ġfourn":3061,"Ġbesoins":3062,"oyau":3063,"Ġprend":3064,"ĠdÃ©l":3065,"Ġestim":3066,"Ġsolutions":3067,"Ġoubli":3068,"ĠrÃ©fÃ©rence":3069,"ĠamÃ©ricaine":3070,"cons":3071,"ub":3072,"rou":3073,"Ġparticipation":3074,"Ġis":3075,"miÃ¨re":3076,"ĠÃ©levÃ©":3077,"Ġpren":3078,"ueil":3079,"Ġdiscussion":3080,"Ġquali":3081,"ris":3082,"Ġmouve":3083,"ĠÃ©conomie":3084,"lissement":3085,"truire":3086,"rlande":3087,"ieu":3088,"agraph":3089,"Ġdocument":3090,"quÃ©s":3091,"Ġavanc":3092,"Ġsecteurs":3093,"orique":3094,"Ġderniers":3095,"ĠprÃ©sentÃ©":3096,"tine":3097,"th":3098,"Ġmot":3099,"Ġcontribution":3100,"ĠgÃ©nÃ©rale":3101,"yn":3102,"Ġparole":3103,"Ġsurve":3104,"pend":3105,"Ġmaison":3106,"Ġconcr":3107,"Ã©quili":3108,"entrepr":3109,"Ġheureux":3110,"ĠconsÃ©quence":3111,"Ġamendement":3112,"Ġ25":3113,"agÃ©":3114,"Ġsignal":3115,"Ġjourn":3116,"Ġprofessionne":3117,"Ġfaites":3118,"Ġdiscrimin":3119,"gan":3120,"Ġparagraph":3121,"ah":3122,"aisi":3123,"Ġdevra":3124,"Ġlaisser":3125,"Ġsociales":3126,"Ġ2000":3127,"Ġzones":3128,"Ġpati":3129,"Ġmand":3130,"Ġeffets":3131,"Ġpetite":3132,"Ġstatut":3133,"ĠdÃ©li":3134,"Ġcontinue":3135,"Ġpoursuivre":3136,"cent":3137,"Ġdossi":3138,"Ġconsac":3139,"Ġrac":3140,"forme":3141,"Ġoccu":3142,"Ġvit":3143,"rier":3144,"duite":3145,"Ġdiscussions":3146,"Ġminu":3147,"Ġsuffisamment":3148,"Ġcondu":3149,"Ġsuper":3150,"Ġoccident":3151,"vitÃ©":3152,"lusion":3153,"Ġcircul":3154,"orie":3155,"ĠdÃ©clarÃ©":3156,"Ġnour":3157,"initiative":3158,"Ã©rations":3159,"Ġclim":3160,"atoire":3161,"MÃªme":3162,"ĠidÃ©es":3163,"ĠaÃ©ri":3164,"lÃ¨ve":3165,"ĠproposÃ©":3166,"ĠdÃ©fis":3167,"Ġcoordin":3168,"dence":3169,"hab":3170,"novation":3171,"Per":3172,"lÃ©e":3173,"aujourd":3174,"tern":3175,"rient":3176,"Ġconfir":3177,"ĠsÃ©rieux":3178,"Ġhomme":3179,"ĠamÃ©lior":3180,"Ã©gard":3181,"Ġrelatives":3182,"Ġtechnologies":3183,"Ġsoule":3184,"Ġmenace":3185,"ĠbÃ¢":3186,"ĠU":3187,"rastru":3188,"ĠpossibilitÃ©s":3189,"ĠÃ©missions":3190,"ĠAn":3191,"ĠconsidÃ¨re":3192,"ige":3193,"Ġnorm":3194,"ĠcompÃ©titivitÃ©":3195,"onte":3196,"ĠdÃ©pend":3197,"ze":3198,"Ġpratiques":3199,"ĠdÃ©mont":3200,"Ġmauvais":3201,"Ġpleinement":3202,"Ġindispens":3203,"Ġk":3204,"oici":3205,"Ġ12":3206,"Ġconsommation":3207,"ĠfÃ©licite":3208,"Ġmonn":3209,"\",":3210,"orme":3211,"lÃ©ch":3212,"ĠÃ©trangÃ¨re":3213,"Ġpetits":3214,").":3215,"lation":3216,"nies":3217,"Ġatteindre":3218,"aprÃ¨s":3219,"rie":3220,"Ġcrimin":3221,"Ġfig":3222,"ĠÃ©lÃ©ment":3223,"Ġfamille":3224,"appro":3225,"Certains":3226,"Ġdipl":3227,"Ġcivi":3228,"ĠBanque":3229,"Ġcontenu":3230,"ĩa":3231,"Ġache":3232,"Ġinitiative":3233,"Ġposer":3234,"ĠdÃ©fic":3235,"Ġassoci":3236,"lan":3237,"sus":3238,"ologique":3239,"oyaume":3240,"issons":3241,"ĠamÃ©ricain":3242,"oles":3243,"Ġinternationales":3244,"Ġcandidats":3245,"enf":3246,"Ġanci":3247,"sive":3248,"ĠrÃ©glementation":3249,"Ġbonnes":3250,"roy":3251,"Ġconstituent":3252,"Ġ50":3253,"Ġmots":3254,"Ġfaisons":3255,"amb":3256,"Ġobtenir":3257,"ĠconsidÃ©ration":3258,"Ġhumains":3259,"Permettez":3260,"Allemagne":3261,"ulation":3262,"Ġdisponi":3263,"ĠlumiÃ¨re":3264,"Ġgag":3265,"Ã©tab":3266,"Ġadopter":3267,"Ġpartenariat":3268,"ĠCommunautÃ©":3269,"quÃ©es":3270,"Ġmalheureusement":3271,"assurer":3272,"culteurs":3273,"ĠsiÃ¨cle":3274,"Ġhistoire":3275,"isent":3276,"itation":3277,"Ġtemp":3278,"ĠmalgrÃ©":3279,"Åĵur":3280,"Ġpensons":3281,"Ġauxque":3282,"Ġpros":3283,"Ġbre":3284,"Ġpersonnel":3285,"Ġalimentaire":3286,"Ġlesquels":3287,"ps":3288,"anci":3289,"istration":3290,"ĠÃ¢":3291,"landais":3292,"fg":3293,"ĠUnion":3294,"Ġ11":3295,"Ġactuel":3296,"Ġliste":3297,"Ġpous":3298,"Ġsort":3299,"abri":3300,"ila":3301,"immigration":3302,"arer":3303,"Ã©tat":3304,"itent":3305,"Ġterre":3306,"Ġminim":3307,"Ġmanifest":3308,"Ġcruci":3309,"avez":3310,"Ġsemaines":3311,"Ġautour":3312,"Sur":3313,"ĠparlÃ©":3314,"Ġhuman":3315,"Ġsim":3316,"Ġdurant":3317,"Ġlesquelles":3318,"Ġayant":3319,"aintenant":3320,"Malheureusement":3321,"Ġdim":3322,"ĠdÃ©ce":3323,"Ġagir":3324,"Ġexigences":3325,"Ġenvers":3326,"Ġidenti":3327,"osÃ©s":3328,"fiÃ©e":3329,"Ġassur":3330,"Ġinstruments":3331,"Selon":3332,"sp":3333,"Ġcircons":3334,"Ġmessage":3335,"ĠtÃªte":3336,"tences":3337,"Ġarti":3338,"ĠreÃ§u":3339,"Ġconstruction":3340,"Ġcoordination":3341,"AssemblÃ©e":3342,"Ġsex":3343,"Ġfacile":3344,"chec":3345,"Ġclaire":3346,"ĠRoyaume":3347,"nant":3348,"Ġcouv":3349,"Ġoffici":3350,"Ġfaible":3351,"Ġconclure":3352,"Ġtravaux":3353,"Inde":3354,"Ġmaintenir":3355,"Orient":3356,"Ġcondition":3357,"...":3358,"Ġmandat":3359,"Ġsuivi":3360,"rement":3361,"Ġresponsable":3362,"Ġdirectement":3363,"ĠAl":3364,"Ġlongue":3365,"Ġregard":3366,"Ġemplois":3367,"ĠSu":3368,"Ġpubliques":3369,"Ġpuissent":3370,"ĠcompÃ©tences":3371,"ossible":3372,"agements":3373,"istra":3374,"Ġphot":3375,"ĠtÃ¢che":3376,"ĠresponsabilitÃ©s":3377,"ES":3378,"vision":3379,"Ġallem":3380,"former":3381,"Ġpouvait":3382,"itablement":3383,"ĠCe":3384,"Ġsurpr":3385,"exist":3386,"Ġinitiatives":3387,"ĠpÃ©trole":3388,"Ġtran":3389,"diction":3390,"Ġdette":3391,"riez":3392,"ĠadÃ©qu":3393,"Ġrenouve":3394,"Ġprofond":3395,"delÃł":3396,"visi":3397,"ush":3398,"truction":3399,"Ġparlementaire":3400,"ĠimmÃ©diate":3401,"Ġpositif":3402,"Ġfaisant":3403,"Ġprochain":3404,"odes":3405,"Ġtirer":3406,"Ġville":3407,"Ã¨tes":3408,"ĠcoÃ»t":3409,"Ġbat":3410,"CE":3411,"OM":3412,"ĠCor":3413,"ĠintÃ©rÃªt":3414,"Ġcombat":3415,"ĠrÃ©jouis":3416,"ON":3417,"anie":3418,"Ġimporte":3419,"ĠprÃ©ser":3420,"Ġengagement":3421,"Ġrevenus":3422,"Ġmag":3423,"Ġrur":3424,"yse":3425,"roÃ®":3426,"Ġcompar":3427,"Ġparagraphe":3428,"cl":3429,"ĠprocÃ©":3430,"ouverture":3431,"ĠarrÃª":3432,"rog":3433,"Ġhier":3434,"blique":3435,"rÃ©h":3436,"euse":3437,"raine":3438,"Ġquanti":3439,"Ġeffectivement":3440,"let":3441,"Ġagriculteurs":3442,"ĠrÃ©aliser":3443,"AN":3444,"Ġrati":3445,"Ou":3446,"Ġmener":3447,"alie":3448,"Ġfutur":3449,"riÃ¨re":3450,"Ġcivile":3451,"Voici":3452,"ĠBr":3453,"luence":3454,"ĠtrouvÃ©":3455,"fghan":3456,"Ġtransports":3457,"Ġtechnique":3458,"Premi":3459,"Ġmas":3460,"fications":3461,"Ġautoris":3462,"Ġmatin":3463,"Ġconclusion":3464,"ĠÃ©qui":3465,"auche":3466,"tien":3467,"Ġmission":3468,"Ã©volution":3469,"acte":3470,"ĠrÃ©flÃ©ch":3471,"Ġvoyez":3472,"Ġperspectives":3473,"Ġpie":3474,"Ġmus":3475,"Ġeffectu":3476,"roduction":3477,"Ġpen":3478,"Ġsoir":3479,"Ġtest":3480,"Cet":3481,"asi":3482,"ape":3483,"ĠÃ©tat":3484,"ĠÃ©vident":3485,"Ġliv":3486,"Ġ18":3487,"anges":3488,"empl":3489,"Ġdiscours":3490,"Qui":3491,"resp":3492,"ĠprÃªts":3493,"aisir":3494,"Ġrele":3495,"Ġfavorable":3496,"gnes":3497,"Ġhumaine":3498,"manie":3499,"Ġministres":3500,"Ġmonnaie":3501,"pi":3502,"reg":3503,"opinion":3504,"Ġmilliers":3505,"Ġfavoris":3506,"blement":3507,"chent":3508,"ĠspÃ©cifique":3509,"Ġsyn":3510,"Ġenvoy":3511,"ague":3512,"Ġautom":3513,"xim":3514,"ortÃ©":3515,"Ġpose":3516,"Ġniveaux":3517,"ĠspÃ©cifiques":3518,"Ġlecture":3519,"ĠintÃ©g":3520,"ĠsupplÃ©mentaires":3521,"Maintenant":3522,"Ãĩa":3523,"Ġfonctionnement":3524,"Ġadministra":3525,"Ġcourt":3526,"investissement":3527,"ĠBal":3528,"rant":3529,"Ġpermettant":3530,"Ġhabit":3531,"Ġconsiste":3532,"amÃ©liorer":3533,"Ġscientifiques":3534,"Avec":3535,"ote":3536,"pect":3537,"Ġimpossible":3538,"Ġvite":3539,"espace":3540,"ĠrÃ©fu":3541,"Ġbritannique":3542,"emb":3543,"ase":3544,"ĠprÃ©sence":3545,"Ġcollaboration":3546,"Ġoccasion":3547,"Ġgrave":3548,"ception":3549,"lexi":3550,"innovation":3551,"ĠdÃ©velopp":3552,"ĠplanÃ¨te":3553,"ĠmÃ©dias":3554,"fric":3555,"ĠTraitÃ©":3556,"Ma":3557,"Ġlet":3558,"ilisation":3559,"Ġconnaissance":3560,"Ġconscience":3561,"Ġconform":3562,"Ãªtes":3563,"Ġperman":3564,"Ġfournir":3565,"Ġtechniques":3566,"Ġpron":3567,"quÃªte":3568,"Ġpermettra":3569,"ĠLes":3570,"Ġdeven":3571,"Ġapprouv":3572,"Ġlargement":3573,"tiÃ©":3574,"Ġinten":3575,"importe":3576,"Ġcommunautaires":3577,"ath":3578,"Ġopportun":3579,"stac":3580,"ĠÃ©vÃ©nements":3581,"erb":3582,"Ġtable":3583,"Ġfabri":3584,"oyen":3585,"Ġprincipal":3586,"ĠdÃ©cembre":3587,"off":3588,"Ġvivre":3589,"Ġsoutiens":3590,"Ġvoiture":3591,"Ġexactement":3592,"Ġsouv":3593,"ĠmontrÃ©":3594,"Ġpermettr":3595,"Ġinaccep":3596,"andis":3597,"Ġpositive":3598,"Ġcirculation":3599,"Iran":3600,"ĠtÃ´t":3601,"Ġaugmentation":3602,"Ġconstater":3603,"Ġatteint":3604,"oth":3605,"Ġsanctions":3606,"Ġsimpli":3607,"ĠindÃ©pend":3608,"uss":3609,"Depuis":3610,"uff":3611,"Ġrecev":3612,"Ch":3613,"ĠdÃ©fendre":3614,"Ġconclusions":3615,"otion":3616,"Ġfaibles":3617,"Ġlutter":3618,"Ġcy":3619,"Ġendro":3620,"urgence":3621,"ĠMoyen":3622,"Ġavions":3623,"Ġintervention":3624,"Ġpuisque":3625,"ĠConstitution":3626,"pendance":3627,"Ġstri":3628,"Ġutile":3629,"vie":3630,"ĠdÃ©couv":3631,"Ġcentre":3632,"Ã©change":3633,"ĠvÃ©":3634,"Ġpoi":3635,"Ġtendance":3636,"ĠGrÃ¨ce":3637,"Ġarmes":3638,"Ġprincipaux":3639,"Ġretard":3640,"Ġentier":3641,"kraine":3642,"ĠÃ©vent":3643,"Ġseraient":3644,"Ġton":3645,"PremiÃ¨rement":3646,"intention":3647,"ĠConvention":3648,"ĠPremi":3649,"ĠaccÃ¨s":3650,"Ġcaract":3651,"Ġ2007":3652,"ĠRÃ©pu":3653,"Ġpartout":3654,"impact":3655,"Ġinstrument":3656,"ĠcrÃ©di":3657,"naires":3658,"Ġvision":3659,"Ġang":3660,"aliser":3661,"ĠdÃ©mar":3662,"ĠdÃ©bats":3663,"ersonne":3664,"ĠrÃ©seau":3665,"aitement":3666,"Ġfinalement":3667,"Ġemploy":3668,"Ġtraiter":3669,"ĠrÃ©fugi":3670,"Ġconflits":3671,"Ġus":3672,"ama":3673,"Ġcomptes":3674,"Ġflexi":3675,"ĠfranÃ§ais":3676,"vier":3677,"Ġha":3678,"Ġaffaire":3679,"quet":3680,"Ġbal":3681,"uler":3682,"Ġtotal":3683,"Ġvas":3684,"Ġperspective":3685,"Ġ2008":3686,"Ġengagements":3687,"Ã©anmoins":3688,"ĠEuropÃ©ens":3689,"ĠmoitiÃ©":3690,"Ġfera":3691,"este":3692,"Ġdossier":3693,"Ġordin":3694,"anim":3695,"ĠZ":3696,"ĠmÃ©ri":3697,"Ġarriver":3698,"Ġchemin":3699,"Ġfrapp":3700,"cÃ©e":3701,"quant":3702,"Ġposs":3703,"ĠreprÃ©sentants":3704,"Ġparticiper":3705,"ĠdÃ©chets":3706,"Ġtellement":3707,"Ġperdu":3708,"Ġtraite":3709,"Ġindispensable":3710,"ctor":3711,"Ã©valuation":3712,"Ġsignific":3713,"Ġprovo":3714,"ĠcomplÃ¨tement":3715,"Lorsque":3716,"Ġexcellent":3717,"ĠliÃ©s":3718,"Ġresse":3719,"Pourtant":3720,"ĠKos":3721,"vation":3722,"Ġdistin":3723,"Ġmondialisation":3724,"ĠnuclÃ©aires":3725,"Ġreligi":3726,"telli":3727,"Tous":3728,"ron":3729,"Ġfaits":3730,"ĠadoptÃ©e":3731,"ruption":3732,"Ġencourager":3733,"cles":3734,"Ġmai":3735,"Ġconven":3736,"ĠdÃ©cen":3737,"tembre":3738,"Ġcroire":3739,"ĠdÃ©cider":3740,"tÃ©rieure":3741,"Ġpourrons":3742,"dec":3743,"Ġcompag":3744,"ctif":3745,"cteur":3746,"Ġrendu":3747,"Ġexer":3748,"Ġparfaitement":3749,"Ġpermettez":3750,"Ġcarb":3751,"ilier":3752,"Ġcorresp":3753,"Ġdiplom":3754,"actions":3755,"ĠcaractÃ¨re":3756,"Ġviv":3757,"ĠNe":3758,"ĠdÃ©clarations":3759,"Ġcompli":3760,"Ġsouhaiterais":3761,"Ġnouvel":3762,"IB":3763,"gÃ©s":3764,"Ġdate":3765,"ĠprÃ©occupations":3766,"ĠlibÃ©ralisation":3767,"Ġsentiment":3768,"aintes":3769,"Ġcritique":3770,"Ġauquel":3771,"ates":3772,"NÃ©anmoins":3773,"Ġval":3774,"ĠÃ©tabli":3775,"ĠÃ©cou":3776,"ĠIsraÃ«l":3777,"Ġrenforcement":3778,"ĠreprÃ©sentent":3779,"ĠdÃ©n":3780,"Ġdevenu":3781,"Ġ100":3782,"ĠÃ©trangÃ¨res":3783,"ĠÃ©lab":3784,"Ġdiver":3785,"ĠbudgÃ©taires":3786,"Ġregret":3787,"Ã©poque":3788,"Ġpollu":3789,"ctes":3790,"Ġmilitaires":3791,"intÃ©rieur":3792,"Ġtrib":3793,"Ġproducteurs":3794,"ĠparticuliÃ¨re":3795,"contre":3796,"Ġexige":3797,"Ġmauvaise":3798,"ĠKosov":3799,"Ġpalestini":3800,"Ġsouver":3801,"Ġcommence":3802,"Ġadap":3803,"Tro":3804,"ĠrÃ©vision":3805,"Ġmaladie":3806,"Mes":3807,"hum":3808,"ĠpÃ¨re":3809,"ĠÃ©m":3810,"Ġgu":3811,"Ġign":3812,"Ġphy":3813,"Ġsource":3814,"Peu":3815,"cs":3816,"Ġconsens":3817,"Ġcampagne":3818,"tage":3819,"Ġexport":3820,"Ġjuin":3821,"Ġcapital":3822,"Ġambiti":3823,"Ã©ro":3824,"ĠnÃ©anmoins":3825,"Ġobligations":3826,"Ġseptembre":3827,"Ġcorrespond":3828,"cadre":3829,"Ġ2009":3830,"absence":3831,"amp":3832,"cession":3833,"Ġmob":3834,"ĠrÃ©fÃ©r":3835,"ĠEn":3836,"Ġneu":3837,"lier":3838,"Ġsup":3839,"Ġobstac":3840,"Ġinvesti":3841,"ĠrÃ©par":3842,"Ġamis":3843,"ministration":3844,"ĠvÃ©ritÃ©":3845,"Ġglobale":3846,"Plus":3847,"nÃ©s":3848,"roduire":3849,"Ġextra":3850,"Ġservir":3851,"Ġcontinent":3852,"ĠmÃ©dec":3853,"Ġproduire":3854,"Ġcombien":3855,"Ġpeuples":3856,"actÃ©r":3857,"tionnelles":3858,"Ġcorps":3859,"Ġpotentiel":3860,"join":3861,"Ġtoi":3862,"Ġpolice":3863,"ĠcaractÃ©r":3864,"Ġterritoire":3865,"rÃ©ti":3866,"Ã¨mement":3867,"ĠreconnaÃ®tre":3868,"Ġentend":3869,"Ġpropri":3870,"Ã©ricains":3871,"Ġarrive":3872,"Ġpeur":3873,"Ġroute":3874,"Ġfeu":3875,"ĠdÃ©mocratiques":3876,"Ġfaudra":3877,"ĠdÃ©part":3878,"Ġagricoles":3879,"Ġsurveill":3880,"Ġlignes":3881,"Ġavantages":3882,"Ġsecond":3883,"Ġemb":3884,"Ġdevront":3885,"ĠRÃ©publique":3886,"Ġconstruire":3887,"issante":3888,"Ġdispose":3889,"Ġefficaces":3890,"Ġvoisins":3891,"fghanistan":3892,"Ġplac":3893,"ĠPIB":3894,"Ġvoulez":3895,"Ġdisposition":3896,"ĠKosovo":3897,"ĠprÃ©p":3898,"ĠmatÃ©ri":3899,"Ġrelation":3900,"Ġscientifique":3901,"ĠÃ©quilib":3902,"Ġdimension":3903,"Ġrevenir":3904,"Ġconvi":3905,"ĠillÃ©g":3906,"Ġsortir":3907,"ĠPremier":3908,"cations":3909,"Ã¶":3910,"Ġperd":3911,"ologie":3912,"Ġgraves":3913,"ĠmÃ¨re":3914,"Ġactive":3915,"uxelles":3916,"Ã©diter":3917,"talie":3918,"Ġargu":3919,"ĠentiÃ¨rement":3920,"Ġ2004":3921,"ĠdÃ©lÃ©g":3922,"Ġpayer":3923,"Ġinternationaux":3924,"Ġ40":3925,"Ġstructurels":3926,"we":3927,"Ġimag":3928,"ourg":3929,"Ġraisonn":3930,"Ġdiscuter":3931,"ĠrÃ©fugiÃ©s":3932,"Irak":3933,"Parce":3934,"Ġlois":3935,"ĠidÃ©":3936,"ĠrÃ©flex":3937,"Ġnuit":3938,"Ġnaturellement":3939,"ĠmÃ©dic":3940,"lise":3941,"ĠrÃ©alisÃ©":3942,"Ã©tude":3943,"Ġavenir":3944,"Ã¨ces":3945,"Ġaient":3946,"Ġaides":3947,"ĠespÃ©rons":3948,"Ġmouvement":3949,"Ġ198":3950,"ancÃ©":3951,"Ġmat":3952,"ĠMais":3953,"Ġpuissance":3954,"ĠBel":3955,"Ġprison":3956,"Ġmaladies":3957,"Ġfaudrait":3958,"Ġconsensus":3959,"Ġouti":3960,"Ġconnu":3961,"ME":3962,"Ġchang":3963,"ĠsupÃ©ri":3964,"Ġdeme":3965,"Ġemploi":3966,"caments":3967,"ĠsÃ©par":3968,"Ġlimites":3969,"tÃ©g":3970,"Ġoct":3971,"Ġpaquet":3972,"Ġfondamental":3973,"atta":3974,"AC":3975,"Personne":3976,"usses":3977,"ĠRou":3978,"Ġpouvoirs":3979,"amÃ©lioration":3980,"Ã©diterran":3981,"ros":3982,"Ġaltern":3983,"ĠrÃ©gionale":3984,"ondi":3985,"Ġtandis":3986,"Ã©nom":3987,"Ġattendre":3988,"Ġintrodu":3989,"ich":3990,"Ġorgan":3991,"Ġprincipalement":3992,"Ãªt":3993,"mbler":3994,"Ġregarde":3995,"Ġcharge":3996,"Ġdiscrimination":3997,"ĠbÃ¢ti":3998,"ĠmÃ©rite":3999,"lor":4000,"Ã©ni":4001,"ĠBush":4002,"ĠintÃ©ressant":4003,"ĠBruxelles":4004,"ber":4005,"ĠdÃ©rou":4006,"atte":4007,"ĠprocÃ¨s":4008,"avait":4009,"Ġcroy":4010,"ĠutilisÃ©":4011,"ĠmÃ©dicaments":4012,"ĠtÃ©":4013,"ĠcÅĵur":4014,"Ġpourrions":4015,"Ġfonctionne":4016,"Ġclimat":4017,"administration":4018,"Ġtradu":4019,"ice":4020,"ĠphÃ©nom":4021,"OMC":4022,"emplois":4023,"Ġvise":4024,"ĠdiffÃ©rence":4025,"ĠrÃ©seaux":4026,"Ġsurveillance":4027,"Ġnum":4028,"Ġgouvern":4029,"ĠsoulignÃ©":4030,"Ġinacceptable":4031,"uffis":4032,"Ġsoins":4033,"Ġvaut":4034,"Ġpourront":4035,"ĠPrÃ©sidence":4036,"exemp":4037,"Ġjuridiques":4038,"exc":4039,"expÃ©rience":4040,"Ġimplique":4041,"ĠcatÃ©g":4042,"espoir":4043,"ĠprÃ©voit":4044,"Ġfacil":4045,"ĠmÃ©thode":4046,"ĠimmÃ©diatement":4047,"encontre":4048,"quis":4049,"Ã¨nes":4050,"appel":4051,"Ġcerve":4052,"Ġseuls":4053,"Ġconcentrer":4054,"Ġhausse":4055,"Ġdanger":4056,"Ġporter":4057,"ĠrÃ©vÃ©":4058,"Ġ13":4059,"ĠexpÃ©rience":4060,"orde":4061,"ĠÃ©mer":4062,"ĠstratÃ©gique":4063,"ĠPa":4064,"augmentation":4065,"Ġmoindre":4066,"cepti":4067,"Ġchamp":4068,"Ġbout":4069,"oise":4070,"amique":4071,"Ġ2010":4072,"approche":4073,"Ġpromotion":4074,"Ġchiffres":4075,"Irlande":4076,"vÃ©es":4077,"Ġquo":4078,"Ġrent":4079,"ĠRom":4080,"Ġpresse":4081,"ĠlimitÃ©":4082,"Ġami":4083,"auff":4084,"Ġdevait":4085,"ĠÃ©tape":4086,"Ġlangue":4087,"Ġcirconst":4088,"sivement":4089,"utiliser":4090,"Ġconcept":4091,"Ġtort":4092,"ĠprÃ©vention":4093,"Ġrecours":4094,"Ġbiais":4095,"Ġhumain":4096,"Ã©ritÃ©":4097,"ĠÃ©cri":4098,"ĠÃ©norme":4099,"Ġfinal":4100,"Ġdyn":4101,"Ġtient":4102,"ĠâĢľ":4103,"Ġengag":4104,"Ġaspect":4105,"ki":4106,"Ġlit":4107,"Ġterrain":4108,"ĠdÃ©finition":4109,"spagne":4110,"aider":4111,"Ġtaille":4112,"ĠdiffÃ©rences":4113,"Ġterroristes":4114,"Ġradic":4115,"Ġral":4116,"Tom":4117,"Ġpopulations":4118,"Ġprosp":4119,"bes":4120,"ĠrÃ©el":4121,"Ġquit":4122,"osent":4123,"Ġlour":4124,"ĠprÃ©t":4125,"Ġstatis":4126,"Ġpopulaire":4127,"opposition":4128,"erait":4129,"inte":4130,"Ġsimil":4131,"roÃ®tre":4132,"aime":4133,"Ġrestri":4134,"ĠsupplÃ©mentaire":4135,"Ġsoutenu":4136,"Ġdr":4137,"Ã©rÃ©e":4138,"Ġara":4139,"enseig":4140,"ĠAfrique":4141,"vite":4142,"Ġcapable":4143,"Ġcritiques":4144,"Ġsemblent":4145,"ONU":4146,"Son":4147,"iller":4148,"Ã©viter":4149,"ĠtÃ©lÃ©ph":4150,"existence":4151,"ctr":4152,"ĠvÃ©ri":4153,"oie":4154,"Ġcherche":4155,"Ġhumanitaire":4156,"ĠcrÃ©Ã©":4157,"ĠpremiÃ¨res":4158,"Ġprochaines":4159,"Ġlimiter":4160,"armonisation":4161,"ĠrÃ©elle":4162,"llez":4163,"ĠprocÃ©der":4164,"naire":4165,"Ġvilles":4166,"Ġactes":4167,"âĢĿ":4168,"ĠrÃ©t":4169,"dÃ©m":4170,"Ġdevez":4171,"Ġacteurs":4172,"Ġdevient":4173,"adap":4174,"Ġprofit":4175,"Ġgarantie":4176,"Ġlogique":4177,"asile":4178,"aucra":4179,"Ġpoids":4180,"Ġparlons":4181,"Ġmenac":4182,"Puis":4183,"da":4184,"hors":4185,"Ã¨que":4186,"aller":4187,"atie":4188,"Ġproposer":4189,"Ġcorruption":4190,"ĠdÃ©finir":4191,"iliation":4192,"Â».":4193,"lam":4194,"Ġsources":4195,"anvier":4196,"fiÃ©s":4197,"Ġmaxim":4198,"Ã©chelle":4199,"Ġconvaincu":4200,"Ã©quilibre":4201,"Ã©cole":4202,"introduction":4203,"ĠempÃªcher":4204,"Ġessentiellement":4205,"Ġbureaucra":4206,"ĠauprÃ¨s":4207,"Ġcommunes":4208,"Ġ2006":4209,"Ġerreur":4210,"arb":4211,"Ġjeune":4212,"uellement":4213,"ĠBer":4214,"ĠconformÃ©ment":4215,"),":4216,"ane":4217,"ĠprÃ©sid":4218,"ologiques":4219,"Ġcapitaux":4220,"ĠconsidÃ©rable":4221,"indi":4222,"Ġcontient":4223,"Ġsud":4224,"lov":4225,"Ġminutes":4226,"Ġpied":4227,"Ġgouvernance":4228,"Ġcommis":4229,"Ġsoumis":4230,"Ġinfrastru":4231,"arge":4232,"ĠapprÃ©ci":4233,"Ġ14":4234,"appliquer":4235,"autÃ©s":4236,"existe":4237,"Ġatten":4238,"ingt":4239,"Ġdocuments":4240,"Ġmutu":4241,"Ġrecons":4242,"ĠcontrÃ´les":4243,"Ġstim":4244,"orÃ©":4245,"Ġvoici":4246,"ĠamÃ©ricains":4247,"ĠextÃ©rieur":4248,"Ġvari":4249,"Ġjanvier":4250,"Ġplans":4251,"Ġchu":4252,"Ġexploit":4253,"Ġessayer":4254,"Ġbaisse":4255,"ĠrÃ©action":4256,"Ġconvention":4257,"Ġessentielle":4258,"ĠprÃ©vu":4259,"Ġreconnaissance":4260,"assur":4261,"ĠrÃ©serves":4262,"ements":4263,"gÃ©es":4264,"ĠÃ©lector":4265,"Ġmoyenne":4266,"umer":4267,"organisation":4268,"Ġisra":4269,"SA":4270,"ulg":4271,"ĠcohÃ©r":4272,"Ġaband":4273,"Ġcellu":4274,"Ġstock":4275,"Ġtab":4276,"Ġgarder":4277,"Ġremarque":4278,"oh":4279,"Ġparents":4280,"Ġmars":4281,"PE":4282,"allÃ¨":4283,"osÃ©e":4284,"Ġformes":4285,"Ġplein":4286,"Ġlettre":4287,"Ġbanc":4288,"riture":4289,"Ġcomplexe":4290,"Ar":4291,"TAN":4292,"pir":4293,"Ġfaite":4294,"Ġgauche":4295,"mite":4296,"Ġalli":4297,"Ġtransform":4298,"Ġprofonde":4299,"PL":4300,"ĠÂ».":4301,"ĠdiversitÃ©":4302,"uels":4303,"ĠconsidÃ©rer":4304,"Ġsalue":4305,"Ġdiminu":4306,"gÃ©e":4307,"Ensuite":4308,"Ġviens":4309,"inqui":4310,"cid":4311,"dÃ©pendance":4312,"Ukraine":4313,"lÃ©es":4314,"Ã¨tres":4315,"Ġdifficiles":4316,"engagement":4317,"oncÃ©":4318,"ED":4319,"Ġpat":4320,"arie":4321,"Ġred":4322,"agent":4323,"Ġchances":4324,"Ġtravaille":4325,"ĠLib":4326,"Ġappris":4327,"entreprise":4328,"ĠUE":4329,"euvre":4330,"Ġlire":4331,"Ġrevenu":4332,"ĠrÃ©gu":4333,"Ġintelli":4334,"Ġentendre":4335,"Ġfrau":4336,"Ġalimentaires":4337,"ĠcrÃ©dits":4338,"ĠcomitÃ©":4339,"Ġjuge":4340,"anche":4341,"Ġtex":4342,"Ġ17":4343,"Ġsouhaitons":4344,"Ġsuffit":4345,"ĠlibertÃ©s":4346,"ĠmÃ©canisme":4347,"ĠclÃ©":4348,"Ġafric":4349,"associ":4350,"Ġentreprise":4351,"Ã©cution":4352,"Ġhaute":4353,"ombre":4354,"vembre":4355,"conque":4356,"ĠrÃ©ponses":4357,"Ġrejet":4358,"ĠcomprÃ©h":4359,"Ġdirectives":4360,"Ġmariti":4361,"gner":4362,"Ġrestent":4363,"Ġtrafic":4364,"Ġamen":4365,"Ġexprimer":4366,"Ġmaintien":4367,"ĠsÃ©ance":4368,"ĠconfrontÃ©s":4369,"Ġdistribu":4370,"Ġterminer":4371,"ira":4372,"Ġproven":4373,"ĠcontrÃ´ler":4374,"Ġhistorique":4375,"ĠrÃ©flÃ©chir":4376,"ĠPME":4377,"Ġobserv":4378,"Ġfilm":4379,"Merci":4380,"af":4381,"enda":4382,"Ġregarder":4383,"Ġcomportement":4384,"Ġlocales":4385,"Ġobtenu":4386,"ĠdiffÃ©rente":4387,"ĠAmÃ©ricains":4388,"Ġmultip":4389,"Ã©tr":4390,"Ġattitude":4391,"Ġaborder":4392,"200":4393,"Ġprim":4394,"Ġnovembre":4395,"Ġexclu":4396,"Ġpacte":4397,"tidi":4398,"Ġexcep":4399,"ĠdÃ©ficit":4400,"Ġmains":4401,"Ġmig":4402,"Ġtur":4403,"ĠÃ©li":4404,"ĠbÃ©nÃ©ficier":4405,"Sans":4406,"ination":4407,"ĠrÃª":4408,"Ġprud":4409,"endum":4410,"ĠÃ©levÃ©s":4411,"pÃ©rer":4412,"ĠrÃ©ussite":4413,"ĠprÃ©cÃ©dent":4414,"OTAN":4415,"Ġtyp":4416,"Ġvenu":4417,"Ġbons":4418,"Ġespagn":4419,"Ġremplac":4420,"ĠgÃ©nÃ©ralement":4421,"Ġaccompli":4422,"MI":4423,"ĠliÃ©es":4424,"Ġvivent":4425,"accent":4426,"Ġpremiers":4427,"Ġcirconstances":4428,"Ġgre":4429,"Ġpaci":4430,"ologne":4431,"ĠGrande":4432,"ĠX":4433,"Ġcaus":4434,"ĠIrak":4435,"Ġvoyage":4436,"Ġouvert":4437,"Ġsugg":4438,"Ġstructures":4439,"Ġrelatif":4440,"ĠdÃ©faut":4441,"Ġsuivante":4442,"Ġtouch":4443,"Ġdisent":4444,"Ġ16":4445,"Ġstade":4446,"Ġclasse":4447,"informations":4448,"hicu":4449,"fÃ©rence":4450,"Quelle":4451,"ĠÃ©lectr":4452,"ĠtraitÃ©s":4453,"exprimer":4454,"Ġbudgets":4455,"Ġseconde":4456,"Ġsomme":4457,"illet":4458,"dessus":4459,"Ġuni":4460,"Ġcoord":4461,"ĠSt":4462,"ĠrÃ©alisation":4463,"Troisi":4464,"ĠdÃ©lÃ©gation":4465,"Ġnavi":4466,"Ġcomprends":4467,"intervention":4468,"ow":4469,"reuse":4470,"Ġlead":4471,"Ġchefs":4472,"Ġremarques":4473,"Ġpatients":4474,"Ġconver":4475,"Ġvoulais":4476,"Ġpromes":4477,"ĠrÃ©volution":4478,"ĠRoumanie":4479,"iens":4480,"Ġviennent":4481,"ĠcompÃ©tence":4482,"Ġrenouvel":4483,"ĠvÃ©hicu":4484,"gra":4485,"univers":4486,"aluer":4487,"Ġestime":4488,"Ġcommerciaux":4489,"adopter":4490,"Ã©ter":4491,"onter":4492,"Ġenfant":4493,"Ġquotidi":4494,"IT":4495,"Ġsinc":4496,"Ġconsoli":4497,"Ġcentaines":4498,"Ġsujets":4499,"Ġpire":4500,"Ġreprises":4501,"rontali":4502,"ĠÃ©tudes":4503,"Ġlimite":4504,"Ġparlementaires":4505,"Ġtransfrontali":4506,"ration":4507,"âĻ":4508,"alitÃ©s":4509,"Ġ2005":4510,"Ġvoisin":4511,"Ġdehors":4512,"Ġnord":4513,"ĠexpÃ©ri":4514,"Ġfortement":4515,"Ġgagner":4516,"Ġpay":4517,"paravant":4518,"run":4519,"Ġdess":4520,"Ġquelles":4521,"Ġjoue":4522,"Ġnote":4523,"Ġrecommandations":4524,"Ġajouter":4525,"Ġallemand":4526,"ĠcaractÃ©ris":4527,"An":4528,"ile":4529,"Ġlancer":4530,"ĠfrÃ©":4531,"Ġavancer":4532,"Ġperdre":4533,"ĠmÃ©thodes":4534,"onor":4535,"Ġfou":4536,"Ġprogres":4537,"Ġfru":4538,"Ġscience":4539,"appelle":4540,"Ġcatastrophe":4541,"ire":4542,"Ġ2003":4543,"ĠÃ©changes":4544,"Ġencourage":4545,"Ġfiscale":4546,"Ġindividu":4547,"ĠÃ©quipe":4548,"agers":4549,"Ġinsuffis":4550,"Ġcentrales":4551,"ĠrÃ©fÃ©rendum":4552,"Ã©ti":4553,"enez":4554,"activitÃ©":4555,"ĠderriÃ¨re":4556,"itoyens":4557,"ĠvÃ©ritablement":4558,"ĠcoÃ»te":4559,"ĠappelÃ©":4560,"affir":4561,"Ġouverte":4562,"Ġenreg":4563,"ĠrÃ©serve":4564,"expression":4565,"Ġmodifier":4566,"Ġtransi":4567,"âĻ«":4568,"ĠdÃ©finiti":4569,"Ġchercher":4570,"Ġmusul":4571,"ache":4572,"Ã¨ve":4573,"exploit":4574,"ĠÃ©quilibre":4575,"enci":4576,"impression":4577,"ĠconcernÃ©s":4578,"lÃ©s":4579,"Ġfasse":4580,"rage":4581,"Ġtrouvent":4582,"Ġpropor":4583,"Ġcorrectement":4584,"Ġtol":4585,"Ġmari":4586,"Ġsoutient":4587,"ĠconcrÃ¨tes":4588,"bama":4589,"inÃ©":4590,"ĠÃ©valuation":4591,"Ã§ant":4592,"ĠprÃªt":4593,"Ġvoire":4594,"ĠRe":4595,"expli":4596,"Ġmeilleurs":4597,"Ġcommerciales":4598,"prÃ©sident":4599,"unitÃ©":4600,"itali":4601,"ĠdÃ©v":4602,"ĠarrivÃ©":4603,"Ġlangues":4604,"ĠNew":4605,"Ġquot":4606,"ĠsystÃ©":4607,"Ġauront":4608,"Ġdisponibles":4609,"Ġrappelle":4610,"ĠminoritÃ©s":4611,"ĠnÃ©gli":4612,"ĠcrÃ©dit":4613,"Ġnourriture":4614,"rÃ©t":4615,"olue":4616,"Ġimpact":4617,"Ġfonctionner":4618,"Aussi":4619,"Ã©rÃ©s":4620,"avie":4621,"ĠopÃ©ration":4622,"Ġmontrent":4623,"Ġefficacement":4624,"Ġ60":4625,"Jus":4626,"tici":4627,"ĠmÃ©canismes":4628,"Ġdangereux":4629,"onique":4630,"istÃ©":4631,"Ġconcitoyens":4632,"issait":4633,"ĠnÃ©gociation":4634,"Ġaugmenter":4635,"entÃ´t":4636,"Ġabou":4637,"ĠbientÃ´t":4638,"Ġmoyennes":4639,"Ġexpliquer":4640,"Asie":4641,"tures":4642,"ĠÃ©volution":4643,"ĠsÃ»re":4644,"Ġoffre":4645,"Ġsubstances":4646,"Ġsac":4647,"Ã§u":4648,"Ġmodification":4649,"ĠCorÃ©e":4650,"Ġattirer":4651,"ĠconsidÃ©rÃ©":4652,"ĠdurÃ©e":4653,"identi":4654,"akistan":4655,"Peut":4656,"NG":4657,"yth":4658,"uni":4659,"Ġphase":4660,"Ġcancer":4661,"Ã©rant":4662,"ĠrÃ¨gle":4663,"Ġfondamentale":4664,"Ġauxquels":4665,"Ġfaciliter":4666,"ule":4667,"Ġsang":4668,"Ġallez":4669,"Ġcompens":4670,"Ġdisposer":4671,"Ġdemandes":4672,"Ġbiens":4673,"ĠprivÃ©":4674,"Ġchef":4675,"Ã©tudes":4676,"outes":4677,"ark":4678,"Ã»t":4679,"ĠvoilÃł":4680,"imm":4681,"oud":4682,"Ġtend":4683,"Ġplaisir":4684,"raign":4685,"ĠPakistan":4686,"ĠcommunautÃ©s":4687,"ĠchangÃ©":4688,"Ġisl":4689,"Ġtri":4690,"osÃ©es":4691,"ternet":4692,"Ġoublier":4693,"Ġcerveau":4694,"aison":4695,"Ġvisite":4696,"roso":4697,"Ġstatistiques":4698,"ĠDe":4699,"aurais":4700,"Ġsatisfait":4701,"DÃ¨s":4702,"ĠâĻ«":4703,"Ġcens":4704,"entrÃ©e":4705,"Ã¨se":4706,"Ġsituations":4707,"Auc":4708,"Ġ1999":4709,"itations":4710,"Ġoui":4711,"Ġfinancer":4712,"Ġprincipale":4713,"Ġincroy":4714,"Ġrapporteurs":4715,"ĠÃ©tudiants":4716,"Ġblanc":4717,"tt":4718,"uy":4719,"onom":4720,"Ġappare":4721,"Ġpertin":4722,"entiel":4723,"Ġcomprend":4724,"Ġsept":4725,"ĠthÃ¨me":4726,"bres":4727,"Ġcontraign":4728,"Ġsubs":4729,"ĠdÃ©terminer":4730,"oubli":4731,"Ġcourage":4732,"Ġfamilles":4733,"Ġsoy":4734,"Ġlab":4735,"ĠallÃ©":4736,"Ġdroite":4737,"Ġvingt":4738,"Ġaccus":4739,"Ġaccorder":4740,"Ġconsommateur":4741,"Ġappliquer":4742,"gents":4743,"ume":4744,"olÃ©":4745,"acitÃ©s":4746,"ctur":4747,"Ġremarqu":4748,"ĠirrÃ©":4749,"Ġjudiciaire":4750,"Ġul":4751,"Ġfille":4752,"Ġprennent":4753,"Ġmach":4754,"bas":4755,"obre":4756,"uln":4757,"ctifs":4758,"Ġmarche":4759,"examen":4760,"Ġfondamentales":4761,"ĠdÃ©charge":4762,"Ġinuti":4763,"Ġhors":4764,"ĠgÃ©nÃ©ration":4765,"Ġsouligne":4766,"ĠdÃ©putÃ©":4767,"TroisiÃ¨mement":4768,"ulnÃ©ra":4769,"usion":4770,"seur":4771,"Ã©taient":4772,"Ġmilieu":4773,"Ġdemandons":4774,"Ġprofiter":4775,"Ġmoderne":4776,"ĠprÃ©server":4777,"itables":4778,"ctoire":4779,"ĠÃ©quitable":4780,"ĠmÃ©r":4781,"indÃ©pendance":4782,"ĠdiffÃ©rent":4783,"Ġfacilement":4784,"Ġpes":4785,"aign":4786,"arme":4787,"itant":4788,"Ġexcessi":4789,"utri":4790,"ĠÃ©vidence":4791,"ĠÃ©tude":4792,"Ġlivres":4793,"Ġrelever":4794,"ĠBalk":4795,"fondi":4796,"gouver":4797,"ju":4798,"ovi":4799,"Ġvir":4800,"aurer":4801,"Ġproche":4802,"ĠextÃ©rieure":4803,"ĠcÃ©":4804,"iliser":4805,"Ġhan":4806,"Ġprotoc":4807,"arte":4808,"ĠplÃ©ni":4809,"ĠcapacitÃ©s":4810,"ĠexprimÃ©":4811,"Ġinfrastructures":4812,"ĠrÃ©guli":4813,"Ġitali":4814,"Ã©laboration":4815,"Ġpan":4816,"Ġmarchand":4817,"ombe":4818,"ĠÃ©tablir":4819,"inflation":4820,"Ġsauve":4821,"ĠConfÃ©rence":4822,"ilatÃ©r":4823,"Ġsuscepti":4824,"Ġexportations":4825,"ĠphÃ©nomÃ¨ne":4826,"rets":4827,"ocrates":4828,"Ġtotale":4829,"ographique":4830,"Ġsouveraine":4831,"actu":4832,"ĠdÃ©cla":4833,"Ġprincipales":4834,"ĠsÃ©rieusement":4835,"dicap":4836,"Ġextraordin":4837,"ĠrÃ©flexion":4838,"oÃ¹":4839,"ĠvulnÃ©ra":4840,"nex":4841,"ĠPro":4842,"Ġpuiss":4843,"ĠflexibilitÃ©":4844,"nel":4845,"ĠrÃ©di":4846,"ĠPologne":4847,"Ġmontant":4848,"Ġapprendre":4849,"ĠreflÃ¨":4850,"Ġreprise":4851,"ĠisraÃ©li":4852,"SE":4853,"Ġdemi":4854,"Ġnations":4855,"Ġ2001":4856,"Ġactuelles":4857,"Ġmeilleures":4858,"Ġdisposons":4859,"OÃ¹":4860,"ertes":4861,"Ġmode":4862,"apit":4863,"Ġfroi":4864,"Ġglobal":4865,"Ġfrais":4866,"ourir":4867,"Ġsouci":4868,"Ġcapables":4869,"ĠcontribuÃ©":4870,"Ġlaisse":4871,"ĠportÃ©e":4872,"Non":4873,"dit":4874,"ĠHong":4875,"ĠbÃ©nÃ©fices":4876,"Ġtransition":4877,"Ġhandicap":4878,"Ġrevient":4879,"rÃ©si":4880,"ĠMa":4881,"Ġentrer":4882,"miques":4883,"Ġdomm":4884,"Ġbri":4885,"Ġsession":4886,"ĠconnaÃ®tre":4887,"MalgrÃ©":4888,"exemple":4889,"ordi":4890,"ĠPort":4891,"ĠtravaillÃ©":4892,"Ġpensent":4893,"Ġcommentaires":4894,"Ġapplication":4895,"Ġlien":4896,"enant":4897,"ĠcomplÃ©ment":4898,"Ġespoir":4899,"landaise":4900,"ĠÃ©poque":4901,"onnÃ©":4902,"Ġcrises":4903,"Ġtourisme":4904,"Ġrelativement":4905,"ĠBalkans":4906,"he":4907,"Ġvert":4908,"Ġ-,":4909,"oblig":4910,"Ġvoyons":4911,"visionnement":4912,"Ġrusse":4913,"autant":4914,"ĠacceptÃ©":4915,"Ġfacteurs":4916,"Ġfacteur":4917,"onie":4918,"Ġauraient":4919,"Ġinstitution":4920,"ĠlÃ©gislatif":4921,"ĠscÃ¨ne":4922,"Ġ80":4923,"Ġbureau":4924,"gouvernement":4925,"sidi":4926,"Ġaccr":4927,"Ġprogresser":4928,"obtenir":4929,"Ġbrut":4930,"Ġanalys":4931,"rich":4932,"atoires":4933,"Ġarm":4934,"Ġconnais":4935,"tionnels":4936,"Ġerreurs":4937,"ĠFMI":4938,"Ġpossibles":4939,"anal":4940,"asser":4941,"ĠMal":4942,"Ġmajeure":4943,"Ġvaste":4944,"IsraÃ«l":4945,"ĠprÃ©paration":4946,"reuses":4947,"isant":4948,"Ġrasse":4949,"Ġmanger":4950,"Ġagences":4951,"ĠconnaÃ®t":4952,"Ġessentiels":4953,"ork":4954,"Ã¨ge":4955,"Ġesprit":4956,"Ġpositions":4957,"Ġaurons":4958,"ĠtÃ©moi":4959,"Ġiss":4960,"Ġmises":4961,"sif":4962,"ĠÃ©volu":4963,"illage":4964,"erc":4965,"isÃ©":4966,"Ġviande":4967,"ĠFin":4968,"ĠÃ©trangers":4969,"Ġdiverses":4970,"Ġvouloir":4971,"Ġambitieux":4972,"ĠplÃ©niÃ¨re":4973,"Ġdo":4974,"Ġcla":4975,"Ġvoulu":4976,"Ġdouble":4977,"armÃ©e":4978,"ares":4979,"Ġhonn":4980,"Ġcommuni":4981,"Ġorig":4982,"dation":4983,"ouer":4984,"Ġsubventions":4985,"ĠconsidÃ©rables":4986,"ĠdÃ©lai":4987,"enseignement":4988,"ril":4989,"Ġauparavant":4990,"Ġconstituer":4991,"retagne":4992,"Ġcalend":4993,"Ġcalcul":4994,"enh":4995,"Ġconduite":4996,"crit":4997,"Ġperte":4998,"alisÃ©":4999,"Ġconstitution":5000,"Ġexemples":5001,"Ġcommercial":5002,"Ġexaminer":5003,"Ġquotas":5004,"viend":5005,"Ġcarte":5006,"ĠmatiÃ¨res":5007,"Ġcrucial":5008,"institu":5009,"Ġsavent":5010,"Ġ2020":5011,"fiÃ©es":5012,"ster":5013,"ash":5014,"Ġchoisir":5015,"ĠrÃ©tab":5016,"Ġordre":5017,"Ġtrou":5018,"ainte":5019,"Ã©rance":5020,"Ġobjet":5021,"Sa":5022,"ĠCO":5023,"instant":5024,"Ġambi":5025,"ĠcrÃ©dibilitÃ©":5026,"ĠgÃ©rer":5027,"itude":5028,"Ġgarde":5029,"Ġbles":5030,"Ġprivil":5031,"Ġinvestisseurs":5032,"ĠquantitÃ©":5033,"Ã¡":5034,"ades":5035,"ĠdÃ©pl":5036,"Ġ2002":5037,"ĠÃ©cl":5038,"ĠconsidÃ©rablement":5039,"Ġcompagnies":5040,"Ġreti":5041,"ĠsuÃ©d":5042,"ĠtÃ©lÃ©vision":5043,"Ġfermement":5044,"Ġconduit":5045,"Ġoeuvre":5046,"Ġ21":5047,"ĠprÃ©parer":5048,"gyp":5049,"lie":5050,"Ġcompter":5051,"Ġbreve":5052,"Car":5053,"Ġfonde":5054,"ĠrÃ¨glements":5055,"ĠPays":5056,"bation":5057,"ties":5058,"rovi":5059,"Ġaffec":5060,"Ġraisonnable":5061,"osti":5062,"Ġchale":5063,"Ġsuivant":5064,"ĠrÃ©duit":5065,"Ġfamili":5066,"Ġanalyse":5067,"Ġcellules":5068,"mans":5069,"ĠÃ©quiv":5070,"ctricitÃ©":5071,"ĠcomplÃ¨te":5072,"odi":5073,"tiss":5074,"ĠÃ©voquÃ©":5075,"amer":5076,"Ġvoitures":5077,"ĠSuÃ¨de":5078,"litÃ©":5079,"arrÃª":5080,"Ġfins":5081,"Ã¨vement":5082,"Ġobli":5083,"excel":5084,"Ġpermettent":5085,"encour":5086,"ondu":5087,"Ġcollab":5088,"bal":5089,"arr":5090,"alisÃ©e":5091,"Ġaccueil":5092,"Ġactuels":5093,"ĠjouÃ©":5094,"Ġcourant":5095,"ĠreprÃ©sentant":5096,"ĠprospÃ©ritÃ©":5097,"Ġorganisation":5098,"Ġmodifications":5099,"Ġbar":5100,"Ġjustement":5101,"Ġespace":5102,"ĠparaÃ®t":5103,"ĠutilisÃ©s":5104,"ĠentiÃ¨re":5105,"Cha":5106,"enons":5107,"telle":5108,"ĠprÃªte":5109,"nelle":5110,"Ġsubsidi":5111,"Ġimmi":5112,"Ġprotocole":5113,"sterdam":5114,"Ġinnov":5115,"Ġintergouvernement":5116,"Ġinsister":5117,"Ġtravaillent":5118,"ĠÃ©lecteurs":5119,"cidents":5120,"ccident":5121,"Ġtenter":5122,"Ġapprofondi":5123,"Ġfavoriser":5124,"Ġtribun":5125,"once":5126,"Ġattendons":5127,"Ġmodern":5128,"ouÃ©":5129,"Ġeffort":5130,"aucun":5131,"ĠPortug":5132,"oine":5133,"ĠfÃ©":5134,"ĠrelÃ¨ve":5135,"Ġcrimes":5136,"ĠBarroso":5137,"ed":5138,"mar":5139,"Ġsurf":5140,"Ġsoum":5141,"ĠrÃ©gimes":5142,"Ġparlements":5143,"Ġconsultation":5144,"Ġoccup":5145,"Ġcitoyen":5146,"imag":5147,"Ġgaranties":5148,"urant":5149,"ĠdÃ©tails":5150,"rette":5151,"ĠÃ©chec":5152,"ĠrÃ©si":5153,"andes":5154,"Ġclari":5155,"Ġpositifs":5156,"ĠopÃ©rations":5157,"ĠÃ©nergie":5158,"ĠUSA":5159,"Ġfigure":5160,"ĠdÃ©cennies":5161,"ck":5162,"ĠlancÃ©":5163,"Ġtch":5164,"Ġ27":5165,"Ġsymb":5166,"Ġretrait":5167,"Ġsatisfais":5168,"Ġrural":5169,"Chaque":5170,"garde":5171,"Ã¢ge":5172,"Ã©chec":5173,"Ġeaux":5174,"Ġvites":5175,"ĠrÃ©cente":5176,"Ġestimons":5177,"Ġgrec":5178,"Nos":5179,"ĠdÃ©lais":5180,"Ġcontent":5181,"accomp":5182,"Ġjuillet":5183,"ĠmentionnÃ©":5184,"comm":5185,"Ġjapon":5186,"ĠSerb":5187,"Ġralenti":5188,"Ġbel":5189,"Ã®ne":5190,"ĠjournÃ©e":5191,"ĠII":5192,"Ġrecevoir":5193,"assurance":5194,"CP":5195,"Toutes":5196,"Ġinjus":5197,"Ġposte":5198,"Ġcombattre":5199,"Ceux":5200,"Espagne":5201,"Ġbois":5202,"apprÃ©ci":5203,"examin":5204,"Ġquels":5205,"phÃ¨re":5206,"Ġnaturelles":5207,"Ġorientations":5208,"animitÃ©":5209,"Ġphysique":5210,"ĠvÃ©hicules":5211,"euses":5212,"len":5213,"Ġsin":5214,"ĠrÃ©cession":5215,"Ġvotes":5216,"Ġautomob":5217,"Ġendroit":5218,"Ġmaritime":5219,"unis":5220,"Ġrequ":5221,"Ġcesse":5222,"chement":5223,"Ġfront":5224,"Ġquasi":5225,"Ġfuture":5226,"Ã©tablir":5227,"Ġcalendrier":5228,"Italie":5229,"Ġdiss":5230,"ttement":5231,"ĠdÃ©cou":5232,"Ġargent":5233,"ĠcriminalitÃ©":5234,"Ã©tranger":5235,"ĠsubsidiaritÃ©":5236,"pit":5237,"Ġvieux":5238,"ĠprofondÃ©ment":5239,"Avant":5240,"ĠVous":5241,"Ġfau":5242,"Ġhor":5243,"Ġhyp":5244,"eaucoup":5245,"ĠindiquÃ©":5246,"Ġmusique":5247,"Ġobstacles":5248,"trÃ©":5249,"ĠÃ©tions":5250,"chauff":5251,"ĠPPE":5252,"Ġhuit":5253,"ĠinterprÃ©":5254,"Ġferrovi":5255,"Ġimage":5256,"Ġchoisi":5257,"Ġvoulait":5258,"Ġscand":5259,"harmonisation":5260,"rime":5261,"endent":5262,"Ġdevrons":5263,"Ġcode":5264,"exercice":5265,"Ġsaur":5266,"Ġparvenus":5267,"Ġtabac":5268,"Re":5269,"Ã©b":5270,"Ġpure":5271,"Ġlac":5272,"Ġetc":5273,"ĠCong":5274,"ĠmobilitÃ©":5275,"Ġ197":5276,"Ġcarbone":5277,"Ġfraude":5278,"ĠplaÃ®t":5279,"Ġvies":5280,"Ġpassagers":5281,"ĠrÃ©gional":5282,"Ġregrette":5283,"Ġinfluence":5284,"Ġrece":5285,"ĠprÃ©al":5286,"issaires":5287,"Ġpersonn":5288,"ĠdÃ©plac":5289,"Ġnav":5290,"Ġtouche":5291,"Ġmajeur":5292,"Ã©tablissement":5293,"Ġcycle":5294,"Ġfal":5295,"ĠCop":5296,"mique":5297,"Ġtypes":5298,"ĠPortugal":5299,"50":5300,"Ġconduire":5301,"Ã´ts":5302,"oyer":5303,"exÃ©cution":5304,"Ã©qui":5305,"Ġsymp":5306,"Ġsoutenons":5307,"Ġfavorables":5308,"Ġdevenue":5309,"Pr":5310,"Ġeth":5311,"dez":5312,"agissant":5313,"Ġserons":5314,"impli":5315,"Quant":5316,"Ġrob":5317,"ĠapportÃ©":5318,"Ġclaires":5319,"ĠDieu":5320,"ĠconcernÃ©es":5321,"verse":5322,"annÃ©es":5323,"Ġpuisqu":5324,"affaire":5325,"ĠessayÃ©":5326,"Ġpermettrait":5327,"ok":5328,"oz":5329,"Ġapparti":5330,"ĠlÃ©gitim":5331,"Ġpollution":5332,"Ġsent":5333,"chant":5334,"ĠactivitÃ©":5335,"Ġfutures":5336,"Ġcommerciale":5337,"Ġirlandais":5338,"ĠrencontrÃ©":5339,"ohn":5340,"Pendant":5341,"Ġciter":5342,"Ġvendre":5343,"estation":5344,"guer":5345,"Ġfaisait":5346,"Ġpuissions":5347,"ĠentraÃ®ner":5348,"Ġexcell":5349,"tables":5350,"Ġcam":5351,"Ġmerci":5352,"oient":5353,"Ġdic":5354,"Ġannuel":5355,"ĠdÃ©sas":5356,"engen":5357,"Ġnomm":5358,"Ġsouhaitent":5359,"Ġphoto":5360,"Ġrenouvelables":5361,"Ġtru":5362,"lace":5363,"ĠdÃ©pass":5364,"ĠKy":5365,"Ġemprun":5366,"Ġcrime":5367,"engager":5368,"ĠthÃ©orie":5369,"ĠsÃ©v":5370,"Ġsport":5371,"anitÃ©":5372,"ind":5373,"Ġlic":5374,"Ġfinir":5375,"ĠmaÃ®":5376,"ĠintÃ©ri":5377,"ssement":5378,"Ġ500":5379,"Ġversion":5380,"Ġpratiquement":5381,"enhague":5382,"aci":5383,"Ġinterven":5384,"Ġexperts":5385,"ĠDan":5386,"Ġcriti":5387,"Ġrouti":5388,"Ġach":5389,"Ġsigne":5390,"avÃ¨re":5391,"instru":5392,"ĠBrÃ©si":5393,"Ġsold":5394,"ĠlaissÃ©":5395,"Ġcontinuent":5396,"ĠavancÃ©es":5397,"fe":5398,"Ġsil":5399,"user":5400,"endue":5401,"oto":5402,"Ġstab":5403,"Ġphras":5404,"Ġsupprimer":5405,"Ġinflu":5406,"Ġculturelle":5407,"atteindre":5408,"gypte":5409,"ĠindÃ©pendant":5410,"Ġconception":5411,"Seu":5412,"matiques":5413,"exploitation":5414,"Bas":5415,"Ġbate":5416,"Ġsoup":5417,"ĠrÃ©unions":5418,"Ġflux":5419,"ĠSchengen":5420,"Ġminimum":5421,"ĠCopenhague":5422,"Ġamp":5423,"Ġintelle":5424,"Ġproc":5425,"Ġmotiv":5426,"alisÃ©s":5427,"ĠgÃ©nÃ©tique":5428,"ĠrÃ©alisÃ©s":5429,"approvisionnement":5430,"Jusqu":5431,"Beaucoup":5432,"oint":5433,"sy":5434,"Ġlatine":5435,"Ã©rop":5436,"Ġ24":5437,"ĠpiÃ¨ce":5438,"ĠdifficultÃ©":5439,"Ġliens":5440,"Ġrepose":5441,"ĠproposÃ©s":5442,"Ġrevanche":5443,"influence":5444,"Oui":5445,"Ġprobable":5446,"Ġsocialiste":5447,"Ġdites":5448,"export":5449,"Ġ%.":5450,"accepter":5451,"Ġpou":5452,"Ġrare":5453,"Ġacceptable":5454,"Ġ70":5455,"ĠpropriÃ©tÃ©":5456,"Ġpacifique":5457,"Ġintellectu":5458,"ĠnÃ©cessi":5459,"obser":5460,"ĠprÃ©occupation":5461,"ĠnÃ©cessite":5462,"mation":5463,"Ġharmon":5464,"Ġperform":5465,"ĠcrÃ©e":5466,"Ġeuros":5467,"Ġenvisage":5468,"Ġtaxe":5469,"lantique":5470,"ĠSh":5471,"ĠHam":5472,"ĠrÃ©gionales":5473,"Ġfournit":5474,"ĠÃ©limin":5475,"ĠhÃ©":5476,"Ġaffe":5477,"Ġpersonnellement":5478,"ĠObama":5479,"Ġ1998":5480,"Ã©lectricitÃ©":5481,"Ġ90":5482,"ĠextÃ©rieures":5483,"bourg":5484,"hÃ©rence":5485,"orient":5486,"Ġdivis":5487,"aint":5488,"autoritÃ©":5489,"isions":5490,"Ġrelatifs":5491,"ĠrÃ©gler":5492,"Ġcertes":5493,"Ġoctobre":5494,"Ġchute":5495,"lit":5496,"Ġment":5497,"Ġru":5498,"Ġsurm":5499,"ĠPalestini":5500,"Ġadress":5501,"Ġpartager":5502,"ĠChyp":5503,"ĠprÃ©cise":5504,"ĠBrÃ©sil":5505,"ĠOn":5506,"ĠbilatÃ©r":5507,"Ġchapit":5508,"ĠBulg":5509,"ĠrÃ©pondu":5510,"ĠpensÃ©":5511,"Ġenvisager":5512,"ĠinquiÃ©tudes":5513,"Ġoccidentaux":5514,"Ġorigin":5515,"cieux":5516,"aissent":5517,"Ġhumaines":5518,"ĠpublicitÃ©":5519,"Ġcatastrophes":5520,"Ġcapitale":5521,"Ġreligie":5522,"Ġmultila":5523,"Ġtempor":5524,"Ġdemeure":5525,"Ġreconstruction":5526,"arrÃªt":5527,"mentation":5528,"ĠCro":5529,"Ġcommuns":5530,"ĠapprouvÃ©":5531,"Ġaudi":5532,"ĠÃªtres":5533,"Ġsusp":5534,"Ġpreuves":5535,"Ġsauver":5536,"ĠpossÃ¨de":5537,"tiennent":5538,"Ġfas":5539,"Ġprie":5540,"ĠrÃ©chauff":5541,"Ġillus":5542,"Ġformuler":5543,"ĠadÃ©quate":5544,"humanitÃ©":5545,"Bretagne":5546,"hou":5547,"Ġbienven":5548,"Ġexistent":5549,"Ġrecommandation":5550,"Ġrecherches":5551,"Ġprofessionnelle":5552,"Ġmarchandises":5553,"Ġnoir":5554,"ĠCan":5555,"ctivitÃ©":5556,"Ġfini":5557,"Ġinterne":5558,"Ġcauses":5559,"Ġenvironnementale":5560,"ĠsecrÃ©t":5561,"Ġauxquelles":5562,"ka":5563,"Ġspect":5564,"Ġacte":5565,"Ġimportations":5566,"ĠGu":5567,"ĠLiv":5568,"ĠproposÃ©e":5569,"Ġnaturel":5570,"Ġoffrir":5571,"Ġconstate":5572,"Ġleaders":5573,"appar":5574,"ĠprÃ©venir":5575,"ĠAllemagne":5576,"ganisation":5577,"Ġlocaux":5578,"Ġaccrue":5579,"ony":5580,"Ġpap":5581,"ĠdÃ©pit":5582,"entement":5583,"Ġpensais":5584,"Ġviolations":5585,"Ġenseign":5586,"enfants":5587,"las":5588,"ĠrÃ©agir":5589,"Ġappor":5590,"ĠBCE":5591,"Ġdynamique":5592,"Ġrestrictions":5593,"Eh":5594,"ĠCol":5595,"Ġconciliation":5596,"Ġconscients":5597,"nÃ©es":5598,"Ġfo":5599,"Ġartis":5600,"assistance":5601,"Ã©vrier":5602,"ĠÃ©troite":5603,"Ġtechnologique":5604,"aurait":5605,"Ġchiffre":5606,"onnÃ©e":5607,"Ġpassage":5608,"Ġsalari":5609,"Ġsolide":5610,"Ġretraite":5611,"ĠsystÃ©matique":5612,"examiner":5613,"ĠBulgarie":5614,"Ġlon":5615,"Ġmorts":5616,"Ġmerve":5617,"Ġbu":5618,"ĠamÃ©lioration":5619,"aj":5620,"osse":5621,"ĠÃ©valu":5622,"Ġincap":5623,"ombien":5624,"ĠÃ©vid":5625,"ĠmodÃ¨les":5626,"ĠfranÃ§aise":5627,"ajou":5628,"Ġpoursuite":5629,"apporter":5630,"Ġliqui":5631,"ĠproblÃ©":5632,"ĠGaz":5633,"Ġpensez":5634,"Ġutilisation":5635,"Ġfonctionnaires":5636,"Ġanciens":5637,"Agence":5638,"Bon":5639,"Ġblo":5640,"ĠCar":5641,"Ġressemble":5642,"association":5643,"mÃ©di":5644,"ĠIls":5645,"ulaire":5646,"Ġdeviennent":5647,"Ġimposer":5648,"Ġenvironnementales":5649,"lova":5650,"Ġsovi":5651,"Ġuns":5652,"Ġressort":5653,"applique":5654,"Ġvertu":5655,"tez":5656,"Ġfall":5657,"Ġdestruction":5658,"Ġbord":5659,"ĠvidÃ©":5660,"Ġpertes":5661,"Ġorganismes":5662,"urÃ©":5663,"unanimitÃ©":5664,"Ġreconnu":5665,"effet":5666,"ĠÃ©chelle":5667,"Ġpartenaire":5668,"Ġarticle":5669,"Ġax":5670,"ĠexÃ©cu":5671,"Ġmarque":5672,"Ġintervenir":5673,"Ġinstall":5674,"Ġconvaincre":5675,"ĠcomprÃ©hension":5676,"Ġnavires":5677,"Certes":5678,"Ġimpression":5679,"ĠSe":5680,"gnitÃ©":5681,"ĠprÃ©sidents":5682,"Ġcinqu":5683,"ĠdÃ©lic":5684,"Ġarguments":5685,"ik":5686,"tan":5687,"entendre":5688,"Ġremettre":5689,"Ġpaiement":5690,"ĠinfÃ©ri":5691,"ĠamÃ©ricaines":5692,"Ġmentionner":5693,"ĠtÃ¢ches":5694,"ĠappropriÃ©e":5695,"augmenter":5696,"ĠdÃ©couvert":5697,"Ġremarquable":5698,"ĠdÃ©battre":5699,"ĠaugmentÃ©":5700,"Ġconserv":5701,"oÃ»t":5702,"ĠÃ©coles":5703,"Ġcontact":5704,"ĠdÃ©posÃ©":5705,"Ġprior":5706,"Ġcultures":5707,"Ġindustrielle":5708,"Ġbloc":5709,"ĠspÃ©c":5710,"ĠYork":5711,"ĠrÃ©parti":5712,"Ġoutils":5713,"uad":5714,"ĠfÃ©vrier":5715,"ĠdignitÃ©":5716,"Ġpost":5717,"ĠVerts":5718,"tivement":5719,"ĠintÃ©rieures":5720,"ĠinÃ©v":5721,"agissait":5722,"ack":5723,"ĠAfghanistan":5724,"Ġpouvaient":5725,"ĠprÃ©sents":5726,"Ġopinion":5727,"ĠlÃ©gislatives":5728,"ĠÃ©nergÃ©tiques":5729,"Ġsubstanti":5730,"endi":5731,"Ġmic":5732,"ĠÃ©lu":5733,"Ġirak":5734,"Ġfinances":5735,"interdiction":5736,"Ġsyndic":5737,"allÃ¨lement":5738,"ĠPalestiniens":5739,"Ġden":5740,"Ġpsy":5741,"ayer":5742,"Ġ1997":5743,"ĠÃ©change":5744,"ĠpÃªcheurs":5745,"Ġbanque":5746,"Ġ0":5747,"Ġfilles":5748,"Ġdesc":5749,"Ġsuppose":5750,"Ġpaiements":5751,"ĠdÃ©termination":5752,"cription":5753,"Ġreligion":5754,"ĠsouverainetÃ©":5755,"obligation":5756,"ana":5757,"tras":5758,"ĠGÃ©":5759,"ĠEur":5760,"Ġaffai":5761,"Ġautrement":5762,"Ġrestru":5763,"Ġpressions":5764,"Ġsalaires":5765,"ĠprivÃ©e":5766,"Ġconnaissent":5767,"Ġintergouvernementale":5768,"ĠdÃ©sastre":5769,"gente":5770,"Ġdon":5771,"ĠdegrÃ©":5772,"orgie":5773,"estre":5774,"Ġrej":5775,"Ġdisait":5776,"cule":5777,"versaire":5778,"Ġplani":5779,"Ġviolation":5780,"chite":5781,"Ġkil":5782,"ĠlÃ©gitimitÃ©":5783,"oug":5784,"ĠprÃ©cÃ©":5785,"Ġorateurs":5786,"Ġapplic":5787,"Ġaliments":5788,"Ġhabitants":5789,"Mesdames":5790,"ajouter":5791,"vons":5792,"Ġfils":5793,"ilis":5794,"tÃ©rale":5795,"nier":5796,"Ġdisant":5797,"ĠSy":5798,"Ġ1990":5799,"ĠrevÃªt":5800,"Ġorganes":5801,"Ġvitesse":5802,"Ġavril":5803,"Ġmenaces":5804,"Ġconnaissons":5805,"Ġfixer":5806,"Ġayons":5807,"ctrices":5808,"Organisation":5809,"oivent":5810,"Ġgui":5811,"Ġhonte":5812,"Ã´pit":5813,"extÃ©rieur":5814,"ĠTerre":5815,"ĠSerbie":5816,"sias":5817,"ĠfÃ©d":5818,"Ġhom":5819,"Ġsoud":5820,"ĠdÃ©clin":5821,"ĠfondÃ©e":5822,"Ġsimples":5823,"Ġincont":5824,"ĠutilisÃ©e":5825,"ĠsÃ©le":5826,"Ġremarquer":5827,"Ġmerveille":5828,"Ob":5829,"ores":5830,"Ġincon":5831,"Ġcommissaires":5832,"isson":5833,"Ġinformation":5834,"Ġanglais":5835,"rÃ©tiens":5836,"erti":5837,"ĠÃ®":5838,"itons":5839,"Ġprati":5840,"Ġbil":5841,"Ġactifs":5842,"ĠprivÃ©s":5843,"ĠprÃ©ciser":5844,"Ġminute":5845,"ĠaÃ©rien":5846,"Ġdessus":5847,"anter":5848,"Ġbo":5849,"Ġconjoin":5850,"Ġcroissante":5851,"ĠintÃ©gr":5852,"ĠadoptÃ©es":5853,"ĠorganisÃ©":5854,"ĠmÃ©n":5855,"Ġfail":5856,"empÃªcher":5857,"ĠdÃ©bou":5858,"ĠrÃ©pÃ©ter":5859,"Ġconcernent":5860,"ĠgÃ©nÃ©rations":5861,"oleil":5862,"Ġtentative":5863,"Ġsurface":5864,"ĠrÃ©side":5865,"ia":5866,"Ġration":5867,"Ġmoteur":5868,"trait":5869,"ĠrÃ©solu":5870,"Ġinterventions":5871,"ĠAmÃ©rique":5872,"onorable":5873,"inions":5874,"lions":5875,"Ġtransformer":5876,"Ġressor":5877,"ĠdestinÃ©es":5878,"Ġacheter":5879,"Ġarabe":5880,"housias":5881,"dÃ©c":5882,"ĠprÃ©ju":5883,"Ġrappro":5884,"Ġvictoire":5885,"Ġrencontre":5886,"Ġindividus":5887,"ĠamÃ©liorations":5888,"avec":5889,"ĠrÃ©pu":5890,"ĠproposÃ©es":5891,"Ġretrouver":5892,"Ġneuf":5893,"Ġmaximum":5894,"ĠcohÃ©rente":5895,"lite":5896,"Ġpours":5897,"iel":5898,"Ġmodes":5899,"ĠcohÃ©rence":5900,"ĠrÃ©perc":5901,"Ġmillion":5902,"ĠIrlande":5903,"ĠfrontiÃ¨re":5904,"Ġurb":5905,"Ġendroits":5906,"ĠdÃ©marche":5907,"Ã©quipe":5908,"ĠBos":5909,"Ġmondiaux":5910,"ĠlÃ©gislative":5911,"arrive":5912,"Ġconsta":5913,"ĠexpÃ©riences":5914,"long":5915,"union":5916,"Ġparoles":5917,"ĠliÃ©e":5918,"Ġfinance":5919,"Ġatti":5920,"Ġphil":5921,"Ã©diterranÃ©e":5922,"ĠsincÃ¨rement":5923,"ast":5924,"ĠMac":5925,"gnÃ©":5926,"ĠrÃ©glementations":5927,"Ġobligatoire":5928,"ĠbriÃ¨vement":5929,"exportation":5930,"ĠHamas":5931,"ĠLivre":5932,"Ġnaiss":5933,"ĠleÃ§ons":5934,"itants":5935,"ĠrÃ©solutions":5936,"Ġhabitu":5937,"Ġratification":5938,"Ġsignificative":5939,"Ġfruits":5940,"ĠGÃ©orgie":5941,"agÃ©e":5942,"ĠElle":5943,"versitÃ©":5944,"Ġcorri":5945,"effond":5946,"ĠONG":5947,"internet":5948,"tisation":5949,"Amsterdam":5950,"ĠdestinÃ©s":5951,"Ġexistantes":5952,"Ġhauteur":5953,"Occident":5954,"Ġquin":5955,"roit":5956,"tera":5957,"Ġacqu":5958,"uxemb":5959,"gement":5960,"Ġreprendre":5961,"ĠChypre":5962,"Â«":5963,"ories":5964,"ĠÃ©tats":5965,"Ġattentes":5966,"Ġriche":5967,"ĠdÃ©veloppÃ©s":5968,"Ġvoisinage":5969,"ry":5970,"ĠpÃ©ti":5971,"old":5972,"fici":5973,"Ġsensible":5974,"ĠreflÃ¨te":5975,"Ġrequi":5976,"Ġretirer":5977,"ĠposÃ©":5978,"Ġconserver":5979,"Ġregrettable":5980,"Ġextraordinaire":5981,"Ġdictat":5982,"ĠGaza":5983,"Ġbelle":5984,"dem":5985,"Ġsurvi":5986,"ĠMÃ©diterranÃ©e":5987,"Ġsite":5988,"ĠTch":5989,"Ġconstitutionnel":5990,"Quoi":5991,"Ġincomp":5992,"Ġurgent":5993,"cevoir":5994,"ĠrÃ©chauffement":5995,"ma":5996,"Ġcop":5997,"ĠimpÃ©ra":5998,"Ġsuppression":5999,"ĠespÃ¨ces":6000,"commun":6001,"cy":6002,"ray":6003,"Ġvia":6004,"ĠintÃ©grÃ©":6005,"Ã©limin":6006,"ĠprÃ©sentation":6007,"Autre":6008,"lou":6009,"Ġdra":6010,"Ġdiz":6011,"Ġpolitici":6012,"ĠaccroÃ®tre":6013,"Ġmettent":6014,"Ãītant":6015,"Ġsuffisant":6016,"Ġtomber":6017,"Ġsignaler":6018,"exclusion":6019,"ĠmenÃ©":6020,"Ġchimiques":6021,"Ġdiminuer":6022,"ĠKyoto":6023,"ĠintÃ©rieure":6024,"grÃ©s":6025,"uelles":6026,"ĠenquÃªte":6027,"ĠSi":6028,"Ġclas":6029,"Ġdomin":6030,"ĠbasÃ©e":6031,"Ġradio":6032,"ĠrÃ©percussions":6033,"va":6034,"outine":6035,"Ġstu":6036,"ĠÃ©du":6037,"auteur":6038,"rat":6039,"Ġmeur":6040,"Ġcontro":6041,"Ġdrogue":6042,"ĠLond":6043,"ĠmenÃ©e":6044,"Ġessentielles":6045,"ĠcÃ´tÃ©s":6046,"Ġallait":6047,"Ġsentir":6048,"ancien":6049,"Ġintroduit":6050,"ĠbÃ¢timent":6051,"Ġfaute":6052,"Ġgri":6053,"Ġdevi":6054,"Ġcompos":6055,"verbal":6056,"ĠprÃ©vue":6057,"esti":6058,"Ġsoumettre":6059,"Ġmarge":6060,"ĠÃ©lectri":6061,"Ġassumer":6062,"ĠCharte":6063,"ĠefficacitÃ©":6064,"ĠsignÃ©":6065,"Ġnotion":6066,"ĠmÃ©m":6067,"Ġsouvenir":6068,"trasbourg":6069,"uk":6070,"Ġryth":6071,"Ġprolong":6072,"Ġsert":6073,"Ġavantage":6074,"Ġconnaissances":6075,"Ġrevoir":6076,"infrastru":6077,"Ã©tudi":6078,"Ġtransfert":6079,"Ġsoldats":6080,"Ġmur":6081,"ĠdÃ©tru":6082,"Ġindustrie":6083,"Ġcesser":6084,"midi":6085,"Ġtransit":6086,"Ġrelance":6087,"Ã©rable":6088,"image":6089,"Ġrouge":6090,"Ġbancaire":6091,"ĠrÃ©partition":6092,"Ġmasse":6093,"Ġbarri":6094,"ĠliÃ©":6095,"Ġcentral":6096,"ĠguÃ¨re":6097,"hique":6098,"Ġchien":6099,"ĠMex":6100,"Ġrespecte":6101,"Ġcontribue":6102,"Ġjustifier":6103,"Ġutilise":6104,"Ġregardez":6105,"Afghanistan":6106,"don":6107,"romp":6108,"yst":6109,"ĠnÃ©er":6110,"Ġautor":6111,"ĠutilisÃ©es":6112,"idÃ©":6113,"rible":6114,"niers":6115,"inez":6116,"ĠdÃ©mocrates":6117,"Ġaurions":6118,"Ġportant":6119,"Ġsortes":6120,"Ġadministratives":6121,"Ġremplacer":6122,"heur":6123,"ĠMc":6124,"entiss":6125,"ĠprÃ©sentÃ©e":6126,"Ġbases":6127,"Ġchambre":6128,"ĠrÃ©clam":6129,"Ġrencontrer":6130,"Ġbritanniques":6131,"bi":6132,"Ġchoc":6133,"autoris":6134,"ĠGe":6135,"Ġvraie":6136,"Ġvoient":6137,"aborder":6138,"Ġproportion":6139,"Ġasi":6140,"ern":6141,"Ġfaux":6142,"Ã¨le":6143,"attitude":6144,"accÃ©":6145,"ĠMil":6146,"ouvrir":6147,"ĠappropriÃ©":6148,"ĠtÃ©lÃ©phone":6149,"mun":6150,"Ã©par":6151,"ĠStrasbourg":6152,"Ġsouffr":6153,"Ã©diterranÃ©":6154,"Ġprimordi":6155,"cÃ©s":6156,"Ġlanc":6157,"encer":6158,"ĠParti":6159,"ĠACP":6160,"Ġsouhai":6161,"Ġbras":6162,"aucune":6163,"Ġmouvements":6164,"Ġdiminution":6165,"Gr":6166,"hy":6167,"mid":6168,"Ġinstant":6169,"ĠFran":6170,"Ġsalle":6171,"Ġcandidat":6172,"ĠInternet":6173,"liance":6174,"Ġdevrais":6175,"Ġcomplet":6176,"Ġvivant":6177,"ĠpubliÃ©":6178,"Ġmilliard":6179,"ĠmenÃ©es":6180,"ĠpensÃ©e":6181,"ĠajoutÃ©e":6182,"Ġrestructur":6183,"urde":6184,"Ġobje":6185,"ĠdÃ©cide":6186,"Ġcontinuera":6187,"Ã©lection":6188,"Ġactivement":6189,"ougos":6190,"AR":6191,"Mme":6192,"PT":6193,"Rien":6194,"oitement":6195,"Ġinternes":6196,"ĠÃ©cologique":6197,"Ġlibres":6198,"ĠavancÃ©e":6199,"Ġmusulmans":6200,"ĠLondres":6201,"mos":6202,"pro":6203,"ralement":6204,"Ġrejoin":6205,"tension":6206,"onneur":6207,"Ġvivement":6208,"Ġprogress":6209,"ĠproductivitÃ©":6210,"ĠstratÃ©gies":6211,"Ġcib":6212,"Ġnormal":6213,"ĠintÃ©grÃ©e":6214,"Ġsimilaires":6215,"ĠtchÃ¨que":6216,"Ġspectac":6217,"Ġfallait":6218,"entissage":6219,"do":6220,"tait":6221,"Ġwe":6222,"Ġpourrais":6223,"Ġvice":6224,"ĠdÃ©cri":6225,"ĠrÃ©pand":6226,"ĠrÃ©pÃ¨te":6227,"Ġcontribuables":6228,"ĠinvitÃ©":6229,"ĠdÃ©ficits":6230,"?\"":6231,"ortent":6232,"ĠPour":6233,"Ġ23":6234,"Ġtrouvons":6235,"Ġscandale":6236,"cter":6237,"gÃ©di":6238,"alent":6239,"Ġpassion":6240,"Ġmotion":6241,"ĠclÃ©s":6242,"ĠcoopÃ©rer":6243,"Ġjouent":6244,"ĠrÃ©ductions":6245,"ĠÃ©nergies":6246,"Ġheureuse":6247,"ographie":6248,"Ġconsult":6249,"ĠCroatie":6250,"ĠQu":6251,"agnes":6252,"Ġesti":6253,"oriz":6254,"Ġinvestir":6255,"Ġpil":6256,"invite":6257,"arg":6258,"ami":6259,"ĠaccÃ©lÃ©":6260,"Ġcombin":6261,"Ġdistribution":6262,"utriche":6263,"Ġpapier":6264,"ĠsoviÃ©tique":6265,"Ġrusses":6266,"Ġdesign":6267,"Ġconten":6268,"lÃ¨vent":6269,"Ġpostes":6270,"Ġprotectionn":6271,"ĠgÃ©nÃ©rales":6272,"Ġcommissions":6273,"Ġferroviaire":6274,"Ġlin":6275,"cht":6276,"Ġexpl":6277,"lusieurs":6278,"Ġincl":6279,"Ġtourner":6280,"ĠsiÃ¨ge":6281,"Ġtaxes":6282,"Ġrejeter":6283,"Ġallemande":6284,"Ġenregist":6285,"arrÃªter":6286,"NL":6287,"Ġreten":6288,"Ġvig":6289,"ĠperÃ§":6290,"Ġopinions":6291,"ĠprÃ©voir":6292,"ĠspÃ©cial":6293,"Ġaugmente":6294,"ĠarrÃªter":6295,"ĠÃ©lectronique":6296,"Ġbless":6297,"Ġjaponais":6298,"cin":6299,"intes":6300,"sim":6301,"Ġpoissons":6302,"Ġdirecteur":6303,"Ġesc":6304,"iger":6305,"ĠÂ»,":6306,"Ġattaques":6307,"ĠrÃ©guliÃ¨rement":6308,"Ġvente":6309,"osoph":6310,"Ġserais":6311,"Ġdemandent":6312,"Ġculturel":6313,"ĠtentÃ©":6314,"Ġexistants":6315,"Certaines":6316,"offre":6317,"Ġconvergence":6318,"Ġmachine":6319,"Ġpsych":6320,"Ġrythme":6321,"gentes":6322,"onais":6323,"armes":6324,"ĠtragÃ©di":6325,"Ġpersuad":6326,"Ġcrains":6327,"ĠdÃ©veloppÃ©":6328,"Ġincombe":6329,"Ġ1996":6330,"ĠinquiÃ©t":6331,"analyse":6332,"ĠprÃ©alable":6333,"Ġphilosoph":6334,"CA":6335,"Combien":6336,"ek":6337,"ĠcÃ©rÃ©":6338,"chÃ©s":6339,"Ġguer":6340,"Ãªts":6341,"acts":6342,"Ġmonop":6343,"Ġdiscip":6344,"Ġdirecte":6345,"ĠadhÃ©sion":6346,"occup":6347,"mission":6348,"Ã©re":6349,"Ġrom":6350,"Ġexamen":6351,"Ã©rences":6352,"Ġressenti":6353,"ĠÃ©troitement":6354,"ĠrÃ©ussir":6355,"atriÃ¨me":6356,"ĠlÃ©gitime":6357,"Ġoutil":6358,"asp":6359,"opportun":6360,"Ġble":6361,"Ġremb":6362,"ĠPoutine":6363,"ĠTED":6364,"Ġcommuniste":6365,"ĠempÃª":6366,"Ġimages":6367,"Ġengend":6368,"Ġsalu":6369,"Â»,":6370,"ĠlibÃ©raux":6371,"Ġindustries":6372,"Ġcivils":6373,"ĠFinlande":6374,"IS":6375,"rom":6376,"estement":6377,"Ġap":6378,"anais":6379,"raction":6380,"Ġinspi":6381,"ĠforcÃ©":6382,"ĠGuerre":6383,"essentiel":6384,"approbation":6385,"ĠenvoyÃ©":6386,"ĠprÃ©sidenti":6387,"rin":6388,"Ġsti":6389,"Ġaccident":6390,"ĠcomplÃ©":6391,"ĠnÃ©cessairement":6392,"Ġferont":6393,"accorder":6394,"ĠarriÃ¨re":6395,"Ġclairs":6396,"Ġbref":6397,"Ġtests":6398,"Ġpromesses":6399,"Ġincroyable":6400,"ĠproblÃ©matique":6401,"ta":6402,"Ġtox":6403,"Ġpoisson":6404,"introduire":6405,"ĠTh":6406,"assent":6407,"ĠdÃ©tour":6408,"Ġenvironnementaux":6409,"Ġrichesse":6410,"ĠsupÃ©rieur":6411,"Ġespagnol":6412,"Ġrue":6413,"Ġvolu":6414,"Ġjeux":6415,"ĠconÃ§":6416,"niversaire":6417,"ĠparticipÃ©":6418,"Ġsauf":6419,"Ġsecret":6420,"oncernant":6421,"ĠProdi":6422,"ID":6423,"line":6424,"uyer":6425,"leurs":6426,"ĠÃ©lar":6427,"ĠforÃªts":6428,"Ġdonnent":6429,"Ġabus":6430,"Ġsatisfaire":6431,"ĠdiscutÃ©":6432,"Ġattendent":6433,"ĠsoulevÃ©":6434,"ĠindÃ©pendants":6435,"ĠvulnÃ©rables":6436,"ĠdÃ©ri":6437,"chons":6438,"oss":6439,"endront":6440,"cool":6441,"ĠAsie":6442,"Ġstable":6443,"ĠdonnÃ©e":6444,"ĠreconnaÃ®t":6445,"atrice":6446,"Ġimaginer":6447,"Ġsurmonter":6448,"ĠUni":6449,"Ġpier":6450,"quons":6451,"oriques":6452,"Ġimpati":6453,"Ġquelconque":6454,"jeun":6455,"Ġprofesseur":6456,"ĠabordÃ©":6457,"Ġrendent":6458,"ĠÃ©tudier":6459,"ĠindÃ©pendante":6460,"Ġexercer":6461,"Ġtextes":6462,"Ġclause":6463,"EL":6464,"Pas":6465,"gle":6466,"viennent":6467,"ĠÃ©loi":6468,"ĠbÃ©b":6469,"ĠÃ©tonn":6470,"ĠdÃ©pendance":6471,"ĠÃ©valuer":6472,"ĠrÃ©gionaux":6473,"Ġlocal":6474,"ĠsuggÃ©":6475,"Ġbureaucratie":6476,"Ġprovenance":6477,"Plusieurs":6478,"Ġpilier":6479,"Ġcad":6480,"orce":6481,"Ġtre":6482,"Ġvacc":6483,"ĠprÃ©ven":6484,"fient":6485,"Ġpolici":6486,"Ġapporte":6487,"Ġdirect":6488,"Ġsocialistes":6489,"ĠorganisÃ©e":6490,"Ġpartisans":6491,"Ġintentions":6492,"Ġvivons":6493,"Ġpourcent":6494,"avaient":6495,"Ġdirectrices":6496,"Ġobs":6497,"Ġarr":6498,"misme":6499,"auration":6500,"Ġpencher":6501,"ĠdÃ©cennie":6502,"ĠmÃ©ritent":6503,"Ġconcert":6504,"ongro":6505,"Ġferait":6506,"Ġutilisent":6507,"Ãītats":6508,"Ġgratu":6509,"Ã©rÃ©es":6510,"Ġlangage":6511,"voyer":6512,"Ġprenons":6513,"ĠCanada":6514,"Ġverre":6515,"ĠprÃ©con":6516,"ĠdÃ©clen":6517,"guis":6518,"Ġoptim":6519,"Ġhistoires":6520,"Ġdizaines":6521,"son":6522,"ala":6523,"aissez":6524,"fiant":6525,"Ġ22":6526,"ĠdÃ©posÃ©s":6527,"Ġaimer":6528,"issements":6529,"Ġattribu":6530,"ensible":6531,"ĠfixÃ©":6532,"ĠdÃ©montrÃ©":6533,"enfant":6534,"Ġignor":6535,"Ġchaleure":6536,"Ġphrase":6537,"ĠCE":6538,"istant":6539,"ĠconsidÃ©rons":6540,"Ġfonctions":6541,"ĠÃ©trange":6542,"Ġouvrir":6543,"Ġrurales":6544,"Ġalternative":6545,"ĠcatÃ©gorie":6546,"ĠhonnÃªte":6547,"encourager":6548,"Ġexcellente":6549,"ĠmultilatÃ©r":6550,"Concernant":6551,"Ġpal":6552,"Ġsoin":6553,"urants":6554,"Ġvin":6555,"ĠrÃ©els":6556,"Ġsembler":6557,"Ġhy":6558,"Quelles":6559,"ĠÃ©chapp":6560,"Ġ2011":6561,"Ġcomplexes":6562,"Ġtradition":6563,"ĠrejetÃ©":6564,"Ġsimplification":6565,"ĠÃ©lectorale":6566,"ĠdenrÃ©es":6567,"oÃ¯":6568,"Ġmac":6569,"estations":6570,"Ġdirais":6571,"accueil":6572,"Ġorientale":6573,"Ġsoyons":6574,"ĠdÃ©ploy":6575,"Ġappartient":6576,"artÃ©":6577,"ĠMin":6578,"cum":6579,"ĠEuropÃ©":6580,"Ġremplir":6581,"ĠdÃ©sir":6582,"ampleur":6583,"ĠSyrie":6584,"mÃ©e":6585,"lif":6586,"Ġintention":6587,"ouvÃ©":6588,"Ġ?\"":6589,"Ġvieil":6590,"Ġcentres":6591,"ĠRoms":6592,"ĠrÃªve":6593,"Leur":6594,"inn":6595,"ĠrÃ©mun":6596,"Ġgard":6597,"endrait":6598,"ĠstratÃ©giques":6599,"attends":6600,"Ġ1995":6601,"Ġcontrats":6602,"Ġpouss":6603,"Ġinutile":6604,"Ġend":6605,"Ġinvite":6606,"ocation":6607,"Ġdisons":6608,"ĠBro":6609,"assin":6610,"Ġapprouver":6611,"Ġpromis":6612,"Ġconstructive":6613,"Ġportent":6614,"ĠintÃ©ressante":6615,"Ġdisposent":6616,"Ġterritori":6617,"Ġjournalistes":6618,"ĠÃ¢ge":6619,"dÃ©cision":6620,"lait":6621,"Ġsaisir":6622,"ĠmÃ¨":6623,"Ġparad":6624,"lacement":6625,"ĠnÃ©gocier":6626,"Ġfaim":6627,"Ġsatisfaction":6628,"Ã©tiquetage":6629,"ĠcaractÃ©ristiques":6630,"Aucun":6631,"ĠfÃ©dÃ©r":6632,"Du":6633,"terr":6634,"Ġasse":6635,"ĠchaÃ®ne":6636,"Ġmissions":6637,"Ġvital":6638,"Ġconfirmer":6639,"adapter":6640,"Ġmutuelle":6641,"Ġsusceptibles":6642,"Ġautomobile":6643,"Ġchapitre":6644,"Ġcab":6645,"ĠquatriÃ¨me":6646,"arc":6647,"Ġrig":6648,"ĠmodÃ©":6649,"Ġassis":6650,"ĠdÃ©fav":6651,"ĠscÃ©n":6652,"Ġconseils":6653,"Ġislam":6654,"ĠcÃ©lÃ¨":6655,"RO":6656,"andi":6657,"organ":6658,"ĠinÃ©galitÃ©":6659,"utation":6660,"ĠannoncÃ©":6661,"Ġproduisent":6662,"Ġmanip":6663,"Ġprintemps":6664,"imposer":6665,"Ã¢ts":6666,"attendre":6667,"Comp":6668,"Ses":6669,"sh":6670,"oniques":6671,"tic":6672,"sible":6673,"usti":6674,"ĠcodÃ©cision":6675,"Ġautonom":6676,"Ġinterinstitu":6677,"accroÃ®tre":6678,"mistes":6679,"ĠdÃ©fini":6680,"ĠprivÃ©es":6681,"Ġsucre":6682,"Ġtensions":6683,"Ġfiscales":6684,"Ġterritoires":6685,"GrÃ¢ce":6686,"ĠscÃ©nari":6687,"enquÃªte":6688,"ara":6689,"arus":6690,"Ġaime":6691,"Ġgarantiss":6692,"Ġsupprim":6693,"Ġportug":6694,"Ġconstamment":6695,"ĠentraÃ®ne":6696,"ĠÃ©voquer":6697,"ĠMexique":6698,"bon":6699,"Ġravi":6700,"Ġtari":6701,"elui":6702,"Ġhongro":6703,"iennes":6704,"troi":6705,"Ġconcrets":6706,"Ġseules":6707,"Ġutilisant":6708,"ĠrÃ©aliste":6709,"ĠrenforcÃ©e":6710,"ĠrÃ©centes":6711,"Ġmassive":6712,"ĠopportunitÃ©s":6713,"ĠvÃ©cu":6714,"euille":6715,"ĠMerci":6716,"Ġfinale":6717,"ĠespÃ©rer":6718,"Ġrestre":6719,"ĠreprÃ©senter":6720,"habitude":6721,"ĠemployÃ©s":6722,"Ġobstacle":6723,"ĠÃ©quilibrÃ©":6724,"ĠBelarus":6725,"Ġtransformation":6726,"Ã¼":6727,"Ġfurent":6728,"Ġvac":6729,"ĠrÃ©uss":6730,"Ġentam":6731,"adresse":6732,"asses":6733,"Ġvisage":6734,"ĠmÃ©diateur":6735,"Ġdoutes":6736,"ĠdÃ©gÃ¢ts":6737,"Ġprofessionnels":6738,"Ġstocks":6739,"Ġinvent":6740,"atur":6741,"Ġpouvais":6742,"Ġcomprennent":6743,"ĠIran":6744,"Ġinclure":6745,"Ġfier":6746,"Ġinitiale":6747,"ĠdestinÃ©":6748,"apprentissage":6749,"entreprises":6750,"Ġmanifestations":6751,"Ġprisonniers":6752,"Avez":6753,"Ġlait":6754,"Ġcuis":6755,"Ġvain":6756,"Ġproches":6757,"Ġnettement":6758,"ĠBir":6759,"Ġcaf":6760,"Ġsaluer":6761,"crire":6762,"ĠsuggÃ¨re":6763,"ley":6764,"ĠleÃ§on":6765,"ĠÃ©lus":6766,"Ġbus":6767,"ĠCom":6768,"Ġtroupes":6769,"istent":6770,"Ġtransat":6771,"ĠdÃ©battu":6772,"ĠrÃ©cent":6773,"Ġintroduire":6774,"Ġsensibles":6775,"ĠfrÃ©qu":6776,"ĠBosnie":6777,"val":6778,"ansion":6779,"Ġenqu":6780,"aisser":6781,"Ġhui":6782,"Ġtransactions":6783,"ĠdÃ©bu":6784,"ĠgÃ©nÃ©":6785,"Ġgouvernementales":6786,"ĠvÃ©ritables":6787,"ĠdÃ©lib":6788,"Ġvirus":6789,"ditÃ©":6790,"Ġsites":6791,"Ġrang":6792,"Ġvague":6793,"ĠrÃ©vis":6794,"ĠintÃ©gration":6795,"Ġmondiales":6796,"ĠremÃ©di":6797,"bat":6798,"men":6799,"Ġsoleil":6800,"Ġfant":6801,"Ġplaf":6802,"ĠautoritÃ©":6803,"siez":6804,"ĠpassÃ©e":6805,"ĠÃ©chÃ©":6806,"ĠbÃ¢timents":6807,"Con":6808,"ĠpÃ©r":6809,"rÃ©g":6810,"Ġiran":6811,"instar":6812,"Ġconvenu":6813,"Ġpalestinien":6814,"ĠvidÃ©o":6815,"lob":6816,"ourse":6817,"rique":6818,"rad":6819,"endus":6820,"ĠrÃ©pression":6821,"ĠconsidÃ©rÃ©e":6822,"Ġpositives":6823,"ĠaÃ©riennes":6824,"Ġcompagnie":6825,"Ġpourriez":6826,"ĠrÃ©cu":6827,"dement":6828,"Ġaccessi":6829,"Ġacquis":6830,"ĠDÃ©pu":6831,"ĠlÃ©gale":6832,"Ġbruit":6833,"Ġconstruit":6834,"Ġfournisse":6835,"Ġcruciale":6836,"Ġquotidien":6837,"Ġpoliticiens":6838,"Ġfre":6839,"enses":6840,"ĠhÃ©r":6841,"Ġseuil":6842,"Ġaggra":6843,"Ġcitoyenne":6844,"ĠengagÃ©":6845,"ington":6846,"ĠpiÃ¨ces":6847,"Ġrepris":6848,"Ġfortes":6849,"Ġmanifestement":6850,"App":6851,"Ġenj":6852,"dite":6853,"Ġmotifs":6854,"Ã©rir":6855,"Ġaspir":6856,"Ġrepos":6857,"Ġindic":6858,"Ġabsten":6859,"Ġmorale":6860,"Ġdangereuses":6861,"Ġalternatives":6862,"imb":6863,"main":6864,"Ġtes":6865,"Ġfoi":6866,"octroi":6867,"Ġpolitiquement":6868,"ĠBi":6869,"Ġadmettre":6870,"Ġsalaire":6871,"amendements":6872,"Ġoppos":6873,"ĠconsacrÃ©":6874,"Ġpermanent":6875,"ĠÃ©quilibrÃ©e":6876,"Ġargument":6877,"ĠsÃ©lection":6878,"Ġguerres":6879,"ĠdÃ©te":6880,"endrons":6881,"Ġhas":6882,"Ġserre":6883,"titudes":6884,"Ġterres":6885,"ĠAr":6886,"Ã¢te":6887,"Ġindique":6888,"ĠrÃ©gul":6889,"ĠconcrÃ¨te":6890,"Ġabouti":6891,"armement":6892,"Ġfallu":6893,"cÃ©es":6894,"Ġmorte":6895,"ĠCub":6896,"ĠPAC":6897,"Ġfuturs":6898,"Ġsuffisante":6899,"ĠbÃ©nÃ©ficient":6900,"Ã©mission":6901,"Ġintensi":6902,"otes":6903,"ye":6904,"itr":6905,"Ġadul":6906,"ĠTV":6907,"ĠGo":6908,"Ġcontrairement":6909,"ĠfrÃ¨re":6910,"ĠaccordÃ©e":6911,"ĠfixÃ©s":6912,"Ġutiles":6913,"Ġcontribuera":6914,"Ġsorti":6915,"Ġprononcer":6916,"Ġstrictes":6917,"ĠmÃ©decin":6918,"Ġsimilaire":6919,"Ġquinze":6920,"Ġrejoindre":6921,"Ex":6922,"Ã¨dent":6923,"Ġreb":6924,"ĠaccÃ©":6925,"ĠpÃ©troli":6926,"ĠappropriÃ©es":6927,"Ġstimuler":6928,"Ġdommages":6929,"ĠprivilÃ©gi":6930,"Ġrigou":6931,"aw":6932,"Ġsurvie":6933,"ĠconsidÃ¨rent":6934,"ĠconsidÃ©rations":6935,"Ã©rateurs":6936,"Ġdouani":6937,"ĠvÃ©rifier":6938,"Ġmodernisation":6939,"Ġrecettes":6940,"gences":6941,"ite":6942,"anes":6943,"agenda":6944,"Ġtrom":6945,"aindre":6946,"gnÃ©e":6947,"ĠclartÃ©":6948,"Ã®ner":6949,"ĠprÃ©sentent":6950,"ovine":6951,"ĠreprÃ©sentation":6952,"ĠapparaÃ®t":6953,"ĠprÃ©cÃ©dente":6954,"ĠHongrie":6955,"Ġpurement":6956,"mine":6957,"ĠÅĵu":6958,"Ġinn":6959,"Ġinad":6960,"Ġdevaient":6961,"Ġisol":6962,"Ġclimatiques":6963,"dÃ©mocrates":6964,"Ġexclusivement":6965,"ĠconstatÃ©":6966,"aus":6967,"Ġanniversaire":6968,"ĠAb":6969,"Ġvisas":6970,"Ġvoies":6971,"Ġinstitutionnel":6972,"ĠadoptÃ©s":6973,"ĠVI":6974,"interprÃ©":6975,"Ġcontributions":6976,"Ġremerciements":6977,"Ġquitter":6978,"lers":6979,"orcer":6980,"Ġrh":6981,"Ġexter":6982,"issue":6983,"Ã©rie":6984,"ĠrÃ©sistance":6985,"Ġparticuliers":6986,"Ġvisent":6987,"Ġpersonnelle":6988,"ĠprÃ©vues":6989,"Ġsouhaitable":6990,"ĠentraÃ®nÃ©":6991,"Ġbilan":6992,"Ġnaissance":6993,"LÃł":6994,"ball":6995,"Ġciel":6996,"Ġconne":6997,"agÃ©s":6998,"ĠCI":6999,"ĠdÃ©crit":7000,"ĠItalie":7001,"alimentation":7002,"Ġordinateur":7003,"ĠsecrÃ©taire":7004,"Ġkilom":7005,"jeuner":7006,"30":7007,"isÃ©e":7008,"Ġriv":7009,"Ġrares":7010,"Ġactif":7011,"Ġvide":7012,"certitude":7013,"ĠdÃ©veloppements":7014,"Ã¨ges":7015,"ĠrÃ©cents":7016,"Ġrefuse":7017,"approuve":7018,"ĠthÃ¨mes":7019,"Ġprogressivement":7020,"identitÃ©":7021,"Ġsilence":7022,"demn":7023,"ĠbarriÃ¨res":7024,"Ġlinguis":7025,"Aut":7026,"Ġord":7027,"environ":7028,"ĠaÃ©rop":7029,"ardi":7030,"orge":7031,"aul":7032,"Ġmange":7033,"ĠTom":7034,"Ġ196":7035,"ĠprÃ©voy":7036,"Ġscol":7037,"Ġtenue":7038,"ĠprÃ©cÃ©dents":7039,"ĠaffirmÃ©":7040,"ĠlimitÃ©e":7041,"ĠCongrÃ¨s":7042,"ĠprÃ©cÃ©demment":7043,"LE":7044,"Ġsauv":7045,"Ġprenne":7046,"Ġcoeur":7047,"ĠJohn":7048,"affaires":7049,"ĠcomplexitÃ©":7050,"oxy":7051,"Ġpatient":7052,"Ġracisme":7053,"Ġattentivement":7054,"Ġpromesse":7055,"Ġhypoth":7056,"Ġmicro":7057,"Ġrequiert":7058,"ĠremÃ©dier":7059,"Eur":7060,"ajus":7061,"lets":7062,"Ġenv":7063,"Ġchem":7064,"formes":7065,"ĠnÃ©gatif":7066,"Ġindire":7067,"Ġsoutiennent":7068,"ĠsÃ©rieuse":7069,"Ġdisponible":7070,"ĠÃ¢gÃ©es":7071,"ĠeffectuÃ©":7072,"ĠÃ©couter":7073,"ĠillÃ©gale":7074,"lifÃ©ration":7075,"Ġprendra":7076,"Entre":7077,"Ġsty":7078,"Ġrecourir":7079,"Ġdoig":7080,"ĠappliquÃ©es":7081,"Ġaccompag":7082,"ĠInde":7083,"Ġenvoyer":7084,"ĠintÃ©grer":7085,"ĠBerlin":7086,"Ġafricains":7087,"tiez":7088,"entra":7089,"Ġmens":7090,"ĠdÃ©ten":7091,"Ġinformer":7092,"Ġanc":7093,"ĠminoritÃ©":7094,"ĠdÃ©mocraties":7095,"intÃ©rÃªts":7096,"Ġbonheur":7097,"ĠOr":7098,"Ġsubstance":7099,"Ġdistinction":7100,"ĠengagÃ©s":7101,"OL":7102,"Ġbomb":7103,"Ġconforme":7104,"Ġdevriez":7105,"Ġcompati":7106,"umÃ©":7107,"ĠChinois":7108,"Ġmorce":7109,"Ġconvaincue":7110,"Ġpermanente":7111,"Ġusage":7112,"Ġlacunes":7113,"ĠmaÃ®tr":7114,"Ġmacro":7115,"Celui":7116,"urie":7117,"ĠÃ©par":7118,"ĠrÃ©ag":7119,"agÃ©es":7120,"roissement":7121,"Ġsuit":7122,"ell":7123,"ĠbasÃ©":7124,"Ġinstitutionnelle":7125,"Ã©conomique":7126,"Ġtentatives":7127,"Ġopposition":7128,"Ġprovenant":7129,"ĠXX":7130,"Ġlongues":7131,"Ġaffaibli":7132,"ĠtragÃ©die":7133,"GM":7134,"Is":7135,"ÃĬ":7136,"Ġconsenti":7137,"addam":7138,"Ġcroissant":7139,"Ġcontraintes":7140,"Ġagit":7141,"ĠdÃ©saccord":7142,"Ġobligation":7143,"Ġconscient":7144,"ĠdestinÃ©e":7145,"Ġoccidentale":7146,"ĠnumÃ©ro":7147,"instrument":7148,"lovaquie":7149,"lair":7150,"ĠÃ©largissement":7151,"Ġaccidents":7152,"Ã©riques":7153,"Ġsuivantes":7154,"ĠdÃ©cid":7155,"Ġjeunesse":7156,"ĠÃ©normes":7157,"Ġcontradi":7158,"Ġciviles":7159,"Ġmauvaises":7160,"Ġarticles":7161,"Ġphotos":7162,"Ġconviction":7163,"Ġcommuniquer":7164,"ĠsuÃ©dois":7165,"Ġinstallations":7166,"Etat":7167,"Ici":7168,"grer":7169,"Ġlever":7170,"ĠdÃ©rog":7171,"amour":7172,"ĠrÃ©sol":7173,"Ġrenvers":7174,"ĠcolÃ¨re":7175,"ĠÃ©levÃ©es":7176,"Ġmontagne":7177,"tifie":7178,"Ġimpliquer":7179,"Ġformulation":7180,"ĠuniversitÃ©s":7181,"Ġmagni":7182,"Ġprovoquer":7183,"ĠmathÃ©":7184,"ĠcatÃ©gories":7185,"ĠrÃ©digÃ©":7186,"ashington":7187,"ĠmÃ©moire":7188,"gÃ¨ne":7189,"honorable":7190,"vait":7191,"oul":7192,"Ã¨tent":7193,"Ġdure":7194,"Ġinond":7195,"ĠMont":7196,"Ġenthousias":7197,"Ġinclu":7198,"Ġcommencent":7199,"Ġnaturelle":7200,"casions":7201,"ĠsÃ»rs":7202,"ĠmÃ©pr":7203,"apprendre":7204,"ĠdÃ©finitive":7205,"ĠinÃ©galitÃ©s":7206,"ette":7207,"rop":7208,"Ã©vent":7209,"eront":7210,"undi":7211,"Ġtente":7212,"ĠdÃ©tri":7213,"ulsion":7214,"ĠParis":7215,"atel":7216,"Ġ31":7217,"Ġabsolue":7218,"ĠreÃ§oivent":7219,"Ġparfait":7220,"Ġpousser":7221,"attaquer":7222,"Fin":7223,"Ġaj":7224,"appui":7225,"ĠprÃ©te":7226,"ĠimpÃ´ts":7227,"Ġclandes":7228,"Ġoption":7229,"ĠappliquÃ©e":7230,"ĠWashington":7231,"Ġvolontaire":7232,"AF":7233,"Ġvent":7234,"aisons":7235,"ĠmonÃ©taires":7236,"Ġposent":7237,"Ġengager":7238,"Ġsignes":7239,"Ġmerc":7240,"Ġsoulever":7241,"Ġsurpris":7242,"ĠopportunitÃ©":7243,"Ġreligieux":7244,"ĠdÃ©clare":7245,"ĠdÃ©clarer":7246,"Ġpourcentage":7247,"Ã¨lement":7248,"Ġconventions":7249,"uite":7250,"Ġjustifie":7251,"ĠgarÃ§on":7252,"Ġprochains":7253,"ĠÃ©chouÃ©":7254,"ĠpÃ©riodes":7255,"Ġindivid":7256,"Ġautomatique":7257,"Ġmultipli":7258,"expliquer":7259,"Ġressortiss":7260,"Ġhasard":7261,"arch":7262,"Ġprends":7263,"ontr":7264,"astique":7265,"ĠÃ©pr":7266,"ossÃ©":7267,"Ġtriste":7268,"apes":7269,"alisÃ©es":7270,"duira":7271,"Ġ35":7272,"ĠrenforcÃ©":7273,"Ġreconnaissant":7274,"organiser":7275,"ĠrefusÃ©":7276,"ĠCuba":7277,"Ag":7278,"Ġer":7279,"Ġsages":7280,"Ġmol":7281,"Ġvot":7282,"Ġparc":7283,"Ġdevienne":7284,"lah":7285,"ĠlibÃ©ration":7286,"Parmi":7287,"Ġ%,":7288,"ĠrÃ©conc":7289,"ophob":7290,"Ġroutes":7291,"Ġaccomplis":7292,"Ġsouffrent":7293,"Ġchinoise":7294,"Ġchercheurs":7295,"Ġfroide":7296,"communic":7297,"ĠdÃ©triment":7298,"ectu":7299,"gin":7300,"gure":7301,"rans":7302,"orteur":7303,"Ġrecy":7304,"impose":7305,"Ġrestera":7306,"ĠdÃ©sÃ©quili":7307,"ĠgagnÃ©":7308,"Ġbataille":7309,"Ġadministrative":7310,"Ġdevenus":7311,"ĠÃ©laborer":7312,"ĠpÃ©titions":7313,"Ã¨tement":7314,"ĠÃ©cole":7315,"alcool":7316,"Ãªtres":7317,"Ġtransmettre":7318,"Ã©valuer":7319,"Ġ300":7320,"grants":7321,"ĠrÃ©comp":7322,"ĠimpliquÃ©s":7323,"ĠmÃ©l":7324,"disant":7325,"Ġurgence":7326,"ĠdÃ©montre":7327,"ĠÃ©quip":7328,"Ġarabes":7329,"Ã©pargne":7330,"ĠcafÃ©":7331,"wan":7332,"Ġparcour":7333,"Ġ29":7334,"Ġcraign":7335,"ronter":7336,"Ġexplique":7337,"Ġexistant":7338,"arriver":7339,"ĠrÃ©tablir":7340,"ĠBirmanie":7341,"Votre":7342,"ke":7343,"Ġflo":7344,"terre":7345,"ĠdÃ©couver":7346,"anglais":7347,"ĠadhÃ©":7348,"olique":7349,"Ġcharges":7350,"Ġstructurelles":7351,"Ġsoutenue":7352,"Ġaccomplir":7353,"ographiques":7354,"ĠachetÃ©":7355,"ilatÃ©rale":7356,"Ġsurprise":7357,"Ġpensions":7358,"athie":7359,"Ġpermettront":7360,"ĠnumÃ©rique":7361,"excell":7362,"ĠTVA":7363,"Ġfassent":7364,"Ġgasp":7365,"Ġ28":7366,"ĠdÃ©passe":7367,"Ã©cou":7368,"Ġoptions":7369,"Ġferai":7370,"ĠrÃ©gulation":7371,"ĠzÃ©ro":7372,"Ġhistoriques":7373,"Ġtexti":7374,"Ġpuissances":7375,"Ġestiment":7376,"OC":7377,"Ġdram":7378,"envis":7379,"Ġports":7380,"Ġence":7381,"ustra":7382,"membre":7383,"osc":7384,"Ġplantes":7385,"Ġinterdiction":7386,"ancienne":7387,"Ġdiplomatie":7388,"vres":7389,"vage":7390,"Ġdan":7391,"Ã¨tre":7392,"Ġenne":7393,"Ġplate":7394,"dition":7395,"Ġchat":7396,"Ġmoments":7397,"Ġtravaillons":7398,"Ġrecul":7399,"pule":7400,"Ġcharbon":7401,"essayer":7402,"ĠÃ©vÃ©nement":7403,"Ġconsacrer":7404,"Ġancien":7405,"ĠÃ©mo":7406,"ĠengagÃ©e":7407,"aque":7408,"org":7409,"Ġdrogues":7410,"Ġmarcher":7411,"guÃ©":7412,"ĠprÃ©sentÃ©s":7413,"Ġmettant":7414,"ĠdÃ©fend":7415,"Ġattent":7416,"ĠlÃ©gislations":7417,"ĠreflÃ©":7418,"ĠbrÃ»":7419,"ĠopposÃ©":7420,"ĠopposÃ©s":7421,"Ġprononc":7422,"Ġamener":7423,"ĠcÃ©lÃ¨bre":7424,"hier":7425,"voir":7426,"ensions":7427,"Ġprag":7428,"tÃ©n":7429,"ĠextrÃ©":7430,"ureau":7431,"geant":7432,"ĠAra":7433,"ĠdÃ©bar":7434,"Ġexplo":7435,"tination":7436,"Ġassistance":7437,"ĠpÃ©nale":7438,"ĠqualifiÃ©e":7439,"ĠconfirmÃ©":7440,"Ġcriminels":7441,"Chac":7442,"ĠmatÃ©riel":7443,"Ġcoordonner":7444,"ĠÃ®les":7445,"lue":7446,"Ã³":7447,"ortÃ©s":7448,"ĠfÃªte":7449,"Ġinforme":7450,"ataires":7451,"Ġcontacts":7452,"Ġ26":7453,"Ġcraintes":7454,"ĠfondÃ©":7455,"Ġformule":7456,"Ġatteinte":7457,"ĠtÃ©lÃ©communic":7458,"Ġfranch":7459,"Ġvenons":7460,"universitÃ©":7461,"Ġfoot":7462,"ĠsalariÃ©s":7463,"Objet":7464,"AD":7465,"lites":7466,"non":7467,"ots":7468,"uve":7469,"ÃŃ":7470,"ĠCela":7471,"Ġsurp":7472,"seurs":7473,"Ġserai":7474,"ĠÃ©tapes":7475,"ĠÃ©conomistes":7476,"Ġfondamentalement":7477,"Ġirlandaise":7478,"201":7479,"ĠLiban":7480,"Ġchaleureusement":7481,"Tel":7482,"Ġ)":7483,"ĠmÃ©diterranÃ©":7484,"lem":7485,"Ġramen":7486,"sification":7487,"Ġjoin":7488,"Ġpropag":7489,"Ġcoali":7490,"ĠBureau":7491,"angers":7492,"Ġstand":7493,"veloppe":7494,"ĠagrÃ©":7495,"emark":7496,"Ġfermer":7497,"Ġrisquent":7498,"attend":7499,"ormÃ©ment":7500,"Ġexplication":7501,"Ġenvironnemental":7502,"Ġdiscutons":7503,"Ġrefuser":7504,"ĠdÃ©pendent":7505,"orientation":7506,"Ġdictature":7507,"imbab":7508,"oquer":7509,"Ġmille":7510,"mets":7511,"Ġconnex":7512,"Ã©tendre":7513,"Ġutilisateurs":7514,"ĠVer":7515,"Ġsignature":7516,"ĠchargÃ©":7517,"Ġappeler":7518,"Ġtenus":7519,"ĠbÃ©nÃ©ficiaires":7520,"Ġallant":7521,"Ġvictime":7522,"Ġpolonais":7523,"Ġjeudi":7524,"ĠtempÃ©ra":7525,"Ġpalestinienne":7526,"Ġdynam":7527,"Ġmigr":7528,"Ġbienvenue":7529,"Ã´pital":7530,"Ġcre":7531,"ĠGen":7532,"Ġenseig":7533,"Ġtransparente":7534,"Ġimmob":7535,"ĠcritÃ¨re":7536,"achat":7537,"Ġvenue":7538,"Ġpartageons":7539,"Ġsimplifier":7540,"ĠBelgique":7541,"Ġsacri":7542,"Aucune":7543,"Ġambitions":7544,"ĠDanemark":7545,"OS":7546,"Ġpage":7547,"ester":7548,"Ġreviend":7549,"anda":7550,"Ġlieux":7551,"ĠLuxemb":7552,"ĠÃ©levÃ©e":7553,"Ġaffirmer":7554,"Ġjournal":7555,"Ġobservations":7556,"Ġapparemment":7557,"Ġcontrovers":7558,"infrastructure":7559,"ko":7560,"Ġduquel":7561,"aband":7562,"ĠMad":7563,"Åĵil":7564,"ĠrÃ©col":7565,"ĠexpliquÃ©":7566,"ĠlibÃ©ral":7567,"Ġsanction":7568,"Ġaffirme":7569,"ĠarrÃªtÃ©":7570,"mÃ©diaire":7571,"As":7572,"investi":7573,"Ġrecon":7574,"Ġgrandi":7575,"Europol":7576,"ĠmaniÃ¨res":7577,"intÃ©gr":7578,"ĠgÃ©nÃ©raux":7579,"Ġcontribuent":7580,"ĠÃ©normÃ©ment":7581,"Ġmoral":7582,"Ġdistance":7583,"Ġmodernes":7584,"ĠBaltique":7585,"Ġdiplomatique":7586,"Ġtemporaire":7587,"Ġvolume":7588,"Laissez":7589,"Ġdettes":7590,"isons":7591,"urb":7592,"orp":7593,"Ġray":7594,"siques":7595,"Ġprouver":7596,"Ġmette":7597,"ĠdÃ©cent":7598,"gnent":7599,"Ġconstructif":7600,"ĠrappelÃ©":7601,"ĠterminÃ©":7602,"Ġdommage":7603,"Ġrestructuration":7604,"ides":7605,"ints":7606,"Ġvillage":7607,"Ġtrente":7608,"Ġdiv":7609,"amÃ©ric":7610,"ĠSaddam":7611,"ĠaccordÃ©":7612,"Ġassure":7613,"Ġvieille":7614,"Ġentrepren":7615,"ĠfacilitÃ©":7616,"Ġspor":7617,"ĠidentitÃ©":7618,"ĠalliÃ©s":7619,"ĠLuxembourg":7620,"At":7621,"Heure":7622,"Tant":7623,"entique":7624,"Ġpont":7625,"Ġmourir":7626,"Ġdirai":7627,"trÃªme":7628,"Ġaccorde":7629,"Ġmanquer":7630,"Ġconfusion":7631,"pÃ©rÃ©":7632,"ĠKh":7633,"Ġrechercher":7634,"Ġoccasions":7635,"Ġlibrement":7636,"Ġindustriels":7637,"Ġdisparu":7638,"ĠportÃ©":7639,"Ġdossiers":7640,"Ġmusulman":7641,"ĠhandicapÃ©es":7642,"Ġtribunal":7643,"apprÃ©cie":7644,"ĠComitÃ©":7645,"genti":7646,"mann":7647,"Ġlai":7648,"urg":7649,"Ġauteurs":7650,"ĠrÃ©cip":7651,"isible":7652,"Ġinspe":7653,"Ġforum":7654,"iver":7655,"Ġmalade":7656,"ĠVan":7657,"lone":7658,"effort":7659,"tÃ©rieurs":7660,"ĠbÃ©nÃ©ficie":7661,"ĠconfrontÃ©e":7662,"Ġsemblait":7663,"Ġpatrim":7664,"oublions":7665,"Ġbrevets":7666,"ĠÃ©duc":7667,"ey":7668,"enn":7669,"tiÃ¨me":7670,"Ġajus":7671,"Ġfati":7672,"ĠdÃ©r":7673,"ĠdÃ©tÃ©ri":7674,"Ġplaintes":7675,"Ġchans":7676,"irait":7677,"ĠSommet":7678,"Ġarb":7679,"jeurs":7680,"Ġmajeurs":7681,"Ġvoudrions":7682,"ĠDo":7683,"ParallÃ¨lement":7684,"ĠbÃ©nÃ©fice":7685,"ĠprÃ©fÃ¨re":7686,"Ġconvaincus":7687,"Ġbateau":7688,"Ġincontest":7689,"fait":7690,"ouff":7691,"tier":7692,"chÃ©e":7693,"ffaires":7694,"mblement":7695,"Ġformer":7696,"ĠdÃ©battons":7697,"Ġgarantit":7698,"ĠrÃ©cla":7699,"rasser":7700,"Ġmultination":7701,"Ġfiscaux":7702,"Ġprudence":7703,"Ġtendances":7704,"Ġsoumise":7705,"ougosl":7706,"Compte":7707,"meurs":7708,"Ġremet":7709,"itÃ©e":7710,"Ġsurven":7711,"Ġdiagn":7712,"vidence":7713,"ĠSlovaquie":7714,"intÃ©grer":7715,"Ġdurables":7716,"Ġcourse":7717,"inclusion":7718,"Ġsentiments":7719,"ĠformulÃ©es":7720,"Ġhautement":7721,"ĠoubliÃ©":7722,"Ġsoyez":7723,"Ġtribunaux":7724,"gleterre":7725,"AS":7726,"ĠcÃ©lÃ©":7727,"Ġmine":7728,"oriste":7729,"ĠÃ©larg":7730,"citement":7731,"viendra":7732,"Ġcampagnes":7733,"Ġcivilisation":7734,"ĠprovoquÃ©":7735,"ĠmÃ©decins":7736,"Ġobservateurs":7737,"Telle":7738,"usage":7739,"ĠrÃ©form":7740,"ativitÃ©":7741,"lÃ©naire":7742,"ĠDar":7743,"iliers":7744,"Ġbiodi":7745,"Ġjuger":7746,"ĠprÃ©cises":7747,"Ġmanifeste":7748,"Ġofficielle":7749,"Ġtableau":7750,"Ġfabric":7751,"adaptation":7752,"Ġstimul":7753,"Ġcontenter":7754,"Ġethniques":7755,"ĠMacÃ©d":7756,"cycle":7757,"ĠbiodiversitÃ©":7758,"kistan":7759,"Ġlou":7760,"Ġvrais":7761,"Ġparlent":7762,"ĠprÃ©sentÃ©es":7763,"Ġtenant":7764,"alestine":7765,"Ġcouvrir":7766,"ĠÃ©laborÃ©":7767,"ĠÃ©crite":7768,"Ġjugement":7769,"Ġmultiples":7770,"Ġrapprocher":7771,"Ġagi":7772,"ĠmÃ¨ne":7773,"Ġremis":7774,"Ġtromp":7775,"ĠPalestine":7776,"ĠsoulÃ¨ve":7777,"Ġviable":7778,"Ã©cri":7779,"ribuer":7780,"ĠnÃ©gative":7781,"ĠKar":7782,"ĠespÃ¨re":7783,"Ġviolences":7784,"ĠinformÃ©s":7785,"Ġfrag":7786,"ribution":7787,"Ġrarement":7788,"donÃ©":7789,"ly":7790,"Ġdos":7791,"arra":7792,"aritÃ©s":7793,"ith":7794,"Ġtonnes":7795,"sives":7796,"aution":7797,"tÃ©ralement":7798,"auto":7799,"gici":7800,"ĠNice":7801,"tionnellement":7802,"Ġrecommande":7803,"Ġconstante":7804,"Ġcollective":7805,"Ġsurveiller":7806,"Ġressembl":7807,"ĠÃ©labor":7808,"affirmer":7809,"Ġfroid":7810,"Ġsinon":7811,"Ġintellectuelle":7812,"Ġsyndicats":7813,"ĠnÃ©erlandais":7814,"dans":7815,"ĠmÃ¨tres":7816,"astri":7817,"onnÃ©s":7818,"Ġentour":7819,"micycle":7820,"ĠdÃ©cÃ¨s":7821,"raini":7822,"Ġbiologique":7823,"Ġexiger":7824,"Ġchacune":7825,"Ġsortie":7826,"Ġtraditions":7827,"Ġattaque":7828,"Ġjournaux":7829,"Ġsexuelle":7830,"Ġtraduit":7831,"Ġcoalition":7832,"ĠcÃ©lÃ©b":7833,"tification":7834,"Ġeau":7835,"ĠconcrÃ©ti":7836,"Ġrecueil":7837,"Ġaim":7838,"ĠrespectÃ©":7839,"instauration":7840,"Ġparvenu":7841,"Ġprofondes":7842,"Ġislamique":7843,"ĠFranÃ§":7844,"ĠVIH":7845,"ĠtÃ©lÃ©communications":7846,"ĠsÅĵur":7847,"ars":7848,"Ġtuer":7849,"cidence":7850,"respons":7851,"ĠSol":7852,"ĠTunis":7853,"Ġculturelles":7854,"Ġrespectent":7855,"Ġallou":7856,"Ġtombe":7857,"Ġbattre":7858,"Ġplacer":7859,"Ġindividuels":7860,"ĠsystÃ©matiquement":7861,"Ġerron":7862,"Ã©mer":7863,"istr":7864,"illÃ©":7865,"ĠÃ©man":7866,"Ġtoucher":7867,"Ġconcret":7868,"istons":7869,"Ġferons":7870,"Ġsubir":7871,"Ġlocale":7872,"Ġlogici":7873,"Ġfaillite":7874,"Ġinterinstitutionnel":7875,"Ġressortissants":7876,"Ġpatrimoine":7877,"nam":7878,"Ġsois":7879,"ĠdÃ©jeuner":7880,"ĠrÃ©duite":7881,"Ġconcevoir":7882,"Ġsupr":7883,"Ġ...":7884,"Ġcroit":7885,"ĠopÃ©rateurs":7886,"ĠÃ©car":7887,"endues":7888,"ĠespÃ¨ce":7889,"ĠappliquÃ©":7890,"Ġouvre":7891,"Ġsensib":7892,"ĠpÃ©nal":7893,"Ġjudiciaires":7894,"oiseaux":7895,"ĠLibye":7896,"Ġconsolidation":7897,"excellent":7898,"opportunitÃ©":7899,"Ġvacances":7900,"RÃ©":7901,"ano":7902,"Ġem":7903,"ĠprÃ©cieux":7904,"ĠposÃ©e":7905,"olitique":7906,"Ġabsurde":7907,"ĠdÃ©cisionne":7908,"ĠlÃ©giti":7909,"ĠavancÃ©s":7910,"Ġconfirme":7911,"clav":7912,"Ġabandonner":7913,"Ġespagnole":7914,"Ġreligieuses":7915,"mosphÃ¨re":7916,"astricht":7917,"assion":7918,"ĠparallÃ¨":7919,"Ġplur":7920,"Ġtraduire":7921,"blic":7922,"ĠAu":7923,"ĠfaÃ§ons":7924,"ĠdÃ©mographique":7925,"ĠdÃ©ses":7926,"Ġindiquer":7927,"Ġcommunications":7928,"ĠgÃ©ographique":7929,"Ġpieds":7930,"ĠZimbab":7931,"ĠMaastricht":7932,"ĠprÃ©texte":7933,"ougoslavie":7934,"Celle":7935,"quait":7936,"Ġfen":7937,"ĠfossÃ©":7938,"illi":7939,"Ġconj":7940,"dev":7941,"Ġavoc":7942,"Ġpare":7943,"ĠentrÃ©e":7944,"Ġrapproche":7945,"Ã´tre":7946,"Ġcommet":7947,"Ġterrible":7948,"ĠexposÃ©":7949,"Ġreprodu":7950,"Ġorganiser":7951,"ĠTraitÃ©s":7952,"ĠsuÃ©doise":7953,"Ġlicenci":7954,"effondrement":7955,"Ã©limination":7956,"occupation":7957,"ÃĬtes":7958,"car":7959,"eb":7960,"kin":7961,"ĠUn":7962,"Ġpair":7963,"ini":7964,"inv":7965,"Ġunion":7966,"rob":7967,"autom":7968,"isez":7969,"ĠLitu":7970,"ĠEspagne":7971,"Ġpassent":7972,"Ġpassant":7973,"ĠtotalitÃ©":7974,"Ġdoub":7975,"ĠWal":7976,"ĠsuscitÃ©":7977,"Ġdestination":7978,"Ġconcentration":7979,"Ġexcessive":7980,"Ġsusceptible":7981,"chitecture":7982,"Afin":7983,"Ã©lab":7984,"acqu":7985,"accident":7986,"Ġexception":7987,"Ġterrib":7988,"Ġamus":7989,"Ġagence":7990,"Ġ2012":7991,"Ġprofondeur":7992,"autorisation":7993,"ĠcitoyennetÃ©":7994,"Ġrecycl":7995,"Aux":7996,"Ġpun":7997,"ĠrÃ©d":7998,"Ġgenti":7999,"Ġilli":8000,"ĠexcÃ©d":8001,"Ġcontamin":8002,"Ġpuissant":8003,"ĠSa":8004,"Ġattra":8005,"ĠarrivÃ©s":8006,"ĠgravitÃ©":8007,"ĠdÃ©penser":8008,"Ġrempli":8009,"Ġinvestissement":8010,"Ġcontradiction":8011,"Ġsimul":8012,"ĠdÃ©couvrir":8013,"Ġcompensation":8014,"Ġpoursuit":8015,"ĠEuropÃ©enne":8016,"ĠMacÃ©doine":8017,"Soy":8018,"ga":8019,"stitu":8020,"Ġ[":8021,"Ġlentement":8022,"Ġsatel":8023,"ailles":8024,"ĠrÃ©sid":8025,"Ġrecti":8026,"Ġprofi":8027,"dication":8028,"Ġchaud":8029,"ĠchrÃ©tiens":8030,"Ġcompassion":8031,"ĠBen":8032,"Ġtiennent":8033,"atisation":8034,"Ġ1994":8035,"Ġclients":8036,"Ġessayons":8037,"ĠfiscalitÃ©":8038,"registre":8039,"ĠtolÃ©rance":8040,"Ġnavig":8041,"ĠTchÃ©t":8042,"Ġpierre":8043,"Ġtrompe":8044,"mÃ©s":8045,"Ġmass":8046,"ĠÃ©tique":8047,"avance":8048,"Ġarme":8049,"Ġdangereuse":8050,"Ġfaiblesse":8051,"ĠspÃ©cul":8052,"Ġlende":8053,"angi":8054,"sifs":8055,"Ġdict":8056,"Ġjeter":8057,"Ġexam":8058,"dÃ©rale":8059,"ĠdurabilitÃ©":8060,"ĠsÃ»rement":8061,"attra":8062,"Ġridi":8063,"Ġsciences":8064,"Ġinstamment":8065,"ĠexaminÃ©":8066,"Ġuniversel":8067,"Ġartifici":8068,"ĠÃ©coutÃ©":8069,"Ġignorer":8070,"Ġfeuille":8071,"Ġclarifier":8072,"ĠÃ©largie":8073,"ĠkilomÃ¨tres":8074,"ĠrÃ©ve":8075,"Ġchauff":8076,"Ġaveug":8077,"exer":8078,"Ġaid":8079,"Ġbibli":8080,"Ġcombusti":8081,"Ġsignificatif":8082,"ĠprÃ©tend":8083,"ĠtouchÃ©s":8084,"Ġfondement":8085,"Ġinjusti":8086,"Autrement":8087,"ĠsouhaitÃ©":8088,"ĠdÃ©favoris":8089,"Autriche":8090,"Ġdangers":8091,"Ġpert":8092,"tiers":8093,"aspect":8094,"ĠMold":8095,"Ġmeurent":8096,"Ġharmonisation":8097,"exception":8098,"Ã©cus":8099,"Ġfrus":8100,"Ġretrouve":8101,"ĠprÃ©fÃ©rÃ©":8102,"Ġadministration":8103,"ĠinquiÃ©tude":8104,"ĠprocÃ©dÃ©":8105,"ĠmÃ©decine":8106,"Ġitalien":8107,"Ġcollaborer":8108,"ĠboÃ®":8109,"interprÃ©tation":8110,"entends":8111,"Ġdivision":8112,"peau":8113,"Ġadresser":8114,"Ġmini":8115,"Ġvisa":8116,"Ġrenforce":8117,"occuper":8118,"tisme":8119,"acheter":8120,"Ġpanne":8121,"Ġobjets":8122,"Ġprimordial":8123,"ĠbÃ©bÃ©":8124,"ĠMinistre":8125,".-":8126,"IC":8127,"Ġforts":8128,"activ":8129,"ocÃ©":8130,"institution":8131,"fini":8132,"Ġcartes":8133,"Ġtiss":8134,"Ġrenoncer":8135,"ologues":8136,"Ġsupporter":8137,"Ġcapitalisme":8138,"ĠprÃªter":8139,"Ġdirigeant":8140,"ĠsiÃ¨cles":8141,"Ġsurprenant":8142,"ĠfÃ©min":8143,"Ġquasiment":8144,"Ġx":8145,"Ġpension":8146,"argu":8147,"itage":8148,"Ġenn":8149,"ĠÃ©gal":8150,"Ġdiffusion":8151,"ĠDav":8152,"Ġproposons":8153,"Ġarrivent":8154,"ĠarrivÃ©e":8155,"urrence":8156,"ĠprÃ©occupe":8157,"ĠdiplÃ´":8158,"Ġmagas":8159,"ĠRome":8160,"Ġtroubles":8161,"Ġstabilisation":8162,"ĠÃ©liminer":8163,"ĠUnies":8164,"Ġmagnifique":8165,"ocÃ©an":8166,"%.":8167,"OR":8168,"cop":8169,"lot":8170,"Ġtas":8171,"Ġunani":8172,"ĠdÃ©truire":8173,"Ġparal":8174,"Ġbaisser":8175,"ositÃ©":8176,"agisse":8177,"Ġimparti":8178,"oct":8179,"extension":8180,"Ġinterdit":8181,"Ġrestaur":8182,"Ġcourte":8183,"ĠinformÃ©":8184,"Internet":8185,"Ġflot":8186,"Ġcondamner":8187,"Ġindispensables":8188,"Ġdimensions":8189,"Ġoctroy":8190,"Ġcroyons":8191,"Ġapprofondie":8192,"Ġsatisfaisante":8193,"ĠgÃ©nÃ©tiquement":8194,"Ã©laborer":8195,"citer":8196,"Ġlancement":8197,"Ġvues":8198,"ouvons":8199,"ĠimposÃ©es":8200,"ĠconstituÃ©":8201,"alib":8202,"Ġpromet":8203,"effectu":8204,"Ġcombler":8205,"Lorsqu":8206,"Ġcomparaison":8207,"Ġordinaires":8208,"animaux":8209,"Ġconsolider":8210,"Ġlabor":8211,"ĠrÃ©cipro":8212,"SV":8213,"gen":8214,"hol":8215,"hyp":8216,"ieux":8217,"rain":8218,"Ġloy":8219,"rid":8220,"Ġgel":8221,"Ġimpose":8222,"Ã©normes":8223,"Ã©rap":8224,"ĠassistÃ©":8225,"Ġbrill":8226,"Ġobserver":8227,"Ġanticip":8228,"Quelqu":8229,"Ġraconter":8230,"Ġespoirs":8231,"Ġbrevet":8232,"ĠimpÃ©ratif":8233,"ĠscÃ©nario":8234,"Ġdiagnosti":8235,"vrer":8236,"oub":8237,"Ġquarti":8238,"ome":8239,"ĠrÃ©actions":8240,"Ġnett":8241,"Ġexister":8242,"extrÃªme":8243,"ĠdÃ©passer":8244,"imposition":8245,"ĠconsidÃ©rÃ©s":8246,"olie":8247,"Ġcommentaire":8248,"Ġrapides":8249,"Ġrivi":8250,"Ġhumanitaires":8251,"ĠspÃ©cifiquement":8252,"ĠÃ©crire":8253,"ĠnommÃ©":8254,"Ġplanification":8255,"ĠaÃ©roports":8256,"ĠLituanie":8257,"rits":8258,"ua":8259,"uie":8260,"enregistre":8261,"Ġrub":8262,"rapp":8263,"ĠBlair":8264,"Ġautrich":8265,"Ã©rale":8266,"ĠmontÃ©e":8267,"Ġgrandement":8268,"Ġsubvention":8269,"Ġfonctionnent":8270,"ĠdÃ©cisif":8271,"Ġimplications":8272,"Ġanimal":8273,"Ġ75":8274,"Ġfermeture":8275,"Ġcouvre":8276,"piration":8277,"Ġfructu":8278,"accompag":8279,"ĠDoha":8280,"ER":8281,"prÃ©s":8282,"oure":8283,"Ġsond":8284,"Ġmuni":8285,"omin":8286,"Ġjamb":8287,"ĠconÃ§u":8288,"ĠMe":8289,"avions":8290,"ĠhÃ©s":8291,"ĠdÃ©plor":8292,"Ġmaintes":8293,"Ġoral":8294,"experts":8295,"Ġsubi":8296,"Ġsignifier":8297,"Ġretourner":8298,"ĠcondamnÃ©":8299,"ĠSuisse":8300,"Ouest":8301,"Ġorgane":8302,"Ġfrontali":8303,"ĠcinquiÃ¨me":8304,"ĠTunisie":8305,"honneur":8306,"atures":8307,"ommage":8308,"pec":8309,"Ġperp":8310,"exig":8311,"ĠRusses":8312,"ĠcarriÃ¨re":8313,"ĠLi":8314,"Ġpublication":8315,"Ġrespectu":8316,"Ġdouleur":8317,"ĠpÃ©riph":8318,"Ġcharte":8319,"Ġpoursuiv":8320,"atrices":8321,"Ġvoulaient":8322,"Ġcouleur":8323,"ĠexprimÃ©es":8324,"Ġsexe":8325,"ĠColomb":8326,"ĠenquÃªtes":8327,"Ġinnoc":8328,"Chacun":8329,"Ġbiblioth":8330,"Ac":8331,"bie":8332,"mÃ©t":8333,"Ġparviend":8334,"ressions":8335,"Ġprovis":8336,"Ġdevions":8337,"Ġapport":8338,"Ġtiendra":8339,"ĠNo":8340,"ĠempÃªche":8341,"ĠrÃ©sulte":8342,"ĠrÃ©former":8343,"Ġparticipants":8344,"Ġculturels":8345,"ĠmodifiÃ©":8346,"ĠsÃ©rieuses":8347,"ĠrevÃª":8348,"Ġbureaux":8349,"Ġ150":8350,"Ġestimations":8351,"indivi":8352,"ĠsÃ»retÃ©":8353,"ozy":8354,"Ġsurvivre":8355,"Im":8356,"Ã¤":8357,"envoyer":8358,"Ġcos":8359,"Ġnul":8360,"celone":8361,"ageux":8362,"Ġhoriz":8363,"ĠprÃ©cip":8364,"lÃ¨vement":8365,"ĠDi":8366,"Ġadopte":8367,"Ġnulle":8368,"ĠcÃ´te":8369,"Ġlaissez":8370,"hip":8371,"ĠcrÃ©dible":8372,"ĠÃ©lectroniques":8373,"arkozy":8374,"ĠZimbabwe":8375,"Ġdesque":8376,"Ġbour":8377,"Ġquiconque":8378,"Ġconvers":8379,"ĠPe":8380,"ĠmarquÃ©":8381,"extra":8382,"ĠTi":8383,"ĠrÃ¨gne":8384,"ĠÃ©cologiques":8385,"ĠnÃ©gatives":8386,"ĠdÃ©solÃ©":8387,"aye":8388,"Ġtechnologiques":8389,"Ã¯n":8390,"lore":8391,"tÃ©ritÃ©":8392,"haus":8393,"ĠdÃ©taillÃ©e":8394,"Ġcontrat":8395,"Ġcomportements":8396,"ĠmatÃ©riaux":8397,"Ġbancaires":8398,"oudan":8399,"Ġconservateurs":8400,"ajustement":8401,"Finalement":8402,"ĠdÃ©sÃ©quilibres":8403,"Ġmassac":8404,"Ġlendemain":8405,"ski":8406,"Ġchasse":8407,"avÃ©rer":8408,"ands":8409,"ĠÃ©tendre":8410,"Ġpersonnelles":8411,"Ġmesurer":8412,"ĠprÃ©visions":8413,"ĠspÃ©ciale":8414,"Ġcorrecte":8415,"ĠexpÃ©riment":8416,"Ġapplicables":8417,"laud":8418,"ste":8419,"Ġsit":8420,"ĠÃ©ducation":8421,"ĠocÃ©":8422,"ĠÃ©gards":8423,"ensez":8424,"lub":8425,"dÃ©bat":8426,"Ġfiscal":8427,"ĠMaroc":8428,"aviation":8429,"Ġcollecte":8430,"ĠdÃ©montrer":8431,"ĠquantitÃ©s":8432,"Ġaboutir":8433,"Ġdiscipline":8434,"Ġtransatlantique":8435,"ling":8436,"Ġmou":8437,"audi":8438,"ĠingÃ©":8439,"iront":8440,"ulaires":8441,"ĠprÃ©m":8442,"Ã©nophob":8443,"Ã©cart":8444,"Ġformid":8445,"Ġtire":8446,"Ġcolon":8447,"ĠEst":8448,"Ġmonter":8449,"Ġ194":8450,"Alliance":8451,"Ġnoter":8452,"Ġappelons":8453,"ĠfÃ©licitations":8454,"ĠdisparaÃ®tre":8455,"Ġordinateurs":8456,"Ġtraitements":8457,"Ġbelge":8458,"ĠÃ©vidente":8459,"AutoritÃ©":8460,"ĠconcrÃ©tiser":8461,"ĠxÃ©nophob":8462,"99":8463,"Pouvez":8464,"laire":8465,"Ġrav":8466,"estes":8467,"abou":8468,"ordanie":8469,"Ġmaisons":8470,"Ġinscrit":8471,"Ġrelancer":8472,"ĠmortalitÃ©":8473,"Ġvenez":8474,"ĠBarcelone":8475,"Ġrejette":8476,"ĠÃ©mergents":8477,"Ġenregistre":8478,"Ġaffect":8479,"Ġprioritaires":8480,"Ġphilosophie":8481,"Ġinondations":8482,"Ġjoindre":8483,"CS":8484,"Contr":8485,"Nombre":8486,"oo":8487,"ino":8488,"itar":8489,"Ġdue":8490,"Ġproje":8491,"ppe":8492,"ago":8493,"cessions":8494,"Ġservent":8495,"Ġmargin":8496,"Ġpouvant":8497,"ĠrÃ©pÃ©tÃ©":8498,"atisme":8499,"Ġ400":8500,"Ġparticipent":8501,"ĠsÃ©jour":8502,"aura":8503,"chÃ©nie":8504,"ĠdÃ©gra":8505,"Ġobtenus":8506,"Outre":8507,"ĠÃ©ventuellement":8508,"actualitÃ©":8509,"Ġprotectionnisme":8510,"Ġadultes":8511,"ĠTchÃ©tchÃ©nie":8512,"zar":8513,"ĠUne":8514,"Ġflu":8515,"ĠPSE":8516,"Ġavance":8517,"Ġappuy":8518,"Ġnomin":8519,"Ġcrainte":8520,"ĠtirÃ©":8521,"Ã®le":8522,"Ġsavais":8523,"Ġgars":8524,"Ġconnue":8525,"efforts":8526,"ĠOGM":8527,"Ġprovin":8528,"Ġconstatons":8529,"Ġprenant":8530,"ĠaÃ©rienne":8531,"roÃ®t":8532,"Ġvalable":8533,"Ġmobiliser":8534,"Ġrentrer":8535,"Ġquotidienne":8536,"Ġsatisfaits":8537,"ĠcomplÃ©mentaires":8538,"Ġrassembler":8539,"ĠbilatÃ©raux":8540,"Ġbulle":8541,"ĠprÃ©judi":8542,"ĠrÃ©solus":8543,"Ġfootball":8544,"Ġgagn":8545,"Ġdigne":8546,"aph":8547,"obb":8548,"ĠdÃ©mission":8549,"Ġchauss":8550,"Ġentrepris":8551,"Ġinclus":8552,"ĠspÃ©cialement":8553,"Ġpointe":8554,"session":8555,"ĠÃ©tabl":8556,"ĠindÃ©pendance":8557,"Ġfixe":8558,"approuver":8559,"Ġdistor":8560,"Ġdevoirs":8561,"ESB":8562,"ĠpossÃ¨dent":8563,"esse":8564,"Ã©lor":8565,"onge":8566,"opor":8567,"Ġbran":8568,"Ġregr":8569,"avancer":8570,"aill":8571,"ĠinsistÃ©":8572,"ĠforÃªt":8573,"Ġtransmis":8574,"Ġcroient":8575,"Ġmontants":8576,"Ġaffi":8577,"Ġprofits":8578,"Ġutilisons":8579,"Ġpharm":8580,"ctuellement":8581,"Ġaffirm":8582,"ĠratifiÃ©":8583,"ĠcompliquÃ©":8584,"Ġvigil":8585,"Ġterritoriale":8586,"Ġflotte":8587,"EI":8588,"Ġcouverture":8589,"Ġenvie":8590,"Ġjui":8591,"riques":8592,"roits":8593,"ulÃ©":8594,"gile":8595,"Encore":8596,"Ġdomes":8597,"Ġagents":8598,"ĠdÃ©mocratisation":8599,"illages":8600,"importantes":8601,"Ġretards":8602,"sraÃ©li":8603,"ĠprÃ©fÃ©rable":8604,"instabilitÃ©":8605,"Ġfusion":8606,"Quelques":8607,"Ġoccupe":8608,"Ġ1980":8609,"Ġtraduction":8610,"ĠrÃ©vÃ©lÃ©":8611,"Ġsauvetage":8612,"ĠmÃ©nages":8613,"Ġdeviendra":8614,"Heureusement":8615,"currence":8616,"ĠĊ":8617,"inverse":8618,"aler":8619,"acquis":8620,"Ã§a":8621,"Ġrenv":8622,"Ġpartagent":8623,"ĠlÃ©gÃ¨rement":8624,"ĠnÃ©gatifs":8625,"Ġfaisaient":8626,"Ġdonnera":8627,"ĠappelÃ©e":8628,"Ã©levage":8629,"Ġspati":8630,"investissements":8631,"ĠconcrÃ¨tement":8632,"ĠassociÃ©s":8633,"ĠadÃ©quat":8634,"inquiÃ©tude":8635,"Ġbateaux":8636,"nis":8637,"Ġpluri":8638,"ĠimprÃ©":8639,"viens":8640,"ĠrÃ©sumÃ©":8641,"Ġtitres":8642,"Ġrenf":8643,"Ã¢che":8644,"Ġcamps":8645,"Ġsolides":8646,"ĠrÃ©glementaire":8647,"akh":8648,"ĠprÃ©cÃ©dentes":8649,"Ġveille":8650,"Ġsouffre":8651,"ĠInter":8652,"Ġmessages":8653,"ĠsignalÃ©":8654,"ĠtransfrontaliÃ¨re":8655,"Regarde":8656,"Ġethnique":8657,"ĠhÃ©las":8658,"ĠrelÃ¨vent":8659,"aggra":8660,"ogle":8661,"aturellement":8662,"ariats":8663,"Ġportes":8664,"atriÃ¨mement":8665,"Ġcercle":8666,"Ġemployeurs":8667,"ĠfrappÃ©":8668,"ĠamenÃ©":8669,"ĠrÃ©conciliation":8670,"Ġom":8671,"incertitude":8672,"Ġfit":8673,"Ġbande":8674,"itÃ©es":8675,"ĠcessÃ©":8676,"Ġdirects":8677,"gnÃ©s":8678,"Ġdonnant":8679,"ĠNiger":8680,"Ġinciter":8681,"ĠintÃ©ressantes":8682,"Ġsecondes":8683,"Ġinviter":8684,"Ġdisparition":8685,"Ġchinoises":8686,"aÃ¯ti":8687,"ĠUkraine":8688,"ĠCette":8689,"Ġambigu":8690,"Ġsaurait":8691,"Ġreligieuse":8692,"Ġleadership":8693,"ĠintÃ©grante":8694,"Ġsagesse":8695,"ĠFranÃ§ais":8696,"jac":8697,"Ã©vidence":8698,"Ġnorme":8699,"ĠMM":8700,"Ġnomination":8701,"ĠdÃ©ploi":8702,"Ġadmis":8703,"Ġvoudrait":8704,"ĠDub":8705,"ĠsÃ©p":8706,"Ġatteints":8707,"Ġtourne":8708,"Ġexplications":8709,"Ġtenons":8710,"Ġanimale":8711,"Ġfabrication":8712,"Ġtorture":8713,"ĠaccÃ©lÃ©rer":8714,"Ġmultinationales":8715,"Se":8716,"esc":8717,"Ã¨ques":8718,"Ġparviennent":8719,"ĠPh":8720,"ĠMich":8721,"Ġsocio":8722,"Ġtravaillant":8723,"ĠNon":8724,"Ġassister":8725,"Ġattach":8726,"exprime":8727,"Ġsuivants":8728,"Ġcherchent":8729,"Ġouvertement":8730,"ĠestimÃ©":8731,"ĠassurÃ©ment":8732,"Ġuniforme":8733,"Ġprogressive":8734,"Ġralentissement":8735,"Ġmerveilleux":8736,"argo":8737,"Ġplafond":8738,"Ġattentats":8739,"four":8740,"ya":8741,"Ġsaine":8742,"anou":8743,"Ġtap":8744,"ĠrÃ©ac":8745,"mping":8746,"ensitÃ©":8747,"Ġcho":8748,"ĠtouchÃ©":8749,"ĠavÃ©rÃ©":8750,"Ġdevise":8751,"Ġappui":8752,"ĠSarkozy":8753,"Ġpouvions":8754,"ĠGol":8755,"Ġrestaurer":8756,"Ġremise":8757,"Ã©conomiques":8758,"Ġterroriste":8759,"ĠtuÃ©":8760,"Ġeffective":8761,"Ġpoursuivi":8762,"Ġsolaire":8763,"Ġconcepts":8764,"gestions":8765,"Ġdivergences":8766,"ĠsÃ©paration":8767,"Ġleader":8768,"Ġissue":8769,"Ġweb":8770,"ĠcomplÃ©ter":8771,"euillez":8772,"ĠDÃ©putÃ©s":8773,"Ã©mergence":8774,"Actuellement":8775,"Hier":8776,"nels":8777,"cieuse":8778,"radi":8779,"Ġchanti":8780,"ouvre":8781,"Ġsuici":8782,"Ġavion":8783,"ĠAffaires":8784,"ĠDonc":8785,"Ġdemandeurs":8786,"ĠdÃ©finis":8787,"Ġcible":8788,"Ġstructurelle":8789,"Ġtransferts":8790,"Ġconservation":8791,"Ġjudicieux":8792,"ĠprÃ©pare":8793,"Ġcorriger":8794,"ĠforcÃ©ment":8795,"ĠVerh":8796,"intÃ©gritÃ©":8797,"IN":8798,"Naturellement":8799,"ĠsÃ©cur":8800,"ĠÃ©mis":8801,"Ġindu":8802,"chnolo":8803,"Ġdevises":8804,"avion":8805,"apacitÃ©":8806,"Ġmarquer":8807,"aceu":8808,"ĠTib":8809,"Ġsavait":8810,"Ġincendi":8811,"Ġcheve":8812,"Ġimmense":8813,"Ġexigent":8814,"Ġvoterons":8815,"arrivÃ©e":8816,"oppose":8817,"Ġpotentiellement":8818,"ĠministÃ¨re":8819,"Ġprenez":8820,"Ġtransfrontaliers":8821,"Ġpuissants":8822,"ĠimmigrÃ©s":8823,"ĠfÃ©dÃ©rale":8824,"Ġsouffrance":8825,"ĠrhÃ©t":8826,"ĠdÃ©barrasser":8827,"rapporteur":8828,"mir":8829,"ĠQ":8830,"Ġoiseaux":8831,"Ġfossi":8832,"Ġineffic":8833,"ouvant":8834,"Ġheur":8835,"onnÃ©es":8836,"Ġinsiste":8837,"ĠrÃ©putation":8838,"vergure":8839,"ĠHusse":8840,"Ġfiables":8841,"Ġaccepte":8842,"Ġobligatoires":8843,"Ġgrosse":8844,"Ġsuggestions":8845,"Ġfigurent":8846,"Ġsouviens":8847,"ĠÃ©ventuelle":8848,"Ġlourde":8849,"Ġgrecque":8850,"Ġvendredi":8851,"Ġprocure":8852,"Ġimpatience":8853,"Ġchanson":8854,"exercer":8855,"Contrairement":8856,"ET":8857,"toi":8858,"estim":8859,"entrer":8860,"ĠlevÃ©e":8861,"Ġventes":8862,"opÃ©ration":8863,"ĠCo":8864,"ĠPN":8865,"Ġsoul":8866,"ĠSte":8867,"ĠgÃ©noci":8868,"Ġfranc":8869,"ĠDans":8870,"Ġmines":8871,"Ġdouze":8872,"Ġsuffisantes":8873,"ĠcompÃ©titive":8874,"Ġpotentiels":8875,"Ġoccuper":8876,"Ġturc":8877,"Ġsoumises":8878,"gentine":8879,"Ġrecyclage":8880,"Ġunanime":8881,"Ġsitue":8882,"sraÃ©liens":8883,"ĠHussein":8884,"alise":8885,"rig":8886,"Ġbac":8887,"Ġbelles":8888,"ĠrÃ©tic":8889,"ola":8890,"ĠavancÃ©":8891,"cesseur":8892,"Ġentamer":8893,"ocu":8894,"occurrence":8895,"Ġappels":8896,"ĠarrÃªt":8897,"ĠcrÃ©ant":8898,"Ġreport":8899,"ĠFis":8900,"ĠconsidÃ©rant":8901,"Ġaffronter":8902,"Ġconstitutionnelle":8903,"Ġdouce":8904,"ĠcherchÃ©":8905,"ĠrÃ©uni":8906,"ĠÃ©tudiÃ©":8907,"Ġinstaurer":8908,"Ġindustriel":8909,"ĠrÃ©jouir":8910,"lissements":8911,"ĠAng":8912,"ĠStock":8913,"Ġsauvegarde":8914,"ĠisraÃ©lien":8915,"Ġinjuste":8916,"Ã©remment":8917,"Ġfournisseurs":8918,"ĠXXI":8919,"ĠGenÃ¨ve":8920,"fond":8921,"idÃ©m":8922,"upp":8923,"Ġpages":8924,"isÃ©s":8925,"Ġtac":8926,"ciens":8927,"Ġplai":8928,"abe":8929,"aboli":8930,"Ġhonor":8931,"Ġhosti":8932,"Ġperception":8933,"Ġallusion":8934,"Ġaddi":8935,"ĠRob":8936,"Ġexpression":8937,"ĠcrÃ©ativitÃ©":8938,"Ġreposer":8939,"ĠprÃ©sentes":8940,"ĠparticuliÃ¨res":8941,"ĠremarquÃ©":8942,"Ġheureusement":8943,"Ġgenres":8944,"Ġitalienne":8945,"ĠcomplÃ©mentaire":8946,"Ġtrucs":8947,"Ġcuisine":8948,"ĠdÃ©centr":8949,"idÃ©mie":8950,"ALE":8951,"oue":8952,"Ġnoire":8953,"Ġprouve":8954,"Ġtragique":8955,"Ġnoms":8956,"gnation":8957,"Ġannuelle":8958,"olog":8959,"QuatriÃ¨mement":8960,"ĠprÃ©vus":8961,"importation":8962,"Ġglobalement":8963,"Ġouverts":8964,"Ġassociations":8965,"ĠautorisÃ©":8966,"ĠprononcÃ©":8967,"ĠÃ©tablies":8968,"Ġambitieuse":8969,"Ġexploiter":8970,"immob":8971,"ĠarmÃ©e":8972,"Ġtruc":8973,"Ġstyle":8974,"Ab":8975,"EC":8976,"Veuillez":8977,"ditÃ©s":8978,"log":8979,"nalitÃ©":8980,"ĠdÃ©Ã§":8981,"rables":8982,"ater":8983,"atten":8984,"Ġhommage":8985,"Ġconclus":8986,"videmment":8987,"Ġcofin":8988,"ĠposÃ©es":8989,"issez":8990,"arition":8991,"Ġbioc":8992,"ĠcinÃ©m":8993,"Ġexplicitement":8994,"ĠprÃ©parÃ©":8995,"Ġtraditionnelle":8996,"Ġpermanence":8997,"Ġencourageant":8998,"Ġapplicable":8999,"Ġclassique":9000,"ukraini":9001,"ĠdÃ©ployÃ©s":9002,"envisager":9003,"Ġfabricants":9004,"ĠMoldavie":9005,"Ġlundi":9006,"ouest":9007,"isla":9008,"Ġvali":9009,"enser":9010,"Ġcess":9011,"onnements":9012,"Ġamend":9013,"ĠaidÃ©":9014,"nera":9015,"assade":9016,"Ġprogrammation":9017,"ĠlibÃ©rer":9018,"ĠconcernÃ©":9019,"Ġjouets":9020,"Ãīgypte":9021,"iditÃ©":9022,"Ġsigner":9023,"Ġpartenariats":9024,"Ġirrespons":9025,"ĠdÃ©pensÃ©":9026,"Ġfranchement":9027,"ĠÃ©tudiant":9028,"Ġhauts":9029,"ĠdÃ©gager":9030,"crip":9031,"ĠindÃ©pendamment":9032,"Ġflexible":9033,"ĠdÃ©passÃ©":9034,"Ġvieillissement":9035,"Ġgarantissant":9036,"Agenda":9037,"ĠlÃ©gitimes":9038,"NE":9039,"Ġlance":9040,"isÃ©es":9041,"Ġplait":9042,"Ġserez":9043,"endroit":9044,"ĠPÃ©":9045,"Ġcardi":9046,"Ġrecru":9047,"Quels":9048,"ĠrestÃ©":9049,"Ġbizar":9050,"Ġlimitation":9051,"ĠrÃ©pondent":9052,"engage":9053,"Ġcorrect":9054,"ĠpossÃ©d":9055,"Ġmariage":9056,"Ġcollabor":9057,"Ġparadox":9058,"Ġenceinte":9059,"Imag":9060,"europÃ©":9061,"eaux":9062,"oiles":9063,"Ġlog":9064,"Ġindemn":9065,"Ġsect":9066,"Ġcomposition":9067,"ĠÃ©tendue":9068,"Ġcoin":9069,"ĠAh":9070,"Ġpartant":9071,"Ġrepous":9072,"Ġdemandant":9073,"Ġattendant":9074,"Ġsoigne":9075,"ĠlÃ©gislatifs":9076,"Ġsuivie":9077,"Ġconsciente":9078,"ĠexprimÃ©s":9079,"Ġcivil":9080,"ĠqualifiÃ©s":9081,"Ġnourrir":9082,"Ġlettres":9083,"ĠsupÃ©rieure":9084,"arburants":9085,"inquiÃ¨te":9086,"ĠinfÃ©rieur":9087,"ĠÃ©lectrique":9088,"ĠGoogle":9089,"Ġpluriann":9090,"Pensez":9091,"ame":9092,"ect":9093,"fas":9094,"Ġpeau":9095,"oui":9096,"erz":9097,"meu":9098,"opie":9099,"roger":9100,"Ġpartiellement":9101,"miÃ¨res":9102,"ĠGali":9103,"Ġessais":9104,"Ãªtements":9105,"ĠOu":9106,"intervenir":9107,"Ġgravement":9108,"Ġverte":9109,"ĠrespectÃ©s":9110,"Ġoccidental":9111,"Ġdiplomatiques":9112,"ĠÃ©clair":9113,"Ġillustre":9114,"Ġrejoint":9115,"ĠGeorge":9116,"Ġasiatiques":9117,"ĠentamÃ©":9118,"fÃ©rer":9119,"inten":9120,"lÃ¨ves":9121,"Ã©nÃ©g":9122,"ĠdiffÃ©remment":9123,"ĠaimÃ©":9124,"Ġfruit":9125,"national":9126,"Ġbiom":9127,"Ġressent":9128,"Ġexigence":9129,"Ġrendue":9130,"Ġvisible":9131,"Ġsupervision":9132,"Ġnormale":9133,"Ġminimales":9134,"Ġidentifier":9135,"Ġfilms":9136,"Ġdessous":9137,"ĠÃ©valuations":9138,"Ġirakien":9139,"Ġconsultations":9140,"Ġenjeux":9141,"Ġautomatiquement":9142,"banie":9143,"fa":9144,"ualitÃ©":9145,"tiens":9146,"ĠsÃ©qu":9147,"reuve":9148,"ĠunitÃ©":9149,"osyst":9150,"Ġaverti":9151,"ĠGre":9152,"Ġmalheure":9153,"ĠpassÃ©s":9154,"Ġbiologiques":9155,"ĠmodalitÃ©s":9156,"ĠallÃ©s":9157,"opposer":9158,"ĠamÃ©liorÃ©":9159,"Ġanciennes":9160,"ĠplacÃ©":9161,"ĠnÃ©glige":9162,"ĠultÃ©rieure":9163,"Ġimmigrants":9164,"Ġdonateurs":9165,"IDA":9166,"Ġsimultan":9167,"Ġprofite":9168,"FR":9169,"cisme":9170,"ky":9171,"na":9172,"vote":9173,"tige":9174,"Ġsap":9175,"Ġaper":9176,"Ġenc":9177,"Ġjoie":9178,"Ġinquie":9179,"ĠMer":9180,"ĠBe":9181,"ĠTim":9182,"utin":9183,"liste":9184,"ĠÃ©cras":9185,"ĠdÃ©finit":9186,"Ġ1992":9187,"Ġdoulou":9188,"Ġcommercialisation":9189,"Ġimpliquant":9190,"Ġurgente":9191,"Ġcalme":9192,"Ġtaxation":9193,"Ġouverture":9194,"ĠassurÃ©":9195,"ĠquittÃ©":9196,"Ġmigration":9197,"Ġappareil":9198,"nexe":9199,"ĠÃ©voluer":9200,"imaginer":9201,"Ġindicateurs":9202,"Ã©couter":9203,"Ġukraini":9204,"Ġsombre":9205,"Ã¨vre":9206,"ĠbÃ©n":9207,"ĠrÃ©elles":9208,"oly":9209,"ĠPer":9210,"Ġconsister":9211,"Ġalarm":9212,"ĠfaÃ§":9213,"ĠbeautÃ©":9214,"Ġattendu":9215,"ĠpassÃ©es":9216,"ĠprÃ©caution":9217,"Ġboule":9218,"Ġlogement":9219,"ĠdÃ©fenseurs":9220,"Ġcertitude":9221,"Ġrichesses":9222,"Ġqualifications":9223,"ĠAnd":9224,"ĠmÃ©dicaux":9225,"Ġstockage":9226,"Ġdoter":9227,"ĠÃ©lectriques":9228,"ĠmÃ©pris":9229,"ĠextrÃ©mistes":9230,"OSCE":9231,"ĠboÃ®te":9232,"Ġformidable":9233,"ere":9234,"feu":9235,"inÃ©e":9236,"Ġrues":9237,"Ġfar":9238,"Ġunie":9239,"ald":9240,"Ġpourpar":9241,"Ġbille":9242,"orth":9243,"endrai":9244,"Ġcomptent":9245,"Ġcontest":9246,"ĠÃ©thique":9247,"ĠÃ©volutions":9248,"Ġautrefois":9249,"accords":9250,"vÃ©ni":9251,"Ġaugmentent":9252,"Ġcompromet":9253,"ĠbÃ©nÃ©ficiÃ©":9254,"essence":9255,"Ġflag":9256,"Ġdiscriminations":9257,"ĠadÃ©quates":9258,"Ġstricte":9259,"ĠdiminuÃ©":9260,"Ġcensure":9261,"Ġchaleur":9262,"ĠCongo":9263,"Ġperformance":9264,"Ġincapable":9265,"Ġcheveux":9266,"Ġpourparlers":9267,"env":9268,"Ġcuri":9269,"Ġquar":9270,"tements":9271,"ĠSoudan":9272,"ĠprobabilitÃ©":9273,"Ġclin":9274,"ĠgarÃ§ons":9275,"ĠprÃ©cision":9276,"ĠrÃ©unir":9277,"Ġprochainement":9278,"ĠconfrontÃ©":9279,"ĠexprimÃ©e":9280,"ĠamÃ©liorÃ©e":9281,"Ġeffectuer":9282,"berg":9283,"Ġexploitations":9284,"Ġafricaine":9285,"ĠcomprÃ©hensible":9286,"ĠcoordonnÃ©e":9287,"Ġpestici":9288,"Ġintervenants":9289,"Ġfinancements":9290,"ĠdÃ©crire":9291,"Ġdanois":9292,"ĠrÃ©daction":9293,"Ġbiocarburants":9294,"Esp":9295,"nons":9296,"otiques":9297,"uites":9298,"Ġclub":9299,"Ġspec":9300,"Ġintr":9301,"ĠCl":9302,"ĠMor":9303,"trÃ¶":9304,"Ġsoumet":9305,"ĠimposÃ©":9306,"Ġserions":9307,"adresser":9308,"Ġinterromp":9309,"accroissement":9310,"Ġentreprendre":9311,"Ġinstitutionnelles":9312,"manche":9313,"ĠdÃ©finies":9314,"ĠWi":9315,"ĠÃ©tablis":9316,"ĠprÃ©fÃ©rence":9317,"ĠdÃ©sire":9318,"ĠthÃ©rap":9319,"Ġsecours":9320,"ĠcompÃ©tentes":9321,"Ġlaissent":9322,"ĠdÃ©loc":9323,"Ġvitale":9324,"ĠobligÃ©":9325,"ĠinterprÃ©tation":9326,"ĠdÃ©placer":9327,"Ġaffecte":9328,"ĠinÃ©vitable":9329,"ĠpÃ©ril":9330,"ĠCIG":9331,"Ġentrepreneurs":9332,"trÃ¶m":9333,"Oh":9334,"eusement":9335,"pel":9336,"oudite":9337,"til":9338,"Ġnui":9339,"Ġroi":9340,"quemment":9341,"riers":9342,"Ġintitu":9343,"diens":9344,"Ġdimanche":9345,"Ġaccum":9346,"Ġmotif":9347,"ardin":9348,"ĠAsh":9349,"Ġopti":9350,"ĠIsraÃ©liens":9351,"Ġpensait":9352,"Ġvoler":9353,"ĠÃ©tablit":9354,"ĠrÃ©vÃ¨le":9355,"ĠmentionnÃ©s":9356,"ĠdisposÃ©s":9357,"ĠoccupÃ©":9358,"Ġcontenues":9359,"ambition":9360,"Ġofficiellement":9361,"Ġcontraignant":9362,"Ġconnaissez":9363,"ĠÃ©voluÃ©":9364,"ĠinÃ©vitablement":9365,"Ġsaluons":9366,"Ġchemins":9367,"Ġchaussures":9368,"HU":9369,"europÃ©ens":9370,"nelles":9371,"ĠgÃ¨nes":9372,"Ġchir":9373,"ĠextÃ©rieurs":9374,"Ã©thique":9375,"ĠdÃ©plore":9376,"ĠcrÃ©Ã©e":9377,"ĠgÃ©nÃ©rer":9378,"Ġmajeures":9379,"Ġinfli":9380,"appliquent":9381,"ĠimpliquÃ©es":9382,"Ġdiriger":9383,"Ġgrosses":9384,"Ġprofessionnel":9385,"Ġadapter":9386,"Ġissus":9387,"observation":9388,"ĠapportÃ©es":9389,"ĠaccÃ©der":9390,"Ġspectre":9391,"Ġpiliers":9392,"tiver":9393,"anz":9394,"ĠvÃªtements":9395,"veurs":9396,"Ġparvient":9397,"Ġpakistan":9398,"insiste":9399,"Ġvoulions":9400,"Ġaborde":9401,"ĠtraitÃ©e":9402,"Ġconnus":9403,"Ġenglob":9404,"Ġmira":9405,"Ġfragile":9406,"Ġ2013":9407,"ĠautorisÃ©s":9408,"Ġfaiblesses":9409,"Ġcarburant":9410,"onomie":9411,"Ġmachines":9412,"ĠarmÃ©es":9413,"ĠtÃ©moigne":9414,"Ġcinquante":9415,"Ġprioritaire":9416,"Ã©tudier":9417,"Ġmonopole":9418,"Ġopposants":9419,"Ġmigrants":9420,"investir":9421,"ĠDublin":9422,"ĠrhÃ©torique":9423,"ld":9424,"vienne":9425,"uns":9426,"Ġtangi":9427,"ĠprÃ´":9428,"Ġvag":9429,"Ġboire":9430,"ato":9431,"ollah":9432,"aints":9433,"Ġexhaus":9434,"ĠdÃ©pense":9435,"ĠTout":9436,"Ġfausse":9437,"ĠlÃ©gisla":9438,"ĠlÃ©gislature":9439,"Ġindiquent":9440,"ĠdÃ©cisive":9441,"Ġcite":9442,"Ġcontemp":9443,"Ġdispositif":9444,"Ġpousse":9445,"ĠÃ©tablie":9446,"Ġpalestiniens":9447,"attaque":9448,"dÃ©mocra":9449,"Ġmutuellement":9450,"implication":9451,"Ġdoigt":9452,"archie":9453,"ĠtempÃ©rature":9454,"alibans":9455,"holm":9456,"ĠbactÃ©ri":9457,"yr":9458,"Ã©missions":9459,"Ġpatri":9460,"Ġscep":9461,"ĠmÃ¨res":9462,"ĠunilatÃ©rale":9463,"Ġgagne":9464,"autor":9465,"sidents":9466,"Ġconcentre":9467,"Ġexprime":9468,"imposent":9469,"Ġmettons":9470,"Ġabsence":9471,"ĠrÃ©alitÃ©s":9472,"ignent":9473,"ĠapparaÃ®tre":9474,"Ġcondamnation":9475,"Ġinutiles":9476,"Ġsatisfaisant":9477,"Ġgrippe":9478,"Ġsemblerait":9479,"Ġmineurs":9480,"argument":9481,"Ġprovisoire":9482,"ĠprÃ©judice":9483,"Ġbillets":9484,"Ara":9485,"ASE":9486,"ĠschÃ©":9487,"ĠprouvÃ©":9488,"Ġenle":9489,"aises":9490,"Ġdurement":9491,"ĠcoÃ¯n":9492,"ĠParce":9493,"Ġeffor":9494,"Ġclon":9495,"UEM":9496,"ĠElles":9497,"Ġassassin":9498,"Ġcourir":9499,"Ġvols":9500,"Ġdifficilement":9501,"Ġvoyager":9502,"ĠprotÃ©ines":9503,"aucase":9504,"Ġfragment":9505,"Ġvenus":9506,"ĠchÃ´meurs":9507,"Ġcouvert":9508,"Trois":9509,"Ġmobilisation":9510,"Ġ1989":9511,"Ġdemeurent":9512,"Ġintelligent":9513,"Ġsentent":9514,"ĠprÃ©sidentielles":9515,"Ġarrange":9516,"austÃ©ritÃ©":9517,"oscou":9518,"ĠrÃ©clame":9519,"ĠparallÃ¨le":9520,"Ġlent":9521,"Ġlobb":9522,"ingÃ©":9523,"ource":9524,"ĠdÃ©tention":9525,"ĠgÃª":9526,"Ġglace":9527,"Ġsurc":9528,"Ġneur":9529,"coni":9530,"Ġviendra":9531,"ĠrÃ©sister":9532,"Ġ37":9533,"Ġtentent":9534,"ĠreÃ§oit":9535,"Ġtransposition":9536,"Ġprofessionnelles":9537,"ĠconformitÃ©":9538,"offrir":9539,"Ġtoile":9540,"Ġraisonnables":9541,"ĠmÃ©dicale":9542,"Ġmaritimes":9543,"Ġturque":9544,"Ġsuggestion":9545,"ĠroutiÃ¨re":9546,"ĠÃ©tonnant":9547,"Ġoptimiste":9548,"Ġportugaise":9549,"Ġinadmis":9550,"ĠmathÃ©matiques":9551,"Ġdramatique":9552,"ustralie":9553,"donÃ©sie":9554,"ĠNoÃ«l":9555,"ctÃ©":9556,"hÃ´pital":9557,"Ã©lo":9558,"enko":9559,"ĠÃ¨":9560,"Ġfarde":9561,"ĠCamb":9562,"Ġsida":9563,"Ġcommand":9564,"Ġconsistant":9565,"vic":9566,"ĠnÃ©fas":9567,"Ġamie":9568,"Ġcomprenons":9569,"ĠconfÃ©rences":9570,"anisme":9571,"Ġessaie":9572,"Ġreconnais":9573,"Ġsignification":9574,"ĠrÃ©duits":9575,"Ġsuscite":9576,"Ġtraverser":9577,"ĠprotÃ©gÃ©s":9578,"haÃ¯":9579,"ĠinvitÃ©s":9580,"Ġexaminons":9581,"ĠcompÃ©tente":9582,"ĠaÃ©riens":9583,"ĠmÃ©dicament":9584,"Ġintelligente":9585,"Ġincroyablement":9586,"Ġperformances":9587,"Ġhongroise":9588,"Ġtextile":9589,"Ġstandard":9590,"LT":9591,"cosse":9592,"mon":9593,"entend":9594,"Ġrail":9595,"Ġbatt":9596,"ĠCaucase":9597,"ĠPol":9598,"ĠMon":9599,"ulture":9600,"ĠsiÃ¨ges":9601,"Ġimpos":9602,"inscrit":9603,"ĠdÃ©cour":9604,"Ġeffond":9605,"Ġaccru":9606,"Ġtransmission":9607,"Ġcommunisme":9608,"ĠexposÃ©s":9609,"Ġgouverne":9610,"Ġrendement":9611,"Ã¢tre":9612,"Ġmentionne":9613,"ĠdiscrÃ©":9614,"ĠVi":9615,"Ġnaturels":9616,"ĠtraitÃ©es":9617,"Ġoffrent":9618,"Ġ45":9619,"Ġtraditionnelles":9620,"instaurer":9621,"ĠsensibilitÃ©":9622,"ĠSchul":9623,"ĠprÃ©servation":9624,"Ġhabitant":9625,"Ġbalance":9626,"ĠlimitÃ©es":9627,"Angleterre":9628,"ĠÃ©quipements":9629,"Ġampleur":9630,"Ġtremblement":9631,"Ġiranien":9632,"Islam":9633,"Ġarbitr":9634,"yl":9635,"ĠQue":9636,"Ġram":9637,"ĠÃ©tiez":9638,"ĠdÃ©rÃ©g":9639,"ĠbÃ©t":9640,"Ġconcessions":9641,"terie":9642,"Ġacteur":9643,"ĠcrÃ©ent":9644,"Ġcade":9645,"Ġchaos":9646,"Ġ32":9647,"Ġfid":9648,"Ġnotation":9649,"idÃ©es":9650,"erreur":9651,"appropri":9652,"Ġnormalement":9653,"appeler":9654,"Ġradicale":9655,"ĠrÃ©munÃ©ration":9656,"ĠÃ©chÃ©ant":9657,"ĠColombie":9658,"ĠStockholm":9659,"Ass":9660,"Vu":9661,"atre":9662,"elez":9663,"Ġsaisi":9664,"aides":9665,"ĠvÃ©tÃ©":9666,"Ġbaiss":9667,"attirer":9668,"Ġtouchent":9669,"Ġimpu":9670,"ĠimpÃ©ri":9671,"Ġannonc":9672,"ĠpremiÃ¨rement":9673,"Ġconstitutionnelles":9674,"ĠJo":9675,"ĠKen":9676,"ĠdÃ©terminÃ©e":9677,"Ġadministr":9678,"Ġconsulter":9679,"Ġtraditionnels":9680,"ĠimmÃ©diat":9681,"Ġtranqu":9682,"ĠlittÃ©ralement":9683,"ĠfrÃ©quemment":9684,"Ġspectaculaire":9685,"Ġcadres":9686,"ĠgÃ©nocide":9687,"Ġpesticides":9688,"UR":9689,"faire":9690,"Ġpain":9691,"ĠcomitÃ©s":9692,"ĠMoscou":9693,"ĠhÃ´":9694,"Ġhaine":9695,"insister":9696,"ĠBEI":9697,"Ġeffray":9698,"Ã§ait":9699,"Ġexpress":9700,"ĠrÃ©parer":9701,"ĠcroÃ®":9702,"ĠintÃ©rim":9703,"ĠfondÃ©es":9704,"ĠÃ©vÃ¨":9705,"ĠÃ©lection":9706,"ĠlÃ©gal":9707,"expÃ©ri":9708,"stan":9709,"ĠÃ©tranger":9710,"ĠimpliquÃ©":9711,"ĠdÃ©terminant":9712,"Ġsolli":9713,"Ġindustrielles":9714,"ĠrÃ©jouissons":9715,"Ġvenait":9716,"ĠcontinuitÃ©":9717,"Ġracont":9718,"Ġancienne":9719,"Ġcirconscription":9720,"ĠcoÃ»teux":9721,"ĠsÃ©vÃ¨res":9722,"onyme":9723,"ĠapportÃ©e":9724,"Ġartistes":9725,"Ġincapables":9726,"ĠdÃ©licat":9727,"Ġsouffrances":9728,"ĠdÃ©cideurs":9729,"oxyde":9730,"ĠfenÃªtre":9731,"ĠriviÃ¨re":9732,"Ġpharmaceu":9733,"tnam":9734,"Ġlistes":9735,"ĠsphÃ¨re":9736,"aies":9737,"Ġfoc":9738,"olat":9739,"royer":9740,"Ġcommises":9741,"Ġcomporter":9742,"Ġsache":9743,"osevic":9744,"obs":9745,"Ġclasses":9746,"ramme":9747,"Ġconstituera":9748,"Ġcoupables":9749,"ĠappropriÃ©s":9750,"Ġapproches":9751,"ĠcohÃ©rent":9752,"ĠpayÃ©":9753,"ĠconsidÃ©rÃ©es":9754,"Ġinnovations":9755,"Ġfourniture":9756,"ĠlancÃ©e":9757,"Ġcombinaison":9758,"ker":9759,"kel":9760,"ĠÅ":9761,"altern":9762,"Ġjur":9763,"Ġboute":9764,"ĠPo":9765,"ett":9766,"Ġappuyer":9767,"Ġdissim":9768,"ĠÃ©gyp":9769,"expansion":9770,"ovis":9771,"ĠOui":9772,"Ġstructur":9773,"Ġjuridiquement":9774,"Ġrendus":9775,"Ġambition":9776,"ĠdisposÃ©e":9777,"Ġparfaite":9778,"install":9779,"ĠcontinuÃ©":9780,"Ġratifier":9781,"Ġvaloir":9782,"Ġcellule":9783,"Ġvirtu":9784,"ĠdÃ©boucher":9785,"Ġmodeste":9786,"Ã¢teau":9787,"ĠmolÃ©cu":9788,"ĠdÃ©couverte":9789,"ĠadhÃ©rer":9790,"prÃ©sent":9791,"Ġsoigneusement":9792,"Pl":9793,"TrÃ¨s":9794,"ao":9795,"mise":9796,"quants":9797,"ĠaoÃ»t":9798,"Ġverts":9799,"estres":9800,"ĠÃ©puis":9801,"ĠÃ©lÃ¨ves":9802,"lique":9803,"ĠrequÃªte":9804,"Ġprovient":9805,"Ġnette":9806,"Ġaviez":9807,"ularitÃ©s":9808,"ĠSec":9809,"ĠdiffÃ©renci":9810,"Ġmalades":9811,"ĠdisposÃ©":9812,"ĠChili":9813,"Ġinconn":9814,"stab":9815,"Ġfiable":9816,"ĠbÃ©nÃ©fique":9817,"Ġrigi":9818,"Ġcontinuerons":9819,"ensive":9820,"ĠtombÃ©":9821,"Ġ250":9822,"Ġexceptions":9823,"ĠMalte":9824,"Ġbleu":9825,"ĠBiÃ©lor":9826,"Ġmorceau":9827,"ADN":9828,"Ġfossiles":9829,"immobilier":9830,"ĠSchulz":9831,"hom":9832,"hommes":9833,"tienne":9834,"ref":9835,"erai":9836,"architecture":9837,"ĠflÃ©":9838,"ouse":9839,"ĠgoÃ»t":9840,"ortable":9841,"Ġexact":9842,"Ġentrain":9843,"Ġconcours":9844,"Ġdiffus":9845,"Ġjusque":9846,"guÃ©s":9847,"ĠNouve":9848,"Ġsoutiendra":9849,"intÃ©resse":9850,"Ġ1993":9851,"Ġgraph":9852,"ĠÃ©quitables":9853,"importants":9854,"Ã©chapp":9855,"Ã©chelon":9856,"Ġpubliquement":9857,"ĠrÃ©glementer":9858,"Ġattaquer":9859,"Ġinclut":9860,"OCDE":9861,"enregistrement":9862,"Obama":9863,"harmon":9864,"istique":9865,"intelli":9866,"ractions":9867,"ĠCali":9868,"abus":9869,"ĠMÃ©di":9870,"Ġmoteurs":9871,"Ġmesur":9872,"lera":9873,"Ġinternet":9874,"ctoires":9875,"Ġtransmet":9876,"Ġcommunistes":9877,"Ġjustes":9878,"Ġagres":9879,"ĠDes":9880,"ĠKre":9881,"Ġabsor":9882,"Ġconfrontation":9883,"ĠpoussÃ©":9884,"Ġfrappe":9885,"Ġressembler":9886,"ĠillÃ©gal":9887,"ĠdÃ©roule":9888,"ĠassemblÃ©e":9889,"ĠrÃ©agi":9890,"stitut":9891,"effectuer":9892,"Ġmunicip":9893,"ĠNigeria":9894,"ĠXXIe":9895,"criptions":9896,".âĢĿ":9897,"SK":9898,"ection":9899,"Ġdor":9900,"Ã©lÃ©ment":9901,"Ġlune":9902,"ĠlaÃ¯":9903,"itch":9904,"Ġts":9905,"Ġgeste":9906,"ĠComment":9907,"Ġchant":9908,"Ġcomparer":9909,"Ġpermette":9910,"ĠBang":9911,"ĠSw":9912,"inton":9913,"ĠTu":9914,"ĠRi":9915,"Ġtienne":9916,"ĠNob":9917,"Ġpluie":9918,"Ġempre":9919,"Ã©voquer":9920,"Ġapprouve":9921,"ĠnÃ©gociÃ©":9922,"Ġregistre":9923,"Ġorganisme":9924,"attente":9925,"Ġchev":9926,"Ġtransparent":9927,"Ġapparu":9928,"Ġmusi":9929,"Ġstatu":9930,"Ġuniverselle":9931,"ĠpropriÃ©taires":9932,"Ġinsuffisant":9933,"ĠreflÃ¨tent":9934,"Ġaccueillir":9935,"Ġweek":9936,"Ġlinguistique":9937,"Ġhorizont":9938,"ĠÃ¨re":9939,"Ġadministrations":9940,"br":9941,"den":9942,"Ġdorm":9943,"onale":9944,"Ġfaille":9945,"illent":9946,"Ġparent":9947,"ĠparallÃ¨lement":9948,"Ġproxim":9949,"ĠprÃ©dÃ©":9950,"trai":9951,"Ġparticipe":9952,"ĠSal":9953,"Ġatom":9954,"ĠdÃ©mant":9955,"Ġrendez":9956,"Ġrecord":9957,"Ġparticules":9958,"ĠNor":9959,"Ġincert":9960,"Ġfiers":9961,"ĠmodifiÃ©s":9962,"Ġexcuses":9963,"Ġouvertes":9964,"ĠrÃ©flexions":9965,"ĠprÃ©tendre":9966,"ĠtolÃ©rer":9967,"Ġroutier":9968,"Ġpoursuites":9969,"ĠenregistrÃ©":9970,"ĠdÃ©rivÃ©s":9971,"Ġajout":9972,"ĠmÃ©lange":9973,"Ġramener":9974,"ĠDarfour":9975,"Ġfardeau":9976,"Di":9977,"kov":9978,"Ġpav":9979,"Ġmam":9980,"Ġnat":9981,"Ġtardi":9982,"Ġbarb":9983,"irent":9984,"ĠentrÃ©":9985,"Ã©tant":9986,"ĠviabilitÃ©":9987,"Ġinterdire":9988,"Ã©govine":9989,"Ġrepro":9990,"Ġressource":9991,"ĠreprÃ©sentÃ©":9992,"Ġvolonti":9993,"Ġrigueur":9994,"ĠJean":9995,"ĠdÃ©terminÃ©":9996,"Ġinstaur":9997,"Ġaidera":9998,"ĠgÃ©op":9999,"ĠterminÃ©e":10000,"Ġdistinguer":10001,"Ġexternes":10002,"OLAF":10003,"Ġrubrique":10004,"erzÃ©govine":10005,"ĠproximitÃ©":10006,"Ġvolontiers":10007,"Dem":10008,"Durant":10009,"Ġfact":10010,"ĠÃ©met":10011,"ĠdÃ©stab":10012,"Ġparlait":10013,"Ġdumping":10014,"Ġplong":10015,"Ġcommande":10016,"lave":10017,"isibles":10018,"ĠAL":10019,"ĠmanquÃ©":10020,"Ġprogression":10021,"Ġclos":10022,"ĠFor":10023,"Ġ195":10024,"ĠdÃ©sarmement":10025,"ĠacceptÃ©e":10026,"ĠfonctionnÃ©":10027,"Ġretomb":10028,"ĠchargÃ©e":10029,"Ġcontinueront":10030,"ĠobligÃ©s":10031,"Ġstrictement":10032,"ĠcausÃ©":10033,"Ġallemands":10034,"ĠdÃ©vas":10035,"ĠÃ©quival":10036,"instruments":10037,"Ġenseignants":10038,"ĠMilosevic":10039,"ĠcÃ©rÃ©ales":10040,"Ġstipule":10041,"mais":10042,"ĠpÃ©d":10043,"ĠnÃ´tre":10044,"leo":10045,"Ġjardin":10046,"eut":10047,"Ġretenir":10048,"ĠprolifÃ©ration":10049,"propor":10050,"ĠrÃ©solue":10051,"angle":10052,"endez":10053,"Ġcacher":10054,"Ġnationalisme":10055,"Ġmaintenu":10056,"Ġempi":10057,"intermÃ©diaire":10058,"ĠintÃ©ressÃ©s":10059,"Ġinstances":10060,"ĠmÃ©cont":10061,"Ġbouche":10062,"ĠformulÃ©":10063,"Ġvenant":10064,"truite":10065,"ĠpÃ©nurie":10066,"ĠassociÃ©":10067,"Ġsexes":10068,"visions":10069,"ĠdÃ©fauts":10070,"Ġsouples":10071,"NEW":10072,"ĠexpressÃ©ment":10073,"ĠCalifor":10074,"Face":10075,"bo":10076,"Ġdents":10077,"onci":10078,"ĠpÃ¢":10079,"oun":10080,"aisie":10081,"Ġquart":10082,"illon":10083,"agence":10084,"ĠMan":10085,"Ã¨ses":10086,"Ġdispropor":10087,"Ġpuissante":10088,"entielle":10089,"Ġmanquent":10090,"ĠLam":10091,"Ġpublier":10092,"ĠIs":10093,"Ġconnues":10094,"Ġpersonnels":10095,"ĠprÃ©sidente":10096,"Ġvolati":10097,"auraient":10098,"Ġportable":10099,"Ġintro":10100,"ĠcompÃ©tition":10101,"Ġsanitaires":10102,"Ġapportera":10103,"Ġoccidentales":10104,"habitants":10105,"otechnolo":10106,"Ġfabriquer":10107,"ĠdÃ©marches":10108,"ĠapprÃ©ciÃ©":10109,"Ġanalyses":10110,"ĠpersonnalitÃ©":10111,"Ġaccessible":10112,"ĠdÃ©tenus":10113,"ĠexcÃ©dent":10114,"ĠNobel":10115,"ĠdÃ©mantÃ¨lement":10116,"HerzÃ©govine":10117,"tor":10118,"uration":10119,"urdes":10120,"orre":10121,"Ġfuite":10122,"ĠÃ©b":10123,"atmosphÃ¨re":10124,"Ġneige":10125,"ueille":10126,"ĠdÃ©pression":10127,"Ġempris":10128,"annonce":10129,"Ġinflation":10130,"Ġsignaux":10131,"Ġfamine":10132,"affai":10133,"inclure":10134,"Ġremplacement":10135,"Ġcoups":10136,"Ġ95":10137,"Ġblan":10138,"Ġoriental":10139,"ĠdÃ©loy":10140,"ĠregardÃ©":10141,"Ġvivants":10142,"Ġphysiques":10143,"Ġlourds":10144,"ĠdÃ©finitif":10145,"ĠcÃ©der":10146,"ĠrÃ©tablissement":10147,"Ġinfluencer":10148,"Ġsubstantielle":10149,"ĠattirÃ©":10150,"Ġgrimp":10151,"Ġrembourse":10152,"ĠTibet":10153,"EM":10154,"FI":10155,"hiques":10156,"zz":10157,"Ġpur":10158,"inos":10159,"aites":10160,"Ã©ral":10161,"Ġconcl":10162,"mide":10163,"ĠperpÃ©":10164,"Ġadmet":10165,"Ġvolet":10166,"Ġraisonnement":10167,"Ġbiotechnolo":10168,"Ġpress":10169,"ĠmisÃ¨re":10170,"Ġpires":10171,"Ġexclure":10172,"Ã©mocrates":10173,"ĠdisparitÃ©s":10174,"Ġidentiques":10175,"Ġofficielles":10176,"ĠdÃ©veloppÃ©e":10177,"Ġsympathie":10178,"ĠhÃ©micycle":10179,"Ġsoudaine":10180,"ĠstupÃ©":10181,"ĠfÃ©dÃ©ral":10182,"ĠrÃ©cupÃ©rer":10183,"Ġrapprochement":10184,"ĠperpÃ©t":10185,"ĠPÃ©kin":10186,"ĠClinton":10187,"honn":10188,"tein":10189,"Ġrattra":10190,"ney":10191,"Ġgare":10192,"actifs":10193,"ĠconcrÃ©":10194,"ĠBon":10195,"ĠrÃ©sumer":10196,"ting":10197,"Ġnier":10198,"impÃ´t":10199,"ĠlÃ©gu":10200,"ĠlÃ©gÃ¨re":10201,"ĠchaÃ®":10202,"Ġagriculture":10203,"Ã©lÃ©ments":10204,"Ã©rÃ©ment":10205,"Ġpira":10206,"ĠindustrialisÃ©s":10207,"Ġparlez":10208,"Ġbouger":10209,"Ġboulot":10210,"Ġcivilis":10211,"Ġparagraphes":10212,"Ġofficiel":10213,"Ġchangent":10214,"ĠMcC":10215,"accÃ©lÃ©":10216,"ĠprÃ©sidentielle":10217,"Ġindividuelle":10218,"ĠdÃ©cisionnel":10219,"Ġmagasin":10220,"Ġautrichienne":10221,"Imaginez":10222,"ĠAshton":10223,"ĠBiÃ©lorussie":10224,"com":10225,"pture":10226,"Ġnerve":10227,"Ġtun":10228,"sifier":10229,"Ġabond":10230,"ĠDÃ©":10231,"Ġminuti":10232,"ĠEl":10233,"ĠfermÃ©":10234,"Parfois":10235,"Ãīvidemment":10236,"ĠVie":10237,"Ġmajor":10238,"Ġsuivent":10239,"ordinateur":10240,"ĠcÃ´ti":10241,"ĠmodifiÃ©e":10242,"Ġproprement":10243,"ĠtrouvÃ©e":10244,"Ġintense":10245,"Ġpoursuivent":10246,"ĠprÃ©occupÃ©s":10247,"Ġproviennent":10248,"ĠMartin":10249,"Ġmagaz":10250,"Ġsecondaire":10251,"ĠphÃ©nomÃ¨nes":10252,"Ġbureaucratique":10253,"ĠabandonnÃ©":10254,"ĠdÃ©coule":10255,"Ġemprunter":10256,"ĠprogressÃ©":10257,"Ġridicule":10258,"ĠxÃ©nophobie":10259,"EuropÃ©ens":10260,"dits":10261,"uaires":10262,"Ã©lÃ¨ve":10263,"Ġafghan":10264,"Ġmyth":10265,"Ġfili":10266,"eugen":10267,"osex":10268,"Ġcontenir":10269,"Ġaccro":10270,"Ġannuels":10271,"assÃ©":10272,"Ġvieilles":10273,"Ġferais":10274,"Ġveuille":10275,"ĠbrÃ¨ve":10276,"incapacitÃ©":10277,"Ġrevue":10278,"ĠqualifiÃ©":10279,"habil":10280,"ĠsoulevÃ©es":10281,"ĠdÃ©veloppÃ©es":10282,"ĠapprouvÃ©e":10283,"Ġlourd":10284,"Ġdessin":10285,"Ġinsuffisante":10286,"ĠisraÃ©lienne":10287,"Ġanalyser":10288,"ĠspÃ©culation":10289,"ernitÃ©":10290,"Ġaspirations":10291,"Ġenthousiasme":10292,"Ġperturb":10293,"ĠDavid":10294,"ĠVerheugen":10295,"ĠMÃ©diateur":10296,"EA":10297,"Ġ'":10298,"ĠcitÃ©":10299,"oux":10300,"Ġsain":10301,"redi":10302,"sibles":10303,"Ġparam":10304,"Ġparlant":10305,"Ġcontenant":10306,"Leurs":10307,"ĠÃ©tendu":10308,"ĠSom":10309,"rÃ©sor":10310,"ĠFlor":10311,"ĠLet":10312,"ĠbasÃ©es":10313,"Ġoptique":10314,"intÃ©ress":10315,"Ġincar":10316,"Ġincorp":10317,"ĠjugÃ©":10318,"Ġfacul":10319,"Ġprivatisation":10320,"Ġretrouv":10321,"ĠencouragÃ©":10322,"ĠfÃ©licitons":10323,"Ġpassera":10324,"Ġsanitaire":10325,"ĠrÃ©servÃ©":10326,"Ġkm":10327,"ĠvÃ©lo":10328,"ĠvÃ©rification":10329,"ĠdÃ©rogation":10330,"automne":10331,"ĠCalifornie":10332,"ĠchaÃ®nes":10333,"aques":10334,"nan":10335,"Ġmour":10336,"Ġnager":10337,"iler":10338,"aug":10339,"ĠdÃ©lÃ©":10340,"ĠredÃ©":10341,"trons":10342,"tront":10343,"ĠÃ©thiques":10344,"ortement":10345,"ĠdÃ©place":10346,"otation":10347,"Ġforment":10348,"Ġatro":10349,"Ġfame":10350,"Ġorale":10351,"ĠKong":10352,"ĠHaÃ¯ti":10353,"Ġpopulaires":10354,"Ġjoueurs":10355,"ĠrÃ©alisÃ©e":10356,"Ġpromette":10357,"Ġidentique":10358,"Ġprisons":10359,"ĠamÃ©liore":10360,"Ġvoyages":10361,"Ġsemestre":10362,"Ġrespectant":10363,"Ġvolontaires":10364,"Ġtraverse":10365,"ignore":10366,"Ġcatal":10367,"Ġreconnaissent":10368,"Ġfumer":10369,"ĠdÃ©liv":10370,"Ġterreur":10371,"Ġinacceptables":10372,"Chers":10373,"Ġstrict":10374,"Ġmater":10375,"ĠrÃ©vÃ©ler":10376,"ĠPaci":10377,"Ġmigrat":10378,"ĠtouchÃ©es":10379,"Ġrenouvelable":10380,"Ġclauses":10381,"Ġsymbole":10382,"Ġretraites":10383,"Prenons":10384,"ĠagrÃ©able":10385,"activitÃ©s":10386,"finiment":10387,"Ã©larg":10388,"entamer":10389,"ina":10390,"ortÃ©e":10391,"siles":10392,"Ġfe":10393,"aude":10394,"Ġgala":10395,"atom":10396,"Ġcontiennent":10397,"appare":10398,"oirs":10399,"Ġpaysage":10400,"Ġdirectes":10401,"ĠamÃ¨ne":10402,"Ġalb":10403,"Ġstag":10404,"Ġexpansion":10405,"ĠnÃ©cessiter":10406,"Pourriez":10407,"ĠChar":10408,"Ġinstitutionnels":10409,"ĠrÃ©alisÃ©es":10410,"ĠprÃ©voient":10411,"Ġacceptables":10412,"Ġinformatique":10413,"ypri":10414,"ĠallÃ©e":10415,"Ġlaissant":10416,"Ġparvenue":10417,"Ġsuperfici":10418,"ĠintÃ©grÃ©s":10419,"Ġobliger":10420,"Ġ1970":10421,"Ġsympt":10422,"Seule":10423,"Ġcontenus":10424,"rompu":10425,"tÃ©nuer":10426,"ĠSolana":10427,"Ġquartier":10428,"Ġdisproportion":10429,"Cin":10430,"Es":10431,"Sous":10432,"yo":10433,"ĠdÃ®ner":10434,"Ã©nie":10435,"Ġcig":10436,"ĠComme":10437,"ĠMus":10438,"Ġcompt":10439,"Ġcontour":10440,"ĠÃ©galitÃ©":10441,"ĠdÃ©pendra":10442,"Ġcraindre":10443,"utilitÃ©":10444,"ĠRoth":10445,"Ġrepas":10446,"ĠprÃ©sentant":10447,"impasse":10448,"Ġmalent":10449,"ĠHar":10450,"Ġadoptant":10451,"Ġdemandez":10452,"Ġfictifs":10453,"ĠOK":10454,"ĠdÃ©finie":10455,"Ġfavorablement":10456,"Ġcath":10457,"ĠMary":10458,"ĠBarack":10459,"Ġfournissent":10460,"ĠrÃ©fÃ©rendums":10461,"Ġcompenser":10462,"Ġfondements":10463,"observ":10464,"ĠliquiditÃ©s":10465,"ĠSecon":10466,"ĠdÃ©truit":10467,"organes":10468,"ĠhÃ©ros":10469,"Ã³n":10470,"exigence":10471,"ĠGolfe":10472,"tations":10473,"Ġsomb":10474,"Ãªtement":10475,"appuyer":10476,"Ġconstant":10477,"etter":10478,"autonomie":10479,"prits":10480,"Ã©nagement":10481,"ĠSlov":10482,"Ġarbres":10483,"ĠÃ©voque":10484,"Ġchamps":10485,"Ġbiologie":10486,"important":10487,"Ġappellent":10488,"Ġscr":10489,"Ġexistante":10490,"ĠenvisagÃ©":10491,"Ġactionnaires":10492,"ĠsoulevÃ©e":10493,"ĠdisponibilitÃ©":10494,"ĠmÃ©dical":10495,"ĠÃ©lectoral":10496,"identifier":10497,"ĠrÃ©diger":10498,"ĠaffectÃ©s":10499,"Ġcritiquer":10500,"ĠdÃ©licate":10501,"Ġconjointement":10502,"Ġautonome":10503,"Ġennuy":10504,"ĠocÃ©ans":10505,"olymp":10506,"ax":10507,"bollah":10508,"lage":10509,"isti":10510,"Ġmous":10511,"Ġnordi":10512,"ourv":10513,"Ġinvers":10514,"olk":10515,"Ġdioxyde":10516,"mblÃ©":10517,"amme":10518,"yser":10519,"Ã©tend":10520,"ĠÃīgypte":10521,"Ġperdent":10522,"ĠBritan":10523,"ĠSan":10524,"ĠGUE":10525,"Ġaiment":10526,"formÃ©ment":10527,"ezbollah":10528,"ĠlÃ©gales":10529,"Ġenfre":10530,"Ġjuges":10531,"ĠcommenÃ§ons":10532,"Ġjustification":10533,"allais":10534,"Ġchiens":10535,"Ġcoupable":10536,"Ġcandidature":10537,"Ã©mie":10538,"Ġprovoque":10539,"Ġmanifestation":10540,"ĠÃ©criv":10541,"Ġredist":10542,"ĠvÃ©hicule":10543,"actuelle":10544,"Ã´pitaux":10545,"ĠinconvÃ©ni":10546,"2013":10547,"Ġavocats":10548,"Ġbizarre":10549,"Ġinadmissible":10550,"ĠperpÃ©tu":10551,"Ġgalax":10552,"DÃ©s":10553,"Voy":10554,"her":10555,"produ":10556,"uc":10557,"Ġolymp":10558,"esclav":10559,"Ġenvir":10560,"Ġaurez":10561,"ries":10562,"Ġnet":10563,"Ġdirait":10564,"ĠMonti":10565,"ĠSanter":10566,"ĠdÃ©pourv":10567,"Ġaccent":10568,"utilise":10569,"umÃ©e":10570,"Ġfondations":10571,"ĠconsidÃ©r":10572,"ĠÃ©conomiquement":10573,"ĠKo":10574,"ĠHezbollah":10575,"Ġrisquer":10576,"Ġnullement":10577,"Ġabsolu":10578,"Ġprofesseurs":10579,"objectifs":10580,"ĠprotÃ¨ge":10581,"ĠMarie":10582,"Ġapprobation":10583,"Ġquantit":10584,"ĠeffectuÃ©s":10585,"ĠillÃ©gaux":10586,"ĠidÃ©ologique":10587,"Ġmaximale":10588,"ArrÃª":10589,"Atlantique":10590,"Ġlaboratoire":10591,"ĠbibliothÃ¨que":10592,"Regardez":10593,"abolition":10594,"DA":10595,"crits":10596,"iz":10597,"olement":10598,"pol":10599,"ĠÃĢ":10600,"orateur":10601,"ourge":10602,"rira":10603,"ĠrÃ©affir":10604,"Ġplais":10605,"ĠPal":10606,"ĠMah":10607,"vice":10608,"Ġinsur":10609,"ĠFed":10610,"ĠNic":10611,"ĠdÃ©fendu":10612,"ĠdÃ©faill":10613,"Ġpassait":10614,"Ġ1991":10615,"Ġ65":10616,"ĠrespectÃ©es":10617,"Ġfavorise":10618,"Ġopposer":10619,"ĠopposÃ©e":10620,"Ġsols":10621,"Ġayez":10622,"ĠgÃ©ni":10623,"ĠdÃ©lits":10624,"Ġjournaliste":10625,"ĠmusÃ©e":10626,"Ġrelevant":10627,"Ġcarburants":10628,"ĠrÃªves":10629,"ĠÃ©checs":10630,"ĠÃ©quipes":10631,"Ġlogiciels":10632,"Ġexamine":10633,"Acc":10634,"Ġparviendrons":10635,"Ġsectorie":10636,"ĠGalileo":10637,"dra":10638,"ev":10639,"inture":10640,"itt":10641,"ĠvÃ©g":10642,"allÃ©":10643,"ĠcongÃ©":10644,"Ġplastique":10645,"ĠProche":10646,"Ã´les":10647,"ĠÃ©toiles":10648,"cofin":10649,"ĠpartagÃ©":10650,"ĠprÃ©sentera":10651,"ĠJour":10652,"ĠHaut":10653,"Ġremonte":10654,"ĠrÃ©duisant":10655,"ĠÃ©nergique":10656,"Ã©dÃ©ration":10657,"ĠindÃ©ni":10658,"ĠprÃ©paratifs":10659,"dications":10660,"Ġdiminue":10661,"Ġofficiels":10662,"Ġvastes":10663,"Ġentendons":10664,"ĠprospÃ¨re":10665,"ĠdÃ©finitivement":10666,"Ġcontraignante":10667,"ĠoccupÃ©s":10668,"ĠsuggÃ©rÃ©":10669,"ĠsuggÃ©rer":10670,"Ã©crire":10671,"ĠÃ©tablissant":10672,"ĠFisch":10673,"ĠALDE":10674,"ĠPacifique":10675,"%,":10676,"ms":10677,"mÃ¨re":10678,"ĠpÃªcher":10679,"Ġcub":10680,"Ġravie":10681,"ĠdÃ©ter":10682,"Ġbombe":10683,"ĠgrÃ©":10684,"Ġconformer":10685,"Ġproduite":10686,"Ġprocl":10687,"rois":10688,"apport":10689,"ĠprÃ©co":10690,"ocations":10691,"ĠrÃ©solument":10692,"ĠallÃ©g":10693,"Ġtransnation":10694,"ĠnÃ©cessitent":10695,"Ġminor":10696,"ayant":10697,"ĠspÃ©cific":10698,"Ġinitial":10699,"ĠcÃ´tes":10700,"ĠmÃ©fi":10701,"nieurs":10702,"ĠrencontrÃ©s":10703,"Ã©lections":10704,"ĠYougoslavie":10705,"ĠAlors":10706,"Ġreligions":10707,"Ġcerveaux":10708,"Ġtypique":10709,"Ġfoule":10710,"prÃ©sidente":10711,"Ã¡n":10712,"aucuns":10713,"Ġinfluen":10714,"Ġbloquer":10715,"Ã©liminer":10716,"Ġverrez":10717,"Ġpropagande":10718,"ĠlÃ©gumes":10719,"ĠSlovÃ©nie":10720,"aÃ©rop":10721,"ĠÅĵil":10722,"Ġdil":10723,"isÃ©ment":10724,"Ġbovine":10725,"chet":10726,"Ġrequis":10727,"olf":10728,"olÃ©e":10729,"ĠPES":10730,"ĠPatten":10731,"Ġore":10732,"Ġapportent":10733,"ĠmangÃ©":10734,"angÃ©":10735,"emprun":10736,"ĠmillÃ©naire":10737,"Ġrenvoy":10738,"Ġcontraints":10739,"ĠfrÃ¨res":10740,"ĠfiÃ¨vre":10741,"ĠspÃ©ciaux":10742,"ĠjustifiÃ©e":10743,"Ġlarges":10744,"Ġcheval":10745,"ĠdirigÃ©":10746,"ĠextrÃªmes":10747,"Ġchimique":10748,"ĠsixiÃ¨me":10749,"ĠrejetÃ©e":10750,"Ġusines":10751,"ĠdÃ©lÃ©gations":10752,"Ġexceptionnelle":10753,"Ġnavire":10754,"Ġjaponaise":10755,"ĠpersuadÃ©":10756,"Ġroman":10757,"Ġsatellite":10758,"Ġnavigation":10759,"Ġcigare":10760,"conne":10761,"citÃ©s":10762,"niste":10763,"otique":10764,"Â´":10765,"Ġcra":10766,"arisation":10767,"ĠdÃ©Ã§u":10768,"Ġbor":10769,"ĠrÃ©itÃ©":10770,"ĠPap":10771,"tume":10772,"ĠBo":10773,"ĠSing":10774,"Ġmontrant":10775,"islam":10776,"ĠacceptÃ©s":10777,"Ġinitialement":10778,"ĠjustifiÃ©":10779,"Ġtrouvait":10780,"ĠdÃ©mocratiquement":10781,"Ġrencontrent":10782,"Ġapparaissent":10783,"Ã©quilib":10784,"ĠÃ©merge":10785,"ĠmenacÃ©s":10786,"ĠcausÃ©s":10787,"Ġindividuelles":10788,"Ġpertinentes":10789,"ĠÃ©quivoque":10790,"okyo":10791,"Ġlongueur":10792,"Ġvaccin":10793,"innock":10794,"Ġaccessibles":10795,"Ġmercredi":10796,"Ġennemis":10797,"Ġsondages":10798,"Ġcofinancement":10799,"Ġnuire":10800,"Ġtsun":10801,"ĠvÃ©gÃ©t":10802,"HÃ©":10803,"IF":10804,"ford":10805,"gre":10806,"mons":10807,"enj":10808,"ison":10809,"istÃ©ri":10810,"Ġind":10811,"Ġdiction":10812,"Ġexag":10813,"avortement":10814,"Ġesprits":10815,"tins":10816,"ĠlibÃ©rale":10817,"ĠdÃ©faite":10818,"Ġpensaient":10819,"Ġengendre":10820,"Ġsouhaits":10821,"ĠsÃ©cher":10822,"Ġimpliquent":10823,"Ġsuspens":10824,"Institut":10825,"ĠLeh":10826,"Ġvoterai":10827,"Ġcerti":10828,"Ġsensiblement":10829,"ĠajoutÃ©":10830,"ĠtempÃªte":10831,"Ġrestriction":10832,"enseignements":10833,"Argentine":10834,"Ġpertinente":10835,"Ġaccusations":10836,"Ġhypoc":10837,"Ġrobot":10838,"ertise":10839,"Ġtransitoire":10840,"Ġasiatique":10841,"Ġclandestine":10842,"Ġcraignent":10843,"Ġincendies":10844,"ĠvÃ©tÃ©rin":10845,"Ad":10846,"burg":10847,"ctique":10848,"ja":10849,"ules":10850,"ĠUnis":10851,"Ġair":10852,"inki":10853,"Ġvet":10854,"Ġchron":10855,"ames":10856,"Ġhon":10857,"Ġsouches":10858,"issants":10859,"Ġstation":10860,"ĠtranseuropÃ©ens":10861,"ituel":10862,"Ġorigine":10863,"Ġcontraint":10864,"Ġagissent":10865,"outez":10866,"Ġprofil":10867,"ĠKinnock":10868,"elsinki":10869,"ĠVal":10870,"ĠÃ©tablissements":10871,"Ġintol":10872,"ĠobservÃ©":10873,"Ġcontinuons":10874,"Ġbrefs":10875,"embargo":10876,"ĠidÃ©al":10877,"ĠaccusÃ©":10878,"ĠbilatÃ©rales":10879,"Ġconjointe":10880,"ĠdouaniÃ¨re":10881,"Ġexterne":10882,"Ġfluctu":10883,"BR":10884,"erme":10885,"Ġredev":10886,"Ġoeu":10887,"Ã´mes":10888,"oyers":10889,"ĠdÃ©placement":10890,"ĠAllem":10891,"Ġsachant":10892,"ĠThe":10893,"Ġassistons":10894,"aria":10895,"Ġindien":10896,"ĠrÃ©alistes":10897,"Ġespaces":10898,"Ġ42":10899,"Ġconcurrents":10900,"Ġverrons":10901,"termination":10902,"Ġsoutenus":10903,"Ġexistence":10904,"ĠtransfÃ©rer":10905,"ctrice":10906,"Ġobserve":10907,"Ġloint":10908,"thÃ¨se":10909,"ĠconsacrÃ©e":10910,"Ġhabituellement":10911,"ĠÃ©mergentes":10912,"explique":10913,"NGL":10914,"Ġappareils":10915,"obligations":10916,"Ġautomobiles":10917,"ĠindÃ©pendantes":10918,"Ġsuspension":10919,"Ġescomp":10920,"Ġtoxiques":10921,"ĠreflÃ©ter":10922,"ĠfatiguÃ©":10923,"Ġtromper":10924,"Ġirresponsable":10925,"Ġboulevers":10926,"Arabie":10927,"Ġscrutin":10928,"ĠFischler":10929,"Bref":10930,"ft":10931,"enrich":10932,"Ġnaz":10933,"Ġfan":10934,"Ġvillages":10935,"ĠÃ©mettre":10936,"Ġplaide":10937,"ĠCentre":10938,"enseur":10939,"Ãªter":10940,"Ġtrah":10941,"Ġforesti":10942,"ĠTai":10943,"antil":10944,"Ġmettra":10945,"Ġ36":10946,"ĠrÃ©vol":10947,"Ġsoutenant":10948,"ĠprÃ©fÃ©rences":10949,"tonie":10950,"Ġcouverts":10951,"pirer":10952,"ĠrÃ©fÃ©rences":10953,"Ġneutr":10954,"Ġcroyez":10955,"Ġradicaux":10956,"Ġsauveg":10957,"ĠretirÃ©":10958,"Ġsymbolique":10959,"Ġrequises":10960,"impliquer":10961,"Ġaudiovis":10962,"Ġconcertation":10963,"Ġaimerions":10964,"Ġfrein":10965,"Ġcompatible":10966,"ĠMadrid":10967,"ĠallouÃ©s":10968,"Ġemmen":10969,"Ġpluralisme":10970,"Ġterribles":10971,"Ġmalheureux":10972,"ĠbÃ©tail":10973,"accÃ©lÃ©rer":10974,"bul":10975,"ho":10976,"odu":10977,"ĠÃĩa":10978,"lib":10979,"ffÃ©r":10980,"Ġdevais":10981,"Ġhi":10982,"Ġcessez":10983,"Ġpaysans":10984,"ĠBÃ¶":10985,"extrÃ©":10986,"Ġadresse":10987,"ĠTokyo":10988,"ĠcrÃ©Ã©s":10989,"ĠministÃ©ri":10990,"Ġcultiv":10991,"ĠtuÃ©s":10992,"Ġoffert":10993,"Ġdouter":10994,"Ġtournant":10995,"Ã¯s":10996,"Ġcherch":10997,"ĠrÃ©unis":10998,"Ġsusciter":10999,"Ġsatisfaite":11000,"Ġobservation":11001,"organisations":11002,"oda":11003,"ĠdÃ©montrent":11004,"Ġmassif":11005,"ĠengagÃ©es":11006,"Ġradicalement":11007,"Ġafricain":11008,"ĠopÃ©rationnel":11009,"Ġparadis":11010,"Ġislamistes":11011,"Ġhongrois":11012,"ĠdÃ©favorisÃ©es":11013,"ĠflÃ©au":11014,"Ġveto":11015,"Ess":11016,"OK":11017,"gÃ©ri":11018,"kh":11019,"lante":11020,"lissent":11021,"nait":11022,"oeuvre":11023,"Ġnoci":11024,"Ġfleurs":11025,"quement":11026,"Ġbeaux":11027,"Ġdurer":11028,"respect":11029,"Ġcong":11030,"ĠMed":11031,"Ġactives":11032,"Ã©tape":11033,"ĠdÃ©poser":11034,"ĠFond":11035,"Ġconfond":11036,"ĠDel":11037,"Ġproposent":11038,"Ġapprend":11039,"Ġconfid":11040,"Ġsuffisants":11041,"Ġsaison":11042,"Ġallaient":11043,"ĠÃ©pau":11044,"ignor":11045,"ĠdÃ©taillÃ©es":11046,"Ġsecrets":11047,"Ġspir":11048,"ĠlÃ©gifÃ©rer":11049,"Ġpatience":11050,"Ġracines":11051,"ĠcomparÃ©":11052,"Ġguise":11053,"Ġcorrespondent":11054,"Ġlourdes":11055,"Ġoblige":11056,"Ġbarre":11057,"Ġlinguistiques":11058,"Ġsensibilisation":11059,"ĠdÃ©gradation":11060,"ĠInternational":11061,"ĠLettonie":11062,"PrÃ©":11063,"ctÃ©s":11064,"horiz":11065,"sin":11066,"Ġdus":11067,"Ġcu":11068,"uritÃ©":11069,"invent":11070,"teau":11071,"Ġench":11072,"ĠÃ©radi":11073,"ĠPD":11074,"Ġdivisions":11075,"Ġira":11076,"Ã´me":11077,"Ġannoncer":11078,"Ġreporter":11079,"Ġagenda":11080,"assassin":11081,"ĠHol":11082,"ĠdÃ©sÃ©quilibre":11083,"ĠsÃ»res":11084,"Ġcommenter":11085,"ĠspÃ©cialistes":11086,"ĠlimitÃ©s":11087,"Ã¯tÃ©":11088,"Ġconstructeurs":11089,"Ġretrouvent":11090,"Ġsuspend":11091,"ĠintÃ©ressÃ©":11092,"ĠabordÃ©s":11093,"ĠgÃ©ographiques":11094,"Ġcollectif":11095,"Ġparvenons":11096,"fricains":11097,"ĠadaptÃ©e":11098,"identification":11099,"Ġlabel":11100,"ĠirrÃ©g":11101,"Ġfamiliale":11102,"Ġrequise":11103,"Ġstabiliser":11104,"Ġmotivation":11105,"ajoute":11106,"ĠPourquoi":11107,"Ġtoxic":11108,"ĠBrok":11109,"ĠrÃ©viser":11110,"ĠÃ©manant":11111,"ĠRobert":11112,"Ġvagues":11113,"DÃ©":11114,"ĠEuropol":11115,"ary":11116,"ĠÃ©te":11117,"cieuses":11118,"ĠinhÃ©r":11119,"ost":11120,"agan":11121,"accum":11122,"Ġhonneur":11123,"ĠhÃ´pitaux":11124,"Ġauto":11125,"Ġrecouv":11126,"endettement":11127,"Ġinfractions":11128,"Ġclient":11129,"Ġretrai":11130,"Ġdoctr":11131,"Ġtennis":11132,"ĠcompÃ©titifs":11133,"ugabe":11134,"Ġexclus":11135,"Ġsouffert":11136,"Ġreconnaissons":11137,"risie":11138,"ĠconsacrÃ©s":11139,"Ġmanifester":11140,"Ġassurances":11141,"Personnellement":11142,"Ġradical":11143,"Ġintelligents":11144,"Ġcontraignantes":11145,"umeur":11146,"actuel":11147,"ĠdÃ©coulent":11148,"ĠsÃ©vÃ¨re":11149,"Ġsilenci":11150,"Ġstup":11151,"prolifÃ©ration":11152,"ĠpoliciÃ¨re":11153,"ĠmultilatÃ©ral":11154,"Ġtarifs":11155,"Ġrestaurant":11156,"Ã©nÃ©gro":11157,"Ġcontempor":11158,"ĠCambod":11159,"alternative":11160,"CO":11161,"Ca":11162,"Cons":11163,"embl":11164,"mad":11165,"mlin":11166,"pour":11167,"uf":11168,"ument":11169,"Ġluxemb":11170,"ĠdegrÃ©s":11171,"tice":11172,"Ġslog":11173,"enture":11174,"ĠnÃ©e":11175,"inÃ©galitÃ©":11176,"Ġrenseignements":11177,"liez":11178,"cien":11179,"eutiques":11180,"Ġchim":11181,"appuie":11182,"Ġhu":11183,"Ġconcilier":11184,"onnez":11185,"inspe":11186,"ĠÃ©touff":11187,"ĠSp":11188,"ĠSIDA":11189,"ĠdÃ©mons":11190,"Ġcontrainte":11191,"explo":11192,"Ġsubissent":11193,"Ġimmin":11194,"Ġcourants":11195,"Ġcourageux":11196,"ayons":11197,"Ġtransparentes":11198,"ĠintÃ©ressants":11199,"ĠdÃ©taillÃ©":11200,"Ġorientation":11201,"Ġcouche":11202,"ĠpÃ©nales":11203,"Ġconducteurs":11204,"ĠÃ©ventail":11205,"ĠdÃ©noncer":11206,"Ġferroviaires":11207,"Ġmeurtre":11208,"ĠempÃªchÃ©":11209,"Ġhydro":11210,"Ġsauvages":11211,"Ġvotons":11212,"Ġdiagnostic":11213,"ĠrevÃªtent":11214,"ĠcinÃ©ma":11215,"Ġcurieux":11216,"ĠSecrÃ©t":11217,"Ġluxembourge":11218,"--":11219,"01":11220,"DR":11221,"Faites":11222,"mÃ©es":11223,"pt":11224,"Ġcents":11225,"timi":11226,"Ġmenti":11227,"Ġrassur":11228,"Ġfoyers":11229,"Ġprestations":11230,"ational":11231,"nez":11232,"alo":11233,"Ġpourrez":11234,"Ġinnovation":11235,"Ġgig":11236,"ĠgÃ¢teau":11237,"ĠPaul":11238,"Ġdilem":11239,"Ġpotable":11240,"ĠprÃ©d":11241,"ĠimposÃ©e":11242,"ĠdÃ©posÃ©es":11243,"Ġadoles":11244,"Ġcontrefa":11245,"version":11246,"Ġcoloni":11247,"Ġaffich":11248,"Ġconstituerait":11249,"Ġfermes":11250,"hÃ©tique":11251,"Ġincitations":11252,"Ġcorromp":11253,"ĠspÃ©ciales":11254,"efforcer":11255,"attribution":11256,"Ġfaciles":11257,"lusconi":11258,"ĠprÃ©occuper":11259,"Ġsuffisent":11260,"Ġrevendi":11261,"Ġ600":11262,"Ġprotest":11263,"Ġsemblable":11264,"Quelque":11265,"ĠassurÃ©e":11266,"Ġautoriser":11267,"Ġconviendrait":11268,"Ġaffecter":11269,"arrÃªte":11270,"Prenez":11271,"ĠintÃ©grÃ©es":11272,"ĠrÃ©clamer":11273,"Ġpragmatique":11274,"ĠdÃ©sespÃ©rÃ©":11275,"ĠsimultanÃ©ment":11276,"Ġclonage":11277,"ĠKremlin":11278,"ĠSeconde":11279,"AI":11280,"Comm":11281,"gÃ©rie":11282,"vants":11283,"yan":11284,"Ġpath":11285,"anique":11286,"Ġeut":11287,"Ġfat":11288,"ourser":11289,"opti":11290,"opÃ©ra":11291,"auf":11292,"cir":11293,"Ġbain":11294,"Ġplaign":11295,"ĠchrÃ©ti":11296,"isses":11297,"ĠÃ©tais":11298,"Ġfinlandaise":11299,"Ġamou":11300,"isition":11301,"ĠAutriche":11302,"Ġstress":11303,"ĠRE":11304,"Ġrende":11305,"Ã©quiv":11306,"ĠpartagÃ©e":11307,"outons":11308,"itiÃ©":11309,"Ġassor":11310,"espÃ¨ce":11311,"Ġjouissent":11312,"Ġinfir":11313,"ĠqualitÃ©s":11314,"ĠprÃ©cisÃ©":11315,"ĠcompÃ©titif":11316,"Ġ2015":11317,"ĠdÃ»ment":11318,"Ġpotentielle":11319,"Ġrecommander":11320,"Ġsemblables":11321,"ĠthÃ©Ã¢tre":11322,"aniens":11323,"ĠbÃ¢tir":11324,"Ġmonnaies":11325,"Ġfigurer":11326,"Ġsecondaires":11327,"ĠtransfrontaliÃ¨res":11328,"Ġpeser":11329,"ĠprÃ©judici":11330,"biotiques":11331,"Ġabstenu":11332,"Ġparcourir":11333,"Soyez":11334,"Ġcombustibles":11335,"Ġchantiers":11336,"intelligence":11337,"iers":11338,"ices":11339,"Â°":11340,"Ġly":11341,"Ġcanc":11342,"Ġdestru":11343,"ĠÃ©lan":11344,"Ġinje":11345,"chose":11346,"ĠCes":11347,"ĠCas":11348,"ĠPas":11349,"Ġcontente":11350,"Ġentrent":11351,"Ġdise":11352,"Ġobti":11353,"ĠRÃ©s":11354,"ĠLou":11355,"Ġbasse":11356,"Ġcache":11357,"Ġgouvernementale":11358,"ĠJac":11359,"ĠplanÃ©taire":11360,"Ġadoption":11361,"Ġ48":11362,"Ġexistait":11363,"ĠYÃ©m":11364,"Ġconseiller":11365,"initiatives":11366,"Ġcomparable":11367,"Ġimagin":11368,"Ġprimaire":11369,"Ġprudent":11370,"ĠrÃ©publique":11371,"Ġcontradictoires":11372,"Ġdynamisme":11373,"Ġlobby":11374,"ĠVietnam":11375,"PI":11376,"bout":11377,"sen":11378,"Ã©loi":11379,"ĠpÃ¨se":11380,"Ġcouver":11381,"Ġnov":11382,"inon":11383,"Ġtoit":11384,"ĠdÃ©d":11385,"ĠdÃ©ception":11386,"ensÃ©":11387,"dients":11388,"Ġchypri":11389,"apparition":11390,"ĠdÃ©coup":11391,"gnÃ©es":11392,"Ġarchite":11393,"ĠTrib":11394,"ĠclÃ´":11395,"Ġreproduire":11396,"outent":11397,"Ġbaser":11398,"ĠÃ©cosyst":11399,"Ġpassons":11400,"ĠHe":11401,"ĠHaye":11402,"ĠprÃ©visible":11403,"Ġreconnue":11404,"Ġacceptent":11405,"Ġoffertes":11406,"Ġretarder":11407,"Ġscru":11408,"Ġtransporte":11409,"ĠcompÃ©tent":11410,"ĠadÃ©quats":11411,"Ġinfrastructure":11412,"ĠcaractÃ©ristique":11413,"Ġultime":11414,"ĠisraÃ©liens":11415,"Ġrassembl":11416,"ĠÃ©clai":11417,"ĠadressÃ©":11418,"ĠincomprÃ©h":11419,"ĠnÃ©erlandaise":11420,"ĠinquiÃ©tant":11421,"Ġmanipul":11422,"ĠdÃ©libÃ©rÃ©ment":11423,"ĠpÃ©troliers":11424,"Ġindividuellement":11425,"Ġconversation":11426,"aboutir":11427,"Ġprovince":11428,"ĠBritanniques":11429,"'\"":11430,"bÃ©":11431,"ji":11432,"jan":11433,"Ġpand":11434,"Ġsoph":11435,"rah":11436,"Ġinhab":11437,"Ġplainte":11438,"ender":11439,"onnent":11440,"Ġresser":11441,"insÃ©curitÃ©":11442,"Ġmarins":11443,"exister":11444,"ĠmanÅĵuvre":11445,"ĠTamp":11446,"ĠTAC":11447,"ĠrelÃ¢":11448,"Ġmena":11449,"Ġferaient":11450,"Ġcorp":11451,"trice":11452,"ĠrÃ©sultant":11453,"Ġvaisse":11454,"Ġsyner":11455,"infraction":11456,"ĠabordÃ©e":11457,"Ġrefusent":11458,"ĠsoulevÃ©s":11459,"ĠÃ¢gÃ©s":11460,"pire":11461,"Ġsynonyme":11462,"inquiÃ©ter":11463,"Ġpacifiques":11464,"ĠpayÃ©s":11465,"Ġfamiliales":11466,"Ġphrases":11467,"Ã©quipement":11468,"ĠdÃ©rogations":11469,"ĠMerkel":11470,"Ġchirur":11471,"installation":11472,"aÃ©roport":11473,"ĠCambodge":11474,"Histoire":11475,"Tandis":11476,"fat":11477,"ood":11478,"taient":11479,"Ġw":11480,"Ġos":11481,"issions":11482,"aron":11483,"Ġrendra":11484,"alon":11485,"ĠPacte":11486,"Ġextension":11487,"Ġdisaient":11488,"Ã©coute":11489,"Ġforcer":11490,"ica":11491,"Ġmilitants":11492,"Ġmaintient":11493,"lson":11494,"Ġpeines":11495,"ĠnationalitÃ©":11496,"ĠconcernÃ©e":11497,"Ġfermi":11498,"Ġengage":11499,"ĠrenforÃ§ant":11500,"ĠprÃ©val":11501,"ĠVenez":11502,"Albanie":11503,"Ġtourn":11504,"ĠentitÃ©s":11505,"Ġbananes":11506,"ĠdÃ©terminÃ©s":11507,"ĠseptiÃ¨me":11508,"Ġsouffle":11509,"aÃ¯d":11510,"Ġfournis":11511,"oriquement":11512,"Ġmanifestants":11513,"Ġstatistique":11514,"ĠBerlusconi":11515,"Ġfraudes":11516,"institutions":11517,"ĠcritiquÃ©":11518,"Ġchapitres":11519,"Ġaffaib":11520,"Ġacquise":11521,"estimer":11522,"Ġspectacle":11523,"ĠsuprÃªme":11524,"ORK":11525,"ĠTimor":11526,"Ġcadeau":11527,"ĠNorv":11528,"honnÃªte":11529,"ĠirrÃ©gularitÃ©s":11530,"Der":11531,"Reste":11532,"laient":11533,"matisme":11534,"Ġpommes":11535,"ĠaisÃ©ment":11536,"Ġnutri":11537,"informer":11538,"Ġrendant":11539,"Ġvienne":11540,"Ġbulg":11541,"chÃ©es":11542,"Ġconformes":11543,"ĠchÃ¨re":11544,"ĠMED":11545,"ĠMugabe":11546,"Ã©ros":11547,"teste":11548,"alem":11549,"ĠÃ©troit":11550,"ĠBu":11551,"Ġauth":11552,"Ġpossession":11553,"oton":11554,"Ġrestant":11555,"ĠdÃ©sespoir":11556,"Ġsignale":11557,"Ġriz":11558,"Ġsuccessi":11559,"Ġverra":11560,"ĠremportÃ©":11561,"Ã©pidÃ©mie":11562,"hiopie":11563,"DeuxiÃ¨me":11564,"ĠdÃ©signÃ©":11565,"rimination":11566,"Ġuniversitaire":11567,"Ġqualifier":11568,"ontex":11569,"Ġcomparables":11570,"Ġadministratifs":11571,"ĠadaptÃ©":11572,"Ġconvictions":11573,"ĠmenacÃ©":11574,"Ġalliance":11575,"Ġpertinent":11576,"Ġsoudain":11577,"idÃ©ologie":11578,"ĠprÃ©conise":11579,"ĠmÃ¨nent":11580,"ĠdÃ©tÃ©rioration":11581,"faits":11582,"Ġjambes":11583,"ĠdÃ©ploiement":11584,"EspÃ©rons":11585,"ĠintitulÃ©":11586,"ĠgÃ©opolitique":11587,"Ġintroduite":11588,"ĠprÃ©coce":11589,"ĠAllemands":11590,"Ay":11591,"cris":11592,"mus":11593,"Ġponc":11594,"Ġcenti":11595,"reusement":11596,"riment":11597,"Ġinse":11598,"ĠCis":11599,"dions":11600,"ĠMande":11601,"ĠprÃ©cieuse":11602,"ĠÃ©gaux":11603,"ĠStre":11604,"enseign":11605,"ĠcrÃ©anci":11606,"huile":11607,"Ã©lite":11608,"Ġ33":11609,"ĠrapiditÃ©":11610,"Ġfaisais":11611,"Ġ55":11612,"Ġoffrant":11613,"ĠappliquÃ©s":11614,"Ġrire":11615,"Ġcouper":11616,"Ġentraver":11617,"Ġvotera":11618,"ĠdÃ©sirer":11619,"Ġaffirment":11620,"Ġnourr":11621,"ĠapprÃ©cier":11622,"ĠchutÃ©":11623,"owski":11624,"Ġsubstitu":11625,"ĠprivilÃ¨ge":11626,"Ġretire":11627,"Ġharmoniser":11628,"ĠGuant":11629,"Ġchocolat":11630,"ĠrÃ©gulateurs":11631,"Ġconnexion":11632,"Ġhonorables":11633,"ĠÃ©vÃ¨nements":11634,"ĠNouvelle":11635,"Ġdictionnaire":11636,"horizon":11637,"Ġsophisti":11638,".Â»":11639,"emblÃ©e":11640,"gÃ¨nes":11641,"lations":11642,"lux":11643,"ĠpÃª":11644,"ung":11645,"itairement":11646,"ĠparaÃ®tre":11647,"alliance":11648,"Ġbale":11649,"ĠinÃ©g":11650,"active":11651,"mbres":11652,"Ġdispu":11653,"Ġmarin":11654,"empÃªche":11655,"ĠTrans":11656,"Ġaboli":11657,"Ġcontras":11658,"Ġdoive":11659,"ĠgÃ©nÃ¨re":11660,"Ã©radication":11661,"Ġnationalistes":11662,"ĠfinanciÃ¨rement":11663,"ĠChris":11664,"exposition":11665,"Ã©vÃ©":11666,"ayez":11667,"audit":11668,"Ġreprend":11669,"influ":11670,"accepte":11671,"Ġinvo":11672,"Ġmoratoire":11673,"Ġdistances":11674,"Ġtraditionnel":11675,"Ġcouleurs":11676,"ambassade":11677,"Ġregardons":11678,"Ġlivrer":11679,"view":11680,"Ġintroduites":11681,"associer":11682,"Ġtouchant":11683,"ĠvulnÃ©rabilitÃ©":11684,"ĠdotÃ©":11685,"Ġnaval":11686,"ĠÃ©videntes":11687,"Ġcontroverse":11688,"ĠblessÃ©s":11689,"Ġobsol":11690,"Ġressemblent":11691,"Ġcommettre":11692,"hypoth":11693,"Ġcolonies":11694,"ĠPhili":11695,"Ġpluriannuel":11696,"ĠKenya":11697,"Ã©largir":11698,"Ġgigantes":11699,"ĠTampere":11700,"ĠNorvÃ¨ge":11701,"Moi":11702,"Vou":11703,"dr":11704,"pes":11705,"uela":11706,"Ġ$":11707,"Ã©mique":11708,"Ġunes":11709,"usalem":11710,"ĠÃ©lites":11711,"liÃ¨re":11712,"ĠrÃ©examen":11713,"Ġinex":11714,"ĠingrÃ©":11715,"dien":11716,"Ġdite":11717,"apparti":11718,"fice":11719,"ĠSer":11720,"istants":11721,"ĠAt":11722,"obtention":11723,"certitudes":11724,"ĠJu":11725,"Ġviser":11726,"ĠrÃ©fÃ¨re":11727,"Ġbio":11728,"Ġindications":11729,"Ġformelle":11730,"Ġrevendications":11731,"Ġtension":11732,"Ġdispositifs":11733,"Ġthon":11734,"ĠexaminÃ©e":11735,"Ġcondamne":11736,"Ġsuperf":11737,"employ":11738,"Ġangle":11739,"Ġsignificatifs":11740,"Puisque":11741,"unification":11742,"immunitÃ©":11743,"Ġaccueilli":11744,"Ġhorrible":11745,"Seul":11746,"Ġdrame":11747,"Ġpsychologique":11748,"Ġstip":11749,"ĠÃ©motions":11750,"Ġnettoy":11751,"Ġflagr":11752,"Ġremboursement":11753,"ĠmÃ©fiance":11754,"Ġtsunami":11755,"Pro":11756,"gnement":11757,"zerb":11758,"enz":11759,"tini":11760,"enthousias":11761,"Ġracc":11762,"mpe":11763,"Ġavais":11764,"Ġmonsieur":11765,"Ġviole":11766,"Ġentreten":11767,"ĠcotÃ©":11768,"ĠmarquÃ©e":11769,"ositions":11770,"alisations":11771,"Ġallu":11772,"Ġtransforme":11773,"Ġmilieux":11774,"guerre":11775,"ĠNoire":11776,"ĠCha":11777,"Ġvieill":11778,"Ġexemplaire":11779,"Ġvache":11780,"ĠbiÃ¨re":11781,"Ġcontribuable":11782,"ĠchargÃ©s":11783,"ĠfixÃ©es":11784,"Ġ99":11785,"Ġcoul":11786,"ĠcondamnÃ©s":11787,"lantation":11788,"Ġballe":11789,"Ġordinaire":11790,"ĠsÃ©parÃ©":11791,"ACH":11792,"ĠisraÃ©lo":11793,"Ġpatron":11794,"Ġterminerai":11795,"ĠcensÃ©":11796,"ĠÃ®le":11797,"ĠinventÃ©":11798,"ĠinadÃ©qu":11799,"Ġscolaire":11800,"veloppement":11801,"autodÃ©":11802,"Ġdesquels":11803,"Ġdistorsions":11804,"ĠaperÃ§u":11805,"ĠbÃ©nÃ©v":11806,"ĠcroÃ®tre":11807,"zerbaÃ¯d":11808,"cre":11809,"rist":11810,"Ġdebout":11811,"Ġsage":11812,"Ġmers":11813,"Ġlament":11814,"unal":11815,"Ġparaissent":11816,"ĠgÃ¢":11817,"Ġcond":11818,"Ġchanter":11819,"Ã©rusalem":11820,"tenance":11821,"issantes":11822,"gnant":11823,"Ġinsul":11824,"ĠdÃ©blo":11825,"igue":11826,"Ġagissant":11827,"Ġlongs":11828,"aÃ®tra":11829,"ĠVienne":11830,"Ġmissiles":11831,"Ġapplique":11832,"Ġbru":11833,"auront":11834,"Ġcapitales":11835,"Ġnotes":11836,"Ġdemanderai":11837,"Ġtraitons":11838,"ĠAmsterdam":11839,"ĠmanifestÃ©":11840,"ĠdÃ©marrer":11841,"ĠadaptÃ©es":11842,"Ġimaginez":11843,"Ġmatch":11844,"Ġmenacent":11845,"Ġrejets":11846,"Ġcontraignants":11847,"ĠdÃ©placÃ©es":11848,"Ġsuspendre":11849,"Ġcomposants":11850,"infrastructures":11851,"Ġressentir":11852,"Ġengendrer":11853,"Ġintensifier":11854,"Ġmettez":11855,"ĠÃ©largir":11856,"ĠÃ©carts":11857,"Ġtissu":11858,"Ġinefficace":11859,"ĠSomalie":11860,"jordanie":11861,"vo":11862,"wn":11863,"espÃ©rer":11864,"Ġpond":11865,"erte":11866,"ĠmÃª":11867,"itter":11868,"Ġtue":11869,"cha":11870,"ĠPE":11871,"actes":11872,"amÃ©nagement":11873,"avancement":11874,"Ġliti":11875,"adore":11876,"ĠBill":11877,"ĠdÃ©pendre":11878,"Ġtermine":11879,"Ġsaoudite":11880,"ĠdÃ©mante":11881,"Ã©quitÃ©":11882,"Ġaident":11883,"ĠfinancÃ©":11884,"ĠfinancÃ©s":11885,"Ã´tres":11886,"ĠreprÃ©sentante":11887,"efforce":11888,"tisÃ©":11889,"Ġbanqui":11890,"Ġstructurel":11891,"ĠGroupe":11892,"tÃ©rieures":11893,"Ġsouris":11894,"Ġprenantes":11895,"ĠillÃ©gales":11896,"ĠdÃ©roulement":11897,"Ġattentifs":11898,"exploiter":11899,"Ġmoderniser":11900,"ĠdÃ©coulant":11901,"Ġmotivations":11902,"Ġfolle":11903,"nierie":11904,"Ġincompati":11905,"Ġprolonger":11906,"ĠconÃ§ue":11907,"Ġobsc":11908,"Ġportugais":11909,"Ġfantastique":11910,"Ġenvoie":11911,"Ġinspections":11912,"Ġajustements":11913,"Ġconjonc":11914,"Ġparalys":11915,"ĠTimes":11916,"ĠintÃ©rimaire":11917,"ĠTribunal":11918,"ĠVenezuela":11919,"ĠCisjordanie":11920,"aune":11921,"cra":11922,"corÃ©":11923,"sch":11924,"uge":11925,"itz":11926,"Ġauda":11927,"dictions":11928,"inscrire":11929,"ĠÃ©gale":11930,"Ġdirecteurs":11931,"Ġstables":11932,"ĠRo":11933,"ĠRich":11934,"Ġdonnons":11935,"ĠDG":11936,"ĠcollÃ¨ge":11937,"ĠrÃ©alisations":11938,"ĠOccident":11939,"Ġapplications":11940,"Ã©chÃ©":11941,"Ġ800":11942,"Ġcommencerai":11943,"cevable":11944,"opposent":11945,"ĠenvisagÃ©e":11946,"Ġvaloris":11947,"Ġsouverains":11948,"ĠguÃ©r":11949,"ĠrÃ©paration":11950,"ĠtÃ©moins":11951,"ĠsincÃ¨res":11952,"ĠnÃ©gliger":11953,"ĠhonnÃªtes":11954,"Ġfascin":11955,"ĠsecrÃ©tariat":11956,"Ġguider":11957,"Ġtarif":11958,"Ġmensonge":11959,"ĠsurcroÃ®t":11960,"Ġdormir":11961,"ĠhiÃ©r":11962,"assassinat":11963,"ĠSecrÃ©taire":11964,"02":11965,"Ai":11966,"Sinon":11967,"disc":11968,"git":11969,"sme":11970,"Ã©anti":11971,"Ġlis":11972,"ĠlÃ¨":11973,"Ġlux":11974,"ĠpÃ©nÃ©":11975,"Ġslova":11976,"ĠquÃªte":11977,"unique":11978,"Ġro":11979,"ĠgÃ©rÃ©":11980,"Ġnez":11981,"Ġchante":11982,"oler":11983,"Ġmets":11984,"ĠcomposÃ©e":11985,"Ġdirections":11986,"Ġmarqu":11987,"Ġmessieurs":11988,"ĠSm":11989,"ĠdÃ©posÃ©e":11990,"Ġterri":11991,"ĠTaÃ¯":11992,"ĠrÃ©pres":11993,"entez":11994,"ĠcarrÃ©":11995,"ima":11996,"Ġchapeau":11997,"expl":11998,"ĠvisitÃ©":11999,"Ġsoix":12000,"ancÃ©e":12001,"Ġdouane":12002,"Ġatteintes":12003,"ĠnotÃ©":12004,"Ġportait":12005,"Ġtraitent":12006,"Ġpartisan":12007,"Ġmorales":12008,"Ġfournies":12009,"Ġresteront":12010,"anium":12011,"ĠarrÃªtÃ©s":12012,"ĠsynthÃ¨se":12013,"ĠdÃ©veloppent":12014,"Ġpermettraient":12015,"Ġexigeant":12016,"ĠplacÃ©s":12017,"ĠtransformÃ©":12018,"Ġlicence":12019,"Ġrupture":12020,"Ġconservateur":12021,"Ġdescend":12022,"Ġmerveilleuse":12023,"hydro":12024,"ĠhÃ©ritage":12025,"abandon":12026,"Ġvraisembl":12027,"Ġaveugle":12028,"Ġaffectent":12029,"Ġdomestique":12030,"ĠultÃ©rieurement":12031,"Ġmagazine":12032,"ĠretraitÃ©s":12033,"ĠYÃ©men":12034,"10":12035,"Ni":12036,"PA":12037,"aqu":12038,"mains":12039,"Ġlan":12040,"Ġcoupes":12041,"Ġdedans":12042,"Ġso":12043,"annexe":12044,"Ġmurs":12045,"ĠmÃ¢":12046,"Ġrassurer":12047,"Ġfus":12048,"ases":12049,"limin":12050,"alit":12051,"trer":12052,"Ġplomb":12053,"ociation":12054,"Ġentretenir":12055,"Ġperfe":12056,"exiger":12057,"ĠFat":12058,"Ġabat":12059,"Ġprimes":12060,"ĠNam":12061,"ĠÃ©leveurs":12062,"ĠVoici":12063,"attent":12064,"Ġsucc":12065,"Ġmodestes":12066,"ĠformulÃ©e":12067,"ĠfermetÃ©":12068,"ĠcompÃ©tents":12069,"ĠdÃ©nu":12070,"Ġmobiles":12071,"Ġmobile":12072,"ĠtÃ©lÃ©phones":12073,"Ġvoyageurs":12074,"Ġfamilial":12075,"ĠentraÃ®nera":12076,"ĠdivisÃ©":12077,"ĠmultilatÃ©rale":12078,"Ġimpressionn":12079,"ĠinfÃ©rieure":12080,"Ġpratiquer":12081,"Ġattire":12082,"Ġcopie":12083,"Ġautoritaire":12084,"accÃ©der":12085,"Ġpilote":12086,"Ġexplosi":12087,"ĠÃ©chapper":12088,"ĠpoussÃ©e":12089,"Ġindirectement":12090,"Ġennemi":12091,"Ġincontestablement":12092,"Ġfructueuse":12093,"individus":12094,"ĠingÃ©nieurs":12095,"Ġnominal":12096,"Ġmaternelle":12097,"Dis":12098,"cor":12099,"cal":12100,"fense":12101,"rÃ´":12102,"Ġcoute":12103,"tig":12104,"ĠnaÃ®tre":12105,"ortÃ©es":12106,"Ġrab":12107,"Ġfoyer":12108,"Ġenvergure":12109,"Ġparts":12110,"Ġbir":12111,"ĠrÃ©alise":12112,"ĠCanc":12113,"cesseurs":12114,"amÃ¨ne":12115,"ĠcomposÃ©":12116,"Ġconteste":12117,"onnant":12118,"Ġimpulsion":12119,"ĠTe":12120,"Ġexpul":12121,"ĠintÃ©resse":12122,"Ġproduites":12123,"Ġrenvoyer":12124,"ĠGal":12125,"ĠÃ©cla":12126,"ĠJÃ©rusalem":12127,"ĠrestÃ©s":12128,"interdire":12129,"ĠpiÃ¨ge":12130,"Ġsyri":12131,"ĠtÃ©lÃ©vis":12132,"Ġanimales":12133,"iness":12134,"Ġhabitude":12135,"Ã©lector":12136,"Ġbouc":12137,"essaie":12138,"Ġanalo":12139,"Ġcollectives":12140,"cepticisme":12141,"implique":12142,"Ġblocage":12143,"ougoslave":12144,"ĠdÃ©butÃ©":12145,"ConformÃ©ment":12146,"Ġpropagation":12147,"ĠnÃ©fastes":12148,"Ġsouplesse":12149,"ĠTaiwan":12150,"dÃ©e":12151,"rise":12152,"vabilitÃ©":12153,"ĠpÃ©ni":12154,"ouch":12155,"Ġlatin":12156,"âĢ¦":12157,"ostat":12158,"Ġsection":12159,"Ġexh":12160,"ĠcommÃ©m":12161,"ĠSaint":12162,"ĠpersÃ©cu":12163,"ick":12164,"serv":12165,"udisme":12166,"ĠÃ©volue":12167,"assumer":12168,"ĠIN":12169,"ĠrestÃ©e":12170,"ĠpopularitÃ©":12171,"Ġcourante":12172,"Ġformations":12173,"Ġviolent":12174,"Ġdonnerait":12175,"Ġdocteur":12176,"Ġalimentation":12177,"Ġteneur":12178,"Ġ700":12179,"Ġrouges":12180,"Estonie":12181,"ĠFrontex":12182,"acceptation":12183,"Ġappartenant":12184,"ĠprÃ©fÃ¨rent":12185,"Ġsouffrir":12186,"Ġcorrection":12187,"lantiques":12188,"ĠrelevÃ©":12189,"Ġregretter":12190,"Ġcorrespondant":12191,"indique":12192,"2006":12193,"Ġsubsiste":12194,"ĠarmÃ©s":12195,"Ġclarification":12196,"Ġtemporaires":12197,"Ġhomologues":12198,"ĠdÃ©bouchÃ©":12199,"Ġblessures":12200,"ĠbÃ©bÃ©s":12201,"ĠmaÃ®triser":12202,"Ġconsentis":12203,"Ġrenverser":12204,"ĠdÃ©range":12205,"laudissements":12206,"ĠschÃ©ma":12207,"enjeu":12208,"Ġconfidenti":12209,"Ġstupide":12210,"HO":12211,"cis":12212,"feuille":12213,"lants":12214,"no":12215,"rud":12216,"win":12217,"Ġdinos":12218,"ĠpÃ¨s":12219,"Ġsing":12220,"unn":12221,"omph":12222,"Ġtendre":12223,"Ġtrim":12224,"ĠunitÃ©s":12225,"Ã¨lent":12226,"Ġinhum":12227,"Ġinappropri":12228,"ffice":12229,"apporte":12230,"Ġcomportent":12231,"ĠprÃ©le":12232,"Ġfinit":12233,"ĠBien":12234,"ĠSah":12235,"exÃ©cu":12236,"Ġinterrog":12237,"ĠpossÃ©":12238,"ĠThaÃ¯":12239,"ĠmaÃ¯s":12240,"ĠonÃ©":12241,"Ġaigu":12242,"ĠdÃ©mocrate":12243,"Ġassass":12244,"aliment":12245,"ĠJeux":12246,"Ġ34":12247,"ĠformÃ©":12248,"Ġviolents":12249,"Ġjuridiction":12250,"ĠÃ©chantil":12251,"Ġinvitation":12252,"ĠassociÃ©e":12253,"Ġassurance":12254,"Ġfrapper":12255,"exemption":12256,"Ġmutuel":12257,"ĠrÃ©volutionnaire":12258,"Ġtrip":12259,"ĠdotÃ©e":12260,"acier":12261,"Ġirakienne":12262,"ĠEuro":12263,"Ġrejoins":12264,"ĠrÃ©public":12265,"Ġdominante":12266,"ĠMillÃ©naire":12267,"ĠrÃ©pandue":12268,"Ġretenu":12269,"Ġpaludisme":12270,"Ġdoigts":12271,"Ġmorceaux":12272,"Ġpakistanais":12273,"Ġgraphique":12274,"ettering":12275,"ĠallÃ©gations":12276,"zerbaÃ¯djan":12277,"Peux":12278,"lÃ©ration":12279,"erons":12280,"Ġnage":12281,"Ġtalent":12282,"Ġfur":12283,"Ġve":12284,"ĠvÅĵ":12285,"Ġvocation":12286,"Ġenrich":12287,"liers":12288,"cient":12289,"ĠrÃ©examiner":12290,"ĠexÃ©cution":12291,"amis":12292,"Ġpartiel":12293,"Ġrestitu":12294,"apour":12295,"Ġinterpr":12296,"Ġcraint":12297,"oboda":12298,"Ġannonce":12299,"Ġproducteur":12300,"antile":12301,"Ġassume":12302,"Ġcourrier":12303,"ĠrÃ©glÃ©":12304,"ĠrÃ©gissant":12305,"Ġinfec":12306,"ĠmÃ©dioc":12307,"ĠÃ©chouer":12308,"ĠdirigÃ©e":12309,"Ġtentation":12310,"Ġexplicite":12311,"incitation":12312,"IndonÃ©sie":12313,"ĠcontrÃ´lÃ©e":12314,"Ġblanche":12315,"ĠprÃ©fÃ©rer":12316,"ĠmentionnÃ©e":12317,"Ġchoisie":12318,"ĠgÃ©nie":12319,"ĠMars":12320,"ahar":12321,"Ġkurde":12322,"Quiconque":12323,"Ġexergue":12324,"ĠexercÃ©e":12325,"Ġdevenues":12326,"Ġexploitation":12327,"Ġprudents":12328,"Ġsommets":12329,"Ġtriomph":12330,"Ġbrutale":12331,"Ġcalculs":12332,"imagine":12333,"ĠIII":12334,"Ġnommer":12335,"ĠdÃ©passent":12336,"ĠsoupÃ§":12337,"ĠSharon":12338,"ĠadressÃ©es":12339,"Ġliquide":12340,"Ġpostaux":12341,"Ġrejoi":12342,"Ġurbaines":12343,"ĠpÃ©tition":12344,"Ġdrapeau":12345,"Ġobjective":12346,"Ġscandaleux":12347,"Ġpilotes":12348,"Ġretenue":12349,"ĠfrÃ©quence":12350,"Ġrigoureux":12351,"abandonner":12352,"ĠÃ©ducatif":12353,"Ġcontamination":12354,"accompagner":12355,"ĠMichel":12356,"Ġindub":12357,"Ġsceptiques":12358,"Ġredistribution":12359,"esclavage":12360,"Ġponctu":12361,"discrimination":12362,"ĠvÅĵux":12363,",\"":12364,"Celles":12365,"ize":12366,"urÃ©s":12367,"Ġromp":12368,"alin":12369,"ander":12370,"ĠprÃ©dire":12371,"vions":12372,"UniversitÃ©":12373,"Ġyougoslave":12374,"istres":12375,"Ġamour":12376,"Ġinscri":12377,"otage":12378,"Ġfondateurs":12379,"Ġrecour":12380,"Ġreproduction":12381,"Ġreposent":12382,"ĠFe":12383,"rammes":12384,"Ġdemandait":12385,"Ġsoutiendrons":12386,"Ġprofitent":12387,"culose":12388,"ĠHu":12389,"Ġgarantis":12390,"Ġtuber":12391,"ĠrÃ©duites":12392,"ĠsÃ©du":12393,"ĠretrouvÃ©":12394,"ĠutilitÃ©":12395,"ĠdÃ©signation":12396,"installer":12397,"Ġuniversitaires":12398,"ĠtombÃ©e":12399,"hÃ©ritage":12400,"Ġusine":12401,"ĠmenacÃ©e":12402,"ĠÃ©lectorales":12403,"cidences":12404,"Ġredoub":12405,"Ġextraordinaires":12406,"ĠdÃ©ployer":12407,"Ġrobots":12408,"ĠacquÃ©rir":12409,"ĠprÃ©ventive":12410,"ĠprÃ©voyant":12411,"Ġbombarde":12412,"ĠMontÃ©nÃ©gro":12413,"Ġillim":12414,"Ġdictateur":12415,"Ġfrustration":12416,"uasion":12417,"Ġpoursuivra":12418,"Ġregroup":12419,"ĠPoettering":12420,"ĠSwoboda":12421,"ĠcÃ´tiÃ¨res":12422,"Ġproclam":12423,"ĠcontrefaÃ§on":12424,"ĠREACH":12425,"ĠJacques":12426,"ĠChambre":12427,"Faisons":12428,"Trop":12429,"cours":12430,"mises":12431,"Ġonc":12432,"ĠlevÃ©":12433,"Ġtalibans":12434,"Ġenra":12435,"aure":12436,"roÃ¯":12437,"terait":12438,"Ġcomport":12439,"Ġdissi":12440,"Ġdisais":12441,"Ġ120":12442,"ĠarmÃ©":12443,"Ġprogresse":12444,"accorde":12445,"ĠLan":12446,"Ġprime":12447,"ĠDeux":12448,"icile":12449,"aliments":12450,"Ġattray":12451,"ĠprofitÃ©":12452,"Ġrespectifs":12453,"ĠcoopÃ©ra":12454,"ĠcorÃ©":12455,"Ġpaie":12456,"illÃ©e":12457,"ĠmÃ©tal":12458,"ĠfixÃ©e":12459,"Ġregardant":12460,"Ġautorisation":12461,"Ġtester":12462,"Ġadministratif":12463,"Ġflexibles":12464,"ĠignorÃ©":12465,"ĠrentabilitÃ©":12466,"Ġturcs":12467,"Seuls":12468,"ĠprÃ©cÃ©dÃ©":12469,"Ġhomosex":12470,"Ġurbaine":12471,"Ġrembourser":12472,"Ġpierres":12473,"Ġautonomie":12474,"Ġrestreindre":12475,"ĠdÃ©couvertes":12476,"ĠdoublÃ©":12477,"Soyons":12478,"ĠPNB":12479,"Ġmiracle":12480,"Ġnerveux":12481,"Ġdilemme":12482,"enthousiasme":12483,"199":12484,"hÃ´":12485,"nob":12486,"ĠdelÃł":12487,"erÃ§":12488,"indemn":12489,"ilÃ©":12490,"aiser":12491,"Ġdues":12492,"ĠrÃ©sidence":12493,"ĠCent":12494,"niÃ¨re":12495,"Ġdiam":12496,"ĠMi":12497,"ĠexcÃ¨s":12498,"Ġmardi":12499,"ĠBolk":12500,"endrez":12501,"Ġaccroissement":12502,"Ġassi":12503,"Ã©clar":12504,"Ġobtient":12505,"Ġproduise":12506,"ĠDr":12507,"Ġconstituait":12508,"Ġprofonds":12509,"Ġapprennent":12510,"entretenir":12511,"assemblÃ©e":12512,"ĠgÃ©nÃ©ralisÃ©e":12513,"Ġ43":12514,"occupe":12515,"Ġaugmentations":12516,"ĠtournÃ©":12517,"ĠWe":12518,"Ã©preuve":12519,"arriÃ¨re":12520,"Ġsecr":12521,"ressement":12522,"estein":12523,"ĠcompliquÃ©e":12524,"Ġignore":12525,"ĠplacÃ©e":12526,"ĠopÃ©rationnelle":12527,"ĠtÃ©moigner":12528,"Ġinnovantes":12529,"Ġcamions":12530,"Ġfasc":12531,"Ġurbain":12532,"Ġobjections":12533,"ĠenregistrÃ©s":12534,"Ġgaspillage":12535,"Ġlaitiers":12536,"aggraver":12537,"Ġrecrutement":12538,"Ġinquiets":12539,"ĠbactÃ©ries":12540,"Ġbouteille":12541,"harmoniser":12542,"Ġblanchi":12543,"extrÃ©misme":12544,"Ġdoctrine":12545,"otonou":12546,"Ġtuberculose":12547,"hr":12548,"xtes":12549,"Ã©lu":12550,"Ġcoupe":12551,"Ġmien":12552,"Ġlevier":12553,"Ġrentre":12554,"ĠunilatÃ©r":12555,"Ġincident":12556,"osons":12557,"ĠCotonou":12558,"lementation":12559,"Ġdialo":12560,"ĠMondi":12561,"erson":12562,"Ġavi":12563,"Ġhali":12564,"ĠprÃ©limin":12565,"occident":12566,"Ġcodi":12567,"Ã©cran":12568,"ĠTrÃ©sor":12569,"ĠRw":12570,"igne":12571,"Ġonze":12572,"Ġcompren":12573,"ĠLul":12574,"Ġconnait":12575,"Ġincomb":12576,"Åĵurs":12577,"Ġmidi":12578,"Ġreconnus":12579,"ĠorganisÃ©es":12580,"Ġcherchons":12581,"Ġaccompagn":12582,"ĠFranc":12583,"Ġsolidaire":12584,"ĠblÃ¢":12585,"achÃ¨vement":12586,"Ġprotestations":12587,"ĠBarnier":12588,"Ġexacerb":12589,"Ġpenche":12590,"Ġsignificatives":12591,"Ġinvestiss":12592,"ĠmaternitÃ©":12593,"appelons":12594,"Ġrentable":12595,"ĠdistribuÃ©":12596,"Ġcauser":12597,"ĠtÃ©moign":12598,"ĠcommuniquÃ©":12599,"Ġsymboles":12600,"acio":12601,"Ġaudition":12602,"mÃ©diaires":12603,"Ġboom":12604,"ĠproportionnalitÃ©":12605,"Ġfragiles":12606,"Ġsupran":12607,"Ġamusant":12608,"individu":12609,"Ġboursi":12610,"ĠsÃ©parer":12611,"orthod":12612,"ĠlÃ©gislateurs":12613,"Ġmigratoires":12614,"appareil":12615,"ĠBolkestein":12616,".,":12617,"AT":12618,"Australie":12619,"Me":12620,"dy":12621,"jad":12622,"km":12623,"nations":12624,"nographie":12625,"tal":12626,"ube":12627,"Ã©tiques":12628,"ĠpÃ¨res":12629,"Ġslov":12630,"Ġmuti":12631,"ĠmÃ©d":12632,"orable":12633,"Ġrends":12634,"Ġtarder":12635,"Ġfri":12636,"Ġbaf":12637,"agira":12638,"Ġidi":12639,"pects":12640,"parcours":12641,"ĠdÃ©mographiques":12642,"Ġfondation":12643,"Ã¨gent":12644,"lstrÃ¶m":12645,"ocratie":12646,"ĠDu":12647,"ologue":12648,"ĠlÃ©galement":12649,"Ġauriez":12650,"emment":12651,"ĠKir":12652,"Ġvisiter":12653,"ĠHer":12654,"Ġ38":12655,"Ġinfe":12656,"Ġabsent":12657,"Ġinformatiques":12658,"Ġlarmes":12659,"ĠmodifiÃ©es":12660,"Ġimplication":12661,"Ġcibles":12662,"ĠmÃ©taph":12663,"Ġsolenne":12664,"ĠYORK":12665,"Ġphotograph":12666,"Ġbattu":12667,"Ġarrivera":12668,"ĠcaractÃ©rise":12669,"ĠsÃ©parÃ©ment":12670,"ĠRed":12671,"Ġtendent":12672,"Ġsubsistent":12673,"ĠvulnÃ©rable":12674,"ĠblessÃ©":12675,"arrass":12676,"Ġlicences":12677,"Ġharmonie":12678,"ĠGuinÃ©e":12679,"Ġdescendre":12680,"Ġrationnelle":12681,"Ġhabitudes":12682,"Ġmeurtri":12683,"Ġcomposante":12684,"ĠperÃ§ue":12685,"CAM":12686,"ĠinspirÃ©":12687,"entraÃ®ner":12688,"ĠrÃ©compense":12689,"Ġcombustible":12690,"itarisme":12691,"ingÃ©nierie":12692,"PlutÃ´t":12693,"ĠvolatilitÃ©":12694,"ĠdÃ©sespÃ©rÃ©ment":12695,"ĠThaÃ¯lande":12696,".)":12697,"Fais":12698,"can":12699,"jug":12700,"nistes":12701,"Ã©rez":12702,"onf":12703,"Ġpne":12704,"outs":12705,"inva":12706,"ity":12707,"Ġvend":12708,"allons":12709,"rages":12710,"Ġconfier":12711,"agrÃ©":12712,"ĠMo":12713,"Ġexerce":12714,"ĠtraÃ®ne":12715,"Ã©norme":12716,"Ġpersiste":12717,"ĠintermÃ©diaire":12718,"Ġtravailliste":12719,"ĠTony":12720,"listes":12721,"ĠGÃ¶":12722,"Ġdomination":12723,"ĠDim":12724,"ĠsoirÃ©e":12725,"Ġtropic":12726,"Ġdouz":12727,"Ġformellement":12728,"Ġglobaux":12729,"Ġessayant":12730,"ĠentraÃ®nent":12731,"Ġtenues":12732,"ĠÃ©voquÃ©e":12733,"Ġconsacre":12734,"Ġnormalisation":12735,"ĠidentifiÃ©":12736,"Ġrurale":12737,"Ġdiversification":12738,"Ġperdue":12739,"ĠremplacÃ©":12740,"ĠXI":12741,"Ġsangu":12742,"imagination":12743,"Ġralentir":12744,"Ġmentale":12745,"Ġincondi":12746,"ĠaccompagnÃ©":12747,"tÃ©nu":12748,"ĠdÃ©sespÃ©":12749,"Ġpareil":12750,"Ġrenvoi":12751,"ĠbaissÃ©":12752,"Ġrattraper":12753,"Ġtunnel":12754,"ĠSingapour":12755,"Ġtransporteurs":12756,"ĠcrÃ©anciers":12757,"orthodox":12758,"lt":12759,"Ġdress":12760,"Ġlente":12761,"tissement":12762,"reprÃ©sent":12763,"ĠaisÃ©":12764,"industri":12765,"option":12766,"alors":12767,"raq":12768,"ĠCD":12769,"ĠPra":12770,"roge":12771,"Ġcoexistence":12772,"ĠdÃ©pendant":12773,"ĠposÃ©s":12774,"otyp":12775,"Ġpouviez":12776,"ĠdÃ©brou":12777,"Ġexplor":12778,"ĠgÃ©nome":12779,"ĠdiffÃ©rends":12780,"Ġproposant":12781,"Ġsouscris":12782,"ĠdurÃ©":12783,"ĠintÃ¨g":12784,"Ġprofessions":12785,"Ġurgents":12786,"Ġexacte":12787,"aÃ¯da":12788,"Ġsexuel":12789,"Ġrenouvellement":12790,"ĠeffectuÃ©es":12791,"Ã¶der":12792,"Ġmenacer":12793,"Ġexceptionnel":12794,"Ġsommeil":12795,"Ġtransfrontalier":12796,"ĠcensÃ©s":12797,"Ġrobe":12798,"Ġroutiers":12799,"ĠadressÃ©e":12800,"ĠbilatÃ©ral":12801,"autoriser":12802,"ĠinquiÃ©tante":12803,"Ġbleue":12804,"ĠempÃªchent":12805,"ĠdÃ©tourner":12806,"Ġgarantissent":12807,"Ġmensong":12808,"ĠmaÃ®trise":12809,"ĠmacroÃ©conomique":12810,"ĠdÃ©cidÃ©e":12811,"Ġenseignement":12812,"Ġrecueillir":12813,"acquisition":12814,"Ġterriblement":12815,"octobre":12816,"Ġmassacre":12817,"ĠambiguÃ¯tÃ©":12818,"ĠrÃ©acteurs":12819,"Ġintrins":12820,"Ġstagnation":12821,"Accord":12822,"ĠingrÃ©dients":12823,"borg":12824,"hÃ¨re":12825,"hard":12826,"sons":12827,"ymÃ©t":12828,"isait":12829,"inet":12830,"teuse":12831,"Ġra":12832,"aute":12833,"Ġpard":12834,"Ġgou":12835,"atti":12836,"agon":12837,"ĠCal":12838,"actif":12839,"eld":12840,"aves":12841,"Ġcomptons":12842,"ĠprÃ©rog":12843,"traire":12844,"Ġliaison":12845,"Ġannex":12846,"geance":12847,"adis":12848,"admettre":12849,"Ġtragiques":12850,"Ġmarques":12851,"ĠpersÃ©v":12852,"inejad":12853,"Ġarbre":12854,"Ġproductions":12855,"ĠFÃ©dÃ©ration":12856,"impÃ´ts":12857,"espÃ©rance":12858,"Ġindiquant":12859,"Ġcourbe":12860,"ĠdÃ©putÃ©e":12861,"Ġcombiner":12862,"ĠsymÃ©t":12863,"Ġportefeuille":12864,"ĠexigÃ©":12865,"ĠmentionnÃ©es":12866,"hana":12867,"ĠconfrontÃ©es":12868,"Ġdiscriminatoire":12869,"Ġrecevront":12870,"Ġproportions":12871,"tissent":12872,"Ġguide":12873,"Ġprimordiale":12874,"Ġespagnols":12875,"Ġtransatlantiques":12876,"Ġrebelles":12877,"ĠdouaniÃ¨res":12878,"Ġbombes":12879,"Ġinnocents":12880,"Ġregroupe":12881,"Ġquarante":12882,"ĠJohan":12883,"Ġtoxicom":12884,"ĠTaÃ¯wan":12885,"Ġperfection":12886,"servatoire":12887,",âĢĿ":12888,"Ġdog":12889,"Ã©min":12890,"Ġpomme":12891,"Ġaph":12892,"uranium":12893,"Ġtal":12894,"ĠtÃ©m":12895,"Ġfleur":12896,"ĠÃ©di":12897,"rite":12898,"Ġplant":12899,"Ġtrau":12900,"accidents":12901,"ĠMart":12902,"atine":12903,"lÃ©gi":12904,"Ġmarine":12905,"ĠSri":12906,"lerai":12907,"ĠdÃ©prÃ©ci":12908,"Ġamor":12909,"Ġasc":12910,"ĠTit":12911,"obstac":12912,"Ġannon":12913,"Ã¢mes":12914,"ĠEx":12915,"ĠaccordÃ©s":12916,"ĠChira":12917,"Quatre":12918,"Ġattente":12919,"phab":12920,"ficatif":12921,"Ġpromen":12922,"ĠreprÃ©sentÃ©s":12923,"tentri":12924,"ĠentitÃ©":12925,"Ġextrait":12926,"ĠprotÃ©gÃ©es":12927,"Ġrenforcera":12928,"ĠrespectÃ©e":12929,"ĠÃ©tudie":12930,"Ġdonnez":12931,"oppression":12932,"Ġprotestation":12933,"ĠJaponais":12934,"Ġassociation":12935,"Ġmassives":12936,"ĠautorisÃ©e":12937,"Ġpositivement":12938,"ĠÃ©ventuelles":12939,"Ġexportateurs":12940,"Ġneutre":12941,"Ġconviens":12942,"ĠsupÃ©rieurs":12943,"ĠprÃ©tendent":12944,"ĠhandicapÃ©s":12945,"ĠoccupÃ©e":12946,"Ġpersonnage":12947,"ĠdivisÃ©e":12948,"Ġnoirs":12949,"mosph":12950,"ĠBrown":12951,"Ġmanipulation":12952,"Ġ1960":12953,"Ġajoute":12954,"Ġtextiles":12955,"ĠArafat":12956,"Ġfranchir":12957,"Ġsoixante":12958,"ĠRwanda":12959,"invasion":12960,"ĠChirac":12961,"Ah":12962,"Yougoslavie":12963,"ave":12964,"asion":12965,"cites":12966,"lades":12967,"mati":12968,"mÃ©diterranÃ©":12969,"Ġlap":12970,"Ġfolie":12971,"Ġprest":12972,"Ġqueue":12973,"alade":12974,"tÃ©rÃ©":12975,"rable":12976,"Ġinco":12977,"Ġinatt":12978,"Ġincidents":12979,"abatt":12980,"Ġtrouvez":12981,"endit":12982,"ulent":12983,"fiants":12984,"issaient":12985,"ĠBur":12986,"Ġinscrits":12987,"ĠTcher":12988,"ĠcrÃ©ons":12989,"ĠLu":12990,"Ġmontagnes":12991,"ĠlÃ©galitÃ©":12992,"Ġ193":12993,"ĠIr":12994,"Ġservira":12995,"ĠcorrÃ©":12996,"ĠVice":12997,"ĠreprÃ©sentait":12998,"ĠprÃ©occupÃ©":12999,"engagent":13000,"ĠrÃ©glementaires":13001,"rup":13002,"Inter":13003,"ĠÃ©pouvant":13004,"ĠdÃ©chi":13005,"ĠÃ©num":13006,"Ġcontribuerait":13007,"ĠinquiÃ¨te":13008,"Ġconseillers":13009,"ĠvisibilitÃ©":13010,"Ġaffirmation":13011,"Ġlaissons":13012,"ĠdÃ©lit":13013,"ĠAnnan":13014,"Ġassurant":13015,"Ġvalables":13016,"Ġperdants":13017,"ĠprÃ©tendu":13018,"AnnÃ©e":13019,"explication":13020,"analyser":13021,"imagin":13022,"ĠpersonnalitÃ©s":13023,"Ġappartiennent":13024,"Ġciterai":13025,"Ġintellectuels":13026,"Ġautorise":13027,"Ġpersuader":13028,"Ġmonopoles":13029,"Ġreposant":13030,"Ġreviendrait":13031,"Ġlogiciel":13032,"Ġlicenciements":13033,"Ġdesquelles":13034,"Ġspatiale":13035,"Ġcollaborateurs":13036,"ĠnÃ©gligeable":13037,"Ġcompromettre":13038,"Ġexhaustive":13039,"Ġatomique":13040,"ĠredÃ©fin":13041,"Ġminoritaires":13042,"Ġchypriote":13043,"hypothÃ¨se":13044,"ĠRichard":13045,"ĠMondiale":13046,"GE":13047,"Marie":13048,"hist":13049,"otte":13050,"zu":13051,"Ġpaient":13052,"oule":13053,"Ġmeu":13054,"Ã¨ves":13055,"Ġbaign":13056,"agisme":13057,"ĠCast":13058,"ĠMerc":13059,"Ġcomplais":13060,"onnage":13061,"ĠSIS":13062,"Ġintervient":13063,"ĠintermÃ©diaires":13064,"ĠAli":13065,"Ġexposer":13066,"ĠexposÃ©es":13067,"ĠcrÃ©Ã©es":13068,"Ġfonder":13069,"ĠGi":13070,"ĠFerre":13071,"Ġminus":13072,"Ġ191":13073,"olid":13074,"Ġindienne":13075,"Ġremont":13076,"ĠremÃ¨de":13077,"ĠOrient":13078,"Ġinfraction":13079,"Ġviolente":13080,"Ġatteind":13081,"Ġpleurer":13082,"Ġglobales":13083,"Ġfixation":13084,"Ġ85":13085,"Ġinvitons":13086,"ĠconsultÃ©":13087,"Ġantibiotiques":13088,"Ġvisiteurs":13089,"Ġcouches":13090,"ĠCommunautÃ©s":13091,"Ġlonguement":13092,"Ġembry":13093,"ĠdÃ©roulent":13094,"Ġbureaucratiques":13095,"olÃ©ances":13096,"Ġtroub":13097,"ĠDanube":13098,"Ġsouple":13099,"Ġrestreint":13100,"Islande":13101,"Ġprocureur":13102,"ĠdÃ©Ã§us":13103,"ĠPalacio":13104,"ĠgÃ©nial":13105,"ĠPESC":13106,"Ġsuspendue":13107,"Ġoncle":13108,"ĠJohannes":13109,"AP":13110,"glise":13111,"mat":13112,"roi":13113,"ville":13114,"Ġdons":13115,"Ġdresser":13116,"Ã©pr":13117,"Ġpy":13118,"ouement":13119,"ertion":13120,"arak":13121,"Ġprestation":13122,"Ġuniques":13123,"ust":13124,"asc":13125,"Ġparviendra":13126,"Ġbul":13127,"Ġbillet":13128,"oile":13129,"ĠrÃ©ussie":13130,"ĠrÃ©habil":13131,"Ġprolon":13132,"Ã©raux":13133,"ĠprÃ©jug":13134,"Ġimprob":13135,"ĠtraÃ§":13136,"Ã©tendue":13137,"inspiration":13138,"eilles":13139,"istait":13140,"parti":13141,"Ġsocialement":13142,"lusions":13143,"ĠNap":13144,"Ġferti":13145,"ennemi":13146,"ogÃ¨ne":13147,"avantages":13148,"Ġsupposer":13149,"ĠrÃ©alisable":13150,"ĠfiÃ¨re":13151,"ombrables":13152,"Ġappliquent":13153,"Ġtrouvera":13154,"Ġaucunement":13155,"Ġcharger":13156,"ĠmodÃ©ration":13157,"Ġeffectif":13158,"affect":13159,"Ġintroduction":13160,"ĠintÃ©ressÃ©es":13161,"amÃ©liore":13162,"Ġcertification":13163,"ĠisolÃ©":13164,"Ġsupermar":13165,"Ġcirculer":13166,"Ġcriminel":13167,"ĠassociÃ©es":13168,"ĠCorb":13169,"Ġphysi":13170,"2001":13171,"ĠfrÃ©quent":13172,"ĠcensÃ©e":13173,"Ġdiviser":13174,"Ġoriginale":13175,"Ã©tudiants":13176,"atura":13177,"ĠdÃ©tecter":13178,"Ġenseignements":13179,"Ġmusulmane":13180,"RÃ©cemment":13181,"ĠprÃ©matur":13182,"Ġtapis":13183,"ologistes":13184,"ĠmÃ©contentement":13185,"ĠdÃ©termine":13186,"explosion":13187,"autodÃ©termination":13188,"Ġsinges":13189,"nobyl":13190,"Ġblanchiment":13191,"ĠprÃ©jugÃ©s":13192,"Com":13193,"hor":13194,"itement":13195,"vaient":13196,"Â·":13197,"Ġmit":13198,"urait":13199,"omen":13200,"ĠfumÃ©e":13201,"ĠÃ©ve":13202,"ĠÃ©ter":13203,"allem":13204,"Ġjun":13205,"Ġintu":13206,"Ġincidences":13207,"Ġillusion":13208,"Ġaver":13209,"oiseau":13210,"onnaires":13211,"Ġmonte":13212,"Ġimposent":13213,"lÃ¨ver":13214,
[...]
