{"<s>":0,"<pad>":1,"</s>":2,"<unk>":3,"<mask>":4,"!":5,"\"":6,"#":7,"$":8,"%":9,"&":10,"'":11,"(":12,")":13,"*":14,"+":15,",":16,"-":17,".":18,"/":19,"0":20,"1":21,"2":22,"3":23,"4":24,"5":25,"6":26,"7":27,"8":28,"9":29,":":30,";":31,"<":32,"=":33,">":34,"?":35,"@":36,"A":37,"B":38,"C":39,"D":40,"E":41,"F":42,"G":43,"H":44,"I":45,"J":46,"K":47,"L":48,"M":49,"N":50,"O":51,"P":52,"Q":53,"R":54,"S":55,"T":56,"U":57,"V":58,"W":59,"X":60,"Y":61,"Z":62,"[":63,"\\":64,"]":65,"^":66,"_":67,"`":68,"a":69,"b":70,"c":71,"d":72,"e":73,"f":74,"g":75,"h":76,"i":77,"j":78,"k":79,"l":80,"m":81,"n":82,"o":83,"p":84,"q":85,"r":86,"s":87,"t":88,"u":89,"v":90,"w":91,"x":92,"y":93,"z":94,"{":95,"|":96,"}":97,"~":98,"¡":99,"¢":100,"£":101,"¤":102,"¥":103,"¦":104,"§":105,"¨":106,"©":107,"ª":108,"«":109,"¬":110,"®":111,"¯":112,"°":113,"±":114,"²":115,"³":116,"´":117,"µ":118,"¶":119,"·":120,"¸":121,"¹":122,"º":123,"»":124,"¼":125,"½":126,"¾":127,"¿":128,"À":129,"Á":130,"Â":131,"Ã":132,"Ä":133,"Å":134,"Æ":135,"Ç":136,"È":137,"É":138,"Ê":139,"Ë":140,"Ì":141,"Í":142,"Î":143,"Ï":144,"Ð":145,"Ñ":146,"Ò":147,"Ó":148,"Ô":149,"Õ":150,"Ö":151,"×":152,"Ø":153,"Ù":154,"Ú":155,"Û":156,"Ü":157,"Ý":158,"Þ":159,"ß":160,"à":161,"á":162,"â":163,"ã":164,"ä":165,"å":166,"æ":167,"ç":168,"è":169,"é":170,"ê":171,"ë":172,"ì":173,"í":174,"î":175,"ï":176,"ð":177,"ñ":178,"ò":179,"ó":180,"ô":181,"õ":182,"ö":183,"÷":184,"ø":185,"ù":186,"ú":187,"û":188,"ü":189,"ý":190,"þ":191,"ÿ":192,"Ā":193,"ā":194,"Ă":195,"ă":196,"Ą":197,"ą":198,"Ć":199,"ć":200,"Ĉ":201,"ĉ":202,"Ċ":203,"ċ":204,"Č":205,"č":206,"Ď":207,"ď":208,"Đ":209,"đ":210,"Ē":211,"ē":212,"Ĕ":213,"ĕ":214,"Ė":215,"ė":216,"Ę":217,"ę":218,"Ě":219,"ě":220,"Ĝ":221,"ĝ":222,"Ğ":223,"ğ":224,"Ġ":225,"ġ":226,"Ģ":227,"ģ":228,"Ĥ":229,"ĥ":230,"Ħ":231,"ħ":232,"Ĩ":233,"ĩ":234,"Ī":235,"ī":236,"Ĭ":237,"ĭ":238,"Į":239,"į":240,"İ":241,"ı":242,"Ĳ":243,"ĳ":244,"Ĵ":245,"ĵ":246,"Ķ":247,"ķ":248,"ĸ":249,"Ĺ":250,"ĺ":251,"Ļ":252,"ļ":253,"Ľ":254,"ľ":255,"Ŀ":256,"ŀ":257,"Ł":258,"ł":259,"Ń":260,"Ġd":261,"es":262,"Ã©":263,"Ġl":264,"en":265,"on":266,"Ġp":267,"Ġc":268,"Ġa":269,"ou":270,"Ġs":271,"Ġde":272,"ti":273,"qu":274,"re":275,"Ġ.":276,"ent":277,"er":278,"Ġ,":279,"an":280,"Ġ@":281,"is":282,"Ġe":283,"Ġm":284,"Ġn":285,"in":286,"Ġqu":287,"it":288,"Ġla":289,"ur":290,"le":291,"un":292,"tion":293,"Ġt":294,"Ġpa":295,"ra":296,"Ġun":297,"Ġle":298,"ment":299,"ĠÃ":300,"il":301,"Ġet":302,"or":303,"om":304,"Ġpr":305,"Ġf":306,"Ġles":307,"Ġv":308,"te":309,"Ġen":310,"si":311,"ĠÃ©":312,"ĠÃł":313,"Ġdes":314,"ous":315,"Ġr":316,"Ġque":317,"our":318,"Ã¨":319,"ons":320,"Ġce":321,"Ġau":322,"Ġj":323,"Ġes":324,"ont":325,"âĢ":326,"Ġest":327,"me":328,"âĢĻ":329,"op":330,"Ġpar":331,"ta":332,"Ġcom":333,"us":334,"ce":335,"ant":336,"ve":337,"Ġin":338,"Ġil":339,"ir":340,"Ġb":341,"ans":342,"li":343,"Ġpour":344,"ĠdÃ©":345,"que":346,"ation":347,"Ġnous":348,"Ġune":349,"Ġma":350,"ire":351,"tÃ©":352,"ci":353,"ne":354,"ri":355,"ĠrÃ©":356,"Ġdu":357,"tre":358,"Ġfa":359,"Ġje":360,"Ġg":361,"Ġdans":362,"Ġ-":363,"Ġpas":364,"la":365,"eu":366,"ch":367,"itÃ©":368,"Ġre":369,"Ġcon":370,"os":371,"Ġqui":372,"mp":373,"Ġpro":374,"al":375,"lle":376,"au":377,"de":378,"Ġpl":379,"pp":380,"ar":381,"se":382,"Ġsur":383,"Ġne":384,"res":385,"Ġeur":386,"ĠprÃ©":387,"Ġi":388,"Ġch":389,"les":390,"Ġcomm":391,"lement":392,"ts":393,"Ġse":394,"Ġav":395,"ro":396,"Ġeurop":397,"Ġex":398,"ff":399,"tu":400,"ie":401,"ter":402,"Ġh":403,"end":404,"ge":405,"tte":406,"Ġplus":407,"Ġac":408,"Ġpo":409,"sion":410,"Ã©e":411,"Ġo":412,"Ã¨re":413,"di":414,"Ġtou":415,"Ġra":416,"Ġmon":417,"ol":418,"Ġcons":419,"Ãª":420,"ort":421,"Ġsu":422,"oi":423,"ens":424,"urs":425,"ouv":426,"ĠÃ©ta":427,"Ġtr":428,"Ġvous":429,"Ã©s":430,"ers":431,"mes":432,"ces":433,"ĠeuropÃ©":434,"Ġsi":435,"ble":436,"Ġme":437,"ue":438,"tions":439,"ques":440,"Ġcette":441,"pr":442,"ĠeuropÃ©en":443,"ion":444,"Ã¨s":445,"Ġmo":446,"Ġmais":447,"Ġsont":448,"pe":449,"ait":450,"ais":451,"Ġave":452,"ux":453,"sid":454,"Ġcommis":455,"ĠÃª":456,"Ġca":457,"Ġtra":458,"Ġdev":459,"Ġpeu":460,"ys":461,"Ġan":462,"Ġai":463,"tique":464,"oir":465,"Ġimp":466,"tes":467,"ul":468,"Ġapp":469,"Ã©es":470,"Ġent":471,"ĠÃªtre":472,"mb":473,"and":474,"ain":475,"ten":476,"ien":477,"Ġaux":478,"Ġont":479,"Ġces":480,"Ġavec":481,"ance":482,"Ġcont":483,"Ã©r":484,"Ġdi":485,"du":486,"sie":487,"ence":488,"Ġvo":489,"ient":490,"Ġte":491,"Ġsa":492,"fi":493,"Ġso":494,"Ġgr":495,"Ġcommission":496,"ord":497,"onn":498,"Ġsou":499,"ĠprÃ©sid":500,"aire":501,"ale":502,"Ġli":503,"Ġy":504,"Ġfait":505,"Ġpoli":506,"ĠÃ©c":507,"Ġres":508,"Ġrapp":509,"Ġ?":510,"Ġou":511,"tr":512,"aux":513,"Ġaut":514,"ations":515,"Ġser":516,"ga":517,"ouve":518,"Ġprop":519,"je":520,"Ġelle":521,"che":522,"Ġpays":523,"lles":524,"Ġparti":525,"ui":526,"Ġconc":527,"Ġno":528,"Ġam":529,"Ġacc":530,"ction":531,"Ġtout":532,"Ġcomme":533,"rÃ©":534,"ois":535,"Ġon":536,"Ġcomp":537,"lÃ¨":538,"Ã©ra":539,"ique":540,"ĠprÃ©sident":541,"ins":542,"cu":543,"ĠÃ©tÃ©":544,"Ġdis":545,"ĠeuropÃ©enne":546,"ments":547,"gn":548,"rer":549,"cti":550,"ires":551,"lÃ©":552,"Ġmes":553,"Ġar":554,"da":555,"Ġas":556,"Ã´":557,"ĠmÃª":558,"ite":559,"Ġob":560,"Ġentre":561,"Ġils":562,"mi":563,"ut":564,"Ġpu":565,"va":566,"onne":567,"ma":568,"Ġunion":569,"ors":570,"Ġal":571,"Ã©ri":572,"Ġfaire":573,"vi":574,"ouver":575,"Ġbien":576,"Ġfin":577,"for":578,"Ġeff":579,"ille":580,"Ġdire":581,"Ġag":582,"Ġ\"":583,"ise":584,"ine":585,"Ġco":586,"Ġinter":587,"Ġ1":588,"ĠmÃªme":589,"ssi":590,"ab":591,"Ġ2":592,"Ãł":593,"Ġcela":594,"iss":595,"Ġmonsie":596,"Ġmonsieur":597,"Ġper":598,"ĠnÃ©":599,"Ã©n":600,"Ġparlement":601,"oc":602,"at":603,"Ġins":604,"Ġpolitique":605,"Ġavons":606,"ants":607,"vent":608,"Ġques":609,"Ġson":610,"onc":611,"Ġad":612,"Ġaussi":613,"el":614,"Ġpeut":615,"00":616,"Ġimport":617,"onom":618,"Ġcer":619,"Ġrapport":620,"ac":621,"Ġvi":622,"ture":623,"Ġnouve":624,"jour":625,"ĠdÃ©c":626,"Ġdo":627,"ĠÃ©tats":628,"Ġ:":629,"Ġat":630,"its":631,"Ġleur":632,"ĠtrÃ¨s":633,"Ġmar":634,"Ġexp":635,"aires":636,"Ġnotre":637,"titu":638,"bre":639,"Ġpers":640,"ĠÃ©conom":641,"elle":642,"Ġfon":643,"Ġvou":644,"orte":645,"ves":646,"osi":647,"Ġcommun":648,"Ġmemb":649,"Ġdeux":650,"ven":651,"eil":652,"endre":653,"Ġnom":654,"ures":655,"mer":656,"galement":657,"Ġprob":658,"ĠrÃ©s":659,"Ġdro":660,"ĠintÃ©":661,"ĠÃ©galement":662,"ande":663,"Ġter":664,"Ġtrava":665,"ĠdÃ©p":666,"co":667,"tiques":668,"Ġtous":669,"rait":670,"ler":671,"ĠrÃ©g":672,"Ġquel":673,"Ġab":674,"Ġeurope":675,"Ġcerta":676,"Ġpos":677,"gra":678,"ist":679,"Ã¨me":680,"cte":681,"Ġdonc":682,"as":683,"min":684,"itÃ©s":685,"olu":686,"dre":687,"ure":688,"ni":689,"Ġman":690,"Ġconseil":691,"Ġdiff":692,"cess":693,"able":694,"oy":695,"Ġor":696,"Ġmembres":697,"Ġdoit":698,"Ġautres":699,"Ġann":700,"enti":701,"eux":702,"Ã§":703,"lic":704,"Ġpre":705,"ct":706,"fin":707,"Ġfor":708,"Ġdem":709,"sent":710,"lis":711,"Ġsoci":712,"ger":713,"oup":714,"Ġpouv":715,"tin":716,"tru":717,"ĠproblÃ¨":718,"ic":719,"Ã¨res":720,"ĠrÃ©p":721,"Ġ)":722,"Ġquestion":723,"ard":724,"Ġaccord":725,"Ġtravail":726,"Ġconcer":727,"ales":728,"Ġseu":729,"alis":730,"ĠÃ©tait":731,"aine":732,"ose":733,"og":734,"ĠÂ":735,"Ġcro":736,"use":737,"Ġenv":738,"Ġtrans":739,"cÃ©":740,"Ġjus":741,"mps":742,"vel":743,"met":744,"ense":745,"Ġnos":746,"tis":747,"velop":748,"Ġmil":749,"rais":750,"Ġses":751,"ante":752,"Ġsuis":753,"Ġdevons":754,"Ġni":755,"Ġu":756,"Ġpoin":757,"ĠdÃ©b":758,"Ġtoute":759,"ilitÃ©":760,"Ġlors":761,"ĠdÃ©velop":762,"ĠsÃ©":763,"Ġsom":764,"Ġpri":765,"ĠdÃ©m":766,"Ġpremi":767,"tra":768,"Ġprodu":769,"ner":770,"Ġproposi":771,"Ġop":772,"tÃ©s":773,"vre":774,"Ġmarch":775,"ĠÃ©v":776,"Ġti":777,"Ġnombre":778,"Ġesp":779,"Ã»":780,"ĠmÃ©":781,"jet":782,"Ġsans":783,"ions":784,"Ġemp":785,"core":786,"Ġnon":787,"Ġencore":788,"lu":789,"Ġcontre":790,"Ġass":791,"ĠprÃ©sent":792,"fs":793,"Ġaujour":794,"Ġaujourd":795,"tive":796,"nement":797,"rie":798,"Ġmonde":799,"um":800,"cip":801,"ud":802,"mment":803,"uer":804,"cer":805,"ver":806,"Ġder":807,"Ġautre":808,"teurs":809,"cep":810,"Ġuti":811,"ĠcrÃ©":812,"Ġgouver":813,"Ġbe":814,"Ġcour":815,"Ġrec":816,"Ġdonn":817,"dÃ©":818,"Ã®":819,"Ġcar":820,"Ġmain":821,"Ġcla":822,"ents":823,"gÃ©":824,"oin":825,"ls":826,"ises":827,"Ġren":828,"Ã¹":829,"iter":830,"ente":831,"ĠoÃ¹":832,"Ġmani":833,"bles":834,"Ġvoud":835,"ĠnÃ©cess":836,"ser":837,"Ġleurs":838,"itu":839,"alitÃ©":840,"Ġcr":841,"par":842,"rai":843,"Ġderni":844,"Ġcompr":845,"Ã©g":846,"Ġpla":847,"enir":848,"Ġmoi":849,"olution":850,"Ġprin":851,"Ġsoit":852,"Ġdit":853,"Ġdont":854,"hui":855,"cher":856,"Ġtemps":857,"Ġpense":858,"tant":859,"eure":860,"Ġaff":861,"gne":862,"Ġfr":863,"Ġcas":864,"Ġimportant":865,"gu":866,"Ġjour":867,"auc":868,"lo":869,"Ġue":870,"mble":871,"ange":872,"Ġparticu":873,"Ġcet":874,"Ġvoudrais":875,"endant":876,"Ġfinan":877,"ĠÃ©le":878,"Ġavoir":879,"Ġeffe":880,"ĠdÃ©veloppe":881,"aient":882,"Ġfaut":883,"iste":884,"Ġpe":885,"Ġcol":886,"Ġrais":887,"Ġaur":888,"Ã©ration":889,"gie":890,"am":891,"Ġpub":892,"Ġ200":893,"Ġess":894,"Ġdom":895,"Ġparticuli":896,"ctive":897,"ora":898,"Ġsitu":899,"tiÃ¨re":900,"Ġsys":901,"Ġpossi":902,"ĠgÃ©n":903,"Ġdroits":904,"Ġhom":905,"Ġgrand":906,"cun":907,"Ġain":908,"Ġrepr":909,"sions":910,"der":911,"Ġconf":912,"cur":913,"Ġainsi":914,"Ġpoint":915,"form":916,"Ġobje":917,"ca":918,"Ġdoi":919,"ĠdÃ©veloppement":920,"Ã¨g":921,"Ġdisp":922,"Ġ(":923,"ies":924,"Ġelles":925,"Ġsommes":926,"mple":927,"onnes":928,"ong":929,"ocra":930,"rÃª":931,"ision":932,"itoy":933,"age":934,"rib":935,"Ġmin":936,"prÃ¨s":937,"aucoup":938,"Ġbeaucoup":939,"ĠlÃ©g":940,"Ġutilis":941,"Ġcha":942,"Ġactu":943,"Ã´le":944,"ĠdiffÃ©r":945,"Ġamen":946,"Ġdoivent":947,"Ġaucun":948,"Ġsyst":949,"Ġmilli":950,"Ġici":951,"ges":952,"vers":953,"rit":954,"nes":955,"ig":956,"Ġfois":957,"ĠdÃ©mocra":958,"ĠrÃ¨g":959,"des":960,"Ġlib":961,"ĠproblÃ¨me":962,"curitÃ©":963,"Ã©qu":964,"Ġmont":965,"Ġobjecti":966,"Ġconsid":967,"Ġsituation":968,"bilitÃ©":969,"Ġproposition":970,"Ġci":971,"quoi":972,"ĠdÃ©j":973,"Ġparce":974,"Ġconstitu":975,"ĠdÃ©jÃł":976,"Ġpourquoi":977,"nation":978,"ĠlÃł":979,"Ġposi":980,"Ġmainten":981,"ĠÃ©conomique":982,"isse":983,"Ġtu":984,"anis":985,"Ġsera":986,"Ġva":987,"ĠmarchÃ©":988,"Ã¢":989,"ĠsÃ©curitÃ©":990,"Ġnation":991,"iti":992,"Ġk":993,"ences":994,"Ġalors":995,"Ġcitoy":996,"gram":997,"quer":998,"Ġpolitiques":999,"Ġmet":1000,"ĠmaniÃ¨re":1001,"pu":1002,"Ġcommiss":1003,"ĠaprÃ¨s":1004,"Ġsav":1005,"Ġfinanci":1006,"Ġbes":1007,"mis":1008,"Ġprogram":1009,"Ġmoins":1010,"Ġvrai":1011,"Ġpermet":1012,"Ġenvir":1013,"Ġcap":1014,"Ġamende":1015,"ĠÃ§":1016,"Ġmal":1017,"Ġinternation":1018,"rois":1019,"ĠÃ§a":1020,"Ġsta":1021,"Ġadop":1022,"Ġoc":1023,"Ġmen":1024,"ĠdÃ©bat":1025,"Ġvis":1026,"Ġinc":1027,"ĠÃ©g":1028,"oci":1029,"Ġcommunau":1030,"Ġba":1031,"Ġnive":1032,"Ġchose":1033,"iques":1034,"Ġentrepr":1035,"Ġexe":1036,"oire":1037,"Ġmoy":1038,"ez":1039,"Ġvie":1040,"orts":1041,"Ġavant":1042,"Ġna":1043,"oupe":1044,"Ġlui":1045,"Ġbud":1046,"Ġtrois":1047,"ds":1048,"Ġgar":1049,"lar":1050,"Ġconcern":1051,"Ġpersonnes":1052,"Ġcommissaire":1053,"olog":1054,"Ġ%":1055,"Ġvotre":1056,"Ġgrande":1057,"Ġdemand":1058,"Ġsign":1059,"Ġtoutes":1060,"fic":1061,"Ġorg":1062,"sieurs":1063,"iÃ¨me":1064,"Ġcertains":1065,"Ġfer":1066,"Ġ19":1067,"Ġpart":1068,"Ġmesures":1069,"Ġid":1070,"pons":1071,"Ġgouvernement":1072,"ĠannÃ©es":1073,"fois":1074,"tage":1075,"jours":1076,"anti":1077,"Ġtoujours":1078,"aines":1079,"ĠÃ©tat":1080,"Ġpropos":1081,"ĠÃ©ner":1082,"illeurs":1083,"ĠdÃ©f":1084,"Ġsouti":1085,"taire":1086,"Ġempl":1087,"Ġmondi":1088,"ĠamÃ©ri":1089,"ace":1090,"Ġagit":1091,"puis":1092,"Ġcitoyens":1093,"Ġind":1094,"Ġquand":1095,"ĠÂ»":1096,"Ġcent":1097,"pi":1098,"Ġense":1099,"Ġtant":1100,"Ġasse":1101,"em":1102,"ĠmatiÃ¨re":1103,"Ġgroupe":1104,"lon":1105,"Ġcor":1106,"Ġans":1107,"dent":1108,"Ġsp":1109,"Ġprof":1110,"Ġplu":1111,"Ġlong":1112,"Ġsouh":1113,"Ġcomment":1114,"Ã©li":1115,"ili":1116,"th":1117,"ang":1118,"ables":1119,"Ġpersonne":1120,"teur":1121,"Ġdepuis":1122,"erci":1123,"ellement":1124,"Ġrespons":1125,"Ġappr":1126,"ĠsystÃ¨me":1127,"ric":1128,"lons":1129,"tif":1130,"ĠreprÃ©s":1131,"Ġcadre":1132,"Ġconn":1133,"mÃ©":1134,"cteur":1135,"Ġdroit":1136,"ĠâĢ":1137,"Ġcontin":1138,"uses":1139,"Ã¨rement":1140,"Ġmaintenant":1141,"Ġbesoin":1142,"ĠconsÃ©qu":1143,"Ġniveau":1144,"Ġpouvoir":1145,"Ġsouhait":1146,"ph":1147,"Ġdou":1148,"tent":1149,"im":1150,"Ġenf":1151,"lique":1152,"onnement":1153,"Ġinstitu":1154,"Ġmada":1155,"Ġunis":1156,"Ġexemple":1157,"Ġ!":1158,"Ġprincip":1159,"ĠÂ«":1160,"Ġrespe":1161,"Ġmadame":1162,"Ġcertain":1163,"ront":1164,"tro":1165,"Ġ--":1166,"gr":1167,"lent":1168,"Ġinform":1169,"Ġseulement":1170,"Ġhomme":1171,"Ġfem":1172,"Ġinf":1173,"Ġsous":1174,"Ġcompte":1175,"Ġquestions":1176,"ĠproblÃ¨mes":1177,"Ġceux":1178,"sÃ©":1179,"ĠgÃ©nÃ©ra":1180,"tives":1181,"ĠeuropÃ©ens":1182,"Ġpartie":1183,"qui":1184,"Ġavait":1185,"ĠrÃ©du":1186,"tement":1187,"Ġautor":1188,"Ġavez":1189,"Ġafin":1190,"Ġorganis":1191,"Ġservi":1192,"Ġir":1193,"ĠintÃ©rÃª":1194,"tie":1195,"Ġeffic":1196,"cle":1197,"Ġbon":1198,"Ġconcerne":1199,"Ġ;":1200,"ulta":1201,"Ġhum":1202,"Ġpeuvent":1203,"Ġtech":1204,"hÃ©":1205,"Ġsoi":1206,"Ġpeti":1207,"Ã§on":1208,"Ġraison":1209,"Ġcontr":1210,"Ġstra":1211,"ĠrÃ©f":1212,"ĠcollÃ¨":1213,"Ġcoop":1214,"lÃ©e":1215,"Ġplan":1216,"tiv":1217,"ĠrÃ©gion":1218,"Ġindi":1219,"raient":1220,"Ã´t":1221,"ulation":1222,"Ġmi":1223,"Ġdevrait":1224,"ĠnÃ©g":1225,"ctions":1226,"Ġenvironnement":1227,"gent":1228,"Ġph":1229,"gues":1230,"Ġsui":1231,"Ġabord":1232,"issance":1233,"merci":1234,"Ġremerci":1235,"Åĵ":1236,"Ġquelques":1237,"ances":1238,"Ġappro":1239,"ĠamÃ©li":1240,"Ġarri":1241,"ĠdÃ©s":1242,"Ġim":1243,"Ġpouvons":1244,"Ġcontrib":1245,"Ġvoir":1246,"nent":1247,"Ġmettre":1248,"Ġdur":1249,"ali":1250,"Ġpres":1251,"Ġprendre":1252,"Ġdemande":1253,"out":1254,"Ġatt":1255,"Ġpens":1256,"Ġnouveau":1257,"vÃ©":1258,"Ġda":1259,"oses":1260,"Ġserait":1261,"Ġenga":1262,"Ġaide":1263,"ĠlÃ©gis":1264,"tention":1265,"ĠannÃ©e":1266,"Ġsub":1267,"ĠprocÃ©":1268,"Ġvraiment":1269,"Ġgens":1270,"Ġdisc":1271,"ond":1272,"Ġchange":1273,"Ġpourrait":1274,"Ġfi":1275,"Ġdirective":1276,"Ġpop":1277,"Ġvue":1278,"Ġensemble":1279,"ulture":1280,"tionne":1281,"tenir":1282,"Ġcontra":1283,"Ġnouvelle":1284,"Ġchoses":1285,"gue":1286,"Ġessenti":1287,"Ġquelque":1288,"Ġeffet":1289,"ĠstratÃ©":1290,"Ġcrise":1291,"Ġdomaine":1292,"ĠfÃ©":1293,"Ġ3":1294,"lation":1295,"Ġjou":1296,"Ġcours":1297,"Ġopp":1298,"uvre":1299,"Ġtrop":1300,"ici":1301,"Ġsujet":1302,"Ġsupp":1303,"Ġprogramme":1304,"Ġeu":1305,"Ġconsom":1306,"Ġlu":1307,"Ġpossible":1308,"rent":1309,"Ġtoutefois":1310,"Ġprocess":1311,"ĠtraitÃ©":1312,"Ġvers":1313,"Ġprocessus":1314,"ats":1315,"pendant":1316,"endu":1317,"Ġconcernant":1318,"ara":1319,"Ġreg":1320,"tri":1321,"Ġprote":1322,"Ġpuis":1323,"Ġz":1324,"gment":1325,"ĠcoopÃ©ration":1326,"per":1327,"Ġ20":1328,"Ġbr":1329,"Ġris":1330,"Ġsein":1331,"Ġfonction":1332,"enne":1333,"isme":1334,"Ġsavoir":1335,"Ġaccep":1336,"ĠsÃ»":1337,"Ġinves":1338,"ĠfaÃ§on":1339,"ĠdÃ©cla":1340,"Ġnu":1341,"ĠnÃ©goci":1342,"Ġcri":1343,"Ã©tÃ©":1344,"Ġfonds":1345,"Ġjam":1346,"Ġju":1347,"ĠamÃ©ric":1348,"Ġprotection":1349,"Ġentreprises":1350,"Ġjamais":1351,"Ġsouv":1352,"Ġsecteur":1353,"Ġabs":1354,"Ġmis":1355,"ai":1356,"Ġlieu":1357,"Ġfais":1358,"Ġpublic":1359,"Ġiniti":1360,"Ġrapporte":1361,"Ġbi":1362,"Ġheure":1363,"Ġpremier":1364,"vention":1365,"Ġoff":1366,"Ġban":1367,"Ġcel":1368,"ĠrÃ´le":1369,"usement":1370,"ĠrÃ©sulta":1371,"Ġord":1372,"Ġis":1373,"Ġcondi":1374,"ĠrÃ©alis":1375,"ĠprÃ©c":1376,"Ġaugment":1377,"ains":1378,"Ġhist":1379,"ĠÃ©ch":1380,"Ġver":1381,"agn":1382,"Ġplace":1383,"Ġress":1384,"Ġchaque":1385,"Ġtechn":1386,"ĠpremiÃ¨re":1387,"ĠspÃ©":1388,"quelle":1389,"Ġlaquelle":1390,"Ġrenfor":1391,"Ġbas":1392,"Ġsoutien":1393,"Ġgaranti":1394,"Ġsimp":1395,"Ġsant":1396,"ĠÃ©conomie":1397,"llement":1398,"Ġbase":1399,"ĠcompÃ©":1400,"ota":1401,"tÃ©e":1402,"ches":1403,"Ġsens":1404,"Ġrus":1405,"ĠnÃ©cessaire":1406,"xte":1407,"Ġprom":1408,"ĠprÃ©v":1409,"Ġfonda":1410,"Ġmme":1411,"Ġrien":1412,"Ġnature":1413,"Ġcroissance":1414,"Ġcependant":1415,"Ġbonne":1416,"Ġveu":1417,"Ġrela":1418,"Ġavenir":1419,"Ġclaire":1420,"Ġuni":1421,"Ġselon":1422,"cture":1423,"uri":1424,"Ġta":1425,"Ġindus":1426,"ĠreprÃ©sent":1427,"ole":1428,"lig":1429,"Ġmesure":1430,"omp":1431,"Ã©rer":1432,"Ġfemmes":1433,"Ġmoment":1434,"Ġbudge":1435,"Ġmeille":1436,"ĠâĢĵ":1437,"enu":1438,"Ġrecher":1439,"aiss":1440,"ĠrÃ©solution":1441,"Ġavan":1442,"ĠsantÃ©":1443,"Ġcommen":1444,"man":1445,"Ġpra":1446,"Ġaf":1447,"Ġrapi":1448,"tamment":1449,"cteurs":1450,"tifs":1451,"oritÃ©":1452,"Ã©rence":1453,"Ġreste":1454,"Ġfondament":1455,"Ġposition":1456,"antes":1457,"Ġpris":1458,"Ġconv":1459,"Ãªte":1460,"Ġpara":1461,"Ġenc":1462,"Ġcrois":1463,"ĠrÃ©for":1464,"Ġenfants":1465,"su":1466,"ĠÃ©tu":1467,"Ġjusqu":1468,"Ġreconn":1469,"Ġvoi":1470,"veur":1471,"van":1472,"quÃ©":1473,"Ġmillions":1474,"ĠÃ©vi":1475,"tisse":1476,"ĠdÃ©pu":1477,"ĠprÃ©sidence":1478,"Ġparticulier":1479,"Ġobjectif":1480,"Ġvote":1481,"jou":1482,"Ġprix":1483,"Ġtransp":1484,"ĠrÃ©pons":1485,"ĠspÃ©ci":1486,"orter":1487,"Ġatte":1488,"ĠrÃ¨glement":1489,"orer":1490,"Ġgra":1491,"Ġterme":1492,"uv":1493,"ĠdeuxiÃ¨me":1494,"ĠÃ©tr":1495,"Ġmoyen":1496,"Ġfaveur":1497,"Ġimportance":1498,"ites":1499,"ov":1500,"abilitÃ©":1501,"Ġsouli":1502,"acitÃ©":1503,"entes":1504,"fier":1505,"ĠÃ©nergie":1506,"Ġvol":1507,"Ġform":1508,"Ġamendements":1509,"Ġcomb":1510,"Ġassemb":1511,"Ġproch":1512,"Ġchine":1513,"venir":1514,"Ġlorsque":1515,"Ġplusieurs":1516,"Ġrou":1517,"Ġjuste":1518,"Ġpropositions":1519,"Ġunique":1520,"lÃ©ment":1521,"ĠdÃ©cision":1522,"Ã©nÃ©":1523,"oura":1524,"gement":1525,"Ġrapporteur":1526,"Ġ5":1527,"Ġlim":1528,"Ġrapide":1529,"Ġsoient":1530,"Ġinitia":1531,"Ġservices":1532,"Ġcan":1533,"rions":1534,"ĠcollÃ¨gues":1535,"nements":1536,"Ġguer":1537,"ration":1538,"Ġsec":1539,"ĠmÃ©di":1540,"Ġaction":1541,"Ġalle":1542,"Ġnombreux":1543,"Ġenfin":1544,"Ġw":1545,"Ġconstru":1546,"ĠassemblÃ©e":1547,"Ġcelui":1548,"fication":1549,"Ġesti":1550,"ĠespÃ¨re":1551,"Ġmois":1552,"Ġali":1553,"Ġaucune":1554,"Ġobjectifs":1555,"Ġnouvelles":1556,"Ġrel":1557,"Ġrem":1558,"Ġailleurs":1559,"Ġsuff":1560,"ĠvÃ©r":1561,"ĠÃ©gard":1562,"Ġ199":1563,"ources":1564,"Ġsigni":1565,"cup":1566,"ĠsÃ»r":1567,"mo":1568,"lab":1569,"Ġnor":1570,"Ġviol":1571,"Ã©rie":1572,"iser":1573,"ĠdÃ©fin":1574,"Ġcelle":1575,"ĠcoÃ»":1576,"one":1577,"Ġproduits":1578,"vez":1579,"urer":1580,"Ġprojet":1581,"Ġmise":1582,"be":1583,"tation":1584,"Ġsouvent":1585,"lex":1586,"ĠdÃ¨s":1587,"Ġdonner":1588,"Ġemploi":1589,"Ġpendant":1590,"Ġnotamment":1591,"ĠÅĵ":1592,"Ġri":1593,"Ġsemble":1594,"Ġliber":1595,"ression":1596,"els":1597,"issent":1598,"quel":1599,"Ġattein":1600,"ĠÃ©taient":1601,"Ã©ment":1602,"ĠbÃ©nÃ©":1603,"ĠÃ©tab":1604,"Ġbudget":1605,"Ġmieux":1606,"Ġcommune":1607,"cipe":1608,"mbre":1609,"Ġinvestisse":1610,"Ġinstitutions":1611,"hÃ©sion":1612,"uridi":1613,"bil":1614,"Ġjuridi":1615,"Ġtota":1616,"Ġfut":1617,"ĠcontrÃ´le":1618,"itaire":1619,"ĠÃ©qu":1620,"Ġ4":1621,"ourn":1622,"ĠparticuliÃ¨rement":1623,"ag":1624,"Ġparler":1625,"Ġchar":1626,"Ġvale":1627,"Ġrep":1628,"Ġhau":1629,"Ġexpri":1630,"ĠstratÃ©gie":1631,"Ġavis":1632,"Ġpi":1633,"ĠidÃ©e":1634,"Ġexiste":1635,"Ġguerre":1636,"Ġconsomma":1637,"Ġconditions":1638,"Ġcli":1639,"ode":1640,"anger":1641,"Ġeux":1642,"ĠrÃ©c":1643,"Ġstru":1644,"ĠbÃ©nÃ©fi":1645,"rieur":1646,"Ġvoy":1647,"gration":1648,"Ġamendement":1649,"Ġnouveaux":1650,"Ġtechnolog":1651,"isation":1652,"alement":1653,"Ġcertaines":1654,"ablement":1655,"Ã®tre":1656,"Ġparticip":1657,"ill":1658,"Ġpeux":1659,"ĠdÃ©mocratie":1660,"Ġseront":1661,"Ġprincipe":1662,"rons":1663,"ĠrÃ¨gles":1664,"Ġimpos":1665,"ĠsociÃ©tÃ©":1666,"ĠrÃ©ponse":1667,"Ġref":1668,"Ġsoulign":1669,"oration":1670,"Ġattention":1671,"mement":1672,"ĠfÃ©lic":1673,"ĠtÃ©":1674,"ĠdÃ©ci":1675,"vantage":1676,"Ġeuro":1677,"lication":1678,"Ġcontribu":1679,"Ġmaj":1680,"ĠintÃ©rÃªt":1681,"Ġtrouver":1682,"Ġextr":1683,"matique":1684,"Ġrecherche":1685,"yp":1686,"Ġjusti":1687,"Ġclairement":1688,"ige":1689,"Ġactiv":1690,"Ġparten":1691,"ĠprÃ©sidente":1692,"ay":1693,"Ġmondiale":1694,"Ġsociale":1695,"Ġorient":1696,"Ãªche":1697,"Ġdavantage":1698,"Ġdiffici":1699,"Ġveux":1700,"ĠdÃ©putÃ©s":1701,"Ġvu":1702,"Ġsais":1703,"Ġjeun":1704,"miner":1705,"Ġtur":1706,"Ġarti":1707,"Ġceci":1708,"Ġimportante":1709,"Ġquoi":1710,"Ġlan":1711,"ĠÃ©p":1712,"Ġargent":1713,"Ġpoints":1714,"Ã®t":1715,"Ġsolution":1716,"Ġface":1717,"ĠcÃ´":1718,"Ġdernier":1719,"ĠnÃ©gociations":1720,"Ġplut":1721,"ses":1722,"Ġrussie":1723,"Ġefforts":1724,"Ġculture":1725,"illes":1726,"ĠderniÃ¨re":1727,"ĠpÃ©ri":1728,"ouvez":1729,"ĠplutÃ´t":1730,"Ġur":1731,"Ġouver":1732,"Ġefficace":1733,"ing":1734,"Ġima":1735,"Ġsy":1736,"Ġait":1737,"Ġcentra":1738,"Ġche":1739,"table":1740,"ĠÃ©conomiques":1741,"ix":1742,"Ġordre":1743,"ot":1744,"Ġfav":1745,"osition":1746,"inement":1747,"grÃ¨s":1748,"Ġtaux":1749,"Ġlar":1750,"Ġdifficile":1751,"Ġmessieurs":1752,"Ã¯":1753,"ours":1754,"istes":1755,"Ġfran":1756,"liquer":1757,"Ġple":1758,"elles":1759,"Ġhistoire":1760,"ĠrÃ©pon":1761,"jets":1762,"suite":1763,"Ġsci":1764,"Ġsimplement":1765,"Ġseule":1766,"issement":1767,"Ġpor":1768,"Ġremercier":1769,"ress":1770,"Ġvoulons":1771,"taires":1772,"Ġagric":1773,"ĠcommunautÃ©":1774,"ĠqualitÃ©":1775,"Ġfra":1776,"Ġsuc":1777,"Ã¨ne":1778,"isions":1779,"Ġcher":1780,"Ġsem":1781,"Ġexc":1782,"Ġtrouv":1783,"Ġfont":1784,"graph":1785,"Ġoutre":1786,"ĠeuropÃ©ennes":1787,"Ġressources":1788,"Ġcapit":1789,"Ġpouvez":1790,"Ġpopulation":1791,"trie":1792,"ĠÃ©lar":1793,"Ġmodi":1794,"Ġinternationale":1795,"alu":1796,"ĠcrÃ©er":1797,"Ġtelle":1798,"liqu":1799,"Ġinstru":1800,"ĠÅĵuvre":1801,"istre":1802,"Ġmod":1803,"fique":1804,"Ġapproche":1805,"Ġmesda":1806,"Ġmesdames":1807,"Ġdir":1808,"Ġsorte":1809,"ĠpassÃ©":1810,"sse":1811,"Ġhab":1812,"Ġremar":1813,"ĠÃ©crit":1814,"ĠindÃ©":1815,"Ġcommerci":1816,"ctu":1817,"Ġja":1818,"lais":1819,"Ġpropre":1820,"tir":1821,"Ġpaix":1822,"ĠÃ©trang":1823,"Ġactuellement":1824,"Ġga":1825,"Ġocca":1826,"grÃ©":1827,"ĠrÃ©un":1828,"ĠdonnÃ©":1829,"Ġforme":1830,"ror":1831,"ĠÃ©t":1832,"ari":1833,"Ġcin":1834,"ĠlibertÃ©":1835,"vision":1836,"aise":1837,"Ġaurait":1838,"ĠextrÃª":1839,"ĠbudgÃ©":1840,"Ġrev":1841,"ĠrÃ©gions":1842,"cont":1843,"ĠlÃ©gislation":1844,"Ġencoura":1845,"Ġrelations":1846,"Ġrespect":1847,"Ġlutte":1848,"ĠmÃªmes":1849,"ĠmarchÃ©s":1850,"na":1851,"rique":1852,"ĠvotÃ©":1853,"cident":1854,"Ġconsommateurs":1855,"Ġaliment":1856,"itable":1857,"Ġpass":1858,"ras":1859,"quie":1860,"ĠpÃªche":1861,"Ġconcur":1862,"Ġaspe":1863,"cÃ¨s":1864,"Ġqua":1865,"Ġchangement":1866,"Ġaller":1867,"ĠresponsabilitÃ©":1868,"ĠpÃ©":1869,"Ġdevraient":1870,"Ġmalh":1871,"trodu":1872,"Ġterror":1873,"Ġdemander":1874,"Ġconfi":1875,"oupes":1876,"Ġdiffic":1877,"mand":1878,"Ġautant":1879,"Ġconclu":1880,"Ġseul":1881,"Ġaffaires":1882,"Ġconcurr":1883,"Ã¨te":1884,"ĠÃ©tant":1885,"clÃ©":1886,"Ġappel":1887,"ĠconsÃ©quent":1888,"ancement":1889,"ĠÃ©che":1890,"Ġinformation":1891,"oph":1892,"Ġfam":1893,"dure":1894,"ĠdiffÃ©rents":1895,"ĠÃ©larg":1896,"vis":1897,"Ġindustrie":1898,"Ġactuelle":1899,"Ã©rÃ©":1900,"omb":1901,"Ġvoie":1902,"ĠrÃ©sultats":1903,"tres":1904,"Ġsoutenir":1905,"Ġessay":1906,"bli":1907,"ĠarrÃª":1908,"vant":1909,"fie":1910,"ĠprÃ©oc":1911,"ĠprogrÃ¨s":1912,"ĠdÃ©pens":1913,"Ġsoli":1914,"Ġinformations":1915,"Ġtermes":1916,"rir":1917,"ier":1918,"ĠautoritÃ©s":1919,"Ġsuffis":1920,"temps":1921,"Ġcir":1922,"Ġintrodu":1923,"lir":1924,"ĠnuclÃ©":1925,"ĠintÃ©rieur":1926,"Ġentendu":1927,"Ġentra":1928,"tout":1929,"ĠdonnÃ©es":1930,"Ġvolont":1931,"Ġgen":1932,"fait":1933,"Ġvais":1934,"Ġsurtout":1935,"ĠrÃ©gi":1936,"laire":1937,"Ġdoute":1938,"ĠprocÃ©dure":1939,"Ġst":1940,"ĠrÃ©us":1941,"Ġisra":1942,"Ġconstitue":1943,"tons":1944,"Ġges":1945,"tiÃ¨res":1946,"Ġgarantir":1947,"ĠexpÃ©ri":1948,"Ġtour":1949,"ĠÃªtes":1950,"Ġassurer":1951,"Ġmalheure":1952,"Ġmala":1953,"Ġmer":1954,"Ġjuridique":1955,"mette":1956,"issant":1957,"Ġchi":1958,"Ġnombreuses":1959,"land":1960,"Ġaura":1961,"Ġpeup":1962,"Ġatta":1963,"lan":1964,"Ġconsta":1965,"Ġinsta":1966,"Ġaider":1967,"Ġdispos":1968,"Ġaccomp":1969,"ible":1970,"Ġsus":1971,"Ġadmin":1972,"Ġtranspar":1973,"000":1974,"Ġdiscus":1975,"Ġsau":1976,"Ġanim":1977,"ues":1978,"Ġoccasion":1979,"ĠrÃ©alitÃ©":1980,"Ġessentiel":1981,"Ġensuite":1982,"Ġrapidement":1983,"lait":1984,"ĠintÃ©rÃªts":1985,"Ġraisons":1986,"ĠamÃ©liorer":1987,"Ġassez":1988,"Ġrisque":1989,"Ġtent":1990,"tÃ©ri":1991,"Ġattend":1992,"Ġdevrions":1993,"Ġbar":1994,"ĠderniÃ¨res":1995,"Ġcommunautaire":1996,"Ġveut":1997,"Ġmilliard":1998,"Ġfourn":1999,"Ġgouvernements":2000,"Ġstructure":2001,"Ġcondu":2002,"Ġlibre":2003,"act":2004,"Ġinitiative":2005,"ĠnÃ©cessitÃ©":2006,"Ġvois":2007,"Ġproduction":2008,"Ġtiens":2009,"vement":2010,"Ġth":2011,"Ġinv":2012,"ĠprÃª":2013,"ĠprotÃ©":2014,"sible":2015,"tations":2016,"Ġetats":2017,"Ġpreu":2018,"ĠaccÃ¨s":2019,"Ġtel":2020,"chÃ©":2021,"Ġpublique":2022,"Ã¨mes":2023,"ctives":2024,"ĠrÃ©glement":2025,"lin":2026,"ĠsÃ©rie":2027,"Ġer":2028,"Ġjeunes":2029,"erce":2030,"endance":2031,"Ġremp":2032,"Ġconfl":2033,"Ġquant":2034,"ĠconsidÃ©ra":2035,"Ġmoyens":2036,"Ġapplication":2037,"Ġquelle":2038,"dam":2039,"Ġira":2040,"Ġarticle":2041,"Ġadminist":2042,"Ġlequel":2043,"ĠpÃ©riode":2044,"Ġ6":2045,"Ġcontinuer":2046,"ibles":2047,"Ġclair":2048,"part":2049,"Ġvoil":2050,"Ġcirc":2051,"Ġamb":2052,"Ġten":2053,"Ġnations":2054,"ĠfinanciÃ¨re":2055,"Ġplupart":2056,"cation":2057,"Ġvoit":2058,"ob":2059,"ĠmajoritÃ©":2060,"Ġinternational":2061,"Ġhe":2062,"ĠnÃ©cessaires":2063,"Ġobser":2064,"mÃ©di":2065,"Ġmalheureusement":2066,"Ġglo":2067,"Ġty":2068,"Ġsc":2069,"Ġpermette":2070,"ĠdÃ©cisions":2071,"Ġlis":2072,"et":2073,"ĠgÃ©nÃ©ral":2074,"Ġret":2075,"ĠdÃ©ter":2076,"Ġcontraire":2077,"Ġcause":2078,"tÃ©es":2079,"Ġtrouve":2080,"Ġtraite":2081,"Ġobjet":2082,"aritÃ©":2083,"ĠÃ©qui":2084,"alog":2085,"Ġinn":2086,"ĠcrÃ©ation":2087,"Ġlaiss":2088,"Ġtravailleurs":2089,"Ġvisant":2090,"sui":2091,"Ġeuros":2092,"itaires":2093,"Ġloin":2094,"Ġlesque":2095,"rico":2096,"Ġcomprom":2097,"Ġpourtant":2098,"Ġconcurrence":2099,"Ġporte":2100,"fiques":2101,"Ġvos":2102,"Ġay":2103,"ĠÃ©quili":2104,"rÃ©e":2105,"ĠÃ©du":2106,"Ġsatis":2107,"endra":2108,"Ġcompris":2109,"Ġfron":2110,"nÃ©":2111,"Ġpren":2112,"Ġtravers":2113,"pon":2114,"Ġremercie":2115,"Ġgestion":2116,"ĠvoilÃł":2117,"ĠtÃ©lÃ©":2118,"ub":2119,"Ġtrain":2120,"Ġsavez":2121,"Ġagrico":2122,"Ġpoursui":2123,"Ġrespec":2124,"agne":2125,"Ġpermettre":2126,"Ġconfiance":2127,"rez":2128,"Ġutiliser":2129,"Ġrendre":2130,"ĠstabilitÃ©":2131,"Ġeau":2132,"Ġdomaines":2133,"Ġcomprendre":2134,"Ġgroupes":2135,"Ġconte":2136,"iles":2137,"Ġfort":2138,"ĠdiffÃ©rentes":2139,"oque":2140,"Ġajou":2141,"Ġinqui":2142,"Ġmembre":2143,"Ġsouhaite":2144,"Ġorig":2145,"aissance":2146,"ĠprÃ©occup":2147,"Ġrenforcer":2148,"Ġturquie":2149,"alisation":2150,"Ġespr":2151,"Ġconsci":2152,"Ġsuite":2153,"cts":2154,"Ġlorsqu":2155,"Ġsouten":2156,"cel":2157,"ĠÃ©viter":2158,"ĠprÃ©cÃ©":2159,"Ġprogrammes":2160,"Ġ7":2161,"ĠbÃ©nÃ©fici":2162,"ĠdÃ©mocratique":2163,"Ġutilisation":2164,"Ġdol":2165,"Ġloc":2166,"Ġcoup":2167,"Ġha":2168,"ĠÃ©n":2169,"Ġfond":2170,"Ã¢ce":2171,"Ġcommerce":2172,"Ġexplo":2173,"lÃ©g":2174,"Ġ201":2175,"Ġtexte":2176,"ĠadhÃ©sion":2177,"Ġglob":2178,"ĠgrÃ¢ce":2179,"Ġpratique":2180,"Ġus":2181,"ines":2182,"Ġactions":2183,"Ġdollar":2184,"Ã©cu":2185,"ĠpossibilitÃ©":2186,"tient":2187,"ĠprÃ©cis":2188,"ĠtroisiÃ¨me":2189,"Ġpasse":2190,"ĠlibÃ©ra":2191,"Ġmauv":2192,"Ġaimer":2193,"ĠrÃ©ser":2194,"Ġtype":2195,"Ġforte":2196,"demment":2197,"ĠÃ©lections":2198,"Ġpermettez":2199,"Ġappelle":2200,"Ġfis":2201,"ĠlÃ©gisla":2202,"Ġsubs":2203,"ĠmodÃ¨":2204,"Ġdestin":2205,"ĠrÃ©forme":2206,"era":2207,"ils":2208,"men":2209,"Ġafrique":2210,"mon":2211,"oli":2212,"ctement":2213,"ĠextrÃªmement":2214,"Ġrencont":2215,"Ġconvain":2216,"Ġsud":2217,"Ġmeilleure":2218,"vÃ©s":2219,"ĠrÃ©duire":2220,"oritÃ©s":2221,"Ġoblig":2222,"Ġsignifie":2223,"Ġsommet":2224,"ĠconsÃ©quences":2225,"Ġprofes":2226,"Ġministre":2227,"Ġhommes":2228,"ĠÃ©tudi":2229,"Ġreven":2230,"Ġprojets":2231,"Ã¨rent":2232,"Ġmu":2233,"oires":2234,"Ġsavons":2235,"ĠÃ©nergÃ©":2236,"ienne":2237,"Ġaccepter":2238,"Ġimporte":2239,"ĠÃ©largissement":2240,"Ġdevant":2241,"Ġrend":2242,"Ġdialog":2243,"Ġfinancement":2244,"Ġjustice":2245,"Ġpasser":2246,"vÃ©e":2247,"ĠcontrÃ´":2248,"ĠprÃ¨s":2249,"ĠrÃ©pondre":2250,"gence":2251,"Ġ10":2252,"Ġhar":2253,"Ġprog":2254,"Ġexcel":2255,"ĠÃ©valu":2256,"titude":2257,"Ġmul":2258,"Ġsouligner":2259,"mination":2260,"Ġmilliards":2261,"Ġit":2262,"para":2263,"Ġirak":2264,"ĠÃ©mis":2265,"ĠintÃ©ress":2266,"Ġlongtemps":2267,"ĠdÃ©but":2268,"Ġdocu":2269,"Ġcompromis":2270,"Ġdisposi":2271,"Ġdirige":2272,"Ġesprit":2273,"istan":2274,"Ġdois":2275,"ign":2276,"Ġpubli":2277,"Ġquatre":2278,"Ġbre":2279,"Ġcara":2280,"Ġsemb":2281,"Ġanci":2282,"Ġaccords":2283,"Ġrecom":2284,"Ġsan":2285,"Ġ8":2286,"Ġtravailler":2287,"ĠcompÃ©ti":2288,"lande":2289,"Ġfix":2290,"Ġperspe":2291,"Ġcommunic":2292,"Ġjours":2293,"rain":2294,"Ġassoci":2295,"olutions":2296,"Ġexa":2297,"Ġnord":2298,"ĠcÃ´tÃ©":2299,"Ġzone":2300,"Ġven":2301,"moins":2302,"Ġestime":2303,"Ġdiscu":2304,"ĠrÃ©gime":2305,"acun":2306,"ĠrÃ©sultat":2307,"ister":2308,"Ġimportants":2309,"bonne":2310,"Ġpauvre":2311,"Ġappar":2312,"Ġlisbonne":2313,"Ġchacun":2314,"Ġdivers":2315,"ret":2316,"Ġopin":2317,"Ġbou":2318,"Ġtransport":2319,"Ġdonne":2320,"ĠamÃ©rique":2321,"Ġdialogue":2322,"Ġapporter":2323,"mage":2324,"Ġjapon":2325,"Ġsal":2326,"Ġoubli":2327,"Ġvoici":2328,"Ġdifficul":2329,"Ġjourn":2330,"ton":2331,"ĠindÃ©p":2332,"Ġbure":2333,"ru":2334,"Ġcoord":2335,"Ġsol":2336,"Ġsimple":2337,"Ġgrandes":2338,"mation":2339,"Ġemplois":2340,"ĠÃ©lect":2341,"ĠreÃ§":2342,"Ġpol":2343,"ha":2344,"tivement":2345,"iennent":2346,"ĠconfÃ©rence":2347,"lure":2348,"Ġcelles":2349,"tÃ©ra":2350,"Ġvoter":2351,"Ġdess":2352,"Ġpreuve":2353,"cÃ©e":2354,"eur":2355,"Ġexerci":2356,"niques":2357,"Ġforce":2358,"Ġcontexte":2359,"Ġscienti":2360,"ĠdÃ©ta":2361,"Ã¨ce":2362,"Ġcinq":2363,"Ġsep":2364,"Ġgenre":2365,"ris":2366,"Ġvicti":2367,"ĠvolontÃ©":2368,"Ġvont":2369,"mettre":2370,"Ġdurable":2371,"Ġtard":2372,"Ġproduit":2373,"Ġsenti":2374,"Ġvenir":2375,"ĠreprÃ©sente":2376,"Ġpuisse":2377,"Ġregard":2378,"Ġrappel":2379,"Ġtitre":2380,"Ġpropres":2381,"Ġadopter":2382,"Ġchez":2383,"Ġexig":2384,"Ġagir":2385,"yer":2386,"Ġsuiv":2387,"Ġpourraient":2388,"Ġexist":2389,"Ġoccident":2390,"ination":2391,"ĠsuccÃ¨s":2392,"Ġavaient":2393,"ĠsystÃ¨mes":2394,"orm":2395,"Ġprov":2396,"sement":2397,"lus":2398,"ĠsupplÃ©ment":2399,"Ġcommencer":2400,"Ġ9":2401,"Ġaffir":2402,"Ġfisc":2403,"Ġprincipes":2404,"anmoins":2405,"ĠnÃ©anmoins":2406,"Ġimmi":2407,"ĠÃ©lab":2408,"Ġexercice":2409,"Ã«":2410,"ĠdÃ»":2411,"Ġsocial":2412,"Ġinde":2413,"Ġnormes":2414,"Ġenvis":2415,"fes":2416,"Ġnationaux":2417,"Ġsolid":2418,"Ġparmi":2419,"ĠdemandÃ©":2420,"ĠactivitÃ©s":2421,"ĠrÃ©se":2422,"Ġoppos":2423,"Ġaugmentation":2424,"Ġcal":2425,"Ġbal":2426,"ĠmonÃ©":2427,"Ġassur":2428,"Ġrester":2429,"Ġparties":2430,"Ġanal":2431,"Ġconvient":2432,"ĠbudgÃ©taire":2433,"ĠrÃ©sou":2434,"Ġgaz":2435,"ĠsiÃ¨":2436,"ĠÃ©ducation":2437,"Ġend":2438,"ĠcompÃ©ten":2439,"Ġconcent":2440,"Ġmanque":2441,"Ġmanifes":2442,"ĠÃ¢":2443,"Ġouv":2444,"Ġjouer":2445,"Ġgrands":2446,"ĠÃ©lÃ©":2447,"Ġimportantes":2448,"Ġfinanciers":2449,"ĠmalgrÃ©":2450,"Ġ000":2451,"ĠdÃ©claration":2452,"itation":2453,"ĠintÃ©gration":2454,"Ġiran":2455,"Ġengagement":2456,"Ġcandi":2457,"Ġlivre":2458,"Ġtransf":2459,"ĠÃ©nor":2460,"Ġcandida":2461,"Ġobtenir":2462,"Ġfu":2463,"onde":2464,"tien":2465,"Ġtelles":2466,"Ġpales":2467,"ĠefficacitÃ©":2468,"Ġtransparence":2469,"ateur":2470,"Ġfaci":2471,"Ġinterne":2472,"Ġvaleurs":2473,"dap":2474,"Ġsin":2475,"Ġmort":2476,"Ġconcep":2477,"tar":2478,"ĠrÃ©ellement":2479,"Ġtels":2480,"Ġorganisation":2481,"vid":2482,"Ġang":2483,"Ġenviron":2484,"Ġfaud":2485,"Ġconvention":2486,"ĠprÃ©f":2487,"Ġanti":2488,"oix":2489,"Ġdemain":2490,"Ã«l":2491,"Ġagriculture":2492,"ĠentraÃ®":2493,"mÃ©e":2494,"Ġchin":2495,"Ġsor":2496,"Ġabsolu":2497,"Ġmontre":2498,"Ġprochaine":2499,"Ġfavora":2500,"Ġcommunication":2501,"uler":2502,"Ġaimerais":2503,"ĠrÃ©jou":2504,"Ġvient":2505,"aces":2506,"uel":2507,"Ġallons":2508,"ĠmÃ©th":2509,"ĠfranÃ§":2510,"Ġpetit":2511,"hi":2512,"ert":2513,"tances":2514,"Ġparle":2515,"Ġcertainement":2516,"Ġmention":2517,"Ġdix":2518,"tas":2519,"ĠÃ©cou":2520,"Ġcrit":2521,"Ġatteindre":2522,"Ġchoix":2523,"Ġchinois":2524,"iez":2525,"Ġchers":2526,"ĠcapacitÃ©":2527,"ĠvÃ©ritable":2528,"ĠinquiÃ©":2529,"ĠdÃ©fense":2530,"Ġintervention":2531,"Ġvaleur":2532,"ĠÃ©tais":2533,"Ġtiers":2534,"Ġerre":2535,"oles":2536,"Ġnationales":2537,"Ġinflu":2538,"ĠdÃ©si":2539,"ad":2540,"Ġheures":2541,"are":2542,"Ġrapports":2543,"ĠrÃ©soudre":2544,"tan":2545,"Ġpartis":2546,"Ġgros":2547,"Ġchois":2548,"ĠempÃª":2549,"Ġhabit":2550,"ĠdÃ©penses":2551,"Ġinnov":2552,"Ġyeux":2553,"prÃ©":2554,"ement":2555,"Ġhui":2556,"Ġaspects":2557,"ends":2558,"Ġunivers":2559,"tine":2560,"Ã©rons":2561,"Ġhuman":2562,"ĠÃ©lÃ©ments":2563,"Ġbrit":2564,"Ġindustri":2565,"ĠpauvretÃ©":2566,"Ġcamp":2567,"Ġcontribuer":2568,"aut":2569,"Ġprise":2570,"ĠdÃ©fini":2571,"tionnel":2572,"magne":2573,"Ġprogres":2574,"gique":2575,"ĠexpÃ©rience":2576,"ĠtÃ¢":2577,"ĠrÃ©formes":2578,"Ġbanque":2579,"Ġallemagne":2580,"Ġmondial":2581,"Ġsemaine":2582,"Ġimpact":2583,"ĠfrontiÃ¨res":2584,"ĠÃ©videmment":2585,"ute":2586,"Ġmari":2587,"ĠrÃ©v":2588,"ĠcomplÃ¨":2589,"amment":2590,"Ġanimaux":2591,"Ġache":2592,"ĠmÃ©c":2593,"Ġunies":2594,"Ġnational":2595,"ĠfinanciÃ¨res":2596,"Ġterrorisme":2597,"ĠnuclÃ©aire":2598,"opri":2599,"ĠmodÃ¨le":2600,"Ġsouff":2601,"Ġcou":2602,"Ġidenti":2603,"Ġconfront":2604,"Ġmerci":2605,"Ġterrit":2606,"Ġlarge":2607,"ĠÃ©nergÃ©tique":2608,"Ġ15":2609,"ĠÃ©volution":2610,"Ġpresque":2611,"Ġbut":2612,"ctures":2613,"Ġadap":2614,"tel":2615,"Ġorigine":2616,"Ġespace":2617,"Ġsociaux":2618,"ĠsolidaritÃ©":2619,"Ġbritan":2620,"Ġom":2621,"die":2622,"art":2623,"Ġpoten":2624,"Ġsix":2625,"Ġdispositions":2626,"Ġpartage":2627,"Ġvictimes":2628,"Ġconstitution":2629,"Ġrecommand":2630,"gi":2631,"ori":2632,"ĠÃ©galitÃ©":2633,"Ġuniquement":2634,"Ġtenir":2635,"Ġcollab":2636,"ore":2637,"ĠÃ©vo":2638,"Ġterre":2639,"Ġfinancier":2640,"Ġimag":2641,"ran":2642,"lant":2643,"ĠchÃ´":2644,"Ġemb":2645,"Ġparfois":2646,"ĠamÃ©ricains":2647,"Ġviolence":2648,"Ġjeu":2649,"Ġpermis":2650,"ograph":2651,"Ġparvenir":2652,"Ġrisques":2653,"Ġitali":2654,"Ġpartir":2655,"sage":2656,"Ġdollars":2657,"cles":2658,"ĠprotÃ©ger":2659,"ĠrÃ©duction":2660,"ones":2661,"Ġloi":2662,"Ã§ons":2663,"Ġtotalement":2664,"Ġcentrale":2665,"Ġhier":2666,"Ġinvestissements":2667,"cemment":2668,"Ġfac":2669,"Ġclimatique":2670,"ormais":2671,"ĠpÃ©tro":2672,"Ġabsolument":2673,"ĠdÃ©sormais":2674,"ĠgÃ©":2675,"tivitÃ©":2676,"aÃ®tre":2677,"arde":2678,"ĠadoptÃ©":2679,"ĠÃ©valuation":2680,"tier":2681,"Ġstatu":2682,"ĠrÃ©cemment":2683,"Ġquelqu":2684,"ribu":2685,"Ġmontrer":2686,"uvres":2687,"ĠmÃ©r":2688,"gÃ©s":2689,"oma":2690,"Ġaccro":2691,"Ġprobablement":2692,"Ġmeilleur":2693,"litÃ©":2694,"ĠprocÃ©d":2695,"Ġfondamentaux":2696,"han":2697,"Ġhaut":2698,"Ġgu":2699,"Ã©tÃ©s":2700,"Ġmulti":2701,"Ġrece":2702,"Ġservice":2703,"Ġdirection":2704,"ĠcollÃ¨gue":2705,"ĠÃ©poque":2706,"Ġfrance":2707,"Ġradi":2708,"ĠprÃ©sente":2709,"ĠisraÃ«l":2710,"Ġdos":2711,"Ġoui":2712,"ption":2713,"ortun":2714,"cent":2715,"Ġdevenir":2716,"ĠfÃ©liciter":2717,"Ġharmon":2718,"ĠimmÃ©di":2719,"ĠcommencÃ©":2720,"dit":2721,"Ġmoder":2722,"Ġpotenti":2723,"Ġopinion":2724,"ĠcoÃ»ts":2725,"Ġpeuple":2726,"Ġcorre":2727,"Ġorganisations":2728,"ĠdÃ©velopper":2729,"Ġdirigeants":2730,"Ġtes":2731,"Ġavais":2732,"..":2733,"lÃ©s":2734,"Ġaffaire":2735,"Ġsch":2736,"Ġdel":2737,"Ã¨de":2738,"ventions":2739,"Ġentreprise":2740,"ĠentiÃ¨re":2741,"Ġtradi":2742,"Ġprises":2743,"Ġfemme":2744,"Ġsen":2745,"Ġobs":2746,"ĠprioritÃ©":2747,"ĠmonÃ©taire":2748,"Ġcomplex":2749,"Ġpeine":2750,"Ġveil":2751,"Ġoct":2752,"dici":2753,"Ġpetites":2754,"oins":2755,"Ġappropri":2756,"Ġchanger":2757,"ĠapprÃ©":2758,"Ġconser":2759,"Ġnationale":2760,"Ġopportun":2761,"Ġresponsables":2762,"Ġfil":2763,"Ġsatisf":2764,"blement":2765,"ĠÃ©change":2766,"Ġformation":2767,"ages":2768,"Ġciv":2769,"Ġexprimer":2770,"rations":2771,"Ġveulent":2772,"ĠmÃ©canis":2773,"fiÃ©":2774,"Ġcomporte":2775,"ĠdifficultÃ©s":2776,"Ġparfait":2777,"action":2778,"ĠÃ©vÃ©":2779,"ĠdeuxiÃ¨mement":2780,"Ġdist":2781,"Ġchangements":2782,"Ġpartenari":2783,"ĠextÃ©":2784,"Ġexpor":2785,"Ġappliquer":2786,"Ġcru":2787,"Ġadoption":2788,"nique":2789,"Ġconflit":2790,"xe":2791,"Ġsait":2792,"Ġdevoir":2793,"Ġtenu":2794,"Ġchance":2795,"Ġexac":2796,"Ġtom":2797,"pens":2798,"ctivement":2799,"Ġbanques":2800,"uelle":2801,"Ġ/":2802,"Ġpauvres":2803,"Ġriches":2804,"ĠcritÃ¨res":2805,"troph":2806,"Ġtechnologie":2807,"ĠdÃ©velopp":2808,"ĠidÃ©es":2809,"Ġprofession":2810,"ĠpÃ©n":2811,"Ġcoh":2812,"ĠprÃ©senter":2813,"Ġindivid":2814,"quent":2815,"Ġgagn":2816,"ĠdÃ©cidÃ©":2817,"Ġrefus":2818,"ttes":2819,"Ġcolle":2820,"Ġpen":2821,"Ġintention":2822,"Ġchiff":2823,"Ġfaites":2824,"Ġrespecter":2825,"ĠÃ©missions":2826,"cement":2827,"ĠprioritÃ©s":2828,"Ġretar":2829,"Ġhu":2830,"ĠchÃ´mage":2831,"Ġpromouv":2832,"Ġpourra":2833,"Ġign":2834,"Ġ...":2835,"tait":2836,"alistes":2837,"ateurs":2838,"Ġforces":2839,"istance":2840,"verse":2841,"tionnelle":2842,"tastroph":2843,"abil":2844,"ĠdÃ©pos":2845,"Ġport":2846,"cap":2847,"Ġcatastroph":2848,"Ġminist":2849,"reux":2850,"Ġpropose":2851,"cs":2852,"Ġayant":2853,"iner":2854,"Ġcondam":2855,"ĠÃ©conomies":2856,"Ġobten":2857,"Ġvoix":2858,"con":2859,"ĠrÃ©ussi":2860,"Ġsour":2861,"Ġpenser":2862,"ĠÃ©lÃ©ment":2863,"Ġmilitaire":2864,"ĠsociÃ©tÃ©s":2865,"jus":2866,"Ġroy":2867,"Ġindis":2868,"Ġengage":2869,"Ġagricole":2870,"rou":2871,"Ġara":2872,"ĠthÃ©":2873,"Ġbus":2874,"Ġarmes":2875,"Ġcontinu":2876,"Ġrappeler":2877,"Ġobli":2878,"oit":2879,"vie":2880,"Ġmaison":2881,"Ġreje":2882,"Ġhon":2883,"ĠcohÃ©sion":2884,"mat":2885,"Ġenvoy":2886,"ĠamÃ©ricaine":2887,"Ġtraitement":2888,"Ġdimin":2889,"cta":2890,"rement":2891,"Ġinten":2892,"Ġsouhaiter":2893,"Ġsug":2894,"aliste":2895,"ĠprocÃ©dures":2896,"Ġdange":2897,"ĠamÃ©lioration":2898,"Ġlut":2899,"ĠdÃ©fi":2900,"Ġarrive":2901,"ock":2902,"ĠprÃ©cisÃ©ment":2903,"ĠapprÃ©ci":2904,"Ġ30":2905,"Ġmouve":2906,"Ġpromouvoir":2907,"Ġora":2908,"Ġatti":2909,"Ġligne":2910,"cri":2911,"Ġ12":2912,"usse":2913,"Ġcombien":2914,"Ġpartenaires":2915,"Ġvit":2916,"Ġencourager":2917,"Ġretour":2918,"ĠÃ©quilibre":2919,"Ġlumi":2920,"ĠrÃ©union":2921,"indre":2922,"Ġsuivre":2923,"Ġpression":2924,"lez":2925,"Ġretr":2926,"ĠintÃ©gr":2927,"Ġespoir":2928,"isent":2929,"bilitÃ©s":2930,"Ġdurant":2931,"Ġmot":2932,"onner":2933,"Ġexcep":2934,"Ġlog":2935,"Ġconvainc":2936,"ĠbÃ¢":2937,"Ġparven":2938,"alitÃ©s":2939,"Ġinstrument":2940,"Ġeffets":2941,"Ġeffectu":2942,"Ġinstruments":2943,"Ġconcr":2944,"Ġjudici":2945,"Ġsuper":2946,"Ġfaisons":2947,"rier":2948,"Ġpublics":2949,"Ġmus":2950,"laires":2951,"ĠÃ©vent":2952,"Ġparticipation":2953,"Ġveiller":2954,"Ġexcellent":2955,"Ġactuel":2956,"gueur":2957,"pl":2958,"Ġvigueur":2959,"do":2960,"Ġextra":2961,"aisse":2962,"Ġsolutions":2963,"Ġprend":2964,"lÃ©ch":2965,"Ġbesoins":2966,"Ġinvestissement":2967,"Ġheureux":2968,"Ġasi":2969,"Ġlaisse":2970,"ĠrÃ©fÃ©rence":2971,"Ġalli":2972,"Ġ2000":2973,"Ġinternet":2974,"ĠdÃ©ce":2975,"Ġacqu":2976,"Ġquali":2977,"Ġcontinue":2978,"Ġuk":2979,"Ġaffe":2980,"ĠÃ©levÃ©":2981,"ĠconsÃ©quence":2982,"Ġsurve":2983,"Ġdiscussion":2984,"Ġmand":2985,"ĠamÃ©ricain":2986,"sive":2987,"Ġappliqu":2988,"ĠgÃ©nÃ©rale":2989,"ps":2990,"lissement":2991,"Ġsecteurs":2992,"Ġirlande":2993,"Ġdocument":2994,"orique":2995,"Ġarriver":2996,"Ġderniers":2997,"ĠsÃ©ri":2998,"Ġlongue":2999,"Ġparagraph":3000,"itent":3001,"ĠprÃ©sentÃ©":3002,"Ġdiscri":3003,"Ġurgence":3004,"Ġ25":3005,"Ġparole":3006,"ennes":3007,"ĠrÃ©pub":3008,"Ġcontribution":3009,"ĠÃ©chelle":3010,"Ġcertaine":3011,"Ġsignal":3012,"Ġstatut":3013,"Ġair":3014,"ass":3015,"Ġrom":3016,"Ġprofessionne":3017,"join":3018,"Ġparta":3019,"Ġzones":3020,"Ġnour":3021,"Ġexclu":3022,"Ġconsac":3023,"Ġpoursuivre":3024,"ze":3025,"lage":3026,"Ġsociales":3027,"Ġpetite":3028,"Ġdevra":3029,"Ġfavor":3030,"ĠprÃ©s":3031,"vÃ©es":3032,"vaux":3033,"Ġdossi":3034,"Ġindispens":3035,"tim":3036,"Ġmora":3037,"Ġendro":3038,"Ġinitiatives":3039,"Ġsuffisamment":3040,"ĠempÃªcher":3041,"ctÃ©":3042,"Ġdiscussions":3043,"Ġinfor":3044,"Ġexis":3045,"ĠexÃ©cu":3046,"ĠcompÃ©titivitÃ©":3047,"ĠvÃ©":3048,"ĠdÃ©fis":3049,"Ġtechnologies":3050,"ĠdÃ©clarÃ©":3051,"Ġimmigration":3052,"Ġliste":3053,"ĠaÃ©ri":3054,"orie":3055,"Ġattendre":3056,"Ġenqu":3057,"Ġmauvais":3058,"ager":3059,"Ġton":3060,"ĠproposÃ©":3061,"Ġtradu":3062,"lÃ¨ve":3063,"Ġavions":3064,"Ġpartenariat":3065,"Ġconfir":3066,"Ġcombat":3067,"ĠÃ©vid":3068,"Ġagricul":3069,"Ġlaisser":3070,"urent":3071,"ĠÃ©tro":3072,"Ġfinalement":3073,"ĠsÃ©rieux":3074,"Ġentendre":3075,"Ġexam":3076,"Ġsoule":3077,"cÃ©es":3078,"lisation":3079,"fica":3080,"Ġrelatives":3081,"ĠpossibilitÃ©s":3082,"ĠconsidÃ¨re":3083,"Ġaugmenter":3084,"Ġmenace":3085,"Ġinfras":3086,"ĠdelÃł":3087,"Ġinfrastru":3088,"ĠhÃ©":3089,"Ġdipl":3090,"ĠdÃ©pend":3091,"ĠdÃ©mont":3092,"Ġpratiques":3093,"ĠÃ©tablir":3094,"Ġenvers":3095,"Ġpleinement":3096,"Ġpetits":3097,"Ġconsommation":3098,"ĠfÃ©licite":3099,"Ġpie":3100,"Ġhumains":3101,"Ġordin":3102,"Ġaime":3103,"ĠfranÃ§ais":3104,"20":3105,"ĠÃ©vident":3106,"Ġlet":3107,"Ġexer":3108,"ĠÃ©trangÃ¨re":3109,"Ġroyau":3110,"hen":3111,"ĠimmÃ©dia":3112,"mun":3113,"sique":3114,"Ġmonna":3115,"Ġfamille":3116,"ĠlumiÃ¨re":3117,"Ġposer":3118,"ĠlÃ©giti":3119,"Ġcontenu":3120,"Ġexemp":3121,"Ġ50":3122,"ĠdÃ©fic":3123,"ati":3124,"lam":3125,"issons":3126,"ĠpremiÃ¨rement":3127,"ologique":3128,"ĠrÃ©flÃ©ch":3129,"Ġroyaume":3130,"Ġadres":3131,"Ġbonnes":3132,"Ġexigences":3133,"Ġsoir":3134,"Ġoffici":3135,"ĠrÃ©glementation":3136,"Ġmots":3137,"Ġinternationales":3138,"Ġsim":3139,"Ġpensons":3140,"Ġcandidats":3141,"Ġinnovation":3142,"voir":3143,"landais":3144,"diction":3145,"ĠaccÃ©":3146,"Ġconstituent":3147,"Ġgard":3148,"ĠconsidÃ©ration":3149,"ĠsiÃ¨cle":3150,"Ġdispon":3151,"Ġimpression":3152,"Ã©rÃ©e":3153,"toire":3154,"alisme":3155,"Ġpersonnel":3156,"Ġpous":3157,"Ġpros":3158,"ĠactivitÃ©":3159,"Ġalimentaire":3160,"Ġauxque":3161,"Ġpermettra":3162,"Ġeffectivement":3163,"Ġemploy":3164,"Åĵur":3165,"Ġresponsabil":3166,"Ġdessus":3167,"Ġ11":3168,"Ġlesquels":3169,"tages":3170,"Ġconform":3171,"Ġtemp":3172,"Ġadministration":3173,"gÃ©e":3174,"yn":3175,"Ġdimen":3176,"riÃ¨re":3177,"roi":3178,"Ġorgan":3179,"Ġaborder":3180,"Ġattitude":3181,"Ġafg":3182,"Ġville":3183,"Ġcruci":3184,"Ġautour":3185,"Ġcentre":3186,"Ġoccup":3187,"ĠÃ©quipe":3188,"ĠparlÃ©":3189,"uels":3190,"Ġsemaines":3191,"Ã©tique":3192,"char":3193,"pit":3194,"Ġvoyez":3195,"Ġagriculteurs":3196,"Ġregarde":3197,"Ġlesquelles":3198,"Ġbil":3199,"ĠprÃ©ser":3200,"Ġcivi":3201,"Ġpopu":3202,"ĠtÃªte":3203,"Ġcircons":3204,"ĠidÃ©":3205,"fiÃ©e":3206,"Ġmessage":3207,"Ġparlementaire":3208,"ĠadÃ©qu":3209,"Ġopposition":3210,"Ġpuisque":3211,"Ġajouter":3212,"Ġconstruction":3213,"Ġcoordination":3214,"Ġtoi":3215,"pa":3216,"Ġmaintenir":3217,"Ġentend":3218,"ĠreÃ§u":3219,"ĠÃ©cole":3220,"Ġfacile":3221,"Ġaccue":3222,"Ġsuivi":3223,"ĠautoritÃ©":3224,"Ġphot":3225,"Ġfaible":3226,"Ġtravaux":3227,"Ġargu":3228,"Ġcondition":3229,"Ġsort":3230,"Ġresponsable":3231,"Ġrelative":3232,"rÃ©s":3233,"ĠcompÃ©tences":3234,"ĠpÃ©trole":3235,"Ġconclure":3236,"Ġpuissent":3237,"Ġdirectement":3238,"ĠtÃ¢che":3239,"val":3240,"Ġsurpr":3241,"Ġtran":3242,"Ġpubliques":3243,"Ġfab":3244,"let":3245,"rieures":3246,"Ġjoue":3247,"Ġfaisant":3248,"Ġtomb":3249,"Ġmatin":3250,"Ġpouvait":3251,"Ġabsence":3252,"ĠresponsabilitÃ©s":3253,"ĠÃ©mer":3254,"chent":3255,"Ġimpossible":3256,"Ġdette":3257,"odes":3258,"itablement":3259,"Ġrenouve":3260,"Ġenfant":3261,"Ġtransports":3262,"matiques":3263,"Ġmission":3264,"Ġnaturellement":3265,"roy":3266,"Ġmandat":3267,"Ġpositif":3268,"Ġparagraphe":3269,"Ġprochain":3270,"ĠÃ©vÃ©nements":3271,"Ã¨tes":3272,"Ġliv":3273,"Ġapprouv":3274,"Ġessayer":3275,"ĠrÃ©uss":3276,"nie":3277,"Ġrur":3278,"ĠnÃ©ga":3279,"Ġconnaiss":3280,"Ġambi":3281,"Ġquelles":3282,"manie":3283,"ĠrÃ©jouis":3284,"Ġquanti":3285,"lable":3286,"Ġrevenus":3287,"cÃ©s":3288,"ĠrÃ©aliser":3289,"yse":3290,"Ġtirer":3291,"ck":3292,"ĠÃ©li":3293,"Ġaband":3294,"Ġimpor":3295,"oncer":3296,"rÃ©es":3297,"Ġministres":3298,"Ġaient":3299,"Ġfutur":3300,"Ġcivile":3301,"Ġaspect":3302,"Ġmener":3303,"ĠtrouvÃ©":3304,"isant":3305,"Ġtechnique":3306,"Ġalter":3307,"Ġafghan":3308,"Ġblan":3309,"ĠespÃ©rons":3310,"Ġinac":3311,"cul":3312,"Ġvision":3313,"Ġperspectives":3314,"ira":3315,"ani":3316,"Ġbel":3317,"riez":3318,"ĠcoÃ»t":3319,"ctif":3320,"Ġportu":3321,"Ġobligations":3322,"Ġasie":3323,"Ġappor":3324,"Ġ18":3325,"fications":3326,"Ġrempla":3327,"auche":3328,"Ġcourt":3329,"Ġoffre":3330,"ĠmÃ©dica":3331,"Ġconclusion":3332,"Ġfournir":3333,"ĠindÃ©pend":3334,"yons":3335,"Ġpron":3336,"ibilitÃ©":3337,"Ġpose":3338,"Ġaccorder":3339,"Ġpaie":3340,"cid":3341,"Ġexaminer":3342,"erts":3343,"Ġbritannique":3344,"ĠmontrÃ©":3345,"Ġadministra":3346,"Ġinfluence":3347,"Ġhumaine":3348,"Ġdiscours":3349,"ĠprÃªts":3350,"ĠrÃ©publique":3351,"Ġmonnaie":3352,"Ġcy":3353,"Ġfig":3354,"Ġaides":3355,"Ġimpliqu":3356,"Ġvite":3357,"Ġrele":3358,"gnes":3359,"Ġpartout":3360,"vitÃ©":3361,"Ġfavorable":3362,"dies":3363,"asse":3364,"Ġmilliers":3365,"reg":3366,"Ġrati":3367,"ĠspÃ©cifique":3368,"raign":3369,"Ġouverture":3370,"oth":3371,"Ġniveaux":3372,"Ġlecture":3373,"Ġfl":3374,"Ġfonctionnement":3375,"Ġatteint":3376,"Ġpermettant":3377,"ĠspÃ©cifiques":3378,"ĠcomitÃ©":3379,"truction":3380,"ĠsupplÃ©mentaires":3381,"Ġprot":3382,"Ġconsiste":3383,"Ġvivre":3384,"Ġscientifiques":3385,"Ġexactement":3386,"Ġcul":3387,"Ġgrave":3388,"atri":3389,"ĠrÃ©gu":3390,"Ġminu":3391,"ĠtÃ´t":3392,"ĠprÃ©sence":3393,"Ġinaccep":3394,"Ġcop":3395,"ĠrÃ©fu":3396,"ĠmÃ©dias":3397,"Ġcollaboration":3398,"Ġinsu":3399,"Ġconnaissance":3400,"Ġconscience":3401,"aÃ®t":3402,"orÃ©":3403,"ĠopÃ©ra":3404,"Ġhong":3405,"ĠplanÃ¨te":3406,"Ġtable":3407,"Ġperman":3408,"Ġpopul":3409,"naires":3410,"Ġsyn":3411,"elÃ©":3412,"gÃ©es":3413,"Ġvas":3414,"tence":3415,"ĠdÃ©cembre":3416,"atÃ©ra":3417,"gies":3418,"Ġdeven":3419,"vier":3420,"Ġtechniques":3421,"Ġlargement":3422,"Ġcirculation":3423,"Ġmaje":3424,"Ġalterna":3425,"raine":3426,"Ġvoiture":3427,"Ġfal":3428,"Ġtraiter":3429,"Ġcommunautaires":3430,"ber":3431,"anie":3432,"Ġexige":3433,"ĠprÃ©para":3434,"Ġobsta":3435,"Ġsoutiens":3436,"Ġprincipal":3437,"Ġminim":3438,"Ġlutter":3439,"ĠinquiÃ©tu":3440,"andis":3441,"Ġconstater":3442,"Ġagence":3443,"Ġperdu":3444,"Ġsanctions":3445,"Ġengagements":3446,"ĠÃ©l":3447,"Ġutile":3448,"Ġ2007":3449,"Ġber":3450,"Ġinstant":3451,"ss":3452,"ĠcÃ©":3453,"anges":3454,"Ġfaibles":3455,"ĠÃ©tude":3456,"ĠdÃ©fendre":3457,"ĠrÃ©seau":3458,"liquÃ©":3459,"chets":3460,"Ġstock":3461,"Ġfacil":3462,"Ġtandis":3463,"Ġconclusions":3464,"Ġouti":3465,"Ġamis":3466,"Ġexpliquer":3467,"Ġeng":3468,"Ġx":3469,"Ġtrib":3470,"Ġparal":3471,"Ġtendance":3472,"Ġsuppri":3473,"Ġpou":3474,"ĠdÃ©termin":3475,"kistan":3476,"ĠgrÃ¨ce":3477,"Ġentier":3478,"lier":3479,"Ġcomptes":3480,"Ġcompagn":3481,"Ġflex":3482,"ĠtraitÃ©s":3483,"Ġcaract":3484,"Ġindispensable":3485,"mine":3486,"Ġseraient":3487,"ĠdÃ©mar":3488,"iens":3489,"Ã©rÃ©s":3490,"Ġvoulez":3491,"Ġ2008":3492,"Ġprincipaux":3493,"rire":3494,"vation":3495,"Ġcertes":3496,"ĠpÃ¨re":3497,"Ġukraine":3498,"Ġexpos":3499,"loc":3500,"rant":3501,"ĠdÃ©bats":3502,"Ġerreur":3503,"Ġtotal":3504,"Ġanalyse":3505,"Ġferme":3506,"Ġnorm":3507,"Ġsensi":3508,"Ġconflits":3509,"app":3510,"ĠÃ©tape":3511,"cin":3512,"Ġkos":3513,"Ġimage":3514,"ruption":3515,"ase":3516,"euse":3517,"Ġimplique":3518,"tiÃ©":3519,"ologie":3520,"ĠreprÃ©sentants":3521,"bes":3522,"Ġneu":3523,"Ġfera":3524,"Ġperspective":3525,"Ġrent":3526,"Ġtellement":3527,"ĠmoitiÃ©":3528,"Ġavantages":3529,"ĠprÃ©cÃ©dent":3530,"Ġfrapp":3531,"Ġintel":3532,"Ġgre":3533,"Ġseuls":3534,"ĠdÃ©clarations":3535,"Ġdossier":3536,"ĠmÃ¨re":3537,"lables":3538,"Ġenreg":3539,"Ġparticiper":3540,"ĠdÃ©chets":3541,"oign":3542,"Ġsignifica":3543,"ĠcomplÃ¨tement":3544,"ex":3545,"est":3546,"Ġapprendre":3547,"Ġiss":3548,"Ġcroire":3549,"ĠÃ©quilib":3550,"Ġprovo":3551,"ĠdÃ©cen":3552,"Ġmondialisation":3553,"Ġconsulta":3554,"ĠcrÃ©di":3555,"ĠadoptÃ©e":3556,"Ġestim":3557,"Ġchemin":3558,"lou":3559,"Ġappu":3560,"Ġdistin":3561,"Ġnouvel":3562,"ĠdÃ©pla":3563,"Ġrelig":3564,"Ġconven":3565,"ĠliÃ©s":3566,"Ġfaits":3567,"Ġmars":3568,"Ġ2009":3569,"Ġdiploma":3570,"Ġpourrons":3571,"Ġresse":3572,"ĠnuclÃ©aires":3573,"ĠrÃ©fugi":3574,"quet":3575,"Ġcarb":3576,"tembre":3577,"ĠdÃ©cider":3578,"ĠrÃ©vision":3579,"Ġabou":3580,"ilier":3581,"Ġparfaitement":3582,"vons":3583,"Ġprofon":3584,"tÃ©rieure":3585,"ĠcaractÃ¨re":3586,"uti":3587,"Ġfonctionne":3588,"Ġlang":3589,"Ġrendu":3590,"Ġcompos":3591,"Ġcorres":3592,"Ġavancer":3593,"Ġconsens":3594,"quÃ©e":3595,"Ġsimpli":3596,"ĠÃ©norme":3597,"Ġportug":3598,"Ġbru":3599,"ĠÃ©chec":3600,"Ġdate":3601,"ĠÃ¢ge":3602,"Ġkosov":3603,"Ġdiver":3604,"ĠlibÃ©ralisation":3605,"Ġach":3606,"Ġbat":3607,"ĠmÃ©d":3608,"illance":3609,"Ġseptembre":3610,"Ġsouhaiterais":3611,"isÃ©":3612,"iller":3613,"ĠentrÃ©e":3614,"Ġcritique":3615,"Ġrenforcement":3616,"Ġred":3617,"Ġdevenu":3618,"Ġsentiment":3619,"Ġsource":3620,"dits":3621,"tures":3622,"Ġauquel":3623,"Ġjuin":3624,"Ġafric":3625,"Ġmaladie":3626,"Ġpaci":3627,"Ġcommence":3628,"tiss":3629,"ĠÃ©trangÃ¨res":3630,"ĠprÃ©occupations":3631,"Ġbo":3632,"ĠÃ©tabli":3633,"Ġ100":3634,"ĠmÃ©de":3635,"ĠbudgÃ©taires":3636,"Ġsouver":3637,"Ġmilitaires":3638,"Ġphy":3639,"Ġmauvaise":3640,"ĠconformÃ©ment":3641,"Ġregret":3642,"ĠreprÃ©sentent":3643,"Ġcapital":3644,"Ġcampagne":3645,"Ġbureau":3646,"Ġmouvement":3647,"Ġproducteurs":3648,"Ġallemand":3649,"xim":3650,"Ġfour":3651,"Ġbrux":3652,"Ġambiti":3653,"Ġfeu":3654,"ĠparticuliÃ¨re":3655,"ĠdÃ©mocrates":3656,"tionnelles":3657,"Ġfru":3658,"tables":3659,"ĠvÃ©ritÃ©":3660,"Ġjan":3661,"ĠdÃ©lÃ©g":3662,"Ġexpression":3663,"Ġ2004":3664,"vir":3665,"Ġos":3666,"Ġexamen":3667,"ĠillÃ©g":3668,"Ġsup":3669,"ĠreconnaÃ®tre":3670,"Ġpib":3671,"cession":3672,"Ġgouvern":3673,"Ġcontinent":3674,"Ġcorps":3675,"Ġpromo":3676,"Ġconstruire":3677,"ĠdÃ©n":3678,"Ġappara":3679,"Ġlignes":3680,"Ġproduire":3681,"Ġdispose":3682,"Ġaccent":3683,"Ġroute":3684,"ĠindÃ©pendance":3685,"Ġmor":3686,"Ġconnais":3687,"Ġfaudra":3688,"Ġpotentiel":3689,"Ġbruxelles":3690,"Ġpositive":3691,"Ġpeuples":3692,"ĠÃ©troite":3693,"Ġpati":3694,"Ġpropri":3695,"Ġglobale":3696,"Ġtri":3697,"Ġexamin":3698,"tÃ©g":3699,"Ġpolice":3700,"Ġautom":3701,"Ġterritoire":3702,"Ã¶":3703,"Ġdimension":3704,"trait":3705,"ĠdÃ©mocratiques":3706,"ĠrÃ©fÃ©r":3707,"ĠcaractÃ©":3708,"Ġnew":3709,"Ġrequ":3710,"Ġactes":3711,"ĠdÃ©part":3712,"Ġpeur":3713,"Ġprosp":3714,"Ġefficaces":3715,"Ġbush":3716,"Ġdevront":3717,"Ġagricoles":3718,"bal":3719,"andi":3720,"Ġvoisins":3721,"Ġafghanistan":3722,"Ġconsensus":3723,"Ġscientifique":3724,"Ġrevenir":3725,"Ġdisposition":3726,"Ġinstitution":3727,"Ġsortir":3728,"ĠentiÃ¨rement":3729,"ĠdÃ©rou":3730,"issante":3731,"Ġkosovo":3732,"Ġsex":3733,"Ġgraves":3734,"Ġomc":3735,"ate":3736,"Ġpaquet":3737,"Ġrelation":3738,"Ġconvi":3739,"Ġ40":3740,"Ġreti":3741,"Ġretard":3742,"Ã©d":3743,"ontre":3744,"Ġoeu":3745,"Ã©ni":3746,"ĠintÃ©ressant":3747,"lise":3748,"Ġpan":3749,"Ġpacte":3750,"Ġinternationaux":3751,"ĠdÃ©tail":3752,"ĠrÃ©fugiÃ©s":3753,"Ġpayer":3754,"Ġencontre":3755,"Ġdiscuter":3756,"Ġmili":3757,"Ġclimat":3758,"Ġitalie":3759,"Ġnum":3760,"ĠrÃ©ag":3761,"ĠmÃ©diter":3762,"Ġappare":3763,"Ġseconde":3764,"Ġintroduction":3765,"Ġstructurels":3766,"Ġraisonn":3767,"Ġ198":3768,"ĠisraÃ©li":3769,"Ġlois":3770,"Ġpourrions":3771,"Ġnuit":3772,"naire":3773,"arti":3774,"Ġonu":3775,"Ġhumain":3776,"ĠrÃ©flex":3777,"Ġmaladies":3778,"itations":3779,"Ġpakistan":3780,"Ġjo":3781,"Ġotan":3782,"Ġpuissance":3783,"ĠÃ©lectora":3784,"ĠÃ©vidence":3785,"Ġro":3786,"tron":3787,"Ġ2006":3788,"ĠrÃ©alisÃ©":3789,"Ġinstal":3790,"ki":3791,"Ġdeme":3792,"uration":3793,"ourg":3794,"Ġvise":3795,"Ã¨ces":3796,"tal":3797,"Ġconnu":3798,"ĠprocÃ¨s":3799,"Ġprincipalement":3800,"Ġ2010":3801,"Ġfaudrait":3802,"ĠarmÃ©e":3803,"Ġlimites":3804,"Ġgauche":3805,"Ġoccu":3806,"Ġpouvoirs":3807,"Ġinacceptable":3808,"Ġmai":3809,"ĠÃ©tudes":3810,"intes":3811,"ĠmÃ©dicaments":3812,"Ġdiscrimination":3813,"ka":3814,"Ġcoura":3815,"Ġral":3816,"ĠopÃ©ration":3817,"Ġchamp":3818,"ĠmÃ©diterran":3819,"Ġpoi":3820,"ĠâĢĿ":3821,"ĠrÃ©gionale":3822,"Ġfondamental":3823,"Ġcherche":3824,"ĠmatÃ©ri":3825,"Ġdan":3826,"Ġpes":3827,"ĠutilisÃ©":3828,"Ġimposer":3829,"ĠimmÃ©diatement":3830,"Ġ0":3831,"Ġcompren":3832,"ĠmÃ©rite":3833,"Ġlit":3834,"ĠÃ©cla":3835,"Ġeffort":3836,"ĠphÃ©n":3837,"Ġencourage":3838,"Ġpollu":3839,"ĠcÅĵur":3840,"Ġperd":3841,"ĠfÃ©d":3842,"Ġdirect":3843,"Ġallez":3844,"ron":3845,"Ġsoins":3846,"Ġsoumis":3847,"Ġattirer":3848,"Ġsurveillance":3849,"sivement":3850,"ĠrÃ©seaux":3851,"ĠphÃ©nom":3852,"ĠmÃ©thode":3853,"ĠbÃ¢ti":3854,"Ġacteurs":3855,"ĠsoulignÃ©":3856,"Ġpourront":3857,"ĠcatÃ©g":3858,"ĠdiffÃ©rence":3859,"Ġvaut":3860,"Ã¨nes":3861,"Ġjuridiques":3862,"ama":3863,"Ġporter":3864,"dez":3865,"Ġpalestin":3866,"ros":3867,"Ġservir":3868,"Ġcerve":3869,"Ġattent":3870,"ĠprÃ©voit":3871,"Ġtax":3872,"Ġasile":3873,"Ġpied":3874,"bres":3875,"Ġ13":3876,"ĠstratÃ©gique":3877,"Ġlangue":3878,"Ġdanger":3879,"Ġquo":3880,"ĠrÃ©vÃ©":3881,"Ġinsc":3882,"Ġhausse":3883,"Ġrepro":3884,"Ġpromotion":3885,"Ġcrain":3886,"Ġrac":3887,"Ġpresse":3888,"Ġpopulaire":3889,"ĠprÃ©vention":3890,"cepti":3891,"Ġstatis":3892,"Ġparlons":3893,"Ġmoindre":3894,"Ãªtre":3895,"miques":3896,"itÃ©e":3897,"ĠprÃ©t":3898,"Ġtaille":3899,"Ġanglais":3900,"ĠrÃ©volution":3901,"Ġchiffres":3902,"Ġbout":3903,"Ġrecours":3904,"mÃ©s":3905,"ĠâĢľ":3906,"Ġengager":3907,"Ġconcept":3908,"Ġquit":3909,"Ġdevait":3910,"Ġcharge":3911,"auff":3912,"Ġbiais":3913,"ĠarrÃªter":3914,"Ġval":3915,"Ġving":3916,"Ġexistence":3917,"Ġtribun":3918,"pÃ©":3919,"Ġtient":3920,"Ġfinal":3921,"Ġinsuff":3922,"time":3923,"Ġespagne":3924,"go":3925,"Ġviens":3926,"Ġatten":3927,"Ġterroristes":3928,"ĠdÃ©finition":3929,"Ġpopulations":3930,"Ġlour":3931,"Ġterrain":3932,"ĠvÃ©ri":3933,"Ġespagn":3934,"Ġauront":3935,"ĠdiffÃ©rences":3936,"ĠclÃ©":3937,"Ġchan":3938,"Ġtex":3939,"Ġmaintien":3940,"Ġsatisfait":3941,"ourir":3942,"ĠrÃ©el":3943,"Ġhumanitaire":3944,"gen":3945,"Ġassu":3946,"Ġcellu":3947,"Ġsimil":3948,"Ġvilles":3949,"Ġconfor":3950,"ĠtÃ©lÃ©ph":3951,"Ġsoutenu":3952,"ĠrÃ©serve":3953,"ĠsupplÃ©mentaire":3954,"Ġlimiter":3955,"Ġtenta":3956,"Ġproche":3957,"Ġhyp":3958,"Ġproposer":3959,"ĠprocÃ©der":3960,"Ġgarantie":3961,"ĠcrÃ©Ã©":3962,"Ġprofit":3963,"Ġcritiques":3964,"Ġoublier":3965,"Ġlogique":3966,"Ġcapable":3967,"Ġsemblent":3968,"ĠrÃ©elle":3969,"ologiques":3970,"tini":3971,"int":3972,"Ãªt":3973,"Ġcommunes":3974,"ĠpremiÃ¨res":3975,"Ġessentiellement":3976,"Ġprochaines":3977,"Ã©v":3978,"Ġdevez":3979,"iliation":3980,"inaire":3981,"Ġformes":3982,"ĠaccroÃ®tre":3983,"Ġpire":3984,"ĠdÃ©couver":3985,"Ġharmonisation":3986,"ĠdÃ©finir":3987,"Ġjeune":3988,"Ġgouvernance":3989,"Ġpoids":3990,"Ġcorruption":3991,"lations":3992,"las":3993,"Ġdevient":3994,"ĠÃ©changes":3995,"orde":3996,"Ã¨que":3997,"Ġparents":3998,"chÃ©s":3999,"Ġentrer":4000,"aucra":4001,"Ġauraient":4002,"Ġsubst":4003,"ĠauprÃ¨s":4004,"chant":4005,"Ġmenac":4006,"Ġnav":4007,"Ġconvaincu":4008,"Ġinflation":4009,"eurs":4010,"Ġbureaucra":4011,"Ġconcentrer":4012,"Ġbaisse":4013,"Ġminutes":4014,"Ġsources":4015,"ĠdÃ©char":4016,"uellement":4017,"fiÃ©s":4018,"Ġhistorique":4019,"ctifs":4020,"Ġassistance":4021,"ĠconsidÃ©rable":4022,"Ġobligation":4023,"ĠenquÃªte":4024,"Ġtab":4025,"Ġrecons":4026,"Ġhaute":4027,"Ġremarque":4028,"Ġmutu":4029,"Ġbu":4030,"Ġ14":4031,"Ġsecond":4032,"Ġcapitaux":4033,"Ġbul":4034,"Ġmassi":4035,"Ġcontient":4036,"Ġaccus":4037,"Ġvisite":4038,"Ġjanvier":4039,"Ġcouv":4040,"Ġstim":4041,"tici":4042,"Ġru":4043,"ĠrÃ©action":4044,"chement":4045,"Ġquels":4046,"aliser":4047,"Ġapprof":4048,"Ġdocuments":4049,"Ġreconnaissance":4050,"ju":4051,"ĠcontrÃ´les":4052,"Ġgarder":4053,"Ġplans":4054,"Ġmusul":4055,"Ġinterdiction":4056,"ĠcommunautÃ©s":4057,"Ġanalys":4058,"Ġinfrastructures":4059,"ox":4060,"Ġdra":4061,"Ġessentielle":4062,"Ġplein":4063,"rog":4064,"Ġami":4065,"ĠprÃ©vu":4066,"Ġinuti":4067,"Ġexperts":4068,"Ġinvite":4069,"nÃ©s":4070,"Ġmoyenne":4071,"ĠrÃ©serves":4072,"quÃ©s":4073,"isi":4074,"ĠÃ©lec":4075,"ĠprÃ©cÃ©d":4076,"Ã©c":4077,"Ġlire":4078,"od":4079,"vateurs":4080,"oncÃ©":4081,"ĠcohÃ©r":4082,"Ġlettre":4083,"Ġ'":4084,"ĠhÃ´":4085,"ĠÃ©tudiants":4086,"Ġpremiers":4087,"lusion":4088,"nel":4089,"Ġterminer":4090,"ogne":4091,"Ġsouhaitons":4092,"ĠmÃ©canisme":4093,"Ġappris":4094,"Ġexcell":4095,"Ġsalue":4096,"Ġtravaille":4097,"Ġprofonde":4098,"ĠdiversitÃ©":4099,"Ġcomplexe":4100,"Ġendroit":4101,"pond":4102,"Ġpme":4103,"ĠdÃ©li":4104,"Ġinsister":4105,"Ġrevenu":4106,"Ġnourrit":4107,"lÃ©es":4108,"Ġfaite":4109,"ĠrÃ©pond":4110,"Ġdiminu":4111,"bie":4112,"Ġrig":4113,"Ġvoyage":4114,"hors":4115,"Ã¨tres":4116,"issait":4117,"ĠconfrontÃ©s":4118,"ĠcaractÃ©ris":4119,"loir":4120,"Ġdifficiles":4121,"Ġchances":4122,"ĠcrÃ©dits":4123,"Ġformul":4124,"Ġdistribu":4125,"mÃ©es":4126,"Ġ17":4127,"ĠintÃ©res":4128,"ĠsÃ©ance":4129,"ĠdÃ©putÃ©":4130,"Ġslo":4131,"mas":4132,"Ġregarder":4133,"Ġ2005":4134,"ĠrÃ©ponses":4135,"ĠlibertÃ©s":4136,"Ġsugg":4137,"Ã©hen":4138,"Ġvac":4139,"Ã©ritÃ©":4140,"Ġrestent":4141,"ĠcomprÃ©hen":4142,"Ġaurais":4143,"Ġalimentaires":4144,"ĠbÃ©nÃ©ficier":4145,"Ġfas":4146,"Ġempr":4147,"Ġap":4148,"Ġspe":4149,"Ġconstituer":4150,"ĠgÃ©nÃ©ralement":4151,"Ġapprovision":4152,"Ġsuffit":4153,"ĠcontrÃ´ler":4154,"ba":4155,"Ġpay":4156,"vembre":4157,"Ġcesse":4158,"Ġdirectives":4159,"Ġagend":4160,"ĠconsidÃ©rer":4161,"Ġvari":4162,"ĠrÃ©flÃ©chir":4163,"Ġproven":4164,"Ġtrafic":4165,"conque":4166,"Ġsoud":4167,"Ġbanc":4168,"Ġmains":4169,"Ġposs":4170,"Ġautrement":4171,"iger":4172,"itant":4173,"Ġvir":4174,"Ġbons":4175,"Ãªtes":4176,"Ġlocales":4177,"Ġcomportement":4178,"Ġnovembre":4179,"Ġancien":4180,"Ġobtenu":4181,"ork":4182,"ĠÃ©th":4183,"Ġmultip":4184,"Ġfilm":4185,"Ġtyp":4186,"Ġfou":4187,"laient":4188,"ĠdÃ©ficit":4189,"Ġul":4190,"Ġsil":4191,"mande":4192,"Ġprud":4193,"ĠallÃ©":4194,"Ġtransform":4195,"ĠdiffÃ©rente":4196,"ĠparallÃ¨":4197,"ĠÃ®":4198,"ĠinterprÃ©":4199,"Ã©nie":4200,"ĠÃ©levÃ©s":4201,"Ġdehors":4202,"tidi":4203,"Ġvenu":4204,"ĠrÃª":4205,"Ġmaxim":4206,"endum":4207,"Ġcaus":4208,"Ġ16":4209,"Ġsomme":4210,"ĠÃ©tranger":4211,"ĠrÃ©ussite":4212,"teau":4213,"Ġparlementaires":4214,"Ġplais":4215,"Ġcirconstances":4216,"ĠliÃ©es":4217,"Ġvivent":4218,"ĠderriÃ¨re":4219,"Ġscience":4220,"mor":4221,"reuse":4222,"ĠdÃ©tru":4223,"Ġislam":4224,"Ġouvrir":4225,"Ġsinc":4226,"inte":4227,"Ġconver":4228,"hicu":4229,"Ġagenda":4230,"Ġmobil":4231,"Ġincroy":4232,"ĠvÃ©hicu":4233,"ko":4234,"seur":4235,"Ġstructures":4236,"ĠtÃ©m":4237,"Ġaccompli":4238,"ĠextÃ©rieur":4239,"Ġviennent":4240,"Ġdisent":4241,"Ġstade":4242,"Ġerreurs":4243,"Ġdyn":4244,"ĠfrÃ©":4245,"ĠirrÃ©":4246,"Ġnote":4247,"Ġrelatif":4248,"Ġroumanie":4249,"Ġsuivante":4250,"Ġcouver":4251,"ĠÃ©tique":4252,"Ã©rant":4253,"Ġclasse":4254,"Ġbudgets":4255,"Ġchefs":4256,"Ġautri":4257,"ĠdÃ©lÃ©gation":4258,"Ġhonn":4259,"Ġconsoli":4260,"nies":4261,"Ġlimite":4262,"Ġenvisager":4263,"illi":4264,"Ġretra":4265,"Ġrappro":4266,"Ġcomprends":4267,"ignement":4268,"yez":4269,"ĠchrÃ©":4270,"Ġhy":4271,"ĠrÃ©alisation":4272,"Ġremarques":4273,"Ġ2003":4274,"Ġoffrir":4275,"Ġpatients":4276,"Ġvoulais":4277,"Ġaurons":4278,"tiens":4279,"Ġtol":4280,"Ġsujets":4281,"lications":4282,"Ġpromes":4283,"Ġvoisin":4284,"ĠtroisiÃ¨mement":4285,"ĠcompÃ©tence":4286,"tt":4287,"roc":4288,"Ġperdre":4289,"Ġcommerciaux":4290,"parer":4291,"Ġâ":4292,"Ġreli":4293,"Ġcentaines":4294,"rontali":4295,"Ġquotidi":4296,"ote":4297,"chi":4298,"illet":4299,"Ġreprises":4300,"Ġtransfrontali":4301,"vil":4302,"Ġreconnaiss":4303,"Ġmodifier":4304,"Ġfortement":4305,"Ġcatastrophe":4306,"Ġint":4307,"Ġlancer":4308,"Ġobliga":4309,"Ġrecommandations":4310,"ĠprivÃ©":4311,"Ġsusc":4312,"ĠdÃ©terminer":4313,"Ġsept":4314,"Ġbient":4315,"Ġouvert":4316,"ĠbientÃ´t":4317,"Ġaupara":4318,"ĠmÃ©thodes":4319,"Ġauparavant":4320,"loy":4321,"Ġdroite":4322,"tisation":4323,"com":4324,"Ġbri":4325,"Ġpensez":4326,"ĠvÃ©ritablement":4327,"ĠcoÃ»te":4328,"Ġrepos":4329,"Ġvoyons":4330,"Ġchercher":4331,"Ġtransi":4332,"ĠrÃ©fÃ©rendum":4333,"ĠappelÃ©":4334,"Ġcentrales":4335,"Ġmodification":4336,"Ġcorrespond":4337,"Ã¨ve":4338,"Ġdieu":4339,"ĠÃ©val":4340,"Ġintroduire":4341,"Ġfiscale":4342,"Ġvingt":4343,"Ġcra":4344,"Ġeffor":4345,"Ġouverte":4346,"Ļ«":4347,"Ã©ro":4348,"ĠcrÃ©dit":4349,"Ġvoire":4350,"Ġpropor":4351,"agers":4352,"Ġlangues":4353,"Ġcorrectement":4354,"Ġpacifique":4355,"leur":4356,"uelles":4357,"ĠconcernÃ©s":4358,"Ġchef":4359,"Ġmeilleurs":4360,"Ġrappelle":4361,"Ġobama":4362,"Ã§ant":4363,"Ġsoutient":4364,"ĠarrivÃ©":4365,"ĠconcrÃ¨tes":4366,"Ġoeuvre":4367,"Ġfasse":4368,"Ġbeau":4369,"Ġ1999":4370,"Ġtrouvent":4371,"cter":4372,"enci":4373,"Ġdisant":4374,"Ġdynam":4375,"Ġintervenir":4376,"Ġprotoc":4377,"Ġacheter":4378,"Ġemprun":4379,"Ġhor":4380,"ĠminoritÃ©s":4381,"Ġcommerciales":4382,"Ġdisposer":4383,"Ġ60":4384,"ĠmÃ©canismes":4385,"Ġexportations":4386,"ĠÃ©lectron":4387,"ile":4388,"Ġquota":4389,"Ġhors":4390,"itoyens":4391,"ĠrÃ¨gle":4392,"ĠÃ©laboration":4393,"Ġgagner":4394,"ĠsystÃ©":4395,"Ġcancer":4396,"Ġdisponibles":4397,"olue":4398,"Ġmontrent":4399,"ĠsÃ»re":4400,"Ġcivil":4401,"Ġdangereux":4402,"Ġnourriture":4403,"Ġvul":4404,"Ġmach":4405,"dement":4406,"Ġfonctionner":4407,"Ġefficacement":4408,"Ġsubstances":4409,"Ġstatistiques":4410,"endue":4411,"Ġmarche":4412,"ĠnÃ©gociation":4413,"Ġextraord":4414,"Ġlab":4415,"Ġconcitoyens":4416,"Ġmoyennes":4417,"Ġfaciliter":4418,"yth":4419,"Ġrob":4420,"ĠprÃªt":4421,"Ġfroi":4422,"Ġcompens":4423,"Ġcharte":4424,"Ġassociation":4425,"Ã©rÃ©es":4426,"actions":4427,"Ġtermin":4428,"Ã§u":4429,"ĠcorÃ©e":4430,"ĠdurÃ©e":4431,"Ġbiens":4432,"tiniens":4433,"Ġeh":4434,"ĠÃ©par":4435,"ĠbÃ©":4436,"Ġgarde":4437,"Ġphase":4438,"Ġradic":4439,"Ġtransfor":4440,"Ġfondamentale":4441,"Ġglobal":4442,"Ġpalestiniens":4443,"ĠdÃ©charge":4444,"Ġauxquels":4445,"Ġfille":4446,"Ġdemandes":4447,"ĠÃ©volu":4448,"Ġwe":4449,"nÃ©e":4450,"Ġuns":4451,"Ġrapporteurs":4452,"ĠmÃ©dic":4453,"Ġfavoriser":4454,"Ġcens":4455,"Ġremarqu":4456,"ĠchangÃ©":4457,"Ġplaisir":4458,"Ġfinancer":4459,"roso":4460,"inÃ©":4461,"Ġincap":4462,"Ġdemandons":4463,"Ġbalk":4464,"Ġcerveau":4465,"ĠâĻ«":4466,"urÃ©":4467,"Ã¨se":4468,"lai":4469,"Ġcontraign":4470,"Ã»t":4471,"Ġsituations":4472,"Ġprincipale":4473,"Ġexemples":4474,"ĠfÃ©dÃ©ra":4475,"Ġchyp":4476,"Ġagissant":4477,"Ġcomprend":4478,"ĠthÃ¨me":4479,"Ġpertin":4480,"Ġverts":4481,"Ġfamilles":4482,"Ġassurance":4483,"Ġcourage":4484,"cessi":4485,"Ġresta":4486,"ĠjournÃ©e":4487,"ĠgÃ©nÃ©ration":4488,"Ġmilieu":4489,"Ġgo":4490,"Ġacte":4491,"Ġyork":4492,"Ġpersonnellement":4493,"Ġvert":4494,"Ġconsommateur":4495,"Ġjudiciaire":4496,"Ġconne":4497,"Ġaccident":4498,"Ġsouligne":4499,"acitÃ©s":4500,"Ġprennent":4501,"Ġmoderne":4502,"Ġlivres":4503,"itables":4504,"Ġdicta":4505,"entis":4506,"Ġfondamentales":4507,"ĠprÃ©server":4508,"ule":4509,"nÃ©ra":4510,"Ġassis":4511,"Ġrusses":4512,"ĠsÃ©rieusement":4513,"Ġincer":4514,"ĠÃ©quitable":4515,"ĠbÃ©nÃ©fices":4516,"ĠrÃ©guli":4517,"Ġ2001":4518,"Ġprofiter":4519,"tionnels":4520,"Ġsauve":4521,"ĠentraÃ®ner":4522,"Ġfe":4523,"ĠextÃ©rieure":4524,"Ġagences":4525,"ĠdiffÃ©rent":4526,"ĠcapacitÃ©s":4527,"Ġrelever":4528,"ĠintÃ©ri":4529,"Ġmarchand":4530,"Ġenseignement":4531,"Ġfacilement":4532,"Ġsouveraine":4533,"Ġaus":4534,"ĠplÃ©ni":4535,"Ġhandi":4536,"ĠsecrÃ©":4537,"Ġtotale":4538,"Ġtourisme":4539,"ĠdÃ©pas":4540,"Ġsuscepti":4541,"usion":4542,"Ġmeilleures":4543,"ĠexprimÃ©":4544,"ĠvulnÃ©ra":4545,"Ġfrais":4546,"Ġreprise":4547,"Ġrusse":4548,"Ġdisposons":4549,"Ġpologne":4550,"ĠflexibilitÃ©":4551,"Ġlien":4552,"once":4553,"ĠsuÃ©d":4554,"Ġsouci":4555,"Ġpuiss":4556,"Ġirlandais":4557,"ĠphÃ©nomÃ¨ne":4558,"Ġtransition":4559,"ĠsuÃ©dois":4560,"ĠrÃ©di":4561,"Ġaffai":4562,"Ġhabitu":4563,"Ġexploitation":4564,"ĠexÃ©cution":4565,"ĠrÃ©flexion":4566,"ographique":4567,"ĠÃ©valuer":4568,"ster":4569,"Ġactuelles":4570,"Ġprincipales":4571,"obre":4572,"Ġdemi":4573,"ombe":4574,"Ġinjus":4575,"ĠÃ©chou":4576,"ĠreflÃ¨":4577,"ĠÃ©trangers":4578,"landaise":4579,"Ġhabitants":4580,"Ġoctobre":4581,"dation":4582,"Ġmode":4583,"Ġdispar":4584,"Ġmontant":4585,"ĠconnaÃ®tre":4586,"Ġhonora":4587,"ril":4588,"tic":4589,"Ġparc":4590,"ĠportÃ©e":4591,"ĠaÃ©r":4592,"Ġmol":4593,"rage":4594,"ĠinÃ©g":4595,"ĠÃªtres":4596,"Ġcapables":4597,"ĠcontribuÃ©":4598,"ĠbrÃ©s":4599,"Ġhandicap":4600,"ĠcomplÃ©ment":4601,"Ġsession":4602,"Ġcommentaires":4603,"ĠconnaÃ®t":4604,"bÃ©":4605,"len":4606,"ude":4607,"Ġfmi":4608,"ĠtravaillÃ©":4609,"Ġcrises":4610,"Ġpensent":4611,"Ġrelativement":4612,"Ġrevient":4613,"pes":4614,"ĠrÃ©pÃ©":4615,"Ġbalkans":4616,"Ġrasse":4617,"ĠreprÃ©sentant":4618,"Ġ80":4619,"Ġsh":4620,"isÃ©s":4621,"Ġfacteur":4622,"Ġfacteurs":4623,"ĠÃ©gyp":4624,"Ġinvestisseurs":4625,"ĠidentitÃ©":4626,"Ġorganes":4627,"Ġregardez":4628,"ĠprÃ©paration":4629,"ĠrÃ©sul":4630,"Ġcinqu":4631,"atriÃ¨me":4632,"onnÃ©":4633,"ĠscÃ¨ne":4634,"Ġdiverses":4635,"ĠopÃ©rations":4636,"cro":4637,"ĠquatriÃ¨me":4638,"Ġtend":4639,"Ġtourn":4640,"Ġvouloir":4641,"ĠacceptÃ©":4642,"ĠlÃ©gislatif":4643,"gouver":4644,"Ġrejoin":4645,"Ġaccr":4646,"Ġinterd":4647,"Ġviande":4648,"Ġmanger":4649,"Ġprogresser":4650,"reuses":4651,"Ġapprovisionnement":4652,"Ġaudi":4653,"Ġpositions":4654,"Ġinvestir":4655,"Ġaccompagn":4656,"Ġvaste":4657,"Ġobstacles":4658,"mar":4659,"Ġpossibles":4660,"Ġdouble":4661,"Ġ2020":4662,"ĠtÃ©lÃ©vision":4663,"Ġprotocole":4664,"ĠprÃ©a":4665,"Ġessentiels":4666,"ĠbilatÃ©ra":4667,"Ġambitieux":4668,"toires":4669,"Ġcrimin":4670,"Ġmajeure":4671,"Ġmises":4672,"Ġcalend":4673,"ĠrÃ©solu":4674,"Ġapplique":4675,"ĠplÃ©niÃ¨re":4676,"gouvernement":4677,"rette":4678,"Ã¨ge":4679,"ĠdÃ©lai":4680,"Ġtrou":4681,"Ġcommuni":4682,"Ġavantage":4683,"Ġexercer":4684,"rets":4685,"tagne":4686,"gner":4687,"Ġfront":4688,"ĠÃ©lecteurs":4689,"Ġsubventions":4690,"Ġvoulu":4691,"ctoire":4692,"Ġcarte":4693,"Ġ2002":4694,"Ġing":4695,"ĠdÃ©t":4696,"Ġdites":4697,"Ã©rieur":4698,"Ġattendons":4699,"ĠconsidÃ©rables":4700,"Ġimmigr":4701,"Ġfo":4702,"ĠrÃ©ta":4703,"Ġcommercial":4704,"Ġcompa":4705,"Ġperte":4706,"Ġenseign":4707,"Ġintensi":4708,"Ġblanc":4709,"grer":4710,"urant":4711,"Ġconduite":4712,"Ġusage":4713,"Ġhuit":4714,"ĠquantitÃ©":4715,"Ġintellig":4716,"ctes":4717,"fe":4718,"Ġrest":4719,"Ġabus":4720,"Ġquotas":4721,"ĠgÃ©rer":4722,"Ġsavent":4723,"viend":4724,"Ġcrucial":4725,"Ġtch":4726,"ĠmatiÃ¨res":4727,"ĠdÃ©plo":4728,"ĠamÃ©lior":4729,"Ġchoisir":4730,"ĠbrÃ©sil":4731,"ĠÃ©tablissement":4732,"Ġenvisage":4733,"tch":4734,"sidi":4735,"fiÃ©es":4736,"Ġsuivant":4737,"Ġtenter":4738,"giques":4739,"itons":4740,"Ġlatine":4741,"telle":4742,"Ã©rance":4743,"Ġprivil":4744,"Ġapprouver":4745,"Ġuniverse":4746,"mans":4747,"Ġmic":4748,"Ġbles":4749,"ricitÃ©":4750,"Ġimaginer":4751,"ĠcrÃ©dibilitÃ©":4752,"isÃ©e":4753,"Ġfermement":4754,"mont":4755,"Ġutilise":4756,"Ġorientations":4757,"Ġconduit":4758,"Ġcompagnies":4759,"lit":4760,"tez":4761,"Ġsala":4762,"Ġcompter":4763,"Ġbretagne":4764,"Ã¡":4765,"ĠÃ©tions":4766,"Ġ21":4767,"ĠconsidÃ©rablement":4768,"ane":4769,"Ġrejet":4770,"olÃ©":4771,"ĠrÃ©duit":4772,"Ġfamili":4773,"Ġbreve":4774,"bation":4775,"ĠunitÃ©":4776,"Ġcrimine":4777,"ana":4778,"ĠrÃ¨glements":4779,"Ġraisonnable":4780,"Ġinsuffis":4781,"ade":4782,"ĠprÃ©par":4783,"Ġartis":4784,"Ġflo":4785,"Ġchale":4786,"Ġcode":4787,"ĠopportunitÃ©":4788,"ĠmÃ©dec":4789,"Ġample":4790,"ĠprÃ©parer":4791,"Ġintergouvernement":4792,"Ġvoitures":4793,"Ġscand":4794,"ĠcomplÃ¨te":4795,"ĠÃ©voquÃ©":4796,"Ġcellules":4797,"ties":4798,"Ġaliments":4799,"Ġusa":4800,"rite":4801,"Ġfins":4802,"Ġvra":4803,"ĠsuÃ¨de":4804,"Ġparlements":4805,"Ġjustement":4806,"Ġcourant":4807,"Ġpermettent":4808,"Ġlin":4809,"Ã¨vement":4810,"Ġillus":4811,"Ġmodes":4812,"ĠÃ©tudier":4813,"ĠÃ©lectricitÃ©":4814,"Ġacquis":4815,"Ġargument":4816,"ia":4817,"Ġeaux":4818,"Ġsubsidi":4819,"ĠjouÃ©":4820,"ĠparaÃ®t":4821,"mitÃ©":4822,"Ġel":4823,"Ġaggra":4824,"Ġmodifications":4825,"tiennent":4826,"ĠprospÃ©ritÃ©":4827,"hn":4828,"Ġamster":4829,"ĠutilisÃ©s":4830,"Ġactuels":4831,"Ġmodern":4832,"Ġindividus":4833,"Ġamsterdam":4834,"Ġsusp":4835,"ĠÃ©normes":4836,"Ġlux":4837,"Ġsang":4838,"Ġconten":4839,"vage":4840,"Ġexistent":4841,"prÃ©sid":4842,"Ġden":4843,"anim":4844,"Ġfinances":4845,"Ġpuisqu":4846,"Ġsymb":4847,"nant":4848,"Ġstri":4849,"ĠrÃ©cession":4850,"ath":4851,"Ġtravaillent":4852,"ĠsÃ©v":4853,"Ġcrimes":4854,"cidents":4855,"Ġposte":4856,"Ġenvoyer":4857,"Ġconsultation":4858,"Ġbour":4859,"Ġcombattre":4860,"Ġajus":4861,"ĠrÃ©sid":4862,"ĠrelÃ¨ve":4863,"Ġbarroso":4864,"Ġcontrairement":4865,"Ġadapter":4866,"Ġgrec":4867,"Ġbulga":4868,"Ġcu":4869,"istr":4870,"une":4871,"Ġbois":4872,"Ġpersonn":4873,"ĠintÃ©grer":4874,"ĠdÃ©tails":4875,"ditÃ©":4876,"Ġii":4877,"ttement":4878,"Ġgaranties":4879,"ĠrÃ©gimes":4880,"Ġrural":4881,"Ġdiv":4882,"Ġcitoyen":4883,"Ġquasi":4884,"Ġclari":4885,"Ã©quili":4886,"Ġpositifs":4887,"ĠlancÃ©":4888,"Ġayons":4889,"Ġsatisfais":4890,"Ġampleur":4891,"Ġjuillet":4892,"ĠdÃ©cennies":4893,"dis":4894,"Ġps":4895,"Ġvendre":4896,"Ġsurf":4897,"Ġimpose":4898,"Ġ27":4899,"ĠrÃ©cente":4900,"Ġbritanniques":4901,"Ġvil":4902,"Ġcontent":4903,"ĠdÃ©fa":4904,"ĠÃ©laborer":4905,"Ġestimons":4906,"Ġcalendrier":4907,"Ġvites":4908,"ĠprÃ©ju":4909,"Ġavril":4910,"rovi":4911,"ĠsÃ©par":4912,"Ġimm":4913,"Ġlaissez":4914,"Ġblo":4915,"ĠplaÃ®t":4916,"ĠÃ©chapp":4917,"Ġfuture":4918,"ĠvÃ©hicules":4919,"Ġher":4920,"ctivitÃ©":4921,"Ġinterven":4922,"ĠmentionnÃ©":4923,"Ġmaritime":4924,"Ġissue":4925,"animitÃ©":4926,"Ġconjoin":4927,"Ġtru":4928,"Ġterri":4929,"ĠhumanitÃ©":4930,"Ġrecevoir":4931,"Ġphysique":4932,"Ġrassemb":4933,"ĠsubsidiaritÃ©":4934,"Ġeth":4935,"Ġanciens":4936,"Ġreprodu":4937,"Ġppe":4938,"quant":4939,"Ġinsp":4940,"tisme":4941,"Ġnaturelles":4942,"ĠrÃ©cla":4943,"Ġpratiquement":4944,"Ġextraordinaire":4945,"igne":4946,"Ġmex":4947,"Ġvieux":4948,"dÃ©ment":4949,"Ġvotes":4950,"Ġsovi":4951,"Ġky":4952,"ĠdÃ©faut":4953,"Ġmusique":4954,"Ġetc":4955,"Ġenta":4956,"ĠdÃ©cou":4957,"Ġcycle":4958,"ĠprofondÃ©ment":4959,"Ġassumer":4960,"quÃ©es":4961,"Ġterres":4962,"ĠindiquÃ©":4963,"Ġurb":4964,"Ġfigure":4965,"ĠcriminalitÃ©":4966,"isÃ©es":4967,"Ġtun":4968,"Ġvoulait":4969,"Ġsymp":4970,"Ġprenons":4971,"Ġoccidentaux":4972,"Ġchoisi":4973,"Ġparvenus":4974,"Ġoutils":4975,"Ġapprofond":4976,"Ã©re":4977,"latÃ©ra":4978,"ĠmobilitÃ©":4979,"Ġdevrons":4980,"Ġattra":4981,"Ġgaran":4982,"Ġportugal":4983,"Ġintelle":4984,"ĠdÃ©lais":4985,"chauff":4986,"Ġferrovi":4987,"Ġ197":4988,"Ġversion":4989,"ĠavancÃ©es":4990,"ĠÃ©couter":4991,"Ġalliance":4992,"Ġluxe":4993,"Ġsaur":4994,"Ġserons":4995,"Ġfini":4996,"licite":4997,"Ġregrette":4998,"Ġfraude":4999,"ĠÃ©tendre":5000,"Ġconduire":5001,"Ġbref":5002,"Ġcopen":5003,"Ġcarbone":5004,"Ġtabac":5005,"cla":5006,"hou":5007,"Ġvies":5008,"ĠcrÃ©e":5009,"mistes":5010,"ĠrÃ©gional":5011,"ĠÃ©voquer":5012,"ĠgÃ©or":5013,"ĠchaÃ®":5014,"Ġpassagers":5015,"Ġretrait":5016,"Ġralenti":5017,"oss":5018,"Ġtouche":5019,"Ġpollution":5020,"Ġciter":5021,"Ġquin":5022,"veille":5023,"Ġchambre":5024,"Ġphoto":5025,"Ġtypes":5026,"Ġmur":5027,"side":5028,"Ġbos":5029,"Ã´ts":5030,"hague":5031,"Ġmajeur":5032,"Ġcopenhague":5033,"ĠprÃªte":5034,"Ġlic":5035,"Ġinclure":5036,"Ġorganiser":5037,"Ġfavorables":5038,"Ġsigne":5039,"Ġautonom":5040,"Ġvice":5041,"ĠessayÃ©":5042,"ĠarrÃªt":5043,"Ġsoutenons":5044,"Ġdevenue":5045,"Ġcl":5046,"Ġge":5047,"Ġsport":5048,"Ġpuissions":5049,"ĠapportÃ©":5050,"Ġintellectu":5051,"Ġsent":5052,"ĠavÃ¨re":5053,"Ġbienven":5054,"Ġclaires":5055,"Ġpermettrait":5056,"ĠconcernÃ©es":5057,"Ġurgent":5058,"ĠthÃ©orie":5059,"ĠdÃ©sas":5060,"Ġannuel":5061,"ĠÃ©lection":5062,"Ġorganismes":5063,"Ġcommerciale":5064,"mise":5065,"Ġlou":5066,"Ġlond":5067,"engen":5068,"Ġtort":5069,"Ġapprobation":5070,"Ġcrime":5071,"ĠmÃ©diateur":5072,"Ġfutures":5073,"ĠrencontrÃ©":5074,"Ġschengen":5075,"Ġsupprimer":5076,"ĠrÃ©tab":5077,"ĠdÃ©ga":5078,"ĠcrÃ©a":5079,"Ġstabil":5080,"Ġattribu":5081,"Ġfaisait":5082,"ĠindÃ©pendant":5083,"ĠexpÃ©riences":5084,"Ġexception":5085,"Ġrenouvelables":5086,"ĠunanimitÃ©":5087,"ĠvidÃ©":5088,"orations":5089,"Ġsouhaitent":5090,"Ġimportations":5091,"Ġong":5092,"ĠdÃ©cisi":5093,"Ġaurions":5094,"Ġ500":5095,"Ġcriti":5096,"Ġculturelle":5097,"chÃ©e":5098,"Ġrevan":5099,"ĠocÃ©":5100,"ĠlaissÃ©":5101,"Ġconception":5102,"Ġcontinuent":5103,"Ġsocialiste":5104,"Ġphra":5105,"euses":5106,"Ġpourriez":5107,"ĠÃ©coles":5108,"Ġ24":5109,"ĠrÃ©per":5110,"Ġflux":5111,"Ã©conom":5112,"Ġparv":5113,"Ġgui":5114,"mbour":5115,"Ġ70":5116,"ĠinquiÃ©tudes":5117,"Ġpalestinien":5118,"50":5119,"Ġrenv":5120,"Ġimmo":5121,"Ġ1998":5122,"ĠextrÃªme":5123,"Ġarabe":5124,"Ġretrouv":5125,"sb":5126,"tur":5127,"Ġcub":5128,"Ġstu":5129,"Ġapporte":5130,"rictions":5131,"Ġsuppos":5132,"ĠpiÃ¨ce":5133,"Ġalternative":5134,"Ġmotiv":5135,"Ġliens":5136,"Ġperform":5137,"ĠgÃ©nÃ©tique":5138,"Ġcommissaires":5139,"Ġtaxe":5140,"ĠrÃ©unions":5141,"Ġminimum":5142,"Ġrevanche":5143,"Ġacceptable":5144,"ĠrÃ©alisÃ©s":5145,"ĠdifficultÃ©":5146,"ĠpropriÃ©tÃ©":5147,"tiers":5148,"Ġnoir":5149,"ĠdÃ©g":5150,"ĠproposÃ©s":5151,"Ġrepose":5152,"Ġjeux":5153,"Ġart":5154,"Ġdispara":5155,"Ġfournit":5156,"Ġjaponais":5157,"Ġsolda":5158,"Ġ90":5159,"Ġfabric":5160,"Ġactifs":5161,"ĠprÃ©sidents":5162,"Ġprobable":5163,"Ġcana":5164,"ĠprÃ©occupation":5165,"Ġretraite":5166,"ow":5167,"cieux":5168,"Ġchapit":5169,"gents":5170,"ke":5171,"ĠmÃ©n":5172,"ĠinÃ©v":5173,"Ġsoup":5174,"ĠdÃ©couv":5175,"dÃ©m":5176,"Ġangle":5177,"Ġadresse":5178,"iers":5179,"ĠÃ©lu":5180,"Ġchute":5181,"ĠrÃ©parti":5182,"Ġcapitale":5183,"lantique":5184,"Ġsauver":5185,"Ġradio":5186,"ĠextÃ©rieures":5187,"Ġpartager":5188,"Ġbce":5189,"Ġprotes":5190,"Ġexiger":5191,"Ġarch":5192,"ĠrÃ©gler":5193,"ĠespÃ¨ces":5194,"ĠrÃ©gionales":5195,"Ġcatastrophes":5196,"Ġtempora":5197,"Ġarguments":5198,"Ġreligie":5199,"Ġrelatifs":5200,"Ġancienne":5201,"ĠapprouvÃ©":5202,"Ġtor":5203,"taient":5204,"Ġavance":5205,"Ġhumaines":5206,"ĠmultilatÃ©ra":5207,"Ġhypoth":5208,"Ġreconstruction":5209,"ĠprÃ©cise":5210,"uni":5211,"Ġaffi":5212,"ĠpensÃ©":5213,"ĠpublicitÃ©":5214,"ĠrÃ©pondu":5215,"ĠpossÃ¨de":5216,"cus":5217,"Ġprie":5218,"ĠarriÃ¨re":5219,"Ġrecherches":5220,"Ġrouge":5221,"ĠlimitÃ©":5222,"cule":5223,"Ġattaquer":5224,"Ġrecommandation":5225,"Ġordinateur":5226,"Ġlead":5227,"ĠprÃ©venir":5228,"Ġcommuns":5229,"Ġpleine":5230,"Ġpreuves":5231,"lie":5232,"ĠrÃ©chauff":5233,"Ġconsul":5234,"ĠnÃ©cessite":5235,"Ġformuler":5236,"Ġauxquelles":5237,"ception":5238,"Ġenvironnementale":5239,"ĠuniversitÃ©":5240,"Ġorateurs":5241,"Ġprofessionnelle":5242,"Ġleaders":5243,"Ġcauses":5244,"Ġenregistre":5245,"Ġmarchandises":5246,"Ġpil":5247,"Ġsoyons":5248,"Ġinterventions":5249,"ĠamÃ©liorations":5250,"Ġnaturel":5251,"Ġconscients":5252,"Ġlocaux":5253,"Ġdesc":5254,"ĠdÃ©ploy":5255,"ĠproposÃ©e":5256,"Ġpassage":5257,"ĠfranÃ§aise":5258,"Ġdynamique":5259,"Ġsurmont":5260,"entement":5261,"Ġviolations":5262,"Ġcalcul":5263,"Ġchiffre":5264,"ĠinquiÃ©tude":5265,"Ġdemeure":5266,"line":5267,"Ġmorts":5268,"Ġagissait":5269,"Ġpensais":5270,"Ġtechnologique":5271,"Ġappeler":5272,"Ġaccrue":5273,"Ġbulgarie":5274,"rices":5275,"ĠhÃ©r":5276,"Ġyou":5277,"Ġconciliation":5278,"Ġalb":5279,"ĠdÃ©pit":5280,"ondre":5281,"Ġactive":5282,"Ġpolon":5283,"ĠespÃ©rer":5284,"ĠconsidÃ©rÃ©":5285,"Ġrestrictions":5286,"Ġdestruction":5287,"Ġbir":5288,"Ġpoursuite":5289,"Ã©rique":5290,"ĠmodÃ¨les":5291,"Ġsalari":5292,"Ġdon":5293,"ĠamÃ©ricaines":5294,"oto":5295,"Ġmusulmans":5296,"ĠsystÃ©matique":5297,"ĠaÃ©rop":5298,"Ġlondres":5299,"gos":5300,"Ġmarque":5301,"Ġconstate":5302,"ĠrÃ©agir":5303,"Ġexcellente":5304,"Ġspecta":5305,"Ġquar":5306,"ĠdÃ©lic":5307,"ĠÃ©nergies":5308,"Ġhabitude":5309,"vrier":5310,"opÃ©":5311,"nelle":5312,"Ġfaute":5313,"onnÃ©e":5314,"Ġliqui":5315,"Ġfinir":5316,"ĠnÃ©er":5317,"Ġviv":5318,"ĠproblÃ©":5319,"Ġsuppose":5320,"Ġendroits":5321,"aÃ¯":5322,"truct":5323,"Ġapprouve":5324,"ĠarrivÃ©e":5325,"ĠfÃ©vrier":5326,"Ġfonctionnaires":5327,"Ġembar":5328,"ly":5329,"Ġbloc":5330,"Ġapport":5331,"Ġpertes":5332,"Ġvertu":5333,"Ġressemble":5334,"Ġnavires":5335,"Ġenj":5336,"Ġremettre":5337,"osph":5338,"Ġdeviennent":5339,"Ġappui":5340,"Ġkil":5341,"Ġenvironnementales":5342,"Ġphil":5343,"Ġjuge":5344,"Ġneuf":5345,"ĠcomprÃ©hension":5346,"Ġbord":5347,"Ġbio":5348,"Ġpartenaire":5349,"esp":5350,"Ġexportation":5351,"Ġpsy":5352,"Ġpourrais":5353,"Ġmath":5354,"Ġchau":5355,"Ġapplic":5356,"Ġassass":5357,"Ġreconnu":5358,"Ġattendent":5359,"ĠtÃ¢ches":5360,"Ġconvaincre":5361,"Ġoccuper":5362,"Ġment":5363,"chons":5364,"Ġaffirmer":5365,"Ġremarquable":5366,"gnitÃ©":5367,"ĠprÃ©sents":5368,"ĠaugmentÃ©":5369,"Ġrencontre":5370,"Ġindustrielle":5371,"Ġimagine":5372,"ĠappropriÃ©e":5373,"Ġpaiement":5374,"Ġlo":5375,"tront":5376,"ĠdÃ©battre":5377,"Ġressort":5378,"Ġ1997":5379,"Ġmentionner":5380,"ĠdÃ©couvert":5381,"ĠsouverainetÃ©":5382,"iel":5383,"Ġimpliquer":5384,"Ġprior":5385,"Ġignor":5386,"Ġcultures":5387,"Ġmou":5388,"ĠintÃ©rieures":5389,"Ġplani":5390,"illir":5391,"ĠÃ©nergÃ©tiques":5392,"Ġfixer":5393,"ĠdÃ©posÃ©":5394,"Ġsyndi":5395,"Ġsubstanti":5396,"Ġhi":5397,"ĠdignitÃ©":5398,"Ġallou":5399,"Ġexplique":5400,"Ġpouvaient":5401,"ĠdÃ©termination":5402,"Ġexclusion":5403,"Ġespagnol":5404,"Ġpapi":5405,"ĠÃ©pi":5406,"Ġcontes":5407,"Ġcontact":5408,"Ġincont":5409,"ĠpÃªcheurs":5410,"ĠlÃ©gislatives":5411,"Ġressemb":5412,"ĠparallÃ¨lement":5413,"Ġintergouvernementale":5414,"ĠdÃ©sastre":5415,"Ġpressions":5416,"Ġhonte":5417,"Ġfilles":5418,"Ġfils":5419,"ĠÃ©mo":5420,"ĠprivÃ©e":5421,"Ġindique":5422,"ĠnÃ©gli":5423,"Ġviolation":5424,"Ġpaiements":5425,"Ġreligion":5426,"tante":5427,"ĠclÃ©s":5428,"ĠdegrÃ©":5429,"ĠimpÃ©ra":5430,"Ġsalaires":5431,"Ġheureusement":5432,"ĠavancÃ©e":5433,"Ġ1990":5434,"cription":5435,"Ġconnaissent":5436,"ĠsecrÃ©taire":5437,"nu":5438,"ĠprÃ©sidenti":5439,"Ġdisait":5440,"Ġvia":5441,"Ġpersu":5442,"versaire":5443,"Ġinformer":5444,"ĠhonnÃªte":5445,"Ġmenaces":5446,"Ġattaque":5447,"ĠlÃ©gitimitÃ©":5448,"Ġok":5449,"Ġserbie":5450,"Ġallait":5451,"ĠsÃ©le":5452,"ĠaÃ©rien":5453,"Ġadresser":5454,"Ġconnaissons":5455,"Ġvitesse":5456,"sbourg":5457,"Ġarchite":5458,"ennent":5459,"Ġgri":5460,"Ġavi":5461,"ĠdÃ©sÃ©quili":5462,"ĠprÃ©ciser":5463,"Ġsolide":5464,"Ġmerveille":5465,"ĠfondÃ©e":5466,"Ġremplacer":5467,"tants":5468,"sif":5469,"isson":5470,"oyer":5471,"Ġcolon":5472,"Ġsimples":5473,"Ġattaques":5474,"ĠhÃ´pit":5475,"ĠinterprÃ©tation":5476,"ĠÃ©tiquetage":5477,"ader":5478,"ĠpÃ©r":5479,"sias":5480,"Ġprodi":5481,"ĠdÃ©clin":5482,"ĠprivÃ©s":5483,"ĠutilisÃ©e":5484,"Ġcorri":5485,"Ġressor":5486,"Ġpier":5487,"Ġremarquer":5488,"Ġalimentation":5489,"Ġaccueil":5490,"ĠÃ©car":5491,"Ġadmettre":5492,"Ġminute":5493,"Ġafricains":5494,"ĠsincÃ¨rement":5495,"ĠchrÃ©tiens":5496,"Ġtransformer":5497,"Ġsain":5498,"Ġbla":5499,"Ġdomin":5500,"ĠadoptÃ©es":5501,"ĠorganisÃ©":5502,"ĠadÃ©quate":5503,"Ġfabri":5504,"Ġbro":5505,"oivent":5506,"Ġmillion":5507,"Ġgaza":5508,"Ġenregistr":5509,"Ġtentative":5510,"mant":5511,"Ġfre":5512,"ĠrÃ©side":5513,"Ġmoteur":5514,"Ġsole":5515,"Ġfinance":5516,"Ġcroissante":5517,"Ġconcernent":5518,"ĠextrÃ©":5519,"Ġchypre":5520,"Ġsurface":5521,"Ġpoursu":5522,"ĠdÃ©bou":5523,"ĠdÃ©fend":5524,"ĠgÃ©nÃ©rations":5525,"ĠrevÃªt":5526,"ĠdestinÃ©es":5527,"Ġappartient":5528,"ĠcohÃ©rence":5529,"Ġoutil":5530,"Ġhonorable":5531,"ĠrÃ©pÃ©ter":5532,"Ġve":5533,"Ġenthou":5534,"Ġvictoire":5535,"Ġenthousias":5536,"urants":5537,"Ġmagn":5538,"ĠconcrÃ©":5539,"alisÃ©s":5540,"Ġinfra":5541,"Ġprisonn":5542,"Ġtomber":5543,"ĠdÃ©marche":5544,"Ġattentes":5545,"Ġkyoto":5546,"Ġparoles":5547,"Ġbelle":5548,"Ġcroy":5549,"Ġwal":5550,"ĠfrontiÃ¨re":5551,"Ġretrouver":5552,"ĠcohÃ©rente":5553,"nÃ©es":5554,"ĠÃ¨":5555,"Ġinvent":5556,"Ġbais":5557,"ĠliÃ©e":5558,"Ġamour":5559,"ĠproposÃ©es":5560,"Ġmaximum":5561,"Ġobligatoire":5562,"ĠgÃ©orgie":5563,"ĠrÃ©percus":5564,"Ġouest":5565,"Ġtransmis":5566,"Ġimages":5567,"ĠlÃ©gislative":5568,"ĠbriÃ¨vement":5569,"ide":5570,"Ġbras":5571,"Ġavion":5572,"Ġmondiaux":5573,"arition":5574,"Ġhamas":5575,"Ġvoisinage":5576,"Ġsalu":5577,"ĠleÃ§ons":5578,"Ġexten":5579,"Ġracont":5580,"Ġcontro":5581,"ĠrÃ©solutions":5582,"Ġcroa":5583,"ĠrÃ©glementations":5584,"Ġexistantes":5585,"ĠmÃ©diterranÃ©e":5586,"Ġimmob":5587,"uss":5588,"Ġreprendre":5589,"ĠsoviÃ©tique":5590,"Ġcompara":5591,"Ġconstitutionnel":5592,"ĠdestinÃ©s":5593,"Ġopinions":5594,"Ġsensible":5595,"Ġconserver":5596,"Ġasia":5597,"Ġratification":5598,"Ġfruits":5599,"ende":5600,"Ġsurvi":5601,"ĠposÃ©":5602,"Ġhauteur":5603,"Ġsauf":5604,"europÃ©":5605,"Ġslova":5606,"Ġincroyable":5607,"Ġsoleil":5608,"200":5609,"ry":5610,"Ġpatri":5611,"Ġmaga":5612,"Ġinspe":5613,"Ġriche":5614,"lor":5615,"Ġsco":5616,"Ġinh":5617,"Ġsoyez":5618,"Ġpolitici":5619,"Ġsigna":5620,"ĠpÃ©ti":5621,"ĠÃ©mission":5622,"Ġouvre":5623,"ĠdÃ©veloppÃ©s":5624,"ĠÃ©liminer":5625,"ĠreflÃ¨te":5626,"mises":5627,"ortÃ©":5628,"ories":5629,"Ġfla":5630,"Ġexter":5631,"Ġsida":5632,"Ġexplication":5633,"ĠprÃ©sentation":5634,"Ġclassi":5635,"Ġutilisent":5636,"Ġsuppression":5637,"Ġcentral":5638,"Ġinfrastructure":5639,"Ġregrettable":5640,"Ġinutile":5641,"Ġsoldats":5642,"Ġsite":5643,"Ġenne":5644,"Ġrequi":5645,"Ġtrom":5646,"Ġliban":5647,"Ġincombe":5648,"Ġsuffisant":5649,"Ġdiminuer":5650,"Ġretirer":5651,"ĠrÃ©chauffement":5652,"Ġfar":5653,"Ġdevi":5654,"Ġintroduit":5655,"Ġattends":5656,"Ġinfluen":5657,"ĠintÃ©rieure":5658,"Ġpom":5659,"ĠrÃ©a":5660,"Ġaccidents":5661,"Ġanni":5662,"fici":5663,"Ġconseils":5664,"ĠÃ©tonn":5665,"Ġstric":5666,"ieux":5667,"Ġgol":5668,"Ġacp":5669,"ĠimpÃ´ts":5670,"Ġdiz":5671,"Ġisol":5672,"Ġsignaler":5673,"guer":5674,"pro":5675,"Ġdoc":5676,"Ġmettent":5677,"ĠmenÃ©":5678,"Ġessentielles":5679,"ĠbasÃ©e":5680,"ĠreprÃ©senter":5681,"Ġchimiques":5682,"ĠentraÃ®ne":5683,"ĠbÃ¢timent":5684,"Ġtre":5685,"Ġfaux":5686,"Ġdrogue":5687,"Ġrespecte":5688,"Ġsentir":5689,"Ġtransfert":5690,"Ġaffec":5691,"Ġinscrit":5692,"Ġmeur":5693,"Ġmarge":5694,"ĠdÃ©sesp":5695,"ĠopportunitÃ©s":5696,"ĠrÃ©percussions":5697,"ok":5698,"Ġryth":5699,"Ġnotion":5700,"Ġoption":5701,"ĠmenÃ©e":5702,"Ġstrasbourg":5703,"Ġsouvenir":5704,"Ġhistoires":5705,"ĠÃ©chÃ©":5706,"ĠprÃ©vue":5707,"ĠcÃ´tÃ©s":5708,"Ġrevoir":5709,"Ġvenez":5710,"Ġpoutine":5711,"ĠÃ©lectronique":5712,"ĠÃ¨re":5713,"Ġsti":5714,"Ġvin":5715,"Ġreten":5716,"Ġchoc":5717,"ĠintermÃ©di":5718,"Ġtransit":5719,"Ġincl":5720,"ĠsignÃ©":5721,"Ġjustifier":5722,"Ġconnaissances":5723,"Ġmasse":5724,"Ġsoumettre":5725,"Ġbancaire":5726,"ĠrÃ©partition":5727,"Ġdesign":5728,"Ġcesser":5729,"Ġsert":5730,"Ã©rable":5731,"Ġbases":5732,"Ġrelance":5733,"Ġexprime":5734,"ĠguÃ¨re":5735,"ĠenvoyÃ©":5736,"bit":5737,"ĠÃ©pr":5738,"Ġravi":5739,"Ġapprentis":5740,"romp":5741,"Ġchien":5742,"ĠliÃ©":5743,"Ġauto":5744,"ications":5745,"Ġcontribue":5746,"Ġindustries":5747,"commun":5748,"prÃ©sident":5749,"Ġaver":5750,"Ġautoma":5751,"ĠutilisÃ©es":5752,"Ġaugmente":5753,"obile":5754,"Ġautomobile":5755,"radi":5756,"Ġrestruct":5757,"Ġinsiste":5758,"ĠprÃ©sentÃ©e":5759,"Ġindica":5760,"Ġprison":5761,"ĠprÃ©occu":5762,"Ġsortes":5763,"Ġadministratives":5764,"ĠtÃ©lÃ©phone":5765,"Ġvraie":5766,"Ġlacun":5767,"Ġdevrais":5768,"Ġagisse":5769,"ash":5770,"Ġportant":5771,"Ġsugges":5772,"Ġmouvements":5773,"Ġtribunal":5774,"riÃ¨res":5775,"ĠlibÃ©raux":5776,"Ġsinon":5777,"Ġetat":5778,"Ġvan":5779,"Ġvivant":5780,"verbal":5781,"Ġheureuse":5782,"Ġvoient":5783,"ĠappropriÃ©":5784,"ĠtÃ©moign":5785,"Ġproportion":5786,"cy":5787,"Ġble":5788,"Ġmas":5789,"Ġgla":5790,"Ã©rences":5791,"ĠÃ©cri":5792,"gage":5793,"Ġprimor":5794,"ĠespÃ¨ce":5795,"Ġsalle":5796,"Ġsouffr":5797,"ĠtchÃ¨que":5798,"Ġprimordi":5799,"Ġax":5800,"osti":5801,"Ġcomplet":5802,"ĠpensÃ©e":5803,"Ġprati":5804,"ĠpubliÃ©":5805,"ĠmÃ©diterranÃ©":5806,"Ġcontac":5807,"Ġvivement":5808,"dÃ©c":5809,"Ġlibres":5810,"ĠajoutÃ©e":5811,"Ġarabes":5812,"Ġdiminution":5813,"Ġquinze":5814,"ĠcongrÃ¨s":5815,"Ġted":5816,"alisÃ©":5817,"ĠmÃ©m":5818,"ĠdÃ©cide":5819,"Ġaccomplir":5820,"Ġnormal":5821,"Ġentamer":5822,"gosla":5823,"Ġarme":5824,"Ġ23":5825,"Ġcommuniste":5826,"misme":5827,"ĠmenÃ©es":5828,"Ġcontinuera":5829,"ĠÃ©quival":5830,"ĠapparaÃ®t":5831,"Ġjohn":5832,"Ġyougosla":5833,"ola":5834,"Ġnl":5835,"Ġactivement":5836,"ĠÃ©cologique":5837,"Ġdirecteur":5838,"Ġsocialistes":5839,"ĠrÃ©pand":5840,"Ġcib":5841,"ĠstratÃ©gies":5842,"Ġcombin":5843,"Ġscandale":5844,"Ġamp":5845,"ilatÃ©ra":5846,"Ġrue":5847,"user":5848,"Ġcommissions":5849,"Ġanne":5850,"iennes":5851,"Ġinternes":5852,"ĠproductivitÃ©":5853,"ĠconsidÃ©rons":5854,"Ġcontribuables":5855,"ĠintÃ©grÃ©e":5856,"Ġsignificative":5857,"Ġsimilaires":5858,"Ġapprentissage":5859,"urde":5860,"Ġparis":5861,"Ġmotion":5862,"Ġdisons":5863,"Ġprintemps":5864,"Ġaffront":5865,"Ġamener":5866,"ĠÃ©trange":5867,"Ġfallait":5868,"Ġengend":5869,"Ġfourni":5870,"Ġcroatie":5871,"son":5872,"lions":5873,"Ġpassion":5874,"cha":5875,"Ġserais":5876,"ĠrÃ©pu":5877,"ĠrÃ©pÃ¨te":5878,"tiser":5879,"larus":5880,"Ġallemande":5881,"Ġtrouvons":5882,"ĠdÃ©ficits":5883,"Ġmachine":5884,"ak":5885,"deau":5886,"ĠgÃ©nÃ©rales":5887,"ĠrÃ©ductions":5888,"trice":5889,"Ġvolontaire":5890,"Ġinstaurer":5891,"Ġprofesseur":5892,"Ġtest":5893,"Ġrejeter":5894,"Ġincon":5895,"Ġjouent":5896,"ĠÃ©tablis":5897,"Ġtourner":5898,"oriz":5899,"Ġdistribution":5900,"we":5901,"Ġhoriz":5902,"Ġtaxes":5903,"Ġautriche":5904,"ĠrÃ©guliÃ¨rement":5905,"Ġpsych":5906,"Ġpapier":5907,"gin":5908,"rom":5909,"ĠtchÃ©":5910,"Ġalco":5911,"ĠperÃ§":5912,"Ġvig":5913,"Ġpostes":5914,"ĠcoopÃ©rer":5915,"Ġprotectionn":5916,"ographie":5917,"ĠrÃ©ussir":5918,"ĠÃ©loign":5919,"Ġconvergence":5920,"Ġvent":5921,"Ġpoissons":5922,"lÃ¨vent":5923,"Ġeffondre":5924,"ĠdÃ©bar":5925,"agnes":5926,"ĠspÃ©cial":5927,"Ġ1996":5928,"Ġorientation":5929,"ĠsiÃ¨ge":5930,"Ġferroviaire":5931,"Ġvente":5932,"cevoir":5933,"tera":5934,"Ġhonne":5935,"Ġdiscip":5936,"ĠprÃ©voir":5937,"Ġrencontrer":5938,"Ġintentions":5939,"Ġabandonner":5940,"Ġobstacle":5941,"Ġcrains":5942,"Ġaffaib":5943,"ĠvidÃ©o":5944,"Ġrythme":5945,"Ã¨le":5946,"chÃ©es":5947,"osoph":5948,"ĠtragÃ©":5949,"istant":5950,"Ġveuille":5951,"ĠtentÃ©":5952,"Ġaffirme":5953,"ĠaccÃ©lÃ©":5954,"Ġcanada":5955,"Ġphilosoph":5956,"dite":5957,"ĠlÃ©":5958,"Ġmonop":5959,"Ġdivis":5960,"Ġseules":5961,"Ġdemandent":5962,"Ġculturel":5963,"Ġexistants":5964,"Ġdiscrimin":5965,"ĠÃ©troitement":5966,"ĠprÃ©tend":5967,"ĠprÃ©alable":5968,"Ġbless":5969,"ĠcÃ©rÃ©":5970,"ĠdÃ©veloppÃ©":5971,"Ġeffectuer":5972,"ĠindÃ©pendants":5973,"Ġpt":5974,"ĠdÃ©sign":5975,"ĠemployÃ©s":5976,"Ġfonc":5977,"laud":5978,"Ãªts":5979,"ĠcomplÃ©":5980,"Ġdirecte":5981,"Ġforum":5982,"Ġjustif":5983,"onie":5984,"Ġclin":5985,"talitÃ©":5986,"Ġben":5987,"Ġfinlande":5988,"Ġoptim":5989,"ĠreconnaÃ®t":5990,"Ġtests":5991,"Ġcivils":5992,"Ġextension":5993,"Ġtox":5994,"sim":5995,"Ġauteur":5996,"Ġina":5997,"ĠforÃªts":5998,"ĠnÃ©cessairement":5999,"Ġjeunesse":6000,"Ġorigin":6001,"Ġmanifestement":6002,"ĠsupÃ©rieur":6003,"lue":6004,"Ġadress":6005,"ĠforcÃ©":6006,"Ġenvironnementaux":6007,"Ġsecret":6008,"Ġclairs":6009,"Ġambition":6010,"ĠproblÃ©matique":6011,"Ġvolu":6012,"Ġpoisson":6013,"ĠÃ©crire":6014,"Ġclause":6015,"Ġferont":6016,"Ġsecon":6017,"Ġrichesse":6018,"ĠaccÃ©l":6019,"ĠdÃ©cennie":6020,"Ġpromesses":6021,"Ġpolonais":6022,"ley":6023,"irent":6024,"ĠdÃ©ri":6025,"ĠconÃ§":6026,"Ġaccorde":6027,"ĠdonnÃ©e":6028,"Ġ2011":6029,"Ġsatisfaire":6030,"ĠvulnÃ©rables":6031,"Ġsurmonter":6032,"Ġanniversaire":6033,"Ġhonneur":6034,"Ġvivons":6035,"Ġstable":6036,"Ġautorisation":6037,"ĠparticipÃ©":6038,"Ġlocal":6039,"ĠdiscutÃ©":6040,"ĠsoulevÃ©":6041,"Ġtextes":6042,"Ġpourcent":6043,"Ġpolici":6044,"Ġadul":6045,"ĠdÃ©pendance":6046,"ĠempÃªche":6047,"Ġdonnent":6048,"ington":6049,"Ġremplir":6050,"Ġrendent":6051,"Ġprovenance":6052,"Ġanc":6053,"jeun":6054,"ĠrÃ©gionaux":6055,"ĠabordÃ©":6056,"ĠindÃ©pendante":6057,"Ġbureaucratie":6058,"gation":6059,"Ġlun":6060,"Ġpilier":6061,"oriques":6062,"ĠprÃ©ven":6063,"Ġoise":6064,"Ġsac":6065,"Ġquelconque":6066,"ĠdÃ©sir":6067,"Ġpartisans":6068,"ek":6069,"mosph":6070,"leurs":6071,"org":6072,"Ġprends":6073,"ĠÃ©cos":6074,"tration":6075,"Ġressenti":6076,"ĠÃ©thique":6077,"bon":6078,"dres":6079,"Ġmos":6080,"ĠunilatÃ©ra":6081,"ĠÃ©radi":6082,"Ġ22":6083,"Ġclar":6084,"Ġmini":6085,"Ġbata":6086,"ĠorganisÃ©e":6087,"Ġgratu":6088,"Ġlangage":6089,"ĠmÃ©ritent":6090,"Ġaboutir":6091,"ya":6092,"istÃ©":6093,"ĠdÃ©clen":6094,"Ġabat":6095,"Ġferait":6096,"Ġorientale":6097,"Ġsaisir":6098,"Ġprenez":6099,"ĠfixÃ©":6100,"Ġpencher":6101,"Ġsimplification":6102,"tissant":6103,"ĠÃ©clair":6104,"Ġdirectrices":6105,"Ġliby":6106,"Ġcandidat":6107,"Ġtradition":6108,"ĠÃ©gypte":6109,"ĠaccÃ©lÃ©rer":6110,"Â«":6111,"istique":6112,"Ġatmosph":6113,"ĠprÃ©con":6114,"ĠdÃ©montrÃ©":6115,"Ġrurales":6116,"Ġchaleure":6117,"Ġphrase":6118,"Ġdizaines":6119,"Ġfonctions":6120,"Ġem":6121,"Ġmc":6122,"ĠrÃ©els":6123,"fiant":6124,"Ġ1995":6125,"Ġsyrie":6126,"ĠdÃ©posÃ©s":6127,"ĠrejetÃ©":6128,"Ġalternatives":6129,"ĠcatÃ©gorie":6130,"aie":6131,"cht":6132,"rieurs":6133,"Ġcentres":6134,"Ġexigence":6135,"Ġidentifier":6136,"Ġcomplexes":6137,"ĠÃ©pargne":6138,"ĠdenrÃ©es":6139,"gh":6140,"range":6141,"lif":6142,"irer":6143,"Ġdirais":6144,"Ġsoin":6145,"Ġutilisant":6146,"Ġsembler":6147,"ĠÃ©lectorale":6148,"ĠprivilÃ©g":6149,"Ġchapitre":6150,"Ġmine":6151,"asp":6152,"ĠstratÃ©giques":6153,"Ġterritori":6154,"ĠrÃªve":6155,"Ġsauveg":6156,"Ġsar":6157,"ĠrÃ©mun":6158,"institu":6159,"Ġexpan":6160,"istent":6161,"Ġportent":6162,"Ġvital":6163,"Ġroms":6164,"ĠÃ®le":6165,"Ġtunis":6166,"ĠmÃ¨":6167,"chir":6168,"seurs":6169,"ĠhÃ©s":6170,"endront":6171,"Ġcaf":6172,"udes":6173,"Ġvieil":6174,"Ġindiquer":6175,"Ġcontrats":6176,"Ġconstructive":6177,"Ġjournalistes":6178,"Ġsatisfaction":6179,"Ġignorer":6180,"ĠapprÃ©cie":6181,"Ġexces":6182,"Ġinterro":6183,"Ġincomp":6184,"ĠnÃ©gocier":6185,"Ġmissions":6186,"Ġpromis":6187,"Ġdisposent":6188,"ĠintÃ©ressante":6189,"Ġopposer":6190,"Ġmutuelle":6191,"Ġmexique":6192,"ĠchaÃ®ne":6193,"Ġlon":6194,"ĠÃ©lus":6195,"meurs":6196,"Ġfaim":6197,"Ġrestre":6198,"Ã®tr":6199,"Ġinvesti":6200,"Ġobservateurs":6201,"Ġsusceptibles":6202,"Ġalcool":6203,"Ġavoc":6204,"Ġcamb":6205,"Ġpolitiquement":6206,"ĠgÃ©nÃ©":6207,"Ġtari":6208,"Ġterritoires":6209,"Ġconfirmer":6210,"ĠcaractÃ©ristiques":6211,"main":6212,"Ġalar":6213,"Ġquiconque":6214,"ĠprivÃ©es":6215,"Ġreconnais":6216,"Ġsucre":6217,"Ġrevend":6218,"ĠscÃ©n":6219,"ĠcÃ©lÃ¨":6220,"ĠdÃ©gÃ¢":6221,"dÃ©cision":6222,"yc":6223,"aison":6224,"Ġproduisent":6225,"Ġfiscales":6226,"ĠdÃ©fav":6227,"Ġtemporaire":6228,"Ġcos":6229,"Ġah":6230,"Ġand":6231,"cure":6232,"ĠcodÃ©cision":6233,"Ġinterinstitu":6234,"ĠannoncÃ©":6235,"Ġsouha":6236,"Ġarticles":6237,"ĠexpÃ©riment":6238,"Ġaccomplis":6239,"Ġtensions":6240,"ĠopposÃ©":6241,"ĠisraÃ©liens":6242,"ĠscÃ©nari":6243,"Ã¼":6244,"lages":6245,"Ġconstamment":6246,"Ġbelarus":6247,"ĠÃ©quilibrÃ©":6248,"Ġciel":6249,"ann":6250,"ĠvÃ©cu":6251,"Ġfinale":6252,"Ġmange":6253,"Ġaccepte":6254,"ĠrÃ©aliste":6255,"ĠrenforcÃ©e":6256,"Ġstocks":6257,"Ġmassive":6258,"Ġtransformation":6259,"ina":6260,"Ġrang":6261,"Ġconcrets":6262,"Ġfier":6263,"ĠrÃ©centes":6264,"Ġanimal":6265,"Ġberlin":6266,"ĠdÃ©gÃ¢ts":6267,"wan":6268,"Ġvain":6269,"Ġexister":6270,"Ġpouvais":6271,"Ġvisage":6272,"Ġiden":6273,"Ġdoutes":6274,"Ġinstar":6275,"Ġprisonniers":6276,"ĠtchÃ©tch":6277,"esti":6278,"Ġfurent":6279,"Ġence":6280,"Ġnettement":6281,"Ġassure":6282,"Ġwash":6283,"Ġmanifestations":6284,"ĠÃ©vÃ©nement":6285,"Ġprofessionnels":6286,"ĠexposÃ©":6287,"Ġinstallations":6288,"Ġoccupe":6289,"Ġcomprennent":6290,"ates":6291,"mons":6292,"Ġmit":6293,"Ġhol":6294,"Ġactif":6295,"dia":6296,"Ġcompar":6297,"midi":6298,"Ġtransat":6299,"Ġplaf":6300,"Ġnavi":6301,"Ġinitiale":6302,"ĠvÃ©ritables":6303,"Ġ2013":6304,"ĠdestinÃ©":6305,"Ġsaluer":6306,"Ġadaptation":6307,"Ġapparemment":6308,"ĠsuggÃ¨re":6309,"ĠfrÃ©qu":6310,"ĠocÃ©an":6311,"Ġexpansion":6312,"Ġwashington":6313,"Ã©m":6314,"ĠleÃ§on":6315,"Ġbomb":6316,"rid":6317,"Ġproches":6318,"Ġtroupes":6319,"forme":6320,"Ġgouvernementales":6321,"ĠrÃ©cent":6322,"Ġoctroi":6323,"Ġsensibles":6324,"Ġbosnie":6325,"tiez":6326,"Ġhas":6327,"Ġvague":6328,"Ġcitoyenne":6329,"ĠdÃ©battu":6330,"Ġmondiales":6331,"Ġorgane":6332,"Ġbilan":6333,"Ġcompagnie":6334,"Ġvirus":6335,"Ġjoin":6336,"ĠrÃ©ex":6337,"ĠrÃ©pression":6338,"Ġtransactions":6339,"Ġbonh":6340,"Ġabsten":6341,"Ã¯s":6342,"Ġexploiter":6343,"ĠlittÃ©ra":6344,"ĠdÃ©lib":6345,"ĠcinquiÃ¨me":6346,"dra":6347,"maire":6348,"Ġsites":6349,"ĠdÃ©v":6350,"Ġfaill":6351,"Ġtrait":6352,"Ġimpu":6353,"Ġnoire":6354,"Ġarbit":6355,"Ġexpl":6356,"Ġseuil":6357,"Ġentrepren":6358,"Ġguerres":6359,"ĠpassÃ©e":6360,"Ġsuffisante":6361,"Ġappuyer":6362,"Ġmorte":6363,"endrait":6364,"Ġoh":6365,"mages":6366,"Ġpositives":6367,"Ġobservation":6368,"ĠbÃ¢timents":6369,"Ġpac":6370,"ĠexcÃ©":6371,"mbourg":6372,"ĠperpÃ©":6373,"titudes":6374,"ĠconsidÃ©rÃ©e":6375,"Ġconstruit":6376,"Ġfournisse":6377,"Ġconvenu":6378,"Ġbruit":6379,"eff":6380,"ancer":6381,"Ġfortes":6382,"ĠaÃ©riennes":6383,"ĠÃ©quilibrÃ©e":6384,"Ġquotidien":6385,"ĠsÃ©lection":6386,"Ġpoliticiens":6387,"Ġq":6388,"Ġinex":6389,"ĠrÃ©cup":6390,"Ġrares":6391,"ĠpossÃ©":6392,"Ġrepris":6393,"ĠlÃ©gale":6394,"ĠengagÃ©":6395,"ĠpiÃ¨ces":6396,"Ġmorale":6397,"Ġcruciale":6398,"ĠnumÃ©ro":6399,"Ġlingu":6400,"Ġassassin":6401,"enant":6402,"ĠremÃ©di":6403,"Ġmotifs":6404,"Ã©rir":6405,"Ġaccum":6406,"Ġopti":6407,"Ġessaie":6408,"Ġdangereuses":6409,"Ġdanois":6410,"Ġcuis":6411,"lers":6412,"mn":6413,"ĠdÃ©te":6414,"Ġsalaire":6415,"Ġserre":6416,"ĠagrÃ©":6417,"Ġmanip":6418,"Ġisla":6419,"ĠcompÃ©tent":6420,"Ġapparten":6421,"ĠconcrÃ¨te":6422,"ĠconsacrÃ©":6423,"Ġpermanent":6424,"Ġfallu":6425,"ony":6426,"Ġlait":6427,"Ġvide":6428,"car":6429,"id":6430,"tein":6431,"ĠdÃ©ten":6432,"Ġsad":6433,"Ġutiles":6434,"Ġfuturs":6435,"Ġobserver":6436,"ĠbÃ©nÃ©ficient":6437,"Ġrecettes":6438,"ĠmÃ©decin":6439,"Ġrejoindre":6440,"Ġeffondrement":6441,"cre":6442,"pare":6443,"Ġexplicite":6444,"ĠfrÃ¨re":6445,"Ġdommages":6446,"ĠfixÃ©s":6447,"Ġoccidentale":6448,"Ġprononcer":6449,"Ġhongrie":6450,"Ġquitter":6451,"Ġsimilaire":6452,"Ġstimuler":6453,"Ġsoudan":6454,"otes":6455,"Ġlitu":6456,"Ġnul":6457,"itants":6458,"Ã¨dent":6459,"Ġsurvie":6460,"Ġadh":6461,"acc":6462,"ĠaccordÃ©e":6463,"Ġinclu":6464,"Ġdouani":6465,"Ġatteinte":6466,"Ġcontribuera":6467,"Ġrigou":6468,"ĠnÃ©erlandais":6469,"Ġstrictes":6470,"ĠclartÃ©":6471,"sin":6472,"veux":6473,"Ġpurement":6474,"Ã©rieure":6475,"ĠrÃ©sistance":6476,"ĠprÃ©voy":6477,"ĠreprÃ©sentation":6478,"Ġcontributions":6479,"Ġvenons":6480,"ĠpÃ©troli":6481,"ĠappropriÃ©es":6482,"ĠvÃ©rifier":6483,"ĠÃ®les":6484,"Ġfroide":6485,"Ġinjusti":6486,"Ġmodernisation":6487,"irait":6488,"vations":6489,"Ġpatient":6490,"Ġrembour":6491,"Ġdevaient":6492,"Ġsaou":6493,"titution":6494,"Ġoptions":6495,"ĠconsidÃ¨rent":6496,"Ġvoies":6497,"ovine":6498,"ĠconsidÃ©rations":6499,"Ġsorti":6500,"ĠlÃ©gitime":6501,"bi":6502,"Ġnaissance":6503,"ĠprÃ©sentent":6504,"ĠadoptÃ©s":6505,"Ġvisas":6506,"Ġindire":6507,"Ġinstitutionnel":6508,"ĠconstatÃ©":6509,"Ġremerciements":6510,"ĠuniversitÃ©s":6511,"Ġexclusivement":6512,"ĠprÃ©cÃ©dente":6513,"dÃ©e":6514,"anes":6515,"ĠdÃ©gra":6516,"ĠdÃ©clar":6517,"umÃ©":6518,"Ġclimatiques":6519,"Ġsty":6520,"ĠprÃ©cÃ©demment":6521,"Ġmorce":6522,"Ġkilom":6523,"ice":6524,"Ġprouv":6525,"Ġfoi":6526,"Ġjui":6527,"Ġchem":6528,"Ġcam":6529,"Ġpersonnelle":6530,"Ġabsolue":6531,"ĠprÃ©vues":6532,"Ġprogressivement":6533,"illÃ©":6534,"Ġinverse":6535,"ĠmaÃ®tr":6536,"ĠdÃ©bu":6537,"ĠdÃ©veloppements":6538,"Ġparticuliers":6539,"Ġvisent":6540,"Ġsouhaitable":6541,"Ġrefuse":6542,"Ġtenue":6543,"ĠentraÃ®nÃ©":6544,"ĠnÃ©gatif":6545,"Ġbonheur":6546,"vait":6547,"Ġmens":6548,"Ġog":6549,"oigne":6550,"Ġmette":6551,"ĠdÃ©crit":6552,"raison":6553,"Ġ196":6554,"Ġjournal":6555,"ĠaffirmÃ©":6556,"ĠcomplexitÃ©":6557,"Ġcuba":6558,"jeuner":6559,"Ġcre":6560,"Ġentam":6561,"Ġcoeur":6562,"Ġrecourir":6563,"Ã¨ges":6564,"ĠlimitÃ©e":6565,"ĠrÃ©cents":6566,"ĠÃ©tend":6567,"ĠbarriÃ¨res":6568,"ĠthÃ¨mes":6569,"Ġchacune":6570,"Ġindemn":6571,"Ġanticip":6572,"Ġintelli":6573,"Ġappareil":6574,"Ġracisme":6575,"Ġsilence":6576,"lets":6577,"Ġprenne":6578,"Ġprendra":6579,"Ġmacro":6580,"Ġcroissant":6581,"Ġdoig":6582,"Ġconscient":6583,"Ġoublions":6584,"Ġdisponible":6585,"Ġattentivement":6586,"ĠprÃ©cÃ©dents":6587,"Ġincertitude":6588,"ĠmathÃ©":6589,"hu":6590,"ĠadhÃ©":6591,"ĠminoritÃ©":6592,"ĠillÃ©gale":6593,"Ġpromesse":6594,"Ġbienvenue":6595,"Ġrequiert":6596,"ĠremÃ©dier":6597,"Ġtar":6598,"orge":6599,"ulÃ©":6600,"siez":6601,"Ġpropag":6602,"Ġagres":6603,"ĠdÃ©mocraties":6604,"Ġsoutiennent":6605,"Ġinviter":6606,"ĠsÃ©rieuse":6607,"ĠÃ¢gÃ©es":6608,"ĠeffectuÃ©":6609,"ĠappliquÃ©es":6610,"ĠaccÃ©der":6611,"Ġphotos":6612,"Ġallemands":6613,"lifÃ©ration":6614,"accord":6615,"Ġdevriez":6616,"vaient":6617,"Ġfonde":6618,"Ġinclusion":6619,"ĠbasÃ©":6620,"Ġmauvaises":6621,"Ġpermanente":6622,"Ġdistinction":6623,"Ġsubstance":6624,"ĠinÃ©galitÃ©s":6625,"ĠmÃ©moire":6626,"ĠtragÃ©die":6627,"ho":6628,"oie":6629,"zy":6630,"Ġcraign":6631,"Ġlever":6632,"ĠrÃ©in":6633,"Ġdure":6634,"vas":6635,"ĠlibÃ©ration":6636,"ĠgarÃ§on":6637,"Ġinstitutionnelle":6638,"ĠengagÃ©s":6639,"ĠcÃ´te":6640,"Ġconforme":6641,"Ġtentatives":6642,"Ġcommuniquer":6643,"Ġfos":6644,"endrons":6645,"geant":6646,"Ġsuit":6647,"Ġcompati":6648,"Ġmontagne":6649,"Ġincor":6650,"Ġinfe":6651,"ĠinquiÃ¨te":6652,"Ġaccroissement":6653,"Ġconvaincue":6654,"ĠalliÃ©s":6655,"Ġprovenant":6656,"Ġimaginez":6657,"Ġpierre":6658,"Ġlacunes":6659,"feu":6660,"Ġdar":6661,"Ġenri":6662,"sibles":6663,"Ġsages":6664,"Ġrestri":6665,"ĠmÃ©pr":6666,"guÃ©":6667,"Ġcontraintes":6668,"ĠdÃ©clare":6669,"Ġrefuser":6670,"Ġabouti":6671,"Ġlongues":6672,"ano":6673,"urie":6674,"Ġtriste":6675,"yst":6676,"ĠrÃ©sol":6677,"Ġmarcher":6678,"Ġcolomb":6679,"ĠdÃ©saccord":6680,"Ġcontradi":6681,"Ġzi":6682,"ĠcompÃ©t":6683,"ĠdestinÃ©e":6684,"Ġsuivantes":6685,"Ġciviles":6686,"ĠhÃ©las":6687,"Ġpousser":6688,"Ġprovoquer":6689,"Ġautrich":6690,"Ġmagni":6691,"Ġtac":6692,"sements":6693,"tern":6694,"Ġimpati":6695,"ulsion":6696,"Ġaddi":6697,"Ġtravaillons":6698,"ĠÃ©levÃ©es":6699,"ĠcolÃ¨re":6700,"Ġ31":6701,"ĠzÃ©ro":6702,"Ġnaturelle":6703,"Ġfondamentalement":6704,"Ġestiment":6705,"ĠsÃ»rs":6706,"Ġoccasions":6707,"ĠÃ©tendue":6708,"Ġconviction":6709,"ĠcatÃ©gories":6710,"ĠrÃ©digÃ©":6711,"Ġpourcentage":6712,"Ġsaddam":6713,"Ġogm":6714,"30":6715,"Ġtente":6716,"Ġunes":6717,"Ã¨tent":6718,"Ġaveu":6719,"ĠÃ©conomistes":6720,"ĠmillÃ©":6721,"mÃ©ment":6722,"Ġcommencent":6723,"Ġformulation":6724,"Ġchinoise":6725,"ĠdÃ©finitive":6726,"ĠappliquÃ©e":6727,"Ġpalestinienne":6728,"Ġhasard":6729,"Ġtrente":6730,"alisÃ©e":6731,"Ġutilisateurs":6732,"ĠdÃ©clarer":6733,"Ġcombus":6734,"ĠreÃ§oivent":6735,"Ġinforme":6736,"ĠÃ©chouÃ©":6737,"Ġcland":6738,"tile":6739,"ĠdÃ©tri":6740,"Ġconventions":6741,"ĠprÃ©te":6742,"Ġsois":6743,"Ġcoali":6744,"Ġposent":6745,"Ġsignes":6746,"Ġ35":6747,"Ġstand":6748,"ĠmonÃ©taires":6749,"Ġoccupation":6750,"Ġreligieux":6751,"Ġreconnaissant":6752,"Ġautomatique":6753,"Ġinond":6754,"Ġincid":6755,"Ġgal":6756,"lah":6757,"Ġchat":6758,"anda":6759,"tissent":6760,"Ġincend":6761,"Ġoppose":6762,"ĠrÃ©conc":6763,"ĠinvitÃ©":6764,"Ġsoulever":6765,"Ġsurpris":6766,"Ġbataille":6767,"Ġimplication":6768,"ĠrenforcÃ©":6769,"Ġprochains":6770,"ĠpÃ©riodes":6771,"Ġdiplomatie":6772,"ball":6773,"ĠnumÃ©rique":6774,"Ġweb":6775,"Ġjustifie":6776,"ĠcafÃ©":6777,"xie":6778,"Ġmille":6779,"Ġmuni":6780,"ĠÃ©man":6781,"Ã¨lement":6782,"Ġprolon":6783,"ĠamÃ©liore":6784,"tissement":6785,"Ġroutes":6786,"ĠrÃ©comp":6787,"Ġessayons":6788,"Ġrestera":6789,"ĠrefusÃ©":6790,"ĠdÃ©montre":6791,"Ġislamique":6792,"Ġhyd":6793,"Ġinterdire":6794,"ĠrÃ©tablir":6795,"Ġtas":6796,"Ã¨tement":6797,"ĠdÃ©rog":6798,"ĠmacÃ©":6799,"mpe":6800,"Ġ28":6801,"Ġsuisse":6802,"Ġ300":6803,"agÃ©":6804,"ritÃ©":6805,"Ġports":6806,"Ġdevienne":6807,"Ġalg":6808,"Ġ29":6809,"Ġtransmettre":6810,"versitÃ©":6811,"gentes":6812,"ĠdÃ©solÃ©":6813,"Ġexistant":6814,"Ġsouffrent":6815,"Ġadministrative":6816,"Ġchercheurs":6817,"Ġaustra":6818,"Ġfoot":6819,"Ġbirmanie":6820,"ĠpÃ©titions":6821,"ĠdÃ©triment":6822,"ita":6823,"Ġtva":6824,"oient":6825,"Ġadmis":6826,"Ġcharbon":6827,"Ġbaltique":6828,"ĠgagnÃ©":6829,"Ġappliquent":6830,"Ġsurprise":6831,"Ġdevenus":6832,"ĠintÃ©resse":6833,"Ġstandard":6834,"ĠfÃªte":6835,"ĠrÃ©gulation":6836,"Ġrecue":6837,"ĠbrÃ»":6838,"Ġhistoriques":6839,"Ġcharges":6840,"Ġstructurelles":6841,"ĠimpliquÃ©s":6842,"onÃ©":6843,"tienne":6844,"Ġfan":6845,"Ġassister":6846,"Ġferai":6847,"Ġconnaisse":6848,"ĠbÃ©nÃ©fice":6849,"ĠÃ©quiv":6850,"Ġsoutenue":6851,"ĠachetÃ©":6852,"ographiques":6853,"Ġpensions":6854,"Ġambitions":6855,"ĠÃ©limination":6856,"quons":6857,"ĠgÃ¢":6858,"Ġgasp":6859,"ĠÃ©cus":6860,"Ġdrogues":6861,"Ġdommage":6862,"Ġpermettront":6863,"Ġjeudi":6864,"athie":6865,"Ġvillage":6866,"ĠrÃ©aff":6867,"dj":6868,"gure":6869,"gences":6870,"teaux":6871,"Ġinva":6872,"arb":6873,"ark":6874,"ĠÃ©tapes":6875,"Ġmoments":6876,"Ġprag":6877,"Ġimposent":6878,"ĠtÃ©lÃ©commun":6879,"ĠpÃ©nale":6880,"Ġfassent":6881,"Ġpuissances":6882,"Ġsignature":6883,"effic":6884,"fa":6885,"olique":6886,"urÃ©e":6887,"Ġplantes":6888,"ĠÃ©cart":6889,"ĠprÃ©sentÃ©s":6890,"issements":6891,"ĠengagÃ©e":6892,"Ġformule":6893,"ĠreflÃ©":6894,"Ġobservations":6895,"Ġdiscutons":6896,"Ġaffronter":6897,"Ġveuillez":6898,"Ã¨tre":6899,"Ġ26":6900,"pule":6901,"Ġsousc":6902,"Ġarrivent":6903,"ĠopposÃ©s":6904,"Ġcriminels":6905,"ĠcÃ©lÃ¨bre":6906,"Ã³":6907,"Ġsk":6908,"terre":6909,"Ġcab":6910,"Ġconta":6911,"Ġarg":6912,"Ġobjets":6913,"Ġmettant":6914,"Ġenvironnemental":6915,"ĠlÃ©gislations":6916,"Ġscru":6917,"Ġpartageons":6918,"ĠqualifiÃ©e":6919,"Ġprononc":6920,"ĠmatÃ©riel":6921,"ĠsalariÃ©s":6922,"Ġauteurs":6923,"membre":6924,"ĠfondÃ©":6925,"tination":6926,"Ġrecyc":6927,"Ġentreprendre":6928,"Ġirlandaise":6929,"ĠlibÃ©ral":6930,"Ġcoordonner":6931,"ĠconfirmÃ©":6932,"Ġineffic":6933,"culaire":6934,"Ġallant":6935,"Ġenvie":6936,"ĠsÃ©para":6937,"Ġserai":6938,"Ġfermer":6939,"Ġvictime":6940,"ĠdÃ©pendent":6941,"Ġcraintes":6942,"ĠmÃ©decins":6943,"Ġcontacts":6944,"Ġchaleureusement":6945,"ÃŃ":6946,"Ġjac":6947,"Ġmass":6948,"riques":6949,"Ġramen":6950,"enses":6951,"Ã©rÃ©ment":6952,"Ġannonce":6953,"Ġenver":6954,"Ġnice":6955,"Ġrecon":6956,"ĠchargÃ©":6957,"Ġconsacrer":6958,"Ġdictature":6959,"ĠdÃ©barras":6960,"Ġpont":6961,"Ġmaroc":6962,"Ġchu":6963,"Ġchim":6964,"mbab":6965,"Ġinterpr":6966,"Ġvieille":6967,"lone":6968,"ĠgÃ©nÃ©raux":6969,"Ġrisquent":6970,"Ġdirig":6971,"ĠarrÃªtÃ©":6972,"Ġtenus":6973,"Ġsanction":6974,"ĠÃ©normÃ©ment":6975,"Ġindustriels":6976,"ĠtempÃ©ra":6977,"Ġzimbab":6978,"if":6979,"Ġaz":6980,"Ġpage":6981,"Ġennu":6982,"mets":6983,"Ġeuropol":6984,"Ġsacri":6985,"emark":6986,"ĠbÃ©nÃ©ficiaires":6987,"ĠcritÃ¨re":6988,"Ġbelgique":6989,"Ġdanemark":6990,"ĠhÃ´pital":6991,"Ġcontrovers":6992,"Ġrestructuration":6993,"Ġcoalition":6994,"Ġvend":6995,"Ġsupr":6996,"Ġlieux":6997,"ĠrÃ©col":6998,"Ġtransparente":6999,"Ġvenue":7000,"Ġmoral":7001,"Ġdiplomatique":7002,"Ġsimplifier":7003,"Ġmicro":7004,"Ġincontes":7005,"Ġclandes":7006,"tiÃ¨me":7007,"Ġenti":7008,"Ġduquel":7009,"Ġreviend":7010,"ĠdÃ©cent":7011,"ĠintÃ©grÃ©":7012,"Ġplacer":7013,"ĠÃ©levÃ©e":7014,"Ġattente":7015,"Ġmodernes":7016,"Ġmusulman":7017,"ĠterminÃ©":7018,"Ġimmigrants":7019,"Ġinspir":7020,"Ġvolume":7021,"Ġsit":7022,"Ġdettes":7023,"ission":7024,"Ġamend":7025,"ĠamÃ¨ne":7026,"ĠexpliquÃ©":7027,"ĠmaniÃ¨res":7028,"piration":7029,"Ġrechercher":7030,"Ġcontribuent":7031,"Ġachat":7032,"Ġcouvrir":7033,"Ġfroid":7034,"Ġimmense":7035,"ĠintermÃ©diaire":7036,"Ġprouver":7037,"ĠrÃ©cip":7038,"Ġrarement":7039,"Ġdiagn":7040,"ĠrappelÃ©":7041,"Ġformer":7042,"Ġconfusion":7043,"ĠÃ©gal":7044,"ĠÅĵil":7045,"ĠbÃ©nÃ©ficie":7046,"Ġdistance":7047,"Ġanalyser":7048,"Ġpaul":7049,"Ġindu":7050,"ĠdÃ©tÃ©ri":7051,"Ġremet":7052,"Ã©riques":7053,"vidu":7054,"Ġexpliqu":7055,"ĠgÃ©nÃ©ralis":7056,"Ġindividu":7057,"mann":7058,"Ġconstructif":7059,"Ġlibrement":7060,"ĠÃ©duca":7061,"Ġsemblait":7062,"Ġluxembourg":7063,"ĠdÃ©couvrir":7064,"Ġenthousiasme":7065,"Ġaci":7066,"Ġmig":7067,"Ġmourir":7068,"ith":7069,"Ġimposition":7070,"ĠaccordÃ©":7071,"ĠportÃ©":7072,"Ġdessous":7073,"ĠconfrontÃ©e":7074,"Ġconvaincus":7075,"Ġdossiers":7076,"ĠopÃ©rateurs":7077,"ĠcÃ©lÃ©":7078,"Ġdisparu":7079,"Ã©conomique":7080,"Ġchans":7081,"Ġapplaud":7082,"Ġdirai":7083,"Ġamus":7084,"Ġmanquer":7085,"ĠdÃ©battons":7086,"Ġinciter":7087,"Ġautoriser":7088,"Ġabsor":7089,"Ġmalade":7090,"Ġignore":7091,"ĠpropriÃ©":7092,"Ġprudence":7093,"Ġcivilisation":7094,"ĠhandicapÃ©es":7095,"Ġpare":7096,"Ġfati":7097,"Ġexpres":7098,"Ġcourse":7099,"Ġplaintes":7100,"Ġessence":7101,"Ġgarantit":7102,"ophob":7103,"ĠprÃ©fÃ¨re":7104,"Ġitalien":7105,"tissants":7106,"Ġphysi":7107,"Ġbrevets":7108,"Ġslovaquie":7109,"igÃ©":7110,"onte":7111,"Ġleader":7112,"arma":7113,"Ġsoumise":7114,"ĠattÃ©":7115,"Ġvoudrions":7116,"Ġbateau":7117,"Ġjuger":7118,"Ġhautement":7119,"ĠarrÃªte":7120,"Ġinstauration":7121,"Ġtenant":7122,"ĠenquÃªtes":7123,"Ġtableau":7124,"Ġmajeurs":7125,"ĠformulÃ©es":7126,"Ġtendances":7127,"Ġcontenter":7128,"Ġautonomie":7129,"Ġtuer":7130,"Ġsurven":7131,"Ġexcessi":7132,"ĠinstabilitÃ©":7133,"Ġinnoc":7134,"Ġmultination":7135,"Ġsentiments":7136,"Ġfiscaux":7137,"Ġmanifeste":7138,"Ġcampagnes":7139,"Ġslov":7140,"Ġargenti":7141,"uve":7142,"tements":7143,"diversitÃ©":7144,"Ġvih":7145,"ĠrÃ©su":7146,"fini":7147,"Ġmonter":7148,"Ġdurables":7149,"Ġjugement":7150,"Ġbiologique":7151,"Ġrecommande":7152,"ĠoubliÃ©":7153,"Ġenvisag":7154,"Ġsurveiller":7155,"Ġordinateurs":7156,"Ġofficielle":7157,"Ġtribunaux":7158,"Ġconnex":7159,"Ġangleterre":7160,"Ġaveug":7161,"bel":7162,"ja":7163,"kh":7164,"ouff":7165,"Ġtonnes":7166,"ĠrÃ¨":7167,"vateur":7168,"ĠmÃ©ta":7169,"verser":7170,"ĠprÃ©cises":7171,"Ġviolences":7172,"Ġfranc":7173,"ĠdÃ©penser":7174,"ĠhaÃ¯":7175,"ĠprovoquÃ©":7176,"Ġmultiples":7177,"ĠirrÃ©gu":7178,"dt":7179,"Ġtal":7180,"Ġvienne":7181,"ĠÃ©crite":7182,"Ġpost":7183,"curr":7184,"cats":7185,"Ġimmun":7186,"ĠÃ©labor":7187,"Ġpalestine":7188,"Ġgrosse":7189,"Ġrome":7190,"Ġtraduit":7191,"Ġpouss":7192,"Ġrapprocher":7193,"Ġethniques":7194,"ĠbiodiversitÃ©":7195,"ĠmillÃ©naire":7196,"ĠtÃ©lÃ©communications":7197,"ĠcÃ©lÃ©b":7198,"Ġsw":7199,"ĠmÃ¨ne":7200,"Ġrub":7201,"Ġparlent":7202,"Ġrat":7203,"viendra":7204,"ĠprÃ©sentÃ©es":7205,"iliers":7206,"ĠinformÃ©s":7207,"trices":7208,"Ġfrag":7209,"Ġappelons":7210,"ĠÃ©laborÃ©":7211,"Ġsortie":7212,"Ġtombe":7213,"Ġcollective":7214,"ĠsouhaitÃ©":7215,"dÃ©s":7216,"urg":7217,"Ġremis":7218,"Ġcommand":7219,"Ġconstante":7220,"ĠsoulÃ¨ve":7221,"rÃ©g":7222,"Ġviable":7223,"ĠindonÃ©":7224,"Ġspor":7225,"Ġprofond":7226,"moine":7227,"ĠhÃ©mi":7228,"Ġfeuille":7229,"Ġconsolidation":7230,"Ġintellectuelle":7231,"Ġpatrimoine":7232,"Ġale":7233,"Ġsv":7234,"ĠdÃ©vas":7235,"Ġmarie":7236,"aution":7237,"Ġentends":7238,"Ġinterdit":7239,"ĠdÃ©cÃ¨s":7240,"Ġcroit":7241,"laritÃ©":7242,"Ġabsurde":7243,"Ġsciences":7244,"Ġambass":7245,"Ġjournaux":7246,"Ġespoirs":7247,"ĠconcrÃ¨tement":7248,"Ġukrain":7249,"Ġaccueillir":7250,"Ġsyndicats":7251,"cycle":7252,"Ġfaillite":7253,"zar":7254,"ĠpÃª":7255,"ĠsÅĵur":7256,"ĠmÃ¨tres":7257,"Ġconcevoir":7258,"Ġ2012":7259,"Ġtraditions":7260,"Ġindividuels":7261,"Ġprofondes":7262,"Ġsexuelle":7263,"Ġajustement":7264,"Ġoiseaux":7265,"ĠhÃ©micycle":7266,"ette":7267,"log":7268,"tification":7269,"omÃ©":7270,"Ġfen":7271,"Ġtoucher":7272,"Ã©ric":7273,"Ġcoin":7274,"Ġka":7275,"Ġferons":7276,"Ġculturelles":7277,"ĠrespectÃ©":7278,"Ġlocale":7279,"ĠpÃ©nal":7280,"Ġparvenu":7281,"Ġtraduire":7282,"Ġpieds":7283,"Ġbattre":7284,"Ġespagnole":7285,"Ġvacances":7286,"Ġreligieuses":7287,"vra":7288,"Ġloy":7289,"Ġhosti":7290,"ĠintÃ©gra":7291,"ĠdÃ©sar":7292,"Ġrespectent":7293,"Ġerron":7294,"Ġcommunications":7295,"Ġlogici":7296,"doine":7297,"Ġsensibil":7298,"ĠsuÃ©doise":7299,"ĠsystÃ©matiquement":7300,"ĠimpÃ©ratif":7301,"Ġressortissants":7302,"ĠmacÃ©doine":7303,"ouer":7304,"ĠdÃ©jeuner":7305,"Ġgenti":7306,"Ġplur":7307,"ĠappliquÃ©":7308,"Ġconcret":7309,"Ġcompas":7310,"Ġmess":7311,"istons":7312,"astri":7313,"ribuer":7314,"Ġadopte":7315,"ĠrÃ©duite":7316,"endues":7317,"Ġnorma":7318,"ĠgÃ©ographique":7319,"ĠÃ©voluer":7320,"Ġlibye":7321,"Ġinterinstitutionnel":7322,"fient":7323,"Ġaper":7324,"isons":7325,"Ġmaastri":7326,"Ġmigra":7327,"Ġnulle":7328,"ĠavancÃ©s":7329,"ĠintÃ©gritÃ©":7330,"Ġjudiciaires":7331,"ĠcitoyennetÃ©":7332,"ĠfossÃ©":7333,"cou":7334,"opie":7335,"tale":7336,"ĠfaÃ§ons":7337,"Ġproje":7338,"ĠprÃ©cieux":7339,"Ġcommet":7340,"att":7341,"ĠposÃ©e":7342,"Ġpriva":7343,"ĠutilitÃ©":7344,"Ġvisa":7345,"Ġbibli":7346,"ĠÃ©largir":7347,"ĠfiscalitÃ©":7348,"Ġconservateurs":7349,"Ġconfirme":7350,"Ġhorri":7351,"Ġquasiment":7352,"Ġlicenci":7353,"ĠprÃ©texte":7354,"ĠrÃ©affir":7355,"Ġmaastricht":7356,"gente":7357,"Ġ[":7358,"Ġdr":7359,"Ġlentement":7360,"Ġpassent":7361,"Ġagents":7362,"isez":7363,"Ġabsent":7364,"ĠdÃ©mographique":7365,"ĠactualitÃ©":7366,"Ġdoub":7367,"ĠarrivÃ©s":7368,"Ġpassant":7369,"Ġglobalement":7370,"Ġsusceptible":7371,"Ġterrible":7372,"ĠaÃ©roports":7373,"Ġyougoslavie":7374,"Ġexcessive":7375,"ĠdÃ©favor":7376,"po":7377,"Ġmm":7378,"Ġts":7379,"Ġescla":7380,"Ġrecti":7381,"Ġappe":7382,"onnÃ©s":7383,"Ã´tre":7384,"Ġpuissant":7385,"Ġinterf":7386,"Ġaboli":7387,"Ġclas":7388,"Ġutilisons":7389,"Ġken":7390,"ĠsÃ»rement":7391,"Ġ1994":7392,"Ġclients":7393,"Ġdestination":7394,"Ġconcentration":7395,"ĠtolÃ©rance":7396,"Ġarchitecture":7397,"ĠatmosphÃ¨re":7398,"Ġ]":7399,"Ġste":7400,"Ġpair":7401,"Ġsurp":7402,"Ġdivision":7403,"Ġsatel":7404,"Ġsubir":7405,"Ġcontradiction":7406,"Ġoffrent":7407,"ĠtotalitÃ©":7408,"Ġfranchement":7409,"Ġambigu":7410,"Ġprofondeur":7411,"Ġcompensation":7412,"ĠimmigrÃ©s":7413,"ĠadhÃ©rer":7414,"Ġcompassion":7415,"Ġsatell":7416,"dant":7417,"Ġrense":7418,"ĠrÃ©da":7419,"Ġjeter":7420,"Ġimpasse":7421,"Ġtire":7422,"Ġempris":7423,"ĠgravitÃ©":7424,"ĠboÃ®":7425,"ĠbÃ©bÃ©":7426,"ignements":7427,"peau":7428,"Ġtiennent":7429,"Ġko":7430,"angers":7431,"Ġridi":7432,"ĠfÃ©licitations":7433,"ssement":7434,"ĠapprÃ©cier":7435,"ĠÃ©quipements":7436,"Ġfaiblesse":7437,"ĠmÃ©decine":7438,"Ġpoursuit":7439,"don":7440,"Ġpun":7441,"Ġacteur":7442,"Ġfondement":7443,"liste":7444,"ĠmÃ©l":7445,"ĠdurabilitÃ©":7446,"Ġartifici":7447,"Ġsignificatif":7448,"Ġlabora":7449,"Ġtrompe":7450,"ĠkilomÃ¨tres":7451,"mique":7452,"yÃ©":7453,"Ġlende":7454,"ension":7455,"Ġchauff":7456,"Ġvola":7457,"Ġcompliqu":7458,"Ġinstamment":7459,"Ġatlantique":7460,"Ġforts":7461,"Ġfrus":7462,"lot":7463,"Ġke":7464,"Ġirres":7465,"Ġdangereuse":7466,"Ġorateur":7467,"ĠexaminÃ©":7468,"Ġuniversel":7469,"Ġclarifier":7470,"istiques":7471,"ĠtouchÃ©s":7472,"ĠimprÃ©":7473,"Ġrecul":7474,"Ġrenoncer":7475,"ĠÃ©largie":7476,"ĠprÃ©fÃ©rÃ©":7477,"ĠÃ©coutÃ©":7478,"Ġharmoniser":7479,"ĠindÃ©pendamment":7480,"Ġdiversi":7481,"Ġcombusti":7482,"Ġimparti":7483,"vages":7484,"Ġpertur":7485,"Ġbei":7486,"tionnellement":7487,"Ġdirigeant":7488,"Ġretrouve":7489,"Ġindispensables":7490,"Ġpanne":7491,"Ġtroubles":7492,"ĠdÃ©tour":7493,"Ġblair":7494,"Ġimmobilier":7495,"Ġdangers":7496,"ome":7497,"ppe":7498,"Ġnett":7499,"Ġmeurent":7500,"Ġcadres":7501,"lisme":7502,"Ġcartes":7503,"Ġinstitut":7504,"ĠprocÃ©dÃ©":7505,"Ġoctroy":7506,"Ġsurprenant":7507,"ĠincapacitÃ©":7508,"Ġmolda":7509,"Ġstabilisation":7510,"Ġasiatiques":7511,"Ġprimordial":7512,"ĠÃ©di":7513,"Ġinti":7514,"itÃ©es":7515,"Ġox":7516,"mestre":7517,"Ġinterv":7518,"orteur":7519,"Ġmaintes":7520,"ologues":7521,"Ġproposons":7522,"Ġsupporter":7523,"Ġrenforce":7524,"Ġcapitalisme":7525,"ĠprÃªter":7526,"Ġcondamner":7527,"ĠÃ©ventuelle":7528,"ĠdiplÃ´":7529,"ĠimmÃ©diate":7530,"Ġdimensions":7531,"Ġautomne":7532,"Ġhypoc":7533,"ĠfÃ©dÃ©rale":7534,"Ġaviation":7535,"Ġindicateurs":7536,"Ġmagnifique":7537,"Ġbiblioth":7538,"ah":7539,"onique":7540,"Ġrej":7541,"Ġimplications":7542,"Ġasp":7543,"Ġexplications":7544,"Ġautrefois":7545,"amÃ©ric":7546,"ĠfÃ©min":7547,"Ġpromet":7548,"Ġajoute":7549,"ĠsiÃ¨cles":7550,"Ġpension":7551,"ĠdÃ©truire":7552,"Ġsatisfaisante":7553,"ĠhÃ©rit":7554,"Ġbaisser":7555,"Ġraconter":7556,"Ġtunisie":7557,"Ġinondations":7558,"long":7559,"Ġfit":7560,"tag":7561,"Ġore":7562,"Ġinterromp":7563,"Ġdiffusion":7564,"Ġcroyons":7565,"Ġvues":7566,"ĠÃ©to":7567,"ĠrevÃª":7568,"Ġ75":7569,"Ġcollaborer":7570,"Ġretourner":7571,"Ġattentats":7572,"Ġapprofondie":7573,"ĠprÃ©occupe":7574,"Ġadultes":7575,"tus":7576,"Ġner":7577,"Ġunani":7578,"ueur":7579,"ĠdÃ©passe":7580,"Ġcourte":7581,"ĠÃ©levage":7582,"ĠconstituÃ©":7583,"ĠinformÃ©":7584,"Ġtranspos":7585,"Ġcombler":7586,"ĠÃ©tabl":7587,"ĠÃ©pre":7588,"Ġsimul":7589,"Ġconsolider":7590,"ĠdÃ©passer":7591,"Ġcomparaison":7592,"Ġillustre":7593,"ĠgÃ©nÃ©tiquement":7594,"Ġlancement":7595,"taine":7596,"Ġintr":7597,"chie":7598,"ĠconÃ§u":7599,"Ġdoha":7600,"Ġrivi":7601,"ĠimposÃ©es":7602,"Ġrempli":7603,"Ġhumanitaires":7604,"Ġordinaires":7605,"ĠassistÃ©":7606,"ĠdÃ©cisif":7607,"Ġplanification":7608,"Ġlituanie":7609,"ach":7610,"nis":7611,"za":7612,"Ġdor":7613,"itar":7614,"Ġintitu":7615,"Ġbor":7616,"ĠrÃ©actions":7617,"Ġappels":7618,"Ã©rap":7619,"ĠconsidÃ©rÃ©s":7620,"Ġsph":7621,"ĠrÃ©former":7622,"Ġbureaux":7623,"ĠassurÃ©ment":7624,"ĠÃ©ventuellement":7625,"Ġfermeture":7626,"Ġstimul":7627,"Ġefforcer":7628,"ĠsÃ»retÃ©":7629,"ĠscÃ©nario":7630,"Ġirrespons":7631,"ms":7632,"Ġcs":7633,"meur":7634,"Ġressent":7635,"Ã©rations":7636,"Ġadn":7637,"ĠnommÃ©":7638,"Ġplate":7639,"ĠmontÃ©e":7640,"Ġgrandement":7641,"Ġcommentaire":7642,"Ġdouleur":7643,"Ġrapides":7644,"Ġjamb":7645,"Ġexigent":7646,"Ġcouleur":7647,"Ġoral":7648,"ĠspÃ©cifiquement":7649,"Ġestimations":7650,"Ġcouvre":7651,"oo":7652,"rants":7653,"erte":7654,"ĠÃ©va":7655,"Ġparviend":7656,"Ġchasse":7657,"ortent":7658,"Ġvoulaient":7659,"Ġsubvention":7660,"Ġfonctionnent":7661,"Ġparado":7662,"ĠÃ©gards":7663,"Ġsignifier":7664,"Ġexcuse":7665,"Ġtourne":7666,"haus":7667,"Ġ150":7668,"ĠcondamnÃ©":7669,"Ġfructu":7670,"dÃ©mie":7671,"Ġinfraction":7672,"Ġinfluencer":7673,"Ġlundi":7674,"Ġenceinte":7675,"ĠhÃ©ritage":7676,"kin":7677,"oÃ»t":7678,"rits":7679,"Ġesb":7680,"Ġsexe":7681,"Ġentour":7682,"Ġdiss":7683,"Ġmesurer":7684,"Ġtiendra":7685,"ĠconsidÃ©rant":7686,"Ġkh":7687,"Ġrespectu":7688,"Ġcontrat":7689,"Ġpublication":7690,"Ġayez":7691,"ĠimmÃ©diat":7692,"ĠministÃ¨re":7693,"Ġemployeurs":7694,"ĠnÃ©gative":7695,"Ġbelge":7696,"Ġfrontali":7697,"Ġsurvivre":7698,"Ġtali":7699,"ĠÃ©lÃ¨":7700,"Ġbac":7701,"tÃ©ritÃ©":7702,"Ġchant":7703,"Ġentretenir":7704,"Ġaborde":7705,"Ġformi":7706,"Ġoptique":7707,"ĠcarriÃ¨re":7708,"ĠexprimÃ©es":7709,"Ġparticipants":7710,"Ġculturels":7711,"ĠpÃ©riph":7712,"Ã¯n":7713,"ĠmodifiÃ©":7714,"Ġbarce":7715,"ĠsÃ©rieuses":7716,"ignent":7717,"ĠdÃ©taill":7718,"Ġbulle":7719,"Ġgeorge":7720,"Ġtremb":7721,"Ġsarko":7722,"Ġmassac":7723,"yant":7724,"ĠÃ©lÃ¨ve":7725,"Ġcongo":7726,"ĠprÃ©cip":7727,"Ġdevions":7728,"ĠÃ©cologiques":7729,"Ġinsur":7730,"Ġorganisme":7731,"ĠdÃ©sa":7732,"Ġrelancer":7733,"hip":7734,"Ġcomportements":7735,"ĠcrÃ©dible":7736,"ĠrÃ©sulte":7737,"ĠdÃ©sÃ©quilibres":7738,"Ġbarcelone":7739,"Ġsarkozy":7740,".-":7741,"nam":7742,"Ã¤":7743,"ĠaoÃ»t":7744,"Ġende":7745,"Ġbra":7746,"Ġmaisons":7747,"lÃ¨vement":7748,"ĠmarquÃ©":7749,"Ġpersonnelles":7750,"Ġcollecte":7751,"ĠnÃ©gatives":7752,"ĠmatÃ©riaux":7753,"ĠÃ©lectroniques":7754,"Ġfed":7755,"Ġdiscipline":7756,"Ġfootball":7757,"Ġzimbabwe":7758,"Ġlendemain":7759,"Ġtalib":7760,"dom":7761,"Ġdesque":7762,"lateurs":7763,"Ġalloc":7764,"Ġ194":7765,"Ġspati":7766,"ĠprÃ©visions":7767,"ĠspÃ©ciale":7768,"Ġtechnologiques":7769,"Ġcorrecte":7770,"ĠÃ©vidente":7771,"ĠÃ©mergence":7772,"ĠxÃ©n":7773,"ĠdÃ©taillÃ©e":7774,"Ġbancaires":7775,"Ġrassembler":7776,"ĠdisparaÃ®tre":7777,"Ġapplicables":7778,"ĠprivilÃ©gi":7779,"ĠrÃ¨gne":7780,"ling":7781,"ski":7782,"xi":7783,"Ġpn":7784,"Ġpse":7785,"tise":7786,"Ġpartant":7787,"Ġgali":7788,"Ġconvers":7789,"ositÃ©":7790,"Ġchris":7791,"Ġaviez":7792,"Ġrare":7793,"Ġaiment":7794,"Ġarrange":7795,"Ġchauss":7796,"Ġbrut":7797,"Ġ400":7798,"Ġexclure":7799,"Ġprenant":7800,"ĠÃ©tudiant":7801,"Ġassociations":7802,"Ġfiscal":7803,"ĠÃ©coute":7804,"ĠdÃ©sire":7805,"Ġinformatique":7806,"ĠÃ©prouv":7807,"Ġformida":7808,"Ġflu":7809,"Ġbande":7810,"Ġdue":7811,"Ġprovis":7812,"dev":7813,"Ġsurv":7814,"Ġaccessi":7815,"Ġcath":7816,"Ġempire":7817,"lub":7818,"Ã®ner":7819,"itif":7820,"Ġsavais":7821,"laritÃ©s":7822,"Ġfusion":7823,"ĠquantitÃ©s":7824,"Ġcorrespon":7825,"Ġmobiliser":7826,"Ġaffaibli":7827,"Ġvendredi":7828,"Ġveille":7829,"Ġtransatlantique":7830,"currence":7831,"inaires":7832,"tail":7833,"iront":7834,"Ġmad":7835,"nels":7836,"ordanie":7837,"Ġnoter":7838,"vions":7839,"Ġores":7840,"ĠforÃªt":7841,"Ġpouvant":7842,"Ġinclus":7843,"ĠspÃ©cialement":7844,"Ġparticipent":7845,"Ġtraitements":7846,"Ġanciennes":7847,"ĠmortalitÃ©":7848,"ĠmolÃ©cu":7849,"ĠingÃ©nie":7850,"Ġenregistrement":7851,"Ġprioritaires":7852,"Ġphilosophie":7853,"Ġjoindre":7854,".@":7855,"dans":7856,"onge":7857,"Ġcho":7858,"Ġagi":7859,"Ġmargin":7860,"ĠdÃ©pression":7861,"ĠsÃ©jour":7862,"ĠdÃ©mocratisation":7863,"Ġincar":7864,"Ġconstatons":7865,"Ġdistor":7866,"Ġobtenus":7867,"Ġrejette":7868,"ĠdÃ©montrer":7869,"ĠÃ©mergents":7870,"Ġsatisfaits":7871,"Ġintelligence":7872,"ĠprÃ©judi":7873,"rables":7874,"Ġenle":7875,"ĠÃ©m":7876,"Ġjean":7877,"cessions":7878,"Ġcali":7879,"Ġservent":7880,"daires":7881,"ĠrÃ©pÃ©tÃ©":7882,"Ġtitres":7883,"Ġessais":7884,"Ġgars":7885,"Ġconnue":7886,"Ġoctro":7887,"Ġdevoirs":7888,"ĠaÃ©rienne":7889,"Ġtraduction":7890,"appr":7891,"Ġennemi":7892,"Ġprotectionnisme":7893,"ĠtchÃ©tchÃ©nie":7894,"ĠexcÃ©dent":7895,"Ġincorp":7896,"Ġsimultan":7897,"Ġclub":7898,"cieuse":7899,"Ġregr":7900,"autÃ©":7901,"ĠimpÃ´t":7902,"Ġnomination":7903,"asser":7904,"ĠtirÃ©":7905,"gÃ©rer":7906,"Ġmontants":7907,"Ġvalable":7908,"Ġdouze":7909,"Ġfixe":7910,"Ġprovin":7911,"ĠadÃ©quat":7912,"Ġcrainte":7913,"Ġapprofon":7914,"ĠpossÃ¨dent":7915,"Ġquotidienne":7916,"ĠcomplÃ©mentaires":7917,"ĠbilatÃ©raux":7918,"Ġdeviendra":7919,"ĠrÃ©solus":7920,"Ġfus":7921,"dique":7922,"ĠimpÃ©ri":7923,"Ġdigne":7924,"trons":7925,"Ġeffra":7926,"ĠinsistÃ©":7927,"Ġsonda":7928,"ardin":7929,"Ġcroient":7930,"Ġpointe":7931,"ĠdÃ©mission":7932,"Ġentrepris":7933,"Ġprofits":7934,"Ġpharma":7935,"Ġuniforme":7936,"session":7937,"ĠappelÃ©e":7938,"olie":7939,"Ġretards":7940,"Ġexaminons":7941,"Ġcouverture":7942,"Ġflotte":7943,"Ġvigil":7944,"Ġterritoriale":7945,"Ġimpatience":7946,"bo":7947,"Ã©lor":7948,"oure":7949,"ĠÃ©mettre":7950,"opor":7951,"ĠcompliquÃ©":7952,"ĠlÃ©gÃ¨rement":7953,"Ġoccurrence":7954,"ĠbiÃ©lor":7955,"ĠmÃ©dia":7956,"ĠestimÃ©":7957,"ĠrÃ©glementaire":7958,"ĠprÃ©fÃ©rable":7959,"ĠidÃ©al":7960,"ĠratifiÃ©":7961,"ĠrÃ©vÃ©lÃ©":7962,"Ġsauvetage":7963,"Ġethnique":7964,"ĠmÃ©nages":7965,"ĠinÃ©vitable":7966,"ĠavÃ©rer":7967,"Ġras":7968,"Ġmob":7969,"Ġcamps":7970,"Ġdomes":7971,"Ġfaisaient":7972,"Ġdonnera":7973,"ĠcinÃ©":7974,"Ġtenons":7975,"ĠintÃ©ressantes":7976,"ĠassociÃ©s":7977,"Ġchinoises":7978,"Ġsouffre":7979,"gile":7980,"ĠsignalÃ©":7981,"ĠnÃ©gatifs":7982,"ĠapparaÃ®tre":7983,"Ġ1980":7984,"Ġprioritaire":7985,"ĠrÃ©conciliation":7986,"ctique":7987,"isations":7988,"Ġgel":7989,"roÃ¯":7990,"Ġinterc":7991,"Ġdonnant":7992,"Ġbateaux":7993,"Ġsouviens":7994,"ĠprÃ©vis":7995,"Ġturc":7996,"Ġassocier":7997,"Ġportes":7998,"Ġaffecte":7999,"Ġpartagent":8000,"Ġsynth":8001,"Ġintol":8002,"Ġleadership":8003,"Ġsagesse":8004,"esse":8005,"ĠpÃ¢":8006,"sifs":8007,"Ġprocure":8008,"Ġpluri":8009,"Ġray":8010,"Ġeffond":8011,"Ġcercle":8012,"ĠrÃ©sumÃ©":8013,"Ġcroyez":8014,"Ġniger":8015,"Ġvoudrait":8016,"Ġcible":8017,"Ġverte":8018,"Ġsolides":8019,"ĠÃ©valuations":8020,"ĠidÃ©ologie":8021,"ĠprÃ©cÃ©dentes":8022,"ĠisraÃ©lien":8023,"ĠtransfrontaliÃ¨re":8024,"Ġrestaurer":8025,"Ġgoog":8026,"Ġreligieuse":8027,"Ġtorture":8028,"ĠÃ©criv":8029,"Ġmessages":8030,"fas":8031,"Ġpain":8032,"ĠrelÃ¨vent":8033,"pect":8034,"Ġsolaire":8035,"Ġarres":8036,"viens":8037,"Ġdirects":8038,"Ã§a":8039,"ĠamenÃ©":8040,"Ġconstitutionnelle":8041,"Ġindiquent":8042,"ĠcommenÃ§ons":8043,"ĠrelÃ¢":8044,"Ġnorme":8045,"Ġconservation":8046,"ĠintÃ©grante":8047,"ĠfrappÃ©":8048,"Ġfabrication":8049,"he":8050,"rapp":8051,"Ġange":8052,"ĠcessÃ©":8053,"atures":8054,"Ġtravaillant":8055,"Ġdisparition":8056,"Ġconcentre":8057,"Ġcorrect":8058,"ĠquatriÃ¨mement":8059,"Ġintensifier":8060,"Ġsaurait":8061,"Ġsecondes":8062,"Ġplafond":8063,"Ġgoogle":8064,"ots":8065,"ints":8066,"Ġroi":8067,"Ã¨ques":8068,"tain":8069,"Ġdevise":8070,"Ġnomin":8071,"Ġempre":8072,"ĠÃ©glise":8073,"Ġbara":8074,"Ġprofite":8075,"Ġremise":8076,"Ġatteints":8077,"Ġouvertement":8078,"Ġterroriste":8079,"ĠgenÃ¨ve":8080,"Ġanimale":8081,"Ġexploitations":8082,"Ġinnovations":8083,"Ġprogressive":8084,"ĠfacilitÃ©":8085,"Ġaffecter":8086,"Ġrentrer":8087,"ĠsuscitÃ©":8088,"Ġralentissement":8089,"Ġparviennent":8090,"Ġmerveilleux":8091,"ĠconcrÃ©tiser":8092,"Ġmultinationales":8093,"jac":8094,"sen":8095,"to":8096,"Ġsaine":8097,"ino":8098,"ĠÃ©tiez":8099,"mping":8100,"ensitÃ©":8101,"chel":8102,"Ġexposition":8103,"Ġsocio":8104,"ĠtuÃ©":8105,"Ġsigner":8106,"Ġdouce":8107,"Ġcherchent":8108,"Ġstructurelle":8109,"Ġsuivants":8110,"Ġconcepts":8111,"Ġembal":8112,"Ġhongrois":8113,"ĠÃ©chapper":8114,"Ġchaud":8115,"Ġpersua":8116,"ĠcomplÃ©ter":8117,"Ġentrepreneurs":8118,"Ġconnaissez":8119,"ĠsÃ©paration":8120,"ophobie":8121,"Ġauda":8122,"tateurs":8123,"ĠavÃ©rÃ©":8124,"ĠtouchÃ©":8125,"Ġcomposition":8126,"Ġmarquer":8127,"Ġpouvions":8128,"ĠsÃ©cur":8129,"Ġeffective":8130,"ĠÃ©chelon":8131,"Ġindustriel":8132,"Ġattire":8133,"Ġexistait":8134,"Ġimportation":8135,"Ġdivergences":8136,"ĠdÃ©liv":8137,"Ġtransfrontaliers":8138,"Ġcinquante":8139,"Ġenjeu":8140,"ĠrÃ©daction":8141,"ail":8142,"Ġlance":8143,"Ġlaiti":8144,"ĠprÃ©pare":8145,"Ġchanti":8146,"Ġdevises":8147,"Ġallusion":8148,"Ġplas":8149,"Ġkong":8150,"Ġsavait":8151,"Ġdemandeurs":8152,"Ġsubi":8153,"Ġbizar":8154,"ĠdÃ©finis":8155,"ĠÃ©tablit":8156,"Ġheur":8157,"Ġtransferts":8158,"Ġpotentiellement":8159,"Ġjudicieux":8160,"Ġafricaine":8161,"Ġpuissants":8162,"Ġgrecque":8163,"Ġenjeux":8164,"Ġcorriger":8165,"ĠforcÃ©ment":8166,"Ġcuisine":8167,"rapporteur":8168,"by":8169,"Ġdres":8170,"Ġunie":8171,"ĠlevÃ©e":8172,"ĠÃ©te":8173,"ĠrhÃ©":8174,"Ġesc":8175,"ceu":8176,"Ġprolong":8177,"Ġiv":8178,"Ġhusse":8179,"Ġdiox":8180,"Ġannoncer":8181,"ĠnÃ©glig":8182,"Ġfiables":8183,"Ġsuffisantes":8184,"Ġvoterons":8185,"Ġofficiellement":8186,"Ġlourde":8187,"Ġinjuste":8188,"Ġgolfe":8189,"Ġsouffrance":8190,"ĠrÃ©putation":8191,"Ġrecyclage":8192,"ĠdÃ©barrasser":8193,"Ġchanson":8194,"Ġmoldavie":8195,"ĠrhÃ©t":8196,"Ġhussein":8197,"lut":8198,"obil":8199,"Ġventes":8200,"Ġesca":8201,"Ġcache":8202,"Ġsoumises":8203,"Ġbelles":8204,"ĠgÃ©noci":8205,"Ġmines":8206,"Ġmira":8207,"Ġverre":8208,"Ġoriental":8209,"ĠrÃ©uni":8210,"Ġconsciente":8211,"Ġusine":8212,"ĠcompÃ©titive":8213,"Ġitalienne":8214,"Ġfigurent":8215,"Ġencourageant":8216,"Ġvacc":8217,"Ġobligatoires":8218,"ĠaustÃ©ritÃ©":8219,"Ġclassique":8220,"Ġsuggestions":8221,"Ġarbitra":8222,"Ġenvergure":8223,"Ġargentine":8224,"ĠrÃ©tic":8225,"ĠtrÃ©s":8226,"cesseur":8227,"Ġtragique":8228,"Ġimpri":8229,"Ġadmet":8230,"liser":8231,"Ġconcert":8232,"tisÃ©":8233,"ĠprÃ©sentes":8234,"ĠcrÃ©ant":8235,"Ġvali":8236,"ĠautorisÃ©":8237,"ĠavancÃ©":8238,"Ġfondation":8239,"ĠÃ©tudiÃ©":8240,"Ġombre":8241,"Ġpotentiels":8242,"ĠcomplÃ©mentaire":8243,"Ã©remment":8244,"Ġvieillissement":8245,"Ġsitue":8246,"ĠsÃ©n":8247,"Ġtang":8248,"ĠÃ©puis":8249,"Ġjun":8250,"ĠrÃ©ve":8251,"Ġsache":8252,"vic":8253,"Ġperception":8254,"Ġannuelle":8255,"ĠrÃ©par":8256,"Ġhommage":8257,"angent":8258,"Ġouverts":8259,"ĠcherchÃ©":8260,"Ġoccidental":8261,"Ġexamine":8262,"ĠprononcÃ©":8263,"Ġtrucs":8264,"Ġembargo":8265,"ĠÃ©pidÃ©mie":8266,"ĠextrÃ©mistes":8267,"Ġsauvegarde":8268,"Ġfournisseurs":8269,"Ġstyle":8270,"ĠdÃ©centra":8271,"four":8272,"gl":8273,"erait":8274,"Ġpages":8275,"sign":8276,"sives":8277,"tabil":8278,"Ġdissu":8279,"Ġcofin":8280,"Ġnoms":8281,"veloppe":8282,"ĠparticuliÃ¨res":8283,"Ġprogrammation":8284,"ĠprÃ©vus":8285,"Ġrepous":8286,"ĠremarquÃ©":8287,"Ġgenres":8288,"Ġjouets":8289,"Ġhongro":8290,"ĠÃ©tablies":8291,"ĠcrÃ©ativitÃ©":8292,"ĠÃ©tonnant":8293,"Ġmoscou":8294,"Ġexplicitement":8295,"hol":8296,"Ġprouve":8297,"Ġfoss":8298,"ĠdÃ©Ã§":8299,"Ġdub":8300,"Ġoly":8301,"Ġcatal":8302,"Ġdiman":8303,"Ġash":8304,"vable":8305,"ĠposÃ©es":8306,"ĠÃ©vÃ¨":8307,"Ġrenf":8308,"ĠlibÃ©rer":8309,"Ġmettons":8310,"ĠinfÃ©rieur":8311,"Ġbioc":8312,"Ġurgente":8313,"Ġthe":8314,"Ġpoursuivi":8315,"Ġmariage":8316,"Ġtraditionnelle":8317,"Ġpartenariats":8318,"Ġnourrir":8319,"Ġflexible":8320,"Ġappuie":8321,"Ġambitieuse":8322,"Ġbrevet":8323,"ĠdÃ©gager":8324,"Ã©conomiques":8325,"Ġfabricants":8326,"ĠhypothÃ¨se":8327,"Ġapplicable":8328,"Ġintelligent":8329,"ternitÃ©":8330,"Ġnormalement":8331,"Ġdimanche":8332,"cra":8333,"nalitÃ©":8334,"uf":8335,"vÃ©n":8336,"ĠdÃ©ser":8337,"Ġconclus":8338,"Ġcoton":8339,"ĠpersÃ©cu":8340,"Ġrecru":8341,"Ġplait":8342,"ĠfrÃ¨res":8343,"Ġhauts":8344,"Ġprogress":8345,"Ġboule":8346,"ĠÃ©lectrique":8347,"Ġopposants":8348,"Ġlettres":8349,"ĠlÃ©gitimes":8350,"Ġpousse":8351,"Ġflor":8352,"Ġpermanence":8353,"Ġredou":8354,"ĠsupÃ©rie":8355,"Ġmobilisation":8356,"ĠdÃ©passÃ©":8357,"ĠprÃ©parÃ©":8358,"ĠdÃ©ployÃ©s":8359,"Ġambassade":8360,"ĠdÃ©tes":8361,"ĠgÃª":8362,"Ġserez":8363,"ĠaidÃ©":8364,"Ġsoula":8365,"ĠrestÃ©":8366,"amen":8367,"ĠconcernÃ©":8368,"Ġattendant":8369,"Ġaugmentent":8370,"Ġcanc":8371,"ĠrÃ©pondent":8372,"ĠdÃ©pensÃ©":8373,"Ġsuivie":8374,"ĠinquiÃ©tant":8375,"crip":8376,"Ġnormale":8377,"Ġreposer":8378,"Ġemprunter":8379,"Ġtruc":8380,"Ġgarantissant":8381,"ĠÃ©quivalent":8382,"culation":8383,"hr":8384,"zi":8385,"Ġdin":8386,"enez":8387,"Ġdedans":8388,"times":8389,"Ġinquie":8390,"ĠredÃ©":8391,"ĠdÃ©pense":8392,"ĠÃ©volutions":8393,"Ġpeau":8394,"Ġdemandant":8395,"Ġlimitation":8396,"ĠexprimÃ©s":8397,"Ġimpliquant":8398,"Ġenglo":8399,"ĠdÃ©placer":8400,"Ġartistes":8401,"arer":8402,"kel":8403,"Ġclon":8404,"Ġmy":8405,"illent":8406,"Ġchir":8407,"Ġpartiellement":8408,"ĠnoÃ«l":8409,"ĠdiffÃ©remment":8410,"Ġannonc":8411,"ĠplacÃ©":8412,"Ġvisible":8413,"Ġsoigne":8414,"Ġmigration":8415,"Ġapproches":8416,"Ġoffice":8417,"ĠlÃ©gislatifs":8418,"Ġirakien":8419,"ĠconfrontÃ©":8420,"Ġexceptions":8421,"ĠqualifiÃ©s":8422,"ĠrÃ©public":8423,"ĠsupÃ©rieure":8424,"Ġfilms":8425,"Ġincapable":8426,"Ġautomatiquement":8427,"ĠboÃ®te":8428,"Ġpluriann":8429,"Ġbiocarb":8430,"-@":8431,"culer":8432,"Ġpur":8433,"Ġcite":8434,"Ġcig":8435,"tige":8436,"Ġpal":8437,"ope":8438,"ĠaimÃ©":8439,"Ġattendu":8440,"Ġbrill":8441,"Ġbiologiques":8442,"Ãªtements":8443,"Ġgravement":8444,"ĠmodalitÃ©s":8445,"Ġcommercialisation":8446,"ĠrespectÃ©s":8447,"Ġarabie":8448,"Ġsupervision":8449,"Ġminimales":8450,"Ġdiplomatiques":8451,"Ġfruit":8452,"Ġjoie":8453,"Ġtaxation":8454,"ĠultÃ©rieure":8455,"Ġrejoint":8456,"Ġlogement":8457,"ĠentamÃ©":8458,"ĠmÃ©pris":8459,"Ġcuri":8460,"ores":8461,"ĠÃ©met":8462,"Ġpure":8463,"Ġsombre":8464,"Ġ1992":8465,"Ġvoyager":8466,"ĠpassÃ©s":8467,"Ġrendue":8468,"ĠrÃ©jouir":8469,"Ġconsultations":8470,"Ġosce":8471,"Ġspec":8472,"ĠbeautÃ©":8473,"Ġintervenants":8474,"ĠbiÃ©lorus":8475,"Ġolymp":8476,"ualitÃ©":8477,"Ġbille":8478,"ĠrÃ©ac":8479,"Ġcomptent":8480,"ĠallÃ©s":8481,"Ġdoter":8482,"ĠamÃ©liorÃ©":8483,"Ġbran":8484,"ĠdÃ©finit":8485,"Ġmajor":8486,"ĠassurÃ©":8487,"ĠÃ©ventail":8488,"Ġstockage":8489,"Ġautomobil":8490,"Ġalbanie":8491,"Ġdonateurs":8492,"ĠnÃ©glige":8493,"Ġannexe":8494,"Ġformidable":8495,"bol":8496,"ditÃ©s":8497,"Ã¨vre":8498,"Ġconsister":8499,"onnÃ©es":8500,"ĠarmÃ©es":8501,"ctent":8502,"Ġrendez":8503,"ĠgarÃ§ons":8504,"Ġdoulou":8505,"ĠpassÃ©es":8506,"ĠÃ©lectriques":8507,"ĠinquiÃ©ter":8508,"ĠdÃ©fenseurs":8509,"Ġrichesses":8510,"ĠdÃ©nom":8511,"ĠquittÃ©":8512,"Ġcensure":8513,"Ġchypri":8514,"ĠinÃ©vitablement":8515,"Ġsaluons":8516,"Ġemmen":8517,"Ġfantas":8518,"ĠÃ©lÃ¨ves":8519,"tance":8520,"Ġlente":8521,"Ġlob":8522,"Ġmous":8523,"ĠmÃ¨res":8524,"Ġfoc":8525,"Ġrues":8526,"Ġpourpar":8527,"ĠdÃ©loc":8528,"ĠrÃ©elles":8529,"Ġserions":8530,"Ġcertitude":8531,"ĠdÃ©crire":8532,"Ġbala":8533,"Ġindiff":8534,"ĠprÃ©caution":8535,"ĠexprimÃ©e":8536,"Ġcheveux":8537,"ĠbÃ©nÃ©ficiÃ©":8538,"Ġobliger":8539,"Ġqualifications":8540,"Ġanalyses":8541,"ĠcomprÃ©hensible":8542,"ĠmÃ©dicaux":8543,"Ġperformance":8544,"Ġfinancements":8545,"europÃ©ens":8546,"Ġdiscriminations":8547,"Ġpourparlers":8548,"bra":8549,"Ġaie":8550,"Ġpat":8551,"tari":8552,"Ġproc":8553,"Ġexhaus":8554,"Ġration":8555,"Ġviendra":8556,"alisÃ©es":8557,"Ġjusque":8558,"Ġvoler":8559,"ĠimposÃ©":8560,"Ġcompromet":8561,"ĠprÃ©fÃ©rence":8562,"Ġprochainement":8563,"ĠobligÃ©":8564,"ĠadÃ©quates":8565,"Ġpestici":8566,"ĠdiminuÃ©":8567,"ĠamÃ©liorÃ©e":8568,"Ġchaleur":8569,"Ġstricte":8570,"Ġscep":8571,"Ġlaissent":8572,"illage":8573,"tais":8574,"tablement":8575,"Ġinad":8576,"ĠgÃ¨nes":8577,"Ġola":8578,"Ġanalog":8579,"Ġapparition":8580,"Ġsoumet":8581,"trÃ¶":8582,"Ġmary":8583,"issez":8584,"Ġinconn":8585,"Ġinstitutionnelles":8586,"ĠprÃ©cision":8587,"Ġsecours":8588,"Ġdiriger":8589,"ĠrÃ©unir":8590,"Ġpassons":8591,"ĠthÃ©rap":8592,"ĠcoordonnÃ©e":8593,"ĠapprÃ©ciation":8594,"Ġprofessionnel":8595,"Ġmachines":8596,"ĠÃ©cosyst":8597,"Ġchaussures":8598,"Ġdublin":8599,"Ġbiocarburants":8600,"trÃ¶m":8601,"Ġly":8602,"anci":8603,"ĠÃ©b":8604,"Ġboire":8605,"quemment":8606,"Ġexag":8607,"Ġamor":8608,"ĠamÃ©n":8609,"Ġuem":8610,"Ġpensait":8611,"ĠdÃ©finies":8612,"Ġaidera":8613,"Ġvitale":8614,"ĠoccupÃ©":8615,"ĠÃ©limin":8616,"Ġinutiles":8617,"ĠpÃ©ril":8618,"Ġtransmission":8619,"Ġmonopole":8620,"ĠcompÃ©tentes":8621,"Ġchemins":8622,"holm":8623,"Ġspectre":8624,"ctÃ©s":8625,"anou":8626,"ĠÃ©lan":8627,"Ġaurez":8628,"riers":8629,"ĠfaÃ§":8630,"Ġmotif":8631,"Ġamie":8632,"Ġarbres":8633,"utri":8634,"ĠcrÃ©Ã©e":8635,"locu":8636,"Ġkin":8637,"ĠdÃ©sin":8638,"Ġconcurrenti":8639,"ĠdisposÃ©s":8640,"ĠmentionnÃ©s":8641,"Ġgrosses":8642,"ĠrÃ©vÃ¨le":8643,"Ġcontenues":8644,"Ġfaiblesses":8645,"ĠÃ©voluÃ©":8646,"Ġcontraignant":8647,"ĠdÃ©plore":8648,"Ġstupi":8649,"Ġsaoudite":8650,"ĠhaÃ¯ti":8651,"cisme":8652,"Ã©tiques":8653,"inÃ©e":8654,"ĠvÃªtements":8655,"veurs":8656,"nelles":8657,"alise":8658,"Ġneur":8659,"enser":8660,"Ġimpulsion":8661,"Ġasc":8662,"Ġaspi":8663,"atoire":8664,"Ġatom":8665,"ĠmanÅĵ":8666,"ĠÃ©voque":8667,"Ġgouverne":8668,"ĠcollÃ¨ge":8669,"Ġsuici":8670,"ĠtraitÃ©e":8671,"Ã©tÃ©r":8672,"ĠÃ©pous":8673,"Ġvenus":8674,"Ġiranien":8675,"Ġparlez":8676,"Ġhabitant":8677,"ĠextÃ©rieurs":8678,"Ġcondamnation":8679,"ĠapportÃ©es":8680,"ĠimpliquÃ©es":8681,"Ġmajeures":8682,"berg":8683,"Ġissus":8684,"Ġincroyablement":8685,"Ġaggraver":8686,"Ġherz":8687,"Ġperformances":8688,"Ġinclut":8689,"Ġglace":8690,"ĠlittÃ©ralement":8691,"ĠmathÃ©matiques":8692,"Ġhongroise":8693,"Ġolaf":8694,"Ġpiliers":8695,"ĠprÃ´":8696,"meu":8697,"opoli":8698,"ĠrÃ©vis":8699,"Ġvoulions":8700,"Ġconnus":8701,"ĠautorisÃ©s":8702,"Ġfragile":8703,"ĠinvitÃ©s":8704,"ĠlÃ©gislature":8705,"Ġrendus":8706,"Ġapportera":8707,"ĠsixiÃ¨me":8708,"Ġcarburant":8709,"Ġinscrire":8710,"Ġmutuellement":8711,"ĠtÃ©moigne":8712,"Ġparvient":8713,"Ġdoigt":8714,"ĠtempÃ©rature":8715,"Ġmigrants":8716,"Ġtremblement":8717,"Ġtalibans":8718,"ĠprÃ©judice":8719,"ĠrhÃ©torique":8720,"Ġbillets":8721,"dÃ©es":8722,"gÃ¨ne":8723,"vres":8724,"ĠschÃ©":8725,"rable":8726,"Ġconsenti":8727,"ĠÃ©cran":8728,"Ġcourir":8729,"ĠconfÃ©rences":8730,"Ġkm":8731,"Ġfid":8732,"Ġwi":8733,"Ġgala":8734,"Ġinvitation":8735,"ĠprotÃ©ines":8736,"Ġdispositif":8737,"Ġengendre":8738,"Ġportugais":8739,"ĠÃ©tablie":8740,"ĠdÃ©ploie":8741,"Ġsatisfaisant":8742,"ĠrÃ©clame":8743,"ĠdÃ©cisive":8744,"Ġspectaculaire":8745,"Ġincidence":8746,"ĠÃ©toiles":8747,"ĠÃ©preuve":8748,"Ġprovisoire":8749,"cos":8750,"ld":8751,"otiques":8752,"yde":8753,"Ġcauc":8754,"ĠdÃ©tention":8755,"ĠrÃ©alitÃ©s":8756,"auts":8757,"Ġobti":8758,"ĠcoÃ¯n":8759,"Ġmartin":8760,"Ġvols":8761,"Ġturque":8762,"ĠÃ©pau":8763,"Ġfragment":8764,"Ġexcuses":8765,"Ġgagne":8766,"Ġdonnez":8767,"Ġimagination":8768,"ĠchÃ´meurs":8769,"ĠacquÃ©rir":8770,"ĠconformitÃ©":8771,"Ġstockholm":8772,"Ġ1989":8773,"Ġdemeurent":8774,"Ġenseignants":8775,"Ġhiver":8776,"ĠprÃ©sidentielles":8777,"Ġgrippe":8778,"ĠunilatÃ©rale":8779,"Ġsemblerait":8780,"Ġmineurs":8781,"Ġcalifor":8782,"Ġeg":8783,"urÃ©s":8784,"Ġenra":8785,"rice":8786,"Ġdurement":8787,"Ġfausse":8788,"Ġexh":8789,"terie":8790,"cessible":8791,"Ġdiam":8792,"chet":8793,"Ġarm":8794,"Ġarra":8795,"mions":8796,"ĠrÃ©sister":8797,"Ġtransnation":8798,"Ġchaos":8799,"Ġocde":8800,"Ġtransposition":8801,"Ġ45":8802,"Ġdifficilement":8803,"Ġtentent":8804,"Ġobserve":8805,"Ġtraverser":8806,"ĠrÃ©jouissons":8807,"Ġtraditionnelles":8808,"Ġtoile":8809,"ĠmÃ©dicament":8810,"Ġportugaise":8811,"Ġcomprenons":8812,"Ġdramatique":8813,"ĠparallÃ¨le":8814,"ĠfrÃ©quemment":8815,"ĠmÃ©dicale":8816,"Ġintelligente":8817,"Ġsentent":8818,"Ġflagr":8819,"Ġbleu":8820,"ĠinconvÃ©n":8821,"Ġoptimiste":8822,"ĠprouvÃ©":8823,"Ġaustralie":8824,"Ġabolition":8825,"Ġinadmis":8826,"Ġcaucase":8827,"ĠinconvÃ©nient":8828,"Ġpc":8829,"Ġbol":8830,"Ġbill":8831,"ĠprÃ©mat":8832,"Ġchili":8833,"Ġavent":8834,"ĠdÃ©coura":8835,"Ġrendement":8836,"ĠgÃ©nÃ©rer":8837,"anisme":8838,"itiÃ©":8839,"Ġmalte":8840,"Ġenfre":8841,"ĠrÃ©duits":8842,"Ġindien":8843,"Ġ32":8844,"Ġ37":8845,"ĠspÃ©cu":8846,"Ġnaturels":8847,"ĠroutiÃ¨re":8848,"Ġcontemp":8849,"ĠreÃ§oit":8850,"Ġcalme":8851,"Ġbalance":8852,"Ġmaritimes":8853,"Ġschul":8854,"coni":8855,"Ġprofessionnelles":8856,"ĠprÃ©servation":8857,"Ġraisonnables":8858,"Ġtextile":8859,"Ġvirtu":8860,"Ġaccompagner":8861,"Ġsuggestion":8862,"ĠcompÃ©tente":8863,"ĠindonÃ©sie":8864,"wa":8865,"Ġbang":8866,"Ġconsistant":8867,"ĠsiÃ¨ges":8868,"Ġaccru":8869,"Ġarbre":8870,"Ġallu":8871,"ĠnÃ©fas":8872,"ĠinsÃ©":8873,"Ġcommunistes":8874,"agement":8875,"ĠtraitÃ©es":8876,"Ġsignification":8877,"Ġstruct":8878,"ĠprotÃ©gÃ©s":8879,"ĠaÃ©riens":8880,"ĠexposÃ©s":8881,"Ġsuscite":8882,"Ġradicale":8883,"Ġfourniture":8884,"ĠrÃ©munÃ©ration":8885,"Ġjuifs":8886,"Ġcolombie":8887,"ctÃ©es":8888,"ĠdÃ©rÃ©g":8889,"Ġgl":8890,"Ġreb":8891,"ulent":8892,"Ġcompli":8893,"Ġcommunisme":8894,"nera":8895,"Ġmentionne":8896,"ĠdiscrÃ©":8897,"Ġboute":8898,"Ġaffirmation":8899,"ĠÃ©quipement":8900,"ĠdÃ©terminÃ©e":8901,"ĠprÃ©tendre":8902,"Ġincapables":8903,"ĠlimitÃ©es":8904,"Ġsyndic":8905,"ĠfenÃªtre":8906,"cations":8907,"yo":8908,"onction":8909,"tiles":8910,"tat":8911,"Ġconcessions":8912,"Ġtouchent":8913,"ĠimpliquÃ©":8914,"Ġnotation":8915,"oise":8916,"gnation":8917,"ctorie":8918,"ĠrÃ©parer":8919,"ĠcrÃ©ent":8920,"gurer":8921,"Ġessai":8922,"ĠlÃ©gal":8923,"Ġconstitutionnelles":8924,"Ã¢tre":8925,"Ġdavid":8926,"Ġgraph":8927,"ĠÅĵuv":8928,"Ġinvo":8929,"ĠÃ©quip":8930,"Ġassurances":8931,"ĠcontinuitÃ©":8932,"Ġtranqu":8933,"ĠdÃ©terminant":8934,"Ġconsulter":8935,"Ġdescend":8936,"ĠÃ©chÃ©ant":8937,"ĠimmunitÃ©":8938,"ĠgÃ©nocide":8939,"Ġpesticides":8940,"ty":8941,"Ġlistes":8942,"ĠcomitÃ©s":8943,"Ġcommande":8944,"Ġexact":8945,"Ã©rents":8946,"Ġgrandi":8947,"ĠdÃ©pass":8948,"ĠconsidÃ©rÃ©es":8949,"Ġindustrielles":8950,"Ġjuridiquement":8951,"Ġfumer":8952,"prÃ©hen":8953,"Ġtraditionnels":8954,"ĠillÃ©gal":8955,"Ġappareils":8956,"otech":8957,"Ġweek":8958,"ĠsÃ©vÃ¨res":8959,"ĠdÃ©licat":8960,"Ġsouffrances":8961,"ĠdÃ©cideurs":8962,"ĠriviÃ¨re":8963,"dire":8964,"ker":8965,"Ġgi":8966,"Ġrass":8967,"Ġconcours":8968,"Ġcomporter":8969,"Ġdissim":8970,"Ã§ait":8971,"Ġconstituera":8972,"miser":8973,"Ġincitations":8974,"Ġfiable":8975,"ĠbrÃ¨ve":8976,"ĠlancÃ©e":8977,"ĠrÃ©glementer":8978,"Ġcontinuerons":8979,"ĠfondÃ©es":8980,"Ġmusi":8981,"Ġvenait":8982,"Ġcirconscription":8983,"Ġentendons":8984,"Ġblanche":8985,"ĠapportÃ©e":8986,"Ġvaloir":8987,"ĠcoÃ»teux":8988,"Ġcomparer":8989,"Ġcombinaison":8990,"Ġpharmaceu":8991,"dons":8992,"kes":8993,"ĠÅ":8994,"oul":8995,"Ġjur":8996,"Ġjardin":8997,"Ġcommises":8998,"itement":8999,"Ġallais":9000,"osevic":9001,"Ġmilosevic":9002,"Ġrecord":9003,"ĠdiffÃ©renci":9004,"Ġviet":9005,"Ġenfance":9006,"Ġmidi":9007,"Ġdemandez":9008,"Ġpira":9009,"Ġappellent":9010,"Ġmalades":9011,"Ġcoupables":9012,"ĠappropriÃ©s":9013,"Ġratifier":9014,"Ġapparaissent":9015,"ĠdÃ©couverte":9016,"ĠcohÃ©rent":9017,"ĠpayÃ©":9018,"Ġsoudaine":9019,"Ġmodeste":9020,"Ġapportent":9021,"Ġclasses":9022,"ĠsphÃ¨re":9023,"Ġschulz":9024,"agent":9025,"dd":9026,"pour":9027,"Ġcoupe":9028,"Ġquart":9029,"Ġgue":9030,"Ġnette":9031,"Ġmoteurs":9032,"mateurs":9033,"lera":9034,"Ġmettra":9035,"Ġregistre":9036,"ovis":9037,"Ġ1993":9038,"ĠdisposÃ©":9039,"ĠdisposÃ©e":9040,"Ġparfaite":9041,"ĠcontinuÃ©":9042,"Ġ250":9043,"Ġaccueilli":9044,"Ġfrappe":9045,"ĠrequÃªte":9046,"ĠrÃ©agi":9047,"Ġcellule":9048,"Ġaudiovis":9049,"ĠdÃ©boucher":9050,"olat":9051,"onyme":9052,"Ġsoigneusement":9053,"kov":9054,"mait":9055,"Ġsun":9056,"tiver":9057,"quants":9058,"tabilitÃ©":9059,"lateur":9060,"cho":9061,"Ġneige":9062,"endrai":9063,"Ġsachant":9064,"Ġadoles":9065,"Ġadore":9066,"Ġath":9067,"osex":9068,"Ġtransmet":9069,"Ġrecouv":9070,"Ġkre":9071,"Ġincom":9072,"Ġsoutiendra":9073,"Ġinfir":9074,"Ġwh":9075,"Ġremont":9076,"ĠbÃ©nÃ©fique":9077,"Ġadministrations":9078,"Ġprovient":9079,"ĠtombÃ©":9080,"Ġimpliquent":9081,"Ġexposer":9082,"Ġalban":9083,"Ġfardeau":9084,"Ġhorizont":9085,"ĠrÃ©exa":9086,"Ġmorceau":9087,"Ġmunicip":9088,"Ġnigeria":9089,"Ġfossiles":9090,"ĠvÅĵ":9091,"ĠvÃ©tÃ©r":9092,"ĠrÃ©Ã©":9093,"ares":9094,"Ġavorte":9095,"ternelle":9096,"Ġparticipe":9097,"licitÃ©":9098,"ĠlÃ©gu":9099,"Ġnuis":9100,"ĠÃ©quitables":9101,"ĠÃ©checs":9102,"Ġpubliquement":9103,"Ġxxie":9104,"Ġuniverselle":9105,"Ġpoursuites":9106,"Ġmagaz":9107,"ĠpropriÃ©taires":9108,"ĠmÃ©lange":9109,"Ġintimi":9110,"criptions":9111,"otechn":9112,"yl":9113,"quait":9114,"ĠlaÃ¯":9115,"Ġparent":9116,"taux":9117,"Ġfaille":9118,"ĠprolifÃ©ration":9119,"Ġram":9120,"Ġimpro":9121,"ato":9122,"Ġjustes":9123,"Ġtienne":9124,"ĠlÃ©gif":9125,"Ġnationalisme":9126,"Ġgeste":9127,"Ġtransparent":9128,"Ġvenant":9129,"Ġconfrontation":9130,"Ġintense":9131,"ĠpoussÃ©":9132,"Ġdistinguer":9133,"ĠdÃ©roule":9134,"Ġinsuffisant":9135,"ĠgoÃ»t":9136,"ĠinÃ©galitÃ©":9137,"Ġclos":9138,"Ġlinguistique":9139,"Ġincendies":9140,"ĠirrÃ©gularitÃ©s":9141,"ĠdÃ©sarmement":9142,"Ġoctroyer":9143,"oud":9144,"lem":9145,"ĠflÃ©":9146,"Ġmed":9147,"Ġcacher":9148,"Ġmarin":9149,"nier":9150,"ctoires":9151,"ĠrÃ©para":9152,"arder":9153,"ĠdÃ©mant":9154,"Ġkur":9155,"Ġ195":9156,"Ġpluie":9157,"ĠnÃ©gociÃ©":9158,"ĠÃ©cho":9159,"ĠreprÃ©sentÃ©":9160,"bet":9161,"ĠÃ©touff":9162,"ĠÃ©quipes":9163,"ĠassociÃ©":9164,"Ġapparu":9165,"ĠgÃ©opoli":9166,"ĠdÃ©terminÃ©":9167,"Ġrigueur":9168,"ĠreflÃ¨tent":9169,"ĠenregistrÃ©":9170,"Ġclinton":9171,"Ġavocats":9172,"Ġdiagnos":9173,"pos":9174,"Ġlt":9175,"ontiers":9176,"Ġpap":9177,"Ġinje":9178,"Ġdumping":9179,"Ġproxim":9180,"ĠprÃ©dÃ©":9181,"dition":9182,"Ġtromp":9183,"Ġimpun":9184,"Ġarmement":9185,"Ġinstances":9186,"ĠviabilitÃ©":9187,"Ġdiffus":9188,"guÃ©s":9189,"Ġparticules":9190,"Ġgardi":9191,"ĠdÃ©fait":9192,"alie":9193,"Ġfiers":9194,"Ġvolontiers":9195,"Ġroutier":9196,"Ġreport":9197,"Ġouvertes":9198,"ĠmodifiÃ©s":9199,"Ġentraver":9200,"Ġobserva":9201,"Ġretomb":9202,"Ġinno":9203,"Ġexacer":9204,"ĠmusÃ©e":9205,"ĠrÃ©flexions":9206,"ĠtolÃ©rer":9207,"Ġinfractions":9208,"Ġexternes":9209,"ĠdÃ©rivÃ©s":9210,"ĠÃ©clairc":9211,"Ġcambod":9212,"Ġidentique":9213,"Ġdarfour":9214,"Ġramener":9215,"ial":9216,"Ġtis":9217,"ĠstÃ©":9218,"ource":9219,"chait":9220,"Ġretenir":9221,"Ġhal":9222,"Ãªme":9223,"ĠentrÃ©":9224,"Ġalde":9225,"ĠmÃ©cont":9226,"Ã®tra":9227,"Ã©govine":9228,"Ġkara":9229,"Ġincitation":9230,"ĠdÃ©fauts":9231,"ĠcorÃ©":9232,"Ġcorbe":9233,"Ġenfer":9234,"ĠdÃ©stabil":9235,"ĠacceptÃ©e":9236,"Ġressource":9237,"ĠchargÃ©e":9238,"Ġattache":9239,"ĠobligÃ©s":9240,"Ġprogression":9241,"Ġfuite":9242,"Ġcondamn":9243,"ĠÃ©lite":9244,"ĠcausÃ©":9245,"ĠterminÃ©e":9246,"Ġstrictement":9247,"produ":9248,"ĠcÃ©rÃ©ales":9249,"organis":9250,"Ġtardi":9251,"Ġrubrique":9252,"ĠambiguÃ¯":9253,"ĠproximitÃ©":9254,"heu":9255,"ky":9256,"Ġdents":9257,"ensive":9258,"Ġparlait":9259,"Ġparlant":9260,"Ġillusion":9261,"ĠallÃ©e":9262,"ĠallÃ©g":9263,"ĠrÃ©solue":9264,"ĠdÃ©par":9265,"ĠmanquÃ©":9266,"Ġmanquent":9267,"ĠfonctionnÃ©":9268,"Ġbiotechn":9269,"Ġportable":9270,"ĠpÃ©kin":9271,"Ġfamine":9272,"Ġcontinueront":9273,"Ġretourn":9274,"Ġexplosion":9275,"Ġpublier":9276,"Ġbouche":9277,"Ġopposent":9278,"ĠpÃ©nurie":9279,"Ġaudition":9280,"ĠpersonnalitÃ©":9281,"Ġsouples":9282,"Ġstipule":9283,"ĠÃ©radiquer":9284,"Ġidentiques":9285,"ĠattÃ©n":9286,"isti":9287,"ĠnÃ´tre":9288,"ini":9289,"Ġtai":9290,"Ġfili":9291,"ĠdÃ©l":9292,"Ġaccessible":9293,"prÃ©s":9294,"propor":9295,"ĠantÃ©":9296,"Ġdispropor":9297,"Ġtibet":9298,"Ġmaintenu":9299,"sÃ©ment":9300,"ĠdÃ©finitif":9301,"Ġturcs":9302,"Ġusines":9303,"ĠintÃ©ressÃ©s":9304,"Ġsanitaires":9305,"ĠcompÃ©tition":9306,"ĠregardÃ©":9307,"Ġ95":9308,"Ġrecev":9309,"ĠapprÃ©ciÃ©":9310,"ĠcÃ©der":9311,"ĠdÃ©marches":9312,"Ġafricain":9313,"Ġsexes":9314,"ĠisraÃ©lienne":9315,"ĠformulÃ©":9316,"Ġcessez":9317,"Ġcouvert":9318,"ĠfÃ©dÃ©ral":9319,"ĠrÃ©tablissement":9320,"ĠstupÃ©":9321,"Ġhorizon":9322,"Ġenrich":9323,"ĠexpressÃ©ment":9324,"Ġgalile":9325,"ĠherzÃ©govine":9326,"ĠdÃ©mantÃ¨lement":9327,"Ġdorm":9328,"Ġpires":9329,"Ġpath":9330,"ĠdÃ©loy":9331,"Ġhaine":9332,"Ãªtres":9333,"Ã¨ses":9334,"ĠtraÃ®":9335,"Ġcontenir":9336,"Ġnobel":9337,"Ġpuissante":9338,"isses":9339,"Ġexper":9340,"lisÃ©":9341,"Ġnier":9342,"Ġplai":9343,"ĠlÃ©gÃ¨re":9344,"Ġsignaux":9345,"Ġpersonnels":9346,"Ġconnues":9347,"Ġoccidentales":9348,"Ġoblige":9349,"ĠÃ©ventuelles":9350,"Ġofficiel":9351,"Ġremplacement":9352,"Ġlourds":9353,"Ġmultipli":9354,"ĠdisparitÃ©s":9355,"Ġvivants":9356,"Ġfabriquer":9357,"Ġaffaiblir":9358,"ĠdÃ©tenus":9359,"Ġautrichienne":9360,"Ġphysiques":9361,"Ġbarack":9362,"Ġgalileo":9363,"wn":9364,"ĠcitÃ©":9365,"Ġgro":9366,"Ġnet":9367,"Ġtraverse":9368,"trÃ©":9369,"Ġassoup":9370,"calement":9371,"Ġsuivent":9372,"Ġpromette":9373,"ĠexcÃ¨s":9374,"Ġgare":9375,"Ġcoups":9376,"Ġregardons":9377,"ĠattirÃ©":9378,"Ġacquisi":9379,"Ġparagraphes":9380,"ĠfÃ©dÃ©ration":9381,"dÃ©mocra":9382,"Ġsubstantielle":9383,"Ġsaint":9384,"ĠrÃ©cupÃ©rer":9385,"Ġrattra":9386,"10":9387,"oux":9388,"tex":9389,"ney":9390,"Ġchangent":9391,"Ġexerce":9392,"Ġvolet":9393,"mide":9394,"Ġinsul":9395,"ĠopÃ©rer":9396,"Ġclauses":9397,"Ġraisonnement":9398,"ĠmisÃ¨re":9399,"ĠdÃ©cisionnel":9400,"Ġvoyages":9401,"ĠprÃ©occupÃ©s":9402,"ĠdÃ©veloppÃ©e":9403,"Ġordinaire":9404,"Ġofficielles":9405,"Ġoccupent":9406,"ĠdÃ©place":9407,"Ġinstaller":9408,"Ġlourd":9409,"Ġrapprochement":9410,"Ġinsuffisante":9411,"Ġsympathie":9412,"ĠprÃ©sidentielle":9413,"Ġasiatique":9414,"ĠcamÃ©ra":9415,"Ġmettez":9416,"ĠrÃ©sumer":9417,"ĠsimultanÃ©ment":9418,"Ġashton":9419,"Ġaspirations":9420,"Ġcalifornie":9421,"ĠâĢĻ":9422,"enko":9423,"Ġaudit":9424,"Ġretir":9425,"Ġserbes":9426,"ting":9427,"tins":9428,"Ġvieilles":9429,"ĠtrouvÃ©e":9430,"Ġportefeu":9431,"Ġbouger":9432,"Ġboulot":9433,"Ġoublie":9434,"Ġiraniens":9435,"ĠindustrialisÃ©s":9436,"Ġidentification":9437,"Ġindividuelle":9438,"Ġcontinuons":9439,"Ġroman":9440,"ĠabandonnÃ©":9441,"ĠphÃ©nomÃ¨nes":9442,"ĠvÃ©rification":9443,"Ġsecondaire":9444,"Ġultime":9445,"Ġflot":9446,"Ġsymbole":9447,"Ġmagasin":9448,"Ġoptimisme":9449,"ĠagrÃ©able":9450,"Ġlaboratoire":9451,"ĠxÃ©nophobie":9452,"ĠbiÃ©lorussie":9453,"pture":9454,"onf":9455,"Ġais":9456,"Ġeut":9457,"Ġinse":9458,"Ġmah":9459,"rira":9460,"Ġsemestre":9461,"lson":9462,"Ġmalent":9463,"Ġnager":9464,"Ġferais":9465,"ĠfermÃ©":9466,"ĠjugÃ©":9467,"ĠspÃ©culation":9468,"ĠreprÃ©senta":9469,"Ġinitialement":9470,"Ġrepas":9471,"ĠmodifiÃ©e":9472,"Ġproprement":9473,"ĠencouragÃ©":9474,"Ġpoursuivent":9475,"Ġproviennent":9476,"ĠprogressÃ©":9477,"ĠsoulevÃ©es":9478,"ĠapprouvÃ©e":9479,"Ġbureaucratique":9480,"ĠhÃ´tel":9481,"Ġfascin":9482,"Ġstrict":9483,"ĠdÃ©coule":9484,"Ġsympt":9485,"Ġretraites":9486,"Ġridicule":9487,"ĠbibliothÃ¨que":9488,"ĠtrÃ©sor":9489,"bÃ©s":9490,"anz":9491,"Ġmyth":9492,"Ġlaissant":9493,"Ġtok":9494,"Ġenva":9495,"tales":9496,"Ġgam":9497,"deur":9498,"Ġmonti":9499,"Ġcoex":9500,"Ġannuels":9501,"Ġforment":9502,"ĠÃ©conomiquement":9503,"ĠplanÃ©":9504,"Ġabstenir":9505,"Ġverheu":9506,"ĠfÃ©licitons":9507,"Ġrevue":9508,"ĠrÃ©servÃ©":9509,"Ġsolana":9510,"ĠdÃ©veloppÃ©es":9511,"ĠqualifiÃ©":9512,"ĠvÃ©lo":9513,"Ġpopulaires":9514,"Ġinacceptables":9515,"ĠÃ©thiques":9516,"Ġrobert":9517,"Ġcompenser":9518,"Ġcontenant":9519,"Ġbourse":9520,"ĠaÃ©roport":9521,"Ġennemis":9522,"ĠÃ©tablissements":9523,"ĠcomparÃ©":9524,"ĠdÃ©rogation":9525,"Ġprivatisation":9526,"Ġescomp":9527,"Ġautomobiles":9528,"ĠinsÃ©curitÃ©":9529,"Ġtokyo":9530,"Ġverheugen":9531,"ĠlÃ¢":9532,"Ġpy":9533,"ura":9534,"usses":9535,"Ġincident":9536,"ars":9537,"ĠtouchÃ©es":9538,"Ġallaient":9539,"Ġchamps":9540,"Ġadoptant":9541,"Ġcorp":9542,"Ġinstitutionnels":9543,"Ġbiologie":9544,"ĠbasÃ©es":9545,"aye":9546,"Ġfranch":9547,"ĠÃ©tendu":9548,"Ġrespectant":9549,"Ġvolontaires":9550,"Ġmercre":9551,"Ġpassera":9552,"Ġsanitaire":9553,"Ġdessin":9554,"Ġterreur":9555,"Ġarrivera":9556,"Ġletton":9557,"Ġexemption":9558,"Ġrenouvelable":9559,"Ġpakistanais":9560,"Ġcontenus":9561,"ĠchaÃ®nes":9562,"ĠhÃ©ros":9563,"rompu":9564,"Ġassassinat":9565,"Ġmercredi":9566,"ford":9567,"jout":9568,"Ġsm":9569,"Ġmir":9570,"illa":9571,"Ġfame":9572,"Ġrappe":9573,"atoires":9574,"lisÃ©e":9575,"ĠnÃ©cessiter":9576,"Ġaucuns":9577,"Ġacceptables":9578,"ĠrÃ©alisÃ©e":9579,"Ġprisons":9580,"ĠÃ©tudie":9581,"Ġactionnaires":9582,"ĠÃ©quitÃ©":9583,"Ġirakiens":9584,"Ġorale":9585,"Ġparvenue":9586,"Ġsuperfici":9587,"Ġjoueurs":9588,"ĠrÃ©vÃ©ler":9589,"Ġcraindre":9590,"Ġaccusations":9591,"Ġcritiquer":9592,"Ġquartier":9593,"Ġavocat":9594,"Ġreconnaissent":9595,"Ġislamistes":9596,"finiment":9597,"Ġoxy":9598,"Ġapprofondi":9599,"Ġvietnam":9600,"Ġdisproportion":9601,"Ġaqu":9602,"ortÃ©s":9603,"ĠcongÃ©":9604,"Ġcontiennent":9605,"Ġpaysage":9606,"Ġdirectes":9607,"Ġagissent":9608,"Ġabond":9609,"Ġnig":9610,"ĠsÃ©qu":9611,"ĠprÃ©sentant":9612,"Ġfictifs":9613,"ĠrÃ©alisÃ©es":9614,"ĠprÃ©voient":9615,"Ġnorv":9616,"ĠdÃ©finie":9617,"Ġcheval":9618,"Ġchiens":9619,"Ġfournissent":9620,"ĠÃ¢me":9621,"Ġhabituellement":9622,"Ġharmonie":9623,"ĠintÃ©grÃ©s":9624,"Ġsoudain":9625,"ĠvÃ©hicule":9626,"ĠrÃ©fÃ©rendums":9627,"ĠrÃ©diger":9628,"Ġconjointement":9629,"Ġ1970":9630,"Ġautonome":9631,"ĠliquiditÃ©s":9632,"ĠattÃ©nuer":9633,"cence":9634,"lt":9635,"vants":9636,"ĠdÃ®ner":9637,"Ġroth":9638,"Ġbur":9639,"Ġbombe":9640,"Ġconstant":9641,"Ġentrent":9642,"ĠdÃ©pendra":9643,"Ġespaces":9644,"Ġcardia":9645,"Ġindiens":9646,"Ġparam":9647,"Ġjustification":9648,"ĠthaÃ¯":9649,"monie":9650,"ĠenvisagÃ©":9651,"Ġfavorablement":9652,"Ġofficiels":9653,"ĠÃ©lectoral":9654,"ĠaccusÃ©":9655,"ĠdÃ©truit":9656,"ĠmÃ©dical":9657,"ĠocÃ©ans":9658,"ĠaffectÃ©s":9659,"ĠÃ©cosse":9660,"ĠperpÃ©tu":9661,"Ġfondements":9662,"Ã³n":9663,"Ġmadrid":9664,"ĠnigÃ©ri":9665,"ks":9666,"vo":9667,"illement":9668,"Ãªtement":9669,"Ġaigu":9670,"ĠprobabilitÃ©":9671,"umÃ©e":9672,"Ġhomosex":9673,"Ġapprend":9674,"grÃ©s":9675,"Ġfigurer":9676,"Ġacceptent":9677,"Ġacceptation":9678,"Ġjuges":9679,"Ġtap":9680,"lablement":9681,"Ġ65":9682,"Ġesprits":9683,"Ġprofesseurs":9684,"Ġjaponaise":9685,"Ġexistante":9686,"Ġcandidature":9687,"Ġmorales":9688,"ĠsoulevÃ©e":9689,"Ġtypique":9690,"ĠhÃ´pitaux":9691,"ĠmÃ©diterranÃ©enne":9692,"Ġpropagande":9693,"Ġinadmissible":9694,"bler":9695,"niste":9696,"Ġdil":9697,"Ġpand":9698,"Ġajout":9699,"una":9700,"ourv":9701,"ĠingrÃ©":9702,"Ġhez":9703,"Ġperdent":9704,"ĠdÃ©pourv":9705,"Ġaccordent":9706,"ĠlÃ©gales":9707,"ĠindÃ©ni":9708,"Ġimmin":9709,"Ġnullement":9710,"Ġsanter":9711,"Ġ1991":9712,"Ġexclus":9713,"Ġcoupable":9714,"Ġjournaliste":9715,"Ġprovoque":9716,"Ġmanifestation":9717,"Ġsouffrir":9718,"ĠidÃ©ologique":9719,"Ġquantita":9720,"Ġredist":9721,"ĠillÃ©gaux":9722,"ĠintÃ©resser":9723,"Ġvaccin":9724,"ĠÃ©pargn":9725,"Ġbloquer":9726,"Ġparviendrons":9727,"Ġbizarre":9728,"Ġdioxyde":9729,"bollah":9730,"Ġinfirmi":9731,"ĠingrÃ©di":9732,"Ġhezbollah":9733,"oÃ¯s":9734,"sons":9735,"Ġaxe":9736,"ĠrÃ©form":9737,"osÃ©":9738,"Ġdiction":9739,"Ġdirait":9740,"trui":9741,"Ġatter":9742,"ĠÃ©lever":9743,"Ġminor":9744,"Ġstation":9745,"ĠdÃ©fendu":9746,"Ġphili":9747,"Ġrisquer":9748,"Ġoffres":9749,"Ġlaissons":9750,"Ġfondations":9751,"ĠeffectuÃ©s":9752,"ĠÃ©merge":9753,"ĠprotÃ¨ge":9754,"ĠprÃ©paratifs":9755,"Ġcarburants":9756,"ĠsuggÃ©rÃ©":9757,"Ġmaximale":9758,"Ġgrimp":9759,"ĠdÃ©lits":9760,"ertes":9761,"Ġenveloppe":9762,"uste":9763,"ĠdÃ©du":9764,"ĠprÃ©co":9765,"Ġsectorie":9766,"Ġmets":9767,"Ġnoy":9768,"issiles":9769,"ĠÂ°":9770,"Ġproduite":9771,"ĠprÃ©sentera":9772,"Ġauriez":9773,"ĠrÃ©duisant":9774,"Ġattribuer":9775,"ĠcÃ´tes":9776,"Ġlarges":9777,"Ġpassait":9778,"Ġessaye":9779,"ĠrespectÃ©es":9780,"Ġfisch":9781,"Ġsols":9782,"ĠopposÃ©e":9783,"ĠdÃ©finitivement":9784,"ĠrejetÃ©e":9785,"Ġdiminue":9786,"Ġfavorise":9787,"ĠoccupÃ©s":9788,"Ġrelevant":9789,"Ġvastes":9790,"Ġcerveaux":9791,"ĠrÃªves":9792,"Ġrobot":9793,"Ġcontraignante":9794,"ĠslovÃ©nie":9795,"ĠpÃªcher":9796,"Ġlogiciels":9797,"Ġsatellite":9798,"ĠÃ©tablissant":9799,"ham":9800,"ns":9801,"olement":9802,"Ġlune":9803,"tilitÃ©":9804,"inture":9805,"Ġestonie":9806,"chage":9807,"Ġrab":9808,"Ġrestant":9809,"ĠmÃ©fi":9810,"Ġnaz":9811,"ĠÃ©nergique":9812,"Ġprofil":9813,"ĠfiÃ¨vre":9814,"Ġparadis":9815,"ĠspÃ©cific":9816,"Ġexcuser":9817,"ĠextrÃªmes":9818,"Ġmanifester":9819,"Ġexceptionnelle":9820,"ĠpartagÃ©":9821,"ĠvÃ©gÃ©":9822,"Ġreligions":9823,"ĠprospÃ¨re":9824,"ĠrÃ©solument":9825,"Ġdocteur":9826,"Ġnavigation":9827,"ĠsuprÃªme":9828,"Ġplastique":9829,"Ġpatten":9830,"Ġavortement":9831,"ĠlÃ©gumes":9832,"Ġobservatoire":9833,"Ġbovine":9834,"ria":9835,"ĠrÃ©itÃ©":9836,"Ġcond":9837,"Ġravie":9838,"Ã´les":9839,"ĠmangÃ©":9840,"Ġfores":9841,"ĠnÃ©cessitent":9842,"Ġciga":9843,"Ġcommenter":9844,"Ġpress":9845,"Ġinitial":9846,"Ġverrez":9847,"ĠspÃ©ciaux":9848,"Ġroum":9849,"Ġremonte":9850,"ĠdirigÃ©":9851,"ĠrencontrÃ©s":9852,"Ġemployer":9853,"ĠdÃ©lÃ©gations":9854,"Ġconformer":9855,"Ã©valu":9856,"ĠintÃ©ressÃ©":9857,"Ġfoule":9858,"Ġreconnaissons":9859,"Ġhonorables":9860,"Ã¡n":9861,"Ġrenvoy":9862,"ĠdÃ©licate":9863,"Ġexterne":9864,"Ġtransitoire":9865,"ĠingÃ©nieurs":9866,"ĠpersuadÃ©":9867,"Ġegyp":9868,"Ġtaiwan":9869,"bÃ©ra":9870,"ji":9871,"nock":9872,"Ġ$":9873,"Ġhels":9874,"Ġcerti":9875,"Ġassistons":9876,"Ġsouhaits":9877,"Ġcontraints":9878,"ĠacceptÃ©s":9879,"Ġnuire":9880,"ĠrÃ©alistes":9881,"Ġgrad":9882,"Ġriv":9883,"ĠjustifiÃ©e":9884,"Ġbarre":9885,"Ġfrontex":9886,"ĠajoutÃ©":9887,"ĠlibÃ©rale":9888,"Ġhuile":9889,"ĠtempÃªte":9890,"Ġrequis":9891,"Ġnavire":9892,"ĠcausÃ©s":9893,"Ġpertinentes":9894,"Ġressembler":9895,"ĠÃ©radication":9896,"Ġrestriction":9897,"ĠÃ©quivoque":9898,"Ġchimique":9899,"Ġunanime":9900,"Ġcofinancement":9901,"ĠdÃ©faite":9902,"mais":9903,"Â´":9904,"ĠpÃ©nÃ©":9905,"Ġclo":9906,"Ġmour":9907,"ĠdÃ©Ã§u":9908,"osa":9909,"tume":9910,"tering":9911,"ĠhÃ¢":9912,"olÃ©e":9913,"ĠgrÃ©":9914,"Ġsouches":9915,"atom":9916,"Ġassor":9917,"Ġmontrant":9918,"Ġnaval":9919,"Ġpensaient":9920,"Ġcontraint":9921,"ĠprÃ©val":9922,"Ġreporter":9923,"ĠjustifiÃ©":9924,"Ġsyner":9925,"Ġtrouvait":9926,"Ġaccompagne":9927,"ĠobservÃ©":9928,"ĠdÃ©mocratiquement":9929,"Ġpassep":9930,"Ġrencontrent":9931,"Ġindividuelles":9932,"ĠsuggÃ©rer":9933,"Ġlongueur":9934,"ĠdÃ©placement":9935,"ĠmenacÃ©s":9936,"ĠintÃ¨g":9937,"Ġefforce":9938,"ĠÃ©chouer":9939,"Ġsuspension":9940,"Ġattribution":9941,"ĠindÃ©pendantes":9942,"Ġtromper":9943,"Ġcraignent":9944,"Ġclandestine":9945,"Ġaccessibles":9946,"Ġsondages":9947,"Ġkinnock":9948,"geux":9949,"mir":9950,"Ġsoph":9951,"Ġngl":9952,"liers":9953,"Ġsection":9954,"Ġpoign":9955,"Ġpaysans":9956,"Ġagira":9957,"Ġadmi":9958,"Ġexpul":9959,"Ġenvoie":9960,"ĠsÃ©cher":9961,"pira":9962,"ĠtaÃ¯":9963,"Ġsuspens":9964,"Ġsoutenus":9965,"Ġvoterai":9966,"Ġrappelons":9967,"Ġaffirment":9968,"Ġantibi":9969,"Ġsensiblement":9970,"Ġpertinente":9971,"Ġparcour":9972,"Ġradioa":9973,"Ġespagnols":9974,"ĠÃ©motions":9975,"Ġtoxiques":9976,"ĠdouaniÃ¨re":9977,"Ġcabine":9978,"Ġendettement":9979,"Ġexpertise":9980,"dus":9981,"Ġdus":9982,"inki":9983,"Ġleh":9984,"Ġvet":9985,"ĠÃ©cras":9986,"Ã´mes":9987,"Ġentreten":9988,"ĠtranseuropÃ©ens":9989,"ĠtuÃ©s":9990,"Ġphare":9991,"Ġ42":9992,"Ġessayez":9993,"Ġbrefs":9994,"Ġrecommander":9995,"ĠconsacrÃ©e":9996,"Ġredres":9997,"Ġexcellence":9998,"ĠsecrÃ©tari":9999,"ĠbilatÃ©rales":10000,"Ġsymbolique":10001,"Ġconjointe":10002,"Ġterribles":10003,"Ġapprofondir":10004,"ridge":10005,"ĠreflÃ©ter":10006,"Ġpluralisme":10007,"Ġhorrible":10008,"Ġfluctu":10009,"ĠÃ©vÃ¨nements":10010,"ĠlÃ©gifÃ©rer":10011,"Ġfischler":10012,"Ġhelsinki":10013,"den":10014,"lins":10015,"ller":10016,"Ġort":10017,"erie":10018,"Ġvrais":10019,"Ġrw":10020,"ciens":10021,"Ġdia":10022,"vabilitÃ©":10023,"issants":10024,"Ã©nÃ©g":10025,"listes":10026,"ica":10027,"ĠespÃ©rance":10028,"ĠdÃ©mocrate":10029,"ĠmontÃ©nÃ©g":10030,"Ġkal":10031,"Ġ36":10032,"Ġacceptons":10033,"Ġverrons":10034,"ĠrÃ©clam":10035,"Ġconfid":10036,"Ġconcurrents":10037,"Ġsuffisants":10038,"Ġsoutenant":10039,"Ġ2015":10040,"ĠseptiÃ¨me":10041,"ĠtransfÃ©rer":10042,"ĠrÃ©vol":10043,"ĠÃ©mergentes":10044,"ĠchrÃ©tien":10045,"Ġradicaux":10046,"Ġtournant":10047,"Ġvillages":10048,"Ġtarif":10049,"Ġcompatible":10050,"ĠfatiguÃ©":10051,"ĠintitulÃ©":10052,"Ġirresponsable":10053,"Ġparadox":10054,"ĠtaÃ¯wan":10055,"citÃ©":10056,"iblement":10057,"pol":10058,"Ġaille":10059,"iler":10060,"Ġhora":10061,"Ġmonte":10062,"Ãªter":10063,"Ġcontente":10064,"istants":10065,"oyers":10066,"Ġconcertation":10067,"Ġbeaux":10068,"Ġdonnons":10069,"Ġspir":10070,"Ġdouter":10071,"Ġsoix":10072,"Ġoffert":10073,"Ġsecrets":10074,"ĠrÃ©unis":10075,"Ġmalheureux":10076,"Ġthon":10077,"Ġexplorer":10078,"Ġaimerions":10079,"ĠprÃ©fÃ©rences":10080,"Ġimagin":10081,"Ġguise":10082,"ĠthÃ©Ã¢tre":10083,"ĠrÃ©fÃ©rences":10084,"Ġrequises":10085,"ĠretirÃ©":10086,"ĠopÃ©rationnel":10087,"Ġlourdes":10088,"Ġcouverts":10089,"Ġlabel":10090,"ĠbÃ©tail":10091,"ĠrÃ©clamer":10092,"mbourge":10093,"Ġmotivation":10094,"ĠallouÃ©s":10095,"ĠhonnÃªtetÃ©":10096,"Ġfrein":10097,"ĠÃ©chÃ©ance":10098,"ĠdÃ©gradation":10099,"ĠbactÃ©ri":10100,"ĠincomprÃ©hen":10101,"ft":10102,"lante":10103,"zz":10104,"ĠnÃ©e":10105,"Ġfleurs":10106,"ĠbÃ¶":10107,"cieuses":10108,"Ġtrah":10109,"Ġdevais":10110,"Ġnoci":10111,"mad":10112,"abit":10113,"ĠcrÃ©Ã©s":10114,"Ġvagues":10115,"Ġproposent":10116,"Ġprestige":10117,"ĠengagÃ©es":10118,"Ġunification":10119,"ĠrÃ©viser":10120,"Ġcouche":10121,"Ġradicalement":10122,"ĠdÃ©poser":10123,"ĠexÃ©cutif":10124,"ĠdÃ©montrent":10125,"cker":10126,"Ġabandon":10127,"ĠsensibilitÃ©":10128,"Ġsatisfaite":10129,"Ġreconstru":10130,"Ġmassif":10131,"rogÃ¨ne":10132,"baÃ¯":10133,"Ġsusciter":10134,"Ġfamiliale":10135,"Ġluxembourge":10136,"Ġlinguistiques":10137,"Ġinvasion":10138,"ĠentitÃ©":10139,"Ġacier":10140,"Ġsensibilisation":10141,"ĠdÃ©favorisÃ©es":10142,"ĠdÃ©taillÃ©es":10143,"ĠcinÃ©ma":10144,"Ġdissua":10145,"Ġcontempora":10146,"ĠflÃ©au":10147,"Ġdiagnostic":10148,"Ġlettonie":10149,"Ġveto":10150,"af":10151,"bul":10152,"mit":10153,"sa":10154,"ison":10155,"ĠunitÃ©s":10156,"auv":10157,"Ġaval":10158,"Ġactives":10159,"Ġconcilier":10160,"ĠdÃ©mons":10161,"Ġplaide":10162,"Ġobjections":10163,"antil":10164,"ĠâĢ¦":10165,"ĠsÃ»res":10166,"Ġisolement":10167,"Ġconstat":10168,"Ġ600":10169,"obo":10170,"Ġmuga":10171,"ĠintÃ©ressants":10172,"Ġsouffert":10173,"Ġretarder":10174,"ĠdisponibilitÃ©":10175,"Ġpatience":10176,"Ġracines":10177,"Ġradical":10178,"Ġretrouvent":10179,"ĠdÃ©sÃ©quilibre":10180,"Ġdoctr":10181,"Ġtoxic":10182,"ĠÃ©manant":10183,"Ġpragmatique":10184,"ĠrÃ©cipro":10185,"Ġrenseignements":10186,"Ġcorrespondent":10187,"Ġinterconne":10188,"Ġclonage":10189,"Ġredistribu":10190,"cour":10191,"dy":10192,"odu":10193,"Ġnat":10194,"laise":10195,"Ġconj":10196,"Ã´me":10197,"Ġfinlandaise":10198,"Ġtimor":10199,"dÃ©qu":10200,"Ġautorise":10201,"ĠabordÃ©s":10202,"Ġbasse":10203,"ĠspÃ©cialistes":10204,"ĠlimitÃ©s":10205,"Ġconstructeurs":10206,"Ġ48":10207,"Ġclient":10208,"ĠcompÃ©titifs":10209,"ĠadaptÃ©e":10210,"ĠgÃ©ographiques":10211,"Ġcollectif":10212,"Ġparvenons":10213,"ĠconsacrÃ©s":10214,"Ġrequise":10215,"ĠdÃ©taillÃ©":10216,"Ġcontraignantes":10217,"ĠentraÃ®nera":10218,"ĠsÃ©vÃ¨re":10219,"Ġdivisions":10220,"ĠdÃ©coulent":10221,"Ġstabiliser":10222,"ĠmultilatÃ©ral":10223,"Ġbrok":10224,"ĠinadÃ©qu":10225,"Ġtarifs":10226,"Ġennuy":10227,"Ġhypocris":10228,"Ġarrestation":10229,"Ġconfidenti":10230,"mlin":10231,"enn":10232,"oute":10233,"Ġslog":10234,"Ġdeb":10235,"Ġlac":10236,"Ġjar":10237,"Ġfau":10238,"Ġgau":10239,"Ġapplications":10240,"Ġdilem":10241,"Ġvotons":10242,"Ġamou":10243,"formes":10244,"Ġconseiller":10245,"ĠsÃ©du":10246,"Ġpeter":10247,"mÃ©tri":10248,"Ġindications":10249,"Ġcontrainte":10250,"Ġformu":10251,"Ġrich":10252,"Ġsyri":10253,"Ġconducteurs":10254,"Ġtennis":10255,"ĠassurÃ©e":10256,"ĠpÃ©nales":10257,"ĠÃ©ventuels":10258,"Ġsilenci":10259,"Ġrestaurant":10260,"Ġintelligents":10261,"Ġinspections":10262,"Ġmeurtre":10263,"ĠpoliciÃ¨re":10264,"Ġcambridge":10265,"Ġexplosi":10266,"ĠambiguÃ¯tÃ©":10267,"ĠmontÃ©nÃ©gro":10268,"Ġmugabe":10269,"onale":10270,"Ġcents":10271,"Ġalex":10272,"ĠdegrÃ©s":10273,"illon":10274,"Ġfoyers":10275,"eutiques":10276,"Ġchron":10277,"Ġaident":10278,"Ġobtient":10279,"isemb":10280,"ĠÃ©conomiser":10281,"Ġcontrefa":10282,"Ġcourants":10283,"Ġkir":10284,"Ġmena":10285,"Ġgouvernementale":10286,"Ġcorromp":10287,"Ġprestations":10288,"Ġsubissent":10289,"ĠÃ©chantil":10290,"Ġsuffisent":10291,"Ġsuspe":10292,"Ġtransparentes":10293,"Ġsauvages":10294,"ĠempÃªchÃ©":10295,"Ġfaciles":10296,"ĠdÃ©posÃ©es":10297,"Ġsouris":10298,"ĠintÃ©grÃ©es":10299,"atrice":10300,"Ġgrecs":10301,"ĠdÃ©noncer":10302,"Ġcourageux":10303,"Ġconstituerait":10304,"ĠinterprÃ©ter":10305,"Ġajustements":10306,"Ġferroviaires":10307,"ĠrevÃªtent":10308,"Ġcurieux":10309,"Ġlobby":10310,"Ġkremlin":10311,"ĠsecrÃ©tariat":10312,"Ġhypocrisie":10313,"Ġmenti":10314,"ĠqualitÃ©s":10315,"siÃ¨re":10316,"Ġjal":10317,"Ġpourrez":10318,"Ġdurer":10319,"ĠchÃ¨re":10320,"Ġavancement":10321,"Ġpotable":10322,"alem":10323,"Ġdise":10324,"Ġallon":10325,"ĠdÃ©coup":10326,"Ġfermes":10327,"Ġoffrant":10328,"Ġtransporte":10329,"ĠspÃ©ciales":10330,"ĠimposÃ©e":10331,"faits":10332,"Ġmerkel":10333,"ettes":10334,"Ġcouper":10335,"Ġsemblable":10336,"lusconi":10337,"Ġpotentielle":10338,"Ġberlusconi":10339,"Ġparalys":10340,"Ġconviendrait":10341,"Ġpeser":10342,"Ġstatistique":10343,"ĠtransfrontaliÃ¨res":10344,"prolifÃ©ration":10345,"ĠprÃ©occuper":10346,"Ġsecondaires":10347,"Ġincompati":10348,"Ġabstenu":10349,"ĠgÃ¢teau":10350,"Ġesclavage":10351,"Ġcombustibles":10352,"Ġegypte":10353,"otique":10354,"rise":10355,"oue":10356,"isait":10357,"illÃ©e":10358,"usalem":10359,"Ġbain":10360,"liez":10361,"Ġrap":10362,"Ġappauv":10363,"ĠÃ©co":10364,"Ġinspiration":10365,"Ġrende":10366,"Ġki":10367,"Ġjouissent":10368,"Ġbaser":10369,"Ġvaisse":10370,"ĠinquiÃ¨tent":10371,"ĠprÃ©cisÃ©":10372,"Ġsemblables":10373,"ĠcompÃ©titif":10374,"Ġbouc":10375,"Ġ99":10376,"ĠdÃ»ment":10377,"Ġguant":10378,"Ġindividuellement":10379,"ĠbÃ¢tir":10380,"Ġqualifier":10381,"ĠpartagÃ©e":10382,"Ġmonnaies":10383,"Ġneutra":10384,"Ġtrip":10385,"Ġretire":10386,"Ġassume":10387,"Ġprudent":10388,"Ġparcourir":10389,"ĠprÃ©judici":10390,"ĠclÃ´":10391,"ĠautodÃ©":10392,"Ġalarm":10393,"ĠalgÃ©rie":10394,"ĠentitÃ©s":10395,"Ġchantiers":10396,"Ġantibiotiques":10397,"gme":10398,"hÃ©r":10399,"lissent":10400,"Ġdg":10401,"Ġcis":10402,"Ġstre":10403,"Ġtue":10404,"Ġunir":10405,"liÃ¨re":10406,"Ġgou":10407,"Ġgig":10408,"Ã©rants":10409,"Ġresser":10410,"Ġobtention":10411,"Ġtermine":10412,"Ġforcer":10413,"Ġnico":10414,"Ġprimaire":10415,"Ġinfli":10416,"Ġapparence":10417,"Ġuniversitaire":10418,"Ġdynamisme":10419,"Ġreproduire":10420,"Ġpilote":10421,"ĠnÃ©erlandaise":10422,"Ġcomparable":10423,"Ġcontradictoires":10424,"ĠdÃ©rogations":10425,"Ġscrutin":10426,"Ġconversation":10427,"ĠprÃ©visible":10428,"Ġarbitraire":10429,"Ġalbanais":10430,"ĠplanÃ©taire":10431,"ed":10432,"ements":10433,"ĠpÃ¨se":10434,"reur":10435,"Ġrendra":10436,"ĠdÃ©ception":10437,"ĠrÃ©ins":10438,"aud":10439,"Ġhaye":10440,"ensÃ©":10441,"ĠinterdÃ©":10442,"Ġmilitants":10443,"ĠtibÃ©":10444,"Ġplainte":10445,"ĠÃ©gale":10446,"ĠdÃ©sord":10447,"Ġcontras":10448,"Ġoffertes":10449,"Ġreconnue":10450,"Ġsollic":10451,"ĠadressÃ©":10452,"ĠadÃ©quats":10453,"Ġpacifiques":10454,"ĠÃ©lectorat":10455,"ĠcaractÃ©ristique":10456,"ĠultÃ©":10457,"ĠrÃ©sultant":10458,"Ġmexic":10459,"Ġspectacle":10460,"ĠdÃ©libÃ©rÃ©ment":10461,"ĠpÃ©troliers":10462,"ĠdÃ©tÃ©rioration":10463,"Ġprovince":10464,"ĠmanÅĵuvre":10465,"Ġkurdes":10466,"Ġcambodge":10467,"Ġdictionnaire":10468,"gs":10469,"lÃ¢":10470,"Ġnutri":10471,"Ġfant":10472,"Ġintu":10473,"Ġmalais":10474,"tÃ©rie":10475,"ciation":10476,"Ġprocla":10477,"Ġidi":10478,"trÃ©s":10479,"Ġarchi":10480,"Ġarctique":10481,"matisme":10482,"Ġmarins":10483,"Ġvache":10484,"ĠnationalitÃ©":10485,"Ġviser":10486,"Ġferaient":10487,"ĠabordÃ©e":10488,"Ġpenses":10489,"Ġbananes":10490,"ĠisraÃ©":10491,"Ġbarb":10492,"Ġfournis":10493,"ĠÃ¢gÃ©s":10494,"Ġsouffle":10495,"ĠadaptÃ©":10496,"Ġrefusent":10497,"Ġmoratoire":10498,"ĠsoulevÃ©s":10499,"Ġsynonyme":10500,"Ġconvictions":10501,"Ġconformes":10502,"ĠpayÃ©s":10503,"Ġultra":10504,"ĠprivilÃ¨ge":10505,"Ġfamiliales":10506,"Ġphrases":10507,"ĠÃ©motion":10508,"Ġcomparables":10509,"Ġpommes":10510,"Ġchocolat":10511,"ĠdÃ©signÃ©":10512,"Ġappartenant":10513,"Ġprolonger":10514,"Ġjacques":10515,"Ġaveugle":10516,"ĠamÃ©nagement":10517,"ĠdÃ©ploiement":10518,"Ġmagazine":10519,"unami":10520,"ĠprÃ©coce":10521,"bas":10522,"fat":10523,"tend":10524,"enons":10525,"Ġsis":10526,"Ġsri":10527,"Ġmande":10528,"Ġnie":10529,"Ġlama":10530,"Ġlatin":10531,"urÃ©es":10532,"ĠÃ©lig":10533,"Ġincidents":10534,"Ġbale":10535,"Ġmatch":10536,"Ġger":10537,"Ġcadeau":10538,"Ġdisaient":10539,"Ġinscri":10540,"ĠdÃ©cri":10541,"Ġemporter":10542,"versement":10543,"Ġmaintient":10544,"Ġcris":10545,"Ġpeines":10546,"Ġobjection":10547,"ĠfinanciÃ¨rement":10548,"ĠÃ©gaux":10549,"ĠconcernÃ©e":10550,"Ġsignale":10551,"Ġsouvenez":10552,"ĠrenforÃ§ant":10553,"Ġfraudes":10554,"visible":10555,"ĠremportÃ©":10556,"Ġsubstitu":10557,"Ġmanifestants":10558,"Ġitaliens":10559,"Ġobsol":10560,"Ġacquise":10561,"Ġaffectent":10562,"ĠÃ©troit":10563,"ĠÃ©videntes":10564,"Ġadministratifs":10565,"ĠdÃ©terminÃ©s":10566,"ĠcritiquÃ©":10567,"Ġchapitres":10568,"Ġquarante":10569,"europÃ©en":10570,"Ġengendrer":10571,"Ġtsunami":10572,"Ġjambes":10573,"Ġaventure":10574,"ĠgÃ©opolitique":10575,"Ġtissu":10576,"cor":10577,"git":10578,"endez":10579,"Ġase":10580,"omph":10581,"Ġrire":10582,"Ġrendant":10583,"aron":10584,"ĠamitiÃ©":10585,"Ġdissid":10586,"issaient":10587,"ĠdotÃ©":10588,"Ġpossession":10589,"ĠcrÃ©anci":10590,"ĠÃ©leveurs":10591,"Ġfermi":10592,"Ġ33":10593,"Ġverra":10594,"Ġrouges":10595,"Ġ55":10596,"belles":10597,"Ġintroduite":10598,"Ġpollue":10599,"ĠemblÃ©e":10600,"Ġcondamne":10601,"Ġarafat":10602,"ĠappliquÃ©s":10603,"Ġtriomph":10604,"ĠmenacÃ©":10605,"Ġpertinent":10606,"Ġguide":10607,"ĠÃ©carts":10608,"Ġinhabit":10609,"ĠdÃ©sespoir":10610,"ĠprÃ©conise":10611,"ĠmÃ¨nent":10612,"Ġperturb":10613,"Ġnettoy":10614,"ĠaisÃ©ment":10615,"az":10616,"gog":10617,"lux":10618,"Ġcenti":10619,"reusement":10620,"ĠjÃ©r":10621,"ĠdÃ©lÃ©":10622,"cio":10623,"Ġsurcro":10624,"respect":10625,"ĠprÃ©cieuse":10626,"dictions":10627,"andes":10628,"Ġoug":10629,"Ġdistances":10630,"ell":10631,"Ġannon":10632,"Ġsomalie":10633,"Ġdoive":10634,"Ġchapeau":10635,"Ġfaisais":10636,"ĠÃ©changer":10637,"Ġtampe":10638,"ĠrapiditÃ©":10639,"Ġcontribuable":10640,"Ġintroduites":10641,"Ġstress":10642,"Ġdispositifs":10643,"Ġvotera":10644,"ĠlumiÃ¨res":10645,"Ġnourr":10646,"ĠrÃ©gulateurs":10647,"Ġapais":10648,"ĠhonnÃªtes":10649,"Ġcolonies":10650,"Ġcontroverse":10651,"Ġavertissement":10652,"Ġpsychologique":10653,"ĠblessÃ©s":10654,"ĠchutÃ©":10655,"ĠinterprÃ©tÃ©":10656,"Ġconnexion":10657,"Ġcommettre":10658,"Ġkenya":10659,"ĠallÃ©gations":10660,"Ġsophisti":10661,"Ġtampere":10662,"cis":10663,"win":10664,"Ġdite":10665,"anique":10666,"issions":10667,"ĠÃ©mi":10668,"Ġpard":10669,"lade":10670,"Ġplomb":10671,"Ġtouchant":10672,"fice":10673,"ssions":10674,"Ġabu":10675,"ĠrÃ©pres":10676,"ĠgÃ©nÃ¨re":10677,"Ġreprend":10678,"riblement":10679,"Ġnationalistes":10680,"ologies":10681,"Ġasseoir":10682,"Ġdouane":10683,"ĠrÃ©fÃ¨re":10684,"Ġengagent":10685,"ĠbiÃ¨re":10686,"ĠparaÃ®tre":10687,"Ġatteintes":10688,"Ġstop":10689,"Ġprovoc":10690,"Ġballe":10691,"Ġsinga":10692,"ĠempÃªchent":10693,"Ġcouleurs":10694,"Ġtraditionnel":10695,"Ġsuperf":10696,"Ġimpressionn":10697,"Ġexigeant":10698,"ĠexaminÃ©e":10699,"ĠcatÃ©gorique":10700,"Ġdrame":10701,"ĠÃ©thi":10702,"Ġressemblent":10703,"ĠinventÃ©":10704,"Ġscolaire":10705,"ĠmÃ©diterranÃ©en":10706,"Ġrevendications":10707,"Ġindirectement":10708,"ĠaperÃ§u":10709,"Ġintervient":10710,"Ġmobile":10711,"Ġpluriannuel":10712,"Ġfantastique":10713,"ĠnorvÃ¨ge":10714,"Ġsoixante":10715,"Ġgigantes":10716,"'\"":10717,"ik":10718,"kha":10719,"mus":10720,"ess":10721,"til":10722,"Ġmers":10723,"rac":10724,"Ġoeil":10725,"uela":10726,"Ġtraitons":10727,"Ġcontour":10728,"Ã©rar":10729,"Ġmarques":10730,"ĠmarquÃ©e":10731,"Ġorches":10732,"ĠdÃ©blo":10733,"ĠinfÃ©rie":10734,"surer":10735,"ĠchargÃ©s":10736,"Ġformelle":10737,"Ġtension":10738,"ĠfixÃ©es":10739,"Ġpartisan":10740,"Ġuniversitaires":10741,"Ġconservateur":10742,"ĠcondamnÃ©s":10743,"Ġtony":10744,"Ġexemplaire":10745,"ĠÃ©lites":10746,"Ġsignificatifs":10747,"Ġmilieux":10748,"Ġvalor":10749,"ĠcensÃ©":10750,"Ġcontraignants":10751,"Ġincertitudes":10752,"ĠintÃ©rimaire":10753,"Ġmoderniser":10754,"Ġsuspendre":10755,"ĠsÃ©parÃ©":10756,"Ġembarras":10757,"ĠextrÃ©misme":10758,"Ġressentir":10759,"Ġinterroger":10760,"ĠrÃ©examen":10761,"Ġremboursement":10762,"Ġmensonge":10763,"Ġinefficace":10764,"Ġindub":10765,"Ġdistorsions":10766,"ĠingrÃ©dients":10767,"ĠmÃ©fiance":10768,"ĠisraÃ©lo":10769,"ĠjÃ©rusalem":10770,"gÃ¨nes":10771,"erbaÃ¯":10772,"istÃ©ri":10773,"istence":10774,"ĠmÃ¢":10775,"Ġmissiles":10776,"Ġpatron":10777,"Ġenca":10778,"tateur":10779,"Ġredev":10780,"tue":10781,"Ġsah":10782,"Ġsage":10783,"ĠyÃ©":10784,"Ġresp":10785,"Ġnotes":10786,"onnements":10787,"Ġdirecteurs":10788,"ĠcotÃ©":10789,"issantes":10790,"Ġviole":10791,"Ġmarqu":10792,"ĠcroÃ®tre":10793,"ĠÃ©volue":10794,"Ġkar":10795,"Ġparaissent":10796,"ĠtÃ©moins":10797,"Ġcapitales":10798,"Ġ800":10799,"ĠguÃ©r":10800,"ĠillÃ©gales":10801,"Ġinstallation":10802,"Ġterminerai":10803,"Ġtransforme":10804,"ĠdÃ©tourn":10805,"Ġfolle":10806,"Ġannex":10807,"djan":10808,"ĠazerbaÃ¯":10809,"Ġincontestablement":10810,"Ġchanter":10811,"Ġdesquels":10812,"appropri":10813,"ĠspÃ©cula":10814,"Ġdebout":10815,"Ġsingapour":10816,"ĠazerbaÃ¯djan":10817,"gan":10818,"no":10819,"vit":10820,"wit":10821,"ĠpÃ¨res":10822,"Ġlament":10823,"ĠÃ©lo":10824,"Ġinco":10825,"Ġillu":10826,"Ġmac":10827,"Ġrejets":10828,"Ġchante":10829,"dions":10830,"ander":10831,"Ġauthen":10832,"Ġdirections":10833,"Ġattir":10834,"ĠdÃ©pendre":10835,"Ġtimes":10836,"ĠfinancÃ©":10837,"ĠfinancÃ©s":10838,"Ġlongs":10839,"Ã´tres":10840,"ĠrÃ©alisations":10841,"ĠreprÃ©sentante":10842,"Ġriz":10843,"ĠbÃ©nÃ©v":10844,"Ã®tres":10845,"Ġdemanderai":10846,"Ġstructurel":10847,"ĠÃ©num":10848,"Ġsolidaire":10849,"ĠmanifestÃ©":10850,"ĠadaptÃ©es":10851,"ĠguinÃ©e":10852,"Ġlivrer":10853,"Ġapprouvons":10854,"ĠdÃ©placÃ©es":10855,"Ġcomposants":10856,"Ġattentifs":10857,"Ġmenacent":10858,"Ġmodestes":10859,"Ġpilotes":10860,"ĠhiÃ©rar":10861,"ĠÃ©carter":10862,"Ġdisciplin":10863,"ĠconÃ§ue":10864,"Ġappartenance":10865,"Ġappelait":10866,"ĠrÃ©examiner":10867,"ĠrÃ©paration":10868,"Ġacquisition":10869,"Ġrichard":10870,"Ġcisj":10871,"99":10872,"Ġdy":10873,"Ġari":10874,"Ġfur":10875,"chose":10876,"onnent":10877,"Ġautoc":10878,"Ġagissons":10879,"Ã©nier":10880,"ĠÃ©conomiste":10881,"Ġprimes":10882,"ĠdÃ©mante":10883,"ĠcarrÃ©":10884,"Ġrenverser":10885,"Ġstar":10886,"Ġoppression":10887,"Ġbanqui":10888,"Ġfondateurs":10889,"ĠarrÃªtÃ©s":10890,"Ġprenantes":10891,"Ġresteront":10892,"ĠdÃ©veloppent":10893,"Ġaccueille":10894,"ĠcomposÃ©e":10895,"Ġsouverains":10896,"ĠdÃ©roulement":10897,"Ġattentat":10898,"Ġrupture":10899,"Ġsharon":10900,"Ġartiste":10901,"Ġvraisemb":10902,"ĠdÃ©coulant":10903,"Ġmotivations":10904,"ĠnÃ©gliger":10905,"Ġmerveilleuse":10906,"Ġvenezuela":10907,"Ġamusant":10908,"Ġrassurer":10909,"ĠultÃ©rieurement":10910,"ĠyÃ©men":10911,"Ġcisjordanie":10912,"Ã©nierie":10913,"ufs":10914,"Ġromp":10915,"Ġmaur":10916,"Ġfact":10917,"Ġnez":10918,"Ġhos":10919,"ĠanÃ©":10920,"Ġangu":10921,"Ġligue":10922,"ĠnotÃ©":10923,"Ġarrog":10924,"maient":10925,"Ġmardi":10926,"Ġnommer":10927,"ĠmÃ©tal":10928,"ĠplacÃ©s":10929,"Ġkurde":10930,"Ġstables":10931,"Ġapprennent":10932,"Ġ34":10933,"Ġislande":10934,"ĠdÃ©putÃ©e":10935,"ĠÃ©pis":10936,"Ġportait":10937,"Ġcommencerai":10938,"view":10939,"ĠÃ©ventuel":10940,"ĠdÃ©marrer":10941,"Ġboom":10942,"Ġfournies":10943,"Ġattendez":10944,"ĠsincÃ¨res":10945,"ĠretraitÃ©s":10946,"ĠintensitÃ©":10947,"Ġenseigner":10948,"ĠdÃ©faill":10949,"Ġlicence":10950,"Ġguider":10951,"Ġpratiquer":10952,"Ġoriginal":10953,"ĠenvisagÃ©e":10954,"ĠsynthÃ¨se":10955,"Ġmajoritaire":10956,"ĠimpunitÃ©":10957,"Ġdormir":10958,"ĠsurcroÃ®t":10959,"Ã©rez":10960,"Ġpic":10961,"Ġcoupes":10962,"tit":10963,"Ġnage":10964,"ĠquÃªte":10965,"ĠÃ©ri":10966,"ĠdÃ©range":10967,"ĠgÃ©rÃ©":10968,"Ġtraitent":10969,"Ġenter":10970,"culaires":10971,"Ġperfe":10972,"Ġexporter":10973,"Ġcourrier":10974,"ĠministÃ©ri":10975,"ĠvisitÃ©":10976,"Ġautoritaire":10977,"Ġeurostat":10978,"Ġassurant":10979,"ĠentraÃ®nent":10980,"ĠdÃ©posÃ©e":10981,"ĠÃ©ventualitÃ©":10982,"Ġpermettraient":10983,"Ġcopie":10984,"ĠfermetÃ©":10985,"Ġfrapper":10986,"ĠcomposÃ©":10987,"ĠtÃ©lÃ©phones":10988,"ĠformulÃ©e":10989,"ĠtransformÃ©":10990,"Ġrenvoyer":10991,"Ġenregistrer":10992,"Ġblocage":10993,"Ġinspection":10994,"Ġinhum":10995,"ĠdivisÃ©":10996,"Ġdomestique":10997,"ĠschÃ©ma":10998,"ĠoxygÃ¨ne":10999,"mie":11000,"uge":11001,"vin":11002,"anation":11003,"Ġmurs":11004,"inateur":11005,"Ġfoyer":11006,"sibilitÃ©":11007,"Ġparts":11008,"Ġinappropri":11009,"ĠdÃ©ro":11010,"Ġmaternelle":11011,"ĠrÃ©alise":11012,"Ġreach":11013,"Ġconqu":11014,"all":11015,"ĠprÃ©le":11016,"Ġchic":11017,"ĠrestÃ©s":11018,"chez":11019,"ĠarmÃ©s":11020,"ĠobÃ©":11021,"Ġabri":11022,"Ġbaign":11023,"ĠinfÃ©rieure":11024,"Ġaugmentations":11025,"ĠpiÃ©":11026,"ĠpiÃ¨ge":11027,"Ġorienter":11028,"ĠÃ©pouv":11029,"Ġurani":11030,"Ġencouragement":11031,"Ġcollabora":11032,"cepticisme":11033,"Ġexcellents":11034,"Ġvoyageurs":11035,"Ġmobiles":11036,"Ġextraordinaires":11037,"Ġrobots":11038,"Ġfamilial":11039,"ĠmultilatÃ©rale":11040,"Ġyougoslave":11041,"Ġrestreindre":11042,"ĠmaÃ®triser":11043,"ĠcompÃ©tents":11044,"Ġinnocents":11045,"ĠmÃ©taph":11046,"ĠpoussÃ©e":11047,"Ġrejoins":11048,"Ġfructueuse":11049,"Ġnominal":11050,"Ġolympiques":11051,"Ġsceptiques":11052,"Ġsouplesse":11053,"Ġuranium":11054,"disme":11055,"eusement":11056,"sins":11057,"Ġponc":11058,"Ġec":11059,"Ġilli":11060,"ĠmaÃ¯s":11061,"ĠrÃ©organis":11062,"Ġchr":11063,"terait":11064,"cesseurs":11065,"ĠprÃ©sidences":11066,"Ġcomportent":11067,"mala":11068,"Ġfinit":11069,"ĠdotÃ©e":11070,"ĠrÃ©pri":11071,"Ġproduites":11072,"Ġcourante":11073,"Ġprince":11074,"ĠgÃ©nie":11075,"Ġtuber":11076,"ĠnaÃ®tre":11077,"Ġuniform":11078,"Ġviolent":11079,"Ġcherchons":11080,"lantation":11081,"Ġanimales":11082,"Ġteneur":11083,"Ġ700":11084,"iness":11085,"Ġirakienne":11086,"ĠassociÃ©e":11087,"Ġappartiennent":11088,"Ġcorrection":11089,"Ġtester":11090,"Ġcollectives":11091,"Ġconsacre":11092,"ĠrelevÃ©":11093,"ĠdÃ©nu":11094,"ĠÃ©tiquette":11095,"Ġcorrespondant":11096,"ĠingÃ©rence":11097,"ĠdÃ©tente":11098,"discri":11099,"Ġimmenses":11100,"Ġignorance":11101,"Ġinspecteurs":11102,"Ġblessures":11103,"ĠdÃ©butÃ©":11104,"Ġdoigts":11105,"Ġpropagation":11106,"Ġcontamin":11107,"ĠdirigÃ©e":11108,"Ġallocations":11109,"Ġstupide":11110,"ĠnÃ©fastes":11111,"Ġrappelez":11112,"ban":11113,"corÃ©":11114,"nob":11115,"rÃ´":11116,"tor":11117,"vard":11118,"ĠlÃ¨":11119,"Ġpalu":11120,"Ġinatt":11121,"trer":11122,"Ġfata":11123,"Ġracon":11124,"Ġconsentis":11125,"Ġtrouvez":11126,"Ġani":11127,"Ġrestitu":11128,"ĠrestÃ©e":11129,"ĠonÃ©":11130,"Ġonze":11131,"Ġassim":11132,"Ġinterag":11133,"Ġinterview":11134,"Ġmarine":11135,"Ġfonder":11136,"istante":11137,"ĠformÃ©":11138,"Ġrecour":11139,"Ġhomologues":11140,"Ġkim":11141,"ĠcoopÃ©ra":11142,"ĠdÃ©solÃ©e":11143,"Ġformations":11144,"Ġdonnerait":11145,"Ġjuridiction":11146,"lantiques":11147,"Ġsubsiste":11148,"ĠcontrÃ´lÃ©e":11149,"ĠprÃ©fÃ¨rent":11150,"ĠpopularitÃ©":11151,"ĠrÃ©volutionnaire":11152,"Ġsommets":11153,"ĠbÃ©bÃ©s":11154,"Ġdictateur":11155,"Ġiii":11156,"Ġclarification":11157,"Ġtemporaires":11158,"Ġconteste":11159,"ĠdÃ©bouchÃ©":11160,"Ġstip":11161,"Ġscandaleux":11162,"Ġmorceaux":11163,"Ġjack":11164,"ĠinspirÃ©":11165,"Ġapplaudissements":11166,"Ġgraphique":11167,"Ġintui":11168,"dents":11169,"my":11170,"pt":11171,"ĠpÃ¨s":11172,"Ġtendre":11173,"ĠÃ©ro":11174,"Ã¨lent":11175,"Ġpark":11176,"Ġini":11177,"Ġexpert":11178,"minaire":11179,"Ġproducteur":11180,"version":11181,"Ġobjective":11182,"ĠÃ©goÃ¯s":11183,"the":11184,"Ġatteler":11185,"ĠmÃ©dioc":11186,"Ġviolents":11187,"Ġrepor":11188,"Ġtentation":11189,"ettering":11190,"Ġbaltes":11191,"ĠexercÃ©e":11192,"Ġrentre":11193,"Ġbrutale":11194,"Ġmutuel":11195,"Ġprudents":11196,"ĠvulnÃ©rabilitÃ©":11197,"owski":11198,"ĠsoupÃ§":11199,"Ġprotestations":11200,"Ġpierres":11201,"Ġdominante":11202,"Ġretenu":11203,"ĠrÃ©pandue":11204,"Ġampli":11205,"ĠfrÃ©quence":11206,"Ġbombarde":11207,"Ġindemnisation":11208,"ĠrÃ©compense":11209,"ĠhydrogÃ¨ne":11210,"Ġcontamination":11211,"Ġtalent":11212,"Ġkey":11213,"Ġmiracle":11214,"ĠÅĵuvrer":11215,"ĠÃ©pouvan":11216,"Ġtubercul":11217,"Ġpaludisme":11218,"ev":11219,"ium":11220,"nistes":11221,"zak":11222,"ĠnÃ©s":11223,"ĠrÃ©h":11224,"Ġplon":11225,"ĠapprÃª":11226,"Ġvocation":11227,"Ġliti":11228,"Ġpartiel":11229,"Ġaccou":11230,"vables":11231,"ĠrÃ©glÃ©":11232,"ĠrÃ©gissant":11233,"Ġpostaux":11234,"Ġaurai":11235,"antile":11236,"ĠrÃ©duites":11237,"Ġalimenter":11238,"ĠpÃ©d":11239,"Ġregardant":11240,"ĠmentionnÃ©e":11241,"Ġchoisie":11242,"Ġprogresse":11243,"Ġexergue":11244,"ĠemployÃ©":11245,"ĠtombÃ©e":11246,"Ġblanchi":11247,"ĠrentabilitÃ©":11248,"Ġdevenues":11249,"Ġcraint":11250,"ĠmenacÃ©e":11251,"Ġdrapeau":11252,"Ġcauser":11253,"ĠdÃ©passent":11254,"Ġurbaines":11255,"Ġnoirs":11256,"Ġcalculs":11257,"Ġliquide":11258,"ĠpÃ©tition":11259,"Ġretenue":11260,"ĠdÃ©signation":11261,"ĠadressÃ©es":11262,"ĠaccÃ©lÃ©ration":11263,"Ġrigoureux":11264,"ĠprÃ©voyant":11265,"Ġinjustice":11266,"ĠÃ©ducatif":11267,"Ġfrustration":11268,"Ġregroup":11269,"ĠvÅĵux":11270,"Ġinsectes":11271,"oboda":11272,"Ġredistribution":11273,"Ġdilemme":11274,"ĠcontrefaÃ§on":11275,"Ġponctu":11276,"Ġtuberculose":11277,"cas":11278,"cope":11279,"dor":11280,"ize":11281,"mÃ¨re":11282,"Ġcit":11283,"Ġachar":11284,"Ġecho":11285,"ĠinÃ©":11286,"ĠblÃ¢":11287,"ĠprÃ©dire":11288,"Ġpoettering":11289,"daient":11290,"Ġabol":11291,"Ġmanuel":11292,"Ġtravailliste":11293,"raisse":11294,"Ġprime":11295,"loie":11296,"Ġbaf":11297,"Ġdemandait":11298,"Ġsoutiendrons":11299,"Ġprofitent":11300,"ĠcÃ´tiÃ¨res":11301,"Ġinstructions":11302,"Ġpoursuivra":11303,"hana":11304,"Ġ120":11305,"Ġacquit":11306,"Ġadministratif":11307,"Ġflexibles":11308,"Ġregretter":11309,"ĠÃ©lectorales":11310,"ĠdÃ©couvertes":11311,"Ġreposent":11312,"Ġreproduction":11313,"Ġurbain":11314,"Ġralentir":11315,"Ġintellectuels":11316,"ĠretrouvÃ©":11317,"ĠdÃ©ployer":11318,"ĠprÃ©ventive":11319,"ĠmaÃ®trise":11320,"Ġanticiper":11321,"ĠrÃ©introdu":11322,"Ġswoboda":11323,"ĠdoublÃ©":11324,"Ġnerveux":11325,"Ġpnb":11326,"Ġinquiets":11327,"Ġdoctrine":11328,"discrimination":11329,"nait":11330,"Ġsir":11331,"ertion":11332,"angÃ©":11333,"ĠlevÃ©":11334,"Ġmaig":11335,"ladi":11336,"Ġplant":11337,"Ġhali":11338,"Ġdissi":11339,"Ġdisais":11340,"maires":11341,"matis":11342,"Ġatout":11343,"ĠdÃ©pendant":11344,"Ġannan":11345,"ĠdÃ©mun":11346,"lstrÃ¶m":11347,"Ġrenvers":11348,"ĠplacÃ©e":11349,"ĠgÃ©nome":11350,"ĠprofitÃ©":11351,"Ġrespectifs":11352,"Ġsecr":11353,"Ġbarnier":11354,"ĠprÃ©cÃ©dÃ©":11355,"Ġrends":11356,"ĠfixÃ©e":11357,"ĠignorÃ©":11358,"Ġexceptionnel":11359,"ĠnumÃ©r":11360,"ĠopÃ©rationnelle":11361,"Ġsymboles":11362,"ĠrÃ©sidence":11363,"Ġdiviser":11364,"Ġurbaine":11365,"Ġtunnel":11366,"Ġpersuad":11367,"ĠlÃ©galement":11368,"Ġrembourser":11369,"Ġgaspillage":11370,"Ġcotonou":11371,"Ġrecrutement":11372,"Ġbouteille":11373,"ctÃ©e":11374,"dr":11375,"stan":11376,"Ġcle":11377,"Ġeco":11378,"Ġmien":11379,"Ġnar":11380,"Ġinau":11381,"Ġbend":11382,"ĠmaternitÃ©":11383,"Ġdues":11384,"ĠgÃ¶":11385,"termination":11386,"aises":11387,"Ġcamions":11388,"ĠÃ©cra":11389,"ĠamÃ¨":11390,"Ġatroc":11391,"Ġorange":11392,"Ġproduise":11393,"Ġassise":11394,"Ġafflux":11395,"ĠgÃ©nial":11396,"Ġcibles":11397,"Ġconstituait":11398,"Ġincomb":11399,"Ġbag":11400,"Ġconnait":11401,"Ġimmeu":11402,"Ġ43":11403,"Ġcharles":11404,"Ġsaisi":11405,"Ġinnovantes":11406,"Ġchancelier":11407,"ĠÃ©merger":11408,"Ġprofonds":11409,"ĠachÃ¨tent":11410,"Ġperdue":11411,"ĠtÃ©lÃ©phon":11412,"ĠtournÃ©":11413,"ĠsÃ©parÃ©ment":11414,"Ġinspirer":11415,"Ġlicences":11416,"Ġbrown":11417,"ĠenregistrÃ©s":11418,"ĠtÃ©moigner":11419,"Ġbleue":11420,"ĠgÃ©nÃ©ralisÃ©e":11421,"ĠcompliquÃ©e":11422,"Ġintrins":11423,"Ġprocureur":11424,"Ġlaitiers":11425,"Ġbolkes":11426,"Ġsoudainement":11427,"ĠbactÃ©ries":11428,"Ġbolkestein":11429,"--":11430,"cours":11431,"lur":11432,"Ġpne":11433,"ouÃ©":11434,"Ġlevier":11435,"Ġfle":11436,"ĠdÃ©prÃ©":11437,"Ġmaman":11438,"Ġconfier":11439,"ĠprÃ©li":11440,"turer":11441,"endus":11442,"diff":11443,"Ġcodi":11444,"Ġvive":11445,"Ġterriblement":11446,"ĠdÃ©mographiques":11447,"Ã¨gent":11448,"desh":11449,"Ġvisiter":11450,"Ġdouz":11451,"ĠorganisÃ©es":11452,"Ġindication":11453,"Åĵurs":11454,"Ġ38":11455,"Ġtropic":11456,"Ġreconnus":11457,"Ġsucc":11458,"Ġformellement":11459,"Ġessayant":11460,"ĠlÃ©gislateurs":11461,"Ġsubsistent":11462,"ĠinquiÃ©tante":11463,"Ġhabitudes":11464,"Ġbusiness":11465,"Ġhonorer":11466,"Ġnormalisation":11467,"Ġrentable":11468,"Ġsignificatives":11469,"Ġpesc":11470,"ĠdistribuÃ©":11471,"ĠhonnÃªtement":11472,"ĠvulnÃ©rable":11473,"ĠhandicapÃ©s":11474,"Ġtendent":11475,"ĠaccompagnÃ©":11476,"ĠcommuniquÃ©":11477,"Ġdivor":11478,"Ġdescendre":11479,"Ġcoloni":11480,"ĠintermÃ©diaires":11481,"ĠproportionnalitÃ©":11482,"ĠperÃ§ue":11483,"Ã©mie":11484,"Ġsupranation":11485,"Ġfragiles":11486,"Ġmigratoires":11487,"Ġeffray":11488,"Ġchypriote":11489,"ĠÃ©bran":11490,"Ġatomique":11491,"ĠinconvÃ©nients":11492,"prÃ©sent":11493,"Ġtransporteurs":11494,"fel":11495,"jad":11496,"kis":11497,"nographie":11498,"xtes":11499,"Ġours":11500,"Ġmeu":11501,"orent":11502,"chenko":11503,"Ġcommer":11504,"Ġhel":11505,"Ġrationnelle":11506,"Ġliaison":11507,"Ġamer":11508,"gnÃ©":11509,"Ġpersiste":11510,"endrez":11511,"ctant":11512,"ĠsÃ©parer":11513,"parcours":11514,"orable":11515,"Ġmontagnes":11516,"Ġindiquant":11517,"ĠÅĵufs":11518,"otyp":11519,"Ġlarmes":11520,"ĠmodifiÃ©es":11521,"Ġsangu":11522,"rup":11523,"Ġsolenne":11524,"Ġtarder":11525,"ĠidentifiÃ©":11526,"ĠÃ©voquÃ©e":11527,"Ġtenues":11528,"Ġexacte":11529,"Ġretourne":11530,"Ġinformatiques":11531,"Ġphotograph":11532,"Ġrurale":11533,"ĠremplacÃ©":11534,"Ġcomposante":11535,"ĠcaractÃ©rise":11536,"Ġjohan":11537,"Ġmenacer":11538,"ĠbilatÃ©ral":11539,"ĠingÃ©nierie":11540,"ĠblessÃ©":11541,"Ġattraper":11542,"Ġrenvoi":11543,"Ġmentale":11544,"ĠdÃ©sespÃ©rÃ©ment":11545,"Ġincondi":11546,"Ġanders":11547,"Ġtacis":11548,"Ġincidences":11549,"Ġsouscris":11550,"ĠvolatilitÃ©":11551,"Ġcombustible":11552,"ĠdÃ©tourner":11553,"itarisme":11554,"Ġallocation":11555,"Ġspatiale":11556,"Ġrattraper":11557,"ĠthaÃ¯lande":11558,"ĠautodÃ©termination":11559,"brer":11560,"dul":11561,"tora":11562,"yr":11563,"ĠlÃ¨ve":11564,"Ġpond":11565,"ouch":11566,"Ġtoit":11567,"raf":11568,"cient":11569,"Ġoli":11570,"Ġrail":11571,"Ġsaper":11572,"Ġsouter":11573,"Ġoncle":11574,"mara":11575,"abu":11576,"Ġmart":11577,"ĠposÃ©s":11578,"Ġpouviez":11579,"tisf":11580,"ĠdÃ©brou":11581,"Ġcourbe":11582,"Ġdomination":11583,"ologue":11584,"ĠdurÃ©":11585,"Ġsubord":11586,"Ġconsommer":11587,"Ġurgents":11588,"Ġsuccessi":11589,"Ġiraq":11590,"Ġglobaux":11591,"Ġprofessions":11592,"Ġapparente":11593,"ĠconfrontÃ©es":11594,"Ġpenche":11595,"ĠsoirÃ©e":11596,"ĠachÃ¨vement":11597,"Ã¶der":11598,"Ġsexuel":11599,"Ġgarantis":11600,"Ġpersuader":11601,"ĠbaissÃ©":11602,"Ġadulte":11603,"Ġsaoudi":11604,"ĠmacroÃ©conomique":11605,"hodo":11606,"Ġrecueillir":11607,"Ġdiversification":11608,"Ġmassacre":11609,"ĠtraÃ®ne":11610,"Ġcoexistence":11611,"Ġspirit":11612,"ĠcrÃ©anciers":11613,"cons":11614,"Ġose":11615,"Ġaph":11616,"ĠaisÃ©":11617,"outs":11618,"urations":11619,"lect":11620,"Ġpala":11621,"omas":11622,"ald":11623,"ĠprÃ©su":11624,"roga":11625,"pel":11626,"Ġtragiques":11627,"Ġsale":11628,"Ġcomptons":11629,"Ġasy":11630,"Ġalerte":11631,"Ġinteraction":11632,"isser":11633,"oca":11634,"Ġinsa":11635,"Ġattitudes":11636,"alisations":11637,"Ġproductions":11638,"ĠespÃ©rant":11639,"ĠcrÃ©ons":11640,"ĠdiffÃ©rends":11641,"Ġstagnation":11642,"Ġproposant":11643,"Ġenseignements":11644,"Ġindienne":11645,"Ġmichel":11646,"Ġarrivons":11647,"Ġabstra":11648,"Ġpromen":11649,"Ġcombiner":11650,"Ġroutiers":11651,"Ġestimer":11652,"Ġexpriment":11653,"ĠdÃ©cidÃ©e":11654,"Ġattar":11655,"Ġinvitons":11656,"Ġfortune":11657,"ĠprÃ©occupÃ©":11658,"ĠprÃ©fÃ©re":11659,"ĠthÃ©orique":11660,"ĠeffectuÃ©es":11661,"Ġrenouvellement":11662,"Ġneutre":11663,"Ġrobe":11664,"ĠintÃ©ressent":11665,"Ġsommeil":11666,"Ġhygi":11667,"Ġtransfrontalier":11668,"Ġproportions":11669,"ĠcensÃ©s":11670,"prÃ©sidente":11671,"Ġgarantissent":11672,"Ġdiscriminatoire":11673,"ĠadressÃ©e":11674,"Ġrevendi":11675,"Ġbombes":11676,"Ġmanipulation":11677,"Ġregroupe":11678,"ĠrÃ©acteurs":11679,"ĠdÃ©rÃ©glement":11680,"Ġsunn":11681,"Ġportefeuille":11682,"ĠatrocitÃ©s":11683,"borg":11684,"hard":11685,"lants":11686,"Ġdons":11687,"itr":11688,"Ġtcher":11689,"Ġfolie":11690,"ĠÃ©ve":11691,"tataires":11692,"Ġinvention":11693,"irs":11694,"Ġbis":11695,"Ġrebelles":11696,"ĠprÃ©roga":11697,"rot":11698,"ĠexigÃ©":11699,"mbres":11700,"Ġdiable":11701,"Ġlier":11702,"inejad":11703,"Ġinsistance":11704,"Ġsocialement":11705,"ication":11706,"Ġ193":11707,"ĠmodÃ©ration":11708,"arienne":11709,"Ġchirac":11710,"ĠdÃ©termine":11711,"ĠmentionnÃ©es":11712,"Ġachever":11713,"Ġtraditionnellement":11714,"ficatif":11715,"Ġminutie":11716,"ĠprÃ©tendu":11717,"Ġtextiles":11718,"Ġsuspendue":11719,"ĠpersonnalitÃ©s":11720,"Ġmeurtri":11721,"Ġprimordiale":11722,"Ġtransatlantiques":11723,"ĠdouaniÃ¨res":11724,"ĠÃ©crivain":11725,"ĠdÃ©sert":11726,"ĠsupÃ©rieurs":11727,"Ġadolesc":11728,"Ġimprob":11729,"Ġrecevront":11730,"Ġrwanda":11731,"Ġtoxicom":11732,"Ġperfection":11733,"zu":11734,"Ġpel":11735,"Ġmons":11736,"Ġnaiss":11737,"unes":11738,"Ġfleur":11739,"teuse":11740,"Ġautrui":11741,"tains":11742,"cien":11743,"aisons":11744,"Ġtrau":11745,"Ġdiab":11746,"fiants":11747,"Ġobtiennent":11748,"Ġeffac":11749,"oncture":11750,"ĠdÃ©pri":11751,"ĠdÃ©pÃ´t":11752,"Ġabais":11753,"Ġabbas":11754,"ĠaccordÃ©s":11755,"Ġtig":11756,"Ġcasse":11757,"Ġeffectif":11758,"ĠlÃ©galitÃ©":11759,"Ġpositivement":11760,"Ġincin":11761,"Ġ191":11762,"phab":11763,"ĠautorisÃ©e":11764,"Ġservira":11765,"Ġordres":11766,"ĠreprÃ©sentÃ©s":11767,"Ġwol":11768,"ago":11769,"Ġfranchir":11770,"ĠprotÃ©gÃ©es":11771,"ĠrÃ©glementaires":11772,"Ġremplis":11773,"Ġcirculer":11774,"Ġinnomb":11775,"ĠrespectÃ©e":11776,"Ġrenforcera":11777,"Ġusagers":11778,"hima":11779,"Ġexportateurs":11780,"ĠoccupÃ©e":11781,"Ġcyc":11782,"ĠachÃ¨te":11783,"ĠdÃ©non":11784,"Ġconviens":11785,"Ġdanu":11786,"Ġperdants":11787,"Ġinscrits":11788,"Ġmassives":11789,"Ġpersonnage":11790,"Ġprotestation":11791,"Ġpomme":11792,"ĠdivisÃ©e":11793,"ĠprÃ©tendent":11794,"Ġrestreint":11795,"estimer":11796,"Ġ1960":11797,"ĠÃ©quivaut":11798,"Ġexpliquent":11799,"Ġlogiciel":11800,"Ġlicenciements":11801,"Ġarrangements":11802,"ĠrÃ©publicains":11803,"ĠÃ©cosystÃ¨mes":11804,"Ġindubitablement":11805,"nobyl":11806,"Ġblanchiment":11807,"Ġjohannes":11808,"Ġdau":11809,"Ġlent":11810,"Ġpis":11811,"Ġcord":11812,"Ġpaient":11813,"Ġpavil":11814,"orient":11815,"Ġqueue":11816,"medi":11817,"ĠdÃ©lit":11818,"net":11819,"ĠchÃ¢":11820,"gements":11821,"oirs":11822,"ulations":11823,"ĠÃ©coss":11824,"Ã©rait":11825,"cules":11826,"Ġagent":11827,"Ġcoca":11828,"ositions":11829,"Ġconseillers":11830,"licites":11831,"Ġassain":11832,"ĠcrÃ©Ã©es":11833,"Ġessaient":11834,"Ġhomog":11835,"Ġminus":11836,"Ġvalables":11837,"ĠvisibilitÃ©":11838,"Ġincul":11839,"Ġferre":11840,"Ġenseigne":11841,"ĠcorrÃ©":11842,"Ġphas":11843,"Ġrenforcent":11844,"ĠreprÃ©sentait":11845,"Ġviolente":11846,"Ġpleurer":11847,"Ġcircu":11848,"Ġmercure":11849,"ĠtÃ©lÃ©vis":11850,"Ġorigines":11851,"Ġglobales":11852,"Ġ85":11853,"rettes":11854,"Ġcontribuerait":11855,"ĠaccroÃ®t":11856,"ĠalliÃ©":11857,"Ġtribune":11858,"Ġvisiteurs":11859,"Ġreposant":11860,"Ġciterai":11861,"Ġsouple":11862,"aÃ¯da":11863,"Ġmonopoles":11864,"ĠqaÃ¯da":11865,"ĠadhÃ¨re":11866,"Ġreviendrait":11867,"Ġoreille":11868,"Ġdesquelles":11869,"Ġescalade":11870,"Ġambassadeur":11871,"ĠnÃ©gligeable":11872,"Ġexhaustive":11873,"Ġcompromettre":11874,"ĠdÃ©partement":11875,"Ġminoritaires":11876,"Ġorthodo":11877,"Ġcollaborateurs":11878,"Ġdanube":11879,"wo":11880,"Ã©sie":11881,"Ġengr":11882,"Ã¨ves":11883,"Ġjordanie":11884,"Ġbillet":11885,"Ġpourv":11886,"Ġmag":11887,"auteur":11888,"dio":11889,"oile":11890,"ĠtraÃ§":11891,"mies":11892,"Ġcertification":11893,"ĠdÃ©cro":11894,"Ġmarke":11895,"eilles":11896,"ĠdÃ©pis":11897,"entielle":11898,"ĠsÃ©pare":11899,"itude":11900,"Ġvieill":11901,"ĠfiÃ¨re":11902,"Ġbrou":11903,"Ġoffensive":11904,"ĠisolÃ©":11905,"ĠremÃ¨de":11906,"Ġtrouvera":11907,"Ġsaison":11908,"Ġentrave":11909,"Ġattendais":11910,"ĠintÃ©ressÃ©es":11911,"Ġfixation":11912,"Ġsinges":11913,"Ġcouches":11914,"Ġsupermar":11915,"Ġlonguement":11916,"ĠapprouvÃ©s":11917,"Ġtechniquement":11918,"ĠexposÃ©es":11919,"ĠdÃ©roulent":11920,"Ġbureaucratiques":11921,"Ġemprunts":11922,"ĠcensÃ©e":11923,"ĠsÃ©parÃ©s":11924,"Ġterrestres":11925,"ĠconsultÃ©":11926,"ĠÃ©pidÃ©":11927,"Ġpoliciers":11928,"Ġahmad":11929,"Ġmusulmane":11930,"Ġamendes":11931,"ĠslovÃ¨ne":11932,"Ġcatholique":11933,"Ġdresser":11934,"ĠdÃ©Ã§us":11935,"Ġenvah":11936,"Ġtapis":11937,"Ġpalacio":11938,"Ġinnombrables":11939,"iz":11940,"sÃ©e":11941,"Ġdys":11942,"Ġpd":11943,"Ġpuni":11944,"Ġaise":11945,"Ġsonne":11946,"Ġsha":11947,"Ġuniques":11948,"ĠfÃ¢":11949,"ĠfumÃ©e":11950,"Ġparviendra":11951,"ĠrÃ©tro":11952,"Ġgor":11953,"Ġdanse":11954,"Ġhit":11955,"Ġimporter":11956,"Ġserbe":11957,"Ġcomplais":11958,"Ġagression":11959,"Ġpermets":11960,"asa":11961,"ĠnaÃ¯":11962,"ologistes":11963,"Ġsouhaitez":11964,"Ġindice":11965,"Ġremercions":11966,"Ġprestation":11967,"ĠrÃ©alisable":11968,"Ġversions":11969,"ĠbasÃ©s":11970,"ĠvolÃ©":11971,"Ġestimation":11972,"Ġaucunement":11973,"Ġcharger":11974,"namiques":11975,"ĠrÃ©ussie":11976,"Ġattacher":11977,"Ġhecta":11978,"ĠassociÃ©es":11979,"Ġgagnent":11980,"just":11981,"Ġexceptionnelles":11982,"Ġextradition":11983,"Ġentendent":11984,"ĠfrÃ©quent":11985,"rocitÃ©":11986,"Ġcivilisations":11987,"ĠamÃ©liorent":11988,"Ġcriminel":11989,"ĠprÃ©jugÃ©s":11990,"Ġbienvenu":11991,"Ġslovaque":11992,"Ġscolaires":11993,"Ġoriginale":11994,"ĠdÃ©tecter":11995,"Ġcamion":11996,"Ġdiagnosti":11997,"Ġpareil":11998,"Ġexcessif":11999,"Ġvaccins":12000,"ĠdÃ©sintÃ©":12001,"ĠmÃ©contentement":12002,"ĠrÃ©ciproque":12003,"ĠrÃ©habil":12004,"Ġtchernobyl":12005,"ttini":12006,"Â·":12007,"Ġ&":12008,"onds":12009,"ĠalÃ©":12010,"ouement":12011,"ĠmÃ©ri":12012,"Ġqual":12013,"Ġfes":12014,"ĠÃ©min":12015,"Ġrand":12016,"ĠavÃ©rÃ©e":12017,"rol":12018,"teront":12019,"diques":12020,"Ġconsentement":12021,"ortant":12022,"Ġcomptables":12023,"ĠperÃ§u":12024,"ĠviÃªt":12025,"ĠdÃ©col":12026,"Ġabeilles":12027,"Ġannulation":12028,"Ġpriver":12029,"Ġnationaliste":12030,"Ġvisibles":12031,"ĠpensÃ©es":12032,"Ġaugmentant":12033,"ĠsensÃ©e":12034,"ĠprÃ©vision":12035,"Ġtacti":12036,"Ġcombats":12037,"illÃ©s":12038,"Ġencouragent":12039,"visibles":12040,"Ġremporter":12041,"Ġmultitude":12042,"Ġrecommen":12043,"Ġassocie":12044,"Ġdessiner":12045,"ĠassurÃ©s":12046,"ĠÃ©voquÃ©s":12047,"Ġcohn":12048,"ĠfranÃ§aises":12049,"ĠrÃ©gulier":12050,"ĠsupprimÃ©":12051,"ĠcrÃ©dibles":12052,"Ġsouverain":12053,"ĠdÃ©rouler":12054,"ĠisraÃ©liennes":12055,"Ġrallier":12056,"Ġaccusation":12057,"Ġprudente":12058,"Ġpertinence":12059,"ĠentraÃ®nerait":12060,"ĠwallstrÃ¶m":12061,"Ġoiseau":12062,"Ġgratuitement":12063,"ĠgÃ©nÃ©tiques":12064,"ĠscÃ©narios":12065,"ĠpossÃ©der":12066,"Ġcompatibles":12067,"ĠrÃ©ciprocitÃ©":12068,"ĠattÃ©nu":12069,"omÃ©tri":12070,"Ġinterrompue":12071,"ĠpÃ©riphÃ©rie":12072,"ĠpÃ©riphÃ©riques":12073,"ĠmolÃ©cules":12074,"Ġtangible":12075,"Ġredoubler":12076,"Ġchirurg":12077,"Ġwiki":12078,"ĠretombÃ©es":12079,"Ġmalentendu":12080,"ĠincomprÃ©hensible":12081,"Ġreconstruire":12082,"Ġluxembourgeoise":12083,"ĠinterdÃ©p":12084,"Ġauthentique":12085,"Ġmarketing":12086,"ets":12087,"Ġtiss":12088,"Ġcous":12089,"Ġnam":12090,"Ġfana":12091,"Ġvendu":12092,"sivitÃ©":12093,"Ġdescription":12094,"Ġrit":12095,"Ġintra":12096,"Ġboy":12097,"ĠmaÃ®tre":12098,"cions":12099,"Ġavouer":12100,"Ġtristes":12101,"Ġcabil":12102,"Ġrestait":12103,"Ġouz":12104,"Ġassie":12105,"Ġinsistons":12106,"Ġdiffuser":12107,"Ġvoudraient":12108,"ĠgÃ©nÃ©r":12109,"ĠmenÃ©s":12110,"Ġcentaine":12111,"Ġdame":12112,"Ġjouit":12113,"atson":12114,"Ġaugmentera":12115,"Ġgratitude":12116,"Ġwatson":12117,"Ġpiano":12118,"Ġparticipant":12119,"Ġeurojust":12120,"Ġquoique":12121,"Ġfrattini":12122,"Ġsuccesseur":12123,"ĠmodÃ©rÃ©s":12124,"Ġdemanderais":12125,"ĠarrÃªtez":12126,"ĠprÃ©occupent":12127,"Ġobtenez":12128,"Ġluttent":12129,"Ġprendront":12130,"Ġexercent":12131,"Ġprostitution":12132,"ĠimportÃ©s":12133,"Ġachats":12134,"ĠrÃ©pÃ©ti":12135,"Ġinsuffisantes":12136,"ĠsoviÃ©tiques":12137,"Ġlouable":12138,"Ġcroyance":12139,"ĠengendrÃ©":12140,"ĠconÃ§us":12141,"Ġalarme":12142,"Ġdarwin":12143,"tagon":12144,"Ġsignifierait":12145,"Ġrespectueux":12146,"ĠdÃ©savan":12147,"Ġcorbett":12148,"Ġouganda":12149,"Ġbendit":12150,"Ġphases":12151,"ĠmÃ©ridi":12152,"Ġcabillaud":12153,"har":12154,"Ġster":12155,"istait":12156,"Ġlampe":12157,"Ġleon":12158,"teborg":12159,"ĠÃ©mises":12160,"ouse":12161,"Ġsel":12162,"Ġextin":12163,"geance":12164,"Ġcamer":12165,"tronom":12166,"Ġnotions":12167,"Ġaccises":12168,"dad":12169,"Ġentretien":12170,"Ġeffici":12171,"Ġcoins":12172,"Ġposse":12173,"mines":12174,"ĠdiffÃ¨re":12175,"ĠdÃ©mÃ©n":12176,"ĠlÃ©gaux":12177,"Ġvraies":12178,"Ġincite":12179,"Ġinfantile":12180,"Ġverser":12181,"Ġbriser":12182,"Ġgram":12183,"Ġrefonte":12184,"Ġlanka":12185,"ĠÃ©toile":12186,"ĠappelÃ©s":12187,"ĠprÃ©occupant":12188,"ĠprÃ©occupante":12189,"Ġmuti":12190,"Ġoubliez":12191,"Ġcultiv":12192,"Ġfalsi":12193,"Ġminimal":12194,"ĠmatÃ©riels":12195,"Ġperdus":12196,"Ġpertinents":12197,"Ġparcours":12198,"ĠhypothÃ©c":12199,"Ġbirman":12200,"ĠÃ©prouve":12201,"ĠtÃ©moignent":12202,"Ġmascul":12203,"Ġincluent":12204,"Ġincluant":12205,"Ġincendie":12206,"Ġreviendrai":12207,"ĠrÃ©affirmer":12208,"Ġtransposer":12209,"ĠmÃ©diatique":12210,"Ġdomestiques":12211,"ĠsÃ©nat":12212,"Ġsmith":12213,"Ġconjoncture":12214,"Ġpollueur":12215,"Ġdynamiques":12216,"Ġhalieutiques":12217,"ĠgÃ¶teborg":12218,"Ġaphteuse":12219,"Ġjohannesb":12220,"hend":12221,"nd":12222,"orld":12223,"ĠÃ©mette":12224,"ĠÃ©oli":12225,"ĠdÃ©for":12226,"ĠmaÃ®tres":12227,"Ġconvenir":12228,"Ġraci":12229,"Ġimplant":12230,"Ġimplicite":12231,"Ġsach":12232,"Ġamies":12233,"lerai":12234,"asmus":12235,"ards":12236,"Ġuen":12237,"udence":12238,"guÃ©e":12239,"ĠconfÃ¨re":12240,"Ġgouvernementaux":12241,"Ġcontractu":12242,"Ġjoueur":12243,"arak":12244,"Ġzo":12245,"ĠrenforcÃ©es":12246,"Ġchev":12247,"ĠindÃ©si":12248,"ĠindÃ©finiment":12249,"Ġreviennent":12250,"Ġfournie":12251,"Ġerasmus":12252,"Ġregardent":12253,"Ġgazodu":12254,"ĠdÃ©fenseur":12255,"ĠrÃ©vÃ¨lent":12256,"ĠrecommandÃ©":12257,"ĠapprÃ©hend":12258,"Ġfavorisent":12259,"Ġfavorisant":12260,"Ġaimez":12261,"Ġremplace":12262,"Ġminimale":12263,"Ġpanique":12264,"ĠmenacÃ©es":12265,"ĠtÃ©moin":12266,"Ġhyper":12267,"Ġreconnaissante":12268,"ĠamÃ©liorÃ©es":12269,"Ġintervenus":12270,"ĠsupposÃ©":12271,"Ġmensong":12272,"ĠindemnitÃ©s":12273,"Ġtactique":12274,"Ġreconsid":12275,"Ġincontestable":12276,"ĠpropriÃ©taire":12277,"Ġsurvenus":12278,"Ġgamme":12279,"Ġcardiaque":12280,"ĠparamÃ¨tres":12281,"ĠcondolÃ©":12282,"Ġcigarettes":12283,"Ġnavals":12284,"ĠdÃ©monstration":12285,"Ġstreet":12286,"Ġchrist":12287,"Ġahmadinejad":12288,"bri":12289,"cÃ¨lement":12290,"tÃ¨re":12291,"Ãº":12292,"Ġdras":12293,"Ġmyst":12294,"itait":12295,"irons":12296,"Ġmaire":12297,"Ġreviens":12298,"oser":12299,"Ġoz":12300,"Ġtrous":12301,"ulÃ©s":12302,"Ġentente":12303,"Ġcessent":12304,"Ġlife":12305,"Ġ1000":12306,"ĠnÃ©oli":12307,"ĠexpÃ©":12308,"ĠconseillÃ©":12309,"Ġproduira":12310,"Ġcontrepar":12311,"Ġeffectifs":12312,"Ġmaintenue":12313,"Ġdemanda":12314,"tentri":12315,"tielles":12316,"Ġpuissiez":12317,"Ġ47":12318,"ĠjustifiÃ©es":12319,"Ġexclut":12320,"Ġcapitaliste":12321,"Ġmercos":12322,"ĠÃ©nonc":12323,"ĠharcÃ¨lement":12324,"Ġseptentri":12325,"ĠdÃ©finitions":12326,"Ġrecette":12327,"Ġchangera":12328,"Ġindividuel":12329,"Ġexigeons":12330,"Ġsexuels":12331,"Ġattentif":12332,"ĠsuggÃ¨rent":12333,"Ġremarquables":12334,"ĠÃ©gyptien":12335,"Ġinsuffisants":12336,"Ã©rera":12337,"Ġprotester":12338,"Ġafficher":12339,"ĠimpÃ©rativement":12340,"Ġabattage":12341,"Ġsauvegarder":12342,"ĠgÃ©nÃ©reux":12343,"Ġrigoureuse":12344,"Ġstandards":12345,"Ġrecueilli":12346,"Ġscrupule":12347,"ĠprononcÃ©e":12348,"Ġdistorsion":12349,"ĠintolÃ©rable":12350,"ĠsupÃ©rieures":12351,"Ġpcp":12352,"ĠdiscrÃ©tion":12353,"Ġmusic":12354,"ĠsymptÃ´mes":12355,"Ġphilipp":12356,"ĠpÃ¨sent":12357,"ĠintrinsÃ¨que":12358,"ĠhygiÃ¨ne":12359,"Ġqualita":12360,"ĠgÃ©nÃ©rositÃ©":12361,"Ġposselt":12362,"ĠcondolÃ©ances":12363,"ĠnÃ©olibÃ©ra":12364,"Ġmercosur":12365,"pal":12366,"Ġcurie":12367,"Ġsains":12368,"erme":12369,"Ġev":12370,"Ġmys":12371,"Ġtribu":12372,"rages":12373,"illar":12374,"ortable":12375,"Ġprit":12376,"sile":12377,"Ġbov":12378,"ĠdÃ©tient":12379,"ĠrÃ©uti":12380,"ĠrÃ©Ã©quili":12381,"Ġgains":12382,"arov":12383,"archie":12384,"Ġpoche":12385,"Ġimpa":12386,"Ġfinissent":12387,"Ġinterlocu":12388,"Ġinstable":12389,"ĠdÃ©ca":12390,"Ġaccordant":12391,"tiste":12392,"ĠopÃ¨rent":12393,"ĠderniÃ¨rement":12394,"Ġplaign":12395,"Ġgrandir":12396,"Ġcontinents":12397,"Ġlucra":12398,"Ġ2050":12399,"Ġbanane":12400,"Ġreconnues":12401,"Ġatteign":12402,"Ġworld":12403,"Ġcontribuant":12404,"Ġfournissant":12405,"Ġtyran":12406,"ĠlaissÃ©e":12407,"Ġgestionnaires":12408,"Ġdisposions":12409,"Ġbouge":12410,"Ġboudd":12411,"Ġembras":12412,"Ġgagnant":12413,"Ġigno":12414,"ĠeffectuÃ©e":12415,"Ġcontinuellement":12416,"ĠexÃ©cuter":12417,"ĠenquÃªter":12418,"ĠidÃ©ologiques":12419,"Ġemprunt":12420,"ĠÃ©pargner":12421,"Ġenseignant":12422,"Ġrejetons":12423,"Ġinspire":12424,"ĠvidÃ©os":12425,"Ġsupposer":12426,"Ġrestructurations":12427,"ĠmÃ©diterranÃ©ens":12428,"Ġprotectionnistes":12429,"ĠincompÃ©":12430,"Ġvainque":12431,"Ġsensibiliser":12432,"aharienne":12433,"Ġoreilles":12434,"Ġemballages":12435,"Ġprolongation":12436,"Ġrenflou":12437,"ĠintÃ¨gre":12438,"ĠpoignÃ©e":12439,"Ġnatura":12440,"Ġamoureux":12441,"Ġsahara":12442,"Ġmaurit":12443,"ĠtraÃ§abilitÃ©":12444,"ailles":12445,"dou":12446,"dait":12447,"fre":12448,"mire":12449,"rand":12450,"Ġ00":12451,"Ġdose":12452,"Ġpul":12453,"Ġpause":12454,"Ġfret":12455,"sier":12456,"ĠrÃ´les":12457,"Ġfausses":12458,"ladesh":12459,"ĠpolÃ©":12460,"Ġotages":12461,"Ġrace":12462,"Ġsamedi":12463,"Ġarts":12464,"Ġcodes":12465,"Ã©na":12466,"Ġinsol":12467,"lises":12468,"Ġtransc":12469,"Ġassiste":12470,"ĠfinancÃ©es":12471,"Ġessor":12472,"Ġconcernait":12473,"ĠdÃ©flation":12474,"Ġsoigner":12475,"aisses":12476,"Ġconstructives":12477,"Ġ44":12478,"Ġimposant":12479,"Ġfranco":12480,"Ġtransparents":12481,"ĠcaraÃ¯":12482,"ĠrÃ©jouit":12483,"Ġhabituelle":12484,"Ġschr":12485,"ĠÃ©troites":12486,"Ġimpressionnant":12487,"Ġcruciaux":12488,"ĠidÃ©aux":12489,"Ġfigurant":12490,"Ġnavale":12491,"ĠvariÃ©tÃ©":12492,"Ġislamiste":12493,"ĠbilatÃ©rale":12494,"ĠrÃ©sidents":12495,"Ġconjoint":12496,"Ġsympath":12497,"Ġapprofondissement":12498,"Ġfreiner":12499,"Ġsignataires":12500,"ĠrequiÃ¨rent":12501,"Ġisoler":12502,"Ġchocs":12503,"ĠdÃ©clencher":12504,"Ġexcessivement":12505,"Ġquotidiennement":12506,"Ġcontradictions":12507,"ĠprononcÃ©s":12508,"Ġponts":12509,"ĠÃ©prouvent":12510,"Ġivoire":12511,"ĠnÃ©gligence":12512,"Ġaudiovisuel":12513,"ĠpandÃ©mie":12514,"osaures":12515,"Ġslogan":12516,"Ġcontraste":12517,"Ġmarquage":12518,"Ġbanquiers":12519,"Ġraconte":12520,"ĠdÃ©pistage":12521,"ades":12522,"cine":12523,"dal":12524,"tori":12525,"oule":12526,"Ġsl":12527,"Ġeins":12528,"urgie":12529,"omen":12530,"Ġfous":12531,"Ġvus":12532,"Ġjong":12533,"ĠjetÃ©":12534,"Ġgang":12535,"Ġsakh":12536,"Ġcompatri":12537,"iteurs":12538,"Ġinscription":12539,"Ġsonge":12540,"Ġmanuf":12541,"ĠcrÃ©ateurs":12542,"Ġplaindre":12543,"Ġaffron":12544,"Ġcastro":12545,"Ġvaches":12546,"Ġkg":12547,"outons":12548,"ĠnÃ©gociateurs":12549,"ĠcoÃ»tÃ©":12550,"Ġturques":12551,"Ġsemences":12552,"Ġjames":12553,"Ġthomas":12554,"ĠrÃ©server":12555,"Ġsuivra":12556,"Ġiranienne":12557,"ĠdÃ©sirer":12558,"Ġcoucher":12559,"Ġeffectue":12560,"ĠhÃ©roÃ¯":12561,"Ġculp":12562,"Ġparaly":12563,"ĠdÃ©terminante":12564,"Ġfeuilles":12565,"ĠpropriÃ©tÃ©s":12566,"ĠprÃ©alables":12567,"Ġintensification":12568,"ĠbloquÃ©":12569,"ĠdÃ©gagÃ©":12570,"Ġpolonaise":12571,"ĠallouÃ©":12572,"Ġindicateur":12573,"Ġoptimale":12574,"ĠprÃ©ventives":12575,"Ġcosta":12576,"Ġaccumulation":12577,"Ġdanoise":12578,"ĠpÃ©troliÃ¨re":12579,"ĠpÃ©troliÃ¨res":12580,"Ġexcessifs":12581,"ĠenvisagÃ©es":12582,"Ġukrainiens":12583,"Ġloyale":12584,"Ġsurplus":12585,"ĠÃ©vacu":12586,"Ġempreinte":12587,"Ġrepousser":12588,"ĠprocÃ¨de":12589,"ĠÃ©paule":12590,"Ġmedve":12591,"ĠstÃ©rÃ©":12592,"Ġbiotechnologie":12593,"Ġroumains":12594,"xies":12595,"Ġdop":12596,"Ġnic":12597,"Ġpatrie":12598,"ilÃ©":12599,"Ġfri":12600,"Ġjoli":12601,"Ġinverser":12602,"Ġfassions":12603,"Ġrepar":12604,"auer":12605,"ĠcommÃ©m":12606,"Ġhow":12607,"Ġaca":12608,"Ã©sitÃ©":12609,"Ġdira":12610,"ĠgrÃ¨ve":12611,"Ġpartielle":12612,"ctiv":12613,"ĠobÃ©sitÃ©":12614,"Ġagirait":12615,"Ġinstance":12616,"Ġorb":12617,"Ġcroix":12618,"raisons":12619,"Ġopter":12620,"ĠmÃ©tier":12621,"Ġvoudriez":12622,"ĠcassÃ©":12623,"ĠdominÃ©":12624,"ĠminÃ©ra":12625,"Ã¢mes":12626,"Ġadoptent":12627,"ĠÃ©glises":12628,"ĠacceptÃ©es":12629,"Ġgarantira":12630,"Ġnordique":12631,"ĠcoÃ»tent":12632,"ĠimpossibilitÃ©":12633,"Ġportables":12634,"Ġhabite":12635,"cturer":12636,"oliques":12637,"Ġrencontres":12638,"Ġouvriers":12639,"Ġpotentielles":12640,"ĠÃ©voquÃ©es":12641,"Ġcatastrophique":12642,"Ġsortent":12643,"Ġxxe":12644,"Ġtabag":12645,"Ġhormon":12646,"Ġrestauration":12647,"ĠtournÃ©e":12648,"Ġauditions":12649,"ĠamÃ©liorant":12650,"Ġvitesses":12651,"ĠincontrÃ´":12652,"Ġmeurtres":12653,"ĠaxÃ©e":12654,"Ġcliniques":12655,"ĠfiertÃ©":12656,"ĠintÃ©gralement":12657,"ĠintÃ©gralitÃ©":12658,"ĠerronÃ©e":12659,"Ġpunir":12660,"Ġpanneaux":12661,"Ġnettoyer":12662,"Ġjambe":12663,"ĠprivilÃ©giÃ©":12664,"Ġconversations":12665,"Ġprogressiste":12666,"Ġconsentir":12667,"Ġwhite":12668,"Ġintimidation":12669,"Ġaquac":12670,"Ġpasseport":12671,"ĠclÃ´ture":12672,"ĠcaraÃ¯bes":12673,"Ġeinstein":12674,"Ġsakharov":12675,"bour":12676,"hai":12677,"los":12678,"mations":12679,"rop":12680,"ĠlomÃ©":12681,"Ġadam":12682,"eront":12683,"ĠnÃ´tres":12684,"indres":12685,"Ġench":12686,"ĠÃ©ter":12687,"Ġbh":12688,"Ġconcession":12689,"Ġeuratom":12690,"Ġhoc":12691,"Ġol":12692,"ĠtouchÃ©e":12693,"Ġravis":12694,"Ġmoindres":12695,"Ġtrafi":12696,"ulÃ©e":12697,"fiait":12698,"onnant":12699,"ĠÃ©crou":12700,"mif":12701,"vatrice":12702,"Ġallocu":12703,"Ġinterval":12704,"ĠnÃ©pal":12705,"Ġattes":12706,"Ġexpose":12707,"lisÃ©s":12708,"ĠaccordÃ©es":12709,"Ġconcerner":12710,"Ġemploie":12711,"Ġcourent":12712,"ĠfinancÃ©e":12713,"Ġcoloss":12714,"Ġconna":12715,"Ġinflig":12716,"ĠrÃ©duisent":12717,"Ġjouera":12718,"Ġofferte":12719,"Ġtechnocra":12720,"Ġsensation":12721,"Ġatteignent":12722,"Ġ46":12723,"Ġhautes":12724,"Ġpile":12725,"Ġreflet":12726,"Ġconduisent":12727,"Ġther":12728,"ĠinvitÃ©e":12729,"Ġglobe":12730,"Ġpoursuiv":12731,"ĠrencontrÃ©es":12732,"ĠreÃ§ues":12733,"Ġprogressif":12734,"ĠadaptÃ©s":12735,"Ġsouhaiterions":12736,"ĠÃ©vidents":12737,"ĠrÃ©ussites":12738,"Ġissues":12739,"Ġcomposantes":12740,"ĠmatÃ©riau":12741,"Ġlourdement":12742,"ĠhÃ´te":12743,"ĠchrÃ©tienne":12744,"ĠcoÃ»teuse":12745,"ĠaccompagnÃ©e":12746,"Ġtroub":12747,"Ġmicroso":12748,"Ġterrestre":12749,"ĠmultilatÃ©rales":12750,"Ġblocs":12751,"Ġhonteux":12752,"ĠperÃ§oivent":12753,"Ġtalents":12754,"ĠdorÃ©na":12755,"Ġparadoxe":12756,"Ġfrontaliers":12757,"Ġvigilance":12758,"Ġempreintes":12759,"Ġgalaxies":12760,"ĠÃ©crasante":12761,"ĠhiÃ©rarchie":12762,"Ġvraisemblablement":12763,"Ġinsatisf":12764,"Ġmedvedev":12765,"Ġtabagisme":12766,"ĠdorÃ©navant":12767,"eba":12768,"fonction":12769,"iÃ¨re":12770,"Ġlos":12771,"ĠcitÃ©s":12772,"Ġsente":12773,"reprÃ©sent":12774,"erai":12775,"urait":12776,"ung":12777,"Ġrh":12778,"Ġboli":12779,"cie":12780,"Ġgh":12781,"Ġghana":12782,"Ġimb":12783,"ĠpoÃ¨me":12784,"Ġcad":12785,"ĠÃ©claire":12786,"Ġentrera":12787,"Ġcora":12788,"ĠdÃ©pÃ´ts":12789,"Ã§aient":12790,"alisent":12791,"Ġmilitar":12792,"trai":12793,"ĠcrÃ©atures":12794,"Ġadoptons":12795,"Ġmenant":12796,"Ġhumili":12797,"ĠprÃ©cisions":12798,"Ġbassin":12799,"Ġatteind":12800,"Ġpleuv":12801,"Ġmodifie":12802,"ĠÃ©crites":12803,"ĠÃ©lÃ©ph":12804,"ĠdÃ©sireux":12805,"Ġdistribuer":12806,"Ġajouterai":12807,"Ġcycles":12808,"Ġdiplomates":12809,"Ġallemandes":12810,"ĠnumÃ©riques":12811,"Ġcomprenez":12812,"Ġpolluants":12813,"Ġbuts":12814,"Ġbulles":12815,"ĠrÃ©pondant":12816,"ĠirrÃ©ver":12817,"Ġflamb":12818,"Ġarmements":12819,"ĠancÃªtres":12820,"Ġenceintes":12821,"Ġsouscrire":12822,"Ġvendus":12823,"Ġrejoign":12824,"Ġarrangement":12825,"Ġdinosaures":12826,"Ġenglobe":12827,"Ġpharmaceutiques":12828,"ĠdÃ©loyale":12829,"Ġtarifaires":12830,"Ġennuyeux":12831,"ĠÃ©cofin":12832,"Ġredevances":12833,"Ġfacto":12834,"ĠministÃ©rielle":12835,"Ġbagdad":12836,"Ġsunnites":12837,"Ġimprobable":12838,"Ġtissus":12839,"Ġmicrosoft":12840,"barak":12841,"ep":12842,"Ġpion":12843,"Ġlaek":12844,"Ġpack":12845,"Ġunitaire":12846,"orÃ©e":12847,"ĠfÃ»t":12848,"Ġvins":12849,"Ġrui":12850,"Ġrhu":12851,"Ġquere":12852,"iro":12853,"nellement":12854,"ĠrÃ©n":12855,"Ġfailli":12856,"Ġgonf":12857,"Ġproa":12858,"terror":12859,"Ġsavions":12860,"chev":12861,"Ġarsen":12862,"entiel":12863,"Ġseuils":12864,"ĠÃ©vitÃ©":12865,"Ġtirent":12866,"Ġgouverner":12867,"parole":12868,"ĠmontrÃ©e":12869,"Ġkad":12870,"Ġincons":12871,"Ġsignatures":12872,"ĠdÃ©sappr":12873,"ĠrÃ©alisme":12874,"ĠprÃ©caire":12875,"tissements":12876,"illant":12877,"ĠattaquÃ©":12878,"langes":12879,"Ġoriginaire":12880,"Ġmutation":12881,"ĠcontrÃ´lÃ©es":12882,"Ġapparent":12883,"Ġadoptera":12884,"Ġoms":12885,"Ġomni":12886,"ĠimaginÃ©":12887,"Ġembau":12888,"Ġpermission":12889,"ĠcondamnÃ©e":12890,"ynn":12891,"Ġcruciales":12892,"Ġrenouveler":12893,"Ġexaminera":12894,"Ġinsupp":12895,"Ġconsultatif":12896,"Ġbattu":12897,"Ġrigi":12898,"Ġpayeur":12899,"Ġcriminelles":12900,"ĠproblÃ©matiques":12901,"Ġmoubarak":12902,"2001":12903,"Ġclassiques":12904,"Ġglaci":12905,"rome":12906,"Ġclinique":12907,"ĠdÃ©valu":12908,"Ġkazak":12909,"ĠdrÃ´le":12910,"Ġsatellites":12911,"Ġsoulager":12912,"Ġdouloureux":12913,"Ġemmener":12914,"ĠarmÃ©nie":12915,"ĠdÃ©placements":12916,"Ġmythe":12917,"ĠindÃ©niable":12918,"Ġfluctuations":12919,"Ġcontourner":12920,"Ġillusions":12921,"Ġfatah":12922,"Ġecofin":12923,"Ġparalysie":12924,"Ġlaeken":12925,"ij":12926,"ll":12927,"moud":12928,"Ġdat":12929,"estation":12930,"Ġpin":12931,"ĠcÃ¢":12932,"Ġsand":12933,"Ġscepticisme":12934,"rection":12935,"ĠÃ´":12936,"ĠenlÃ¨ve":12937,"med":12938,"tala":12939,"Ġbonnement":12940,"Ġmam":12941,"Ġconce":12942,"ĠpoÃ¨te":12943,"Ġrage":12944,"Ġvotant":12945,"ĠcomptabilitÃ©":12946,"Ã©rabilitÃ©":12947,"Ġcercles":12948,"Ġvides":12949,"ĠdÃ©plor":12950,"Ġposter":12951,"Ġdemie":12952,"ĠespÃ¨rent":12953,"Ã®tront":12954,"Ġdispu":12955,"ĠamenÃ©s":12956,"ĠÃ©gide":12957,"Ġsubit":12958,"Ġcontraires":12959,"Ġabsur":12960,"Ġpromeu":12961,"Ġconstruite":12962,
[...]
