#version: 0.2 - Trained by `huggingface/tokenizers`
Ġ t
Ġt h
Ġ a
i n
r e
Ġth e
o n
a t
Ġ w
i s
Ġ s
e r
e n
Ġ c
Ġ o
i t
Ġ p
a n
Ġ b
o r
Ġ m
Ġt o
e s
Ġ f
o u
Ġ in
i on
Ġo f
a l
Ġa n
e d
Ġ h
in g
Ġ d
a r
r o
i c
Ġ e
Ġan d
en t
Ġ n
l e
t h
Ġ re
a s
Ġ is
v e
o m
Ġb e
Ġth at
s t
l y
i l
Ġ g
Ġ i
c t
Ġ l
Ġ u
Ġw h
Ġ on
at ion
u t
Ġw e
o t
Ġf or
s e
p e
m ent
i d
Ġ it
u r
l d
Ġc om
Ġs t
v er
c e
Ġp ro
Ġh a
o w
Ġ y
Ġc on
o l
Ġa l
Ġd e
Ġth is
r a
r i
Ġa re
or t
Ġ -
th e
c h
Ġa s
it h
u l
Ġe u
k e
Ġn ot
re s
a y
il l
g h
ou ld
Ġha ve
Ġw ith
i r
m p
Ġy ou
Ġn e
Ġm e
Ġ '
at e
Ġu n
Ġs u
Ġeu ro
ou n
a d
t er
Ġcom m
i m
g e
p p
Ġeuro pe
o p
o re
Ġs h
b le
Ġs e
it y
Ġe x
an d
i ve
u st
s ion
o s
l i
Ġw ill
an t
e re
er s
Ġp ar
Ġd o
Ġ v
u n
a in
es s
c i
es t
ic h
Ġh as
q u
w e
Ġa t
Ġ en
Ġb y
i f
gh t
Ġwh ich
Ġeurope an
i es
Ġ le
s o
m b
Ġw or
Ġg o
Ġc h
Ġc oun
e t
â Ģ
Ġp res
th er
is t
Ġal l
Ġ r
a m
Ġs o
Ġa g
Ġc an
u s
Ġw as
Ġ âĢ
al ly
u re
o d
ro m
Ġl i
Ġi mp
om e
Ġ j
is sion
e ct
Ġh e
Ġo r
Ġre s
Ġthe re
ver y
Ġa b
en d
Ġw ould
Ġp ol
ion s
Ġcomm ission
Ġ k
Ġin t
i v
ou t
ou r
a c
Ġf rom
Ġa m
ar d
a k
al l
Ġpres id
Ġal so
Ġo ur
Ġu s
Ġb ut
Ġsh ould
c on
Ġre p
i g
f f
Ġpar t
a ke
l l
u m
u d
Ġa d
mb er
Ġthe y
Ġm ust
Ġbe en
d er
ou s
Ġm ore
Ġpresid ent
at es
u e
Ġcon t
Ġcoun t
an s
Ġli ke
Ġre g
ation s
re e
Ġp e
Ġa c
o c
a b
re at
is h
as t
ul t
Ġf a
a ment
on e
Ġab out
pp ort
Ġwh at
ic al
Ġn o
Ġ qu
Ġon e
o st
th is
Ġthe ir
s i
Ġne ed
ar y
Ġt r
ve l
a ble
Ġp l
re n
Ġm r
i re
ment s
on g
Ġ 1
l o
e ar
Ġd is
Ġo ut
Ġm y
a p
Ġit s
Ġ very
e m
i e
Ġs ome
ci al
an ce
Ġ ri
Ġwh o
a u
Ġ 2
f or
d u
Ġcom p
Ġa ct
Ġthe se
Ġf in
Ġin c
Ġbe c
ĠâĢ Ļ
Ġwor k
Ġt im
n ow
c ess
op le
li ament
Ġu p
d e
Ġth an
0 0
Ġm an
Ġri ght
Ġun ion
Ġpe ople
r ou
Ġrep ort
Ġpar liament
Ġy ear
Ġst ates
Ġpro p
i z
Ġimp ort
r y
en ce
b ut
t e
a g
Ġex p
r u
Ġa pp
Ġc o
w h
Ġs a
con om
Ġcon s
a re
ter n
f ore
o se
Ġt e
it ion
ri es
t s
Ġp re
ic e
Ġe conom
au se
Ġne w
in k
ation al
en s
Ġo ther
Ġp o
Ġtim e
Ġi f
m e
c es
Ġp os
Ġa r
at ed
e l
i a
Ġm ar
Ġe v
Ġme mber
l ic
c y
o g
o k
a ge
Ġpol ic
Ġthe m
Ġcount ries
p t
m s
Ġcon c
a ch
ac k
Ġn ow
Ġbe t
Ġj ust
is e
Ġh ow
ig n
h e
Ġ ra
am e
Ġon ly
Ġk now
i al
in e
Ġde c
Ġs pe
as e
j ect
Ġan y
c il
Ġun der
Ġt ra
Ġprop os
i ous
pe ct
Ġimport ant
Ġde m
' t
Ġcoun cil
id e
oun d
Ġwe re
t ed
Ġs p
Ġw ant
vel op
Ġe ff
it ies
ut ion
res s
Ġde velop
Ġsu pport
Ġbec ause
c ed
ir st
Ġag ain
th ing
if f
Ġf e
Ġth ink
Ġo b
Ġwh en
Ġw ay
ere n
r ic
e ver
Ġpol it
Ġp er
Ġwor ld
Ġre c
Ġin d
ct ion
in d
m r
il ity
i p
Ġint o
Ġm ake
Ġd iff
u b
Ġpolic y
Ġs ay
Ġs er
le ar
a ce
Ġin v
Ġyou r
Ġb o
un d
Ġo ver
Ġt er
for m
Ġo p
se l
Ġm ad
Ġl o
in t
ver n
Ġha d
ing s
Ġis s
Ġ ro
er n
Ġse e
Ġpro ble
t ain
Ġ- -
v ed
Ġag ree
ul ar
Ġt ake
u ch
Ġs y
i ght
Ġle g
Ġof f
Ġeconom ic
Ġc l
Ġin st
r it
Ġpart ic
v ing
Ġgo vern
k s
Ġv ot
Ġh is
Ġcomm it
Ġt w
Ġtr ans
i gh
Ġf irst
at ive
ro w
Ġin tern
Ġsu ch
the re
Ġmar ke
li e
d ay
th at
ent ion
Ġman y
Ġpro g
Ġyear s
an g
Ġth ose
u res
Ġc ould
a ct
g y
Ġa f
Ġqu est
Ġh ere
si ble
Ġst r
Ġd ire
or s
f ul
Ġsu b
Ġpropos al
Ġgo od
Ġbe lie
it e
Ġpolit ical
Ġe very
Ġfa ct
at h
we en
t ing
i an
Ġf und
Ġg reat
Ġbet ween
Ġpro du
or d
v es
p on
Ġbe ing
e p
Ġmad e
m m
Ġtw o
Ġh um
Ġm o
Ġac c
Ġpro v
Ġb as
Ġde b
u es
at ing
x t
Ġcomm un
Ġt ak
r is
or y
Ġg en
Ġev en
Ġre l
Ġc our
Ġm ost
Ġm uch
Ġdo es
Ġconc ern
il d
Ġl ong
Ġg et
Ġ2 00
Ġc lear
Ġthere fore
st em
ar ge
Ġwh ere
Ġh o
an ge
Ġwe ll
Ġhum an
le ct
Ġcon f
Ġre m
Ġpartic ular
re d
ce pt
w ard
Ġres pon
rou p
Ġsy stem
Ġright s
w n
Ġm at
Ġst ate
Ġg roup
Ġdire ct
Ġp ri
Ġbelie ve
h ow
u al
Ġfin an
Ġso cial
ur al
ou gh
Ġapp ro
ub lic
r at
ĠâĢ ĵ
Ġj o
Ġdis c
Ġsa id
Ġs it
Ġh igh
er ation
Ġc all
a mp
is m
Ġm on
l ud
Ġre f
Ġcount ry
Ġn u
Ġm ay
Ġlo ok
as s
er al
Ġpro t
Ġm in
Ġto o
Ġad d
Ġex t
l ow
Ġl a
re ad
it ed
Ġam end
Ġf ar
ie w
Ġdem oc
w ay
Ġthe n
Ġp ut
iv es
Ġagain st
m in
en cy
Ġmarke t
Ġse c
ere st
Ġpo int
Ġgo ing
Ġc ur
Ġs ame
Ġp r
Ġde f
Ġinc re
rou gh
Ġquest ion
Ġen d
Ġto day
Ġu se
Ġs ol
Ġd id
is ion
Ġre al
Ġint erest
Ġre qu
Ġdiff eren
Ġe mp
m an
i le
Ġm a
Ġ ent
Ġf ut
Ġeff ect
Ġat t
y ou
Ġfut ure
ren t
ar t
Ġcont in
Ġt reat
Ġd es
Ġdevelop ment
Ġp ublic
ge t
Ġs i
u ation
Ġ1 9
Ġth rough
Ġst ill
l es
er tain
ow n
if ic
Ġt ur
Ġn ational
it iz
Ġl ast
wh at
Ġcommit te
Ġo wn
Ġfinan cial
Ġgovern ment
Ġas s
Ġc ol
Ġha pp
Ġhe l
Ġh er
mb ers
al th
Ġiss ue
Ġre ally
k ing
Ġg u
Ġreg ard
Ġc itiz
Ġg row
Ġme as
u ally
Ġprot ect
Ġc ar
Ġwh y
Ġprog ra
Ġs c
Ġle ad
Ġintern ational
Ġb ud
Ġhel p
Ġs m
ent s
the y
as on
Ġ %
Ġin form
Ġle vel
pe t
lo y
Ġres ult
Ġcommitte e
iv en
le ment
Ġmat ter
Ġproble m
ol og
es e
Ġ ke
Ġt al
t y
Ġen v
l ed
is ed
Ġcon st
n ing
con d
Ġcour se
Ġcons id
ru ct
Ġcommission er
Ġb r
b ility
Ġb ack
Ġp ow
read y
Ġm ak
Ġdeb ate
Ġcitiz ens
Ġin ter
Ġv iew
Ġp ers
Ġal ready
Ġsit uation
Ġpos sible
Ġre ason
Ġho pe
o od
a il
g an
in ce
sel f
Ġinc lud
ir on
Ġme mbers
u th
i ed
ul ation
Ġbo th
ill ion
Ġb u
Ġpro cess
Ġex amp
et y
s ure
ou se
ic t
Ġs ign
Ġw ar
Ġc ertain
Ġcom e
Ġres ol
Ġen er
Ġd ra
Ġor der
w or
Ġagree ment
Ġc ent
ra ct
Ġenv iron
Ġb an
ur ing
Ġse t
h ip
ic i
Ġbe fore
Ġenviron ment
b al
Ġa ch
Ġas k
how ever
ch n
Ġco op
er ic
Ġach ie
ci p
or ity
Ġg lo
Ġener gy
t le
Ġh im
Ġad op
Ġf ul
Ġd ay
Ġdifferen t
Ġne g
Ġa ble
Ġsome thing
ic es
o ther
Ġtrans p
f t
Ġbud get
l ish
Ġa ff
Ġinst it
Ġc ase
Ġcom pet
ic ally
Ġcomm on
Ġc ap
ut ions
Ġth ings
Ġla w
ur ther
Ġcommun ity
r ation
g in
Ġvot e
Ġh ouse
Ġst and
Ġinv est
n e
Ġcur rent
Ġm ed
Ġc ris
Ġfor m
in a
om en
Ġexamp le
Ġpre v
Ġwith in
Ġd own
Ġch ange
t en
Ġdisc us
Ġser v
Ġma j
ri but
Ġglo bal
it s
ur ity
Ġi de
ate ly
Ġbe h
Ġpres ent
Ġg ive
Ġmeas ures
Ġm ain
Ġsu c
Ġwith out
Ġc a
Ġf ore
Ġhow ever
e ur
Ġam eric
l u
Ġpl ace
Ġme ans
Ġte chn
Ġl it
Ġl if
Ġin f
e f
m en
Ġtak en
Ġimp ro
Ġproble ms
Ġm od
Ġsec urity
Ġres pect
Ġsi mp
Ġhe alth
is l
Ġaf ter
Ġse ct
Ġstr ate
ver s
Ġnu mber
Ġbet ter
oun t
t o
Ġa uth
Ġf ra
Ġde al
Ġb us
Ġ2 0
b e
ath er
c ome
Ġpr in
Ġun ited
Ġreg ion
Ġcoop eration
Ġcris is
ere d
Ġpow er
Ġinform ation
Ġfin d
Ġor gan
Ġth ree
Ġg r
Ġleg isl
Ġs ch
st and
Ġde p
Ġdirect ive
a ir
re ed
Ġr ul
Ġpl ay
i ly
Ġact ion
it al
Ġob ject
ent ly
Ġne cess
Ġare a
Ġh and
Ġall ow
it ions
Ġind ust
Ġprin cip
l ess
Ġ est
Ġfe w
it ive
ab ility
l and
v en
pport eur
Ġe lect
ol low
Ġ 3
Ġr is
Ġc re
p h
at er
Ġcon d
Ġe m
Ġn or
Ġn at
Ġch ild
Ġp h
Ġpro m
Ġwe l
ist s
Ġd one
Ġa p
Ġe ar
Ġv al
Ġrep res
Ġsh e
pport un
o v
wor k
Ġme et
Ġt a
ut e
Ġop en
Ġtra de
Ġo pportun
Ġre du
Ġact ually
ent ial
ic ult
al ity
Ġra pporteur
Ġf r
Ġre st
Ġsa f
Ġsh ow
Ġw omen
al f
d s
is ation
ort s
Ġs ince
u c
Ġlit tle
Ġne xt
Ġdemoc rat
Ġincre as
Ġs ur
ar ch
Ġdiff icult
Ġfa v
ot i
Ġc or
Ġin de
Ġimp lement
Ġa v
Ġw ish
Ġk ind
or ities
Ġe qu
Ġpl an
Ġin s
Ġf ollow
Ġrem ain
Ġthan k
e g
Ġin it
Ġl ess
Ġexp er
Ġcont ro
Ġen sure
Ġb l
Ġad v
Ġspe ak
way s
Ġac cept
us si
Ġlif e
Ġemp loy
Ġf urther
Ġspe ci
Ġinv ol
ic k
Ġneg oti
Ġtreat y
Ġcomp le
al s
Ġprogra m
Ġwh e
ou ra
s he
Ġv i
Ġc ost
Ġle t
Ġjo b
y ing
Ġiss ues
c ing
Ġser ious
Ġgrow th
ic s
Ġmr s
one y
Ġth ing
Ġse cond
ro s
Ġprodu ct
Ġunder stand
Ġi r
Ġrul es
Ġpers on
li g
Ġconsid er
Ġb en
id ed
od y
Ġg ent
c om
are d
Ġgent le
Ġsm all
Ġan other
Ġr ussi
Ġg iven
Ġnecess ary
Ġneed s
Ġrequ ire
Ġleg al
Ġhapp en
in ess
Ġwhe ther
Ġbec ome
Ġro le
ir d
Ġm oney
Ġamend ments
ad ies
sel ves
Ġre ad
Ġal ways
Ġgentle men
Ġi mm
Ġprotect ion
c u
Ġwho le
Ġpro ced
Ġse em
Ġl arge
Ġpos ition
Ġsuc cess
is ter
Ġch ina
Ġeconom y
si bility
Ġare as
Ġmo ve
Ġcon v
m y
Ġa id
Ġso ci
ra cy
Ġc rit
Ġcons um
ge ther
Ġinit i
p er
ĠâĢ Ŀ
a ve
p ar
g g
Ġparticular ly
Ġsect or
Ġappro ach
th ese
a v
Ġre v
Ġne ver
Ġf ree
Ġus ed
Ġm il
Ġb al
n ess
Ġm illion
sion s
Ġpro ject
our ces
Ġprog ress
Ġdec ision
ros s
Ġresol ution
Ġprogram me
in es
Ġp ay
Ġcont ribut
en se
Ġta x
Ġst ep
Ġeffect ive
Ġfe el
Ġmak ing
y s
Ġf ish
Ġ19 9
d o
en g
Ġre se
ĠâĢ ľ
Ġ ed
Ġ es
Ġp ract
im ate
ab lish
Ġe as
Ġpresid ency
r al
ab ly
le t
Ġop in
Ġcontin ue
Ġgen eral
ult ural
ward s
Ġest ablish
Ġben ef
Ġp ur
Ġto gether
Ġstr ong
Ġ 5
Ġcomp an
Ġspeci f
Ġu r
is ions
Ġl ot
Ġdo ing
Ġwork ing
Ġserv ices
Ġe l
ou ght
Ġrepres ent
n ed
Ġag ric
Ġfa il
m ore
n er
Ġd ist
Ġconst it
Ġfra me
Ġter ms
r or
re t
Ġfav our
Ġfor ward
l ar
Ġme an
Ġst ar
Ġrese arch
Ġpe ace
Ġter m
Ġinstit utions
Ġch ang
Ġm ight
Ġf ood
Ġcontro l
Ġst ud
Ġre ach
Ġproposal s
Ġw rit
m ost
Ġstrate gy
Ġsu pp
Ġp op
Ġf ound
eren ce
Ġbas is
s w
Ġexper i
Ġrel ations
Ġtechn olog
Ġbus iness
Ġl adies
Ġbu ild
Ġar ound
Ġe ach
Ġb ro
o ver
Ġa im
Ġc reat
Ġpo in
Ġc are
Ġamend ment
Ġfund ament
os ed
Ġ 4
ro du
Ġsub ject
Ġcall ed
Ġte ll
Ġy et
Ġit self
Ġf ac
ap s
Ġqu ite
Ġs ing
Ġframe work
Ġon ce
Ġ ess
Ġwel come
Ġbr ing
Ġli b
Ġachie ve
Ġmon th
i ble
Ġdemoc racy
Ġo pp
Ġg ot
Ġbas ed
Ġm ention
Ġf am
Ġsh ort
Ġar t
in ed
Ġex ist
Ġchild ren
Ġb est
Ġa w
Ġof ten
Ġex pect
Ġtal k
Ġan sw
Ġc ri
Ġch all
Ġd uring
Ġb ig
Ġopportun ity
Ġopin ion
Ġst ruct
Ġr ather
Ġsu ff
Ġdem and
Ġp le
th en
ag es
li ght
Ġo ld
iz ed
Ġlegisl ation
ult ure
Ġab s
Ġprom ot
Ġimpro ve
an ces
ar m
Ġacc ount
Ġc lo
Ġext re
Ġincre ase
g ed
Ġag o
Ġwh ile
Ġvi ol
Ġdemocrat ic
Ġs w
iv id
Ġbe gin
Ġl im
Ġst art
c lear
Ġmin ister
Ġt ri
Ġint eg
Ġl ab
st ain
Ġfore ign
f ort
reed om
Ġen ough
og n
Ġmaj or
Ġi m
Ġen g
man y
Ġindust ry
ant s
p ri
Ġreg ulation
id es
Ġh ard
oc k
Ġto wards
Ġg er
Ġwe e
as es
Ġb ar
Ġrec ogn
mp t
Ġfundament al
th ers
Ġconcern ed
if ied
Ġle ast
Ġv ar
l ing
Ġadop ted
Ġide a
Ġres ources
Ġh ist
ci ally
Ġrussi a
Ġre t
Ġf reedom
Ġprov ide
Ġb or
en ces
Ġre form
at ives
Ġaf ric
Ġvot ed
Ġp at
se qu
Ġpolic ies
Ġstand ard
iz e
Ġth ird
i vers
Ġact iv
Ġo c
Ġsu mm
Ġsh all
Ġsoci ety
Ġc iv
Ġap pe
Ġed uc
Ġcon g
Ġinclud ing
Ġreg ul
n ers
end ing
Ġdiscus s
Ġcol le
Ġter ror
Ġprincip le
Ġac cess
Ġpro f
Ġclear ly
ith er
b on
ar ant
a ren
w ith
Ġsign ific
Ġimport ance
wh en
Ġpropos ed
f in
Ġciv il
Ġcond itions
Ġa ir
ie ld
m it
i b
Ġadd ress
Ġris k
Ġtransp ort
Ġgu arant
Ġexp ress
le g
Ġrespon sibility
Ġint rodu
ren g
Ġsing le
is ing
Ġguarant e
Ġh ome
Ġind ivid
Ġclo se
o ve
Ġexp l
Ġm om
ar ity
Ġnegoti ations
Ġl ow
ou b
Ġs ci
Ġgreat er
Ġtak ing
Ġwor ds
Ġst reng
ra ph
Ġsu re
Ġm or
pe cially
id ence
Ġextre me
Ġv is
Ġemploy ment
Ġmil it
Ġke ep
Ġl ist
Ġatt ention
Ġen c
end s
Ġcre ate
ord in
Ġadd ition
Ġrec ent
b ody
Ġpos itive
Ġan n
fort un
Ġes pecially
i od
Ġno thing
Ġam ong
Ġf ight
00 0
Ġful l
Ġpoin ts
Ġindivid ual
er ing
wh ere
in ing
Ġsu stain
a f
Ġp ass
Ġlead ers
on s
Ġl oc
Ġr u
Ġcent ral
Ġcom b
m ad
Ġauth orities
im e
Ġenvironment al
o ol
p end
ke y
Ġf our
Ġsaf ety
u ge
Ġprev ent
Ġop er
Ġm ind
Ġhe ad
Ġsimp ly
Ġp ast
c k
Ġeff orts
Ġre ce
Ġfund s
Ġspecif ic
t il
Ġfor ce
Ġpart ners
Ġproced ure
Ġha ving
Ġch ar
Ġneed ed
Ġf ri
h aps
Ġess ential
Ġbeh alf
Ġle ar
Ġs ou
o f
Ġintern al
Ġtr ue
Ġnu clear
Ġw ater
Ġle ft
Ġth ought
Ġincreas ing
g er
Ġquest ions
Ġoff ice
Ġinterest s
Ġproduct s
b y
Ġpart y
Ġke y
Ġr un
Ġban k
Ġameric a
Ġo thers
i um
at a
us ed
Ġde t
Ġmarke ts
ce ed
ic ial
Ġf oc
Ġg re
Ġis ra
Ġpri v
Ġm is
Ġcomple te
Ġtim es
Ġyou n
Ġsol ution
Ġ z
ar k
Ġcl imate
Ġlong er
Ġcertain ly
Ġtur n
on d
Ġman age
Ġsignific ant
iz ation
Ġconcern s
mad am
Ġcompan ies
Ġst at
Ġc e
Ġinst ru
Ġper iod
Ġgovern ments
ens ive
Ġl ive
Ġse en
Ġmilit ary
Ġmom ent
al e
Ġe ver
f irst
Ġn ame
ir m
Ġappro pri
Ġmak es
Ġm id
Ġch e
u g
Ġconstit ution
fortun ately
Ġdevelop ing
Ġb ur
ul ate
Ġ1 0
Ġc red
h as
Ġansw er
c o
Ġm ot
n o
Ġprop er
Ġth reat
Ġn on
e ad
Ġwork ers
Ġch o
Ġthem selves
Ġcont e
Ġcompet ition
Ġaff ect
Ġinvol ved
Ġeduc ation
Ġp en
b er
Ġte xt
Ġconf lic
Ġad min
air s
er v
Ġsub st
Ġfar m
ici ent
Ġin n
Ġimp act
Ġe le
Ġtur key
Ġregion al
Ġyoun g
Ġtra d
Ġf ield
Ġcour t
v ious
Ġ 6
Ġseem s
p l
Ġl ack
Ġcom es
Ġenc oura
Ġd ata
Ġar g
c ise
ter s
Ġqu ality
l ine
Ġa way
Ġf all
an k
e qu
Ġs ense
Ġadmin ist
Ġto t
Ġan im
s id
ci es
Ġcolle ag
Ġas pect
Ġmaj ority
Ġextreme ly
Ġsch ool
Ġt y
Ġne t
Ġacc ord
ne w
Ġcong rat
Ġ20 1
Ġmonth s
Ġav ail
Ġful ly
Ġi d
Ġf un
Ġadop t
Ġgroup s
Ġinvest ment
Ġvar ious
ra q
Ġspe cial
Ġcap ital
ic ation
Ġd ri
Ġsh are
Ġth ough
Ġde ter
Ġent ire
Ġ er
Ġp al
Ġiniti ative
Ġg ra
Ġevery thing
id ent
Ġfa ce
Ġru le
h o
i ans
Ġd ial
as ed
og ue
gg est
Ġoc c
Ġsu ggest
Ġreg ions
Ġi raq
Ġf ive
Ġo ri
Ġso on
Ġask ed
at ic
Ġdec isions
l a
Ġl ang
Ġmeet ing
Ġco h
Ġo pt
Ġjob s
Ġcon sequ
il ities
Ġag end
Ġcomp rom
Ġstreng then
Ġem er
ces sion
fin ally
ar ian
Ġh on
ic le
Ġinde pend
l arge
Ġp ot
Ġho ld
om m
s ide
Ġb re
Ġemp has
Ġcost s
e ch
Ġresult s
li es
Ġaff airs
Ġameric an
Ġd ang
Ġl is
g ing
ap an
Ġagric ultural
ver al
Ġprogra mm
at ors
Ġc ut
Ġstandard s
Ġe ur
Ġpartic ip
ific ation
Ġagend a
Ġal most
it ing
Ġsystem s
g o
Ġdes ign
Ġrequ est
ist an
Ġtr y
a z
Ġobject ive
Ġb illion
ce ll
Ġdial ogue
Ġlis bon
Ġd oub
Ġgen er
Ġinde ed
st r
Ġhe ar
end ed
Ġreason s
Ġlang u
Ġe ast
Ġc ir
Ġqu ick
me mber
Ġafric a
Ġmod el
n ect
Ġst ability
lu sion
i er
as h
d en
le v
Ġdra w
Ġb ra
Ġco ordin
Ġun til
Ġpop ulation
Ġy es
Ġc ame
Ġprodu ction
ful ly
Ġac ross
on t
Ġp a
Ġt as
Ġwrit ing
Ġaw are
Ġavail able
it or
Ġw r
Ġb rit
Ġwee k
if y
Ġl ine
ri ed
Ġto ok
Ġ rom
Ġid ent
Ġw a
Ġsol id
Ġun e
Ġli ght
Ġv ict
Ġen large
Ġdo cu
Ġloc al
Ġapp lic
Ġlib eral
Ġh arm
Ġpart ies
Ġass ist
Ġw ent
Ġg e
Ġex c
e u
j ust
Ġ 7
Ġcom ing
s ome
Ġto m
Ġmention ed
Ġel se
Ġa mb
Ġj ud
Ġd om
d le
Ġp ric
Ġfoc us
Ġagree ments
Ġcir c
Ġf le
Ġconte xt
Ġtal king
Ġm ult
im s
Ġinn ov
Ġl at
Ġlook ing
Ġtechnolog y
Ġan t
Ġsumm it
Ġ 8
ed i
Ġj apan
Ġcurrent ly
Ġobject ives
Ġh alf
Ġref er
c ent
Ġt en
Ġr ate
Ġper haps
ric t
Ġob s
p le
Ġass ess
Ġir an
Ġc ases
Ġfollow ing
Ġbo ok
Ġdem on
Ġabs ol
ur y
Ġse veral
Ġevery one
Ġret ur
Ġp ost
ut es
Ġjo int
Ġjust ice
ag ed
the less
Ġapp ly
Ġconv ention
Ġo il
Ġwr ong
im es
Ġex cell
Ġbro ad
Ġu k
Ġenlarge ment
se cond
Ġob vious
Ġt arge
i res
Ġcont ain
Ġfin al
Ġwant ed
Ġhist ory
i bility
Ġto p
Ġs k
Ġrespon sible
Ġabsol ute
in de
Ġdang er
r ing
Ġd est
i o
or m
Ġro ad
us h
iven ess
at ory
ar s
u ed
Ġmatter s
ap er
Ġn ations
Ġconsum ers
at ch
Ġsi x
im il
ren ch
Ġprogramm es
Ġmain tain
Ġimplement ation
ist ic
Ġconsum er
an ced
Ġ 9
Ġb ad
om et
p id
an e
Ġsay ing
r ast
Ġfa ir
Ġpal est
si b
Ġany thing
Ġur g
l f
Ġw on
Ġappropri ate
er ia
Ġchang es
Ġcomprom ise
Ġre ject
Ġconf erence
p ris
Ġde ep
Ġs ide
Ġs at
is es
inde ed
es sion
Ġtr ying
Ġd ut
Ġpre p
Ġinstit ution
h ere
Ġ ve
er t
Ġp ack
Ġst op
Ġhe ard
Ġday s
iv ed
Ġmid dle
Ġme t
Ġpo or
Ġsci ent
Ġisra el
Ġli ving
Ġexperi ence
led ge
Ġmanage ment
Ġpric es
Ġ ver
imil ar
o id
Ġt est
Ġcon nect
Ġrec omm
Ġent er
Ġe c
mp loy
Ġrespon se
Ġpro b
b our
Ġmad am
Ġde ath
Ġchall eng
Ġnat ure
Ġori gin
Ġachie ved
c ri
Ġguarante e
Ġm ess
rou ght
Ġval ues
Ġexcell ent
Ġelect ions
Ġpr ice
Ġfish er
Ġprincip les
res sion
Ġval ue
or row
Ġne igh
Ġproject s
p s
Ġe ither
Ġopp os
Ġcommit ment
Ġstar ted
ab led
Ġsustain able
Ġm ass
Ġl ink
iv ing
Ġpriv ate
Ġc ru
Ġg ree
Ġimm ig
Ġviol ence
Ġremain s
ver ty
Ġsu per
Ġpo verty
Ġsub sid
min ation
Ġf ig
Ġinteg ration
b an
Ġsou th
Ġour selves
Ġus ing
Ġart icle
Ġbor der
in s
re ct
Ġf rench
Ġm us
Ġbenef it
Ġl and
p ite
en ing
Ġ1 5
Ġde v
Ġserv ice
Ġstrate g
Ġsolid arity
is f
Ġl os
Ġwe ak
Ġactiv ities
li ed
Ġcongrat ulate
Ġh uge
Ġli ves
Ġse lf
ac y
Ġc amp
Ġdis e
Ġex ch
Ġconflic t
l er
Ġpro s
Ġpri ority
Ġreport s
Ġmon itor
Ġquick ly
us es
Ġal ong
Ġger many
Ġdec ided
ch an
th od
Ġatt ack
Ġup on
Ġst ress
Ġd ol
a pp
Ġme chan
Ġp ort
Ġgre en
p r
Ġf l
eu ro
l s
Ġconc lud
Ġconcern ing
Ġhappen ed
Ġune mploy
f er
Ġm en
Ġfe ll
Ġs ent
Ġgr ound
Ġdet ail
Ġrec ently
Ġfund ing
Ġredu ce
there fore
Ġref lect
aren cy
Ġpl ac
Ġpur p
Ġdemon str
Ġprob ably
as ter
Ġtom orrow
Ġan al
Ġoff icial
et ary
Ġbuild ing
Ġdra ft
Ġconsequ ences
Ġd am
Ġgo es
Ġd ue
ru pt
Ġre d
Ġde l
Ġc y
Ġs ort
Ġwor d
Ġab ove
Ġterror ism
Ġinf lu
Ġprov ided
Ġd i
Ġbec om
Ġfam ily
er ial
Ġb i
tern al
Ġmod ern
ure d
Ġto ld
un ch
Ġbal ance
ve re
Ġdis p
Ġit al
Ġnat ural
Ġimm edi
Ġthink ing
Ġdef in
Ġre lig
Ġtransp arency
Ġpot ential
Ġincreas ed
i ation
Ġbeh ind
Ġbe l
so ci
Ġob lig
Ġbas ic
wh y
or ies
Ġfr ance
euro pe
Ġal one
Ġat te
ru ction
og raph
en ge
second ly
Ġb rought
Ġle ave
Ġinclud e
Ġrequire d
Ġc ause
Ġpract ice
more over
Ġstruct ural
in ation
Ġagric ulture
Ġcomplete ly
Ġdiscus sion
Ġme thod
Ġcl os
Ġspe ech
Ġway s
c al
Ġprev ious
ho ld
Ġl ar
Ġ il
Ġper cent
Ġc ulture
ire d
Ġpalest in
Ġreal ity
Ġchall enge
re g
Ġh un
Ġre pe
Ġout side
Ġpromot e
Ġcl a
li ke
Ġcru cial
Ġa ut
id ing
Ġdoub t
Ġl ater
Ġmon etary
Ġc ultural
Ġind ia
omet imes
Ġev ent
af ter
b o
be c
Ġav oid
Ġth us
Ġex ternal
Ġc ross
th ough
ive ly
Ġear ly
Ġchalleng es
e c
for ms
Ġmove ment
Ġdol lar
Ġexpl ain
u ly
Ġag reed
Ġind ic
t od
Ġb ri
s p
Ġd en
Ġsay s
Ġs ound
g es
Ġb it
ivers ity
Ġ ill
Ġst age
Ġhapp y
tod ay
Ġf ear
Ġimp os
Ġhigh er
Ġas soci
Ġg l
bec ause
Ġem ission
at eral
it arian
Ġcontribut ion
Ġtas k
en sion
Ġhe ld
Ġeff ort
Ġh our
Ġdeb t
Ġcar ry
Ġpur s
Ġro om
ar ily
ru g
Ġget ting
Ġrev iew
li f
Ġregard ing
Ġlegisl ative
ll ing
Ġact ions
Ġdevelop ed
Ġcommun ication
Ġrecomm end
er ve
ac c
Ġretur n
Ġv ol
Ġac cession
im um
t om
2 0
Ġtak es
Ġpartners hip
g est
Ġcri min
Ġcolleag ues
e v
r on
Ġdire ction
it er
Ġra d
u ff
re am
Ġpre cise
Ġdec ad
Ġex act
Ġbre ak
Ġcor rect
u se
Ġfarm ers
Ġtechn ical
Ġlangu age
Ġpres sure
Ġsat isf
Ġex cept
Ġvot ing
Ġc and
Ġbegin ning
Ġple ased
Ġe mb
Ġas se
Ġexist ing
w ise
we ll
Ġte ach
Ġnor th
Ġp aper
ri al
Ġst ory
Ġa ud
Ġre member
ol ution
Ġgrow ing
Ġassist ance
Ġl ost
Ġlike ly
Ġc le
ct ions
Ġlo ve
Ġabsolute ly
in ese
Ġfor ces
Ġreg ime
Ġs an
Ġk ill
ous and
wh ile
Ġcons ult
Ġorgan is
Ġregul ations
y es
ous ly
a rent
Ġf o
Ġlab our
il ateral
Ġopportun ities
Ġal though
ter day
Ġcur ren
i or
Ġr ich
Ġstate ment
Ġcap ac
Ġcre ation
Ġban ks
Ġide as
Ġse a
Ġl ed
un e
Ġra ised
Ġd im
Ġne ar
Ġequ al
Ġcreat ed
Ġ /
Ġconf idence
Ġtot al
Ġknow n
Ġs imilar
en cies
Ġr at
Ġa ge
Ġr ise
Ġam ount
l am
en ed
Ġv ital
Ġpres s
Ġthrough out
Ġtra ff
Ġcl ass
Ġcoh es
Ġfin ally
m ission
Ġregard s
Ġsimp le
Ġwas te
Ġeffect s
Ġaspect s
Ġil leg
l ation
Ġf is
ition al
e ven
in st
Ġf lo
Ġoff er
Ġ3 0
i ally
Ġen s
Ġch inese
Ġread ing
j o
Ġre forms
Ġex am
Ġcol l
Ġth ousand
Ġwon der
Ġknow ledge
Ġr ates
Ġd rug
Ġext ra
Ġcent ury
es tern
Ġindust rial
Ġm ist
Ġdisc ri
Ġcrit ic
Ġprep ared
Ġcand id
y ond
Ġal tern
Ġunemploy ment
Ġmed ia
Ġfle x
Ġi g
Ġlevel s
r ist
Ġinst ead
ver se
Ġd iv
Ġe th
Ġinteg r
Ġw al
mit ted
Ġw est
Ġinter v
Ġw ide
Ġsuccess ful
Ġreach ed
Ġcar ried
pp ed
Ġeff ici
u ing
Ġstud y
Ġlear n
at or
Ġde li
Ġg ain
p or
Ġcrit eria
Ġbrit ish
Ġexch ange
Ġim ag
Ġa ra
ish ed
Ġinterest ing
Ġ5 0
Ġharm on
Ġcohes ion
Ġcomple x
Ġw estern
Ġauth ority
Ġc od
Ġ200 0
Ġpow ers
Ġpers pect
Ġmy self
Ġtr ust
Ġdocu ment
Ġpresent ed
Ġc al
Ġmat erial
it ud
ro p
Ġwor th
Ġsw ed
Ġtraff ic
Ġv o
Ġrequ ires
Ġproced ures
Ġcirc um
Ġ1 2
Ġpack age
l t
Ġb ody
Ġbenef its
Ġch ance
sel s
e very
Ġrel ation
d ict
Ġbudget ary
ord ers
Ġs low
Ġra pid
est ic
olog ical
Ġwant s
Ġcompet it
Ġsc ale
Ġallow ed
Ġfun ction
Ġperson al
r ary
re ly
Ġs ometimes
Ġtra ining
Ġeas y
Ġeconom ies
Ġpat i
Ġrelations hip
Ġaccord ing
Ġst ri
Ġwho se
Ġpri orities
Ġm ill
Ġrespon d
c an
an ia
Ġcapac ity
at s
Ġfri end
Ġpri m
Ġ2 5
Ġbe yond
ore d
Ġintern et
Ġ 000
Ġcon du
Ġdep end
mpt ion
Ġsupport ed
Ġmess age
i x
Ġde ad
Ġinstru ment
Ġencoura ge
Ġa ust
Ġparliament ary
Ġear th
Ġsec ret
h a
Ġr ural
Ġcol lect
Ġscient ific
f urther
Ġg iving
Ġev ents
Ġs al
Ġger man
re h
Ġf ed
Ġinnov ation
Ġfisher ies
Ġcompan y
Ġthan ks
Ġter rit
Ġtreat ment
Ġre new
Ġg as
ĠâĢ ĺ
c er
Ġinc ome
Ġsa w
Ġint el
Ġrep ublic
Ġhigh light
Ġemission s
our ce
d om
Ġch rist
Ġprov isions
Ġre con
Ġrequire ments
Ġnot e
Ġsp ace
Ġprodu ce
Ġvict ims
Ġfam il
ther n
Ġgr ant
Ġanim als
t on
Ġt abled
Ġp ie
Ġg ave
Ġ1 1
Ġform er
Ġfr ont
Ġexact ly
Ġrece ived
Ġfell ow
Ġm er
Ġun d
oura ble
a ff
Ġrem ind
Ġpri me
Ġis lam
Ġde ce
Ġreg ret
Ġte mp
Ġcri me
Ġw in
Ġwe ap
Ġmin utes
ris on
y et
Ġs ens
Ġestablish ed
ar ing
Ġhe art
Ġit em
Ġadv ant
sib ilities
a ction
Ġexp ort
Ġb orders
Ġl ate
Ġinstru ments
Ġsol utions
f ect
Ġcomp ut
Ġpolit ics
Ġele ction
Ġc op
Ġcreat ing
Ġde g
Ġi re
b ia
un fortunately
Ġyes terday
ot s
Ġiniti atives
re ci
Ġv ir
Ġhist or
Ġmonitor ing
Ġp ict
Ġpre par
Ġsubst ant
Ġire land
li er
c a
Ġre lev
Ġshow s
Ġneigh bour
Ġsh own
Ġleg it
Ġaddition al
ici ans
Ġsupp ly
Ġadminist ration
Ġindepend ent
Ġocc ur
Ġcircum st
a ign
Ġcondu ct
gh an
Ġconc lusion
Ġsp ir
Ġcamp aign
Ġunder t
a ut
Ġd r
Ġnor m
Ġmor ning
Ġwill ing
Ġsuc ceed
Ġexpress ed
i et
Ġpart s
Ġuk ra
Ġilleg al
li ance
Ġcurren cy
om p
Ġarg u
rast ruct
Ġstrateg ic
Ġcrimin al
n am
Ġqu ot
Ġcons ist
Ġse par
Ġcoun ter
Ġmeas ure
Ġmed ium
Ġanal ys
Ġsc o
Ġpurp ose
Ġinf rastruct
Ġfish ing
first ly
g ar
Ġn ight
th ank
Ġdec ide
Ġinflu ence
r ound
u ine
Ġrec ord
Ġconv in
Ġbusiness es
ac cept
Ġgu id
Ġcompetit iveness
ver age
Ġgood s
Ġf irm
Ġact ive
Ġm and
Ġt ack
Ġas ia
he ad
Ġdel ay
Ġserious ly
Ġto ol
Ġpol ice
Ġcircumst ances
s h
Ġsp ending
und red
Ġris ks
Ġfis cal
oun ts
Ġinvol ve
Ġw atch
Ġk ing
Ġdef ic
Ġinclud ed
Ġpract ical
Ġorganis ations
Ġun accept
Ġgen uine
Ġfri ends
Ġext ent
Ġm al
Ġlim ited
Ġcred it
Ġp ain
Ġpol l
Ġf ue
Ġst ay
Ġaf ghan
am a
ag raph
v al
Ġwork ed
Ġant i
Ġon es
Ġdes cri
Ġredu ction
Ġincreasing ly
Ġconsid ered
Ġimplement ed
Ġwee ks
Ġb ul
il t
qu e
Ġper form
Ġlim it
Ġdanger ous
an ish
Ġm ig
ort ion
Ġapp reci
n ot
ure au
Ġapplic ation
Ġimmig ration
os ov
Ġpa id
Ġview s
Ġhigh ly
further more
u mp
Ġeffective ly
Ġcont ent
Ġty pe
o int
Ġb ureau
Ġunaccept able
r ative
Ġprov ides
b ed
Ġwar m
Ġminister s
se c
Ġag ency
k now
p re
Ġeas tern
Ġchang ed
s es
Ġann ual
itud e
ent ions
Ġmot ion
Ġf low
Ġapp lied
Ġinstitution al
Ġoppos ition
Ġspeak ing
Ġdise ase
u mption
Ġconst ruct
s ince
Ġs en
Ġcomm er
Ġev idence
Ġrest rict
Ġbri ef
Ġc at
il it
Ġinvest ig
Ġimpos sible
on es
Ġpos sibility
b s
Ġk ore
Ġce ll
d p
Ġout come
l ast
Ġk osov
Ġst e
Ġple ase
Ġeffici ency
Ġs l
Ġc ou
st er
Ġdes pite
Ġfail ure
o ke
Ġh undred
im ately
Ġk id
Ġ200 7
Ġdiscus sions
n a
Ġex er
Ġrel ating
Ġdiscri mination
Ġg ives
Ġany one
Ġname ly
Ġpalestin ian
l in
Ġfor get
Ġra ise
Ġch a
Ġcommit ted
Ġassess ment
Ġprecise ly
Ġdec lar
Ġper fect
Ġfail ed
Ġdece mber
h ood
n ever
Ġde leg
olog y
equ ate
Ġc ity
Ġperspect ive
Ġcho ice
Ġspe ed
Ġocc as
Ġeuropean s
for ce
Ġuse ful
Ġbu y
Ġdom estic
land s
is s
ri a
Ġsect ors
Ġm ut
Ġen able
iv ity
Ġsee k
Ġdiscuss ed
Ġcoordin ation
Ġrelev ant
Ġd ate
Ġaccept ed
Ġaffect ed
Ġh y
Ġen orm
Ġrel ated
Ġstep s
Ġstat us
Ġun fortunately
pp ing
k ed
Ġmis s
Ġpar agraph
Ġ1 8
Ġactiv ity
Ġhapp ens
Ġfor ms
Ġdec l
y l
Ġtr uth
Ġcom ments
Ġhuman itarian
Ġcall s
Ġto ur
Ġj e
s uch
it able
Ġdist ribut
Ġpro ceed
Ġcomp reh
Ġbo ard
Ġanim al
pris es
Ã ©
âĢ ĵ
Ġpl ans
Ġg ir
Ġcom ment
a h
an y
Ġdirect ly
Ġsco pe
at ure
Ġnew s
Ġmed ic
Ġhappen ing
an u
Ġfin ance
Ġear lier
par liament
Ġgree ce
i ra
z e
ou ble
Ġdeal ing
Ġchar act
Ġch air
Ġclose ly
Ġkosov o
re st
ens us
l om
ust om
Ġig n
c ertain
Ġjo in
Ġcontribut e
c ul
Ġs ad
Ġu lt
Ġinfrastruct ure
Ġt able
Ġall oc
Ġbl ack
Ġrussi an
Ġcrit ical
Ġsu n
Ġread y
Ġca used
Ġconnect ion
Ġaltern ative
Ġ1 00
o b
ll ed
Ġrepresent atives
Ġw ind
um e
ag ing
Ġev al
Ġcl ar
Ġweap ons
Ġd ip
Ġqu al
Ġexp lo
Ġ200 8
Ġconc ent
Ġover all
Ġwork s
Ġcond em
Ġconsider able
Ġrece ive
Ġh or
Ġauth or
Ġty p
Ġla unch
Ġhour s
Ġd ict
Ġcon cept
u ard
Ġun ivers
Ġgo al
end it
Ġpre t
Ġar ri
o very
ate ver
Ġrel ative
Ġref uge
Ġtri ed
Ġobvious ly
i k
Ġb od
ly ing
se t
us sels
Ġeff icient
Ġunderstand ing
Ġspir it
Ġbe aut
Ġorgan isation
Ġaim ed
Ġdifferen ce
Ġdemand s
Ġj une
Ġguid el
Ġbec ame
Ġra il
Ġ19 8
Ġclos er
Ġmar ch
Ġconstitution al
Ġen jo
Ġref eren
Ġab ility
Ġ200 9
Ġbecom ing
Ġfo ot
Ġco ver
Ġlead ing
Ġsci ence
it ious
ur ally
Ġsur v
Ġhun g
Ġre in
Ġlook s
Ġfinan cing
Ġ $
Ġsu d
Ġrep l
Ġconf irm
Ġs il
if t
Ġcons ensus
Ġpen al
Ġthousand s
Ġst ru
Ġwor se
Ġad ap
Ġconvin ced
Ġf re
Ġun i
Ġadminist rative
Ġdef ence
Ġ4 0
Ġenter prises
wor ks
Ġimpro ved
Ġfac ing
l ant
Ġp rison
Ġref erence
Ġbeh av
Ġs end
an n
Ġtra vel
Ġukra ine
Ġg one
Ġse x
Ġknow s
Ġlaw s
cu p
Ġdifficult ies
c le
Ġst ra
Ġas king
Ġeng lish
Ġdip lom
ag n
Ġob tain
Ġappro ved
Ġdam age
w ill
Ġwh ite
r ane
Ġsh ip
r ants
Ġp ath
th ose
Ġsp ent
Ġpolit icians
m a
Ġh ar
lu sions
Ġprof ession
d am
Ġmo ther
Ġneg ative
Ġtechnolog ies
Ġdifferen ces
Ġb lo
Ġh op
Ġr ound
Ġcont ract
Ġmo ving
Ġrelig ious
d ra
Ġcharact er
Ġgovern ance
Ġa head
Ġsaf e
Ġrev olution
Ġs lo
ac ed
Ġdut y
Ġcomp l
ord ing
Ġbus h
Ġbra in
er ves
ol id
anu ary
f act
Ġprodu ced
Ġful f
Ġcompet itive
Ġappe ar
Ġj anuary
Ġdevelop ments
Ġsuff icient
Ġafghan istan
Ġbr ussels
e x
Ġright ly
Ġleaders hip
Ġb at
Ġsit ting
Ġconst ant
Ġenorm ous
ak istan
Ġprov iding
Ġredu ced
Ġann oun
Ġport ug
h is
Ġw to
Ġl u
Ġcont rary
ur ance
Ġph ys
âĢ Ļ
never theless
ment al
Ġsuper v
Ġconclud e
acc ording
Ġl og
Ġar r
Ġdollar s
p ol
Ġafric an
Ġundert ak
Ġguidel ines
is ms
im in
Ġj our
Ġput ting
Ġurg ent
Ġpict ure
Ġw all
alth ough
Ġrepres ents
y a
Ġamb itious
Ġprov ision
Ġplac es
yl um
Ġf il
Ġ1 4
u fact
Ġconc lusions
ver t
Ġmin imum
ple ase
Ġens uring
Ġbod ies
Ġinterest ed
un der
Ġ1 3
r ate
u p
Ġe at
Ġconsid eration
Ġdim ension
Ġc ustom
Ġadopt ion
Ġimpro ving
Ġnet work
Ġentire ly
Ġcla im
on ly
Ġexpect ed
Ġ201 0
op h
Ġlow er
Ġhon ourable
Ġcompreh ensive
Ġc r
c ers
Ġp ush
Ġob st
Ġbu ilt
Ġsh a
un t
Ġinf lation
Ġas ylum
Ġcor rupt
iter rane
Ġbud ge
vere ign
iterrane an
Ġf ather
Ġsp read
eg uard
Ġindepend ence
re et
ar ies
am es
Ġexp endit
Ġtur ned
Ġmed iterranean
Ġstruct ure
Ġse p
Ġman ufact
m ed
Ġsp ain
Ġanalys is
Ġt on
Ġbe gan
Ġg dp
Ġhe av
Ġhand s
Ġequ ality
Ġso vereign
Ġ200 4
Ġp akistan
te mber
Ġsaf eguard
Ġparticip ation
Ġvo ice
Ġcoop er
Ġir ish
Ġbal anced
Ġtot ally
Ġara b
ist ics
Ġsome one
Ġadd ed
Ġital y
Ġcomb at
Ġpros pect
Ġelect ed
Ġimmedi ately
Ġt re
Ġcolleag ue
Ġdecad es
el t
eren t
Ġcons erv
Ġsch em
Ġdemocrat s
iz ing
Ġcandid ate
Ġinterv ention
Ġh it
Ġn ice
om an
Ġproper ly
Ġc ra
Ġtal ks
Ġfore st
Ġst aff
end er
Ġprop ose
Ġcommit ments
Ġp ra
Ġatte mpt
Ġsep tember
Ġ 0
Ġst ated
Ġsimp lif
Ġgo als
Ġa verage
Ġm ach
Ġbe ar
Ġac know
Ġur ge
Ġoc cup
Ġadvant age
Ġcommer cial
Ġstar ting
Ġp act
ic les
Ġl ay
iv al
Ġve h
Ġfig ure
Ġs ources
Ġte am
com ing
Ġn one
ur d
Ġge or
Ã ¶
Ġl ose
Ġtur k
Ġn ation
Ġre act
Ġst reet
Ġapp lies
Ġacc omp
Ġbur den
Ġdo ct
oc ol
Ġsp end
Ġfe ed
Ġplan et
Ġexcept ion
Ġs ource
Ġlook ed
Ġun f
uc k
Ġlar gest
u ght
Ġman aged
Ġwh om
Ġsupp osed
m es
an im
ke t
Ġle a
Ġcomp ens
ent ially
th ird
Ġsu s
Ġen h
ak es
Ġdis aster
Ġele ments
Ġrefer red
Ġpie ce
Ġsol ve
Ġstrong ly
Ġcompl ain
en e
Ġd a
Ġe ight
Ġrec overy
Ġimag ine
y ed
Ġex cess
Ġmay be
Ġin h
y e
Ġor d
Ġevery body
Ġ200 5
Ġopen ing
x ic
Ġst ock
Ġint ended
Ġ200 6
f r
Ġm ission
Ġredu cing
Ġfac ilit
Ġnorm al
ir ms
Ġme rely
Ġcall ing
Ġintrodu ced
Ġdra wn
Ġdiscuss ing
ent ed
Ġwe alth
Ġsupport ing
Ġappe ars
Ġreferen d
m ine
Ġstud ents
Ġmechan ism
e li
or k
Ġking dom
ill s
aren ts
Ġb ir
Ġf ast
Ġintrodu ction
Ġflo or
at ically
Ġaccept able
Ġpower ful
Ġexpl an
re te
au gh
Ġtrans fer
Ġset ting
l us
Ġfor ced
Ġwith dra
au ght
Ġinc ent
el s
Ġappe al
Ġcle an
f rom
Ġac qu
Ġbudge ts
Ġse ven
Ġdo or
if ul
Ġh ost
Ġmembers hip
Ġtarge ts
Ġt un
re p
Ġc ro
d es
Ġp et
Ġf if
Ġso ld
Ġtransp arent
oc ks
Ġtr uly
Ġnat o
Ġvis it
Ġarr ange
inst ead
Ġcons umption
Ġbureau c
Ġo ught
Ġaim s
Ġemer g
Ġsan ctions
l ines
Ġsur pris
Ġfollow ed
Ġs ides
Ġop eration
Ġprodu cers
Ġs ize
Ġad just
Ġun able
Ġfra ud
Ġsuff ering
it ation
Ġme ant
en ced
Ġch em
Ġaccord ance
Ġdeter min
Ġgreat est
Ġw oman
Ġwh atever
Ġconc rete
Ġcontin ues
Ġmain ly
Ġintrodu ce
Ġp ub
Ġaddress ed
Ġinc or
Ġspecif ically
Ġnet works
Ġdest ro
p ut
ul ated
us ing
Ġrespon sibilities
Ġemphas ise
Ġfamil ies
Ġexpendit ure
u ations
Ã ¡
Ġb ot
Ġv ul
Ġachie ving
Ġkore a
Ġd on
id ents
Ġag encies
ok ing
Ġcommun ic
Ġcomput er
e es
Ġun anim
Ġl ines
Ġmo b
Ġne ither
Ġdo g
Ġrep ly
Ġman ner
Ġpre fer
Ġinform ed
Ġins ide
Ġdrug s
Ġdeg ree
o on
gy pt
Ġgra du
Ġofficial s
Ġspeci es
Ġpromot ing
Ġflex ibility
Ġv ision
Ġwor ry
Ġopp osed
Ġper man
i j
Ġg ame
Ġl ies
Ġsh ared
Ġs ession
Ġe yes
s y
Ġo ct
Ġd ream
Ġco ld
Ġlet ter
Ġrepresent ative
Ġf elt
Ġcont act
Ġcomp lic
Ġcontin ent
Ġameric ans
Ġwa it
Ġobs er
Ġdesign ed
Ġpub lish
Ġro b
Ġmean ing
Ġvul ner
Ġ1 6
Ġplay ing
Ġsens itive
com mission
Ġrom ania
pe ople
Ġpret ty
m as
Ġcomp ar
Ġtrans form
Ġcare fully
Ġdeclar ation
Ġc ard
Ġb er
Ġact ual
ro g
Ġre le
Ġbeaut iful
Ġgo d
Ġsec ure
Ġhim self
Ġrun ning
z y
or ry
ve mber
Ġi i
Ġno vember
Ġother wise
Ġca uses
Ġcontain s
Ġp un
ar ks
Ġfact or
Ġmethod s
Ġmill ions
Ġfor th
Ġimmedi ate
Ġd y
Ġint ention
go vern
Ġfig ures
Ġdeleg ation
Ġcan cer
Ġreg ular
ab il
Ġintegr ated
Ġconstruct ive
lant ic
Ġp arents
Ġst im
Ġ1 7
Ġdis app
Ġisra eli
Ġprev ention
Ġeng ine
Ġatte mp
ro so
ent y
Ġpros per
Ġexer cise
Ġturk ish
Ġd er
Ġe lement
Ġdef end
Ġwel com
Ġrecogn ition
Ġbel g
res pon
Ġres ist
Ġelect ric
oura ge
Ġreject ed
Ġsubstant ial
Ġ200 1
Ġlead er
Ġtrad itional
Ġdocu ments
Ġs ized
Ġst rict
Ġcont ra
Ġt end
Ġte le
Ġ200 3
Ġmor al
er y
Ġsh o
Ġsp anish
Ġlim its
Ġreferend um
Ġw id
Ġto uch
ate ful
Ġinst ance
Ġaff ord
Ġfac ed
Ġchar ter
ul ations
Ġex ec
Ġh om
op s
Ġimprove ment
Ġrepe at
Ġaud it
ur s
mr s
Ġser ve
Ġvir t
Ġt ren
n es
Ġsa v
Ġcommun ities
Ġsupport s
Ġdes ire
Ġresol ve
Ġlarge ly
c l
st ood
Ġparliament s
Ġins ist
per haps
Ġmus l
t ic
Ġdis ch
Ġke pt
Ġstruct ures
Ġsubsid ies
Ġdeal t
Ġ199 9
Ġdeli ver
o ber
an other
Ġe gypt
Ġar ms
Ġcar s
Ġcomb ating
Ġcou ple
Ġoct ober
Ġh ot
Ġy ork
Ġattack s
f are
v iet
Ġst uff
Ġtarge t
Ġstru gg
commission er
Ġinvest ments
Ġrecogn ise
Ġmechan isms
Ġgen eration
Ġwa iting
Ġgl ad
Ġd iversity
ag en
Ġsign ed
Ġwish es
Ġobst ac
Ġimplement ing
Ġcorrupt ion
ate g
Ġpoin ted
Ġintel lig
Ġpol and
Ġexp orts
Ġcontin uing
Ġlab or
Ġcha mber
Ġun s
Ġco al
Ġfact ors
Ġlear ned
Ġemer ging
Ġob ama
Ġyour self
Ġsee ing
Ġcontin ued
Ġexamp les
Ġrefuge es
b r
Ġ200 2
Ġindividual s
Ġr ange
Ġso viet
Ġpass eng
Ġdefic it
Ġp an
Ġb on
Ġplay ed
Ġital ian
en h
Ġf ire
Ġprot ocol
Ġfed eral
Ġtour ism
Ġeas ier
m ay
Ġp ill
ill ed
Ġcar bon
Ġpract ices
Ġaut om
or ary
Ġst ake
Ġla id
Ġcred ibility
Ġpos itions
Ġar rest
Ġrapporteur s
Ġbring ing
Ġgree k
Ġdefin ition
l adies
Ġwrit ten
Ġasse mb
in ary
Ġc ateg
Ġgr ateful
Ġhon est
Ġatt ract
Ġstreng th
Ġdy nam
Ġo k
Ġsa ve
Ġser ies
Ġeng age
m os
t a
wh o
Ġchang ing
Ġterror ist
Ġmut ual
m ark
in y
Ġ2 1
Ġbas ically
Ġset t
Ġ20 20
sib ly
f e
n ic
it ch
Ġext end
Ġpay ments
Ġcon ver
ted ly
Ġspeak ers
Ġswed en
Ġt ro
Ġc ities
Ġsy mb
Ġfeel ing
Ġdom in
Ġsubsid i
Ġrenew able
Ġso ft
Ġk y
an a
ab les
Ġma x
Ġpop ular
Ġ6 0
Ġstrengthen ing
Ġter ri
Ġnor thern
Ġkind s
Ġadv oc
Ġbar ri
Ġfight ing
Ġmass ive
r s
Ġb ound
Ġpart ner
Ġorigin al
Ġdr ink
Ġmand ate
Ġfin e
Ġinclud es
Ġpass ed
Ġb om
Ġresol utions
Ġel imin
Ġche ck
Ġh ous
Ġatt itude
Ġopt ion
Ġmus ic
Ġrecommend ations
o in
Ġstate ments
Ġb ase
Ġhelp ed
Ġlat in
Ġconsult ation
Ġcod e
Ġw o
Ġunder stood
Ġmin ority
Ġme ps
Ġgr and
Ġbecom es
i ers
Ġad equate
sequ ently
Ġkid s
b it
ve red
Ġchrist ian
Ġhead s
Ġlos s
third ly
Ġb ill
Ġcond ition
Ġh ur
th us
Ġexp ression
Ġtax es
go ing
Ġsymb ol
m atic
Ġth or
Ġc ourage
ro ad
Ġvot es
it es
Ġf ix
Ġcom pe
Ġimp lic
Ġtreat ies
pr ise
os es
Ġprop ortion
Ġph il
Ġestablish ment
Ġregul atory
des pite
z il
Ġlist en
Ġgener ally
Ġlink ed
Ġr id
Ġdeb ates
Ġfue l
Ġc ub
Ġj uly
Ġrem ark
Ġbar roso
on y
Ġst o
Ġbrit ain
Ġwithdra w
et ic
Ġact s
enh agen
z one
Ġins urance
Ġeas ily
Ġlangu ages
Ġs orry
ing ly
Ġfor g
Ġinc red
Ġcl osed
Ġdra f
Ġplan ning
t ur
Ġpo ore
Ġsub mitted
Ġph ot
Ġab ol
Ġadap t
im b
Ġ2 7
Ġco vered
Ġget s
Ġdirect ives
Ġdisch arge
5 0
as sion
il ing
Ġu t
Ġwel fare
Ġcho ose
Ġre ven
ind ing
Ġsm es
Ġpati ents
p ret
ot e
p ir
as ters
ad e
Ġnu mbers
Ġequ ally
ra id
Ġpres ence
Ġte lev
Ġeven ing
g round
Ġd ig
ak ing
Ġsp ok
Ġcontrol s
Ġmist ake
Ġcritic ism
Ġfre qu
Ġaf raid
Ġacc ident
Ġris ing
Ġestablish ing
Ġobs erv
Ġincor por
Ġun certain
ap pe
Ġbal k
Ġtrad ing
Ġk new
Ġprot est
Ġconst ruction
Ġsign al
Ġdri ve
Ġchem ical
Ġpro ve
Ġmed ical
Ġlear ning
Ġperman ent
h n
Ġemploy ees
Ġconflic ts
Ġrepe ated
ron ic
s k
Ġun like
ru it
Ġc ult
Ġe ye
Ġme m
Ġtack le
Ġpe op
Ġbig gest
Ġlar ger
Ġcondem n
Ġd ie
Ġglobal isation
Ġcor por
Ġbook s
k en
Ġim f
Ġident ity
Ġqu ant
Ġelect or
Ġguarante es
Ġbel ong
Ġpeop les
Ġsp oke
Ġbo y
Ġoblig ations
Ġkill ed
Ġo ce
Ġinvest ors
Ġnat urally
Ġur ban
Ġdise ases
bo th
Ġappreci ate
b or
d i
h ib
Ġcons olid
Ġtra in
Ġexper ts
Ġoccas ion
Ġsee king
Ġmeet ings
Ġrelative ly
Ġvulner able
Ġtelev ision
Ġb ilateral
Ġdec is
Ġreason able
Ġprofession al
Ġblo od
Ġlu x
Ġgeor g
and on
Ġsocial ist
Ġ19 7
Ġtechnolog ical
Ġcop enhagen
Ġlegit im
c ast
Ġg ender
ri ght
Ġv ast
Ġcare ful
Ġpen sion
Ġtraffic king
Ġse vere
Ġso le
Ġprotect ing
Ġjapan ese
y our
or se
Ġsepar ate
r il
Ġn g
Ġgrant ed
Ġbe lar
Ġar ch
Ġsit uations
Ġhelp ing
Ġreach ing
Ġf irms
et ies
Ġab andon
i ence
Ġpeace ful
d ing
Ġbr ings
t w
Ġex ists
Ġliberal isation
Ġr out
Ġcomp ared
Ġbl ock
Ġexpect ations
Ġbelar us
k es
Ġpl ant
Ġexp and
rat ic
Ġinvolve ment
Ġsubsidi arity
Ġal liance
Ġdis appe
Ġam az
Ġph en
Ġstud ies
Ġswed ish
Ġimp osed
Ġstrong er
Ġparticip ate
Ġpoll ution
Ġperform ance
w ide
Ġto wn
um er
Ġstand ing
Ġdecad e
Ġre n
Ġus ually
Ġco ast
Ġ199 0
Ġassemb ly
Ġphen omen
Ġb os
Ġwor st
Ġar my
r ant
Ġst able
Ġdis pl
Ġap ril
Ġple as
Ġbra zil
Ġult imately
Ġthor ough
on ce
Ġansw ers
Ġdefin ite
Ġappro val
Ġmin orities
Ġend orse
Ġatt ach
Ġallow s
Ġsumm er
Ġsp ort
Ġwrit e
Ġexc lud
if ying
ab or
Ġair p
Ġsud den
Ġan g
Ġde light
Ġun less
Ġag g
Ġapp arent
Ġmo bility
Ġassoci ated
en ary
Ġto ler
Ġin ev
Ġpl ants
Ġdri ving
ster dam
Ġcomplic ated
t ies
Ġ ice
Ġne ther
Ġexp ensive
Ġsp ring
Ġent it
Ġresol ved
Ġins pect
Ġcri mes
Ġelse where
Ġ8 0
h ol
r ich
Ġint end
Ġinter pret
Ġfind ing
Ġnear ly
Ġterrit ory
p res
Ġin ad
Ġis ol
os p
Ġinit ial
Ġimprove ments
Ġec b
Ġconsist ent
Ġcell s
Ġnether lands
Ġcent re
ne y
stand ing
Ġest im
Ġsignificant ly
g iven
Ġs qu
Ġvol unt
Ġrem arks
Ġcap able
Ġsoci eties
Ġschool s
Ġislam ic
gar ia
g ment
it ution
ress ive
Ġelectric ity
Ġ x
Ġb inding
Ġsh ar
Ġcitiz en
Ġorgan ised
Ġstat istics
Ġplac ed
Ġcollect ive
Ġbir th
i ar
n ia
is on
Ġto b
Ġam sterdam
Ġpl enary
Ġpolit ically
Ġban king
Ġbor n
Ġfunction ing
Ġhundred s
Ġdef ined
Ġexist ence
Ġrad ical
m ar
Ġex e
Ġdep ends
Ġassoci ation
Ġargu ment
Ġeval uation
Ġc atch
Ġcommitte es
Ġrest ruct
Ġunivers al
Ġenjo y
Ġarrange ments
Ġd ign
Ġcon ce
the ir
Ġsome what
Ġpromot ion
pr us
d uring
ci ous
Ġen force
Ġtalk ed
Ġopt im
Ġemphas is
n al
Ġrem o
Ġsmall er
Ġimmig rants
Ġc ore
an cing
Ġm ic
eng en
Ġse ll
Ġprotect ed
Ġcompet ence
Ġd ied
le ep
Ġwe ight
Ġoff ers
h ave
Ġad vert
Ġim age
Ġprim arily
Ġacc ounts
Ġtas ks
lo ok
Ġorgan ization
do es
Ġargu ments
Ġsav ings
Ġc ast
Ġb ab
le ction
Ġent ry
Ġrelig ion
Ġmaterial s
Ġprosper ity
it ness
ent h
Ġfact s
Ġvar i
with out
Ġoper ate
Ġdemonstr ated
Ġam ounts
Ġjust ified
Ġworld wide
Ġbelie f
Ġlead s
Ġperson ally
Ġabs ence
Ġoper ations
Ġencoura ging
ul ating
Ġeuro zone
Ġsur ve
Ġcontribut ions
Ġg al
Ġqu ar
Ġhigh est
Ġtreat ed
Ġlab e
Ġpat tern
Ġdut ch
Ġbul garia
Ġdetermin ed
Ġp ul
Ġd ark
Ġg az
Ġpro ved
act ory
Ġsou thern
Ġcy prus
Ġlegit imate
d id
on ia
Ġm oun
Ġre tain
Ġpar al
Ġsch engen
Ġrecogn ised
Ġemerg ency
Ġspok en
n or
Ġs light
Ġge ograph
Ġdetail ed
Ġextra ordin
Ġstra ight
ap se
Ġpropos ing
Ġdep art
Ġmig ration
Ġdistribut ion
Ġschem e
Ġshow ed
Ġkeep ing
Ġaudit ors
Ġre li
Ġfa ith
Ġpropos es
Ġtrans ition
Ġtax ation
Ġdemonstr ate
Ġrestrict ions
Ġveh icles
Ġpro c
Ġinter govern
Ġadv ance
Ġportug al
u sion
Ġc z
Ġbe ings
Ġfav or
Ġperson s
Ġz one
Ġtool s
Ġintergovern mental
c ks
Ġprim ary
oin ted
Ġinvol ving
Ġtemp orary
sy ch
Ġc am
Ġp sych
Ġfor t
Ġac ce
Ġoppos ite
Ġsha pe
b ur
Ġext ended
Ġap art
Ġver sion
Ġevent ually
Ġbarri ers
Ġm ag
Ġf at
Ġre ve
Ġsome body
Ġannoun ced
p ay
u gh
u able
le y
il st
Ġv ig
ish ing
Ġpri or
Ġstand s
Ġfoc used
Ġproper ty
Ġdescri bed
Ġtyp es
Ġcompens ation
Ġp ick
Ġun iversity
Ġpre m
com m
Ġamong st
Ġflex ible
b ru
v est
Ġp ure
Ġheav y
re es
Ġb all
Ġprom ise
Ġadv anced
Ġnegoti ating
Ġhold ing
Ġintel lect
ra in
ove red
b ing
r ated
Ġh osp
ag ree
Ġequ ip
Ġrapid ly
Ġbo ost
Ġrespect ed
ond on
Ġlat ter
Ġeth nic
Ġwal k
Ġlegitim acy
e e
ac co
em ic
Ġlit er
Ġjud icial
Ġwonder ful
i ent
or ial
Ġn os
ad ow
Ġimp ose
Ġlat est
Ġpurs ue
2 00
m ing
Ġimport s
Ġmin ute
Ġdelight ed
Ġcz ech
bru ary
Ġguarante ed
Ġopt ions
h r
ud s
ress ed
Ġmo ved
Ġconstant ly
pres ident
w ould
Ġre b
Ġdis asters
Ġfe bruary
Ġform al
Ġhealth y
Ġindust ries
Ġopin ions
er o
Ġm ac
Ġcomp ly
Ġbl ue
Ġsubst ances
Ġhistor ical
Ġbehav ior
Ġjour nal
Ġmax imum
Ġhosp ital
e conom
p ro
Ġw itness
Ġn ar
Ġre cession
Ġst abil
Ġme xic
Ġover come
Ġaid s
Ġmil k
Ġ5 00
Ġfreedom s
Ġconclud ed
Ġrecommend ation
Ġd ouble
Ġdist in
Ġp pe
ut ed
Ġme at
Ġwas h
Ġoff ered
Ġcommun ist
Ġdign ity
Ġth row
Ġs ac
if e
Ġcent er
Ġtrad ition
Ġp i
Ġor al
Ġadop ting
Ġplay ers
Ġallow ing
Ġph ase
Ġbal tic
Ġmanufact ure
Ġpublish ed
Ġcontra dict
u ous
ar i
ic ed
il iation
rou d
Ġmar k
Ġfirst ly
Ġass ume
Ġadv ice
Ġmult ilateral
Ġsecret ary
id ge
Ġcommission ers
Ġeffect iveness
Ġ199 8
Ġtob acco
o o
on om
it ime
Ġprodu cing
Ġsc and
Ġce le
Ġsk ills
t in
Ġs on
Ġto ward
Ġst ories
ri f
Ġas ian
Ġincreas es
aren ess
Ġoblig ation
Ġin equ
Ġ2 4
Ġcomp on
Ġmar gin
Ġvolunt ary
at o
Ġy e
Ġr an
Ġri g
Ġpre ced
Ġgu y
Ġinvol ves
oub tedly
Ġpalestin ians
ing u
Ġevery where
Ġprom ised
Ġsur round
Ġcustom s
Ġincent ives
g ence
res h
Ġse arch
Ġv ill
con s
Ġstrateg ies
Ġhistor ic
Ġv ice
Ġli e
Ġmar itime
Ġelect ronic
Ġdeter mination
c ould
e mb
Ġs ight
Ġf aster
Ġput in
Ġtax pay
Ġfirm ly
Ġchair man
Ġdiplom atic
Ġfacilit ate
Ġdecis ive
l ined
w are
Ġs we
ay s
ab ilities
Ġpos sibly
Ġpur ch
Ġaw areness
Ġdest ruction
v ak
Ġw ine
Ġf it
ot o
Ġcont rast
Ġdeep ly
Ġperfect ly
Ġexplan ation
ch ina
Ġrec all
Ġexcess ive
Ġintellect ual
f ace
Ġthe ory
Ġm c
ro te
am ed
Ġcomp liance
iz ations
Ġpre dict
Ġdec line
Ġtra ged
Ġrom a
Ġdetail s
Ġfulf il
a i
Ġbe g
Ġnot ed
Ġra c
Ġaf tern
Ġexper t
Ġbrief ly
e ff
Ġo s
Ġmat ch
ad a
Ġgo ld
Ġthere by
ard s
Ġinc lusion
Ġdraw ing
Ġfriend ly
Ġrepl ace
Ġphys ical
Ġcooper ate
Ġbot tom
Ġentit led
in c
Ġp roud
ri an
and a
Ġv ia
Ġopen ed
Ġhear ing
Ġcoll apse
th rough
our g
ang ing
Ġass ure
Ġcris es
Ġsustain ability
u mb
Ġcut s
umer ous
n one
Ġw rote
Ġo mb
Ġf light
Ġle ban
Ġprof it
Ġgir l
Ġalloc ated
Ġlabe lling
Ġomb uds
Ġb ed
Ġtrans l
Ġbl ame
ld er
Ġsatisf ied
Ġgeorg ia
Ġaftern oon
Ġre action
Ġyou th
Ġend ed
Ġsc en
Ġcho ices
bour g
Ġground s
Ġlaunch ed
Ġforth coming
w s
as bourg
Ġbelie ves
last ly
Ġlux emb
Ġf ruit
Ġli ved
Ġus a
Ġrad io
Ġto ugh
Ġno body
Ġmo v
Ġrel ates
Ġspeak er
Ġ199 7
Ġsuff er
Ġexam ine
Ġoce an
3 0
Ġon going
Ġstr asbourg
Ġfarm ing
Ġpati ent
Ġaust ria
Ġund oubtedly
Ġsex ual
h ar
Ġab use
Ġdis agree
Ġinc om
cept ion
Ġcre ates
Ġshow ing
Ġplan ned
Ġrepresent ed
Ġord inary
Ġobstac les
ad v
ific ations
Ġdeter mine
Ġsuggest ed
Ġdict ators
Ġimplic ations
Ġt it
Ġm ath
os en
Ġdisp os
Ġbe low
Ġab stain
Ġsub mit
Ġem ot
europe an
Ġrecon st
b all
Ġpro sec
Ġv ide
Ġspe ct
Ġval uable
Ġterri ble
Ġrestruct uring
Ġequip ment
Ġh us
as ing
ren eur
Ġunder min
Ġprocess es
Ġnecess arily
Ġjud ge
rep reneur
Ġluxemb ourg
Ġser bia
ne cess
eng th
Ġsovereign ty
Ġsh ift
Ġact ing
Ġro ot
Ġback ground
Ġess entially
Ġhard ly
Ġlea ving
Ġg ap
Ġnot ice
Ġab road
Ġac p
Ġdis m
Ġbo x
Ġmon op
Ġreal istic
Ġurg ently
b es
Ġal i
Ġpresident ial
Ġpre f
Ġ7 0
Ġwide ly
Ġdepend ent
Ġky oto
Ġbalk ans
Ġe cu
Ġres erve
Ġteach er
Ġtro ops
Ġdefinite ly
Ġtr ouble
Ġev olution
Ġent repreneur
ict ion
Ġwar s
Ġsignific ance
Ġoper ating
Ġturn s
Ġe p
il es
Ġexperi enced
Ġarg ue
Ġstrengthen ed
Ġcontain ed
Ġwelcom ed
tw o
econom ic
Ġis land
Ġrest ric
Ġsupp lement
Ġrecogn ize
Ġwid er
y le
Ġn umerous
Ġsu gar
Ġpart ly
Ġappro ve
Ġda ily
Ġombuds man
g ic
is ory
Ġpro hib
Ġun necess
Ġtra ck
Ġv an
Ġfollow s
Ġm ent
Ġch osen
Ġvot ers
Ġprep are
Ġpurp oses
Ġharmon isation
Ġsen sible
Ġimp ression
Ġar med
Ġgreat ly
Ġpay ment
Ġcoordin ated
Ġinnov ative
o x
Ġs leep
Ġch ann
Ġless on
augh ter
Ġt ight
Ġrem ove
Ġinter ven
Ġless ons
Ġmist akes
Ġuni que
at ures
an cy
ire ct
Ġany body
Ġconstit u
Ġfound ation
Ġreflect s
Ġaccomp an
a mb
Ġsh adow
Ġr ational
Ġnever theless
Ġsure ly
Ġer a
Ġprospect s
Ġtren d
Ġf al
un g
Ġpri ze
Ġpat ent
Ġsubst ance
Ġscient ists
Ġsuperv ision
Ġad mit
Ġinf ect
Ġrequire ment
Ġvis a
Ġrequest ed
Ġcoll abor
Ġbat tle
Ġforg ot
g en
g ra
Ġt ed
Ġw at
Ġh ol
Ġv es
Ġres erv
ast ic
Ġbuild ings
Ġsuff ered
Ġbehav i
Ġacknow ledge
Ġmusl im
Ġpoore st
Ġl ic
Ġl ength
Ġsu m
Ġoccas ions
Ġsurpris ed
Ġgaz a
b ack
Ġst ocks
Ġch ap
Ġpol ish
te en
Ġapp oint
Ġz ero
reg ard
Ġpenal ty
Ġhop es
Ġstrugg le
s ub
ul a
Ġpresident s
Ġ19 6
Ġpay ing
Ġident ified
Ġasse ts
Ġsucceed ed
Ġdefic its
Ġm os
om s
Ġra in
Ġprev ail
Ġuni verse
Ġunf air
c ar
h er
Ġc ry
Ġl ondon
ur ch
Ġun if
Ġr h
Ġconc iliation
Ġfamil iar
Ġadvert ising
c are
Ġi mb
Ġrev ision
Ġurg ency
Ġphenomen on
n el
Ġsy mp
Ġcor respon
Ġdoct or
l av
Ġm ap
ou d
Ġha mas
Ġal ban
Ġfr ank
Ġviol ations
Ġfield s
Ġmoun tain
s imilar
ic ip
Ġre lie
Ġdes erves
Ġtri al
Ġslo vak
Ġmach ine
ue l
Ġsp l
Ġsuff ici
Ġng os
Ġpers u
Ġlos ses
en cing
ul s
ph ere
Ġ9 0
Ġclar ify
Ġpill ar
Ġn ine
Ġdec ent
Ġthreat s
Ġcro at
Ġsh aring
Ġoper ational
Ġdynam ic
Ġextraordin ary
it ect
Ġfor um
Ġdef ine
Ġdifficult y
Ġprevent ing
Ġs ister
Ġb ought
Ġn ig
Ġre iter
Ġimportant ly
ib et
Ġexc lus
Ġterrit orial
Ġshar p
Ġsu sp
et s
ab ling
Ġdis adv
Ġtest s
Ġsent ence
Ġprepar ing
Ġdisadv ant
Ġc aught
or ing
Ġpro di
Ġext ension
Ġident ify
Ġreflect ed
Ġwind ow
Ġcam er
d own
re w
Ġre cip
Ġch arge
Ġmodel s
Ġo d
Ġ2 3
Ġpos sibilities
Ġhouse hold
Ġsuccess fully
Ġbor row
Ġcoh erent
ca pe
Ġarch itect
Ġas h
Ġar m
lic it
Ġfe et
Ġlot s
Ġreli able
s on
Ġe t
Ġhung arian
Ġprison ers
Ġst em
Ġdeal s
Ġwarm ing
Ġarri ved
Ġacknow led
a x
b a
p read
ul f
ir ing
un ity
con sequently
Ġra ising
ides pread
Ġaddress ing
Ġche ap
vious ly
Ġgir ls
z er
Ġf resh
Ġin j
Ġun ity
Ġse at
os lav
Ġsy ria
Ġdef ense
Ġcla ims
Ġdecl ared
Ġmedic ine
Ġexec ut
Ġmexic o
Ġt ar
Ġm ix
Ġf er
os oph
Ġimp er
Ġacc ur
Ġprom ises
com p
ib ly
Ġ201 1
hold ers
Ġf ly
Ġf lu
act ive
Ġinter f
ug oslav
Ġcandid ates
Ġsett lement
Ġhous ing
Ġo l
Ġtop ic
Ġtraged y
o ld
Ġt ibet
Ġw idespread
Ġtw enty
Ġext ensive
Ġold er
Ġ201 3
Ġelector al
Ġpleas ure
Ġreconst ruction
Ġre ass
Ġreg ist
Ġconsider ing
Ġchar ges
Ġconcent rate
Ġdispos al
Ġsymp ath
w an
Ġb reat
Ġre ly
Ġex ceed
Ġdis cip
Ġexp an
Ġdep th
Ġsur prise
Ġbl ind
Ġtell ing
Ġviol ent
Ġoccur red
Ġf em
Ġst ation
Ġse lect
um ed
Ġproduct ivity
Ġfair ly
Ġmob il
Ġamaz ing
Ġw ife
Ġm ine
Ġy ugoslav
Ġse ts
Ġus ers
Ġdisc overed
Ġph one
Ġbro ther
Ġfour th
Ġaffect s
Ġwilling ness
Ġmiss ing
Ġmedic ines
Ġfil m
Ġphil osoph
Ġunif orm
Ġd ump
Ġas ide
Ġsc ot
Ġinf ring
Ġappropri ations
Ġmaintain ing
Ġfl ag
Ġflo od
Ġconfirm ed
p ts
Ġc row
as m
Ġtim et
Ġexp licit
Ġopen ness
Ġvict ory
Ġconduct ed
Ġreve al
a ult
Ġd in
Ġst ick
wh ich
Ġnew sp
Ġsy n
Ġacc idents
Ġdeb ating
ce l
ci f
Ġiss ued
Ġorgan izations
Ġmot or
Ġaut onom
Ġdeli ber
Ġcal cul
Ġber lin
Ġdig ital
Ġuncertain ty
p art
os ition
Ġch urch
ap ers
ha ving
Ġrecon cil
Ġpun ish
Ġattemp ts
Ġres erves
Ġpre d
Ġprof its
Ġmaintain ed
Ġcontract s
Ġrele ase
Ġt v
Ġm ort
Ġpro of
Ġown ers
Ġcontro lled
Ġill ust
Ġquot as
Ġexpan sion
Ġg ames
ke ts
Ġv acc
Ġav iation
Ġdemand ing
Ġstat ute
Ġapply ing
Ġsatisf actory
Ġrat ification
Ġbehavi our
r ont
Ġ â
Ġen em
Ġtra gic
Ġhum ans
Ġprof ound
Ġencoura ged
Ġpasseng ers
Ġtaxpay ers
h ouse
Ġres ource
ag ue
Ġdirect or
Ġjo hn
Ġrest ore
Ġsur pl
Ġlink s
Ġhy p
Ġwat ers
t r
Ġb ol
Ġen de
Ġstr ange
ues e
be fore
Ġemploy ed
Ġoper ators
Ġfisher men
Ġcarry ing
Ġdiv ided
Ġregret t
Ġneighbour s
Ġende av
x ts
Ġs ought
as c
Ġal arm
qu id
con t
Ġsa ving
ang es
Ġstud ent
Ġeng aged
Ġcolle ge
Ġmot iv
Ġexc lusion
ograph ic
Ġundertak en
Ġcub a
Ġleban on
Ġth ir
th ly
Ġide al
Ġsur face
Ġlos ing
Ġemb ar
Ġhighlight ed
Ġinvestig ation
ob viously
Ġvide o
z z
Ã ¼
Ġt ort
ou th
ad ing
qu es
Ġat mos
Ġcreat ive
Ġcomb ined
Ġdut ies
Ġremo ved
Ġimb al
n s
Ġ q
at lantic
Ġfin ish
Ġtw ice
Ġtur ning
Ġportug uese
Ġinad equate
en n
Ġcour ts
Ġent ered
Ġresult ing
Ġaw a
ock ed
Ġterror ists
Ġsuggest s
ira ble
Ġenh ance
Ġworry ing
Ġs ake
ing ton
Ġl uck
ie f
Ġact ively
Ġfin land
Ġbelie ved
Ġdra matic
Ġfam ous
Ġsurv ive
Ġsto pped
Ġa ug
Ġb low
Ġfin ished
Ġhuman ity
Ġsupp lies
Ġfall s
Ġexplain ed
Ġk il
ag ain
wh el
Ġgovern ing
Ġput s
Ġreal ise
Ġintrodu cing
Ġsus pend
Ġbeg un
Ġs ick
Ġin eff
Ġwh ilst
Ġr ough
Ġdef e
Ġdep loy
Ġ199 6
Ġcut ting
Ġresist ance
a w
h us
Ġw ise
er ved
se e
Ġpar ad
Ġbig ger
Ġlist ening
Ġgener ations
Ġdisp ute
itution al
i ant
m o
th es
Ġad m
Ġev ol
Ġev ident
Ġover whel
Ġsch ed
Ġfew er
Ġcomple ted
Ġseem ed
Ġgre ens
Ġconsequ ence
Ġwatch ing
Ġeval u
Ġtun is
Ġunlike ly
ud i
Ġra ce
Ġgu ard
Ġcred ible
Ġmult ip
Ġstri ke
re l
Ġm agn
Ġcan ada
Ġthan king
Ġeconomic ally
Ġlaw y
Ġcontribut ed
Ġign ore
Ġsuffici ently
Ġd ed
Ġd rop
Ġdictators hip
Ġd ro
all ow
Ġco ff
Ġtrans atlantic
Ġdes erve
Ġins uff
Ġremain ing
Ġachieve ment
Ġfall ing
Ġproceed ings
Ġinterpret ation
in o
Ġf ash
ra cies
Ġv at
Ġint ensive
Ġad ult
Ġcl ause
Ġatt end
Ġfac ilities
Ġopp ose
Ġpurs u
Ġflow s
Ġdisapp oint
Ġconver gence
Ġunnecess ary
Ġh iv
Ġtrans itional
Ġsc re
Ġ3 00
Ġhead ing
Ġbroad er
Ġqual ified
c ra
f our
Ġli quid
Ġreal ize
Ġval id
Ġnegoti ation
Ġsus pect
Ġh al
Ġd ub
Ġprogra ms
Ġins p
Ġextre m
Ġiran ian
Ġweak ness
every one
Ġbom b
g u
t i
Ġch ain
Ġ2 2
Ġsm oking
Ġconstit ute
Ġcroat ia
Ġw age
os s
Ġin qu
Ġint ens
Ġcomp uls
Ġleg ally
Ġconnect ed
Ġadvant ages
Ġprepar ation
Ġlea ves
Ġreven ue
t ake
Ġs im
Ġe ch
for ced
Ġremain ed
r ust
Ġreg imes
Ġind irect
Ġconf ront
Ġeduc ational
Ġiraq i
Ġtarge ted
Ġcorrect ly
Ġ198 0
ur ies
oun ting
Ġat lantic
ab we
Ġco ol
Ġdeb ated
Ġappro x
Ġamend ed
Ġenvironment ally
Ġpop ulations
clear ly
Ġcivil ian
imb abwe
Ġcorpor ate
Ġfash ion
i wan
Ġp il
Ġm ur
Ġno ise
Ġra w
Ġeconomic s
Ġgu ys
Ġexperi ment
Ġprevious ly
Ġgenuine ly
similar ly
Ġwar ning
Ġneigh bor
Ġsold iers
Ġbab y
Ġwe b
ter ing
us al
Ġri ver
Ġvi able
Ġbur ma
Ġsk y
Ġsud an
Ġpure ly
Ġg ar
Ġwe ather
Ġwor ried
Ġlo ans
Ġlast ing
ph one
Ġpriv ile
Ġton ight
Ġcompuls ory
Ã ³
or ous
op ho
Ġint entions
Ġca using
Ġinn oc
Ġneighbour hood
Ġexplo itation
Ġenforce ment
Ġmac ro
ers on
ci ent
Ġus ual
Ġsee ks
Ġcol on
Ġfr an
Ġrat ified
Ġbureauc racy
Ġacce ler
k y
Ġw ood
om in
Ġcap t
Ġ199 5
Ġhon our
Ġgl ass
Ġbos nia
act ions
Ġmost ly
Ġref used
Ġsw im
inst itutional
Ġelimin ate
at ible
Ġ2 6
Ġreport ed
Ġjust ify
Ġsol ved
Ġregard ed
Ġamb ition
Ġtre m
Ġgradu ally
urs day
Ġintellig ence
r ates
Ġo w
Ġf ing
Ġis lands
il s
Ġk n
Ġint ends
Ġfore most
Ġhealth care
Ġconserv ative
Ġadjust ment
Ġincred ible
u ild
er ate
am eric
oc king
Ġexp ense
Ġper pet
Ġequ ival
Ġdet ect
Ġparal le
b and
Ġsh ame
Ġmore over
Ġsign s
Ġcor ner
Ġmove ments
Ġstress ed
Ġsal es
Ġslight ly
Ġp ace
ch e
Ġse ction
Ġconsid ers
ov a
Ġpercent age
Ġindic ated
Ġhom es
Ġcateg ory
Ġth ursday
ir y
Ġenv is
Ġpers ist
Ġmor oc
Ġz imbabwe
Ġemer ged
Ġinsuff icient
m on
pt ion
Ġemp ty
Ġent ail
Ġexperi ences
Ġanal y
Ġfif th
Ġmob ile
Ġremark able
Ġrepeated ly
Ġb se
ic ted
Ġcertain ty
Ġcong ress
co hol
Ġsole ly
r ors
Ġg ri
Ġv ac
ign ed
Ġany where
Ġinv ited
Ġemb ra
Ġaltern atives
Ġquar ter
g a
n y
s en
Ġth res
Ġo h
Ġd anish
as ion
Ġar ise
Ġdec re
Ġmo ld
Ġreal ized
Ġfac es
Ġtri p
Ġbre ach
Ġcat ast
Ġcommunic ations
Ġthres hold
Ġc li
Ġrefer ring
Ġpalest ine
Ġoblig ed
Ġannoun ce
Ġphot ograph
Ġher it
sid er
Ġdri ven
Ġsurv ival
Ġa le
Ġg ulf
Ġwe bs
Ġ2 8
Ġjo ined
Ġsc ar
ribut e
Ġquot e
Ġmov ie
Ġatmos phere
i mp
Ġw ake
ra d
ke ep
Ġcomm od
we l
Ġind ian
Ġend ors
Ġhelp s
Ġgain ed
Ġign ored
Ġsudden ly
Ġfal se
Ġf ost
Ġn ut
Ġup d
Ġsp ite
Ġind ones
Ġcompet ent
Ġear n
Ġconv ince
Ġpra g
Ġbelg ium
Ġforgot ten
Ġherit age
u k
on a
Ġw ages
Ġon to
Ġal cohol
Ġinter institutional
Ġta iwan
cu se
Ġrepresent ation
Ġsubject s
Ġmind s
Ġapplic ations
Ġslow ly
Ġhung ary
Ġstim ul
Ġemot ion
r id
y al
Ġw ed
Ġc as
Ġst ream
ak ers
Ġcomp lement
iz es
Ġunder mine
Ġper mit
Ġgen etic
Ġinter pre
Ġdist ort
Ġdoub ts
Ġcult ures
Ġp orts
ly mp
Ġal ive
Ġsh ap
Ġoff ering
Ġent hus
Ġrespect s
Ġsuggest ions
Ġdead line
Ġbureauc ratic
Ġfix ed
Ġfrequ ently
comm un
sub ject
Ġenthus i
Ġfinan ced
Ġconsider ably
Ġdist ance
Ġlib ya
pl ace
Ġdeath s
ec ision
Ġnone theless
Ġentrepreneur s
Ġt ired
at t
Ġs ong
Ġm outh
al ities
Ġan x
Ġcomm and
Ġpl at
Ġsocial ists
Ġref ers
Ġsc r
Ġresult ed
Ġinstit ute
Ġdep ri
Ġplay s
Ġnegoti ated
Ġmic ro
Ġtimet able
it ably
Ġac ad
Ġharm ful
Ġspeech es
Ġtemp er
sh ould
Ġves sels
Ġet c
cra ft
Ġtrem end
Ġli ked
ag er
Ġdemoc racies
Ġlist ened
Ġpen sions
Ġrom e
Ġpurs ued
Ġship s
Ġrac ism
h am
Ġas pir
Ġbad ly
Ġdestro yed
Ġexecut ive
b b
l ad
Ġd ar
Ġha z
am end
Ġreg ister
Ġdem ographic
Ġwhere as
Ġbr idge
Ġglobal ization
Ġconsider ations
Ġfound ations
app ro
Ġfue ls
Ġpet itions
Ġvirt ually
Ġscr ut
Ġ ic
Ļ «
Ġc ash
Ġp assion
an ks
Ġh at
Ġun p
um an
Ġdis s
Ġsm art
Ġfore cast
Ġaffect ing
Ġroad s
Ġcod ecision
Ġschem es
Ġo lymp
ol er
Ġfa ult
Ġmin im
Ġir re
Ġer ror
Ġdemon st
Ġeth ical
Ġregrett able
b re
Ġc ow
th ink
Ġy ield
ate ll
Ġmar ked
Ġcl arity
Ġretur ned
Ġbelg ian
Ġsqu are
Ġscand al
Ġreserv ations
Ġcoff ee
e th
j ud
Ġl ith
id den
ill ing
Ġun re
Ġun pre
op ard
Ġsp here
Ġper ce
Ġmarke ting
Ġrem ed
Ġdisc over
Ġnegoti ate
Ġconstit utes
Ġthreat ened
Ġcy cle
Ġfear s
Ġrein force
Ġdisapp ointed
Ġinterven e
Ġaccompan ied
Ġinfring e
g n
Ġw ild
Ġs ite
Ġc ert
ch es
Ġk en
other wise
Ġfree ly
Ġbon ds
Ġnar row
Ġendeav our
Ġn av
Ġme re
Ġdis abled
Ġout standing
Ġmod ified
Ġ3 5
Ġann ivers
Ġjour ney
Ġcoal ition
Ġse v
os is
Ġus es
Ġbo om
Ġsha res
Ġexception al
Ġdispl ay
Ġgeograph ical
Ġaug ust
Ã Ń
it i
Ġm it
Ġch ief
Ġpres erve
Ġinc ident
Ġthink s
Ġinst all
Ġgen et
Ġproduct ive
Ġmill enn
Ġveh icle
Ġmem ory
bur g
Ġwash ington
Ġtar iff
n at
it ical
ul ous
ant ly
are r
Ġte xts
Ġfund ed
Ġref use
Ġrequest s
Ġdev ast
Ġcomput ers
Ġairp ort
Ġsac rif
Ġmanufacture rs
Ġannivers ary
Ġmillenn ium
in ational
Ġnot ion
Ġun fortun
Ġsu itable
Ġcol om
to gether
Ġim ages
Ġdeter ior
Ġcop y
Ġpasseng er
Ġchap ter
in i
Ġm aced
Ġun ions
Ġrul ing
Ġemploy ers
Ġfail s
Ġbro ke
Ġteach ers
Ġequival ent
Ġunfortun ate
b el
er c
ar io
Ġj un
Ġcl ub
Ġcitizens hip
Ġbenef icial
Ġexperi encing
Ġsw ift
Ġfall en
Ġrom an
Ġunemploy ed
Ġden mark
Ġasse t
Ġdiscri min
y ear
Ġs ending
Ġf ate
ad ed
Ġsh i
Ġprov id
Ġdes p
Ġbro ken
Ġce ase
Ġvill age
b ar
e ach
Ġw is
Ġan ne
Ġg un
Ġon line
Ġst ance
Ġsh ut
Ġk ar
si ght
Ġapproach es
Ġcompar ison
Ġintellig ent
w ater
Ġn ames
Ġg ross
Ġpro lif
Ġind is
Ġgrow n
Ġmult i
Ġmult inational
Ġsound s
e in
ro c
Ġe ating
Ġst or
ad d
um n
eren ces
Ġneg lect
Ġph arm
Ġap olog
la h
Ġjud gment
Ġlog ic
Ġexclud ed
Ġinev itable
Ġbreat h
Ġunder lying
Ġtrans actions
Ġer ad
Ġdi agn
Ġdiv ision
Ġneighbour ing
Ġrepl aced
Ġdisappe ar
Ġcompon ent
Ġparalle l
k o
it ative
ct ive
Ġne ut
et or
Ġrel ate
Ġhelp ful
Ġlib er
Ġabs or
Ġregul ated
Ġemphas ised
Ġland s
Ġearth qu
Ġincent ive
Ġliter ally
in n
Ġb ub
Ġd an
ow er
Ġcon vers
pp er
me an
la w
Ġslo ven
Ġchemical s
Ġlith u
Ġt aught
Ġm urd
ed s
Ġg h
Ġso il
Ġprov en
Ġdirect ed
Ġpresent ation
Ġnecess ity
Ġche cks
Ġcapital ism
Ġpot entially
Ġsurround ing
f ollow
n ational
al so
Ġe lder
Ġsm oo
Ġmod est
Ġret ire
Ġcomb ination
Ġgre w
Ġdemonstr ates
Ġindic ate
Ġexam ined
Ġdecl are
Ġincred ibly
Ġrestric ted
Ġfem ale
Ġreconcil iation
s pe
or n
ou red
Ġra ises
Ġpresent ing
Ġvi et
Ġvis ible
Ġarg ent
Ġgener ate
Ġobtain ed
Ġstreet s
Ġregular ly
Ġc f
Ġp se
Ġfound ed
reg ular
Ġsatisf action
Ġlog ical
Ġsoft ware
Ġestim ated
Ġscen ario
Ġâ Ļ«
Ġviet nam
c ap
Ġa st
in der
Ġe co
ct ic
Ġst yle
os ing
em oc
Ġsome where
Ġra re
Ġke en
Ġbus y
Ġvis ited
Ġperiod s
Ġcomplain ts
Ġvari ety
Ġapprox imately
f all
Ġd av
Ġact ors
Ġmar ried
ang ible
Ġfeel s
Ġvol ume
Ġdelay s
Ġje opard
Ġobser vers
Ġrh etor
Ġrelie f
Ġo x
ot ed
ast rich
Ġsa udi
Ġdist ingu
Ġviol ation
ark o
Ġemer ge
Ġant icip
Ġacqu is
Ġproc ure
astrich t
Ġt ree
Ġb iod
ic ian
Ġex cuse
Ġhe at
ak en
ced ented
Ġbr ut
Ġdep ression
Ġvict im
Ġgreen house
Ġunivers ities
Ġheav ily
Ġunanim ously
Ġstimul us
Ġprolif eration
c s
ation ally
ver si
ra p
Ġman aging
Ġro ll
Ġref lection
Ġma astricht
Ġset tle
chn ya
Ġ3 1
Ġamb itions
Ġult imate
Ġsuperv isory
Ġinnoc ent
Ġunpre cedented
arko zy
i able
i ents
k a
z en
Ġa ward
Ġs and
Ġl augh
Ġhapp iness
Ġgu ess
com ings
Ġfail ing
Ġabs urd
Ġprevent ed
no body
Ġfun ctions
Ġec ological
Ġenh anced
Ġmur der
c ulation
Ġf ab
Ġha ir
Ġpar is
Ġ2 9
Ġext ending
Ġsol ar
Ġshort comings
Ġsuggest ion
Ġsad dam
Ġarri ve
Ġaccomp lish
Ġrout e
Ġtremend ous
d ed
r ussi
u ity
re qu
Ġs atell
Ġst ore
Ġunder line
Ġregard less
Ġart icles
Ġdi ver
Ġindic ators
Ġaccording ly
Ġtack ling
Ġhor iz
Ġrele ased
Ġinequ ality
versi al
o ly
u ct
ic ations
Ġl ad
Ġfra g
Ġrev ised
Ġche chnya
Ġcoordin ate
Ġkill ing
Ġpie ces
Ġinh ab
Ġtransform ation
none theless
o ided
t ime
w a
Ġl end
Ġsh if
Ġpar k
Ġres ort
Ġacc ounting
Ġfinan ces
Ġdifferent ly
Ġopen ly
Ġav oided
Ġdist ur
Ġtrad itions
ev a
Ġhy d
Ġfoot ball
Ġfif teen
Ġdump ing
Ġb ang
Ġre cy
Ġal lies
Ġun it
un til
Ġen lar
Ġpl ural
Ġcomp assion
Ġinc omp
Ġconf ident
Ġfr id
Ġfr ust
Ġshort ly
Ġaccess ible
Ġaust rian
Ġmer c
Ġhop ed
Ġsimplif ication
Ġwelcom es
Ġcompe te
Ġcollabor ation
Ġtort ure
Ġh ence
ch ild
Ġcomm end
Ġconf ron
Ġher o
Ġpa cif
Ġmanufact uring
cel ona
Ġech o
Ġanne x
Ġd ur
Ġeuro pol
Ġr and
Ġag rees
Ġli kes
Ġqu iet
Ġout put
Ġtra ve
Ġbu ying
Ġbl air
Ġregul ate
Ġlack ing
Ġaud ience
Ġpict ures
Ġdistribut ed
Ġsil ence
Ġmusl ims
Ġapparent ly
Ġnig eria
Ġm ary
Ġh ong
ro om
Ġha bit
Ġeuro s
Ġch amp
Ġstr ing
Ġem u
Ġir regular
Ġ199 4
Ġrecogn ized
Ġdet ri
Ġmot ions
Ġve get
Ġaust ral
Ġoccup ation
Ġye ah
Ġsupplement ary
Ġprocure ment
b et
Ġf asc
st ream
Ġun equ
Ġpl ed
Ġeconom ists
Ġcontro versial
ib an
Ġreject ion
Ġdistin ction
Ġmaced onia
c ow
r ous
en sible
ad ays
Ġen abling
Ġno vel
Ġmo le
Ġhope fully
Ġorgan ized
Ġappe ared
Ġdeep er
Ġpenal ties
Ġairp orts
Ġsurpl us
mean while
n l
Ġb ow
Ġco vers
Ġfe ature
Ġper mitted
Ġro ots
Ġcol or
Ġsign als
Ġ201 2
Ġfocus ing
Ġden ied
Ġperspect ives
Ġtren ds
Ġjournal ists
Ġbiod iversity
Ġw ing
Ġs n
Ġf ought
om al
Ġv oc
Ġk ong
Ġpre ca
Ġpo et
ces sions
Ġper sec
Ġjo ining
Ġprocess ing
Ġorgan ic
Ġspeak s
Ġart ific
Ġsw itch
Ġbar celona
Ġdri vers
Ġhun ger
Ġdoct ors
Ġment al
Ġrough ly
i ate
m akers
Ã ¤
Ġp age
Ġres c
Ġman if
Ġcons cious
Ġacc used
Ġtal iban
Ġstar ts
Ġopp on
Ġgra ve
Ġapplic ant
Ġdescri be
Ġcou p
Ġtele phone
Ġpul l
Ġinqu iry
Ġst ood
Ġal ger
Ġsp ot
Ġdes irable
Ġmil es
Ġjoint ly
Ġbi ological
ha ust
Ġalloc ation
Ġcele br
follow ing
r um
t ical
Ġh es
ot ic
if ies
so ever
ac es
Ġwhat soever
Ġman ip
Ġexp osed
Ġinform al
Ġhand ed
Ġachieve ments
Ġeffici ently
Ġcomplex ity
Ġattract ive
Ġmath em
Ġabstain ed
p oint
at isf
ic ated
Ġcon ven
li hood
Ġj ur
Ġsp orts
Ġcent res
Ġansw ered
Ġcolle ction
Ġrun s
Ġhold s
Ġprepar ations
Ġwarm ly
Ġdiplom acy
Ġton nes
Ġdestro y
Ġdraf ting
Ġmoroc co
b as
h ence
m uch
Ġnot ably
Ġrec over
ang ed
Ġsit es
Ġdes per
Ġconv entions
Ġcreat ivity
Ġhard er
Ġcoh erence
Ġill ness
Ġexam ination
Ġintegr ity
Ġundert ake
Ġautom atically
Ġpi pe
Ġtunis ia
a ur
m al
Ġt ribute
Ġf ant
Ġst ead
ill ance
Ġli ability
Ġtrans it
Ġwhere by
Ġdef ault
Ġban ned
Ġcompet ences
Ġinvest ing
Ġir on
Ġapplic able
Ġsk in
Ġdi verse
Ġcondem ned
Ġobser ved
may be
Ġaccur ate
Ġelder ly
Ġn amed
Ġbe at
Ġnot iced
Ġimp lies
Ġinv ite
Ġplay er
Ġeng land
Ġexc iting
Ġden y
Ġteach ing
Ġste el
Ġundertak ings
Ġconserv ation
Ġcro ps
Ġyugoslav ia
Ġmanif est
b ors
r ations
Ġt ic
in ated
Ġf ool
all ing
Ġcons ent
Ġinv ent
Ġoff ic
Ġgen oc
Ġta pe
Ġbro k
Ġcirc le
io x
Ġword ing
Ġmig rants
Ġforest s
Ġdraf ted
Ġfort un
Ġslovak ia
Ġsusp ic
Ġacknowled ged
Ġgenet ically
h ear
s ometimes
Ġa h
Ġs me
ic y
Ġe pid
ut ical
Ġab uses
Ġad verse
ag ers
Ġmar ine
Ġevery day
Ġide ological
Ġfav ourable
Ġiniti ally
Ġaccount ability
Ġpriv at
Ġrail way
Ġwithdraw al
Ġinev itably
Ġalban ia
Ġsuspend ed
in al
is c
Ġs arkozy
Ġc ens
ci ence
ace utical
Ġmo ves
Ġend s
Ġair craft
Ġrece iving
Ġori ent
Ġ15 0
Ġhur t
Ġut most
Ġsurve illance
Ġtit le
Ġol af
Ġmold ova
Ġhaz ard
appro pri
Ġrhetor ic
n ish
v ia
Ġt iny
Ġc ot
Ġd os
il ed
Ġl ag
Ġj ump
Ġsa har
Ġmar ks
Ġfundament ally
Ġtell s
Ġsoon er
Ġundertak ing
Ġcommunic ate
Ġobserv ation
Ġin g
Ġpro te
Ġal le
ra y
Ġv ent
ll a
ab ove
Ġdis par
Ġimport ed
ens es
rat ors
man n
Ġprof ess
with in
Ġcongrat ulations
Ġtest ing
Ġdisp utes
bo ok
Ġcampaign s
Ġdrink ing
Ġreiter ate
Ġimper ative
Ġsympath y
Ġindones ia
Ġpharm aceutical
w ar
Ġt angible
it zer
or ation
ou l
Ġan ge
Ġbe ef
Ġcon ve
Ġrespon ses
Ġfar ms
Ġaccept ance
sequ ent
Ġconte mp
Ġfle et
Ġten sions
Ġsubstant ially
Ġsurpris ing
Ġhus band
Ġenem y
Ġdefe at
c king
g ans
Ġb are
Ġd ivers
Ġg rat
Ġcom fort
Ġinst ability
Ġdef ending
Ġent ering
Ġterrit ories
Ġpoll ut
Ġunanim ous
Ġtele commun
Ġbill ions
Ġincorpor ated
rain ts
Ġinhab it
Ġfrid ay
Ġresc ue
Ġw ave
Ġb ail
Ġl ending
Ġpres cri
con nect
Ġout set
Ġoff ices
ec d
Ġconsult ed
Ġgrant ing
Ġengage ment
Ġmonop oly
Ġdin ner
it a
Ġd na
Ġd iox
Ġint oler
Ġpos s
Ġro t
Ġ19 4
Ġinter im
Ġsince rely
Ġlib ert
Ġassoci ations
Ġcrimin als
Ġwal king
Ġmiss ed
Ġcateg ories
Ġtoler ance
Ġdiscip line
l ong
en opho
Ġb read
Ġn ord
Ġre verse
Ġex haust
ap h
Ġmon it
Ġgr ass
Ġvis ual
Ġdang ers
Ġguarantee ing
Ġpurs uing
Ġcle arer
Ġrelationship s
Ġitem s
Ġrecord ed
Ġ197 0
Ġpil ot
nat urally
Ġwis dom
itzer land
Ġt all
Ġp ig
Ġm ich
Ġpro mpt
res pect
Ġimp rison
Ġco ok
Ġar bit
Ġany way
Ġes cape
Ġobs erve
Ġstru ck
Ġisol ation
Ġestim ates
Ġappoint ment
c les
r ather
Ġt s
en na
ch ed
Ġun ilateral
os y
Ġenter prise
Ġcounter fe
Ġpain ful
Ġappreci ation
Ġowners hip
Ġenlar ged
o h
Ġn ic
Ġsu ic
Ġact ed
lic ate
Ġback ing
Ġcent uries
Ġel ite
ber t
Ġtext ile
Ġcurren cies
Ġspl it
Ġgenoc ide
g ies
g ue
Ġre ward
ive red
ist ical
am ong
Ġk h
ab e
Ġfe atures
Ġmon day
Ġbr and
Ġph r
Ġ4 00
Ġarg ued
Ġdel ivered
Ġqual ifications
Ġhous es
Ġattach ed
Ġmacro economic
Ġscrut iny
Ġt ast
on ing
Ġf oss
Ġg ather
Ġst u
de velop
Ġintern ationally
Ġsub sequent
Ġwar rant
Ġ4 5
Ġess ence
Ġcongrat ulating
Ġer rors
bo ard
Ġearthqu ake
s u
is ite
Ġh u
Ġh ide
st uff
wh e
Ġmod erate
Ġadv ised
Ġaccept ing
Ġair lines
Ġgain s
ij ing
Ġder og
Ġoverwhel ming
Ġinsp ired
Ġtelecommun ications
a id
Ġt ail
Ġm use
Ġv ary
Ġresearch ers
Ġpromot ed
Ġmess ages
Ġworth y
Ġund erest
Ġcra zy
Ġx enopho
Ġwebs ite
re m
Ġf an
Ġst ations
Ġse ats
Ġhe ll
Ġab st
Ġcont am
Ġsome how
Ġmar ri
Ġgovernment al
Ġass ured
Ġmeet s
Ġins pir
Ġstar s
Ġred und
Ġcr ash
Ġdon ors
Ġunanim ity
Ġimbal ances
as p
Ġg all
ke l
ter y
Ġse es
Ġdo ha
Ġreport ing
Ġjust ification
ne ither
Ġfore ver
Ġcivil ians
Ġpost al
Ġkore an
Ġjur is
b ly
p ort
er b
Ġb ag
es sions
Ġh all
Ġd up
Ġimp erial
ak ed
Ġsa ved
Ġev il
ound s
ub e
Ġser ved
mm et
Ġgen eva
Ġrel oc
Ġprotection ism
Ġ199 2
Ġmis under
Ġneigh bors
Ġquot a
Ġconsolid ation
Ġcele b
Ġmargin al
Ġow ing
Ġdos si
i os
m er
m atically
n is
Ġt am
Ġf ur
oun ce
Ġse lling
row n
Ġnational s
Ġcontribut ing
Ġbenef ici
Ġsustain ed
yes terday
Ġobstac le
Ġchann el
Ġscot land
Ġautonom y
Ġplat form
Ġlithu ania
russi a
Ġrecy c
Ġmuse um
en sions
Ġn ur
Ġbank rupt
Ġconvention al
Ġalong side
Ġdiv ide
Ġdeclar ations
Ġauthor itarian
Ġclaim ed
rog en
Ġargent ina
t ra
Ġc ab
Ġsu pre
Ġse qu
ist ry
Ġad mitted
ip h
Ġsub s
Ġass ert
Ġperson nel
Ġfac ility
Ġbroad cast
Ġimpos ing
Ġrenew ed
Ġweap on
Ġnorm ally
Ġconserv atives
Ġabandon ed
Ġs v
Ġh olid
os ure
Ġknow ing
ound ed
Ġwar n
Ġimm ense
Ġexcept ions
Ġchrist ians
Ġenjo yed
Ġstrict ly
Ġok ay
Ġisol ated
Ġmos cow
Ġcamer a
Ġexplicit ly
bre ak
l imin
u zz
Ġt ies
Ġd aughter
Ġv it
Ġqu e
Ġprop ag
Ġconf usion
Ġsec ular
Ġir respon
Ġassess ments
Ġpost pon
Ġclos ing
Ġmeant ime
Ġcontact s
Ġarrest ed
Ġexclus ively
Ġnewsp aper
n i
Ġ vers
Ġs orts
Ġf ires
Ġf lying
Ġan cient
Ġl unch
Ġst al
Ġpre requ
Ġdiff er
Ġser ves
Ġmo on
Ġresol ving
Ġ3 7
Ġfr on
Ġsw itzerland
Ġcong o
no thing
Ġig c
Ġchrist mas
Ġsen ior
Ġcat al
Ġhousehold s
Ġhyp oc
child ren
Ġalle ged
Ġlibert ies
Ġfoss il
p ass
Ġc ere
Ġin put
ol f
ul ed
op ol
Ġsh ot
Ġse lection
Ġv ene
Ġat tain
Ġr ush
Ġrep ut
Ġtime ly
Ġfe as
Ġcl in
Ġsub sequently
Ġrepres sion
Ġadv is
Ġed ge
Ġstud ying
Ġpop ul
Ġloc ation
Ġtyp ical
Ġsimplif y
Ġincom es
Ġpacif ic
whe ther
h u
m ans
o ff
Ġs now
Ġs ale
ar ia
ic king
ect ive
Ġdis ast
Ġtechn i
Ġlab el
Ġce iling
Ġbre ast
Ġparticip ating
Ġliberal s
Ġ7 5
Ġpartnership s
Ġfis ch
Ġdepend ence
Ġtre es
stuff s
f ur
Ġc ul
Ġc os
Ġst ages
un ction
Ġint ense
Ġtr ick
Ġfin nish
Ġbo ld
Ġconst raints
Ġbegin s
Ġlow est
Ġexer c
Ġengine ering
Ġobserv ations
Ġstor age
Ġsatell ite
p one
r ical
u gg
Ġb es
Ġm aster
th anks
Ġst ip
Ġha iti
Ġsu it
Ġad equ
Ġte a
Ġunder p
Ġacc um
Ġrel uct
Ġsystem atic
Ġback ed
Ġca mb
Ġredu ctions
Ġcomprom ises
Ġparticip ants
Ġgener ated
Ġwin ter
Ġvir us
Ġstim ulate
Ġstake holders
er ity
Ġo ecd
Ġn az
Ġbe ijing
Ġun just
Ġcomp atible
Ġwhen ever
Ġdef ining
Ġown ed
Ġmeas ured
pet us
Ġpost pone
Ġaut umn
Ġorganis ms
Ġens hr
Ġcoll aps
Ġukra in
Ġclar ification
Ġgeor ge
Ġbir ds
Ġaustral ia
Ġc up
Ġto xic
le te
Ġun h
Ġch ick
te g
Ġpre jud
Ġpre limin
Ġro c
Ġmin or
Ġview ed
be it
Ġorgan ise
Ġ199 3
rodu ctive
Ġim petus
Ġwal ked
itud es
Ġhighlight s
Ġadvoc ate
Ġdepart ment
Ġexpert ise
i ro
u le
ed a
Ġnot es
im ag
Ġr anging
Ġpl ain
Ġsol ving
Ġsaf er
Ġplan e
Ġlet ters
ber g
Ġinterv entions
Ġconcent ration
Ġsil ent
Ġcharacter istics
Ġmach ines
Ġut ter
appropri ate
Ġjuris dict
Ġt act
Ġa ld
Ġm s
Ġin con
ra pporteur
Ġdo ors
Ġj er
Ġdis rupt
Ġtra ined
Ġdeb ts
Ġgu ide
Ġcar ri
Ġinvest ed
Ġexch anges
Ġvo ices
Ġbeaut y
Ġcompar able
Ġspect rum
Ġphilosoph y
Ġpreca ution
Ġinhabit ants
Ġvene z
Ġd ivid
Ġal beit
us sions
Ġup hold
Ġco pe
ress ing
Ġlo ved
Ġcommun ism
Ġwhere ver
Ġobject ions
Ġabs ent
Ġamb ig
Ġdam aging
Ġara bia
Ġconsist ently
nes day
Ġcoast al
Ġprelimin ary
re c
Ġp ose
Ġn a
Ġre aff
il ty
ra m
Ġdis arm
Ġro ck
Ġtrans f
Ġrem ote
Ġpublic ly
Ġsoci o
Ġpay s
Ġcare er
Ġexpress ing
Ġrefuge e
Ġdon or
Ġos ce
Ġdism iss
Ġwed nesday
Ġprovid ers
Ġretire ment
Ġoppon ents
Ġmathem at
Ġdisast rous
b ol
w omen
Ġb ath
th ree
Ġre un
st ate
Ġg ard
Ġsh op
Ġtr illion
Ġacc omm
Ġend ing
Ġfeel ings
Ġbroad ly
Ġdev oted
Ġinterv iew
Ġhor se
Ġrid ic
Ġprotest s
Ġpattern s
Ġprosec ut
Ġstu pid
Ġaccomm od
Ġt ens
Ġp ity
Ġu til
id s
Ġde tain
Ġse ason
Ġex ac
ud e
Ġpl enty
Ġout break
Ġinst ruct
Ġhand le
Ġequ ity
Ġrepresent ing
Ġgener ous
Ġfl at
Ġrat ify
Ġ198 9
Ġpra ise
Ġoptim istic
Ġvig il
Ġchann els
Ġolymp ic
Ġexac erb
m is
t ered
Ã ¨
Ġp estic
es h
al ing
Ġh idden
Ġbe aring
Ġhe ight
are t
Ġtra ce
Ġyour s
Ġform ula
Ġpract ically
Ġexperi ments
Ġpass ing
la im
Ġsent ences
Ġrestrict ive
tur n
Ġang ry
Ġmonop ol
Ġpersu ade
Ġarchitect ure
Ġash ton
Ġendors ed
p erson
s s
t es
er ted
Ġpro min
Ġen ables
Ġen rich
Ġpre cond
Ġpos ed
Ġleg acy
ile o
Ġpress ing
Ġintegr ate
Ġabol ition
Ġcult iv
Ġreveal ed
Ġliber ty
d a
in et
Ġwh ol
ll or
og le
Ġgu ilty
Ġconv iction
Ġmand atory
Ġpush ed
Ġflight s
Ġpunish ment
Ġfrag ile
Ġp apers
Ġf ill
Ġd ying
il i
ul z
Ġun us
ad or
Ġsh el
ult ane
Ġtr oub
Ġmak ers
Ġcost ly
Ġsecond ly
Ġwhole hear
Ġprogress ive
Ġaust erity
Ġthorough ly
regard ing
Ġliquid ity
Ġcommod ity
Ġcolom bia
Ġing red
v ity
er ving
Ġm ir
Ġm ale
Ġm ira
Ġd at
th y
Ġl ists
Ġadd ing
Ġsec ur
Ġcontin uation
Ġaff air
Ġsch ulz
Ġes cal
Ġdelay ed
Ġadap ted
Ġoccup ied
lus ive
tur key
b ally
c as
h uman
Ġa se
Ġs ke
Ġe lig
Ġre vers
Ġbe ars
Ġpres ents
Ġapp ointed
Ġind ication
Ġover look
Ġreal ities
Ġdra matically
Ġrespect ive
Ġgr asp
Ġfood s
Ġkeep s
Ġthought s
Ġthreat ening
Ġsubst it
Ġorigin ally
ograph y
Ġharmon ised
Ġinvestig ate
Ġcover ing
Ġdomin ant
Ġconce pts
Ġtemper ature
b i
Ġt ear
an i
Ġb and
Ġb reed
Ġb ond
ra ge
Ġra rely
Ġany more
Ġtrans lation
Ġfra gment
Ġprincip al
Ġadv ances
Ġunderstand able
mpt ions
Ġcomb ine
Ġcy pri
Ġstri kes
Ġcommer ce
Ġje w
Ġdism ant
Ġfing er
americ a
amend ment
Ġartific ial
h ist
m aking
r ating
v ent
Ġf illed
Ġd rast
ar a
Ġcomp li
Ġco inc
Ġher z
Ġbr an
Ġfind s
Ġdep os
Ġrev ol
Ġstud ied
Ġrespond ed
Ġremind ed
Ġtre as
Ġreven ues
Ġcompon ents
four thly
Ġcolon ial
Ġirregular ities
d ens
m at
m edi
Ġm un
Ġe gg
Ġg aps
Ġwork er
Ġrul ed
Ġproced ural
Ġche aper
Ġisrael is
Ġvol at
Ġconsist ency
any one
Ġsun day
Ġreb uild
Ġ196 0
Ġevalu ate
Ã³ n
Ġaspir ations
Ġsmoo th
osy stem
Ġsuic ide
c ur
Ġc ath
Ġe ib
Ġg est
ct ure
Ġu g
Ġde ar
Ġor gans
Ġpl us
ious ly
Ġpolicy makers
Ġass urance
Ġsm oke
Ġfind ings
Ġhand ling
Ġ199 1
Ġconsult ations
Ġgradu al
Ġpoore r
Ġadult s
Ġconvers ation
Ġmonit ored
s m
is en
st an
Ġl am
Ġl ingu
se in
Ġen abled
Ġno bel
Ġbo ys
Ġtri b
Ġbor ne
Ġprevent ive
Ġec osystem
Ġdefin itive
Ġrob ust
Ġmeaning ful
sk i
Ġdisappe ared
Ġparad ox
Ġsupre me
Ġdat ab
b ul
ic ks
Ġn omin
Ġat om
Ġr ub
am i
ue la
ren ce
Ġnational ism
Ġdemocrat ically
Ġsoci ally
Ġmom ents
Ġdev ice
Ġcal m
Ġinvestig ations
Ġgal ileo
Ġfavor ite
Ġemotion al
Ġald e
x ual
z ed
ot ing
se veral
if or
Ġgo ogle
Ġspe cul
Ġbo at
Ġhome work
Ġdim ensions
Ġseek ers
Ġsimplif ied
Ġdream s
Ġregist ration
Ġsim ultane
Ġdemonst ration
Ġperce ived
Ġcos m
v ic
an cies
Ġin appropriate
ro l
Ġcon cessions
ust ain
Ġch ances
oc al
Ġar ctic
Ġher self
Ġform ed
Ġform ally
less ly
Ġcrit er
Ġstat istical
Ġpa ul
Ġve to
Ġhop ing
Ġteam s
Ġhus sein
Ġscar ce
Ġhazard ous
g s
Ġc art
al es
Ġst ric
Ġun clear
ig ation
Ġapp la
Ġinv ented
Ġho le
Ġpr ud
Ġma il
Ġexist ed
Ġz ones
Ġsix th
Ġbi of
Ġchance llor
Ġexplan ations
Ġrob ot
Ġcard s
Ġcontradict ion
Ġdecent ral
Ġlawy er
Ġprecaution ary
Ġcriter ion
b ian
c ol
is ra
Ġp oc
Ġb ird
Ġd ish
Ġre me
Ġr ice
Ġres ign
Ġcons ists
Ġnow here
Ġmo thers
Ġsc ore
Ġmoment um
ug en
Ġincorpor ate
Ġmort g
Ġenthusi asm
Ġneut ral
Ġadequ ately
a res
h ad
n ight
Ġt ac
en ko
Ġin sec
id ential
Ġimp ressive
Ġdis abilities
Ġout lined
Ġpos es
Ġper iph
Ġgen es
Ġ19 5
ici ally
Ġcap abilities
Ġide ology
Ġbar ack
Ġbur dens
Ġver he
Ġconvin cing
Ġparagraph s
ik a
Ġsymbol ic
Ġpsych ological
Ġphr ase
k i
l ock
s hip
Ġp it
Ġch ile
Ġk urd
con i
Ġcomp osition
wh atever
Ġrespect ing
Ġwish ed
Ġsecond s
Ġbro thers
Ġregul ators
Ġprogramm ing
some thing
Ġinnov ations
Ġdim in
Ġimag ination
certain ly
Ġexplo it
Ġxenopho bia
Ġtransf ers
Ġverhe ugen
b by
e ll
f ast
Ġr um
our se
Ġcomp are
Ġar men
Ġar ising
Ġdri ver
Ġbreak ing
Ġrein forced
Ġcustom ers
Ġtend ency
Ġelector ate
Ġsurve y
Ġmix ed
Ġmultip le
Ġpursu ant
Ġembra ce
Ġrand om
Ġreput ation
Ġappla ud
u ously
z a
Ġ `
Ġt or
Ġthe me
Ġs la
or gan
st one
ri end
ir t
Ġr ing
rat s
Ġsc ene
Ġinter act
Ġmain stream
Ġdep l
Ġprom ising
every thing
Ġmal ta
Ġcooper ative
Ġbelong s
Ġundermin ed
Ġprofess or
Ġbare ly
Ġdiox ide
i ov
p ens
Ġ Ã
Ġre de
Ġal leg
Ġmy th
Ġrec ital
ian n
Ġprodu cer
Ġpr ide
Ġca ut
Ġshe ep
ov ina
Ġrest aur
Ġrussi ans
Ġfail ures
Ġliberal ization
Ġdest abil
Ġrecomm ended
Ġpain t
Ġinh erent
Ġhot el
Ġexpand ing
Ġexe mp
Ġdav id
Ġhes it
Ġposs ess
Ġrecyc ling
Ġpropag anda
Ġprerequ isite
Ġreaff irm
g ood
Ġt iss
Ġh ate
Ġd ress
Ġd rought
mp le
un te
Ġres idence
Ġrep air
ap art
ok ed
Ġcouncil s
Ġinv itation
Ġbas es
Ġsystem atically
Ġdes ired
Ġass umed
Ġbr ill
Ġinter rupt
ten ance
Ġimm unity
Ġrecogn ises
Ġthreat en
Ġve ter
like wise
Ġrespond ing
Ġfed eration
Ġfulf illed
Ġspread ing
Ġpill ars
hol m
Ġmc c
Ġdub lin
ky o
h i
en er
Ġb act
Ġto kyo
Ġe g
ot y
em en
Ġcons cience
Ġnew ly
Ġpolit ician
Ġgovern ed
Ġacc us
Ġsign ing
Ġmain tenance
Ġadv ent
Ġfri ght
Ġtop ics
Ġbreak through
every body
Ġmal aria
Ġrail ways
Ġcr uel
Ġsevere ly
Ġinequ alities
Ġpreced ent
Ġali ke
Ġfost er
Ġirrespon sible
Ġjurisdict ion
s ad
v i
in ter
Ġs omal
Ġc ake
ro ph
Ġwe ar
Ġde em
Ġsu ms
op ia
and er
un k
Ġpre de
Ġass um
Ġdemand ed
Ġ201 5
Ġjud ges
Ġcamp s
Ġbi ology
lif e
Ġdeg rees
Ġauthor isation
Ġdomin ated
Ġalarm ing
Ġsched uled
Ġdro pped
Ġindis pens
Ġjew ish
Ġc au
ion ary
Ġu pper
se en
ol ic
Ġr ating
Ġour s
Ġad h
Ġnow adays
Ġspe culation
Ġper ception
Ġprodu ces
olog ists
Ġiniti ated
Ġmis le
ug abe
Ġune x
Ġten sion
Ġvol unte
Ġage ing
Ġexam ining
rop he
Ġsepar ation
Ġfre ight
Ġpush ing
Ġemerg ence
Ġbound aries
Ġinj ured
Ġbrut al
p a
Ġa x
Ġo we
Ġp t
Ġst agn
Ġst uck
ir ty
Ġun its
Ġse as
Ġso c
Ġdis se
Ġpre gn
Ġro se
Ġref usal
Ġdes ert
Ġcap ita
Ġencoura ges
Ġdi am
Ġtack led
Ġcha os
Ġsho es
Ġagg ressive
Ġgal ax
Ġfrank ly
Ġcatast rophe
Ġremed y
Ġalger ia
Ġvenez uela
Ġindispens able
f ar
h ab
i pped
j apan
r ass
v able
w ood
Ġa th
Ġb le
st ill
Ġv ague
Ġres umed
ll ow
for d
Ġinc idents
Ġdec iding
Ġsy mpt
Ġamend ing
Ġatt itudes
Ġglo bally
Ġgr ants
Ġvi enna
Ġapproach ing
Ġcontribut es
Ġloc ated
Ġmind ed
Ġtotal itarian
Ġrevolution ary
Ġphys ics
Ġtouch ed
Ġannounce ment
Ġhoriz ont
Ġtrib un
k ind
p o
v ation
Ġs li
ur g
Ġst one
Ġsh ock
Ġex ag
Ġj ail
Ġrep erc
Ġmy ster
Ġte eth
ne xt
Ġlif t
Ġobject s
Ġsince re
Ġcontro lling
com es
gg ed
Ġdam aged
Ġbirth day
Ġox y
Ġconfron ted
d emoc
g ive
p al
Ġf i
st at
Ġi v
pe l
ol ved
Ġme l
if iable
con sider
Ġinv asion
Ġsec uring
Ġaccount able
Ġtransport ation
Ġweak en
ote chn
Ġtown s
Ġexe mption
Ġexclus ive
Ġdar fur
Ġpipe line
Ġepid emic
Ġreperc ussions
t ion
Ġs oph
en ess
Ġh ars
ic ate
Ġwe igh
Ġst orm
Ġun know
od e
Ġj ac
Ġres idents
Ġsol ana
Ġemp ire
Ġ3 2
arch y
Ġcor re
Ġensure d
Ġur ged
Ġexpl ore
Ġconsequ ently
Ġfocus es
Ġbri ght
Ġprefer red
Ġadapt ation
Ġlawy ers
Ġacad emic
Ġmarri age
Ġpestic ides
Ġlingu istic
Ġa u
ic ing
Ġl oud
Ġfor b
Ġun res
ll s
ren d
te xt
ose vic
int on
Ġart ists
Ġpat ten
Ġyoun ger
Ġdev ices
Ġsent i
Ġsafeguard s
Ġdispl aced
cons ist
Ġflood s
Ġembar rass
Ġscre en
Ġbub ble
Ġsloven ia
Ġbrill iant
Ġn erv
ul l
ak h
ie th
Ġman agers
fore st
Ġop ens
Ġben ch
Ġtri als
Ġtri gg
Ġaddress es
Ġchar ged
Ġdet ention
Ġweek end
Ġtest ed
Ġdisp rop
Ġstri ve
ex ist
Ġcomplain t
Ġtransfer red
Ġabol ished
Ġwitness ed
wel ve
Ġdevast ating
Ġfisch ler
Ġsecur ities
ustain able
h ard
or al
Ġto ys
th or
om ed
Ġg mos
Ġde reg
Ġapp alling
Ġtrans mission
Ġgen e
ov al
Ġavail ability
Ġori ented
Ġpack aging
Ġreturn s
Ġfo ld
Ġclar ified
Ġconcent rated
Ġdistin ct
Ġregist ered
Ġthir ds
Ġsev enth
Ġcamb od
iann ual
i pp
p ublic
Ġt one
Ġde licate
Ġle ague
Ġint im
Ġac ute
Ġsupport ers
Ġrel ax
Ġpoint ing
Ġdep ending
eg ovina
Ġunderstand s
Ġsubject ed
Ġweak er
Ġindic ates
Ġdeleg ations
Ġsafeguard ing
Ġattemp ted
Ġadvoc ates
Ġrig orous
Ġpurch ase
Ġconstitu ency
Ġpursu it
Ġshi pping
Ġast on
rem lin
isra el
f i
o y
v iew
Ġs in
Ġb rown
st op
Ġg ue
qu ite
Ġout comes
Ġinc ur
te x
Ġrem it
Ġext ract
Ġ4 8
Ġlim iting
Ġvis as
Ġ6 00
str Ã¶
Ġcontain ing
Ġclos ure
Ġsan ter
Ġpress ures
Ġdecl ining
Ġfeed ing
Ġarrange ment
Ġattemp ting
Ġvirt ual
Ġabol ish
Ġembar go
Ġneighbor hood
Ġinfringe ment
Ġstring ent
Ġnerv ous
Ġdisprop ortion
strÃ¶ m
p ower
Ġc ig
Ġb id
or ously
Ġm ugabe
ur a
ol a
Ġsh r
mb ered
Ġk remlin
out s
Ġus er
Ġpr int
Ġgu ine
Ġproblem atic
Ġdist ant
Ġshort age
Ġret ail
Ġ6 5
Ġver ts
Ġconnect ions
Ġbit ter
Ġacqu ired
Ġpun ished
Ġded icated
Ġprag matic
Ġdossi er
Ġenshr ined
Ġherz egovina
Ġstric ter
t al
y n
Ġp ap
Ġf ro
Ġin se
al ed
Ġd are
il le
Ġst er
Ġst amp
Ġun ified
am ount
ac ing
ose xual
Ġro th
Ġsupp ose
Ġlib rary
Ġrisk y
Ġfl our
Ġreview ed
Ġcritic ised
Ġsens it
Ġlimit ations
Ġacqu ire
Ġuns atisf
ony m
Ġpurch asing
Ġnewsp apers
Ġq a
Ġhal t
Ġenvis aged
Ġdepri ved
Ġeco fin
Ġdistingu ish
Ġconve y
Ġingred ients
Ġcau cas
1 1
r ition
in ct
at om
Ġw ond
Ġp and
ic ious
est ed
Ġr ide
Ġj u
Ġdis regard
Ġar ises
Ġsy ner
Ġcl inton
ang er
Ġfact ory
Ġrem oval
Ġest onia
Ġ3 6
Ġhead ed
Ġfun ny
Ġident ical
Ġmult iannual
Ġstress es
Ġavoid ing
Ġeth i
Ġrein for
Ġmission s
Ġmag ic
Ġod d
tr ue
Ġentail s
Ġhyd rogen
Ġpostpon ed
an es
Ġh ind
Ġd ual
Ġbe ach
Ġun st
Ġun rest
est y
Ġshould er
ue ls
Ġtim or
ag on
ub er
Ġca ution
Ġexpect ing
Ġeduc ated
Ġsat ur
Ġchalleng ing
Ġmass ac
Ġbi otechn
Ġsatisf y
Ġcollect ed
Ġmedic inal
will ing
Ġstock holm
Ġquant ities
Ġexpand ed
Ġtransl ate
icy cle
bol lah
Ġunus ual
c ount
e k
Ġin consist
Ġg iant
ri g
Ġab und
Ġsp ons
sel ess
ne g
Ġfood stuffs
Ġclo thes
Ġcivil ization
Ġbur ning
Ġexc ited
pol itical
Ġdestro ying
Ġconsolid ate
Ġdisadvant age
Ġevol ved
Ġdecre ase
Ġwholehear tedly
Ġkurd ish
i est
m other
Ġthe rap
Ġm u
Ġn l
Ġst ret
Ġal ter
Ġex ert
for ward
te ll
Ġra p
ord an
Ġconf used
Ġinter action
Ġinter connect
Ġmil osevic
Ġpriv acy
Ġweak ened
Ġred ist
Ġstri king
Ġmer kel
Ġrecord s
Ġsl aughter
Ġtyp ically
Ġwithdra wn
Ġtun a
Ġng l
Ġoptim ism
vest ock
Ġstabil isation
Ġindirect ly
Ġinterpre ted
Ġlands cape
Ġfab ric
Ġfant astic
Ġdisarm ament
Ġhorizont al
Ġb unch
Ġd ile
Ġg raph
un less
Ġinc ap
Ġexp enses
Ġapp le
Ġunder way
Ġgu ant
Ġaff irm
ten eg
Ġdeli very
Ġoccur s
Ġguid ance
Ġcat tle
Ġdisadvant aged
Ġcopy right
Ġunequ iv
Ġceleb rate
Ġholid ay
imag ine
Ġprede cess
Ġunknow n
m its
Ġc oc
Ġin ject
Ġun willing
ore n
Ġen act
Ġle v
Ġli vestock
Ġus d
Ġwant ing
Ġconf irms
Ġsec re
Ġent ertain
Ġlif el
Ġlat via
Ġassess ing
Ġ9 5
Ġemb ark
Ġworth while
reh ensible
Ġstay ed
Ġje ws
Ġhung ry
Ġfulf illing
Ġstrugg ling
Ġexclud e
Ġinspect ion
Ġinfect ed
Ġinterf erence
Ġmotiv ated
Ġhars h
u um
in ations
Ġb ay
Ġd ry
ar ians
Ġg ases
Ġwe aring
un like
Ġr w
Ġdis in
ink i
Ġoff icially
Ġcountry side
Ġass umption
Ġsc an
Ġins ult
Ġpromot es
Ġsou l
Ġthreat ens
Ġtop ical
Ġemb ry
Ã¡ n
Ġundermin ing
Ġthir ty
Ġweakness es
Ġvoc ational
Ġtechni ques
Ġqa eda
s ch
z ing
Ġp ages
Ġan ger
Ġh ed
Ġcon j
Ġas ks
Ġch ose
lo ad
Ġdis or
Ġmin ing
Ġrequ iring
Ġhand led
less ness
Ġsuccess es
Ġactiv ists
Ġemphas ize
Ġdom ain
Ġpost s
Ġmodern isation
Ġeth ics
Ġ25 0
Ġexplo ited
Ġdict ator
Ġhar vest
Ġsupposed ly
Ġadjust ments
Ġdeliver ing
Ġsett led
Ġblock ed
Ġice land
Ġcorrespon d
Ġconfront ation
Ġdesper ate
Ġorient ation
Ġsahar an
Ġfeas ible
Ġunderp in
Ġukrain ian
Ġgard en
Ġdile mm
1 0
c ot
d ue
h and
s inki
Ġs cept
Ġb Ã¶
Ġun t
ci le
Ġj ar
Ġj ordan
con c
Ġpe ak
Ġcl ash
Ġdirect ions
Ġdef lation
Ġma h
Ġhel sinki
Ġauth ors
Ġpat ents
Ġlack s
Ġretur ning
Ġrat io
Ġdiv isions
Ġharmon ise
Ġwin ning
Ġsubstant ive
Ġquant ity
Ġrout es
Ġstraight forward
Ġmag az
gra ce
Ġcorrespon ding
tr ans
Ġsched ule
Ġroman ian
Ġsuspic ion
respect ive
Ġutter ly
Ġsimultane ously
Ġbiof uels
g lo
Ġt ill
Ġthe ore
Ġf la
Ġe ager
Ġpro long
Ġha gue
Ġwas ted
Ġpre text
Ġmar tin
Ġleg s
Ġtw ent
Ġmin es
Ġafter wards
to o
Ġart ist
Ġinteg ral
Ġprof itable
Ġplac ing
Ġilleg ally
Ġmer it
Ġappreci ated
Ġadvoc ated
Ġsymbol s
Ġthrow n
Ġye llow
Ġplural ism
Ġoffic ers
Ġnord ic
Ġridic ulous
Ġmonopol ies
Ġatom ic
c ut
c end
o thers
Ġt ong
an as
ic a
Ġpro ves
est s
Ġen forced
Ġab ortion
Ġwork force
Ġmar t
Ġper mission
Ġlo an
Ġatt ribut
Ġ19 30
Ġnational ist
ruct ive
Ġear mark
Ġrest ored
Ġsecond ary
Ġperson ality
Ġsector al
Ġamb ass
Ġsk ill
Ġdepart ure
Ġproc laim
ari at
Ġrig id
Ġawa it
Ġfran c
Ġpromin ent
Ġcig aret
Ġguine a
en ous
Ġp ump
ra ined
Ġcan cell
Ġinc lusive
Ġmon ti
Ġpr on
Ġresol ute
Ġdead lines
Ġfront iers
Ġfacilit ating
Ġelimin ating
Ġali en
Ġcry ing
Ġcatast roph
Ġbenefici aries
ifor nia
Ġcaucas us
a ire
i us
w rit
Ġm ush
Ġin ex
ion e
al istic
Ġd rew
Ġme p
qu est
Ġpol ls
all ed
Ġte mpt
Ġpre st
ath ers
Ġfinan cially
Ġtreat ing
Ġass ass
Ġinter medi
Ġlist ed
Ġbra ve
Ġge opol
Ġscient ist
Ġdiv or
Ġfront ier
Ġprepar atory
Ġflow ers
Ġforest ry
Ġegypt ian
Ġinspect ions
Ġineff ective
Ġdisappoint ment
lad esh
Ġpersec ution
Ġdispar ities
Ġbact eria
Ġtribun al
Ġunsatisf actory
9 9
f if
y er
y an
Ġb a
Ġm as
Ġd il
Ġd ance
Ġal together
si le
Ġ1 20
ind ia
Ġmon teneg
Ġglo be
Ġfore see
Ġsur ger
Ġwhe el
Ġbenef ited
Ġprof ile
Ġair pl
Ġattack ed
Ġdi et
Ġwonder ing
Ġcritic isms
Ġexec ution
Ġase an
a ust
f ather
Ġt um
Ġt ab
Ġt welve
on ess
Ġp y
Ġp uzz
Ġn ative
le ted
Ġl ap
ant ic
Ġpart ial
Ġpl astic
Ġdis grace
au thor
Ġco fin
Ġco ins
Ġco exist
Ġpo ison
Ġind iff
Ġtrans national
Ġsimp ler
Ġsect ions
Ġadv isory
Ġcomple tion
Ġfound ing
Ġenc oun
Ġgra vity
Ġjud ged
Ġ8 00
Ġpati ence
Ġmer its
Ġprofession als
lus coni
Ġhom osexual
Ġpan el
Ġautom atic
Ġcorpor ations
Ġspect ac
keep ing
Ġhat red
2 5
i ge
r idge
w in
w as
Å ¡
in ating
in ery
Ġd ad
ra f
ra de
the tic
Ġsh ocks
Ġsh ocked
Ġex hib
li ers
âĢ ľ
Ġint r
ap ore
wh ilst
Ġcur ious
Ġcontin ually
Ġest imate
Ġsur ge
ib i
Ġz e
Ġcho osing
Ġcoordin ating
Ġcla uses
Ġclass es
Ġreact ions
Ġtransform ed
Ġsho pping
Ġafford able
Ġbalk an
Ġremo ving
Ġselect ed
Ġpred icted
Ġawa iting
Ġdisappoint ing
Ġken ya
Ġgrat itude
Ġts un
Ġfron tex
Ġcaut ious
Ġmisle ading
a e
g ments
k er
t ail
Ġt ag
Ġa qu
on ed
Ġp in
an ium
Ġb one
ro t
st al
ul ates
Ġle ap
ome ters
Ġpol ar
Ġk inn
Ġwork place
Ġlo yal
Ġcl imb
Ġconf ined
Ġdes k
Ġpublic ation
Ġwar ned
be ing
Ġaim ing
Ġmist aken
Ġrelev ance
Ġsl ide
Ġwall s
Ġord ers
Ġincor rect
Ġbom bs
Ġelimin ated
Ġtoler ate
Ġcontradict ory
Ġroot ed
Ġinterf ere
Ġautonom ous
Ġmort ality
Ġcf sp
Ġsubs cri
Ġkinn ock
i ety
Ġc ure
Ġd read
Ġg ang
Ġl in
Ġlike wise
Ġreg ain
ag o
Ġser ving
Ġro bert
Ġ19 50
Ġsm ugg
wor king
Ġform ulated
Ġchild hood
Ġdemocrat isation
Ġclo thing
Ġsumm ar
Ġbra ins
Ġpa rent
Ġjud ici
Ġcirc ulation
Ġassess ed
Ġfair ness
Ġens ures
Ġsecret ariat
Ġsal ary
ump h
Ġreferen ces
Ġprem ium
Ġcapt ure
Ġminim al
Ġcounterfe iting
Ġtam pe
Ġstal in
Ġchick en
g ain
m i
Ġt ries
in tern
is ible
Ġs ends
Ġp up
an o
ve z
Ġg ift
Ġy emen
Ġne o
Ġme al
im a
Ġle h
Ġch ern
Ġk ick
Ġout rage
Ġpo ol
Ġiss uing
Ġro les
Ġcl im
Ġjo y
Ġdisc overy
Ġest ate
Ġgot ten
Ġbar n
Ġparticip ated
Ġpoor ly
Ġsuper f
Ġgain ing
Ġcompetit ors
Ġign or
according ly
Ġdog s
Ġber lusconi
Ġengine ers
Ġfrequ ent
Ġquar ters
Ġanx ious
Ġacad em
Ġtrave lling
Ġmich el
Ġsubstit ute
Ġoxy gen
Ġintim id
Ġ ly
Ġp ian
Ġb io
Ġin sight
Ġg a
Ġal lev
Ġup he
Ġrec ruit
Ġind ig
Ġter min
Ġlo bb
Ġfact o
Ġatt ended
Ġnational ity
air y
Ġrul ers
Ġobject ion
Ġ3 4
Ġminister ial
Ġger mans
Ġobs c
Ġmet aph
Ġcapac ities
Ġsad ly
Ġdict ionary
Ġcharacter ised
Ġpick ed
Ġprem ature
Ġsharp ly
Ġluck y
Ġvac uum
Ġtariff s
Ġbang ladesh
Ġprote in
Ġvent ure
Ġarbit rary
Ġrestaur ant
m ary
o by
v ar
z bollah
Ġt ied
Ġb icycle
Ġf rat
Ġh ang
Ġd al
as y
Ġl ou
Ġl uc
id el
Ġal ly
Ġun amb
oun ted
ip ed
Ġro of
Ġjo ke
Ġbeh ave
Ġtri umph
Ġmor ator
Ġfl oren
Ġharmon ization
Ġcal ifornia
Ġje an
Ġfoot ing
Ġcompens ate
Ġpref erence
Ġconstitu ents
Ġlic ence
Ġreass ure
Ġdup lic
Ġvigil ant
Ġredist ribut
Ġincap able
glo bal
Ġtwent ieth
Ġjudici ary
b les
b uild
j a
l ause
Ġth in
Ġf ol
Ġf led
Ġin ability
Ġh ect
Ġd airy
Ġun ification
op er
od ed
Ġri val
Ġro w
Ġcl ock
ord s
Ġener gies
be lie
Ġspecif ied
Ġpositive ly
ger many
Ġrenew al
Ġinfrastruct ures
Ġwealth y
Ġpet ition
Ġbarri er
Ġquant itative
Ġinspect ors
tin i
Ġod ds
Ġdeploy ed
Ġprivile ge
Ġcompli ment
Ġtampe re
Ġchern oby
Ġchernoby l
g ent
at ri
Ġin just
le ts
Ġu mb
so cial
Ġj ack
Ġk itch
Ġcomp lied
Ġmar s
Ġmad rid
sure ly
Ġtransp lant
Ġem ail
Ġcrit ics
Ġreform ed
Ġair line
Ġrece ives
Ġbank ers
Ġcapital ist
pr int
Ġperform ing
ira c
Ġautom ob
Ġcourage ous
Ġhospital s
Ġradio active
Ġpref erences
Ġrecip roc
Ġdeliber ately
Ġforecast s
Ġtic ket
rec ently
Ġelig ible
Ġtreas ury
Ġveter inary
Ġmonteneg ro
f ire
t op
t les
Ġp orn
Ġh oc
Ġd ates
il ater
Ġg amb
Ġha m
ad es
Ġwor ries
Ġch ocol
Ġpres erv
Ġag es
Ġint ent
Ġac ced
Ġfa ire
Ġco verage
Ġpre cious
Ġreal ised
Ġform ing
Ġserious ness
Ġbar gain
Ġsumm ary
Ġemphas ises
Ġsk illed
Ġdeep ening
Ġcle ver
Ġsal aries
Ġarri val
Ġton y
Ġcra ck
Ġdoct r
Ġmax im
Ġoce ans
Ġrout ine
Ġbab ies
Ġlad y
Ġdetri ment
Ġinspir ation
Ġreluct ant
Ġcollaps ed
Ġreme mbered
Ġmorator ium
ilater ally
f ol
l im
t aking
w er
is ual
id er
ter ies
am s
Ġup set
Ġlo bby
Ġent ity
Ġcar ries
Ġelect rical
Ġbl oc
Ġbl ocks
Ġsw iss
Ġregul ating
co pe
Ġdemonstr ations
Ġlearn t
Ġexplo sion
Ġhar ass
Ġobser ver
Ġcheck ed
Ġcub an
Ġcondemn ation
Ġswe et
Ġborrow ing
Ġcalcul ations
again st
Ġanx iety
Ġmurd ered
Ġsettle ments
Ġprompt ly
cur rent
Ġexag ger
. .
d r
p an
Ġt ank
in vest
Ġp ris
al d
st ep
Ġha v
ra int
Ġle on
am ing
Ġk az
Ġtim ing
Ġunder lined
ern ity
ues day
Ġconf erences
Ġmon t
Ġcontin uity
ail and
Ġban ana
Ġinf lic
Ġsimp l
Ġdep ut
Ġ3 3
Ġ3 8
Ġnor ms
Ġear s
Ġann ually
ash ed
Ġident ification
Ġ8 5
Ġweak ening
Ġindic ations
Ġaud iov
Ġrich er
Ġrecon cile
Ġmut ually
Ġeat en
Ġmach inery
Ġprosper ous
Ġcompe ting
Ġnig er
Ġscot t
usal em
Ġshap ed
Ġintoler able
Ġbankrupt cy
Ġcambod ia
conc ern
Ġearmark ed
Ġaudiov isual
m ony
it ives
Ġm i
al a
lo oking
Ġcomp ris
pect ed
Ġsp in
Ġmin eral
Ġma o
Ġele ph
Ġlight s
Ġfle e
istic ated
Ġreject ing
Ġdefin itions
Ġbreak fast
ats on
Ġremind s
Ġdetermin ing
Ġuns ustainable
Ġacce pts
Ġsight ed
Ġmov ies
Ġenem ies
Ġimbal ance
Ġacceler ate
Ġsacrif ice
Ġdiscrimin atory
Ġmultinational s
Ġbiotechn ology
count ries
Ġtsun ami
Ġunamb ig
c c
e enth
Â ·
Ġt uesday
Ġc s
ou p
le x
Ġg ath
ow ski
Ġse ize
li est
Ġimp unity
Ġk im
Ġlike lihood
Ġeconom ist
Ġoff ences
ris y
Ġgrow s
Ġcap ability
Ġris en
Ġprotection ist
Ġwrit er
Ġreform ing
Ġpat ri
Ġshare holders
Ġwa ves
Ġsubsid y
Ġdev al
Ġdemonstr ating
Ġrad iation
Ġextra d
Ġencourage ment
Ġfil ms
under ing
govern ments
Ġbelief s
Ġtransl ated
Ġdeterior ation
Ġdetri mental
Ġdeem ed
Ġunex pected
Ġdisor der
l ers
Ġt ig
Ġs ir
Ġd irty
Ġbe er
Ġha b
ch er
ain t
Ġle verage
our s
Ġout look
Ġmar ry
Ġrec ur
Ġconf idential
art icle
Ġcontin uous
Ġur anium
Ġsupp liers
Ġpric ing
Ġcollect ing
Ġwatch ed
Ġstay ing
Ġpakistan i
iling ual
Ġgold en
Ġprohib ited
Ġspl end
Ġextrem ists
Ġupd ate
Ġcert ific
Ġapolog ise
Ġvers us
Ġhypoc risy
Ġprosecut or
ĠÃ ł
Ġdilemm a
g i
Ġa ver
Ġw atson
Ġs ant
Ġp ed
ic ism
Ġn ap
Ġn ons
ol es
Ġch irac
Ġk ne
Ġad here
de pend
Ġsp are
ip s
Ġsystem ic
Ġref und
Ġdown turn
Ġnor way
Ġval ley
Ġfurther more
Ġbar bar
Ġgra in
Ġdest ructive
Ġdev ote
Ġconclud ing
Ġanal og
Ġill usion
Ġcredit ors
Ġinvestig ated
Ġcr ush
Ġinh er
Ġhost ile
Ġfif ty
back s
Ġfer re
Ġmagn itude
Ġale x
Ġveget ables
Ġske pt
Ġsoph isticated
Ġdereg ulation
Ġsensit ivity
Ġethi opia
Ġtong ue
Ġgeopol itical
Ġsurger y
Ġkitch en
Ġchocol ate
Ġpreserv ation
s a
on ic
at ories
ic ts
le ments
Ġl ake
Ġfor cing
Ġun w
im ination
Ġag ents
Ġres id
Ġpresid encies
ig ate
ll er
si a
Ġra pe
Ġbeh a
Ġir respective
Ġ5 5
Ġcreat ures
Ġstruct ured
ither to
Ġappropri ately
Ġbur n
Ġhon or
Ġobtain ing
Ġexception ally
Ġenh ancing
Ġperman ently
Ġcompar ative
Ġii i
Ġinsist ed
Ġhur ry
Ġemot ions
asm us
Ġextrem ism
Ġneglect ed
Ġcontemp orary
Ġsequ ence
teg ration
Ġreun ification
Ġprecond ition
Ġprest ige
b ra
m ath
s v
Ġ lying
Ġa k
Ġf law
Ġan c
Ġe ve
Ġre ct
Ġl ank
Ġpro active
Ġun ite
Ġse eds
li ances
so on
Ġhe zbollah
Ġpart ially
ok ay
Ġdiff ering
Ġser bian
Ġprov oc
Ġent ities
Ġcent ers
Ġtransp osition
Ġmed i
Ġcontro vers
Ġcivil isation
Ġmis sile
Ġfarm er
Ġgra b
app y
Ġmodern ization
Ġperform ed
Ġord ered
fr ont
Ġvirt ue
Ġtradition ally
Ġcalcul ated
Ġdiagn osis
Ġaccomplish ed
Ġwhol ly
Ġdrast ic
Ġdatab ase
Ġmagaz ine
Ġsplend id
a unch
Ġt abling
Ġa er
Ġsh ed
ci o
Ġk iss
iv able
ak er
Ġcount s
Ġro yal
Ġemp h
Ġsm ile
wor thy
Ġban ning
Ġform ation
Ġsing apore
Ġlive lihood
Ġarg uing
Ġexplain s
Ġoccur ring
Ġtun nel
Ġphot o
Ġmem or
Ġdisagree ment
ba ij
Ġvacc ine
Ġdistort ions
Ġpro st
ir an
Ġun cle
Ġor ch
Ġno on
Ġpre c
Ġrec k
Ġinst ances
Ġprov ince
Ġadd iction
olog ist
Ġback wards
Ġinter depend
Ġtechn ically
Ġlif ted
Ġinde x
Ġel imination
Ġ4 2
ck er
Ġtext iles
ho pe
Ġgener ating
Ġfle ets
Ġexcell ence
Ġport fol
Ġinflu enced
Ġrob ots
Ġvulner ability
cl ock
car ious
Ġmountain s
Ġdeliber ations
cont ro
Ġaward ed
Ġdistur bing
Ġgather ing
Ġjer usalem
Ġvolat ility
sad ly
Ġsomal ia
Ġunst able
neg oti
Ġlifel ong
Ġrw anda
k ov
l ist
Ġth ailand
Ġo t
es ity
Ġin du
Ġre op
Ġbe e
Ġg or
Ġl ocked
Ġst ating
oun ced
Ġor ange
Ġk ur
Ġparliament arians
Ġar isen
Ġcl oning
Ġdef ici
olog ically
Ġrev ise
Ġmilit ar
Ġpass port
Ġclos est
Ġintegr ating
Ġfunction al
Ġconduct ing
Ġsepar ated
Ġhor rif
Ġexplan atory
Ġder iv
Ġconsolid ated
pro t
Ġcrow d
Ġswim ming
Ġincomp rehensible
Ġmerc ury
Ġabst ract
Ġcath olic
Ġpris ons
b us
c or
e y
f o
f ish
m et
n et
Ã §
Ã º
Ġa zer
Ġs ink
al most
Ġh ill
Ġh ier
Ġd ies
Ġe ase
Ġn it
th al
Ġne ur
Ġun com
Ġeuro stat
Ġsh ocking
ess im
Ġimp ed
Ġimp art
ak is
Ġout line
Ġpre carious
Ġdec ides
Ġoff set
Ġpartic les
Ġgood will
Ġconf ine
Ġmin istry
Ġsc ared
Ġbr id
gg ing
Ġes cap
Ġstrong est
Ġframe works
Ġviol ated
Ġfundamental ism
Ġcritic ise
Ġstri p
Ġcollect ively
Ġste pped
Ġauthor ised
Ġhar bour
pol it
Ġplanet s
Ġreferendum s
Ġprior it
bes ides
Ġprevail ing
Ġshif ting
Ġdur ation
Ġchamp ion
Ġgall ery
Ġbroadcast ing
Ġcarri ers
Ġmir ror
Ġtear s
Ġinsec urity
Ġaccus ations
Ġbarn ier
Ġpian o
j ad
l ary
re cent
Ġs ri
it z
Ġin land
Ġl ung
Ġcon form
Ġas y
Ġun b
Ġres ume
Ġint u
Ġco oking
Ġar ts
Ġgen ome
Ġmay or
Ġmeas uring
Ġsm ith
Ġback s
Ġprev ents
Ġinf in
Ġorgan ising
Ġredu ces
Ġel ites
Ġ4 4
Ġmention ing
Ġeng aging
Ġoper ates
Ġiraq is
ple te
Ġcy n
Ġbreak s
Ġislam ist
Ġfriends hip
Ġexcess ively
fr ance
Ġjournal ist
Ġscre ening
Ġanaly se
Ġunre alistic
Ġincomp atible
Ġunderest imate
Ġvit ally
Ġpopul ist
person ally
Ġgest ure
Ġtiss ue
democ racy
Ġshr ink
build ing
e xt
g reat
i ver
j our
v ice
Ġa z
re b
Ġs ak
Ġp ir
Ġp essim
Ġm entions
Ġn om
st ers
Ġpres erving
Ġexp osure
Ġsy rian
Ġref using
Ġreason ably
Ġforeign ers
Ġadminist rations
Ġident ifying
Ġfisher y
Ġexport ing
Ġgir lf
Ġreact ors
Ġhonest y
Ġretain ed
Ġwitness ing
Ġlength y
Ġhyp o
Ġperpet rators
Ġpersist ent
Ġdesp air
Ġfrust ration
Ġmathemat ics
Ġsla very
Ġkaz akh
Ġazer baij
u a
Ġs que
Ġf ib
Ġan ch
as ive
os ur
Ġen comp
Ġrep lied
are st
Ġper mits
Ġlo ves
int rodu
Ġbas el
Ġpoint less
Ġ19 3
Ġbud d
Ġlif ting
Ġear liest
uc cess
Ġ7 00
pr an
Ġcross ing
Ġbreak down
Ġharmon y
Ġslow down
Ġrecon sider
Ġdescri ption
ob ama
Ġappear ance
Ġlay ing
Ġbot tle
Ġpan ic
Ġhonest ly
Ġlux ury
Ġphenomen a
Ġdepart ments
Ġrestric ting
Ġkil omet
Ġinstall ations
Ġredund ant
Ġtrace ability
Ġmortg age
Ġencomp ass
i que
Ġt ap
Ġt ons
Ġa str
Ġw ire
or ate
al ong
Ġh i
Ġh inder
Ġre organ
Ġme ters
Ġch ris
Ġcont ents
ab out
Ġpo em
he alth
Ġra b
Ġtra um
ors hip
Ġdisc ret
Ġemp ow
Ġass ault
Ġsch ol
Ġrest oration
Ġequ ipped
Ġvi ability
Ġsuccess ive
Ġconsum e
Ġafric ans
Ġkey nes
Ġsimilar ly
Ġdin os
Ġprivile ged
Ġcas ual
Ġprejud ice
Ġinstruct ions
mis sible
Ġegg s
Ġindig enous
Ġumb re
Ġanc est
m od
z ens
Ġb less
or ious
Ġf athers
Ġn ie
as ant
il ation
Ġg n
id ently
res sions
Ġun ch
ter ror
Ġpres erved
Ġres il
Ġbut ter
ous es
Ġte ch
Ġar rog
ine jad
Ġtra ins
Ġsp aces
Ġref rain
Ġadd s
Ġdef ended
be an
Ġshe et
Ġvi br
Ġiniti ate
Ġer u
Ġ9 9
Ġexplain ing
Ġrad ically
Ġcorrect ed
Ġmal ay
Ã© s
Ġdraf ts
Ġextraordin arily
Ġreve als
Ġvig orously
Ġevolution ary
Ġsurpl uses
Ġfortun ately
Ġimprison ed
Ġderog ation
Ġmira cle
Ġtrigg er
Ġfrat tini
Ġreciproc ity
Ġasy mmet
pran ational
k ash
Ġt ie
Ġt ends
Ġs is
Ġs essions
Ġc rop
Ġf its
al i
ro ach
ur ances
ch ing
Ġsu pranational
ci pe
qu ar
Ġen gin
Ġwor s
Ġimp ly
Ġqu art
Ġdis ability
Ġtra p
Ġinv isible
Ġhuman e
Ġreason ing
Ġbl ocking
Ġsuccess or
Ġ4 6
Ġele v
Ġdraw s
Ġten nis
Ġlink ing
Ġconclud es
Ġrelig ions
Ġrich est
Ġrepl acing
Ġlay s
Ã¶ der
Ġlabor atory
Ġbom bing
bor n
Ġexe mptions
Ġfort une
Ġrac ist
inc re
Ġfruit ful
Ġundermin es
Ġdeliber ate
Ġcommod ities
Ġcomplement ary
Ġchamp ions
Ġstead ily
Ġtast e
Ġdismant ling
Ġdisproportion ate
Ġfro zen
Ġgath ered
Ġengin es
d is
f ts
f und
h igh
p rom
r ance
v o
Ġ Â
Ġth ri
Ġp ione
Ġb ans
Ġd u
Ġre hab
Ġu seless
Ġal ign
ort ed
ess ed
ist ically
Ġcan c
Ġact or
Ġob esity
Ġoff ensive
ath y
Ġla undering
Ġgu ided
Ġcar ib
Ġgr id
Ġread iness
Ġbal ances
Ġel abor
Ġ4 3
Ġexpress ly
Ġvis its
af i
Ġwin ner
nam o
Ġalloc ate
Ġship y
Ã¡ namo
Ġterri f
Ġgrand mother
har ov
Ġves sel
Ġmerc osur
Ġunderest im
Ġcypri ot
Ġze al
intern ational
m un
m ap
o res
v ian
in form
Ġw il
Ġm ol
Ġh orm
Ġh itherto
Ġd well
Ġg ro
ra v
ch et
Ġne ts
Ġv en
we ight
Ġen light
od a
Ġad mission
Ġcount ing
Ġup s
Ġman o
lic ity
Ġconc ert
Ġunder ground
Ġbo ats
ite ly
Ġdisc rep
Ġsec ured
Ġlif et
Ġcond itional
Ġadv ise
Ġexpect ation
Ġindivid ually
Ġmid st
Ġgra de
Ġcirc les
Ġant ibi
Ġslow er
Ġtour ists
Ġlaunch ing
Ġcooper ating
Ġsimplif ying
Ġbos s
Ġparal ys
Ġliter ature
Ġpreced ence
thes is
Ġevol ve
Ġsuspect ed
Ġunh appy
Ġinse ct
Ġambass ador
Ġtempt ation
Ġsak harov
Ġgirlf riend
Ġumbre lla
a o
c ultural
p es
v ard
Ä į
an en
Ġre imb
Ġg ear
ge red
Ġse min
Ġdo zen
Ġab d
Ġqu o
Ġexp on
Ġsp ur
Ġworld s
Ġprov in
Ġdirect ors
low s
pet ition
ract ed
Ġimpro ves
Ġallow ances
Ġwel coming
Ġequ ation
Ġpop ulated
Ġsing ing
Ġlib eration
Ġbar oness
Ġbor ing
Ġsuggest ing
eu v
Ġjud gments
cri min
Ġbi om
Ġden omin
Ġimag ined
Ġblo ody
erent ial
Ã¡ vez
Ġhur ric
Ġsto pping
Ġdeploy ment
Ġintens ify
amend ments
Ġpoet tering
Ġfortun ate
Ġconj unction
Ġcatastroph ic
quar ters
Ġrehab ilit
Ġcarib bean
Ġmano euv
1 5
d on
u y
Ġw olf
Ġm ud
Ġd g
Ġn as
Ġst ol
ort ions
Ġse ed
Ġk al
con f
Ġcount less
au er
Ġcour ses
Ġke ys
ict ions
Ġban anas
Ġlegisl ators
Ġaw ful
Ġsuff ers
Ġold est
Ġhear ings
Ġver sions
Ġindic ator
Ġcod es
Ġrestrict ion
Ġdecl ined
ex per
Ġclean er
Ġhost age
Ġdynam ics
Ġforg ive
tur ning
Ġfrequ ency
Ġpension ers
Ġren der
Ġvill ages
Ġcorrespon ds
Ġsusp ension
Ġineff icient
Ġparad ig
Ġerad icate
Ġcot ton
Ġclin ical
Ġax is
Ġsympt oms
Ġguant Ã¡namo
Ġtheore tical
concern ing
Ġazerbaij an
g ers
k est
m ese
or ically
Ġe f
Ġu en
ut s
Ġha ul
Ġcon vert
Ġun cond
Ġun av
im er
Ġpar ame
Ġag ing
Ġab ide
um ers
ab ul
Ġpl ot
Ġpre dom
Ġthem es
Ġdec omm
Ġover se
Ġcl ust
Ġintern ally
Ġmo od
Ġpr ince
Ġph ones
Ġcor rid
Ġwish ing
Ġsumm its
Ġappe als
Ġbur st
Ġbur mese
Ġconte mpt
some one
Ġrecomm ends
Ġsan ction
Ġrepublic an
Ġanalys es
cul es
cul osis
Ġbat tery
Ġdimension al
Ġder ived
Ġdynam ism
Ġaccompan ying
Ġtibet an
Ġprofound ly
Ġenvis age
Ġque en
Ġincon ven
Ġmun icip
uber culosis
Ġcoexist ence
Ġgamb ling
Ġhab its
prot ect
Ġkazakh stan
Ġdecomm ission
b ig
h ann
Ġth rust
re al
re se
Ġp air
Ġre cipe
Ġl amp
Ġha w
Ġare na
Ġas p
Ġpar amount
Ġhe ed
Ġrep rodu
Ġno se
Ġsupport ive
Ġfe es
Ġser bs
Ġover r
Ġsy mmet
Ġoff ence
ang le
Ġsub ordin
Ġdisc red
Ġdisc oura
Ġatt ending
Ġass igned
Ġneg lig
Ġexpect ancy
Ġrecogn ising
Ġhead quarters
Ġentire ty
Ġpot ato
Ġhear ts
Ġmult ilingual
Ġreject s
Ġsuper mar
Ġhistor ically
Ġspirit ual
Ġunf old
Ġstrength ens
Ġfat al
Ġswe ep
Ġreplace ment
Ġsleep ing
Ġchap ters
Ġswift ly
Ġfasc inating
Ġimprison ment
Ġnaz i
Ġperiph eral
Ġpregn ant
Ġencoun ter
Ġimpart ial
kest ein
Ġpredom in
rese arch
e ken
i i
i as
p orts
u ated
v ention
w ash
Ġt uberculosis
Ġa mp
in ent
is ations
Ġc ats
Ġp ending
Ġto y
Ġf ru
Ġf ile
ar raf
Ġme lt
Ġat roc
Ġch ronic
ome ter
ak s
si mp
Ġtr uck
me mbers
he res
Ġinv ention
Ġdef er
Ġsc ra
Ġsc ul
ount ered
Ġris es
Ġrest oring
Ġlet ting
Ġdist ortion
Ġsupp lied
Ġopp ression
Ġenc ountered
Ġcred its
Ġimpact s
Ġwa ited
Ġred ress
Ġhun ting
Ġpain ting
Ġspeed y
Ġenorm ously
Ġphot os
cons umers
Ġlic ences
Ġdirector ate
Ġkil ometers
Ġfing ers
Ġcorner stone
Ġpassion ate
Ġscandal ous
Ġunre ason
Ġanticip ated
Ġcontemp l
Ġdivers ification
Ġairpl ane
Ġcofin ancing
Ġdoctr ine
Ġdeput y
Ġnons ense
Ġkur ds
Ġstol en
i ated
s c
v ial
z be
an z
Ġb in
Ġe ld
Ġg m
Ġg ol
op oul
Ġat e
Ġrep roductive
si x
de c
age ment
ign ific
Ġfe ared
act ually
Ġrem inder
Ġcor n
Ġequ itable
Ġbl at
Ġshort er
fin an
Ġann an
Ġemphas ized
Ġdesign ers
Ġdest ination
Ġpack ages
Ġstop s
Ġreflect ing
Ġsal t
Ġconstruct ed
ob oda
Ġobst ruct
Ġlay er
Ġreact ed
Ġwid ening
Ġphil ipp
Ġagg reg
Ġalban ian
Ġinj ury
Ġbol kestein
Ġmotiv ation
Ġirre lev
Ġdan ube
emoc ratic
Ġconscious ness
Ġderog ations
Ġcontam ination
Ġmisunder standing
Ġpoc kets
ener gy
Ġignor ance
Ġquart et
d in
m n
t t
v a
v in
Ġs ar
or able
id al
Ġne pal
Ġun ilaterally
Ġimp ressed
Ġab used
Ġab bas
Ġman kind
Ġte en
thing s
Ġover night
Ġfact ories
Ġla eken
Ġsc ri
Ġsign atures
Ġca iro
Ġ20 50
Ġsw oboda
Ġtri g
Ġlow ering
Ġoppos ing
thod ox
app ed
Ġrepe ating
Ġemb od
Ġrich ard
Ġwin ners
Ġquot ed
Ġqual itative
Ġcondem ning
Ġsurv ived
Ġdrink s
Ġgrand father
Ġbelong ing
Ġselect ive
Ġvacc ination
Ġbol iv
Ġdisplay ed
Ġclub s
Ġmole cules
Ġcomfort able
Ġtact ics
Ġoverlook ed
Ġecosystem s
Ġentertain ment
Ġdread ful
Ġinjust ice
Ġlank a
e lect
m id
v y
Ġs am
Ġh oney
Ġh iding
Ġd ust
ro se
Ġre ception
ur ate
Ġst ro
Ġal t
Ġde eds
us s
con tin
Ġup gra
ru p
Ġind ul
Ġmin i
Ġadd itives
Ġafter math
Ġelect ron
Ġinde fin
Ġins ol
Ġimm une
cu le
par ts
Ġapproach ed
Ġprof essions
Ġpass ive
Ġchar les
Ġdest iny
Ġmass es
ls on
sp ace
Ġspir al
Ġign oring
Ġlu kash
Ġsurpris ingly
Ġren d
Ġagg ression
Ġcast ro
Ġpi racy
Ġpredict able
Ġpref erential
Ġpersu aded
Ġreiter ated
Ġvacc ines
Ġguard ian
Ġsme ll
Ġdepos it
Ġjac ques
Ġfranc is
Ġspectac ular
Ġcontrovers y
hann es
p rog
Ġt une
Ġt enth
Ġf ier
Ġin ner
th rop
Ġre lying
Ġbe es
ly wood
Ġal ert
op eration
Ġex it
Ġex cise
Ġv icious
ĠâĢ Ķ
Ġimp over
Ġri vers
Ġinc in
Ġtim ber
de z
te l
Ġco gn
Ġcons p
me as
Ġpos sel
og en
Ġra y
Ġrec ourse
ub ar
Ġinv al
Ġagree ing
Ġcur tain
Ġma ur
Ġsc our
Ġdra g
Ġear ned
Ġtri vial
Ġintrodu ces
ata h
Ġmis ery
equ ally
Ġspecial ist
mploy ment
Ġemb ass
Ġsepar ately
Ġbul k
Ġexpendit ures
Ġball ot
Ġtaxpay er
Ġprosec ution
Ġwindow s
Ġillust rates
add afi
Ġcens ure
Ġnur t
Ġbes ides
Ġspecul ative
Ġscarce ly
Ġtac is
Ġexemp lary
Ġassum ing
Ġwond ered
Ġdivor ce
Ġporn ography
finan cial
Ġtrig gered
Ġpossel t
a cio
b ted
p rodu
r ational
re z
Ġp as
ic able
ic ular
Ġpro x
Ġpro ving
Ġy en
Ġne u
Ġcomm em
qu it
Ġor te
Ġk u
ab et
ult imately
Ġqu it
Ġpl a
Ġco in
Ġmar king
Ġspe ll
Ġsp ends
ange red
Ġref uses
Ġend angered
Ġsol v
Ġass urances
Ġtal ent
Ġbr ink
Ġinter oper
Ġprocess ed
Ġfore front
Ġimm inent
Ġ4 7
Ġopt ed
Ġindepend ently
Ġdoub led
Ġcoordin ator
Ġroad map
Ġtour ist
Ġqual ities
Ġphys ically
Ġoccasion ally
Ġpleas ant
Ġboost ing
200 1
Ġsurround ed
Ġacknowled ges
Ġbreat he
Ġexceed ed
Ġinsp ire
Ġcli ents
Ġshap ing
Ġbub bles
Ġsloven ian
Ġmanip ulation
bas ically
Ġdesper ately
Ġstead y
Ġfaire r
Ġoverse as
Ġscul pt
zbe k
ubar ak
s er
u sions
Ġs ab
Ġs ided
Ġn aked
Ġn inet
pe red
ra ction
the ast
op ing
Ġv ain
Ġr Ã¼
Ġint ra
Ġad vers
em a
Ġman n
Ġdec oup
Ġover t
Ġover coming
Ġlo ad
Ġlo ose
Ġcur tail
Ġass ign
Ġserv ants
Ġinde bted
Ġnegoti ators
Ġseem ingly
Ġestablish es
Ġpass es
Ġele ven
Ġpal acio
Ġcy cl
Ġtrust ed
ca mb
Ġsen ate
Ġadap ting
Ġhar vard
Ġsafe ly
Ġappeal ing
Ġprefer able
Ġproportion ality
Ġscand als
Ġincom plete
Ġep is
Ġprohib it
Ġdub ious
Ġfran co
Ġcert ification
Ġabsor b
Ġveget able
Ġoffic er
Ġalleg ations
Ġunres olved
Ġrecruit ment
Ġautomob ile
Ġorte ga
e en
m ail
t an
Ġt rop
re ck
Ġm ism
Ġf ert
Ġbe ll
Ġg y
Ġg reed
Ġfor ge
Ġun contro
Ġch Ã¡vez
Ġab du
oc aust
Ġfin es
ens ity
Ġthem atic
Ġper cept
Ġcl oud
Ġtrans action
Ġrel atives
Ġmin ors
Ġide als
Ġdeal ings
Ġbenef iting
with standing
Ġexpress es
Ġmet al
Ġsent enced
Ġil o
Ġara bs
Ġexport ed
Ġexport ers
Ġkid n
Ġpret end
Ġbat teries
Ġfast est
Ġstim ulating
Ġsho ot
Ġvig orous
Ġmargin s
Ġcamer as
Ġdar win
Ġunequ al
Ġprote ins
Ġdismiss ed
Ġbreed ing
Ġstagn ation
Ġforb idden
Ġsque e
Ġlukash enko
e ither
f at
g arian
i ably
t ry
Ġp itch
Ġb ric
ion al
om as
Ġst ere
ver sible
Ġdo zens
am ble
Ġor thodox
Ġac id
ag an
lic k
Ġunder lines
ound ing
Ġsp r
igh ter
Ġcontin uously
Ġinform ing
Ġbr ush
Ġinter ior
Ġbu ff
Ġconv ictions
let ion
Ġreach es
Ġhard est
co operation
Ġred ing
Ġden ial
Ġclass ic
Ġclass room
Ġstra in
Ġwall strÃ¶m
fe w
Ġbox es
Ġash amed
Ġsyn thetic
Ġnav igation
Ġpled ged
Ġah mad
Ġexhaust ed
Ġfragment ed
forest ation
Ġforesee able
Ġlobb ying
Ġprost itution
Ġlifet ime
Ġphilipp ines
c ular
f ive
k h
m ir
r as
r ality
Ġa us
Ġs le
Ġo mission
it an
Ġb ones
Ġto ll
Ġf atah
Ġg on
Ġl ama
Ġwe t
ot ive
ot ics
Ġfor d
ill a
Ġun c
Ġag ed
Ġres erved
Ġad am
Ġout right
red ict
Ġtoo th
Ġext ends
Ġla ure
Ġcontin ents
Ġgu iding
Ġdra in
Ġmod e
Ġrest s
Ġbl an
Ġmil est
ret t
Ġshort ages
Ġbar rel
Ġret reat
where as
af ric
Ġgre et
Ġeur atom
Ġimpos ition
Ġroom s
inst ein
jo hn
Ġharmon ising
Ġbul garian
Ġcompl ac
Ġoccup ying
Ġattach es
Ġinad equ
Ġpul led
Ġsac red
Ġcontradict ions
Ġhol ocaust
Ġextrem ist
Ġcapt ured
Ġendeavour s
Ġcease fire
Ġanticip ate
Ġaccommod ate
Ġcultiv ation
Ġrevers ed
Ġarmen ia
Ġdepl ore
Ġinconsist ent
Ġtherap y
Ġmetaph or
current ly
b l
Ġm ouse
Ġm aps
Ġf iction
Ġre wards
Ġst ir
ri um
ul sion
Ġsh y
Ġse ver
Ġdo omed
Ġk at
Ġk ash
ac ity
Ġcont est
Ġdis gu
ie l
Ġev asion
Ġleg ality
Ġjo hannes
Ġend less
Ġtur bul
Ġtransp osed
Ġform ulate
Ġauth ent
Ġdep ressed
Ġnat ura
Ġta j
Ġins urg
Ġless er
Ġrese mb
Ġmean while
Ġcoh n
Ġdesign ated
Ġvo iced
Ġdepend ency
Ġcounter parts
Ġmig rant
Ġcharacter istic
Ġ14 0
Ġhit ler
els on
Ġrecip ient
Ġflu ct
Ġacceler ated
Ġcf p
Ġpled ge
su pport
Ġcontam inated
Ġambig uity
Ġdetain ed
Ġbran ch
sm all
Ġgalax y
Ġunequiv ocal
Ġsecre cy
Ġparame ters
Ġinteroper ability
camb ridge
f ra
n esty
u mber
Ġa rose
re a
Ġc u
Ġp n
Ġb und
Ġan onym
Ġh its
ar ound
ut ing
ot al
Ġpro mp
ere rs
Ġle cture
am in
Ġj i
Ġhe y
con st
um es
Ġco ach
Ġmat ernity
Ġquestion ed
Ġreal ism
Ġatt ent
Ġprotect ive
Ġemploy ee
Ġread ily
Ġexpect s
Ġviol ate
Ġvar ied
Ġciv ic
Ġcir cu
Ġchalleng ed
Ġdam ages
Ġhighlight ing
Ġund emocratic
Ġvir gin
ik i
Ġenjo ying
Ġprison er
Ġtravel ing
Ġ13 0
Ġoccup y
Ġadjust ed
Ġengine er
Ġattract ed
Ġadvoc ating
Ġdecis ively
ari os
Ġran ks
Ġleban ese
Ġscen arios
Ġinfect ion
Ġillust rate
Ġdistingu ished
Ġreloc ation
Ġhypoc rit
Ġau ction
Ġpredecess or
Ġhed ge
Ġallev iate
Ġdal ai
Ġextrad ition
Ġorch est
Ġgn p
a el
b rit
f old
o le
w ing
Ġc ited
it ting
Ġb endit
Ġm ubarak
Ġh ub
Ġn ab
Ġre ef
Ġg ay
Ġl en
Ġwh ist
Ġst un
Ġde af
Ġas leep
Ġeuro just
Ġpar king
we g
Ġch ad
Ġall er
od es
ard o
Ġrep ressive
Ġconc erted
Ġsp a
Ġcommit ting
rat ory
Ġext in
Ġcur b
Ġorgan ize
Ġir rational
Ġ5 2
Ġdist ress
Ġfam ine
Ġmor ality
Ġpass age
Ġche cking
Ġmaintain s
Ġevent ual
Ġden ying
Ġemb ed
Ġdeg rad
Ã¶ r
Ġreferend a
Ġimplic it
Ġcatch es
Ġshame ful
Ġdemonst rators
Ġinfringe ments
Ġdistur b
bet ter
bet ween
Ġprivat isation
Ġimperial ist
ios ity
Ġcab inet
Ġwarn ings
Ġroc ket
Ġsyner gy
Ġmush arraf
Ġredistribut ion
Ġderiv atives
Ãº n
Ġrehabilit ation
Ġunav oid
Ġirrelev ant
a ven
c op
c ulate
d ated
f aced
g or
j e
o ons
Ġthe ater
Ġthe ories
on i
on ou
en large
Ġo zone
Ġb ern
Ġb ills
Ġd ressed
Ġre think
ol as
est yle
Ġj os
Ġrep ay
ig ration
he imer
Ġra cial
Ġsp ill
und i
tain ing
ite ment
Ġrel aunch
Ġdisc l
Ġtur mo
Ġinter l
Ġlif estyle
Ġest e
Ġfav oured
eng u
Ġpeace keeping
Ġret ention
Ġstandard isation
Ġhome land
Ġexpl os
Ġvis iting
Ġhead lines
Ġer asmus
Ġself ish
Ġaut oc
Ġtemp or
Ġcounter p
Ġblack mail
Ġhor ri
Ġhor ror
Ġdiplom ats
Ġhit ting
Ġconver sion
Ġmem ories
Ġang le
Ġmanufacture r
Ġjudge ment
Ġreserv ation
Ġdiss atisf
Ġolymp ics
Ġincident ally
Ġcens orship
Ġcot onou
Ġug anda
vi ol
Ġproclaim ed
Ġscott ish
Ġdefici encies
Ġmalay sia
Ġatroc ities
Ġunreason able
Ġninet eenth
Ġturmo il
g ree
l ining
m ill
Ġa ri
Ġo lig
an ne
an mar
Ġm ile
ar at
Ġre introdu
st s
Ġl ion
Ġu zbek
Ġst y
Ġde lete
Ġv lad
Ġj ames
Ġk o
Ġpe ters
oc cup
Ġcomp osed
Ġinc lined
Ġwork able
Ġte les
Ġar ray
Ġob li
Ġbo ther
Ġsub mission
Ġhum ili
Ġconf using
Ġass ent
Ġsc ream
Ġstand point
be yond
Ġlegisl ate
Ġ3 9
Ġph are
Ġins ists
Ġconv icted
Ġconsum ing
Ġloc ally
Ġbur ned
Ġproper ties
Ġemer ges
az z
Ġassist ing
Ġport ra
Ġinflu ential
Ġoblig atory
Ġclass ified
Ġclass ification
Ġdead lock
Ġdescri bes
Ġgradu ate
Ġtend encies
Ġdomin ate
Ġtight en
gen er
Ġdisadvant ages
Ġprivile ges
Ġnut s
ÃŃ n
Ġsahar a
Ġexerc ised
Ġpand emic
var ious
lim ited
Ġemph atically
terror ism
Ġauthent ic
enlarge ment
a ired
c itiz
e z
e ba
o a
Ġth rew
Ġs lu
Ġh anging
ic ago
st ein
Ġg ates
Ġst ub
Ġha mp
Ġal tered
Ġun le
Ġun think
Ġsh ore
Ġj im
Ġk la
ll ers
Ġout dated
iz ar
Ġra mp
ved ev
Ġdef ect
Ġemp ower
Ġent rust
Ġass ad
Ġmod es
uc lear
Ġbl amed
Ġcomple ting
Ġdist ances
Ġrecogn izing
Ġz o
Ġ201 4
Ġhold ers
Ġge ared
Ġdev ised
Ġhuge ly
reg rett
Ġpress ed
Ġtraff ick
Ġstri ving
iet ies
Ġmand elson
Ġinvestig ating
Ġarri ving
Ġsuperv is
Ġclaim ing
Ġchem istry
Ġder ive
Ġimper fect
Ġmobil ise
part icular
rel ated
Ġattend ance
Ġintens ity
Ġvac ation
Ġphotograph s
Ġentrepreneurs hip
Ġic c
Ġerad ication
spe cif
Ġfool ish
Ġcounterfe it
Ġsuperf lu
fo ot
Ġantibi otics
Ġmanoeuv re
Ġpn r
citiz ens
regrett ably
g row
p at
p ers
u pp
z heimer
Ĥ ¬
Ġth ro
at ibility
Ġc ia
Ġc ite
Ġp ound
il ib
Ġg sp
Ġg olf
Ġl ud
Ġl one
Ġl ord
Ġl ock
pe ace
ir ation
Ġun den
im ir
Ġch arity
Ġr ank
Ġcan ad
Ġhe ated
Ġor ph
Ġad jour
Ġpl un
Ġmy anmar
Ġpo ly
Ġmar sh
Ġsp ots
Ġtw in
Ġconf ed
Ġappro ving
Ġcur ric
own ers
Ġhope ful
Ġdown ward
Ġpower less
Ġrest raint
then burg
Ġlab els
Ġvis ibility
Ġcomb ining
Ġmind set
Ġmis er
Ġmot ives
Ġwa iver
ush ch
Ġprob ability
Ġimmig rant
Ġfig ured
Ġindic ating
Ġden ounce
tom orrow
Ġfo x
Ġig no
Ġund ers
Ġdr unk
Ġsun ni
Ġmanufact ured
Ġfeed back
oin ts
Ġagg rav
Ġshar on
Ġgeograph y
bur gh
ato eba
Ġtight ening
Ġfer til
Ġaccur ately
Ġâ Ĥ¬
Ġdefe ated
Ġintens ified
Ġupd ated
Ġunp redict
Ġcypri ots
Ġrevol utions
Ġhesit ate
Ġeg f
Ġsoc rates
Ġcorre ction
Ġassass ination
Ġsmugg ling
Ġharass ment
hope fully
Ġparadig m
Ġjohannes burg
Ġcounterp roductive
Ġsuperflu ous
a urs
b g
c ase
d ad
f reedom
g one
m are
r ne
Ġc res
Ġb ible
Ġm am
Ġl ul
Ġse ized
Ġgo thenburg
Ġj am
end ers
ac ulture
em an
Ġinc umb
now adays
Ġpre ach
Ġpre rog
Ġpo pe
ok es
Ġbet ra
Ġra ins
Ġunder going
Ġfe e
Ġinst inct
Ġrespon ds
Ġsocial ism
lud e
Ġcar l
Ġmed a
Ġprev al
Ġinf lows
Ġfra ction
Ġsch mid
Ġcond ol
Ġarg ues
Ġdri ves
omet ric
Ġdev ise
Ġcy cles
Ġmodern ise
Ġcross ed
Ġcle ared
Ġclass ical
Ġara fat
Ġrenew ables
Ġste pping
ustom ed
Ġcr ude
Ġcomplain ed
Ġclean ing
Ġvisit ors
ta x
Ġterri bly
Ġcompe lling
Ġspok es
sk y
Ġgeorg ian
Ġconce al
Ġscand ina
Ġhol es
Ġmobil isation
Ġchurch es
Ġdecre ased
Ġbreach es
Ġnut rition
Ġirre versible
Ġconvers ations
Ġmurd ers
Ġhero es
Ġcatal y
Ġna ive
Ġescal ation
Ġincur red
Ġmassac re
Ġunambig uous
Ġflaw ed
Ġuncom fort
Ġkilomet res
Ġdecommission ing
Ġtrop ical
Ġahmad inejad
l ondon
s ing
Ġth r
in ts
Ġp iv
Ġb izar
Ġm d
Ġm ild
ou re
ed uc
Ġe man
Ġl t
Ġwh is
Ġfor ty
Ġst akes
Ġha mm
Ġcon qu
ch en
Ġun limited
Ġsu ited
Ġby rne
Ġle an
so far
Ġli ik
Ġhe ge
Ġhe ating
Ġint act
ac cess
Ġpe ter
Ġri o
ag og
Ġsa mp
ach e
Ġover sight
Ġover due
Ġgen eric
Ġho ly
Ġdef ines
Ġback ward
Ġpow ered
Ġsign ature
Ġenviron ments
Ġmed ina
Ġsimp licity
Ġshe ets
Ġdeep en
Ġver ification
Ġfl av
Ġfl ash
Ġindic ative
Ġund es
Ġtemp ted
Ġhy gi
Ġslo gan
Ġcontinent al
Ġboy cot
Ġang ola
Ġslight est
Ġsearch ing
Ġprevail s
Ġadm ire
Ġwebs ites
Ġearn ings
Ġshap es
Ġgh ost
Ġsmoo thly
Ġlad en
Ġcelebr ated
Ġredund ancies
Ġmisunder stand
Ġadvis ers
Ġlam y
Ġmyster y
Ġhav ens
Ġeleph ant
Ġrefund s
Ġneur ons
Ġbiom ass
Ġfrancis co
Ġfier ce
Ġstere oty
Ġtempor arily
Ġliik anen
1 4
f arm
m ble
m oud
w al
Ġc ents
Ġo omen
Ġf li
Ġe instein
Ġl as
Ġl ament
ow ed
ri ans
ch i
ir s
ad mitted
ge or
Ġv ested
Ġen for
so lete
rom e
Ġab ilities
Ġpol es
Ġk g
Ġqu a
ren der
ear ly
Ġout s
ition ally
Ġpre occup
Ġgovern or
Ġstr and
Ġmo z
rat or
Ġmon u
Ġquestion able
Ġass u
Ġinvest or
ne ys
Ġsch r
Ġ3 50
Ġread s
Ġrev ive
Ġes p
af e
Ġbur ied
Ġconflic ting
Ġrequest ing
Ġsk i
Ġorigin s
Ġmethod ology
Ġreview ing
Ġanalys ed
lin ary
Ġexplo iting
Ġconfirm ation
ann y
Ġbureauc rats
Ġtransform ing
roso ft
Ġtele com
Ġcorpor ation
Ġabandon ing
Ġparal y
Ġpurch ases
Ġunnecess arily
Ġlic ens
Ġol ive
Ġflag s
Ġoverwhel m
Ġevalu ating
Ġdictatorship s
Ġvalid ity
Ġsudan ese
wa it
Ġintoler ance
Ġunjust ified
Ġdivid ing
Ġshel ter
hist ory
Ġdisse min
Ġgalax ies
Ġsenti ment
Ġflour ish
ĠbÃ¶ ge
Ġportfol io
Ġeru pt
Ġhurric ane
ignific ant
Ġboliv ia
Ġcogn itive
Ġvlad imir
Ġunthink able
Ġigno res
admitted ly
b ear
l or
n orm
p ing
s ol
Ã ±
Ġt ender
Ġa ven
Ġw ines
it ual
Ġp engu
ion ed
Ġd row
ro oms
Ġe e
Ġre hn
se ment
Ġde leted
ul lah
Ġle thal
us ive
Ġhe aven
Ġk or
Ġpe er
Ġapp les
Ġco at
Ġsa mple
Ġpo le
Ġtra pped
Ġob solete
Ġpolit e
Ġper u
Ġind ians
act or
olog ies
Ġmod ification
Ġhand ic
Ġval ued
Ġsur render
Ġequ ilib
Ġ5 4
Ġstar k
Ġrecogn izes
ib eral
Ġru ij
Ġpen cil
Ġsuper power
Ġland ing
reg ional
Ġill iter
Ġassoci ate
Ġislam ists
Ġanalys ing
Ġmal n
Ġpain ted
Ġflow er
Ġcontract ual
Ġinsist ing
Ġautom otive
Ġdomin ance
Ġabol ishing
Ġexclud ing
Ġinterpret ations
Ġgeograph ic
Ġreli ability
Ġthrow ing
Ġtough er
Ġprohib ition
Ġlaugh ing
Ġshif ted
Ġillness es
Ġtall er
Ġvary ing
Ġfragment ation
Ġbran ches
Ġnomin al
Ġresign ation
Ġaston ishing
Ġreinfor cing
Ġsatur day
Ġastr onom
Ġdinos aurs
Ġfru its
Ġscour ge
Ġruij ten
b at
c ity
d iff
d rop
i h
s how
Ġt ide
Ġth omas
it ter
it ure
or a
Ġd ense
ro ots
ic it
Ġre ap
Ġre jo
Ġre na
ct ors
ld om
Ġst if
ul um
Ġnot able
Ġnot ification
oun der
Ġsh irt
Ġv itor
mb owski
Ġr itual
Ġli p
Ġli able
Ġk ir
Ġam nesty
Ġcont ag
Ġpe cul
ire land
Ġpre cip
Ġover view
Ġacc ustomed
Ġbas que
Ġ19 2
Ġlast ed
Ġprotect s
Ġcar c
Ġsuc cession
Ġhealth ier
Ġdemocrat ization
Ġcrit ically
Ġbal i
Ġcontribut ors
over all
Ġshort fall
Ġvar ies
Ġair space
Ġexpl oration
Ġspecial ists
Ġdesign ate
Ġmus cle
Ġlos ers
Ġexch anging
Ġbi as
Ġdescri bing
ilit ary
Ġproceed ing
ze mbowski
ik h
Ġsafeguard ed
Ġcondition ality
Ġsport ing
Ġexe mpt
Ġpsych ology
Ġrig our
Ġtraged ies
Ġmatch ed
Ġhol land
Ġinj uries
Ġacceler ating
Ġthreshold s
Ġdistort ed
att ered
Ġyield s
Ġpersec uted
develop ment
tra de
Ġpostpone ment
Ġperiph ery
rend t
Ġreinfor ces
Ġjar zembowski
Ġmah moud
Ġpuzz le
Ġpup ils
Ġduplic ation
Ġinflic ted
Ġalex ander
Ġbrid ges
Ġempow ered
Ġcanc Ãºn
Ġparalys is
Ġaggreg ate
Ġkash mir
Ġunavoid able
f ield
h y
i ries
t ings
y oun
Ã ´
re y
Ġw ik
is ons
Ġs ket
er ies
en v
Ġc in
Ġc ock
Ġp ounds
Ġb h
Ġan k
Ġd uly
Ġe min
Ġl an
Ġwe ird
ot ted
ot ism
pe lled
Ġst ig
Ġun law
Ġse mi
Ġse ldom
ant ed
ich et
Ġres ent
um ably
Ġtr ichet
Ġwho ever
Ġman ual
Ġman ager
Ġimport ing
Ġra ining
Ġsp o
Ġro lling
Ġclear ing
Ġconf er
Ġprot oty
Ġmarket place
Ġtreat ments
Ġcol umb
Ġform at
Ġinf er
Ġrespect ively
Ġsur f
Ġcor al
Ġbl ank
Ġgentle man
par agraph
Ġfree ze
Ġed f
Ġur ging
Ġple a
Ġappe aring
Ġtransport ed
Ġcongrat ulated
Ġec r
ins on
Ġinflu x
Ġbi ke
Ġteach es
Ġcritic ized
Ġcal culation
Ġnight mare
Ġ0 2
Ġcomplain ing
Ġda wn
rep res
Ġdefend ers
Ġarrest s
Ġfix ing
Ġreb el
through out
Ġprofit ability
Ġment ality
Ġinfect ious
Ġarchitect s
Ġdetect ion
Ġfost ering
Ġperce ive
Ġprovid er
Ġgun s
Ġbreath ing
Ġgh ana
Ġjeopard ise
Ġlag ging
Ġtroub les
Ġtroub led
Ġsoc cer
Ġpy ram
Ġexagger ated
Ġniger ian
Ġhier archy
inform ation
Ġembed ded
Ġbizar re
Ġvitor ino
1 2
h el
Ġt ables
er ts
Ġp ou
Ġf ence
Ġd ent
Ġd ensity
le z
Ġre lies
om ing
Ġbe ating
Ġg ate
Ġl akes
ra ine
Ġun belie
Ġse mit
Ġle af
Ġgo e
Ġch arm
Ġag ent
ree vy
Ġev idently
Ġrec overed
Ġcommun ists
Ġgen ius
Ġrem un
Ġent ers
Ġcol ors
Ġgu ilt
Ġgrow ers
ne ed
Ġmed vedev
Ġglobal ised
Ġmod ifications
Ġdep reci
Ġconsum ed
Ġbal ancing
Ġdist rict
Ġcivil ised
Ġloc ations
Ġfri ed
Ġgre y
Ġpen et
Ġiran ians
Ġtarge ting
Ġmet als
Ġver dict
Ġland f
Ġlos es
Ġslow ing
ah u
Ġmeaning less
Ġbelg rade
Ġresist ant
Ġky i
Ġpopular ity
road s
Ġconsolid ating
Ġmic rosoft
pro f
Ġcry stal
Ġsister s
Ġkn ife
Ġprag ue
Ġange l
develop ing
Ġambig uous
Ġprecond itions
Ġcoinc idence
Ġmcc reevy
Ġassum es
Ġath let
Ġembry os
Ġcigaret te
Ġresolute ly
Ġexhib ition
Ġoutrage ous
Ġcyn ical
Ġuzbek istan
Ġuncomfort able
b ic
b ach
d y
d ner
i ri
s ud
Ġw i
is an
er ra
Ġb our
Ġf ired
Ġin sofar
Ġh en
Ġe pp
st ud
Ġg ut
Ġal zheimer
ra ms
ul ent
Ġsu u
op ular
os ity
Ġv isions
Ġle ve
Ġbut ton
te mp
Ġapp lause
fore ign
ern al
Ġbelie ving
Ġrespon sibly
land er
Ġcre w
Ġshe ll
Ġproject ed
Ġtax i
Ġexperi mental
Ġcreat ure
Ġbar Ã³n
Ġsci ences
Ġru in
Ġcentral ised
Ġdri ft
Ġ9 6
Ġland ed
Ġstress ing
Ġdoubt ful
Ġvol can
Ġlove ly
Ġcounter part
gar ians
Ġmig ratory
Ġhy per
Ã© n
Ġsun light
Ġfulf ill
Ġphys ic
unt a
Ġinflation ary
Ġbase ball
Ġcompe lled
Ġproportion ate
Ġamaz ed
Ġren t
Ġprem ise
Ġentrepreneur ial
Ġprevail ed
Ġrecip ients
Ġenthusi astic
Ġnav al
Ġindis crimin
Ġabsor bed
Ġhoriz on
Ġepid em
Ġpollut ants
aph ne
Ġbenefici ary
Ġfron ts
Ã¨ s
Ġrebuild ing
Ġpoc ket
Ġrede f
Ġuphe ld
Ġtig er
Ġferre ro
great er
Ġinsect s
Ġmultilingual ism
Ġmism an
Ġmilest one
Ġhorri ble
Ġcanad ian
Ġequilib rium
a way
Ġ Å¡
Ġt b
Ġth ick
in ate
is a
it ate
Ġb ust
or ia
Ġin sure
Ġe rect
Ġe ec
Ġn go
om es
Ġal liances
ir ts
Ġby pass
Ġch airs
us ible
Ġbut t
Ġshould ers
Ġtr u
Ġdis orders
ag ues
Ġexp ressions
Ġapp arat
Ġmar x
Ġconc ur
Ġsp ark
Ġsp ont
Ġyour selves
Ġconf use
Ġmat ure
Ġcur iosity
Ġquestion ing
Ġemp t
Ġinter face
Ġbeh rendt
Ġallow ance
Ġequ als
Ġemploy er
Ġpeace fully
Ġfundament als
Ġbar s
Ġpass ports
Ġmot to
Ġtext book
Ġer o
Ġer ika
Ġdesign ing
Ġobs essed
Ġattack ing
europe ans
Ġill usions
Ġindustrial ised
Ġwal dner
Ġcal end
Ġmer gers
Ġexport er
Ġsl im
Ġdistribut e
Ġenjo ys
Ġtravel ed
Ġpra y
fr ank
Ġsold ier
Ġglad ly
Ġtro ika
Ġwithdraw ing
tw enty
Ġadvert ise
Ġpul ling
Ġpreced ed
Ġscen es
Ġsubmit ting
Ġmagn ific
Ġwood s
americ an
Ġupd ating
Ġjun cture
Ġapolog ize
Ġneut rality
Ġgrass roots
Ġpig s
Ġug ly
Ġprud ent
Ġfla ws
Ġprolong ed
Ġly n
Ġbargain ing
Ġescap ed
Ġuncond itional
Ġindefin itely
Ġnab uc
Ġcondol ences
Ġassu mptions
Ġschr Ã¶der
Ġspont ane
b est
d og
h en
i at
k ward
n ar
o th
o ft
r gy
Ġ 00
Ġt ip
re member
Ġs idel
Ġp ave
Ġp light
Ġf les
Ġf usion
Ġin ch
Ġan ts
Ġan omal
ar ctic
ro ed
Ġn ich
st ad
Ġl or
Ġst icking
Ġy ard
Ġeu ph
Ġat oms
Ġch er
Ġch imp
Ġres on
ak a
ak i
ast y
Ġqu ad
Ġpl ate
Ġprop ortions
Ġexp ed
Ġte x
Ġar sen
Ġfe at
Ġrec re
ors es
Ġbas ket
Ġdef ensive
Ġreal m
Ġachie vable
Ġmod er
Ġorgan ism
Ġrev ising
Ġwrit ers
Ġmis use
Ġid i
Ġemphas ising
Ġhalf way
Ġdeep est
Ġweak est
Ġflo ating
Ġcoll ateral
Ġ11 0
any way
Ġsil k
Ġsil ver
Ġinh uman
ye ah
Ġpublish ing
Ġchristian ity
Ġmexic an
Ġstem s
Ġillust rated
Ġevalu ated
Ġtunis ian
imp ro
uk raine
Ġcow s
Ġjun cker
Ġhyd ro
Ġmole cule
Ġmole cular
Ġcelebr ating
Ġfright ening
Ġembarrass ing
hard t
Ġprint ing
Ġlap top
Ġindiff erent
Ġaqu aculture
Ġlivelihood s
Ġdiscret ion
Ġcasual ties
Ġunderestim ated
Ġprovin ces
prog ress
gree ce
Ġcres po
actor ily
Ġpecul iar
Ġero sion
Ġnabuc co
rgy z
f ia
i ance
m ake
o vers
Ġw ary
Ġw ound
Ġw ins
Ġc ord
it ated
Ġb og
Ġf ake
Ġf lies
Ġh ans
Ġd aphne
Ġg i
Ġi p
Ġwh ale
Ġde forestation
ate mal
im ity
Ġsh ops
Ġen qu
Ġle ver
Ġch icago
ĠâĢ ¦
Ġimp lied
ig ence
um s
Ġup ris
te enth
Ġover ly
Ġacc ounted
Ġdes erved
Ġgu er
Ġcar ing
Ġinter cultural
Ġadop ts
Ġmod eration
Ġsch roed
Ġhand ful
uc ks
eg al
Ġwhe at
Ġeas ing
Ġgeneral s
Ġ5 1
Ġspecif y
Ġaw kward
Ġsw allow
Ġtri bal
Ġtri bes
Ġoper ator
Ġmis con
Ġtrad ed
pl ay
Ġant arctic
Ġurg es
Ġver ify
Ġsuper ior
Ġport ion
Ġconsult ing
Ġrat ings
lt ry
Ġlimit ation
any ahu
Ġcharact ers
Ġarr anged
Ġ0 4
Ġexec uted
Ġky rgyz
Ġobserv atory
Ġcondemn s
Ġconce ived
Ġmic ros
Ġmultilateral ism
Ġexceed s
Ġadm iration
Ġevol ving
Ġglass es
Ġcli ent
wel come
Ġinterpre ters
Ġsong s
Ġcoup led
Ġbail out
Ġfur n
Ġcere als
Ġdetain ees
Ġexacerb ated
Ġdepos its
Ġscore board
Ġinterrupt ed
Ġsenti ments
Ġleh ne
Ġsimpl istic
Ġinfin ite
Ġschol ars
Ġwors ening
Ġdecoup ling
Ġadjour ned
Ġunpredict able
Ġlul ling
Ġhygi ene
Ġenfor cing
Ġpou ltry
b ish
i pping
Ġ Î
Ġa y
in os
er a
en za
Ġb its
Ġm ast
ing e
Ġd c
Ġn ail
as k
Ġl om
ur t
Ġha ven
Ġas certain
ith m
gh dad
Ġun ple
Ġex ile
Ġwill i
Ġv ag
Ġch rom
Ġr ang
Ġk er
Ġrep atri
Ġdis sid
Ġout er
Ġcomp lying
te chn
Ġind ign
Ġtrans mitted
Ġsit tings
Ġend uring
Ġsi erra
Ġhapp ily
Ġhapp ier
Ġgu atemal
Ġsc are
Ġform ulation
Ġca ve
to ok
Ġir rit
Ġprogress ively
Ġ5 3
Ġ5 8
Ġ4 50
Ġhon oured
Ġrom antic
Ġapplic ants
Ġassist ants
Ġsepar at
Ġconstruct ively
Ġconcent rating
Ġsurv iv
Ġship building
Ġhar ness
Ġoccup ational
augh ters
Ġdon ations
Ġobser ving
Ġinsist ence
Ġdisch ar
Ġuns afe
fe ld
Ġremark ably
Ġincorpor ation
Ġbrazil ian
Ġ196 7
Ġexecut ives
Ġflood ing
Ġembra ced
Ġsacrif ices
Ġdeterior ating
Ġconven ience
Ġbeat en
Ġinspir ing
Ġstip ulated
Ġenrich ment
Ġdrast ically
Ġdisse mination
Ġembark ed
Ġattribut ed
Ġcigaret tes
Ġba ghdad
Ġleon ardo
Ġkne es
simp ly
meas ures
Ġextin ction
Ġincumb ent
Ġundes irable
c ive
n uclear
Ġa vert
Ġw iped
Ġc ad
Ġf ta
Ġh ut
Ġre inst
as se
ot ti
Ġal gor
Ġsu its
op ian
Ġsh ark
ere r
est ion
Ġhe lic
Ġres cu
um i
Ġno ble
de f
Ġexp ose
Ġmar g
Ġpolic ing
Ġtra cking
Ġinv iting
Ġover ha
Ġstr ang
xt y
Ġinter active
Ġbefore hand
Ġcap tain
Ġtechn oc
Ġlegisl ature
ov ation
Ġrev ital
Ġrev ival
Ġed itor
Ġes dp
sw ed
Ġcare ers
Ġ4 1
Ġmonth ly
pri v
Ġvar iation
Ġspecific ations
Ġche ese
Ġcred ential
Ġgener ates
Ġliberal ism
Ġdol ph
Ġimpos es
Ġsatisf actorily
Ġcondu cive
Ġmiss iles
Ġcustom er
Ġdon ation
Ġtoler ated
Ġsurve ys
comm on
pro v
Ġnar rative
Ġlic ense
Ġpred ic
Ġendors es
Ġscrut in
spe aking
Ġtic kets
Ġpollut er
Ġ194 5
Ġvolat ile
Ġfright ened
Ġvolunte ers
Ġunres erved
Ġtum or
Ġindiff erence
Ġobsc ure
bus iness
Ġreimb ur
Ġprox imity
Ġexplos ive
youn g
env iron
Ġapparat us
stad t
Ġunple asant
Ġhelic op
h an
Ġ vel
Ġt anks
Ġt orn
Ġa ster
re ts
on ian
Ġs au
Ġc ute
it t
Ġp icking
Ġf ract
ic on
Ġn est
Ġn pt
Ġn ass
Ġn erve
om y
Ġg if
ul es
Ġme th
Ġeuro bon
Ġsh ake
Ġsh ia
un ting
ain ted
Ġle e
Ġch at
Ġli ver
Ġj ung
Ġj unta
Ġab u
iv o
Ġrep lies
au g
Ġup coming
ag g
ag ric
Ġsp heres
Ġfe ver
Ġper tin
Ġrec ru
Ġinv entions
Ġcl ou
ative ly
Ġacc ent
Ġent rench
Ġcol our
Ġsc rap
Ġsm ok
Ġconst rained
wor se
bal anced
Ġshe er
Ġadv ancing
Ġprogress ing
Ġ5 6
Ġ5 7
Ġlot tery
Ġ4 9
Ġart istic
Ġtri ps
Ġ6 2
Ġer it
Ġfinal ised
Ġconnect ing
Ġdev il
Ġscientific ally
Ġoccur rence
Ġproceed s
Ġdict ate
Ġ0 3
Ġreact or
Ġunf ounded
Ġtransfer ring
Ġcontra d
Ġtele ph
Ġtouch es
cl imate
Ġattract ing
Ġreven ge
Ġagg ress
Ġvari ations
Ġreb els
Ġfulfil ment
Ġrh y
Ġreveal ing
Ġregrett ably
Ġperpet rated
Ġmoroc can
Ġwed ding
Ġdiss ent
Ġdiscover ies
Ġmit igate
Ġdisappear ance
Ġconfron ting
bet t
Ġpoet ry
Ġalger ian
Ġalleged ly
Ġexerc ising
Ġexacerb ate
Ġarmen ian
Ġath ens
Ġcorre lation
Ġmu lder
quest ion
Ġsubscri be
Ġlin ear
Ġfloren ce
Ġjack son
Ġunw anted
Ġunch anged
Ġresil ience
Ġshipy ards
Ġhypocrit ical
Ġtraffick ers
Ġoverwhelm ingly
Ġcredential s
b c
h or
i ating
u ay
u ate
Ġa mple
re f
Ġthe ss
Ġc ous
Ġo st
an gh
Ġf als
Ġf ond
Ġin ert
al on
Ġh ire
Ġh ired
Ġh orses
Ġe ats
Ġg b
Ġl od
Ġl ula
Ġun int
li b
Ġpres umably
Ġcan ary
Ġj an
Ġpol io
um ane
ost on
ts in
el tsin
Ġpropos ition
Ġdem ise
ind ust
Ġho ok
Ġdes ires
Ġenv oy
Ġview point
Ġmed iation
Ġfore seen
Ġprin ted
Ġph ased
Ġcor bett
Ġben e
do ing
Ġrepresent ations
Ġfavour s
Ġexist ent
pri me
Ġfundamental ist
Ġmor ally
Ġpen ins
Ġty r
Ġspecial ised
Ġcomprom ised
Ġident ities
Ġbroad band
Ġ9 2
Ġdel hi
Ġinflu enza
Ġorganis ational
Ġsens es
Ġvir uses
Ġmal t
Ġfue led
Ġqual ify
Ġpath s
Ġaccomp any
Ġinh umane
br id
Ġcatch ing
Ġrational e
Ġfem in
Ġtort ured
gu ided
Ġtemper atures
Ġdevast ated
Ġhes itation
Ġange la
Ġadmitted ly
Ġwhol es
Ġdepl orable
Ġadh ered
Ġsli p
Ġspons ored
Ġintr ins
ae a
Ġancest ors
Ġelabor ate
Ġeste em
educ ation
Ġunlaw ful
Ġpyram id
Ġmagnific ent
b ased
f ree
f ood
f ail
l en
l it
m arks
s cient
t ically
v ol
w ere
w ind
Ã £
Ġa the
in f
Ġthe r
Ġw ounded
Ġw reck
Ġs ul
Ġc ort
Ġb ange
Ġb oston
Ġto ile
es ter
es ters
Ġf ats
al us
Ġd aughters
ro cal
Ġi aea
ut rition
Ġfor wards
Ġst a
ke ys
Ġun a
im m
Ġse af
Ġv ivid
od ing
Ġcont ing
oc ally
Ġprop h
Ġunder took
Ġrec ast
Ġind o
Ġlo oph
Ġgu ards
Ġsc rat
Ġener get
hip s
ici ency
Ġcre am
Ġbl unt
Ġsmall est
Ġ5 9
Ġbuild s
Ġsuff ice
Ġmis guided
Ġturn over
Ġnet anyahu
ident ally
Ġface book
Ġ9 8
Ġbi ometric
Ġbel t
sp ain
Ġmist rust
Ġsal mon
Ġmer ger
Ġsl ave
Ġspeed ing
Ġround s
Ġcontract ing
Ġturk men
Ġacqu iring
Ġhost ility
Ġpet rol
Ġprotocol s
Ġstrength s
Ġvari able
Ġswe pt
Ġos set
Ġmatch es
Ġphilosoph er
mo ving
Ġdro ve
keep ers
Ġindones ian
Ġremed ies
Ġjun ior
Ġshif ts
Ġeuros cept
Ġprivat ization
Ġnur se
Ġvers a
Ġscept ical
Ġintimid ation
Ġfloren z
Ġmemor and
Ġinterdepend ence
Ġhorrif ic
Ġanch or
Ġnie lson
Ġscri pt
Ġimpover ished
Ġincin eration
Ġcircu it
Ġmisunderstand ings
farm ers
Ã´ te
Ġcalend ar
frank ly
Ġfles h
Ġthess alon
Ġbange mann
Ġlooph oles
a cies
b ers
d ac
h undred
j i
n n
Ġt ent
Ġa i
Ġa ung
Ġw ings
Ġc Ã´te
Ġp v
Ġd ots
Ġre ar
Ġre agan
Ġst ored
Ġpro ver
ol ine
Ġnot withstanding
Ġne at
Ġsh arks
Ġse al
Ġle is
Ġwor sen
Ġall otted
Ġimp l
Ġres umption
oc ation
ens en
Ġpolic eman
Ġdevelop s
Ġtrans cend
cept ive
Ġown er
Ġdra ma
Ġimpro v
Ġmod ulation
Ġap pet
Ġstar vation
Ġart ic
Ġansw ering
Ġoper ated
Ġhead ings
Ġhead way
Ġsou theast
Ġtrad ers
Ġer r
Ġlang en
Ġfle w
Ġpenal ised
Ġprovision al
Ġspread s
Ġcompens atory
Ġsus cept
Ġfacilit ation
Ġfraud ulent
Ġquant um
Ġmoun ting
Ġpsych iat
comm unity
Ġintellectual s
Ġpredict ions
Ġincom pet
Ġrelie ved
Ġrecip rocal
Ġtimet ables
Ġblow ing
rel ations
Ġgri p
Ġcli p
Ġunp opular
Ġnic olas
Ġfan at
Ġholid ays
Ġpopul ism
Ġchick ens
Ġsympt om
Ġintermedi ate
Ġtab oo
Ġnom ination
Ġsupermar ket
gener ally
Ġlicens ing
Ġcin ema
Ġank ara
sud den
ivo ire
Ġclou ds
hundred s
5 00
b ring
c all
g ia
k land
s uccess
v als
Ġt atoeba
Ġth umb
Ġp ile
Ġh ug
Ġand erson
Ġre lied
Ġthat cher
ot ion
ur ation
ur able
Ġal igned
Ġde lic
Ġun fore
op en
Ġsh out
Ġsh ield
un ted
Ġle one
Ġch ess
Ġch anne
Ġr ally
Ġj ul
Ġres ur
Ġres igned
ll es
ous ed
lo se
Ġcomp atibility
iz oph
Ġra m
Ġper se
Ġbo ast
igh ters
Ġstr anger
Ġdisc ard
Ġla x
Ġla ud
Ġfut ures
Ġsch izoph
Ġdep ort
com b
Ġlib r
Ġeduc ate
leg al
of i
Ġ6 4
Ġune ven
Ġ7 7
cent ral
Ġgree ks
Ġdocument ation
Ġsal v
Ġmal m
Ġsen egal
Ġste er
Ġdeleg ated
Ġcompreh ensible
Ġult ra
Ġalloc ating
Ġsil ly
Ġcharacter ized
Ġjour neys
Ġfil es
Ġfeed s
Ġcard iff
Ġfederal ist
Ġsto res
Ġvolunt arily
Ġfort ress
Ġsupplement ed
Ġinterven ing
Ġconstitu ent
Ġanaly sts
Ġscar city
Ġdiscrimin ated
Ġkar as
Ġcommend able
Ġbow is
Ġconven ient
Ġpollut ing
Ġfeas ibility
Ġcul p
Ġstip ulates
Ġaccum ulation
Ġroc ard
Ġabund ant
Ġpredecess ors
Ġenact ed
Ġcancell ed
Ġdisgrace ful
Ġhect ares
Ġmi xt
Ġcertific ates
negoti ations
Ġdrafts man
Ġzeal and
exper ience
Ġclust er
Ġmelt down
Ġstro ke
ĠrÃ¼ big
Ġfluct uations
Ġorph an
need less
Ġlor ries
Ġaster oid
Ġeurobon ds
Ġleis ure
Ġschizoph ren
1 8
b ro
b ank
d led
f l
s ur
in th
Ġc un
Ġc um
Ġp our
Ġp ier
an ke
Ġf u
al ready
Ġre bal
Ġre liance
Ġg ore
Ġg and
Ġl ately
ment ioned
Ġeuro dac
we igh
Ġch ip
us a
Ġwas ting
Ġimp at
Ġreg rets
ast e
Ġpl ug
Ġinc idence
Ġup ward
Ġco erc
Ġsa il
og ene
Ġover l
Ġacc use
Ġcommun al
Ġprot esters
Ġma fia
Ġtur ks
Ġcar te
Ġbu ck
Ġpresent ly
Ġbus es
Ġorgan izing
Ġdep leted
Ġcost a
Ġrese tt
Ġpract ise
Ġconstit utions
Ġsupp ression
Ġold s
when ever
Ġlow ered
Ġchar ging
Ġcapital s
Ġdesign er
Ġcoordin ators
Ġver ge
Ġtest im
Ġcru cially
app ing
pr ints
Ġkill s
Ġmer ch
Ġpoll en
Ġcontent ious
Ġsl aught
Ġboard s
Ġclar ifying
Ġconcent rations
Ġcra ft
Ġpet ro
Ġpun ct
Ġsho oting
Ġstrugg les
Ġbon ino
Ġgrand children
Ġboy f
Ġapart ment
Ġball oon
amb ique
Ġcrow ded
Ġblow n
Ġdetect ed
Ġabsor ption
Ġacquis ition
Ġfrust rated
Ġjump ed
Ġprescri bed
Ġmich ael
Ġdossi ers
Ġtechni que
Ġmathemat ical
Ġelig ibility
Ġspecul ators
Ġdecentral ised
Ġdimin ished
Ġmainstream ing
Ġmassac res
Ġunequiv ocally
Ġconfidential ity
Ġanalog y
Ġinher ited
Ġexpon ential
wash ington
Ġeld r
Ġpercept ions
Ġaus p
afric a
Ġpromp ted
Ġobli ge
Ġcurric ulum
Ġmaln utrition
best os
swed en
angh ai
Ġmemorand um
Ġthessalon iki
Ġslaught ered
b one
f elt
h of
l at
l iness
o is
u er
z io
Ġt ire
in ity
is ive
Ġb ind
Ġm itch
Ġto wer
Ġf illing
Ġh in
Ġd ot
ar ter
ic ating
Ġand ers
Ġn ag
Ġre ign
st ed
Ġg ig
Ġg au
Ġg ros
ot a
Ġy eltsin
ra pe
ch ris
Ġas bestos
Ġme g
Ġun reg
est a
if iably
Ġle ct
Ġdis g
ie v
Ġpre amble
Ġdiff ers
Ġlo ving
Ġtw itter
Ġdisc ourse
Ġmon key
Ġend anger
Ġcol umn
Ġher man
Ġcar pet
Ġsm arter
Ġback drop
Ġmaj orities
Ġinf ant
Ġlegisl ator
ph eric
Ġins ert
Ġir ony
Ġdist rust
Ġlib yan
Ġbar rot
Ġcong estion
Ġaccess ibility
Ġann o
Ġcomb ust
ck x
Ġche chen
Ġbur undi
Ġdesign s
Ġgener osity
Ġ7 8
Ġwrong ly
omet ime
Ġgreen land
Ġhun t
Ġcle ans
Ġcohes ive
Ġdocument ed
Ġrepublic ans
Ġcomput ing
Ġstay s
Ġcha otic
Ġdeclar ing
Ġunivers ally
Ġlabor atories
Ġbon n
Ġconver ted
Ġincorpor ating
Ġlabe lled
Ġstabil ize
Ġfit ting
Ġconstitu encies
Ġseat tle
Ġreass uring
Ġsyn d
see ing
Ġchain s
Ġneighbor ing
Ġcolon ies
Ġminim ise
Ġdiagn osed
Ġdiver gence
Ġincon ce
Ġdatab ases
Ġinsec ure
Ġdesert ification
Ġster ckx
Ġstret ch
Ġrap ed
Ġuphe av
Ġflee ing
Ġcertific ate
abet es
Ġuncontro lled
Ġdiscl osure
Ġhamm er
Ġbh ut
Ġchrom os
environ mental
Ġpenins ula
g as
g roup
n ik
o ch
p arents
s l
v is
w est
w oman
w ords
z Ã¡
in qu
Ġw w
Ġw ounds
Ġp ale
Ġb ite
Ġf on
Ġf est
Ġf et
Ġf iring
Ġf uk
Ġd ys
il er
Ġu cl
Ġfor a
se y
ur ry
Ġcon cession
gh ter
Ġne p
Ġsh it
Ġsh am
li ever
Ġimp ul
Ġj et
Ġj ose
Ġk abul
Ġam ounting
ament s
Ġtr an
Ġout weigh
Ġcomp aring
Ġco el
me al
el a
Ġev ans
Ġtra cks
Ġsupport er
Ġpolit ic
Ġper v
Ġper il
Ġover th
Ġinst ant
Ġtrans mit
there d
Ġfact ual
Ġdes cend
Ġdra gged
ne z
ne ath
Ġglobal ized
be ll
Ġph ases
Ġshow er
Ġaw ak
Ġret ired
Ġ6 8
str ong
Ġassist ed
Ġant agon
Ġground water
Ġdel ors
Ġill icit
Ġkill ings
Ġwal es
Ġcal culate
Ġheart felt
Ġpoll uted
any thing
anu kov
Ġ198 6
Ġfoot print
Ġbat tles
Ġuncertain ties
Ġren ational
Ġprem ises
Ġvide os
Ġalban ians
Ġforum s
Ġtibet ans
Ġillust ration
Ġded ication
four th
Ġfashion ed
Ġgri ps
Ġdepri ve
ÃŃ a
Ġinstall ed
Ġquiet ly
Ġhabit ats
mans hip
unction al
Ġukrain ians
Ġgest ures
Ġreaffirm ed
Ġbench mark
Ġsecre ts
Ġpron ounce
Ġinex p
Ġdies el
Ġshrink ing
Ġcorrid or
Ġdiscred ited
Ġgol l
Ġblat ant
Ġhumili ating
Ġboycot t
Ġlandf ill
Ġmisman agement
Ġkyrgyz stan
Ġlom Ã©
Ġsurviv ors
Ġpertin ent
Ġuna ware
sudden ly
Ġunreg ulated
Ġucl af
Ġcoel ho
2 7
d isc
l eration
m il
m oney
o pp
v an
w ord
Ġ +
Ġt ant
Ġs ed
Ġs ore
Ġs ons
Ġs ars
Ġb ert
Ġf ern
Ġin action
as i
om ach
il ings
Ġu c
ut ory
pe c
Ġst an
Ġst omach
ol iberal
ch ar
ate red
Ġsh ining
qu al
Ġch est
Ġcoun sel
Ġk au
Ġri ots
Ġtim id
Ġra pp
Ġunder go
Ġeff ic
Ġover f
Ġlo oming
Ġro s
Ġro pe
Ġtake over
Ġsub tle
Ġcommun aut
Ġlong est
Ġdisc ourage
Ġcur ve
Ġwar fare
Ġinf l
Ġmod ify
Ġrul ings
ital y
icult ural
Ġsur pass
Ġfree zing
Ġsw ing
Ġsustain ing
Ġce ilings
sid ers
Ġgra ce
Ġhold ings
Ġobjective ly
Ġdoub ling
Ġmult if
Ġ9 00
Ġweak ens
app lause
Ġdi abetes
Ġcircum vent
Ġforget ting
Ġbuy ers
Ġmut ilation
Ġwind s
Ġ198 7
Ġlog istics
Ġlay ers
Ġcompar isons
Ġelement ary
Ġ197 9
Ġvast ly
Ġsole mn
Ġoptim al
200 2
Ġwars aw
Ġborrow ed
Ġdump ed
Ġkn ock
Ġsev ille
Ġstor ms
Ġhabit at
Ġartific ially
Ġdivers ify
Ġreward ed
Ġtast es
develop ed
nis ch
Ġcere mony
Ġplain ly
Ġshel f
Ġescal ating
Ġcart oon
Ġmortg ages
Ġtiss ues
Ġsyner gies
Ġclash es
fif thly
Ġped est
Ġbarbar ic
polit icians
Ġvibr ant
Ġdiscrep ancies
Ġsemin ar
Ġasp ire
Ġpredomin antly
opoul os
Ġpla usible
Ġepis ode
Ġdegrad ation
Ġjos Ã©
specif ically
Ã£ o
Ġturkmen istan
Ġosset ia
Ġboyf riend
Ġgoll nisch
Ġcommunaut aire
- -
c r
j ac
m us
n ings
p oints
r an
r and
s orry
u it
Ġt ube
en a
Ġb row
Ġm ount
es ion
Ġin aug
ed e
ed ed
ro che
Ġwh ales
Ġst arch
Ġal as
Ġnot ions
Ġun ites
ad s
ad ers
os h
Ġdo yle
Ġv on
Ġle ak
Ġgo ds
et ics
Ġj es
Ġor bit
um a
Ġpl ath
Ġout lines
Ġwork sh
Ġpre y
cy cl
Ġjust ifies
Ġunder neath
Ġdem agog
Ġsp at
Ġsp ar
Ġsp ider
Ġob ey
Ġover st
tain e
ful ness
Ġconf isc
Ġend ured
Ġcar go
Ġsign atories
lu ck
Ġph asing
Ġplan es
Ġimm oral
Ġstar ing
Ġterm ed
Ġthird ly
Ġforce fully
Ġstat utory
Ġconte xts
Ġadmin ister
Ġ6 6
Ġaccord ed
Ġdial og
Ġopt imum
Ġagend as
some body
Ġobs ession
Ġmus cles
hold er
sec urity
Ġflow ing
Ġkore ans
Ġste ep
Ġhor n
Ġguidel ine
pol and
Ġinh ib
Ġdetermin es
Ġcommunic ated
Ġresist ed
Ġoption al
Ġdisappe aring
Ġisol ate
Ġprem ier
Ġwash ing
Ġos lo
Ġincom ing
Ġinfect ions
regard less
Ġsympath etic
Ġexceed ing
Ġmobil ised
cont rary
Ġadm is
americ ans
che ck
Ġplat forms
Ġlithu an
Ġrand zio
Ġmanip ulate
Ġprescri ption
Ġposs ession
su pp
Ġreloc ations
Ġimmense ly
Ġpostpon ing
Ġexerc ises
Ġreluct ance
Ġvigil ance
Ġdimin ish
Ġpregn ancy
Ġdiam ond
Ġinterconnect ed
Ġpremium s
Ġlou der
Ġacced e
Ġcrush ed
bra zil
Ġpriorit ise
Ġintu itive
Ġsymmet ry
Ġji had
viol ence
Ġteles cope
Ġsamp les
Ġmoz ambique
Ġcarc in
Ġtex as
Ġrhy th
lib eral
Ġmalm strÃ¶m
Ġinconce ivable
Ġrapp roche
Ġrapproche ment
1 9
c asters
e ight
h alf
i ol
i ority
l anges
m ass
p ost
p over
Ġt ay
Ġt anz
Ġa pt
in able
Ġw yn
Ġs aint
Ġc d
Ġc ust
Ġo vere
it ar
Ġp ink
an ol
Ġm ock
Ġm ck
ed usa
Ġh ollow
ro lo
Ġbe liever
Ġg ord
Ġfor ged
ment ed
ver sion
Ġha ut
Ġal ph
ch em
Ġnot ing
Ġne ck
Ġne oliberal
ad o
Ġse ated
ant o
Ġdo se
Ġpres upp
am o
Ġli abilities
Ġab kh
ig ated
Ġdis connect
Ġout f
Ġfin ishing
Ġinc ar
Ġimport ers
og ne
pt ions
Ġunder water
Ġsp an
Ġper verse
igh th
Ġsub t
Ġsub ur
Ġprov oke
Ġmin ist
Ġcommon ly
Ġinf lex
Ġorgan iz
Ġap ar
Ġsur prises
Ġins ignificant
Ġfollow ers
Ġemploy ing
Ġstud io
Ġsupp ress
Ġopp ressed
Ġtri be
Ġtri angle
Ġhard ware
Ġvar ieties
Ġappe ase
Ġsou p
Ġgra din
Ġliberal ised
Ġliberal ising
Ġ7 2
Ġdom ination
Ġ8 6
Ġver tical
Ġmechan ical
une mployment
Ġextra ction
sh ore
Ġdistribut ing
Ġ198 5
Ġ198 8
Ġhar ms
Ġhost ages
Ġprefer ably
Ġgradu ated
Ġengine ered
Ġhom opho
Ġblock ade
Ġsqu and
200 6
Ġrecall ed
inc identally
Ġtransl ations
Ġdisagree ments
Ġaccur acy
Ġinterf ering
Ġcalcul ating
Ġinqu iries
Ġprag mat
Ġboom ing
Ġsacrif iced
cap ital
Ã¤ n
Ġmarri ages
Ġstal em
Ġcul min
Ġoutbreak s
Ġdrought s
Ġble w
Ġmyster ious
tal k
Ġloyal ty
step s
Ġinher it
protect ion
Ġwhist le
grow th
Ġpiv otal
Ġkor an
Ġbour langes
Ġunreserved ly
Ġjung le
sted t
Ġeffic acy
pover ty
Ġabkh az
1 99
2 000
c ard
e gypt
g l
i racy
p ie
s olid
t ar
t ling
v il
Ġt at
in en
re yer
Ġthe at
Ġthe rape
Ġo ost
it en
it ary
it ted
it ating
Ġto pp
es pecially
Ġf ighters
Ġin acc
ed ing
Ġh eral
th ousand
Ġg ru
Ġg ps
ct ory
id ers
Ġun de
Ġsh anghai
os phere
mb ling
Ġch art
Ġso aring
Ġj ong
Ġres ident
Ġk m
ak y
um ble
Ġconc ise
ric ts
Ġrec ap
ind ivid
Ġoff shore
Ġdisc ern
Ġfar c
Ġemp athy
Ġma ize
Ġcol ogne
Ġsc ales
Ġbr on
Ġsch reyer
Ġdep ressing
ov sky
Ġkind ness
cu mb
Ġrev is
Ġsupp lier
Ġsupp lements
Ġhard ship
Ġpat ch
Ġprevent ative
Ġmot ors
Ġsubst itution
Ġdeter rent
Ġexc itement
Ġrefer ral
Ġbroad en
Ġvol umes
Ġrepublic s
Ġspir its
Ġrecord ing
Ġbul let
Ġste al
Ġste am
Ġcha ired
Ġsad ness
Ġconcept ion
Ġsil icon
Ġstra w
Ġblo kland
Ġda ul
Ġsho res
Ġtoler ant
Ġstabil ise
Ġtit ley
Ġhol lywood
Ġdiscip linary
Ġq addafi
Ġwise ly
Ġdecre asing
Ġinterpre ting
Ġaspir ation
Ġwild life
Ġtrave llers
Ġspot light
Ġange les
Ġceleb ration
Ġnur ses
Ã¨ re
Ġske let
Ġroth ley
Ġscept icism
ĠbÃ¶ sch
Ġsurge on
Ġacadem ics
Ġmineral s
Ġrect ify
Ġmilitar isation
health y
Ġcontempl ate
Ġinval uable
Ġembass y
Ġcycl ical
Ġcomplac ency
Ġolig arch
Ġunden iable
Ġunbelie vable
Ġremun eration
Ġathlet es
oft en
Ġfurn iture
lit tle
Ġresett lement
Ġhaut ala
Ġoost lander
thousand s
b ill
b ir
c oun
e ve
g uard
h on
j er
m ain
Å Ł
Ġt ended
Ġa fore
re ach
Ġthe or
Ġw oke
Ġc ree
it ania
Ġp on
Ġp ause
Ġp oured
Ġm ant
Ġf ounder
Ġan atom
ed ia
ed oph
Ġd un
Ġre vel
Ġis tan
st ones
Ġg ill
Ġst umb
Ġst icks
Ġde letion
ke ley
Ġun used
Ġun wise
Ġsh ri
Ġse w
Ġse am
Ġwor n
Ġli ar
Ġimp asse
Ġam id
reat ing
ish ment
lo vak
Ġman ages
ag a
Ġco x
Ġcons ci
me xic
ack s
Ġoff s
Ġpartic le
Ġfact ions
Ġhum iliation
Ġla zy
Ġpr one
art ney
Ġcontin ual
Ġhel m
Ġtal ents
Ġbu iten
Ġdifferent ial
Ġear ning
ros pect
par able
Ġrev ived
Ġdist ricts
Ġhead line
Ġlive ly
co h
Ġcho oses
Ġquick er
Ġpost ed
Ġpost ing
Ġver hof
Ġec ology
Ġexch anged
Ġcy ber
Ġinflu ences
Ġaud iting
Ġsan itation
Ġsupply ing
Ġsucceed s
Ġcounter act
Ġalloc ations
Ġbudge ting
Ġber Ã¨s
Ġbon uses
Ġimplic ation
Ġcult urally
Ġmem orial
Ġendorse ment
Ġretain ing
Ġran king
Ġprosec uted
Ġep ic
Ġsuffici ency
Ġarchitect ural
comp an
Ġphilosoph ical
Ġbomb ings
Ġow es
Ġcow ard
Ġdiscover ing
Ġdur able
Ġsuspic ious
Ġdispar ity
off icial
isen berg
Ġdefinitive ly
Ġrub ber
Ġcosm etics
col le
po or
Ġabund ance
Ġcancell ation
Ġsummar ise
Ġparent al
Ġluc as
Ġsimpl est
Ġcompris es
Ġbeha ving
Ġreop en
Ġmunicip al
Ġlamp edusa
Ġsweep ing
Ġelectron ics
Ġrend ered
ogen ic
Ġsculpt ure
Ġsever ity
fra me
Ġstub born
Ġmarsh all
Ġhege mony
Ġkg b
Ġpengu ins
Ġdissid ents
Ġreimbur sement
Ġnass auer
Ġbene ath
Ġmalt ese
Ġprover b
Ġmitch ell
Ġsynd rome
Ġminist ries
Ġstalem ate
Ġtherape ut
Ġafore mentioned
Ġistan bul
Ġverhof stadt
b u
j an
p y
t our
t ube
w atch
y rom
Ġthe ato
at ar
Ġs ie
Ġs ometime
Ġf reed
al ous
Ġe h
Ġe ighth
Ġn urs
st ay
id a
Ġal mun
Ġas ians
ill on
Ġyou tube
Ġcomm ence
Ġcomm ens
Ġse gment
li x
Ġen p
Ġle ts
Ġcan cel
Ġimp ot
Ġj on
Ġor b
Ġk ofi
Ġcount ed
Ġreg en
Ġout law
Ġdem ol
ric ted
ub a
int erest
Ġcl out
Ġgovern ors
Ġmon keys
Ġla mb
Ġfar ther
min ist
Ġreal isation
Ġfut ile
Ġpublic ity
Ġ19 0
Ġke l
Ġtransp ose
Ġaff lic
Ġlaw making
Ġmain land
Ġsuc cumb
Ġ20 30
ph ur
Ġph y
Ġfail ings
ining rad
Ġru g
Ġru ined
Ġmid night
Ġmot ive
Ġadminist ered
ush ima
Ġ9 7
Ġmus ical
Ġremember ing
Ġconsult ative
ator ial
Ġslow ed
Ġgas oline
Ġdr ill
Ġdelay ing
Ġuseful ness
Ġ18 0
Ġtruth s
ah n
Ġdict ates
Ġwall is
Ġcustom ary
Ġpra ised
Ġfacilit ated
Ġproportion al
Ġang lo
Ġretain s
hr an
Ġtit an
Ġinterven ed
Ġcroat ian
Ġpersist ence
Ġlaugh ed
Ġsatell ites
Ġcelebr ations
Ġrush ed
Ġclin ic
Ġcarri er
Ġdecentral isation
Ġinherent ly
Ġcoc oa
iped ia
Ġfled ged
Ġprovoc ation
Ġimped e
Ġdu isenberg
Ġenlight ened
Ġpotato es
Ġfert ility
Ġresemb les
Ġlone ly
Ġmiser able
Ġfli p
bear ing
Ġsmok ers
Ġerit rea
Ġlibr aries
Ġmixt ure
Ġtant amount
Ġwyn n
individ ual
colle agues
Ġalmun ia
c red
n on
n ato
o pe
y p
y ard
Ä ĥ
Ġt ighter
Ġw ra
Ġw ield
Ġw ij
Ġw atered
Ġs izes
Ġc ric
Ġp ic
or i
or um
Ġto w
Ġf di
Ġan throp
Ġh ond
Ġand re
Ġre petition
st ick
Ġg il
Ġg la
Ġg mo
Ġl ent
Ġl aps
Ġl ump
ol ar
Ġde ception
ch inese
Ġme als
Ġun in
ad minist
pp y
Ġpar ity
ci an
Ġch ron
Ġr on
Ġr uth
od ork
Ġli a
Ġhe mis
ll o
Ġcount y
Ġdis may
Ġdis cont
Ġcomp lies
Ġcomp ounds
ack ed
Ġunder gone
Ġtw ist
ath an
Ġmade ira
Ġbas in
Ġca res
Ġprincip ally
Ġelect ro
Ġchild care
com mit
Ġwrit es
Ġfam ously
Ġcivil ized
Ġcivil izations
leg isl
Ġintrodu ctory
Ġhome less
Ġ6 3
Ġ6 7
Ġaccord s
Ġpa edoph
Ġliberal ise
Ġinnov ate
Ġdest ined
Ġmet res
Ġsubsid ised
Ġdam n
Ġdisp uted
Ġaut o
sp ring
Ġdim as
Ġnear by
Ġdiv ine
Ġwal let
Ġmer cy
Ġsco res
head s
Ġspeed s
Ġchair men
Ġeval uations
Ġpenal ise
Ġreact ing
Ġunf av
Ġcompens ated
Ġappeal ed
Ġemerg encies
Ġbot tles
Ġcommunic ating
Ġdog ma
Ġdig it
Ġblood sh
Ġgeograph ically
Ġfavor able
Ġstabil ising
ari ably
Ġpreced ing
Ġpref ers
Ġtight ened
car bon
Ġearthqu akes
Ġcoup les
Ġrecover ing
Ġbrok er
Ġtact ical
Ġdisrupt ion
Ġdivid es
Ġcolonial ism
Ġcosm etic
Ġdish on
Ġdimin ishing
Ġvolunte er
Ġinterconnect ion
Ġdisin tegration
Ġcompris ing
Ġwire less
mod ern
Ġarrog ance
Ġhorm ones
Ġembod ied
Ġprototy pe
repres ent
Ġindign ation
Ġoverha ul
Ġentrench ed
Ġappet ite
Ġausp ices
Ġdisg ust
Ġfon taine
Ġgord on
solid arity
Ġcommens urate
b age
c ÃŃa
d em
d irect
e an
g ical
g age
i ke
i qu
n ist
p ress
p ract
r us
t own
w art
Ã ¸
in it
Ġs ne
er ting
Ġc ush
Ġo re
Ġp c
an ze
Ġb ou
Ġb ored
Ġm ate
Ġm ong
Ġm asters
Ġm esh
Ġm Ã©n
es co
Ġf yrom
Ġin ward
Ġin gen
ing ing
ar ting
Ġg am
Ġg lar
Ġl ange
ot age
id able
Ġun balanced
oun cing
op l
Ġex pelled
un ished
Ġr ings
am il
iv ities
Ġam ate
ard er
con g
Ġrep lic
ast ically
Ġno is
Ġout going
for th
Ġman uel
el f
el ess
Ġro ss
ight ing
Ġgen ital
Ġrel ent
Ġsit s
Ġcol ony
Ġgu est
Ġsc ant
Ġback bone
Ġfra med
Ġrul er
Ġph ant
Ġcor ps
Ġav ian
oura bly
Ġproject ions
Ġsing er
Ġtransport ing
Ġexpl ored
Ġturn out
Ġstat ic
Ġlack ed
Ġid le
Ġdeter rence
Ġlight ly
Ġfl ames
Ġcritic ize
Ġcal am
Ġvo y
Ġbul l
Ġexer ted
Ġcomment ators
Ġfil ter
Ġexcess es
put in
Ġcomplic ations
Ġ16 0
Ġsho e
Ġuns uccess
br ussels
Ġbon us
Ġobserv ance
Ġinad missible
Ġx ia
Ġfaith ful
Ġvig o
200 3
200 4
Ġprosec ute
Ġrain fall
Ġcamer on
comp ared
Ġreass ured
Ġreconcil ed
Ġenvis ages
imp lement
Ġcommand er
Ġunp unished
Ġdevast ation
Ġox ford
Ġlend ers
Ġpled ges
Ġfant asy
Ġmanifest ation
Ġfan atic
Ġaccum ulate
Ġbath ing
Ġseason al
Ġprud ential
Ġ195 6
Ġrecital s
Ġadvent ure
pal est
Ġforb id
Ġwond ers
Ġembry onic
Ġhomosexual s
Ġkick ed
Ġhect are
Ġskept ical
Ġhypo thesis
Ġdenomin ator
Ġkal iningrad
Ġmaur itania
Ġanonym ous
Ġhamp er
Ġsupervis or
Ġstereoty pes
Ġchimp anze
Ġupris ing
Ġinert ia
Ġsul phur
Ġdelic ious
Ġanders son
Ġcombust ion
Ġabkhaz ia
1 7
b ush
d f
g od
h ed
k op
l ater
n umber
o il
p ed
Ġ ..
Ġt ick
Ġt ann
re du
is se
Ġc ater
Ġm all
es ome
Ġf rict
Ġh ugh
Ġd ancing
Ġd Ã¼
Ġd uma
ro b
Ġre negoti
ct or
ct ed
Ġl es
Ġl est
se ction
Ġha arder
ow ing
Ġy anukov
ra is
ch rist
Ġun ice
Ġsh ine
Ġv ic
ci ers
ci vil
rom ania
Ġtr ucks
Ġpl ut
lo aded
du ly
Ġcomp ound
ag ua
Ġexp edi
Ġapp end
Ġar ist
Ġinv ariably
Ġlo op
Ġcl er
Ġrespon s
Ġdisc ount
Ġreal izing
Ġatt raction
Ġinter reg
Ġinter rog
wor ld
com petition
Ġpur se
Ġlib eria
Ġviol ates
Ġlim b
Ġtri ple
Ġstandard ised
Ġactiv ist
Ġregul ator
Ġforce ful
Ġcred itor
Ġge omet
Ġ7 3
Ġmult icultural
pid la
Ġve in
Ġver bal
Ġstrateg ically
Ġmechan ics
Ġsound ed
Ġcrimin ality
Ġcorrect ing
Ġsatisf ying
Ġaud its
Ġrat ios
Ġindustrial ized
Ġwal ks
Ġdead ly
Ġdeg ra
Ġsucceed ing
Ġconsist ing
Ġappreci ates
Ġste aling
Ġsl ice
Ġsl ides
Ġkid ding
parliament ary
Ġauthor ized
Ġauthor ising
Ġcra w
ene i
Ġtransparent ly
Ġbot t
Ġafford ed
Ġexec utions
Ġvirt ues
Ġuns c
Ġcateg orically
Ġbos n
200 9
hr kop
Ġstabil ization
cons cious
Ġarm ies
Ġflu id
aw i
Ġmagn et
Ġintensive ly
ham enei
Ġregister s
Ġkar l
Ġdiagn ost
Ġfasc ism
Ġbail outs
Ġkh odork
Ġbes ide
Ġaccum ulated
Ġuphold ing
Ġprosecut ors
Ġaccommod ation
Ġrevers al
Ġsla ves
Ġcruel ty
Ġbench marks
Ġacadem y
Ġprec ision
reb ren
Ġpessim istic
Ġbudd hist
along side
Ġbless ing
Ġdiscrep ancy
Ġnas a
Ġinconven ient
Ġsle pt
Ġgon zÃ¡
Ġturbul ence
Ġinsurg ency
particular ly
Ġcataly st
Ġrejo ice
Ġsemit ism
Ġdepreci ation
Ġleve lled
ĠÅ¡ pidla
Ġmicros cope
Ġguatemal a
Ġunfore seen
Ġculp rit
Ġfuk ushima
Ġdialog ues
Ġmck enna
coh esion
Ġtherapeut ic
Ġbloodsh ed
Ġtann ock
ĠdÃ¼ hrkop
a ic
b ow
c ro
h im
j im
p os
r ise
v ency
z es
Ġt ense
re en
re ls
Ġc c
Ġc ass
Ġb ent
Ġm und
Ġan te
Ġd eng
ro cess
Ġe leg
Ġbe gg
Ġg att
pe z
the id
ul ously
Ġnot ified
Ġnot orious
ay a
mp uy
Ġun imag
Ġsh aking
Ġex ter
Ġdo d
Ġen vel
Ġle inen
Ġso ya
Ġj av
Ġres idential
Ġint rig
ig ating
Ġtheir s
Ġtr icks
lo qu
Ġout siders
Ġte hran
Ġpo ised
Ġev ade
Ġunder val
Ġsp ra
Ġsp ouses
Ġmad ness
Ġro mpuy
Ġappro ves
ass es
Ġprot racted
min es
Ġma at
Ġatt ribute
Ġdes c
Ġass imil
Ġcol a
Ġtal ented
Ġbu mp
Ġcommon s
Ġstand still
Ġform idable
Ġrespect able
Ġelect rom
Ġben ign
Ġpract ition
Ġpract ised
Ġestablish ments
Ġbusiness men
Ġviol ating
Ġexpl oring
Ġmor gan
Ġdet ract
Ġz ap
Ġce o
pl an
Ġnet working
Ġident ifies
Ġexc uses
Ġtom ato
Ġ8 2
Ġinflu encing
Ġcross roads
Ġrad i
Ġsimilar ities
verse ly
Ġpersonal ities
Ġsal af
Ġformer ly
Ġcop ies
Ġmeasure ment
Ġones elf
iss ance
Ġ198 1
Ġsex es
Ġadvantage ous
Ġdream ed
Ġdisapp ro
Ġtend ers
Ġbound s
Ġdispl ace
Ġconce ivable
Ġblue fin
Ġwash ed
Ġreconst ruct
Ġep as
Ġappoint ments
Ġrelie ve
Ġmix ing
Ġfer ber
Ġdro pping
Ġscre ens
Ġcool ing
Ġgar age
Ġgar cÃŃa
oler a
Ġcolom bian
Ġdiver gent
Ġhero ic
Ġtrave lled
Ġoppon ent
Ġabst ention
Ġbag s
Ġassert ion
Ġutil isation
Ġju ven
Ġunrest ricted
Ġtherap ies
Ġlev y
Ġunderpin ning
Ġgang s
Ġleh man
Ġlou is
Ġdeval uation
Ġsant a
Ġak in
Ġot tom
Ġindu ced
Ġnit rogen
Ġpessim ism
incre asing
ĠÂ £
Ġterrif ying
Ġhorm one
Ġinconven ience
Ġconsp iracy
Ġdisgu ised
Ġramp ant
Ġscandina vian
Ġparaly zed
Ġwik ipedia
Ġip cc
Ġmeth ane
Ġtoile t
Ġsuscept ible
Ġlaud able
Ġgand hi
Ġlect ures
Ġspat ial
Ġtanz ania
Ġapar theid
lovak ia
mexic o
rebren ica
ĠgonzÃ¡ lez
Ġenvel ope
c z
d ling
g reg
h ouses
i raq
m ates
m ilitary
s it
u ish
Ä ĩ
in burgh
on aut
Ġw ow
Ġw aged
er ated
Ġc lick
Ġp ent
Ġp od
Ġp ino
Ġto ken
Ġan the
ing er
Ġd ough
ar ms
Ġbe et
Ġbe lder
Ġl ind
Ġu rug
ver ted
Ġal b
gh reb
Ġun duly
Ġsh attered
Ġse m
Ġpar am
Ġv il
un a
est ically
we ar
Ġgo at
Ġimp ending
Ġj ane
Ġk hamenei
Ġrep roach
Ġrep aired
um ing
vel t
Ġpl o
Ġdis contin
Ġcomp atri
Ġman eu
ose velt
Ġev ac
Ġtra mp
Ġtra ject
Ġtra its
Ġtra ps
Ġper missible
ace a
Ġinv oked
Ġop ium
Ġtrans c
Ġgroup ings
Ġcur se
Ġend ang
Ġma ghreb
Ġsc ary
ail ing
iron ically
ft a
work ers
Ġed inburgh
Ġeduc ating
Ġmilit ias
Ġlist ing
Ġcomb ated
Ġmind ful
by e
Ġbur g
co ordin
no ye
Ġlight ing
Ġ7 6
Ġdanger ously
ps y
Ġport ray
Ġfl or
Ġcy nic
Ġdisp osed
Ġhun garians
Ġgl ance
Ġremind ing
Ġargu ably
Ġmand ela
Ġ18 6
Ġje alous
Ġproceed ed
Ġqual ification
Ġrein tegration
Ġuni mp
Ġlog o
pol icy
Ġcra fts
govern ment
cl ared
Ġpan els
Ġsubsidi ary
Ġcompe l
Ġphil ip
Ġplant ing
Ġattach ment
Ġice berg
Ġrig orously
Ġfulfil s
Ġprohib iting
Ġbehavi ors
Ġacknowledge ment
Ġappoint ing
Ġborrow ers
Ġstem ming
Ġreass ess
Ġcrow ley
part ite
cont rol
Ġmotiv ate
Ġgreens pan
gu in
Ġwood en
Ġcorner stones
Ġembra cing
Ġbreach ed
Ġpermit ting
Ġinstall ation
Ġgenet ics
Ġerad icating
Ġdistur bed
Ġpreca utions
Ġpipe lines
isc ard
Ġbag gage
Ġheight s
Ġfeeding stuffs
Ġster ling
Ġguant an
Ġunt ou
writ e
Ġaer opl
rup ulous
Ġentrust ed
Ġprerog atives
Ġee as
Ġlan noye
Ġresent ment
Ġphysic ist
Ġrepatri ation
Ġsau ce
Ġwholes ale
ogene ous
Ġdys f
Ġoverth row
Ġjes us
Ġpresupp oses
Ġunde clared
ĠmÃ©n dez
3 5
8 0
a ud
b t
c us
e mploy
h urry
i pt
k t
l ang
n age
r itional
s r
s ed
s ay
w ed
y ama
Ġth read
is ers
Ġs our
Ġc able
Ġp ad
an jo
or ated
Ġm im
Ġin ches
Ġe ta
le um
as anjo
Ġwe ber
Ġcom ed
Ġde ll
ort ant
Ġwith stand
Ġne arest
Ġv in
est ablish
Ġwor ship
et te
am ous
Ġj azz
Ġres pir
con sid
Ġpart isan
ans w
Ġfa o
Ġneed le
ear lier
Ġcomp os
Ġwork ings
Ġup side
Ġexp ired
tern ally
Ġeconom ical
Ġjust ifiably
Ġper me
Ġind ict
Ġover sh
Ġcl oned
Ġconf ig
Ġref in
Ġmin sk
led o
Ġpers ists
ail s
Ġday ton
Ġform ulating
Ġchange over
Ġsuccess ors
Ġbegin nings
Ġtri partite
Ġret ro
Ġwater ways
Ġ10 3
co al
ber y
Ġ6 1
Ġfun eral
Ġpal ace
Ġemphas izes
Ġassist ant
Ġge b
Ġ7 4
Ġcontain ment
Ġsk ull
Ġmet ab
Ġsuper state
Ġmus icians
Ġsort ed
Ġbi ased
Ġmodern ising
bo y
ec ks
Ġreview s
Ġrat ifying
Ġvital ity
Ġdeli vers
Ġharmon ious
Ġprim acy
Ġhistor ians
sh ort
Ġauthor ise
Ġsurv iving
Ġtravel s
Ġarab ic
Ġpet ty
Ġlies e
Ġstim ulated
Ġaccident al
Ġ197 3
Ġtob in
Ġrestruct ure
Ġdign ified
Ġfat uzz
Ġineff iciency
Ġpil ots
Ġcli ff
Ġnut ritional
ham as
Ġunp aid
Ġfault s
Ġnav y
Ġmit igation
Ġchief ly
spe cial
Ġmanip ulated
Ġadvis able
Ġtrick y
Ġdismant le
Ġcoinc ide
Ġparadox ical
Ġrub bish
Ġtotalitarian ism
Ġaston ished
Ġdisregard ed
Ġhind ered
Ġpron ounced
Ġhomosexual ity
Ġfol ks
Ġeleph ants
Ġprovoc ative
Ġgor bach
Ġtraum a
Ġalign ment
Ġabd ullah
Ġsubordin ate
Ġneglig ence
Ġteen agers
Ġspr ings
Ġgreet ed
Ġbetra yed
Ġpreval ence
Ġschmid t
Ġerupt ed
Ġdrow ned
Ġcontag ion
Ġemin ent
Ġwilli am
agric ulture
Ġfals ified
Ġtyr anny
Ġtestim ony
esta ing
Ġhond ur
Ġgeomet ry
Ġkhodork ovsky
Ġelectrom agn
Ġurug uay
Ġguantan amo
Ġfatuzz o
2 2
9 6
a pe
d h
f ty
g iv
l an
l ings
l ocal
s al
v ig
x on
Ġt read
Ġa es
in is
Ġs ang
Ġs rebrenica
en able
Ġp ac
an throp
Ġb ah
Ġto x
Ġf og
Ġh iring
Ġd oping
Ġe loqu
Ġn am
Ġn ik
th irty
Ġre all
Ġre leg
ly n
Ġg iscard
pe ter
Ġst ad
Ġst ones
ver ing
Ġha ug
ra k
ch ange
ul ative
ill es
gh ans
Ġsu p
pp i
Ġse als
Ġpar ks
Ġhas te
Ġr ou
Ġag ri
Ġhe ter
Ġcommission ed
Ġk ok
Ġam ounted
Ġpe as
Ġqu orum
Ġtr ump
Ġout ward
Ġri vals
Ġapp liances
Ġnew com
Ġar oused
el on
Ġunder developed
Ġoff enders
Ġvot er
Ġtrans nist
Ġaf ghans
Ġgood ness
ian a
Ġhum ility
Ġprov oked
Ġmat urity
Ġdisc ards
Ġmon ster
ass oure
Ġext inct
Ġsi ber
Ġsi xty
Ġlast ly
Ġmeas urable
Ġconst raint
Ġmak er
Ġwar ri
Ġorder ly
Ġdifferent iated
Ġem ig
Ġap ology
Ġfav ourably
ned y
Ġsupp ressed
Ġaw ake
af ghan
Ġpriv ately
Ġmis giv
Ġz aire
Ġschool ing
la pping
Ġbra kes
Ġrom ney
Ġ7 9
Ġbroad ening
Ġ9 3
Ġrecomm ending
Ġborder ing
Ġfl out
Ġden ounced
Ġaud io
Ġilleg it
Ġcritic ising
Ġcal der
Ġ12 5
Ġprim itive
ix on
Ġund ue
Ġmeasure ments
Ġmand ates
Ġste ering
Ġsl ack
Ġexer ting
Ġarri ves
Ġ198 4
Ġstra ins
Ġslo gans
Ġlog ically
Ġburden ed
Ġda unting
Ġstock p
Ġadjust ing
Ġsett ling
Ġfrequ encies
Ġradical s
Ġacce leration
Ġliter acy
Ġecu ador
Ġtight ly
Ġfal con
Ġcollabor ate
Ġextensive ly
Ġsyn onym
Ġchurch ill
Ġjohn son
Ġoverwhel med
Ġsuspect s
Ġinnoc ence
Ġanaly tical
Ġearn est
Ġdepri vation
Ġcash man
Ġyield ed
Ġmarked ly
Ġdeterior ate
inn ovation
Ġjeopard ising
Ġbrut ally
Ġbrut ality
Ġannex es
Ġswitch ing
Ġnic ar
Ġadvis er
Ġnaz is
Ġcollaps ing
Ġlam assoure
Ġprud ence
Ġtac it
Ġrum ours
Ġpaint ings
Ġpossess es
Ġble ak
Ġdisproportion ately
Ġeager ly
quest ions
Ġga ul
invest ment
Ġunambig uously
Ġresid ual
Ġenlight en
Ġcorrid ors
Ġhaw ai
Ġupgra ding
Ġinsol vency
Ġbric k
Ġattent ive
Ġorchest ra
Ġstun ning
Ġdefect s
Ġplun ged
Ġconqu er
Ġconfer red
Ġwi pe
Ġsta es
Ġpv c
Ġjose ph
qual ified
Ġdiscont ent
init ially
Ġhugh es
Ġdegra ding
Ġpino chet
lang u
Ġmisgiv ings
4 0
d iv
f a
h un
h arm
i ences
k ins
m iss
o es
r ons
s outh
y o
Ã Ł
Ġ ict
Ġth irst
Ġth ys
re form
on ge
Ġc ron
Ġo pec
ing es
Ġd p
Ġn asty
le ave
Ġre now
as car
st ri
Ġl ens
Ġon wards
Ġst ev
ra ining
ri m
ch ron
ith ms
Ġun question
Ġun healthy
Ġun esco
Ġsh akes
li mp
Ġle w
Ġch olera
et ting
Ġso ared
Ġhe al
Ġab ys
Ġk it
Ġcont end
oc ut
ap est
ag ascar
Ġexp ulsion
el li
Ġdec ree
Ġsp ared
Ġover he
Ġmad agascar
Ġro osevelt
Ġsub way
Ġhum or
Ġwell being
Ġnu cle
Ġla os
Ġent rance
Ġgu itar
Ġcar rot
Ġenv y
Ġpers ian
chn er
Ġrespect ful
Ġsect arian
Ġnor weg
Ġfav a
Ġcor ners
Ġbl ur
Ġread ers
Ġed ges
Ġbar b
Ġfundamental ists
Ġactiv ism
Ġoper a
Ġhead ache
Ġstat ue
Ġce ment
Ġche er
Ġche ating
Ġbur y
Ġspecial ized
Ġer oded
Ġjud ging
Ġbroad casters
Ġsubsid ized
app arent
Ġbi ologists
Ġmodern ity
Ġcorrect ions
Ġkill er
Ġtemp le
Ġwarm er
Ġsen ator
ze k
Ġdict ated
ik es
Ġhot els
Ġremark ed
Ġincorpor ates
Ġcoast s
Ġdark ness
200 8
hr ushch
Ġsurround ings
Ġshadow s
gra du
Ġrain forest
Ġinfring ed
asc ular
Ġguard ians
Ġded u
Ġgar bage
Ġreported ly
Ġgri m
Ġcert ified
bar ometer
Ġdan iel
Ġhence forth
Ġadverse ly
Ġrot ating
Ġ194 0
Ġmonit ors
oh l
among st
Ġhell o
Ġnomin ated
Ġcart oons
Ġdish es
Ġaccus ation
Ġweigh ed
Ġdictator ial
trans p
writ ten
Ġintr ans
Ġclim bed
Ġacced ing
Ġkne e
Ġindu ce
Ġresil ient
Ġasymmet ric
Ġthri ve
Ġoverr iding
Ġadvers aries
Ġovert aken
Ġcu mbers
brit ain
brit ish
Ġbern anke
Ġinterl ocut
Ġdissatisf ied
Ġdissatisf action
mill ions
Ġconfed eral
diff erent
Ġhen ry
Ġredef ine
Ġtextbook s
Ġalgor ithms
Ġgb p
Ġenerget ic
Ġspar se
Ġcust ody
Ġhomopho bia
Ġpragmat ism
tour ism
Ġphant om
Ġunice f
Ġgeb hardt
Ġgorbach ev
hrushch ev
9 7
a ise
c od
c ale
e w
f alus
g le
l is
l ocked
m d
m ist
m ish
n early
p ox
s af
v ide
w estern
Ã ª
Å Ħ
Ġ Å
Ġt an
Ġa ub
re ally
at able
Ġw and
Ġw ard
Ġw ool
is er
Ġs way
Ġs Ã¡n
Ġc ites
Ġp om
an ch
Ġb ast
Ġm umb
Ġd j
ic ia
Ġe it
Ġe ternal
Ġe br
Ġe lles
Ġn ixon
st ruct
Ġg ib
Ġu mp
pe are
ol it
Ġal lied
Ġhave l
Ġwith hold
ge ts
Ġse iz
ci a
Ġli u
Ġj el
Ġj ones
Ġj okes
Ġhe aling
Ġcont ention
ie val
iz er
Ġco ven
are rs
Ġjust ifiable
he ment
Ġinv aded
Ġrel inqu
Ġsit uated
Ġmon net
ass oni
Ġmin us
Ġla h
Ġla mber
Ġend ure
Ġnational istic
Ġlast s
Ġachie ves
Ġinstit utes
Ġmed ication
Ġdown load
Ġide ally
Ġgr Ã¶
land ers
Ġem igration
Ġval en
Ġfr assoni
Ġins ane
Ġremain der
Ġspecif ies
Ġdist racted
Ġforward ed
Ġshort coming
Ġaw esome
Ġcri ed
Ġret al
Ġmilit ant
Ġenc l
Ġru ins
Ġcomb ines
ime ter
Ġchar ism
Ġce ased
Ġinstru ction
Ġdesign ation
Ġenlarge ments
Ġamb ival
Ġ8 1
Ġ8 9
Ġpost er
Ġbroad ened
Ġve hement
Ġec sc
Ġland mines
Ġdev oid
Ġred isc
Ġdisp ers
Ġital ians
Ġclos ures
Ġpercent ages
bo x
Ġavoid s
Ġbri g
Ġsound ing
Ġgl am
Ġcorrect ive
Ġextra pol
rop ol
Ġinstrument al
Ġwilling ly
Ġpain s
Ġje wel
Ġcomment ed
Ġhor rors
Ġpret ending
set ting
Ġblo om
Ġphys ician
Ġstaff ing
Ġhost ilities
ij i
Ġvirt uous
Ġpan acea
ta wa
who ever
Ġconver ting
Ġprotest ing
Ġ197 4
Ġamaz on
Ġentit lement
Ġgal icia
Ġadvance ment
Ġblue print
Ġdistin ctive
Ġmc car
Ġmos que
Ġacknowled ging
Ġbol ster
Ġthir teen
Ġawa ited
Ġineff ect
Ġded icate
Ġbomb ers
Ġapprox im
che z
Ġendors ing
Ġnut ri
Ġdistort ing
bb els
Ġsev ent
Ġdeterior ated
Ġerad icated
Ġaward ing
Ġinvent ory
Ġexhaust ive
Ġtail ored
Ġcrash ed
Ġimperial ism
Ġmarginal ised
Ġrecyc led
Ġcere al
Ġattain ed
Ġstip ulate
Ġenrich ed
Ġtroub ling
yn man
Ġtermin ology
Ġroutine ly
Ġtig ers
Ġrecur ring
Ġconform ity
Ġfib er
abul ary
Ġdiscoura ged
opoul ou
Ġconsp ic
Ġinval id
Ġembass ies
Ġtaj ani
Ġouts our
Ġilliter acy
ikh ail
Ġgoe bbels
Ġindiscrimin ate
Ġspontane ous
Ġarsen al
Ġrecre ational
Ġguer r
Ġantarctic a
Ġmarg aret
priv ate
Ġgif ts
agg ering
Ġcontrad icts
Ġrebal ancing
Ġoverl ap
Ġbuiten weg
compan ies
Ġnois y
rais al
Ġpractition ers
Ġottom an
Ġstad ium
Ġthys sen
Ġdp j
Ġstev ens
apparent ly
Ġcumbers ome
falus sy
vide o
Ġebr d
Ġmccar thy
b ably
d rew
g on
h ir
h ne
i ac
i ently
i Äĩ
m or
p ine
r b
r in
s cience
u is
Ġa ce
Ġthe ft
on do
at i
is ites
Ġc age
an ing
Ġb end
or ating
Ġm end
Ġd ive
Ġd ating
Ġd ared
Ġre bell
Ġg limp
Ġi z
Ġfor ci
Ġst aggering
ow s
Ġy a
ol ia
ri ad
ch anges
Ġwith drew
Ġun he
Ġun ten
Ġun comp
ad op
Ġse greg
ant i
Ġpar as
Ġdo ck
Ġv all
ain e
qu in
Ġch ips
Ġr iding
od ka
Ġli ghter
Ġres ounding
Ġk all
Ġk ib
all ah
con ian
oc racy
ab a
ab ad
lo ading
ie u
Ġman h
Ġsa ch
Ġmar ie
Ġconc lusive
ach ie
Ġbo thered
Ġover weight
Ġover lapping
act ivity
Ġmo ham
Ġho bby
Ġconf ess
Ġpri est
Ġemp ir
Ġnational ists
Ġbud apest
pet itive
Ġdra gging
Ġdra conian
wor th
Ġcent red
Ġmed ieval
Ġdown s
Ġsuc k
Ġobject ed
Ġap athy
Ġir rig
Ġrev iving
Ġes f
Ġdist ract
Ġresearch er
Ġim o
Ġret rospect
Ġpat ron
Ġmor illon
Ġenc roach
Ġmis used
Ġtrad es
Ġdraw ings
Ġdom estically
Ġ8 7
Ġpack ed
Ġcru x
Ġword ed
Ġaud itor
Ġmill en
Ġcampaign ing
Ġconstruct ing
Ġspeed ily
Ġje ans
Ġboard ing
ik istan
Ġsex ually
Ġcontra ven
urs ed
Ġsav ary
Ġstrugg led
Ġcateg or
Ġbound ary
Ġhur ts
Ġsto le
Ġdispl ays
mar king
Ġmoun ted
Ġbehavior al
ato yama
Ġpurch ased
Ġabstain ing
Ġdiscip lines
Ġsyn chron
Ġpred ators
cont ract
Ġatmos pheric
Ġkil og
Ġparad ise
Ġphotograph er
Ġken nedy
Ġjun k
Ġgross ly
Ġargent ine
Ġdav ies
Ġfrust rating
Ġvoc abulary
Ġprofess ors
Ġgrat ifying
Ġxenopho bic
Ġhall uc
Ġdup uis
Ġcatal ogue
Ġfisch er
Ġinterview s
Ġinterview ed
Ġcultiv ated
Ġwholehear ted
Ġase m
hist orically
Ġmun ich
Ġlam falussy
Ġdecentral ized
Ġinteract ing
Ġmcc ain
Ġadh erence
Ġiv ory
Ġloud ly
Ġflour ishing
Ġsatur n
Ġstret ched
Ġcoc a
Ġclimb ing
Ġclim atic
Ġsuperf icial
Ġinterdepend ent
Ġot tawa
Ġarrog ant
fund ament
Ġshipy ard
Ġwil der
Ġnurt ure
produ ct
Ġsolv it
Ġassign ment
Ġindebted ness
Ġfert ile
Ġomission s
Ġinadequ acy
Ġpeters burg
Ġunle ashed
Ġspokes man
norm ally
fail ure
Ġscrat ch
Ġhin du
Ġcleans ing
Ġupheav al
ran ca
pie ce
Ġsie ge
cred it
Ġcric ket
amil iar
Ġfanatic ism
palest in
Ġfrict ion
Ġsalaf ranca
Ġoversh adow
ĠgrÃ¶ ner
Ġunten able
c ence
d ri
e zz
g ically
g iving
h ot
j or
l ash
m ight
m ium
n as
p akistan
s an
u ities
u ating
Ġt in
Ġt ut
Ġt ub
Ġa unt
Ġw ol
Ġw urt
Ġs ap
Ġs ara
an ou
Ġb il
Ġb ru
Ġm t
Ġm ice
Ġm lad
es ar
Ġf landers
Ġan ten
Ġh an
Ġh ip
Ġh urd
Ġd or
ar ted
Ġn od
Ġn erves
le aders
as il
as ia
Ġbe ans
Ġg ul
Ġg el
Ġon set
id is
Ġst ain
ol ation
Ġal tering
Ġun answ
ad ors
Ġse cession
Ġhas ty
Ġch al
et ric
Ġpres ume
am ins
Ġcan cers
Ġk inder
ac le
Ġus sr
ig er
Ġfa re
Ġno stal
Ġqu asi
Ġmy riad
em er
Ġcons ens
Ġtime frame
Ġob asanjo
Ġpolicy making
Ġinv o
act ic
Ġgood bye
Ġhum ble
rat ulations
min ister
Ġtreat s
Ġgu ests
Ġsc ape
Ġcent ered
Ġdifferent iate
Ġide ologies
ount able
Ġins erted
Ġemploy s
ick ed
Ġcost ing
per anto
ret ched
Ġsw ord
Ġreform ers
fin land
Ġmilit arily
Ġfoc al
Ġperiod ic
Ġmoment ous
Ġappropri ation
Ġgra y
Ġpot ent
az a
Ġpa ved
Ġvict or
Ġ7 1
Ġcontain ers
Ġsk il
Ġprob able
Ġsubsid ise
ban ks
Ġdi ag
Ġoblig es
Ġcla ude
Ġdoubt less
Ġden ies
Ġgl ory
20 10
Ġeth anol
Ġwal ter
Ġinteresting ly
Ġdocument ary
Ġ12 9
Ġ11 5
Ġsens ors
Ġnight s
sh ot
Ġwarm est
Ġsen sibly
Ġcomment ing
ob il
Ġconcept ual
ik o
Ġconfirm ing
Ġwhite head
dra fts
Ġenh ances
Ġfacilit ates
Ã¡ l
Ġdog matic
Ġgradu ates
Ġ17 0
Ġuns u
Ġphil anthrop
Ġrid den
Ġurban ization
Ġ197 5
Ġren ounce
Ġgaz prom
Ġfat ig
Ġball s
Ġreb u
Ġswe at
Ġbed room
Ġrestric ts
Ġprohib its
Ġmobil ize
Ġmotor cy
Ġmultip ly
Ġded uct
Ġdro ps
Ġsim ulation
Ġech elon
Ġanaly ze
Ġgri ev
att an
Ġhaz ards
Ġminim ize
Ġdesp icable
Ġjeopard y
Ġanticip ation
Ġconve yed
Ġprescri be
Ġphr ases
Ġdisrupt ive
Ġapplaud ed
Ġrestaur ants
Ġembarrass ed
Ġairpl anes
Ġinsight s
Ġluc rative
Ġmaxim ise
Ġburn t
Ġintu ition
Ġaz nar
Ġhypo the
Ġrab bit
Ġunfold ing
Ġamp lif
Ġblat antly
Ġpas sions
Ġku wait
Ġabdu cted
Ġkidn apped
Ġsquee ze
Ġslu mp
Ġthro at
ushch enko
Ġmd gs
geor ge
Ġrena ult
Ġinfer ior
Ġtru ce
Ġsidel ines
Ġmoder ates
Ġrescu ed
Ġstrang ers
Ġpredic ting
Ġcous in
Ġunint ended
Ġerr one
Ġchanne lled
Ġcun ha
Ġpetro leum
Ġlithuan ian
administ ration
Ġunfav ourable
cong ratulations
Ġrespons ive
Ġanthe m
Ġtraject ory
afghan istan
Ġnicar agua
Ġgaul le
transp arency
Ãª te
Ġmanh attan
Ġwurt z
Ġunansw ered
1 6
a cious
b bing
e mp
f ear
g ir
g eration
g ences
j ev
j amin
r g
r ally
s is
t un
t led
u x
v oc
Ġt ian
Ġt ier
re ll
on ds
Ġw ore
Ġw ired
Ġs lic
er ous
Ġc ant
Ġo mitted
Ġp ond
an men
Ġb bc
Ġm our
Ġf ancy
Ġin k
Ġan archy
Ġh ills
Ġd ated
ro ll
Ġe pl
Ġre vert
as por
st reng
Ġi b
Ġl orry
ol ese
ill usion
Ġun ve
Ġun set
Ġeuro barometer
pp ers
Ġv are
qu ier
Ġwhich ever
Ġch op
âĢ ĺ
Ġimp ress
Ġimp air
Ġam mun
Ġpl ag
Ġout lets
ap y
Ġyear ly
Ġmar ath
og as
ack ing
Ġra ge
Ġra bb
Ġtra il
Ġop a
Ġro cks
Ġcl ue
Ġinst antly
Ġrem inis
Ġmon et
Ġpr ist
Ġdef ender
Ġreal ising
Ġreal istically
Ġsc rew
Ġhope less
Ġbu zek
Ġsign atory
Ġwar rants
Ġtransp osing
Ġdown side
Ġdown gra
Ġdown town
Ġrest art
Ġsmall pox
Ġimm un
Ġeas iest
Ġgeneral ised
Ġexist ential
Ġextre mes
Ġreform ist
Ġactiv ated
mit t
Ġann um
Ġcentral ized
Ġmanage able
Ġstat ure
Ġstat istic
Ġ10 8
Ġbre yer
az e
Ġge o
Ġlat vian
Ġconnect s
Ġground work
Ġdi aspor
Ġavoid ance
Ġbri an
Ġbri bes
Ġcorrect ness
Ġcoll ision
Ġsal ute
Ġdr um
Ġkid ney
Ġclar ifies
Ġhor rend
Ġhar bor
ex cuse
Ġfil ed
Ġfil mm
Ġnation ally
Ġpun itive
Ġmoral es
Ġwid en
Ġattract iveness
Ġmusic ian
Ġut opian
Ġexclud es
Ġcast ing
Ġcast le
Ġprior itiz
Ġwitness es
Ġfit ted
Ġtransl ating
Ġ196 8
Ġarm aments
Ġuniform ly
Ġflag ship
Ġparalle ls
Ġgri ef
Ġ28 0
Ġtaiwan ese
Ġenthusi astically
Ġic on
Ġdiss olved
ches ter
Ġroman o
Ġdiscrimin ate
Ġdesp eration
Ġapolog ies
Ġvietnam ese
Ġlad der
Ġannex ed
Ġswitch ed
Ġconven ed
Ġsuspic ions
Ġah med
Ġcook ed
Ġmisunder stood
Ġtam il
Ġvit amins
Ġunderp ins
Ġnaz ism
Ġmir rors
Ġrevers ing
Ġrevol t
Ġexag geration
Ġmel ting
Ġrelax ed
Ġju ice
Ġbeach es
Ġgraph ic
Ġunderpin ned
Ġintermedi aries
Ġrival ry
Ġtank ers
Ġbeha ved
Ġreck less
Ġportfol ios
Ġaz ores
Ġpir ker
Ġreorgan isation
Ġtraum atic
Ġkeynes ian
Ġthri ving
Ġreprodu ce
Ġsupermar kets
Ġdefer red
dec isions
Ġalt ru
Ġinsol vent
quit ous
Ġsolv ency
Ġbuff er
Ġlaure ate
Ġturbul ent
Ġrepay ment
Ġunle ash
Ġkla us
Ġempower ment
Ġlud ic
Ġaggrav ated
Ġmam m
Ġlas er
Ġsket ch
Ġeuph oria
Ġschroed ter
Ġlod ged
Ġimpat ient
Ġfern and
Ġinflex ible
Ġappease ment
Ġlia ison
Ġunsuccess ful
Ġbosn ian
Ġjav ier
Ġelectromagn etic
Ġnewcom ers
Ġtransnist ria
Ġcalder Ã³n
Ġhawai i
Ġiz quier
Ġconsens ual
Ġscape go
Ġreminis cent
9 8
b en
c rit
e mployment
f lies
l ance
m aker
o ise
r un
v ille
Ã ¯
Ä Ł
Ġth war
on ium
Ġs ank
Ġs orrow
Ġb ak
al an
Ġh int
Ġd amp
Ġd uff
Ġd umb
Ġd war
ar r
ro es
Ġe ag
as co
Ġl al
Ġst airs
Ġha mb
Ġal pine
Ġde ment
the t
Ġme ter
Ġeuro control
im mer
ist ence
Ġr ude
Ġcan v
Ġli ed
Ġab rupt
Ġpol ling
Ġk iev
ig s
ud ge
Ġad oles
Ġpe an
Ġright ful
ru le
Ġcons ular
me at
Ġpos ing
Ġmar ty
Ġra v
Ġper taining
act s
Ġsub mar
rat er
Ġref ine
Ġref resh
Ġmay ors
Ġfar ce
Ġemp ires
Ġpublic ations
Ġtal e
Ġbu c
Ġset backs
Ġglo omy
Ġlif es
Ġhand ing
Ġcre ws
Ġval le
ov an
ov Ã¡
Ġfav ors
Ġplan k
Ġproduct ions
par is
Ġdist ill
Ġdist ressing
Ġstar ving
Ġbro ok
Ġshort est
Ġple ad
Ġaccess ing
Ġexpl oded
Ġwater way
Ġz oo
ber lin
Ġdri ed
Ġcomprom ising
Ġcut backs
Ġcirc ular
Ġsk ies
atch ed
Ġ9 1
Ġmet ropol
Ġorigin ated
Ġmen u
Ġdel ta
Ġbel ated
Ġmill er
Ġdece ived
Ġvir al
Ġsepar ating
Ġste ve
Ġhy brid
Ġdecl ines
Ġje ff
Ġcompreh end
Ġdiplom at
ex p
Ġsuperv ise
Ġcomprehensive ly
Ġcr unch
Ġunf amiliar
Ġeight een
sy ria
Ġrele ases
Ġtouch ing
Ġhur ried
tur ns
Ġoccasion al
Ġbos ses
Ġmag ical
Ġczech os
Ġreb ate
Ġformal ities
Ġpi ge
Ġpreced ents
Ġmc don
Ġpredict ion
Ġnotice able
Ġfly nn
Ġflag rant
Ġpunish able
Ġadm irable
Ġexperiment ation
Ġalcohol ic
Ġtremend ously
Ġreinforce ment
Ġnav igate
nat ural
Ġnovel s
Ġdiox in
Ġbrand s
Ġcab in
Ġprerequ isites
Ġprejud ices
Ġroc kets
Ġdivid end
Ġcultiv ate
Ġingred ient
Ġdestabil izing
omed ay
Ġstamp s
Ġcoc aine
Ġambass adors
Ġcatastroph es
Ġmas k
Ġdil igence
Ġham pered
Ġak p
incre ased
Ġpione er
Ġpione ering
Ġdiscoura ging
Ġneu ros
Ġtaj ikistan
Ġunders c
Ġtelecom s
Ġdense ly
Ġrena issance
Ġkir k
Ġepidem i
Ġempt ive
Ġexped ition
Ġdischar ges
indust rial
scient ists
Ġhug o
Ġsalv ador
Ġgig antic
Ġimpul se
Ġdescend ants
Ġrenational isation
Ġmock ery
Ġsquand ered
Ġinacc urate
redu cing
Ġcompatri ots
Ġcynic ism
Ġrespir atory
Ġhondur as
Ġsynonym ous
Ġshakes peare
ĠsÃ¡n chez
Ġjel ly
Ġlamber t
Ġrebell ion
Ġfatig ue
Ġtian anmen
Ġvare la
Ġmamm als
Ġizquier do
7 1
b ad
c lose
d or
h ill
m ert
r ina
s ustainable
s feld
t rad
Ġ &
Ġth ors
in ety
Ġw ives
Ġs or
Ġc ds
it ations
Ġp m
Ġp ip
Ġp ants
Ġp unch
Ġp ills
an ide
Ġb ip
Ġb ret
Ġm ikhail
es y
Ġf erv
ou st
al le
Ġh ated
Ġd ick
Ġd irt
Ġe ts
st ant
st ock
st airs
Ġl inc
Ġu bi
Ġha bs
Ġy ushchenko
ol n
ri ga
ill as
Ġun to
Ġun worthy
Ġsh red
Ġex ternally
Ġv odka
Ġch en
Ġpres umption
Ġimp lying
Ġhe el
Ġab ound
Ġk ac
Ġk hrushchev
um in
reat ed
si p
Ġpl um
lo ve
Ġdis illusion
Ġcomp rise
Ġinc ite
Ġreport ers
te e
Ġexp ires
ts burgh
ink ed
og ens
Ġra ck
ial s
Ġdec ay
Ġdec rees
Ġsp en
Ġfe ynman
Ġper ry
Ġinv oke
Ġter rain
Ġlo ading
Ġlo opho
Ġiss u
Ġgovern s
Ġcommun iqu
Ġhuman kind
Ġconf u
Ġjo ins
Ġmon ies
lud ing
Ġdef y
Ġdef ends
Ġreal ization
Ġma i
Ġma pping
Ġinform ative
other apy
Ġlaw ful
Ġserv ant
Ġinf amous
Ġdep letion
ph al
Ġcond oms
Ġopportun e
Ġplan etary
Ġbl ast
com put
Ġiniti ating
Ġprogress ed
Ġcontribut or
eng lish
Ġes c
Ġfavour ing
Ġcri pp
Ġcivil isations
Ġfour teen
Ġmis led
Ġmis fortun
ber keley
equ al
Ġer df
Ġgra v
Ġopt ing
Ġhold er
Ġweek ly
Ġune asy
Ġpost ure
Ġ9 4
pris ingly
Ġmet ic
pr ince
Ġreflect ions
Ġdisp ens
Ġbri be
Ġpurs ues
Ġaud iences
lam ation
Ġharmon ize
Ġswed es
Ġregret ted
Ġsens ation
Ġdr ank
Ġconsist ed
Ġmal aise
Ġsen seless
Ġdeleg ates
Ġdistribut ors
Ġunivers ality
set Ãªte
Ġcontract ors
ex cept
Ġobst ruction
mes ter
rep ort
Ġcomplic ate
Ġstim ulation
Ġwid ened
Ġsav age
cl os
Ġegypt ians
Ġfederal ism
Ġcam el
Ġstabil izing
eff ective
Ġpersu asion
Ġdepth s
Ġselect ing
Ġcrow ds
Ġsyn thes
Ġsyn thesis
Ġdirector ates
Ġembar king
Ġfashion able
Ġgar riga
Ġfost ered
Ġcomplement arity
Ġdiss ol
Ġendeavour ing
Ġfrag ility
Ġunit ary
Ġcompassion ate
Ġaustral ian
Ġfasc inated
Ġiron ic
Ġdispar ate
Ġpharmaceutical s
Ġrot ation
Ġarbit r
Ġcatal og
Ġintense ly
Ġsimultane ous
Ġpit tsburgh
Ġdiam onds
Ġextract ed
Ġabund antly
Ġtransplant ation
Ġautomob iles
Ġmedi ator
Ã§ ois
Ġencompass ing
Ġwors ened
Ġchampions hip
Ġexpon entially
Ġhaul age
Ġscra pping
ser bia
Ġreef s
Ġghost s
Ġpreoccup ied
hy d
Ġstig mat
Ġepidem ics
Ġlyn ne
Ġanomal y
Ġyard stick
Ġhydro carbon
Ġhelicop ter
Ġrecru ited
Ġintrins ic
len ecks
Ġseaf arers
Ġcoerc ion
Ġgros setÃªte
Ġchromos ome
Ġawak ening
Ġpedest rians
Ġrhyth m
Ġbeliever s
Ġrecap ital
Ġrevis it
main taining
Ġshri mp
Ġruth less
Ġdishon est
Ġglar ing
Ġchimpanze es
Ġunimag inable
Ġpeas ants
Ġillegit imate
Ġenlighten ment
Ġrenow ned
Ġmumb ai
Ġgib ral
drafts man
Ġhypothe tical
jev o
streng then
Ġdiaspor a
Ġlinc oln
Ġloopho le
6 0
7 5
b ud
c ulture
f ting
h al
k ar
l ate
m ult
n ame
p ric
s f
s mes
t ops
u ble
z id
on ents
at ia
is ance
Ġs j
Ġs ine
Ġs ulf
Ġc er
Ġc ensus
it ors
it ute
Ġp ere
Ġb uch
Ġm ired
Ġf rog
Ġf idel
Ġf uss
Ġin ception
Ġh end
Ġd iving
ar c
Ġre use
Ġre cessions
as ide
om a
Ġg addafi
Ġl dp
Ġl Ã³
Ġu ri
ot es
Ġst iff
Ġst alled
Ġcon sec
Ġal ber
Ġde lusion
ra ham
ch a
ul sions
Ġnot ify
ill i
ill er
Ġun con
Ġun ifying
Ġsh un
Ġsh aken
Ġsh irts
Ġex ting
ust er
Ġv ind
un ci
Ġen cycl
Ġr al
Ġcan ce
Ġk ings
Ġk roes
ac ross
ig an
ud o
ud ron
Ġac ids
ab eth
Ġfa x
Ġneed ing
Ġtr ash
Ġcomp ounded
Ġinc oh
Ġsa iling
Ġmar vel
Ġmar ÃŃn
pt ic
pt ive
Ġtra ctors
Ġfe ira
Ġthink ers
Ġser b
Ġinv ites
Ġbo il
Ġoff spring
Ġtrans itions
row s
Ġmarke ted
Ġstr ings
ath ic
Ġmo ore
Ġacc red
Ġrel at
Ġhigh way
Ġnu mb
Ġprot agon
Ġadd itions
Ġend emic
Ġent rop
art in
Ġ19 20
Ġhel ms
Ġgu ise
Ġsc aled
Ġsm iling
Ġback lash
Ġinter actions
Ġinter parliamentary
Ġcent rally
Ġcompet itions
Ġca udron
Ġdeal ers
be ek
Ġhand some
ater o
Ġfav ored
Ġkind ly
Ġbl aming
Ġes peranto
Ġel usive
Ġconstit uted
Ġopp ress
Ġsuff erers
Ġlab s
Ġdiscuss es
Ġfull est
pl aces
Ġfall out
Ġgra pp
Ġgra ms
Ġparticip atory
Ġwr ist
Ġfle mish
Ġmult itude
Ġ8 3
edi ment
inde pend
Ġve il
Ġver itable
Ġec ologically
Ġorigin ating
Ġmess y
Ġsuper iority
Ġland mark
Ġdev ising
Ġbi ogas
Ġdisp ose
sp ort
Ġfear ful
Ġens uing
Ġdiv isive
Ġeth n
Ġeth ic
Ġinterv als
Ġimag ery
Ġharmon ized
Ġcod ified
Ġspace craft
Ġund is
Ġcop ying
Ġcircumst ance
Ġfirm ness
Ġfue ling
Ġsl ots
Ġsun nis
Ġclar ifications
Ġconcent rates
Ġ13 7
Ġheav ier
Ġcooper ated
Ġacqu ainted
Ġhost ed
Ġvision ary
Ġcompar ability
Ġpun ishing
Ġder ives
Ġassemb led
Ġsett lers
Ġhur dle
Ġprofessional ism
Ġabandon ment
Ġdisappe ars
pro bably
Ġsac coni
Ġmc n
Ġmatch ing
Ġmos quit
Ġol mert
Ġphilosoph ers
Ġuniform ity
Ġcrow n
Ġq atar
Ġow ed
Ġkn ocked
sen beek
Ġcas p
Ġforecast ing
add itionally
russi an
Ġbow l
Ġfool ed
Ġsme lls
Ġbread th
Ġarbit ration
Ġabst entions
Ġdup licate
Ġsubs istence
Ġcamb ridge
Ġunjust ifiable
Ġunh cr
Ġambig uities
Ġenrich ing
Ġunus ually
Ġbreed ers
Ġdismant led
Ġmun itions
Ġbiof uel
Ġrede fin
Ġalleg iance
Ġhesit ant
Ġvolunte ering
Ġjac ket
Ġinconsist encies
Ġinject ion
Ġscan ners
Ġdivor ced
Ġincorrect ly
Ġignor ant
Ġsink ing
Ġneur on
Ġlung s
Ġdiscret ionary
Ġmunicip alities
produ ction
Ġepis odes
Ġcomplac ent
Ġbund es
Ġattent ively
Ġspa wn
Ġdisturb ances
Ġautoc ratic
Ġauthentic ity
Ġzo om
Ġlud ford
Ġprerog ative
Ġinstinct s
Ġpreval ent
wal k
Ġqua est
Ġfried man
impro ving
Ġgi ants
Ġvag ina
Ġdolph in
inf lation
Ġincompet ence
Ġsymptom atic
comb ating
Ġcum ulative
Ġcarte ls
Ġsore ly
Ġuc its
Ġtay lor
Ġsew age
Ġwij senbeek
Ġron ald
Ġmong olia
Ġamate ur
Ġyanukov ich
Ġdiagnost ic
Ġzap atero
Ġpent agon
Ġendang ering
Ġflor ida
Ġuntou ched
langu age
Ġnorweg ian
Ġredisc over
Ġglimp se
Ġhurd les
Ġammun ition
Ġludic rous
Ġdwar f
Ġdement ia
Ġhabs burg
Ġspen cer
prince ton
ĠlÃ³ pez
3 7
a gh
d t
d ar
d ial
e pt
f ted
f air
h ima
n els
p rop
r Ã©
s im
v ania
y on
Ã ł
Ġ .
Ġth ief
Ġa ires
re lig
at ism
en os
Ġp Ã©
an na
Ġb inary
Ġb aker
or g
or ig
Ġto ss
Ġf od
Ġf ills
Ġh ul
Ġh atoyama
ar gent
ent ually
Ġn ick
Ġbe ware
Ġbe lls
il ar
ut ive
ur i
Ġal ia
Ġun related
Ġcomm ended
and an
Ġpar ach
Ġdo om
Ġv a
Ġat yp
Ġimp ract
Ġj ury
Ġab norm
Ġk a
Ġk ohl
Ġint ract
con versely
Ġpart ition
um en
Ġneed less
Ġdis ag
Ġmy st
Ġri pe
Ġact a
Ġfin ite
Ġwork load
Ġman chester
Ġapp rent
Ġapp raisal
Ġsa ud
me l
ia h
Ġmar io
og ical
ok en
Ġconc ede
Ġhow itt
ine es
Ġtra w
Ġtra ces
Ġworld view
Ġinv iol
Ġbo b
form er
uch ma
Ġstr at
Ġsub contract
Ġbas ics
Ġla v
Ġfar age
Ġcur ves
Ġend ow
Ġass erted
Ġsc aff
Ġhelp less
Ġback yard
Ġbu ys
Ġcap it
Ġca pp
be at
uc ked
Ġequ atorial
Ġthank ed
Ġnegoti ator
Ġben jamin
Ġread ings
Ġmil an
Ġfish ed
Ġopp ressive
light s
arm ed
Ġsw amp
Ġcong olese
Ġloc ate
Ġrece ipt
Ġmis inter
Ġche at
has a
cise ly
Ġprogramm ed
Ġdoub ly
den ed
Ġcontain er
Ġfl ame
Ġground ed
rupt ion
Ġdi vert
Ġill um
Ġgl ut
Ġgl orious
ev entually
Ġfo res
Ġrich ness
Ġcoll ins
Ġprepared ness
Ġeth ically
Ġstri pped
Ġdece ive
Ġlegit imately
Ġmig uel
Ġspeed ed
iss au
Ã© t
any body
Ġrein teg
Ġrein vent
Ġsil va
Ġnegative ly
Ġannoun cing
Ġlog istical
Ġtun nels
Ġdestro ys
Ġcommunic able
Ġbeautiful ly
Ġcontra ction
Ġcoal itions
Ġcondition ing
Ġut ility
Ġmem o
Ġbelong ed
Ġ197 6
rant ed
Ġang les
Ġtoler able
mar ket
Ġsell s
Ġreaction ary
Ġment ally
Ġunfair ly
Ġcheap ly
Ġreconcil ing
Ġideal ism
Ġenhance ment
Ġic ty
Ġpassion ately
Ġsacrif icing
Ġwis er
add y
Ġjeopard ised
Ġhair cut
Ġstead fast
Ġexhaust ion
Ġkh an
tra ff
Ġsecular ism
Ġsuit case
Ġtact ic
Ġdivid ends
Ġexacerb ating
Ġrum sfeld
Ġring ing
Ġcaut iously
Ġbreakthrough s
Ġweigh ing
Ġretail ers
Ġbitter ly
Ġaffirm ed
fif ty
Ġspectac le
Ġtermin al
var o
Ġmedi oc
Ġunb ear
Ġdenomin ated
Ġneglig ible
Ġimpartial ity
Ġnurt uring
Ġsquee zed
Ġblan ket
Ġkat rina
Ġdisgu ise
Ġsupervis ors
Ġpreach ing
geor gia
Ġnich ol
Ġidi ot
Ġcad mium
Ġreinst ated
lat in
Ġperv asive
Ġkau ppi
Ġoverf ishing
luck ily
Ġorganiz ational
Ġstumb ling
Ġhemis phere
Ġore ja
Ġplut onium
cro atia
Ġmaneu ver
Ġdysf unctional
Ġvin ci
Ġsach s
Ġmillen nia
Ġsara jevo
Ġepl p
Ġopa que
Ġhorrend ous
Ġczechos lovakia
Ġuri be
Ġatyp ical
Ġscaff old
2 1
e ing
f rench
g al
h our
i arity
l ay
p in
p urs
r d
t age
t ight
v ili
w ich
w ab
w itz
Ġt and
Ġt ink
Ġs d
Ġc ed
it is
Ġp ree
Ġp aren
Ġto lls
Ġf ren
Ġin ext
Ġh ij
Ġh Ã¤
Ġh ipp
Ġd ull
ro bi
Ġe go
Ġand ean
Ġn aming
Ġn inth
ve ll
om b
Ġg ently
Ġl aughter
ot le
Ġfor ging
Ġst aunch
Ġy uk
Ġal an
ch anging
Ġas th
ul as
Ġne y
Ġme ag
Ġun ra
Ġun iting
Ġun true
Ġeuro med
Ġse aled
Ġse mester
Ġex h
Ġex od
li um
Ġv ine
Ġv atic
Ġv anish
est ine
Ġen ron
et ta
Ġli k
Ġhe b
Ġab hor
Ġk an
Ġk ahn
Ġk uchma
Ġint ending
ak ash
Ġrep rehensible
Ġpe ers
ish a
Ġpl ast
Ġdis en
Ġdis eng
Ġout ra
Ġbec k
ag ne
Ġcons ort
Ġcons igned
are l
Ġte l
Ġnew ton
Ġev ap
Ġjust ifying
Ġra f
Ġra ging
Ġdec im
Ġbo oms
Ġsub commit
Ġmat the
Ġjo e
lud ed
Ġadd icted
Ġadd icts
Ġtal es
Ġreason ed
Ġdifferent iation
be h
Ġdep ended
Ġta h
Ġcor p
Ġav iv
Ġins ur
Ġbl as
par alle
Ġbal d
Ġpur vis
Ġfound ers
Ġbor rell
Ġshall ow
Ġregul ates
Ġprof iling
Ġexpl ode
Ġmilit ia
Ġann a
Ġann ih
Ġthought ful
Ġce os
ug al
Ġaffect ion
Ġyoung est
Ġcourt esy
Ġ6 9
Ġanim ation
Ġgra mm
Ġhon ored
den mark
Ġune ase
Ġharm less
Ġve al
Ġmet ric
Ġver ifiable
Ġec j
Ġoppos es
Ġ15 2
Ġlos er
ls son
Ġcy anide
Ġcle arest
Ġexam ines
Ġsens ory
Ġmal administration
pre cisely
Ġsl ums
yl vania
Ġchair manship
Ġsun set
Ġrail road
Ġfre er
Ġstra it
Ġcr us
Ġton ne
Ã¶ stedt
Ġpiece meal
Ġclean ed
Ġdoor step
Ġhost ing
Ġcard iov
Ġ17 5
Ġsho ok
Ġconver ge
Ġgrand parents
Ġthor ny
Ġcub ic
Ġdig ging
Ġplant ed
Ġamaz ingly
Ġentit lements
Ġx x
Ġconce ive
Ġvari ant
Ġgal van
Ġpsych ologists
agree ment
Ġboost ed
Ġmark ov
Ġrecall s
Ġtit les
Ġprosec utions
Ġbackground s
Ġali ens
gen eral
Ġlength s
sub sid
Ġmos ques
Ġpersu ading
Ġcalcul us
Ġendeav oured
Ġblow s
Ġzimbabwe an
Ġstream lined
Ġstream lining
Ġcomplement ed
Ġmicro phone
Ġic ao
Ġroman ians
Ġdiscrimin ating
bar oness
Ġmurd erers
Ġfab ulous
Ġplural ist
Ġplural istic
Ġmathem atic
Ġconven e
Ġmanifest ations
Ġdivers ified
Ġmuseum s
Ġvit amin
Ġinput s
Ġcollaps es
Ġvenez uel
Ġpestic ide
Ġmira cles
Ġcompli ments
Ġrandom ly
Ġmyth s
Ġexemp ted
Ġhind rance
Ġunwilling ness
Ġdisin teg
Ġcorrespond ence
Ġattribut es
Ġtum ors
Ġobsc ene
Ġcrack down
Ġmont real
Ġreop ening
Ġdinos aur
Ġprovin cial
Ġreprodu ction
Ġcommem orate
Ġgreed y
Ġabdu ction
Ġlen in
Ġconfed eration
Ġflav or
Ġfierce ly
Ġdissemin ate
Ġilliter ate
Ġstif le
Ġcolumb ia
hel p
stud ies
Ġvolcan ic
Ġfeat ured
ĠÎ µ
Ġtechnoc ratic
Ġdolph ins
Ġteleph ones
Ġschizophren ia
Ġpour ing
Ġpier re
Ġfest ival
Ġinexp ensive
Ġstan ford
Ġovere st
Ã¤n en
Ġinherit ance
Ġtheat re
Ġimpot ence
Ġregen eration
Ġphy si
legisl ation
implement ation
Ġbott lenecks
Ġunsc rupulous
Ġsparse ly
Ġglam orous
Ġstevens on
worth iness
Ġirrig ation
Ġwilder ness
Ġdiag ram
Ġlal umi
Ġubi quitous
Ġgibral tar
Ġsj Ã¶stedt
Ġquaest ors
Ġintract able
Ġcapp ato
Ġtand em
Ġinext ric
Ġexod us
Ġvatic an
akash vili
Ġcardiov ascular
4 5
4 8
a ard
b lo
b road
d ent
d ol
e at
j on
k b
l ical
l inson
m ers
t isa
u an
Ġ Ã¶
in na
at ol
Ġw en
Ġs omeday
en sibly
Ġc ess
Ġc ough
Ġc ared
Ġo li
Ġp iz
Ġb issau
or ative
Ġm au
Ġf p
Ġf t
ou m
al tern
Ġan es
Ġh ull
Ġd ÃŃ
ro v
ro ts
ro pri
Ġe li
Ġn ai
le ting
as ian
il ly
il ia
il let
Ġg ni
Ġg amble
Ġi ra
Ġl ing
Ġl apse
Ġwe iler
se v
pe ts
ra mm
ri ger
Ġnot or
res py
ir ut
Ġun qualified
Ġeuro pa
Ġsh ots
Ġse oul
ant e
Ġv end
qu iet
Ġen zy
Ġr ic
Ġso ber
Ġli ps
Ġj ugg
Ġhe m
Ġhe in
Ġor den
Ġab iding
Ġk on
Ġk ad
Ġus h
Ġpe l
ren ces
Ġdis like
Ġdis bur
Ġout do
Ġup ro
Ġup wards
Ġexp iry
Ġexp osing
Ġexp ropri
Ġapp alled
Ġco pper
Ġcons erve
Ġar ithm
el ing
Ġsp ani
ric ate
Ġlo aded
Ġro lled
tain s
Ġleg end
Ġtw ins
ful l
Ġacc using
Ġgen om
Ġmat ernal
Ġdirect ing
Ġmon arch
Ġref riger
Ġemp er
Ġma ils
get ting
Ġown s
Ġban ner
Ġaff lu
Ġca pe
Ġimpro per
Ġsimp son
Ġbus quin
Ġobject ivity
ph em
Ġap ocal
Ġsaf est
Ġbl ink
Ġspeci ally
per form
av an
Ġrese mble
Ġspecif ying
Ġsing ular
Ġart if
Ġviol in
Ġpat ently
Ġpat ernity
Ġcong ression
Ġprof iles
Ġmis pl
Ġz ana
ber ger
Ġtrad able
Ġer oding
Ġparticip ant
Ġbrit tan
Ġ7 50
Ġtom linson
Ġ8 8
Ġoil s
Ġfair y
Ġver bat
cri bed
Ġmus card
Ġdam asc
Ġdi ary
Ġdi ame
bo ards
ev ol
Ġsan ct
Ġrich es
Ġcritic izing
Ġcandid acy
Ġimag ing
Ġara ble
Ġrecon sid
Ġtemp ting
Ġquot es
Ġsco ld
not e
Ġflow n
Ġfoot steps
Ġstra its
Ġblo gg
Ġsuperv ising
unt ary
Ġcra dle
Ġdream t
Ġpublish ers
Ġrob bed
Ġwo e
Ġforg iveness
Ġinspect ed
Ġsell ers
Ġquar rel
Ġpul ls
Ġliter ary
200 5
Ġgold stone
Ġunique ly
Ġbattle field
Ġrecip es
Ġbrother hood
Ġmotor ways
Ġstrange ly
Ã¼ r
Ġadm ired
Ġintens ification
Ġstream s
Ġcommand s
Ġhat zid
Ġken yan
Ġpse udo
cap es
Ġdav os
Ġjeopard ize
Ġfab re
Ġdiver ted
Ġvent ures
Ġcrash es
Ġfur ious
Ġauthoritarian ism
Ġattain ing
Ġcul mination
Ġjurisdict ions
Ġfinger prints
Ġherz og
ifor is
Ġdestabil isation
Ġunex pl
Ġstagn ant
Ġfi asco
Ġacute ly
Ġpap ua
Ġsensit ivities
Ġspons or
Ã¡n dez
sch ool
Ġdeflation ary
Ġintermedi ary
Ġtag s
Ġsmugg led
Ġbio eth
Ġfol ly
Ġinjust ices
Ġmaxim ize
Ġmi ke
Ġpatri otism
Ġsant ini
Ġskept icism
cor por
Ġpir ates
Ġhi ros
Ġelev ated
Ġelev enth
ĠÂ °
Ġupgra de
Ġkat iforis
Ġreintrodu ce
Ġscandina via
Ġthr illed
Ġdissemin ating
Ġcontag ious
Ġsurf aces
Ġindiscrimin ately
dog an
Ġenqu iry
Ġschroed er
Ġhelicop ters
Ġfanat ical
Ġfanat ics
Ġperse ver
Ġdiscard ed
Ġadmis sible
Ġcarcin ogenic
chem ical
Ġanatom y
Ġcush ion
Ġmund us
Ġdisplace ment
Ġjuven ile
Ġcomed y
Ġindict ment
harm on
Ġintrans igence
Ġaub respy
Ġconspic uous
Ġforci bly
fundament al
Ġrebu ilt
Ġmarath on
Ġmcdon ald
strengthen ing
Ġconsec utive
Ġencycl op
Ġentrop y
argent ina
Ġunbear able
Ġnichol son
Ġmeag re
tisa ari
Ġarithm etic
Ġmispl aced
Ġverbat im
Ġmuscard ini
Ġhatzid akis
0 2
b ot
b ag
b ner
d an
h em
k in
l ab
l ants
m t
m ust
x ed
y ans
z ai
Ġt em
Ġa pe
at to
Ġw ag
Ġw itch
Ġw rap
Ġs id
Ġs chn
Ġs ins
Ġs lam
Ġc mo
Ġo pel
Ġp airs
Ġb olog
Ġb ib
Ġm oura
Ġm ier
Ġm ps
Ġto es
Ġto go
al it
Ġan a
Ġd orm
Ġd wind
ent er
th est
Ġre ced
st ore
st eria
Ġg ale
Ġl ender
Ġst oring
Ġha ck
ow itz
ol ics
Ġal ps
Ġde ceptive
ch air
ad ding
op y
Ġpar ked
Ġv ou
Ġv ang
ess entially
Ġch ef
Ġr ust
Ġr asmus
Ġr oure
Ġimp lant
Ġj a
ect ed
Ġres ide
Ġab using
Ġk am
ak able
ll able
Ġad ul
Ġcont ested
oc ating
Ġfa ction
Ġpl ates
Ġout lining
Ġri ot
Ġinc itement
de p
Ġman power
iz ers
te lling
Ġapp reh
Ġsa akashvili
Ġcons ign
Ġmar in
Ġmar ia
og enous
he llo
Ġra ft
Ġdem ograph
Ġsp y
Ġsp ike
ip ts
Ġover s
Ġconf ines
Ġstate hood
Ġmon archy
Ġquestion na
itiz ed
Ġcol oss
Ġgu ides
Ġprotect ions
Ġview points
Ġbu g
Ġban otti
Ġset back
bal gs
Ġtransp lants
Ġcap s
Ġform ulas
Ġbeh old
Ġca fe
Ġinf lam
Ġsch Ã¶r
uc king
Ġnegoti able
Ġunderstand ably
Ġread just
Ġtax ed
Ġed ition
Ġbusiness man
Ġcreat or
aps ed
Ġclo th
Ġbar rels
Ġret ic
Ġrece ipts
Ġsou ls
Ġkey board
Ġtimes cale
Ġche que
Ġbur ns
Ġty ph
Ġemphas izing
Ġvict ories
Ġharm ing
Ġge ological
Ġcirc ulating
Ġant id
Ġten ure
Ġpost war
Ġtest ify
Ġorigin ate
Ġport al
Ġgreen er
euro pol
Ġred ouble
Ġmodern izing
Ġbel ts
Ġrepe al
Ġcross es
Ġill s
Ġdebt or
Ġasse mble
Ġpaper work
Ġtrust ing
Ġrecon f
Ġpie balgs
Ġsens ing
Ġsubstant iated
Ġunaccept ably
Ġbul b
Ġsen ators
Ġcat ania
Ġsl ash
Ġcha mbers
Ġrein vig
ma jor
Ġhar ris
Ġ14 5
Ġprospect ive
Ġpra ying
Ġoccup ies
Ġrob otic
Ġrele asing
tur ned
Ġadapt ability
Ġprotest ant
Ġ197 1
Ġ197 8
Ġradical ism
Ġoptim ise
nor th
Ġfavor ites
cons umer
Ġmc guin
Ġpredict ability
Ġpatent ing
Ġcry st
Ġrh ine
Ġfer ry
Ġimper atives
Ġreass urance
Ġflood ed
Ġwaters hed
Ġawa its
Ġadm its
Ġmagn etic
Ġhal ted
Ġbomb ard
Ġkn ocking
Ġentail ed
Ġdepri ving
bre aking
Ġmit igating
Ġchief s
Ġliber ated
Ġlands capes
Ġdan es
Ġmurd erer
cap acity
Ġdiver gences
Ġresort ing
Ġplural ity
Ġfasc ist
Ġtic king
Ġreward ing
Ġtail or
Ġmarginal ized
Ġassert ive
Ġassert ions
Ġclin ics
Ġmaster y
Ġcarri age
Ġbath room
Ġheight ened
Ġnomin ate
Ġchile an
Ġtor res
ĠÃ ¥
Ġadvent ures
Ġadh ering
Ġsli pped
Ġembarrass ment
Ġextract ive
Ġinterconnect ions
Ġmart ens
Ġalien ated
Ġlap tops
belie ve
Ġemail s
Ġtank er
Ġpatri arch
Ġrecur rence
Ġaver ted
Ġresid ues
Ġdefici ency
cor rect
Ġbasel ine
Ġ193 3
Ġbudd h
Ġkilomet re
Ġschol ar
Ġbless ed
Ġeru ption
Ġcanc un
Ġuncond itionally
aks in
Ġdrag on
Ġneu rolo
Ġunc overed
Ġaller gies
pat ients
Ġaven ue
Ġaven ues
Ġdrow ning
Ġ192 9
Ġay atol
prov iding
business es
Ġbhut an
disc ussions
Ġsed u
Ġworksh ops
hon ourable
Ġpon der
Ġtow ers
Ġvoy age
Ġappend ix
Ġtomato es
Ġbah rain
Ġrou ge
Ġsiber ia
onge vity
Ġapproxim ation
Ġoutsour cing
Ġsegreg ation
Ġkall as
Ġempir ical
Ġchal k
ÄŁ an
Ġthwar ted
Ġplum met
Ġcommuniqu Ã©
Ġethn ically
Ġmcn ally
dial ogue
Ġsubcommit tee
Ġcongression al
Ġpersever ance
Ġvang uard
Ġrasmus sen
ĠschÃ¶r ling
Ġayatol lah
7 0
9 0
9 5
c ill
c ry
d ers
e le
f am
g ling
h um
k k
p loy
s sel
t u
t oc
v io
v Ã©
z abeth
Ġt ips
Ġth ai
Ġa ig
Ġa ided
re ction
Ġs ain
Ġs Ã¶der
er ations
Ġo min
Ġo mn
Ġb ach
or us
or ms
Ġm ous
Ġf iji
Ġin ali
Ġh umb
Ġd aring
ic an
th ood
Ġis a
il and
il der
Ġi bra
Ġl ongevity
Ġu m
id y
Ġcom ic
Ġst en
Ġst all
Ġst ern
Ġha it
Ġal ten
Ġal ga
ra c
ra pid
ri r
ri min
ch witz
Ġne ander
Ġun check
Ġun conscious
op ulation
op athic
Ġex or
Ġex otic
ant ing
Ġv iv
Ġle ather
et t
Ġr ash
Ġcan al
Ġimp aired
Ġj aze
Ġor anges
Ġint imate
our ished
ac on
Ġrep udi
Ġrep licate
Ġrep rocess
Ġpe at
Ġfa cial
one l
Ġdis respect
Ġdis pel
Ġdis quiet
Ġout stri
Ġri p
Ġri ft
du ct
Ġcomp art
te ach
Ġcons olation
Ġev ils
Ġra cing
Ġra ys
Ġra iny
Ġtra ced
Ġper f
Ġcl ay
Ġho ol
lect ed
Ġmat ri
Ġgroup ing
Ġhigh lands
Ġnu isance
low er
read ing
Ġdef ective
Ġend lessly
Ġsol bes
Ġrequ isite
Ġma id
Ġcol lar
Ġcol ored
Ġcar p
Ġsc aling
ici ently
Ġaff ront
Ġcommon place
Ġplace ment
isl am
Ġfra ught
Ġfra mes
Ġsch um
Ġem ble
Ġem itted
Ġshe ikh
Ġins ens
Ġthank fully
Ġwhe els
do ÄŁan
Ġpract icing
Ġcare less
Ġstruct urally
Ġsw ine
Ġger hard
Ġret ina
Ġclose t
Ġmor ph
Ġvis ibly
Ġmilit ants
af ield
Ġtrad em
equ ality
Ġer ode
Ġer dogan
Ġamerican ism
Ġhear ted
Ġlight ning
Ġbi oc
Ġbi osphere
Ġbel li
Ġhun ters
bo b
Ġimpos sibility
Ġdebt ors
Ġcand y
Ġcand le
Ġnorth west
Ġflo at
jo int
Ġexam s
Ġflex ibly
Ġcal ib
Ġcal ories
Ġmer ge
Ġcop ing
Ġquot ing
Ġmal es
Ġpoll ute
Ġbul lets
not es
not withstanding
Ġwarm th
know ing
Ġinvestig ative
Ġdeleg ate
Ġhy steria
rest rial
Ġauthor ization
Ġship ments
Ġhar ry
Ġcontract ed
Ġ14 9
Ġcra cks
Ġoccup ations
Ġdon ald
ij k
Ġdream ing
Ġcomplic ity
Ġintention ed
respon sibility
Ġexec ute
Ġintellig ently
Ġtro op
Ġforg iven
Ġinspect or
Ġisol ating
Ġrestruct ured
Ġconce aled
Ġenforce able
Ġcast e
Ġfat alities
Ġtransl ates
Ġfrank lin
Ġreiter ates
Ġreiter ating
Ġcamer oon
Ġdiscip lined
Ġmobil ization
Ġmotor way
Ġexpansion ary
Ġbol st
Ġalarm ed
Ġq e
Ġpil g
Ġfran Ã§ois
mon th
Ġstream line
Ġremed ied
Ġkar zai
Ġneglect ing
Ġaccomplish ments
Ġdefault s
Ġah tisaari
Ġtast ed
Ġcab otage
Ġsupre m
Ġsequ ences
opol itan
off s
Ġdisrupt ions
Ġshel ves
Ġgrasp ed
Ġsubstit utes
Ġtreas ure
Ġcalm ly
Ġcosm opolitan
Ġrede ploy
Ġinterrupt ion
Ġsli pp
democ ratic
Ġtrigg ering
Ġpand ora
Ġsatur ated
Ġgraph ics
Ġaffirm ative
Ġattribut able
Ġassass inated
Ġpoison ed
Ġintimid ated
invest ors
Ġhav oc
Ġnap olit
Ġskept ics
Ġresid ue
Ġbeha ves
Ġrect ified
Ġgrab bed
Ġderiv ative
Ġuncom petitive
Ġbrid ging
Ġanch ored
Ġencompass es
Ġhinder ing
fund ing
prom oting
Ġven ice
conf lic
Ġhaul iers
Ġsymmet rical
Ġembod ies
Ġkidn apping
Ġbric ks
Ġstun ned
Ġpeters berg
Ġportra it
Ġcarl os
Ġdent ist
Ġcharm ing
Ġangel illi
Ġvolcan o
Ġinsure d
Ġost ensibly
Ġintrins ically
Ġther mal
Ġcort ex
Ġdeport ation
Ġbhut to
Ġinfl ated
supp ose
Ġalph abet
199 9
Ġoligarch s
Ġross a
Ġeleg ant
Ġassimil ation
Ġparam ilitary
Ġabys s
Ġseiz ure
Ġvehement ly
Ġkilog rams
Ġgriev ances
Ġerrone ous
Ġmisfortun e
Ġbuch arest
Ġfod der
Ġplast ics
Ġlalumi Ã¨re
Ġinextric ably
Ġpiz za
Ġemper or
Ġdamasc us
Ġgale ote
Ġinali enable
Ġuncheck ed
Ġjaze era
Ġnapolit ano
3 00
a ires
b ri
c row
d ie
f ighting
g art
l ack
n ost
n ature
n inety
p m
p ow
p ace
r ice
t est
v s
w o
Ġt we
Ġt ipping
in ative
Ġw rest
Ġw aging
Ġs igh
Ġs ino
er d
Ġc t
Ġp es
an ct
Ġm p
Ġm Ã¼
Ġf id
Ġf ay
Ġf ist
al ay
Ġh ig
Ġd v
ar ist
ar ial
Ġn t
Ġn un
th ur
Ġre app
as tern
Ġbe lo
st art
Ġg low
Ġg ah
Ġl d
Ġl ure
Ġl ining
Ġwe u
Ġit er
Ġst air
Ġst oning
Ġy ards
ul ators
Ġne lson
Ġun acc
Ġun rep
Ġun war
Ġcomm enced
pp Ã¤nen
Ġsh ir
Ġse ppÃ¤nen
Ġpar ish
Ġch lor
Ġall ud
Ġr ation
Ġr ans
Ġr udi
Ġr yan
Ġso ap
us c
Ġj oking
Ġj ams
Ġhe ck
Ġab er
Ġab atto
Ġk not
Ġus age
con cil
ig ious
Ġad s
Ġmust er
Ġpe asant
ap t
Ġcomp iled
Ġact ress
Ġwork places
Ġman ag
Ġreport er
Ġyear ning
Ġsa ves
Ġar k
Ġmar row
lic ation
lic able
ach ed
Ġdec ency
Ġunder cut
Ġob ese
Ġind iv
Ġover arch
Ġlo vers
Ġleg o
Ġtrans ist
Ġstr ides
ful f
Ġprov oking
Ġlong standing
rat ives
Ġmon ks
Ġla z
Ġdef icient
Ġuse fully
Ġma es
Ġtur mes
itiz ation
Ġher oin
Ġcar ic
Ġsm et
Ġsm iles
Ġbr un
Ġpow der
Ġview ing
Ġbu enos
Ġsign alled
Ġcompet itor
Ġmed al
ten ing
Ġlif esty
isl av
Ġgr ind
Ġlegisl ating
Ġsch wab
Ġdep rez
ph y
Ġsur rend
Ġwish ful
Ġins iders
Ġthank ful
Ġvi kt
ros anct
Ġben evol
Ġel apsed
Ġpeace keepers
fort y
Ġactiv ate
Ġsumm ed
Ġcolle ges
fin ished
Ġair bus
Ġhome owners
Ġfight s
Ġz ed
Ġperiod ically
Ġche ated
Ġbur ton
Ġpal li
Ġgra ves
Ġopt ical
Ġindepend ents
az ir
Ġgener ational
Ġgener ator
Ġbra d
Ġpa asil
Ġ8 4
Ġver ified
Ġsuper st
Ġfig uring
Ġred irect
Ġred wood
Ġdi arr
Ġdisp ense
Ġhun ter
Ġrad ar
Ġrat s
Ġimag ining
Ġsecret ly
Ġrenew ing
cer ity
Ġislam ism
Ġcomput ation
Ġdeg en
Ġhistor ian
Ġdr illing
Ġtack les
Ġfue lled
Ġanti qu
pre par
Ġpenal ising
Ġdiplom as
Ġship ment
Ġship owners
Ġpath etic
oph er
Ġcompens ating
Ġord in
Ġsize able
Ġdon ated
Ġdy n
Ġresist ing
Ġsho ots
Ġfederal ists
Ġassemb lies
Ġcub ans
Ġaccident ally
Ġbelarus ian
Ġphenomen al
Ġinad vert
Ġcore per
Ġsell afield
Ġpsych o
Ġvig our
Ġmac artney
Ġnar ratives
Ġsac rosanct
Ġmark er
cons erv
Ġrecall ing
eff orts
Ġgold man
Ġvan ished
Ġadmit ting
Ġcollabor ating
Ġted talk
Ġreserv o
Ġfrank fur
comp are
Ġmobil ising
Ġcrow s
Ġpunish ments
ns ch
Ġdeploy ing
Ġmultip lied
Ġdub ai
Ġdetect or
Ġmold ovan
Ġmouth s
Ġanx ieties
appro x
jud ging
Ġindis put
Ġdiagn ose
Ġsand wich
Ġmanip ulating
Ġinvent or
Ġlag s
Ġhusband s
Ġrot ten
Ġnic kel
Ġredund ancy
Ġmarginal isation
Ġrush ing
rec ogn
state ment
Ġstupid ity
Ġutil ities
Ġutil ised
Ġparadox ically
sad dam
Ġmisle ad
Ġdiam etric
japan ese
Ġsin ister
Ġlev ies
Ġlev ied
Ġjar gon
Ġmush rooms
fif th
Ġacced ed
Ġharass ed
Ġaver sion
Ġnap les
Ã§ a
Ġescap ing
Ġhi ke
Ġpoem s
Ġassault s
Ġasymmet rical
Ġgro cer
Ġdiscred it
vention al
elect ions
Ġdeposit ors
Ġ140 8
Ġvirgin ia
Ġdegrad ed
Ġari as
Ġko z
Ġscream ing
Ġunden iably
Ġeman cip
Ġhandic ap
Ġastronom ical
Ġcock tail
Ġstig ma
Ġanomal ies
Ġcher ry
Ġbog ged
Ġreinst ate
Ġlee way
Ġesteem ed
Ġimpl ants
Ġmeg aw
Ġww ii
coun cil
Ġconsci ously
Ġafflic ted
Ġdismay ed
Ġrelent less
Ġ.. ..
Ġunderval ued
Ġburg lar
Ġconfig uration
Ġmetab ol
saf ety
struct ural
Ġlah ti
Ġpean uts
Ġimpract ical
ĠhÃ¤ nsch
Ġasth ma
Ġunra vel
Ġtah rir
Ġblas phem
Ġvenezuel an
Ġnai robi
Ġdiame ter
Ġhiros hima
Ġbolog na
Ġmier t
Ġmcguin ness
toc in
ĠsÃ¶der man
Ġibra him
Ġalten er
Ġalga e
Ġmanag erial
Ġoverarch ing
Ġlifesty les
Ġpaasil inna
1 00
4 4
c ross
c ats
d est
f ly
g am
h c
h ire
k atell
l od
n d
s ame
s ound
s uff
u pon
w all
Å Ĥ
Ġt res
Ġt ach
Ġw re
is o
Ġc ured
Ġo v
Ġo etting
Ġp und
Ġp ork
Ġb m
Ġb ore
Ġb ren
Ġm um
Ġf aint
ou ri
Ġin mates
al cul
Ġan ach
Ġh ates
Ġd ressing
ar us
le ans
Ġre or
Ġre cept
Ġre ceptive
om fort
Ġbe ver
Ġbe ast
Ġbe irut
il legal
Ġg ur
Ġl un
Ġwe gg
Ġwe ars
Ġha y
Ġcon n
ol s
Ġal varo
ul in
ay ann
ill ions
Ġme te
Ġun not
Ġun mist
Ġun fulf
ter rey
im medi
Ġsh ah
Ġsh aky
Ġse gments
and re
Ġpar cel
Ġpar don
qu ality
Ġgo ats
Ġch i
et ti
Ġr ud
Ġso cks
Ġcan yon
Ġwas tes
Ġj ensen
Ġor ally
Ġor leans
Ġres h
Ġthere after
Ġpol ledo
Ġk abil
Ġint angible
ig l
ll ari
um ines
Ġcount ies
ab el
Ġno x
Ġdis ney
Ġright e
Ġunion ists
te lla
ag os
wh ose
Ġcons cient
Ġhow ard
ine v
Ġspe ar
Ġany time
Ġsp ade
ric k
Ġinv itations
Ġcl ing
ath ed
Ġclear ance
Ġrem ot
Ġmat er
Ġstate less
Ġdisc ord
Ġdisc omfort
Ġmon terrey
Ġref ined
Ġma ij
Ġdes erving
Ġsi ren
Ġtur b
Ġcol onel
Ġher ring
olog ues
Ġinter mod
Ġinter regional
ail able
Ġbu zz
bal ance
Ġhim alay
Ġsuc c
Ġtechn icians
Ġlit igation
Ġprin ter
Ġsch Ã¼
Ġris king
Ġnor theast
Ġap es
Ġsur gical
Ġequ ations
Ġbl ak
she ll
Ġvi b
gg ish
gg age
Ġstar ve
Ġstar ved
Ġtechnolog ically
Ġsing led
Ġret ard
Ġreform ists
ib ia
Ġguarant or
Ġcentral isation
mad e
Ġbank er
Ġpal m
Ġpal p
Ġeur lings
ash a
Ġident ifiable
Ġlight weight
Ġge e
Ġamb ul
Ġcirc ulated
edi ence
Ġfinal ise
Ġve t
Ġve ld
Ġver b
cri pt
Ġmass ively
Ġsuper b
Ġcamp us
Ġbi ologist
Ġmodern ised
Ġmodern ize
soci ety
Ġill ogical
Ġsea water
Ġvo j
every where
Ġstri fe
Ġsal vation
ton y
Ġtemp oral
Ġsepar ates
Ġste ak
Ġcou ps
Ġblack list
Ġauthor itative
Ġ198 2
Ġdefence less
ex amp
Ġlu ggage
Ġlog ging
pol l
Ġfil ip
Ġ14 4
Ġton nage
Ġpakistan is
Ġtre ason
Ġnice ly
ene y
Ġfif a
put ting
Ġbon de
mos cow
Ġsubsidi aries
Ġadvoc acy
Ġcourage ously
Ġprotest ed
Ġcoast guard
Ġvari ables
Ġjournal ism
Ġhospital ity
Ġnar cot
Ġvill agers
Ġsight s
Ġtransl ator
Ġment or
Ġod ys
Ġfem ales
Ġsake llari
Ġdefe ating
aw a
Ġdub bed
mon etary
Ġphotograph ed
Ġupd ates
Ġyield ing
iti us
year s
Ġkeen ly
fall s
Ġdur ban
Ġvoc ation
Ġmanifest ly
Ġah ern
Ġjump ing
book s
Ġ194 8
osy n
Ġkh mer
port ugal
Ġbroadcast s
Ġenshr ine
Ġdismiss al
Ġpromin ence
Ġband s
Ġbreed s
Ġcath ed
Ġcath olics
Ġ195 7
Ġburdens ome
Ġpit tella
ell hardt
Ġmcc artin
Ġoxy tocin
Ġcambod ian
Ġsin cerity
Ġpap ayann
Ġinse parable
Ġethi opian
Ġspons ors
Ġstret ches
Ġinsult s
Ġfla x
anas ia
Ġpoison ing
Ġpoison ous
Ġaqu atic
Ġregain ed
Ġpremature ly
Ġhang s
Ġrival ries
Ġspin elli
Ġrecur rent
Ġferre ira
Ġprec urs
Ġreop ened
Ġnit rates
Ġunb und
Ġinfin itely
jour nal
Ġterrif ic
conf idence
Ġrender ing
Ġef sf
Ġteen ager
Ġindul gence
Ġelectron ically
Ġmaur itius
Ġadvers ity
Ġorthodox y
Ġhub ris
Ġimplicit ly
Ġfertil izer
Ġflav our
Ġmonu ments
Ġmonu mental
Ġritual s
Ġphysic ists
Ġredef ined
Ġerect ed
Ġadvertise ments
Ġspontane ously
Ġker ry
Ġseparat ist
brid led
Ġathe ist
Ġconting ency
Ġblunt ly
Ġeuroscept ics
Ġartic ulate
Ġincompet ent
Ġanno ying
mil k
Ġleak age
Ġwra pped
Ġlaps es
pract ice
Ġvic inity
Ġtramp led
aud ience
Ġreleg ated
Ġsup ern
Ġtub es
Ġanten na
Ġmetropol itan
Ġjelly fish
stant ial
Ġconfu cian
pric es
unci ation
Ġsaud is
Ġsd rs
Ġdiseng agement
ĠÎµ u
dol lar
Ġcess ation
Ġschn ellhardt
Ġcoloss al
Ġsuprem acy
Ġunwar ranted
Ġvikt or
Ġdiarr he
Ġdiametric ally
katell is
Ġtres pass
Ġoetting er
Ġanach ron
Ġwegg en
ĠschÃ¼ ssel
Ġnarcot ics
Ġsakellari ou
Ġpapayann akis
) (
0 5
1 3
a is
a ving
b low
b ling
c re
c ov
c ling
c reating
d ain
d ist
e ge
f inding
f lex
g ender
h m
h uge
h app
h enko
k osov
m ind
n ard
n umerous
o bo
o bs
p ra
p ack
s b
s arkozy
t ts
t ok
t ances
u ant
u Ã©
y r
y ang
z h
Ï Ħ
Ġt u
Ġt il
Ġt se
Ġt ud
Ġt ang
Ġth aksin
Ġa ar
in ke
re la
at ter
at tering
at temp
Ġc is
Ġc ress
Ġc ep
Ġc cs
Ġo ust
it ism
Ġp icks
Ġf ighter
Ġan emic
Ġd uck
Ġd azz
ar ab
ent e
Ġre ver
Ġbe gging
st e
Ġg lu
Ġg ns
Ġpro pe
Ġpro li
Ġpro state
Ġha ke
Ġal umin
ra h
ra ble
ch o
Ġeu th
Ġne arer
Ġme ga
Ġun welcome
Ġun finished
Ġun bridled
Ġsu pers
Ġsh alit
Ġse ves
Ġse ism
and estine
Ġv ase
Ġv idal
ich ester
we alth
Ġle aked
Ġgo ose
Ġch au
Ġch unk
Ġch ichester
Ġpres erves
Ġr ut
Ġr ous
Ġcan e
us ually
Ġj ou
Ġj eg
Ġhe ap
Ġab ortions
Ġab raham
end ijk
Ġcommission s
Ġk i
Ġk r
Ġk lam
Ġk ovÃ¡
out i
ac a
all o
Ġrep ressed
Ġpe ar
Ġac res
Ġac oust
ab y
si zed
Ġpl ague
Ġdis sip
Ġdis dain
Ġcomp act
Ġstates man
Ġexp ulsions
Ġsa vers
are z
Ġte leg
Ġpo ppy
Ġar c
Ġpolic emen
ach use
he w
he y
Ġra j
Ġra ined
Ġra mos
Ġdec k
Ġunder foot
Ġtra gically
Ġtra katellis
Ġsp er
Ġsp am
Ġob e
ind ones
Ġbo ots
Ġbo iling
Ġover see
Ġover capacity
Ġro gue
Ġcl andestine
Ġcommit s
Ġeven ly
Ġmon str
Ġcountry men
Ġmay nard
Ġma pped
Ġent ang
Ġ19 00
Ġass erts
Ġprotect or
Ġcar ol
Ġcar ved
Ġcar tel
Ġsm iled
Ġinter tw
Ġview ers
Ġwar heads
Ġener g
Ġinstit uted
ten stein
Ġca v
Ġameric as
Ġinf ancy
Ġmod us
Ġmod alities
Ġ20 25
Ġgr ids
Ġsch uman
Ġest onian
ph ones
Ġinde c
Ġread able
Ġposition ing
Ġfree ing
do ctors
eng er
let t
Ġdist orts
Ġmight y
Ġbro ch
Ġfac ult
Ġess ay
Ġviol ently
Ġhist ories
Ġprevent able
ger man
Ġz ion
Ġstat utes
erv ice
Ġty mos
Ġid ly
Ġer doÄŁan
Ġgra des
Ġconsequ ent
Ġcirc us
Ġmult im
Ġdeep ened
Ġmass achuse
Ġsubsid ising
Ġdol l
Ġfl ush
Ġgl ue
Ġclass rooms
Ġwaste ful
Ġeth os
Ġcomplex ities
ha pe
Ġconduct or
Ġdr c
sh ame
Ġmig rate
Ġcell phone
Ġbuy er
Ġ18 5
Ġsun k
ann i
Ġsex y
Ġstra ined
Ġbush ill
Ġarr anging
Ġfil ters
Ġcooper atives
Ġconserv atism
Ġpra yer
Ġcommercial isation
anim al
Ġcomplain ant
Ġtun ing
Ġcro cod
Ġchem otherapy
Ġtransform ations
Ġintention ally
Ġder ail
Ġhom o
Ġhom age
Ġautom ated
Ġattract s
Ġsoft ly
Ġadapt ations
Ġut opia
Ġquant ified
bor g
Ġ197 7
Ġarch ives
Ġcoast line
Ġpleas ing
osp ace
Ġradical isation
Ġremo ves
Ġcast s
Ġdark er
Ġgaz e
200 7
pro ble
Ġstabil ized
Ġsearch ed
Ġswe ater
Ġbed s
Ġspect er
Ġdism al
Ġrational ity
Ġmountain ous
Ġsusp ending
Ġod a
Ġblind ed
Ġvacc inated
Ġperpet uate
Ġemotion ally
Ġfault y
Ġmaced onian
Ġshi pped
Ġkar am
Ġrhetor ical
Ġenlar ging
Ġecho es
Ġecho ed
Ġbow e
Ġconven iently
Ġinvent ing
Ġinvent ors
Ġorient ated
Ġlag endijk
Ġcomfort ing
Ġprescri ptions
Ġ194 7
Ġreloc ate
Ġcab rol
Ġcatal an
Ġattain able
Ġadequ acy
Ġjer k
Ġmathemat icians
Ġprosecut ing
Ġinstruct ive
Ġcoinc ides
Ġreme mbers
Ġtribun als
urg ent
Ġmel ted
Ġremit tances
tal ks
Ġscan ning
Ġinsult ing
Ġmagaz ines
trans port
writ ing
Ġcofin anced
global isation
Ġlobby ists
Ġcomparative ly
Ġaer ospace
Ġpriorit ised
Ġempow ering
high er
Ġterrif ied
Ġhurric anes
Ġef d
Ġsanction ed
simp lif
Ġcontempl ating
Ġobstruct ed
Ġaus chwitz
Ġinadequ acies
Ġanonym ity
const itutional
cop es
Ġselfish ness
Ġsty les
Ġslu ggish
Ġconqu ered
Ġlament able
Ġspo il
Ġcolumb us
nar rator
Ġmiscon duct
Ġmast ered
Ġtechnoc rats
Ġscrutin ise
Ġaggress ively
Ġcous ins
scient ific
Ġpsychiat ric
Ġshout ing
Ġpunct ual
Ġgau ge
Ġnep ad
Ġinaug uration
Ġworksh op
Ġskelet on
bir ds
Ġeh ud
Ġorb Ã¡n
Ã¸ rg
Ġingen ious
Ġcalam ity
Ġarist otle
Ġaeropl anes
Ġoverhe ating
Ġblur red
Ġineffect ual
Ġnutri ents
Ġkib aki
Ġmoham med
Ġscapego at
thet ics
Ġkirk hope
Ġepidemi ological
Ġbret ton
Ġdissol ve
Ġarbitr arily
Ġbundes bank
purs uant
Ġmatthe ws
beh ind
Ġeli zabeth
Ġnotor iously
Ġunrep orted
Ġblasphem y
Ġtach ograph
Ġunnot iced
Ġunfulf illed
Ġkabil a
inev itably
kosov o
Ġgns s
Ġproli fer
Ġseves o
Ġklam t
ĠkovÃ¡ cs
Ġmonstr ous
Ġtymos henko
Ġmassachuse tts
Ã¸rg ensen
4 6
6 5
7 7
a qu
b in
b os
c d
f is
g un
h ung
j ah
l ords
n ine
n ets
o ys
o hr
o Äį
p ared
t im
t ens
z o
z hen
Ã ¦
â Ļ«
Ġ ion
Ġth under
Ġa eg
Ġa wards
Ġthe sis
at ur
at ical
Ġw ie
Ġs ow
Ġc it
Ġc ries
Ġo ven
Ġb p
Ġb light
Ġb lix
Ġm int
Ġm acc
Ġf red
Ġf ences
Ġf ateful
Ġf bi
Ġan ecd
Ġh ers
Ġh ats
Ġd as
Ġd iana
Ġd dt
ro it
Ġn an
Ġn af
Ġn umer
Ġre hear
as er
ve t
st rict
il a
Ġg ad
Ġg os
Ġg room
Ġi as
Ġl id
Ġl loy
Ġl anes
Ġl ords
Ġu l
se ts
ment ation
Ġst ing
Ġst aged
Ġpro be
Ġha iled
ri e
Ġnot icing
res ist
ay ev
ill o
gh i
ir respective
Ġun sp
Ġun paralle
Ġeuro c
op in
op us
Ġse l
li p
Ġv oid
un ks
est im
Ġle mon
Ġle aks
Ġch ase
Ġch uck
Ġch eney
âĢ ¢
Ġall ay
Ġso ils
Ġli king
Ġimp lements
Ġimp ediment
Ġj ol
Ġj ak
Ġj Ã¶
Ġj Ã¸rgensen
Ġhe ath
Ġhe els
Ġthere of
Ġk l
Ġk re
Ġpresid ing
Ġrep rog
ig ent
Ġad jac
Ġpe res
Ġfa res
Ġri fe
du ous
Ġinc alcul
Ġup stream
Ġprop he
ens uring
Ġar duous
Ġmar vell
ok o
pt ure
Ġbet ray
Ġjust ifications
ine e
Ġspe lled
Ġspe lls
Ġdem arc
Ġsp ills
Ġper nic
Ġind us
Ġbo oth
und oubtedly
Ġover seeing
Ġro the
Ġbas ing
Ġgen oa
Ġwell s
Ġmon ol
Ġnu anced
art a
Ġass erting
Ġcol ours
Ġher bal
Ġbr unt
Ġbu gs
Ġprocess ors
cip linary
Ġcompet encies
Ġdown right
Ġca f
Ġca usal
Ġmod ifying
Ġfra ga
be y
Ġprin ts
Ġdep ress
Ġdep icted
Ġdep orted
Ġap ol
Ġear ns
Ġta pping
Ġrest raints
Ġcor als
Ġvi i
Ġseem ing
Ġproject ion
Ġstep hen
Ġpract icable
Ġeas ter
Ġpur ple
Ġdist ressed
Ġcreat ors
Ġsw ings
Ġstart ling
Ġtri pol
Ġret ali
Ġsumm ers
Ġcolle g
Ġann ul
where ver
Ġcomb inations
Ġoper ative
Ġchar ities
Ġessential s
Ġz ip
Ġ10 5
Ġ6 50
Ġ201 8
Ġer ratic
Ġpot oÄį
Ġeast ward
Ġdraw backs
Ġbra ke
Ġpa ving
Ġpa uls
Ġjud icious
Ġinnov ators
Ġobs erves
Ġsk irt
orm ick
Ġprep ares
Ġec st
Ġlink age
Ġlink ohr
Ġbel ly
Ġclos es
Ġrepe aled
Ġaut ism
Ġteach ings
Ġclass ify
Ġ30 8
Ġlearn s
Ġcod ification
can ada
Ġfront al
aff ected
Ġdeg ener
Ġneighbour ly
Ġoccur rences
Ġmig uÃ©
Ġcommer cially
Ġcell ular
Ġmut ations
Ġchair ing
Ġsad c
Ġexplo sions
Ġauthor isations
Ġcover t
Ġrepl aces
Ġship w
Ġhar iri
Ġslo pe
Ġprovision ally
Ġpush es
Ġsep a
urd y
Ã¶ t
Ġwealth ier
Ġtun g
Ġtun ed
Ġfraud sters
Ã¡ r
Ġdon ate
Ġoct opus
Ġcard board
Ġwid est
Ġhom ogeneous
br ush
Ġbon temp
Ġfire works
ta iwan
Ġcondition ed
Ġhur ting
Ġcub e
Ġ197 2
Ġsqu ab
Ġfaith s
Ġproc lamation
Ġfort night
Ġmag ist
Ġmag ician
pro per
Ġos ama
Ġep a
Ġtrack ed
ba o
Ġcheap est
Ġsympath ise
Ġpred ator
Ġluck ily
Ġcoff ers
Ġintens ifying
Ġequival ence
Ġanaly zed
Ġvac ant
Ġtrip led
commun ist
Ġmicro bes
Ġaspir ing
Ġnarrow ly
Ġdisplay ing
Ġgun shot
Ġshut ting
sight ed
Ġacquis itions
Ġdiver ge
Ġresort ed
Ġrecy cle
Ġfrust rations
Ġchamp agne
Ġsn ake
Ġsn akes
Ġmanifest o
Ġconve ying
Ġrot ate
su per
Ġreloc ating
Ġsale h
Ġbold ly
Ġreaff irms
Ġaccommod ating
Ġseason s
Ġexacerb ates
Ġpromin ently
Ġmira cul
Ġcompli ant
col m
col lect
Ġpit iful
Ġhesit ated
Ġreaffirm ing
inter rupt
Ġjail ed
Ġbid ding
Ġster il
Ġinject ions
Ġrw andan
Ġtheore tically
Ġmart ÃŃ
Ġalien ation
Ġexhib it
Ġtag ged
Ġstalin ism
Ġluc id
Ġfol k
Ġinflic t
Ġdeval uations
Ġsant os
Ġanalog ous
Ġcrush ing
soon er
Ġprec lude
list en
Ġbee keepers
Ġhorrif ied
Ġhorrif ying
Ġhill ary
Ġcyn ically
Ġfib res
Ġastr onaut
Ġwolf owitz
exper ts
Ġclust ers
Ġcurtail ed
Ġinsurg ents
Ġcoach es
Ġinterl inked
Ġhumili ated
Ġportra yed
Ġstub b
Ġmonu ment
Ġski ing
Ġpengu in
Ġee a
Ġpenet rate
Ġspark ed
Ġreson ance
Ġquad ras
Ġalgor ithm
Ġeditor ial
ref erence
indust ry
Ġproph et
bers pace
Ġimprov ise
Ġschizophren ic
Ġcoerc ive
Ġmultif unctional
Ġconfisc ated
Ġadmis sibility
Ġalph a
Ġheral d
bir th
Ġmant ra
Ġrevel ations
Ġconsci ences
Äĥ u
Ġgla ciers
Ġxia obo
isse z
Ġculprit s
Ġbegg ar
Ġintrig uing
Ġmaat en
Ġdesc ended
Ġdisappro val
Ġtransc ends
Ġmim ic
consid ering
Ġtox ins
Ġump teenth
Ġcharism atic
Ġace h
Ġya wn
Ġuncomp rom
Ġgel at
Ġunsu itable
Ġplag ued
Ġprist ina
Ġaltru ism
Ġbuc ket
Ġlifes pan
Ġdistill ation
Ġpige on
ĠpÃ© rez
Ġheb rew
Ġoutra ged
Ġconsort ium
Ġtyph oon
approx imately
Ġpund its
Ġrighte ous
Ġsucc inct
examp les
Ġunbund ling
Ġdiarrhe a
tok yo
Ġcress on
Ġeuth anasia
Ġjeg gle
indones ia
Ġaeg is
Ġunparalle led
ĠjÃ¶ ns
Ġadjac ent
Ġincalcul able
ĠpotoÄį nik
ĠmiguÃ© lez
Ġbontemp i
3 8
9 2
a ves
b ler
c p
c ke
d av
d rug
f s
g ant
h le
k ay
k os
k ers
m ic
m om
m ountable
n ice
o en
r ud
v ict
Å ĳ
Ġt ending
Ġa pport
in tegration
Ġw art
Ġw right
Ġw retched
Ġs r
Ġs no
en so
Ġc em
Ġo u
Ġp upp
Ġb av
Ġb amb
Ġb ounce
Ġm es
Ġm alf
Ġm ullah
Ġf ame
Ġf ade
ion age
al as
al ina
al ba
Ġan ew
Ġh ens
Ġd m
Ġd oses
ar ray
Ġe y
Ġand or
th ought
Ġre appe
Ġg ab
Ġg Ã¶
Ġg Ã¼
Ġwh ip
Ġwe ep
Ġcon not
ol umines
Ġal ibi
ke ting
Ġne ural
Ġme mb
Ġun do
Ġun ify
ad z
ad ic
ter dam
ge l
ant opoulou
ere y
Ġdo ve
un cture
ci ously
qu et
mb led
mb rance
Ġch ast
et tered
Ġpres umed
Ġr ationally
Ġso b
us z
od ies
Ġli ech
Ġj r
Ġj ill
Ġj aw
Ġab usive
Ġk ou
Ġint imately
out side
Ġam eli
Ġus able
Ġrep ar
mber g
Ġac cessions
Ġfa it
one lla
si xty
Ġtr illions
Ġdis array
em ission
now here
ag all
Ġsa xon
Ġnew est
me ier
Ġpos itives
Ġar row
Ġmar co
he ld
Ġra ces
Ġdec la
Ġspe culate
Ġunder lies
Ġunder development
Ġtra inees
Ġsp ouse
Ġway side
Ġrec laim
ace ted
Ġover turn
Ġover load
Ġover turned
Ġlo ver
Ġlo oms
Ġro d
Ġro ses
Ġro sy
ks w
Ġtwo fold
Ġhum our
Ġbas har
Ġbas hir
Ġlong ing
Ġho od
Ġconf ers
cept ions
Ġdisc lose
lud ge
ass uming
Ġla und
Ġla wn
Ġquestion er
ile aks
art oum
Ġdevelopment al
Ġhapp iest
Ġcar rots
Ġbu cks
wor n
other mal
ina i
Ġdown stream
Ġbus k
Ġprin cess
Ġregion ally
Ġcond one
Ġval ent
Ġimm ort
par ad
Ġmil o
Ġtax ing
ys ical
Ġdist raction
Ġpop s
Ġpop ulous
Ġsing h
Ġsw ap
Ġtri ang
pri or
Ġbar red
Ġair ways
Ġvis ually
Ġpass ages
Ġgre ening
Ġpen ns
Ġyoung sters
Ġadminist rators
Ġty res
Ġcapital ists
Ġdesign ations
az i
Ġgener ously
Ġhear s
Ġwa h
Ġharm ed
Ġge othermal
Ġpric ed
Ġfocus sed
ims y
Ġant on
Ġant ib
Ġbook store
omet own
Ġec ol
Ġsubsid ize
Ġdev otion
Ġdev otes
Ġport o
Ġred es
Ġsort ing
Ġbi ologically
Ġbi olumines
Ġbri bery
Ġassoci ates
Ġemb ro
Ġstory telling
Ġconsult ants
ior i
Ġdim it
Ġcandid ature
Ġimag inary
Ġimag inative
Ġworth less
Ġsal ad
Ġislam abad
Ġdece it
Ġcop ied
Ġmand ated
Ġmal awi
Ġpain fully
Ġbul lying
Ġbul garians
pre viously
pre vent
pre vention
Ġkosov ars
Ġperfect ion
Ġ18 00
Ã© r
Ġcomment ary
Ġfoot age
Ġfoot wear
Ġsil vio
Ġstra uss
Ġphys icians
Ġcr ank
Ġcombat ants
Ġunf ettered
ij s
Ġrob les
Ġbom bed
Ġwo es
Ġheads car
Ġrid ge
Ġren ovation
Ġang uish
Ġinev it
Ġpul se
Ġfat ty
pro of
Ġsearch es
Ġproud ly
Ġombuds men
Ġrational ise
Ġcollabor ators
Ġmos cov
Ġpersu asive
Ġarm strong
Ġsympath ies
tr ust
Ġendeav or
thes ia
gu arant
Ġsim on
Ġconfront ations
Ġdetect ing
Ġphotograph y
Ġcas ini
Ġirre voc
Ġunpre pared
Ġwild ly
Ġkar ab
Ġmodest y
Ġanticip ating
Ġsand s
Ã¤ r
Ã¤ ki
Ġmanifest ed
Ġrot terdam
Ġnord en
Ġkh artoum
Ġsubs erv
Ġirrespon sibility
Ġlabel ed
Ġtrick ed
Ġaccum ulating
Ġridic ule
Ġutil ise
person al
Ġtear ing
Ġsunday s
bul garia
Ġcosm ic
Ġreme mbrance
Ġmyth ology
Ġdestabil ising
Ġmcc artney
Ġsomal i
Ġble eding
Ġfold ed
Ġrelax ing
Ġneighborhood s
Ġfro st
Ġstret ching
Ġaffirm ation
Ġharvest ing
Ġtill ich
Ġpump ing
Ġpin point
Ġpool ing
Ġallev iating
Ġbloc s
Ġexagger ate
Ġsighted ness
Ġkiss ed
Ġemph atic
list ening
cor ruption
polit ics
Ġreimb ursed
Ġef sa
ĠrÃ¼ hle
Ġdecoup led
Ġcurtail ing
Ġlaure ates
Ġcircu its
Ġaller gic
Ġteles copes
Ġkla ÃŁ
specif ic
Ġmild ly
Ġeman ating
Ġstrand s
Ġesp ionage
Ġpolite ly
Ġastronom y
Ġpenet ration
Ġinsure rs
Ġbutt ons
Ġswallow ed
Ġmiscon ception
Ġpredic ament
Ġgif ted
Ġther m
imm igration
Ġconting ent
ji ang
Ġartic ulated
Ġpsychiat ry
bring ing
Ġfu ji
Ġchromos omes
Ġww w
Ġmultif aceted
Ġalas ka
Ġdisconnect ed
Ġbron ze
Ġtheor ists
Ġdisgust ing
sit uation
coordin ated
Ġwarri or
Ġcron ies
Ġcoven ant
Ġvalen cia
Ġretal iation
Ġjewel ry
Ġguerr illas
adop ting
achie ving
Ġbil bao
Ġnostal gia
Ġunve iled
oise ach
Ġhamb urg
Ġsubmar ine
Ġcance led
independ ent
Ġundis put
Ġredefin ing
Ġabnorm al
traff icking
Ġmathematic ian
blo od
Ġdisbur sement
Ġartif acts
Ġencyclop edia
Ġreprocess ing
Ġindiv isible
Ġzed ong
Ġinadvert ently
Ġfrankfur t
Ġbm w
Ġreor ient
Ġambul ance
attemp ts
Ġintertw ined
fis cal
Ġnaf o
ĠmartÃŃ nez
dav id
oen ix
Ġwart ime
enso hn
Ġliech tenstein
Ġpenns ylvania
Ġmoscov ici
8 9
b able
b eration
b ird
c f
c ost
c ases
f oc
f ishing
g rown
g reen
i ment
i ks
i ors
k man
l as
l os
m ond
m ah
m onella
o let
r h
r ue
r ank
s ignificant
t ms
t welve
u ates
u ary
w ent
z k
Ä Ĺ
Ġ Ã©
Ġt es
Ġt ires
Ġa we
Ġa erial
in ternal
Ġw ig
Ġw ires
en stedt
Ġc ages
Ġo y
Ġo un
it ates
Ġp Ã¶t
Ġb ish
Ġb red
Ġb jer
or no
Ġm ri
Ġto e
Ġf Ã¼
Ġf oul
Ġf lick
Ġin active
Ġh os
Ġh inges
Ġh ikes
Ġd ou
Ġd ru
Ġd ash
ar ium
ar gu
ro ck
Ġand rew
le m
Ġre ne
Ġre ins
Ġre aring
as ingly
Ġbe f
Ġbe acon
st ates
il ated
il ton
Ġg em
Ġg uts
Ġg omes
Ġi q
Ġl ur
Ġl ance
Ġl ined
Ġl ends
Ġl Ã¤n
se us
se ven
ur ning
Ġcom ics
Ġst am
Ġst ren
Ġha unted
Ġy ass
ul atory
gh etti
Ġne oc
Ġun ison
Ġun seen
Ġun interrupt
Ġsu e
Ġsu g
Ġeuro group
ad el
pp enstedt
Ġse ren
os ph
os ki
li ble
Ġpar an
Ġpar ap
Ġv enge
Ġv owed
Ġat lant
Ġle opard
so ld
Ġwor ms
Ġch ave
et e
et al
ist a
am mar
Ġso y
Ġcan opy
Ġres ale
Ġthere in
end um
Ġk iv
Ġint ake
Ġam use
Ġad ri
ue ire
ans k
Ġpe aked
ab s
Ġfa una
Ġ1 000
lo v
Ġdis b
Ġdis soci
em u
Ġri be
Ġri gged
Ġcomp iling
Ġinc ub
de b
Ġman ners
Ġimport er
Ġpre ts
ens ical
Ġar dent
Ġmar ines
ach es
ide ally
Ġsp ut
Ġsp inal
Ġdevelop ers
Ġinv ade
Ġinv asive
Ġbo lder
Ġter restrial
Ġlo fty
int osh
Ġsy l
Ġcl an
Ġcl amp
row ing
Ġstr angle
ween ey
mm ed
Ġdeb acle
Ġho ppenstedt
Ġpri zes
Ġdisc reet
Ġmon soon
Ġref ere
Ġref ute
Ġext ensions
Ġla issez
Ġdef enses
Ġreal ises
Ġsc rup
Ġwar ring
ribut ion
Ġlit re
Ġrespect fully
ather ine
Ġem as
Ġph oenix
Ġph osph
Ġrest ing
Ġrest ate
Ġcontro llers
Ġed it
Ġes a
Ġpract iced
Ġspecif ics
Ġsupp er
sw ana
Ġshort cut
Ġsuff rage
Ġaccount ants
Ġeng ulf
mpt on
Ġbor is
Ġprof lig
Ġmor als
Ġenc ry
ordin ary
Ġpass ively
Ġloc om
ck o
Ġchar coal
Ġmis ses
Ġbur ial
co res
Ġfarm land
Ġadopt ions
Ġgra Ã§a
Ġdoub ted
Ġrom ans
Ġune lected
Ġvict orious
just ice
some how
Ġten acity
Ġbroad est
Ġorigin ates
cri be
Ġfig ueire
Ġdev iate
Ġdecided ly
Ġfl ock
Ġmen ace
Ġcy berspace
Ġbi omed
Ġden ouncing
Ġfear ing
Ġgl oss
Ġvol ksw
Ġemb ody
Ġkill ers
inst on
Ġindustrial ization
Ġcircum s
Ġcollect ions
Ġsal monella
Ġrecon nect
Ġ11 2
Ġ11 9
Ġmer cil
Ġmer ging
Ġvir rank
Ġcampaign ed
Ġcounter ing
sh all
Ġmal colm
Ġperform ers
know ledge
Ġbrief ing
Ġsl ot
Ġcou ch
lin der
Ġult ras
Ġwind ing
Ġsurv ives
Ġprospect us
Ġcra p
Ġpra ising
Ġaccomp li
des ign
sy stem
Ġcontra ception
Ġdeliver ies
Ġuns pe
Ġtro jan
Ġgrand ma
Ġsymbol ism
Ġimplic ated
Ġquant ify
umer able
Ġinspect orate
rich ard
Ġenjoy able
Ġsurve yed
Ġpsych ologist
Ġpsych ologically
Ġczech s
Ġreb ound
Ġjudge ments
Ġprohib itive
ox ically
Ġpatent ability
Ġ196 2
Ġsharp en
Ġod ious
Ġblind ness
Ġinfring ing
asm uch
Ġpred atory
Ġsick ness
Ġinsuff iciently
gu y
Ġvac ancies
imp ortant
Ġic onic
bel arus
Ġshi ite
Ġabsor bing
Ġroll er
Ġfab ra
Ġconfron ts
Ġveget arian
Ġsn aps
Ġvoc al
Ġgrave ly
Ġskin ner
Ġfool s
Ġfortun es
Ġprescri ptive
Ġ194 9
Ġcook ies
Ġsuic idal
Ġwarrant ed
Ġhu h
Ġcrash ing
Ġjer sey
Ġaccommod ated
Ġutil ization
Ġinstruct ed
Ġoverlook s
Ġband w
sm oking
Ġpit falls
rats a
Ġdestabil ise
Ġpossess ed
Ġdiam and
Ġdiam antopoulou
Ġath lete
Ġjail s
Ġmyster ies
Ġtrigg ers
Ġdistinguish es
Ġinconsist ency
Ġscan ner
Ġdilemm as
Ġpeak s
Ġtempt ations
aust ria
Ġpuzz led
Ġencoun tering
Ġtag ging
Ġstalin ist
Ġyemen i
Ġlobb ies
Ġduplic ated
Ġcrack ed
Ġniger ians
Ġpatri otic
Ġunexpected ly
Ġaver aged
Ġbarbar ism
Ġcontrovers ies
Ġkiss inger
Ġgor ge
Ġimped ed
Ġimped ing
Ġoffset ting
Ġchampions hips
Ġdwell ers
Ġantibi otic
Ġnas cent
Ġkeys er
protect ing
Ġoverr ide
Ġsubordin ation
Ġdiscoura ges
Ġfru ition
Ġgol an
elect ric
Ġindefin ite
Ġrend ition
Ġload s
afric an
Ġinadequ ately
Ġauction ing
Ġspa ghetti
Ġmd g
Ġwhis ky
Ġhandic apped
Ġlan cker
Ġmarx ist
Ġadvertise ment
Ġeuph em
Ġouter most
Ġrescu ing
Ġathe ists
Ġeuroscept ic
Ġneat ly
Ġchanne lling
Ġperse vere
sur prisingly
Ġgros ch
Ġanno yed
Ġsham eless
Ġantagon ism
Ġpronounce ments
Ġtat too
reach ing
Ġcree ping
Ġamid st
Ġhelm ut
Ġcoward ly
Ġkel ly
Ġtitan ic
Ġandre as
Ġunin hab
Ġxia oping
Ġcater ing
Ġunimp ortant
Ġpac kets
Ġnam ibia
Ġfalcon er
miss ive
Ġnucle us
Ġrainforest s
Ġinterlocut ors
Ġwand ering
Ġwithhold ing
Ġambival ence
Ġunhe ard
Ġvall Ã©s
Ġhalluc inations
palestin ian
Ġovershadow ed
Ġskil ful
gir l
Ġib m
Ġcanv as
Ġneuros cience
Ġpip es
Ġbip olar
bud get
Ġincoh erent
Ġprotagon ists
prop os
orig in
Ġparach ute
Ġva unted
Ġmedioc re
Ġscaffold ing
Ġyuk os
Ġney ra
Ġabhor rent
Ġspani ards
lab our
Ġbib lical
Ġomn ip
ĠmÃ¼ ller
Ġrans om
Ġabatto irs
Ġsurrend ered
Ġpalli ative
Ġantiqu ated
Ġgrocer y
Ġemancip ation
Ġbren ner
Ġmete or
immedi ately
igl ione
Ġcathed ral
Ġaar hus
Ġjou yet
Ġmacc ormick
Ġtripol i
Ġuncomprom ising
Ġdecla res
parad oxically
Ġkarab akh
Ġundisput ed
ĠpÃ¶t tering
ĠfÃ¼ le
Ġuninterrupt ed
Ġchave z
Ġribe iro
Ġfigueire do
Ġvirrank oski
a j
c ents
d b
d d
f il
f ound
f ler
j u
k j
k Ã¡
k illed
l ag
l abor
m ut
n om
n ig
o os
p ot
p age
v od
v ine
v ably
w arm
Ã ²
Ġt ect
Ġt ying
Ġt iles
in ants
re forms
at ma
Ġw iz
Ġw are
Ġw ink
is i
Ġs inai
en i
en ough
Ġc us
Ġc lic
Ġo z
it ist
Ġp est
Ġp urity
Ġp iss
an al
Ġb out
Ġb Ã©
Ġb aked
Ġb ilaterally
Ġm ould
Ġm alth
Ġm be
Ġf ans
Ġf use
Ġf uck
Ġf da
Ġf Ã¤r
Ġan ast
Ġan war
ed o
Ġh iz
Ġh ometown
Ġd iz
Ġd ag
Ġd anced
Ġd itch
Ġd Ã¶r
ro ve
ic ine
Ġe mm
Ġe yed
Ġand alus
th and
Ġbe ts
Ġbe fall
Ġg cc
Ġwh ipped
Ġfor k
Ġfor ger
id ious
ur ge
Ġha il
Ġy ale
Ġde er
Ġde an
ch t
ch ief
Ġne il
Ġun born
Ġsu ed
ter min
Ġsh ep
Ġse y
li a
li able
Ġv and
un ivers
ain ed
est ag
ich er
Ġle ase
Ġwor ris
Ġch an
Ġj ia
end a
Ġk ins
Ġk ratsa
Ġus ur
Ġrep ris
um ns
Ġmust ard
ans as
Ġac re
oc ity
oc ated
ish es
vel ength
Ġpl oo
Ġpl umber
Ġdis per
Ġout p
Ġout cry
ap ol
Ġri is
for get
Ġcomp ute
Ġinc l
Ġtim ed
Ġup right
de ath
Ġimport ation
Ġco zy
tern ess
ens son
Ġmar c
lic es
ok s
Ġbet ting
Ġdec reed
Ġunder lie
Ġper ple
Ġdiff ered
Ġdiff usion
Ġbo og
Ġbo eing
Ġover bur
Ġover time
Ġlo oting
Ġoff ense
Ġcl ut
act iv
ath ir
mm ing
Ġacc laim
Ġho over
Ġhuman ist
Ġref oc
Ġref rained
Ġext rater
min ster
Ġcur bing
Ġdef use
Ġsol o
Ġreal izes
Ġatt or
Ġass y
Ġass uring
Ġher ds
Ġsc attered
Ġpow ell
Ġinter cept
Ġinter section
Ġhope lessness
Ġprocess or
Ġach illes
Ġglo om
Ġmed iate
Ġform ations
Ġdown fall
Ġpresent ations
Ġca us
Ġfore ns
Ġlit mus
Ġpower fully
Ġplay ground
Ġhand outs
Ġprincip led
Ġest rela
ater ial
Ġem it
Ġem ir
Ġem ulate
Ġchild ish
Ġcor related
Ġcor bey
Ġins ider
Ġless en
Ġcomple ments
Ġjob less
Ġben z
Ġlegal ization
Ġrese t
Ġel itist
Ġfavour ite
Ġsubject ive
Ġshort en
Ġtri f
Ġim itate
Ġhard working
Ġger ms
Ġpat ro
ib a
Ġmor gant
Ġvis itor
Ġann oy
ime ters
Ġspecific ity
Ġchar itable
Ġwater ing
Ġwater tight
Ġz en
Ġche e
Ġpen ny
ber ries
Ġty rant
Ġshare holder
Ġer ase
Ġer tms
Ġgra pe
Ġgra ham
Ġwa x
Ġwa velength
Ġbook sh
Ġsk ip
Ġdest inations
Ġsix teenth
Ġconnect ivity
Ġmess enger
Ġcamp ania
Ġfl ora
Ġfl imsy
Ġcy linder
vere st
Ġcross ings
sp ending
Ġsound ness
Ġbit terness
ev al
Ġsan ity
Ġpress ur
Ġclass ed
Ġens la
Ġ12 8
Ġslow s
Ġsal ient
dom estic
Ġnote worthy
Ġ11 1
Ġdece ased
Ġheart ily
Ġquot ation
Ġpurpose ful
Ġwatch es
Ġbul bs
Ġkosov ar
Ġste wart
iss l
iss ues
Ġign alina
Ġsad dened
Ġqual ifying
Ġbod e
Ġsil enced
Ġround ly
Ġappear ances
ex port
ex plan
Ġbat tling
Ġlu ther
Ġsuperv ised
Ġ13 8
Ġheav ens
Ġintervention ist
Ġsimplif ies
Ġpact s
Ġaccomp lices
Ġnormal isation
Ġdetermin ant
Ġbot swana
Ġdon nel
Ġcontact ed
Ġtransform ative
Ġcard iac
Ġber th
Ġintention al
Ġcontra vention
Ġuns killed
bit ant
Ġut tered
pret ation
sk aya
Ġeye b
Ġsqu id
Ġshar per
Ġweight s
Ġball istic
Ġmac ao
Ġmexic ans
Ġswe ar
Ġcontrast s
Ġtough est
Ġsexual ity
Ġmath ieu
Ġvan ity
amb ia
Ġwat ts
sub sequently
Ġsymp h
Ġspl its
Ġexceed ingly
Ġmobil izing
Ġmort al
Ġideal istic
Ġmultip licity
Ġsim ulate
Ġapprox imate
Ġcapt ive
Ġkn it
Ġpersist ently
Ġquarter ly
Ġdecre ases
Ġannounce ments
Ġfost ers
Ġinterpre ter
Ġcommand ers
bb led
Ġunp roductive
Ġdiss ervice
Ġnarrow er
Ġmit ter
Ġpharm ac
Ġlands l
Ġgh ent
Ġdistingu ishing
Ġnovel ty
Ġprivat ised
Ġorient ations
Ġkh at
Ġhall mark
Ġreloc ated
Ġfur thest
tra ck
Ġsequ encing
Ġcere mon
Ġreluct antly
Ġreun ited
Ġpraise worthy
Ġescal ate
Ġbond holders
Ġstric ken
Ġrum or
Ġweigh s
Ġbench marking
hard ly
Ġpand em
Ġbiotechn ological
Ġmu ham
Ġrap kay
Ġinject ed
cot t
Ġmah athir
Ġmart ial
Ġrigid ity
Ġpump s
Ġdil ute
Ġpuzz ling
Ġdesk top
Ġsummar ised
Ġacadem ia
Ġmichel in
Ġmont erey
Ġdeput ies
Ġcompris ed
Ġdeval ue
Ġextrad ite
lers undi
Ġmarry ing
Ġmedi ators
Ġshed ding
Ġreck on
kov skaya
Ãº l
thal ates
Ġrab in
Ġvibr ating
Ġasymmet ry
Ġwil son
Ġmol uc
Ġven us
Ġsemin al
protect ed
Ġhaw ks
Ġoverr un
Ġneglig ent
research ers
Ġamp ly
Ġscra pped
ser ious
Ġcycl one
Ġuncontro llable
Ġbrush ed
Ġunc over
Ġbund estag
const ruction
Ġrank ed
Ġcurric ula
Ġunders cores
Ġfee ble
Ġhandic aps
bat i
Ġwik ileaks
Ġsemit ic
Ġbasket ball
agric ultural
Ġrecru iting
hor st
Ġfemin ist
Ġenerget ically
Ġram ifications
Ġcun ning
Ġmerch and
Ġimpul ses
Ġtran qu
uit ous
liberal isation
mass ive
Ġincar n
Ġsubur bs
Ġculmin ated
Ġbron x
coun ter
Ġseam en
Ġjon athan
Ġoutlaw ed
Ġchron ically
Ġexpedi ent
Ġbegg ars
Ġexter mination
Ġeloqu ently
Ġheter ogeneous
Ġdispers ed
Ġphilanthrop y
Ġmour ning
Ġunset tled
Ġprioritiz e
Ġfernand es
Ġvalle lersundi
Ġplank ton
Ġbrook lyn
Ġkac zy
Ġissu ance
Ġmetic ulous
Ġhydrocarbon s
Ġalber tini
Ġcasp ian
Ġapprent ices
Ġfores ight
Ġcrus ade
Ġhem icycle
Ġwoe fully
Ġexor bitant
Ġslipp ery
Ġld cs
Ġdegen erate
Ġbever ages
Ġpalp able
journal ists
Ġseism ic
Ġchau vin
proble ms
hung ary
Ġlloy d
Ġkre issl
Ġmarvell ous
Ġpernic ious
Ġshipw reck
Ġecol abel
Ġbjer reg
ĠlÃ¤n der
Ġvolksw agen
Ġmercil ess
Ġultras ound
nig eria
Ġmalth us
Ġmbe ki
ĠfÃ¤r m
ĠdÃ¶r fler
Ġshep her
Ġworris ome
Ġploo ij
Ġmorgant ini
Ġdonnel ly
0 1
3 9
5 5
b f
b od
b ilateral
c at
d c
d ata
e ment
e lection
f ut
g ren
h ang
i pe
j ane
j ell
k ids
m ont
m obil
n an
o pportun
p ros
r hus
s ign
t z
t otal
t atoeba
u its
v ist
v ailing
w ool
w ars
y ch
y la
z i
z ler
z ona
Ġ Ã¡l
Ġt ul
Ġt us
Ġt ind
Ġa verse
in as
in jiang
on en
at eness
Ġw rought
Ġw aking
Ġw icked
is ans
Ġs g
Ġs inn
Ġs worn
en et
Ġc el
Ġc uc
Ġc erc
Ġc nn
Ġo mit
it utions
Ġp or
Ġp ious
Ġp av
Ġp ix
Ġp iling
Ġp kk
Ġb ending
Ġm are
Ġto wel
Ġf as
ou ros
Ġin und
Ġin activity
Ġin asmuch
al ism
Ġh id
Ġh ern
Ġh atch
Ġh ann
Ġh Ã¶
ro cious
Ġn y
Ġn ul
Ġn omen
as is
Ġbe w
Ġbe an
Ġbe am
Ġbe ard
st age
Ġg ians
ct ar
Ġl g
Ġu f
Ġon erous
ut a
ut re
ot on
ot ers
id i
ur ous
Ġst ap
Ġst ag
Ġst ack
Ġst even
ce ived
Ġal s
Ġde lude
ra ising
ri ous
ort ex
ul ing
Ġeu for
Ġne ves
Ġne ctar
Ġme c
Ġun v
Ġun work
Ġun lock
Ġun author
Ġun common
Ġun natural
Ġun protected
ge oning
op ed
Ġsh ack
and i
est an
Ġat rocious
Ġen velop
Ġle yla
ist ication
Ġag ro
Ġag ony
Ġj ub
Ġj int
Ġhe mp
Ġhe aled
Ġres iding
Ġres hape
Ġab m
Ġpol o
Ġpol ity
Ġk ol
Ġam ino
Ġam icable
Ġpresid e
Ġpresid ed
Ġrep airs
ig rants
Ġpe p
oc u
Ġneed lessly
Ġtr um
Ġpl as
Ġpl ato
ren ts
lo g
Ġdis k
Ġdis regarding
Ġout l
Ġcomp ile
ag ar
Ġexp ans
Ġexp ire
Ġco er
Ġco ke
Ġcons erving
Ġte ens
Ġnew cast
Ġpos ses
Ġar thur
el se
og g
Ġsp oon
Ġper tains
ub on
Ġinv ading
Ġbo el
Ġover head
Ġover loaded
Ġover crow
Ġlo be
Ġro ws
Ġoff end
Ġcl inging
Ġprog ression
Ġgreat ness
Ġmo h
Ġmo ist
Ġacc rue
Ġbas s
ris k
Ġgen omes
Ġhuman ities
Ġhuman ism
Ġdirect ory
Ġfinan ciers
Ġnu mbered
Ġadd ict
Ġdef iance
rough ly
Ġsol vent
Ġent rants
Ġ19 14
Ġtur in
Ġcol umns
Ġhel met
Ġher d
Ġcar ter
Ġsc ars
Ġsc iss
Ġenv ision
Ġdra ghi
Ġorder ing
Ġglo ves
Ġday light
Ġaff ili
Ġmaj esty
Ġinf ra
Ġinf ilt
Ġmod al
Ġafter ward
Ġfra ming
Ġgr inding
Ġlegisl ations
Ġsch wa
Ġelect ing
Ġcond om
Ġchild birth
Ġph thalates
Ġwel sh
Ġear ners
ov o
Ġta oiseach
Ġfr inge
Ġrest ed
Ġcor k
Ġcor nel
Ġequ ates
Ġcontro ller
com plete
Ġread er
Ġconv ol
av i
Ġpract ising
Ġel bow
Ġcare rs
Ġart isan
Ġple ading
Ġeng ages
Ġbar ometer
Ġpat ernal
Ġmor si
Ġmor ris
Ġindividual ity
Ġenvironmental ists
Ġleft ist
Ġbank notes
Ġmis represent
Ġmid lands
Ġche ek
Ġbur geoning
Ġanswer able
Ġcho ir
[...]
