{"<pad>":0,"<s>":1,"</s>":2,"<unk>":3,"<mask>":4,"!":5,"\"":6,"#":7,"$":8,"%":9,"&":10,"'":11,"(":12,")":13,"*":14,"+":15,",":16,"-":17,".":18,"/":19,"0":20,"1":21,"2":22,"3":23,"4":24,"5":25,"6":26,"7":27,"8":28,"9":29,":":30,";":31,"<":32,"=":33,">":34,"?":35,"@":36,"A":37,"B":38,"C":39,"D":40,"E":41,"F":42,"G":43,"H":44,"I":45,"J":46,"K":47,"L":48,"M":49,"N":50,"O":51,"P":52,"Q":53,"R":54,"S":55,"T":56,"U":57,"V":58,"W":59,"X":60,"Y":61,"Z":62,"[":63,"\\":64,"]":65,"^":66,"_":67,"`":68,"a":69,"b":70,"c":71,"d":72,"e":73,"f":74,"g":75,"h":76,"i":77,"j":78,"k":79,"l":80,"m":81,"n":82,"o":83,"p":84,"q":85,"r":86,"s":87,"t":88,"u":89,"v":90,"w":91,"x":92,"y":93,"z":94,"{":95,"|":96,"}":97,"~":98,"¡":99,"¢":100,"£":101,"¤":102,"¥":103,"¦":104,"§":105,"¨":106,"©":107,"ª":108,"«":109,"¬":110,"®":111,"¯":112,"°":113,"±":114,"²":115,"³":116,"´":117,"µ":118,"¶":119,"·":120,"¸":121,"¹":122,"º":123,"»":124,"¼":125,"½":126,"¾":127,"¿":128,"À":129,"Á":130,"Â":131,"Ã":132,"Ä":133,"Å":134,"Æ":135,"Ç":136,"È":137,"É":138,"Ê":139,"Ë":140,"Ì":141,"Í":142,"Î":143,"Ï":144,"Ð":145,"Ñ":146,"Ò":147,"Ó":148,"Ô":149,"Õ":150,"Ö":151,"×":152,"Ø":153,"Ù":154,"Ú":155,"Û":156,"Ü":157,"Ý":158,"Þ":159,"ß":160,"à":161,"á":162,"â":163,"ã":164,"ä":165,"å":166,"æ":167,"ç":168,"è":169,"é":170,"ê":171,"ë":172,"ì":173,"í":174,"î":175,"ï":176,"ð":177,"ñ":178,"ò":179,"ó":180,"ô":181,"õ":182,"ö":183,"÷":184,"ø":185,"ù":186,"ú":187,"û":188,"ü":189,"ý":190,"þ":191,"ÿ":192,"Ā":193,"ā":194,"Ă":195,"ă":196,"Ą":197,"ą":198,"Ć":199,"ć":200,"Ĉ":201,"ĉ":202,"Ċ":203,"ċ":204,"Č":205,"č":206,"Ď":207,"ď":208,"Đ":209,"đ":210,"Ē":211,"ē":212,"Ĕ":213,"ĕ":214,"Ė":215,"ė":216,"Ę":217,"ę":218,"Ě":219,"ě":220,"Ĝ":221,"ĝ":222,"Ğ":223,"ğ":224,"Ġ":225,"ġ":226,"Ģ":227,"ģ":228,"Ĥ":229,"ĥ":230,"Ħ":231,"ħ":232,"Ĩ":233,"ĩ":234,"Ī":235,"ī":236,"Ĭ":237,"ĭ":238,"Į":239,"į":240,"İ":241,"ı":242,"Ĳ":243,"ĳ":244,"Ĵ":245,"ĵ":246,"Ķ":247,"ķ":248,"ĸ":249,"Ĺ":250,"ĺ":251,"Ļ":252,"ļ":253,"Ľ":254,"ľ":255,"Ŀ":256,"ŀ":257,"Ł":258,"ł":259,"Ń":260,"Ġt":261,"Ġth":262,"Ġa":263,"in":264,"re":265,"Ġthe":266,"on":267,"at":268,"Ġw":269,"is":270,"Ġs":271,"er":272,"en":273,"Ġc":274,"Ġo":275,"it":276,"Ġp":277,"an":278,"Ġb":279,"or":280,"Ġm":281,"Ġto":282,"es":283,"Ġf":284,"ou":285,"Ġin":286,"ion":287,"Ġof":288,"al":289,"Ġan":290,"ed":291,"Ġh":292,"ing":293,"Ġd":294,"ar":295,"ro":296,"ic":297,"Ġe":298,"Ġand":299,"ent":300,"Ġn":301,"le":302,"th":303,"Ġre":304,"as":305,"Ġis":306,"ve":307,"om":308,"Ġbe":309,"Ġthat":310,"st":311,"ly":312,"il":313,"Ġg":314,"Ġi":315,"ct":316,"Ġl":317,"Ġu":318,"Ġwh":319,"Ġon":320,"ation":321,"ut":322,"Ġwe":323,"ot":324,"Ġfor":325,"se":326,"pe":327,"ment":328,"id":329,"Ġit":330,"ur":331,"ld":332,"Ġcom":333,"Ġst":334,"ver":335,"ce":336,"Ġpro":337,"Ġha":338,"ow":339,"Ġy":340,"Ġcon":341,"ol":342,"Ġal":343,"Ġde":344,"Ġthis":345,"ra":346,"ri":347,"Ġare":348,"ort":349,"Ġ-":350,"the":351,"ch":352,"Ġas":353,"ith":354,"ul":355,"Ġeu":356,"ke":357,"Ġnot":358,"res":359,"ay":360,"ill":361,"gh":362,"ould":363,"Ġhave":364,"Ġwith":365,"ir":366,"mp":367,"Ġyou":368,"Ġne":369,"Ġme":370,"Ġ'":371,"ate":372,"Ġun":373,"Ġsu":374,"Ġeuro":375,"oun":376,"ad":377,"ter":378,"Ġcomm":379,"im":380,"ge":381,"pp":382,"Ġeurope":383,"op":384,"ore":385,"Ġsh":386,"ble":387,"Ġse":388,"ity":389,"Ġex":390,"and":391,"ive":392,"ust":393,"sion":394,"os":395,"li":396,"Ġwill":397,"ant":398,"ere":399,"ers":400,"Ġpar":401,"Ġdo":402,"Ġv":403,"un":404,"ain":405,"ess":406,"ci":407,"est":408,"ich":409,"Ġhas":410,"qu":411,"we":412,"Ġat":413,"Ġen":414,"Ġby":415,"if":416,"ght":417,"Ġwhich":418,"Ġeuropean":419,"ies":420,"Ġle":421,"so":422,"mb":423,"Ġwor":424,"Ġgo":425,"Ġch":426,"Ġcoun":427,"et":428,"âĢ":429,"Ġpres":430,"ther":431,"ist":432,"Ġall":433,"Ġr":434,"am":435,"Ġso":436,"Ġag":437,"Ġcan":438,"us":439,"Ġwas":440,"ĠâĢ":441,"ally":442,"ure":443,"od":444,"rom":445,"Ġli":446,"Ġimp":447,"ome":448,"Ġj":449,"ission":450,"ect":451,"Ġhe":452,"Ġor":453,"Ġres":454,"Ġthere":455,"very":456,"Ġab":457,"end":458,"Ġwould":459,"Ġpol":460,"ions":461,"Ġcommission":462,"Ġk":463,"Ġint":464,"iv":465,"out":466,"our":467,"ac":468,"Ġfrom":469,"Ġam":470,"ard":471,"ak":472,"all":473,"Ġpresid":474,"Ġalso":475,"Ġour":476,"Ġus":477,"Ġbut":478,"Ġshould":479,"con":480,"Ġrep":481,"ig":482,"ff":483,"Ġpart":484,"ake":485,"ll":486,"um":487,"ud":488,"Ġad":489,"mber":490,"Ġthey":491,"Ġmust":492,"Ġbeen":493,"der":494,"ous":495,"Ġmore":496,"Ġpresident":497,"ates":498,"ue":499,"Ġcont":500,"Ġcount":501,"ans":502,"Ġlike":503,"Ġreg":504,"ations":505,"ree":506,"Ġpe":507,"Ġac":508,"oc":509,"ab":510,"reat":511,"ish":512,"ast":513,"ult":514,"Ġfa":515,"ament":516,"one":517,"Ġabout":518,"pport":519,"Ġwhat":520,"ical":521,"Ġno":522,"Ġqu":523,"Ġone":524,"ost":525,"this":526,"Ġtheir":527,"si":528,"Ġneed":529,"ary":530,"Ġtr":531,"vel":532,"able":533,"Ġpl":534,"ren":535,"Ġmr":536,"ire":537,"ments":538,"ong":539,"Ġ1":540,"lo":541,"ear":542,"Ġdis":543,"Ġout":544,"Ġmy":545,"ap":546,"Ġits":547,"Ġvery":548,"em":549,"ie":550,"Ġsome":551,"cial":552,"ance":553,"Ġri":554,"Ġwho":555,"au":556,"Ġ2":557,"for":558,"du":559,"Ġcomp":560,"Ġact":561,"Ġthese":562,"Ġfin":563,"Ġinc":564,"Ġbec":565,"ĠâĢĻ":566,"Ġwork":567,"Ġtim":568,"now":569,"cess":570,"ople":571,"liament":572,"Ġup":573,"de":574,"Ġthan":575,"00":576,"Ġman":577,"Ġright":578,"Ġunion":579,"Ġpeople":580,"rou":581,"Ġreport":582,"Ġparliament":583,"Ġyear":584,"Ġstates":585,"Ġprop":586,"iz":587,"Ġimport":588,"ry":589,"ence":590,"but":591,"te":592,"ag":593,"Ġexp":594,"ru":595,"Ġapp":596,"Ġco":597,"wh":598,"Ġsa":599,"conom":600,"Ġcons":601,"are":602,"tern":603,"fore":604,"ose":605,"Ġte":606,"ition":607,"ries":608,"ts":609,"Ġpre":610,"ice":611,"Ġeconom":612,"ause":613,"Ġnew":614,"ink":615,"ational":616,"ens":617,"Ġother":618,"Ġpo":619,"Ġtime":620,"Ġif":621,"me":622,"ces":623,"Ġpos":624,"Ġar":625,"ated":626,"el":627,"ia":628,"Ġmar":629,"Ġev":630,"Ġmember":631,"lic":632,"cy":633,"og":634,"ok":635,"age":636,"Ġpolic":637,"Ġthem":638,"Ġcountries":639,"pt":640,"ms":641,"Ġconc":642,"ach":643,"ack":644,"Ġnow":645,"Ġbet":646,"Ġjust":647,"ise":648,"Ġhow":649,"ign":650,"he":651,"Ġra":652,"ame":653,"Ġonly":654,"Ġknow":655,"ial":656,"ine":657,"Ġdec":658,"Ġspe":659,"ase":660,"ject":661,"Ġany":662,"cil":663,"Ġunder":664,"Ġtra":665,"Ġpropos":666,"ious":667,"pect":668,"Ġimportant":669,"Ġdem":670,"'t":671,"Ġcouncil":672,"ide":673,"ound":674,"Ġwere":675,"ted":676,"Ġsp":677,"Ġwant":678,"velop":679,"Ġeff":680,"ities":681,"ution":682,"ress":683,"Ġdevelop":684,"Ġsupport":685,"Ġbecause":686,"ced":687,"irst":688,"Ġagain":689,"thing":690,"iff":691,"Ġfe":692,"Ġthink":693,"Ġob":694,"Ġwhen":695,"Ġway":696,"eren":697,"ric":698,"ever":699,"Ġpolit":700,"Ġper":701,"Ġworld":702,"Ġrec":703,"Ġind":704,"ction":705,"ind":706,"mr":707,"ility":708,"ip":709,"Ġinto":710,"Ġmake":711,"Ġdiff":712,"ub":713,"Ġpolicy":714,"Ġsay":715,"Ġser":716,"lear":717,"ace":718,"Ġinv":719,"Ġyour":720,"Ġbo":721,"und":722,"Ġover":723,"Ġter":724,"form":725,"Ġop":726,"sel":727,"Ġmad":728,"Ġlo":729,"int":730,"vern":731,"Ġhad":732,"ings":733,"Ġiss":734,"Ġro":735,"ern":736,"Ġsee":737,"Ġproble":738,"tain":739,"Ġ--":740,"ved":741,"Ġagree":742,"ular":743,"Ġtake":744,"uch":745,"Ġsy":746,"ight":747,"Ġleg":748,"Ġoff":749,"Ġeconomic":750,"Ġcl":751,"Ġinst":752,"rit":753,"Ġpartic":754,"ving":755,"Ġgovern":756,"ks":757,"Ġvot":758,"Ġhis":759,"Ġcommit":760,"Ġtw":761,"Ġtrans":762,"igh":763,"Ġfirst":764,"ative":765,"row":766,"Ġintern":767,"Ġsuch":768,"there":769,"Ġmarke":770,"lie":771,"day":772,"that":773,"ention":774,"Ġmany":775,"Ġprog":776,"Ġyears":777,"ang":778,"Ġthose":779,"ures":780,"Ġcould":781,"act":782,"gy":783,"Ġaf":784,"Ġquest":785,"Ġhere":786,"sible":787,"Ġstr":788,"Ġdire":789,"ors":790,"ful":791,"Ġsub":792,"Ġproposal":793,"Ġgood":794,"Ġbelie":795,"ite":796,"Ġpolitical":797,"Ġevery":798,"Ġfact":799,"ath":800,"ween":801,"ting":802,"ian":803,"Ġfund":804,"Ġgreat":805,"Ġbetween":806,"Ġprodu":807,"ord":808,"ves":809,"pon":810,"Ġbeing":811,"ep":812,"Ġmade":813,"mm":814,"Ġtwo":815,"Ġhum":816,"Ġmo":817,"Ġacc":818,"Ġprov":819,"Ġbas":820,"Ġdeb":821,"ues":822,"ating":823,"xt":824,"Ġcommun":825,"Ġtak":826,"ris":827,"ory":828,"Ġgen":829,"Ġeven":830,"Ġrel":831,"Ġcour":832,"Ġmost":833,"Ġmuch":834,"Ġdoes":835,"Ġconcern":836,"ild":837,"Ġlong":838,"Ġget":839,"Ġ200":840,"Ġclear":841,"Ġtherefore":842,"stem":843,"arge":844,"Ġwhere":845,"Ġho":846,"ange":847,"Ġwell":848,"Ġhuman":849,"lect":850,"Ġconf":851,"Ġrem":852,"Ġparticular":853,"red":854,"cept":855,"ward":856,"Ġrespon":857,"roup":858,"Ġsystem":859,"Ġrights":860,"wn":861,"Ġmat":862,"Ġstate":863,"Ġgroup":864,"Ġdirect":865,"Ġpri":866,"Ġbelieve":867,"how":868,"ual":869,"Ġfinan":870,"Ġsocial":871,"ural":872,"ough":873,"Ġappro":874,"ublic":875,"rat":876,"ĠâĢĵ":877,"Ġjo":878,"Ġdisc":879,"Ġsaid":880,"Ġsit":881,"Ġhigh":882,"eration":883,"Ġcall":884,"amp":885,"ism":886,"Ġmon":887,"lud":888,"Ġref":889,"Ġcountry":890,"Ġnu":891,"Ġmay":892,"Ġlook":893,"ass":894,"eral":895,"Ġprot":896,"Ġmin":897,"Ġtoo":898,"Ġadd":899,"Ġext":900,"low":901,"Ġla":902,"read":903,"ited":904,"Ġamend":905,"Ġfar":906,"iew":907,"Ġdemoc":908,"way":909,"Ġthen":910,"Ġput":911,"ives":912,"Ġagainst":913,"min":914,"ency":915,"Ġmarket":916,"Ġsec":917,"erest":918,"Ġpoint":919,"Ġgoing":920,"Ġcur":921,"Ġsame":922,"Ġpr":923,"Ġdef":924,"Ġincre":925,"rough":926,"Ġquestion":927,"Ġend":928,"Ġtoday":929,"Ġuse":930,"Ġsol":931,"Ġdid":932,"ision":933,"Ġreal":934,"Ġinterest":935,"Ġrequ":936,"Ġdifferen":937,"Ġemp":938,"man":939,"ile":940,"Ġma":941,"Ġent":942,"Ġfut":943,"Ġeffect":944,"Ġatt":945,"you":946,"Ġfuture":947,"rent":948,"art":949,"Ġcontin":950,"Ġtreat":951,"Ġdes":952,"Ġdevelopment":953,"Ġpublic":954,"get":955,"Ġsi":956,"uation":957,"Ġ19":958,"Ġthrough":959,"Ġstill":960,"les":961,"ertain":962,"own":963,"ific":964,"Ġtur":965,"Ġnational":966,"itiz":967,"Ġlast":968,"what":969,"Ġcommitte":970,"Ġown":971,"Ġfinancial":972,"Ġgovernment":973,"Ġass":974,"Ġcol":975,"Ġhapp":976,"Ġhel":977,"Ġher":978,"mbers":979,"alth":980,"Ġissue":981,"Ġreally":982,"king":983,"Ġgu":984,"Ġregard":985,"Ġcitiz":986,"Ġgrow":987,"Ġmeas":988,"ually":989,"Ġprotect":990,"Ġcar":991,"Ġwhy":992,"Ġprogra":993,"Ġsc":994,"Ġlead":995,"Ġinternational":996,"Ġbud":997,"Ġhelp":998,"Ġsm":999,"ents":1000,"they":1001,"ason":1002,"Ġ%":1003,"Ġinform":1004,"Ġlevel":1005,"pet":1006,"loy":1007,"Ġresult":1008,"Ġcommittee":1009,"iven":1010,"lement":1011,"Ġmatter":1012,"Ġproblem":1013,"olog":1014,"ese":1015,"Ġke":1016,"Ġtal":1017,"ty":1018,"Ġenv":1019,"led":1020,"ised":1021,"Ġconst":1022,"ning":1023,"cond":1024,"Ġcourse":1025,"Ġconsid":1026,"ruct":1027,"Ġcommissioner":1028,"Ġbr":1029,"bility":1030,"Ġback":1031,"Ġpow":1032,"ready":1033,"Ġmak":1034,"Ġdebate":1035,"Ġcitizens":1036,"Ġinter":1037,"Ġview":1038,"Ġpers":1039,"Ġalready":1040,"Ġsituation":1041,"Ġpossible":1042,"Ġreason":1043,"Ġhope":1044,"ood":1045,"ail":1046,"gan":1047,"ince":1048,"self":1049,"Ġinclud":1050,"iron":1051,"Ġmembers":1052,"uth":1053,"ied":1054,"ulation":1055,"Ġboth":1056,"illion":1057,"Ġbu":1058,"Ġprocess":1059,"Ġexamp":1060,"ety":1061,"sure":1062,"ouse":1063,"ict":1064,"Ġsign":1065,"Ġwar":1066,"Ġcertain":1067,"Ġcome":1068,"Ġresol":1069,"Ġener":1070,"Ġdra":1071,"Ġorder":1072,"wor":1073,"Ġagreement":1074,"Ġcent":1075,"ract":1076,"Ġenviron":1077,"Ġban":1078,"uring":1079,"Ġset":1080,"hip":1081,"ici":1082,"Ġbefore":1083,"Ġenvironment":1084,"bal":1085,"Ġach":1086,"Ġask":1087,"however":1088,"chn":1089,"Ġcoop":1090,"eric":1091,"Ġachie":1092,"cip":1093,"ority":1094,"Ġglo":1095,"Ġenergy":1096,"tle":1097,"Ġhim":1098,"Ġadop":1099,"Ġful":1100,"Ġday":1101,"Ġdifferent":1102,"Ġneg":1103,"Ġable":1104,"Ġsomething":1105,"ices":1106,"other":1107,"Ġtransp":1108,"ft":1109,"Ġbudget":1110,"lish":1111,"Ġaff":1112,"Ġinstit":1113,"Ġcase":1114,"Ġcompet":1115,"ically":1116,"Ġcommon":1117,"Ġcap":1118,"utions":1119,"Ġthings":1120,"Ġlaw":1121,"urther":1122,"Ġcommunity":1123,"ration":1124,"gin":1125,"Ġvote":1126,"Ġhouse":1127,"Ġstand":1128,"Ġinvest":1129,"ne":1130,"Ġcurrent":1131,"Ġmed":1132,"Ġcris":1133,"Ġform":1134,"ina":1135,"omen":1136,"Ġexample":1137,"Ġprev":1138,"Ġwithin":1139,"Ġdown":1140,"Ġchange":1141,"ten":1142,"Ġdiscus":1143,"Ġserv":1144,"Ġmaj":1145,"ribut":1146,"Ġglobal":1147,"its":1148,"urity":1149,"Ġide":1150,"ately":1151,"Ġbeh":1152,"Ġpresent":1153,"Ġgive":1154,"Ġmeasures":1155,"Ġmain":1156,"Ġsuc":1157,"Ġwithout":1158,"Ġca":1159,"Ġfore":1160,"Ġhowever":1161,"eur":1162,"Ġameric":1163,"lu":1164,"Ġplace":1165,"Ġmeans":1166,"Ġtechn":1167,"Ġlit":1168,"Ġlif":1169,"Ġinf":1170,"ef":1171,"men":1172,"Ġtaken":1173,"Ġimpro":1174,"Ġproblems":1175,"Ġmod":1176,"Ġsecurity":1177,"Ġrespect":1178,"Ġsimp":1179,"Ġhealth":1180,"isl":1181,"Ġafter":1182,"Ġsect":1183,"Ġstrate":1184,"vers":1185,"Ġnumber":1186,"Ġbetter":1187,"ount":1188,"to":1189,"Ġauth":1190,"Ġfra":1191,"Ġdeal":1192,"Ġbus":1193,"Ġ20":1194,"be":1195,"ather":1196,"come":1197,"Ġprin":1198,"Ġunited":1199,"Ġregion":1200,"Ġcooperation":1201,"Ġcrisis":1202,"ered":1203,"Ġpower":1204,"Ġinformation":1205,"Ġfind":1206,"Ġorgan":1207,"Ġthree":1208,"Ġgr":1209,"Ġlegisl":1210,"Ġsch":1211,"stand":1212,"Ġdep":1213,"Ġdirective":1214,"air":1215,"reed":1216,"Ġrul":1217,"Ġplay":1218,"ily":1219,"Ġaction":1220,"ital":1221,"Ġobject":1222,"ently":1223,"Ġnecess":1224,"Ġarea":1225,"Ġhand":1226,"Ġallow":1227,"itions":1228,"Ġindust":1229,"Ġprincip":1230,"less":1231,"Ġest":1232,"Ġfew":1233,"itive":1234,"ability":1235,"land":1236,"ven":1237,"pporteur":1238,"Ġelect":1239,"ollow":1240,"Ġ3":1241,"Ġris":1242,"Ġcre":1243,"ph":1244,"ater":1245,"Ġcond":1246,"Ġem":1247,"Ġnor":1248,"Ġnat":1249,"Ġchild":1250,"Ġph":1251,"Ġprom":1252,"Ġwel":1253,"ists":1254,"Ġdone":1255,"Ġap":1256,"Ġear":1257,"Ġval":1258,"Ġrepres":1259,"Ġshe":1260,"pportun":1261,"ov":1262,"work":1263,"Ġmeet":1264,"Ġta":1265,"ute":1266,"Ġopen":1267,"Ġtrade":1268,"Ġopportun":1269,"Ġredu":1270,"Ġactually":1271,"ential":1272,"icult":1273,"ality":1274,"Ġrapporteur":1275,"Ġfr":1276,"Ġrest":1277,"Ġsaf":1278,"Ġshow":1279,"Ġwomen":1280,"alf":1281,"ds":1282,"isation":1283,"orts":1284,"Ġsince":1285,"uc":1286,"Ġlittle":1287,"Ġnext":1288,"Ġdemocrat":1289,"Ġincreas":1290,"Ġsur":1291,"arch":1292,"Ġdifficult":1293,"Ġfav":1294,"oti":1295,"Ġcor":1296,"Ġinde":1297,"Ġimplement":1298,"Ġav":1299,"Ġwish":1300,"Ġkind":1301,"orities":1302,"Ġequ":1303,"Ġplan":1304,"Ġins":1305,"Ġfollow":1306,"Ġremain":1307,"Ġthank":1308,"eg":1309,"Ġinit":1310,"Ġless":1311,"Ġexper":1312,"Ġcontro":1313,"Ġensure":1314,"Ġbl":1315,"Ġadv":1316,"Ġspeak":1317,"ways":1318,"Ġaccept":1319,"ussi":1320,"Ġlife":1321,"Ġemploy":1322,"Ġfurther":1323,"Ġspeci":1324,"Ġinvol":1325,"ick":1326,"Ġnegoti":1327,"Ġtreaty":1328,"Ġcomple":1329,"als":1330,"Ġprogram":1331,"Ġwhe":1332,"oura":1333,"she":1334,"Ġvi":1335,"Ġcost":1336,"Ġlet":1337,"Ġjob":1338,"ying":1339,"Ġissues":1340,"cing":1341,"Ġserious":1342,"Ġgrowth":1343,"ics":1344,"Ġmrs":1345,"oney":1346,"Ġthing":1347,"Ġsecond":1348,"ros":1349,"Ġproduct":1350,"Ġunderstand":1351,"Ġir":1352,"Ġrules":1353,"Ġperson":1354,"lig":1355,"Ġconsider":1356,"Ġben":1357,"ided":1358,"ody":1359,"Ġgent":1360,"com":1361,"ared":1362,"Ġgentle":1363,"Ġsmall":1364,"Ġanother":1365,"Ġrussi":1366,"Ġgiven":1367,"Ġnecessary":1368,"Ġneeds":1369,"Ġrequire":1370,"Ġlegal":1371,"Ġhappen":1372,"iness":1373,"Ġwhether":1374,"Ġbecome":1375,"Ġrole":1376,"ird":1377,"Ġmoney":1378,"Ġamendments":1379,"adies":1380,"selves":1381,"Ġread":1382,"Ġalways":1383,"Ġgentlemen":1384,"Ġimm":1385,"Ġprotection":1386,"cu":1387,"Ġwhole":1388,"Ġproced":1389,"Ġseem":1390,"Ġlarge":1391,"Ġposition":1392,"Ġsuccess":1393,"ister":1394,"Ġchina":1395,"Ġeconomy":1396,"sibility":1397,"Ġareas":1398,"Ġmove":1399,"Ġconv":1400,"my":1401,"Ġaid":1402,"Ġsoci":1403,"racy":1404,"Ġcrit":1405,"Ġconsum":1406,"gether":1407,"Ġiniti":1408,"per":1409,"ĠâĢĿ":1410,"ave":1411,"par":1412,"gg":1413,"Ġparticularly":1414,"Ġsector":1415,"Ġapproach":1416,"these":1417,"av":1418,"Ġrev":1419,"Ġnever":1420,"Ġfree":1421,"Ġused":1422,"Ġmil":1423,"Ġbal":1424,"ness":1425,"Ġmillion":1426,"sions":1427,"Ġproject":1428,"ources":1429,"Ġprogress":1430,"Ġdecision":1431,"ross":1432,"Ġresolution":1433,"Ġprogramme":1434,"ines":1435,"Ġpay":1436,"Ġcontribut":1437,"ense":1438,"Ġtax":1439,"Ġstep":1440,"Ġeffective":1441,"Ġfeel":1442,"Ġmaking":1443,"ys":1444,"Ġfish":1445,"Ġ199":1446,"do":1447,"eng":1448,"Ġrese":1449,"ĠâĢľ":1450,"Ġed":1451,"Ġes":1452,"Ġpract":1453,"imate":1454,"ablish":1455,"Ġeas":1456,"Ġpresidency":1457,"ral":1458,"ably":1459,"let":1460,"Ġopin":1461,"Ġcontinue":1462,"Ġgeneral":1463,"ultural":1464,"wards":1465,"Ġestablish":1466,"Ġbenef":1467,"Ġpur":1468,"Ġtogether":1469,"Ġstrong":1470,"Ġ5":1471,"Ġcompan":1472,"Ġspecif":1473,"Ġur":1474,"isions":1475,"Ġlot":1476,"Ġdoing":1477,"Ġworking":1478,"Ġservices":1479,"Ġel":1480,"ought":1481,"Ġrepresent":1482,"ned":1483,"Ġagric":1484,"Ġfail":1485,"more":1486,"ner":1487,"Ġdist":1488,"Ġconstit":1489,"Ġframe":1490,"Ġterms":1491,"ror":1492,"ret":1493,"Ġfavour":1494,"Ġforward":1495,"lar":1496,"Ġmean":1497,"Ġstar":1498,"Ġresearch":1499,"Ġpeace":1500,"Ġterm":1501,"Ġinstitutions":1502,"Ġchang":1503,"Ġmight":1504,"Ġfood":1505,"Ġcontrol":1506,"Ġstud":1507,"Ġreach":1508,"Ġproposals":1509,"Ġwrit":1510,"most":1511,"Ġstrategy":1512,"Ġsupp":1513,"Ġpop":1514,"Ġfound":1515,"erence":1516,"Ġbasis":1517,"sw":1518,"Ġexperi":1519,"Ġrelations":1520,"Ġtechnolog":1521,"Ġbusiness":1522,"Ġladies":1523,"Ġbuild":1524,"Ġaround":1525,"Ġeach":1526,"Ġbro":1527,"over":1528,"Ġaim":1529,"Ġcreat":1530,"Ġpoin":1531,"Ġcare":1532,"Ġamendment":1533,"Ġfundament":1534,"osed":1535,"Ġ4":1536,"rodu":1537,"Ġsubject":1538,"Ġcalled":1539,"Ġtell":1540,"Ġyet":1541,"Ġitself":1542,"Ġfac":1543,"aps":1544,"Ġquite":1545,"Ġsing":1546,"Ġframework":1547,"Ġonce":1548,"Ġess":1549,"Ġwelcome":1550,"Ġbring":1551,"Ġlib":1552,"Ġachieve":1553,"Ġmonth":1554,"ible":1555,"Ġdemocracy":1556,"Ġopp":1557,"Ġgot":1558,"Ġbased":1559,"Ġmention":1560,"Ġfam":1561,"Ġshort":1562,"Ġart":1563,"ined":1564,"Ġexist":1565,"Ġchildren":1566,"Ġbest":1567,"Ġaw":1568,"Ġoften":1569,"Ġexpect":1570,"Ġtalk":1571,"Ġansw":1572,"Ġcri":1573,"Ġchall":1574,"Ġduring":1575,"Ġbig":1576,"Ġopportunity":1577,"Ġopinion":1578,"Ġstruct":1579,"Ġrather":1580,"Ġsuff":1581,"Ġdemand":1582,"Ġple":1583,"then":1584,"ages":1585,"light":1586,"Ġold":1587,"ized":1588,"Ġlegislation":1589,"ulture":1590,"Ġabs":1591,"Ġpromot":1592,"Ġimprove":1593,"ances":1594,"arm":1595,"Ġaccount":1596,"Ġclo":1597,"Ġextre":1598,"Ġincrease":1599,"ged":1600,"Ġago":1601,"Ġwhile":1602,"Ġviol":1603,"Ġdemocratic":1604,"Ġsw":1605,"ivid":1606,"Ġbegin":1607,"Ġlim":1608,"Ġstart":1609,"clear":1610,"Ġminister":1611,"Ġtri":1612,"Ġinteg":1613,"Ġlab":1614,"stain":1615,"Ġforeign":1616,"fort":1617,"reedom":1618,"Ġenough":1619,"ogn":1620,"Ġmajor":1621,"Ġim":1622,"Ġeng":1623,"many":1624,"Ġindustry":1625,"ants":1626,"pri":1627,"Ġregulation":1628,"ides":1629,"Ġhard":1630,"ock":1631,"Ġtowards":1632,"Ġger":1633,"Ġwee":1634,"ases":1635,"Ġbar":1636,"Ġrecogn":1637,"mpt":1638,"Ġfundamental":1639,"thers":1640,"Ġconcerned":1641,"ified":1642,"Ġleast":1643,"Ġvar":1644,"ling":1645,"Ġadopted":1646,"Ġidea":1647,"Ġresources":1648,"Ġhist":1649,"cially":1650,"Ġrussia":1651,"Ġret":1652,"Ġfreedom":1653,"Ġprovide":1654,"Ġbor":1655,"ences":1656,"Ġreform":1657,"atives":1658,"Ġafric":1659,"Ġvoted":1660,"Ġpat":1661,"sequ":1662,"Ġpolicies":1663,"Ġstandard":1664,"ize":1665,"Ġthird":1666,"ivers":1667,"Ġactiv":1668,"Ġoc":1669,"Ġsumm":1670,"Ġshall":1671,"Ġsociety":1672,"Ġciv":1673,"Ġappe":1674,"Ġeduc":1675,"Ġcong":1676,"Ġincluding":1677,"Ġregul":1678,"ners":1679,"ending":1680,"Ġdiscuss":1681,"Ġcolle":1682,"Ġterror":1683,"Ġprinciple":1684,"Ġaccess":1685,"Ġprof":1686,"Ġclearly":1687,"ither":1688,"bon":1689,"arant":1690,"aren":1691,"with":1692,"Ġsignific":1693,"Ġimportance":1694,"when":1695,"Ġproposed":1696,"fin":1697,"Ġcivil":1698,"Ġconditions":1699,"Ġair":1700,"ield":1701,"mit":1702,"ib":1703,"Ġaddress":1704,"Ġrisk":1705,"Ġtransport":1706,"Ġguarant":1707,"Ġexpress":1708,"leg":1709,"Ġresponsibility":1710,"Ġintrodu":1711,"reng":1712,"Ġsingle":1713,"ising":1714,"Ġguarante":1715,"Ġhome":1716,"Ġindivid":1717,"Ġclose":1718,"ove":1719,"Ġexpl":1720,"Ġmom":1721,"arity":1722,"Ġnegotiations":1723,"Ġlow":1724,"oub":1725,"Ġsci":1726,"Ġgreater":1727,"Ġtaking":1728,"Ġwords":1729,"Ġstreng":1730,"raph":1731,"Ġsure":1732,"Ġmor":1733,"pecially":1734,"idence":1735,"Ġextreme":1736,"Ġvis":1737,"Ġemployment":1738,"Ġmilit":1739,"Ġkeep":1740,"Ġlist":1741,"Ġattention":1742,"Ġenc":1743,"ends":1744,"Ġcreate":1745,"ordin":1746,"Ġaddition":1747,"Ġrecent":1748,"body":1749,"Ġpositive":1750,"Ġann":1751,"fortun":1752,"Ġespecially":1753,"iod":1754,"Ġnothing":1755,"Ġamong":1756,"Ġfight":1757,"000":1758,"Ġfull":1759,"Ġpoints":1760,"Ġindividual":1761,"ering":1762,"where":1763,"ining":1764,"Ġsustain":1765,"af":1766,"Ġpass":1767,"Ġleaders":1768,"ons":1769,"Ġloc":1770,"Ġru":1771,"Ġcentral":1772,"Ġcomb":1773,"mad":1774,"Ġauthorities":1775,"ime":1776,"Ġenvironmental":1777,"ool":1778,"pend":1779,"key":1780,"Ġfour":1781,"Ġsafety":1782,"uge":1783,"Ġprevent":1784,"Ġoper":1785,"Ġmind":1786,"Ġhead":1787,"Ġsimply":1788,"Ġpast":1789,"ck":1790,"Ġefforts":1791,"Ġrece":1792,"Ġfunds":1793,"Ġspecific":1794,"til":1795,"Ġforce":1796,"Ġpartners":1797,"Ġprocedure":1798,"Ġhaving":1799,"Ġchar":1800,"Ġneeded":1801,"Ġfri":1802,"haps":1803,"Ġessential":1804,"Ġbehalf":1805,"Ġlear":1806,"Ġsou":1807,"of":1808,"Ġinternal":1809,"Ġtrue":1810,"Ġnuclear":1811,"Ġwater":1812,"Ġleft":1813,"Ġthought":1814,"Ġincreasing":1815,"ger":1816,"Ġquestions":1817,"Ġoffice":1818,"Ġinterests":1819,"Ġproducts":1820,"by":1821,"Ġparty":1822,"Ġkey":1823,"Ġrun":1824,"Ġbank":1825,"Ġamerica":1826,"Ġothers":1827,"ium":1828,"ata":1829,"used":1830,"Ġdet":1831,"Ġmarkets":1832,"ceed":1833,"icial":1834,"Ġfoc":1835,"Ġgre":1836,"Ġisra":1837,"Ġpriv":1838,"Ġmis":1839,"Ġcomplete":1840,"Ġtimes":1841,"Ġyoun":1842,"Ġsolution":1843,"Ġz":1844,"ark":1845,"Ġclimate":1846,"Ġlonger":1847,"Ġcertainly":1848,"Ġturn":1849,"ond":1850,"Ġmanage":1851,"Ġsignificant":1852,"ization":1853,"Ġconcerns":1854,"madam":1855,"Ġcompanies":1856,"Ġstat":1857,"Ġce":1858,"Ġinstru":1859,"Ġperiod":1860,"Ġgovernments":1861,"ensive":1862,"Ġlive":1863,"Ġseen":1864,"Ġmilitary":1865,"Ġmoment":1866,"ale":1867,"Ġever":1868,"first":1869,"Ġname":1870,"irm":1871,"Ġappropri":1872,"Ġmakes":1873,"Ġmid":1874,"Ġche":1875,"ug":1876,"Ġconstitution":1877,"fortunately":1878,"Ġdeveloping":1879,"Ġbur":1880,"ulate":1881,"Ġ10":1882,"Ġcred":1883,"has":1884,"Ġanswer":1885,"co":1886,"Ġmot":1887,"no":1888,"Ġproper":1889,"Ġthreat":1890,"Ġnon":1891,"ead":1892,"Ġworkers":1893,"Ġcho":1894,"Ġthemselves":1895,"Ġconte":1896,"Ġcompetition":1897,"Ġaffect":1898,"Ġinvolved":1899,"Ġeducation":1900,"Ġpen":1901,"ber":1902,"Ġtext":1903,"Ġconflic":1904,"Ġadmin":1905,"airs":1906,"erv":1907,"Ġsubst":1908,"Ġfarm":1909,"icient":1910,"Ġinn":1911,"Ġimpact":1912,"Ġele":1913,"Ġturkey":1914,"Ġregional":1915,"Ġyoung":1916,"Ġtrad":1917,"Ġfield":1918,"Ġcourt":1919,"vious":1920,"Ġ6":1921,"Ġseems":1922,"pl":1923,"Ġlack":1924,"Ġcomes":1925,"Ġencoura":1926,"Ġdata":1927,"Ġarg":1928,"cise":1929,"ters":1930,"Ġquality":1931,"line":1932,"Ġaway":1933,"Ġfall":1934,"ank":1935,"equ":1936,"Ġsense":1937,"Ġadminist":1938,"Ġtot":1939,"Ġanim":1940,"sid":1941,"cies":1942,"Ġcolleag":1943,"Ġaspect":1944,"Ġmajority":1945,"Ġextremely":1946,"Ġschool":1947,"Ġty":1948,"Ġnet":1949,"Ġaccord":1950,"new":1951,"Ġcongrat":1952,"Ġ201":1953,"Ġmonths":1954,"Ġavail":1955,"Ġfully":1956,"Ġid":1957,"Ġfun":1958,"Ġadopt":1959,"Ġgroups":1960,"Ġinvestment":1961,"Ġvarious":1962,"raq":1963,"Ġspecial":1964,"Ġcapital":1965,"ication":1966,"Ġdri":1967,"Ġshare":1968,"Ġthough":1969,"Ġdeter":1970,"Ġentire":1971,"Ġer":1972,"Ġpal":1973,"Ġinitiative":1974,"Ġgra":1975,"Ġeverything":1976,"ident":1977,"Ġface":1978,"Ġrule":1979,"ho":1980,"ians":1981,"Ġdial":1982,"ased":1983,"ogue":1984,"ggest":1985,"Ġocc":1986,"Ġsuggest":1987,"Ġregions":1988,"Ġiraq":1989,"Ġfive":1990,"Ġori":1991,"Ġsoon":1992,"Ġasked":1993,"atic":1994,"Ġdecisions":1995,"la":1996,"Ġlang":1997,"Ġmeeting":1998,"Ġcoh":1999,"Ġopt":2000,"Ġjobs":2001,"Ġconsequ":2002,"ilities":2003,"Ġagend":2004,"Ġcomprom":2005,"Ġstrengthen":2006,"Ġemer":2007,"cession":2008,"finally":2009,"arian":2010,"Ġhon":2011,"icle":2012,"Ġindepend":2013,"large":2014,"Ġpot":2015,"Ġhold":2016,"omm":2017,"side":2018,"Ġbre":2019,"Ġemphas":2020,"Ġcosts":2021,"ech":2022,"Ġresults":2023,"lies":2024,"Ġaffairs":2025,"Ġamerican":2026,"Ġdang":2027,"Ġlis":2028,"ging":2029,"apan":2030,"Ġagricultural":2031,"veral":2032,"Ġprogramm":2033,"ators":2034,"Ġcut":2035,"Ġstandards":2036,"Ġeur":2037,"Ġparticip":2038,"ification":2039,"Ġagenda":2040,"Ġalmost":2041,"iting":2042,"Ġsystems":2043,"go":2044,"Ġdesign":2045,"Ġrequest":2046,"istan":2047,"Ġtry":2048,"az":2049,"Ġobjective":2050,"Ġbillion":2051,"cell":2052,"Ġdialogue":2053,"Ġlisbon":2054,"Ġdoub":2055,"Ġgener":2056,"Ġindeed":2057,"str":2058,"Ġhear":2059,"ended":2060,"Ġreasons":2061,"Ġlangu":2062,"Ġeast":2063,"Ġcir":2064,"Ġquick":2065,"member":2066,"Ġafrica":2067,"Ġmodel":2068,"nect":2069,"Ġstability":2070,"lusion":2071,"ier":2072,"ash":2073,"den":2074,"lev":2075,"Ġdraw":2076,"Ġbra":2077,"Ġcoordin":2078,"Ġuntil":2079,"Ġpopulation":2080,"Ġyes":2081,"Ġcame":2082,"Ġproduction":2083,"fully":2084,"Ġacross":2085,"ont":2086,"Ġpa":2087,"Ġtas":2088,"Ġwriting":2089,"Ġaware":2090,"Ġavailable":2091,"itor":2092,"Ġwr":2093,"Ġbrit":2094,"Ġweek":2095,"ify":2096,"Ġline":2097,"ried":2098,"Ġtook":2099,"Ġrom":2100,"Ġident":2101,"Ġwa":2102,"Ġsolid":2103,"Ġune":2104,"Ġlight":2105,"Ġvict":2106,"Ġenlarge":2107,"Ġdocu":2108,"Ġlocal":2109,"Ġapplic":2110,"Ġliberal":2111,"Ġharm":2112,"Ġparties":2113,"Ġassist":2114,"Ġwent":2115,"Ġge":2116,"Ġexc":2117,"eu":2118,"just":2119,"Ġ7":2120,"Ġcoming":2121,"some":2122,"Ġtom":2123,"Ġmentioned":2124,"Ġelse":2125,"Ġamb":2126,"Ġjud":2127,"Ġdom":2128,"dle":2129,"Ġpric":2130,"Ġfocus":2131,"Ġagreements":2132,"Ġcirc":2133,"Ġfle":2134,"Ġcontext":2135,"Ġtalking":2136,"Ġmult":2137,"ims":2138,"Ġinnov":2139,"Ġlat":2140,"Ġlooking":2141,"Ġtechnology":2142,"Ġant":2143,"Ġsummit":2144,"Ġ8":2145,"edi":2146,"Ġjapan":2147,"Ġcurrently":2148,"Ġobjectives":2149,"Ġhalf":2150,"Ġrefer":2151,"cent":2152,"Ġten":2153,"Ġrate":2154,"Ġperhaps":2155,"rict":2156,"Ġobs":2157,"ple":2158,"Ġassess":2159,"Ġiran":2160,"Ġcases":2161,"Ġfollowing":2162,"Ġbook":2163,"Ġdemon":2164,"Ġabsol":2165,"ury":2166,"Ġseveral":2167,"Ġeveryone":2168,"Ġretur":2169,"Ġpost":2170,"utes":2171,"Ġjoint":2172,"Ġjustice":2173,"aged":2174,"theless":2175,"Ġapply":2176,"Ġconvention":2177,"Ġoil":2178,"Ġwrong":2179,"imes":2180,"Ġexcell":2181,"Ġbroad":2182,"Ġuk":2183,"Ġenlargement":2184,"second":2185,"Ġobvious":2186,"Ġtarge":2187,"ires":2188,"Ġcontain":2189,"Ġfinal":2190,"Ġwanted":2191,"Ġhistory":2192,"ibility":2193,"Ġtop":2194,"Ġsk":2195,"Ġresponsible":2196,"Ġabsolute":2197,"inde":2198,"Ġdanger":2199,"ring":2200,"Ġdest":2201,"io":2202,"orm":2203,"Ġroad":2204,"ush":2205,"iveness":2206,"atory":2207,"ars":2208,"ued":2209,"Ġmatters":2210,"aper":2211,"Ġnations":2212,"Ġconsumers":2213,"atch":2214,"Ġsix":2215,"imil":2216,"rench":2217,"Ġprogrammes":2218,"Ġmaintain":2219,"Ġimplementation":2220,"istic":2221,"Ġconsumer":2222,"anced":2223,"Ġ9":2224,"Ġbad":2225,"omet":2226,"pid":2227,"ane":2228,"Ġsaying":2229,"rast":2230,"Ġfair":2231,"Ġpalest":2232,"sib":2233,"Ġanything":2234,"Ġurg":2235,"lf":2236,"Ġwon":2237,"Ġappropriate":2238,"eria":2239,"Ġchanges":2240,"Ġcompromise":2241,"Ġreject":2242,"Ġconference":2243,"pris":2244,"Ġdeep":2245,"Ġside":2246,"Ġsat":2247,"ises":2248,"indeed":2249,"ession":2250,"Ġtrying":2251,"Ġdut":2252,"Ġprep":2253,"Ġinstitution":2254,"here":2255,"Ġve":2256,"ert":2257,"Ġpack":2258,"Ġstop":2259,"Ġheard":2260,"Ġdays":2261,"ived":2262,"Ġmiddle":2263,"Ġmet":2264,"Ġpoor":2265,"Ġscient":2266,"Ġisrael":2267,"Ġliving":2268,"Ġexperience":2269,"ledge":2270,"Ġmanagement":2271,"Ġprices":2272,"Ġver":2273,"imilar":2274,"oid":2275,"Ġtest":2276,"Ġconnect":2277,"Ġrecomm":2278,"Ġenter":2279,"Ġec":2280,"mploy":2281,"Ġresponse":2282,"Ġprob":2283,"bour":2284,"Ġmadam":2285,"Ġdeath":2286,"Ġchalleng":2287,"Ġnature":2288,"Ġorigin":2289,"Ġachieved":2290,"cri":2291,"Ġguarantee":2292,"Ġmess":2293,"rought":2294,"Ġvalues":2295,"Ġexcellent":2296,"Ġelections":2297,"Ġprice":2298,"Ġfisher":2299,"Ġprinciples":2300,"ression":2301,"Ġvalue":2302,"orrow":2303,"Ġneigh":2304,"Ġprojects":2305,"ps":2306,"Ġeither":2307,"Ġoppos":2308,"Ġcommitment":2309,"Ġstarted":2310,"abled":2311,"Ġsustainable":2312,"Ġmass":2313,"Ġlink":2314,"iving":2315,"Ġprivate":2316,"Ġcru":2317,"Ġgree":2318,"Ġimmig":2319,"Ġviolence":2320,"Ġremains":2321,"verty":2322,"Ġsuper":2323,"Ġpoverty":2324,"Ġsubsid":2325,"mination":2326,"Ġfig":2327,"Ġintegration":2328,"ban":2329,"Ġsouth":2330,"Ġourselves":2331,"Ġusing":2332,"Ġarticle":2333,"Ġborder":2334,"ins":2335,"rect":2336,"Ġfrench":2337,"Ġmus":2338,"Ġbenefit":2339,"Ġland":2340,"pite":2341,"ening":2342,"Ġ15":2343,"Ġdev":2344,"Ġservice":2345,"Ġstrateg":2346,"Ġsolidarity":2347,"isf":2348,"Ġlos":2349,"Ġweak":2350,"Ġactivities":2351,"lied":2352,"Ġcongratulate":2353,"Ġhuge":2354,"Ġlives":2355,"Ġself":2356,"acy":2357,"Ġcamp":2358,"Ġdise":2359,"Ġexch":2360,"Ġconflict":2361,"ler":2362,"Ġpros":2363,"Ġpriority":2364,"Ġreports":2365,"Ġmonitor":2366,"Ġquickly":2367,"uses":2368,"Ġalong":2369,"Ġgermany":2370,"Ġdecided":2371,"chan":2372,"thod":2373,"Ġattack":2374,"Ġupon":2375,"Ġstress":2376,"Ġdol":2377,"app":2378,"Ġmechan":2379,"Ġport":2380,"Ġgreen":2381,"pr":2382,"Ġfl":2383,"euro":2384,"ls":2385,"Ġconclud":2386,"Ġconcerning":2387,"Ġhappened":2388,"Ġunemploy":2389,"fer":2390,"Ġmen":2391,"Ġfell":2392,"Ġsent":2393,"Ġground":2394,"Ġdetail":2395,"Ġrecently":2396,"Ġfunding":2397,"Ġreduce":2398,"therefore":2399,"Ġreflect":2400,"arency":2401,"Ġplac":2402,"Ġpurp":2403,"Ġdemonstr":2404,"Ġprobably":2405,"aster":2406,"Ġtomorrow":2407,"Ġanal":2408,"Ġofficial":2409,"etary":2410,"Ġbuilding":2411,"Ġdraft":2412,"Ġconsequences":2413,"Ġdam":2414,"Ġgoes":2415,"Ġdue":2416,"rupt":2417,"Ġred":2418,"Ġdel":2419,"Ġcy":2420,"Ġsort":2421,"Ġword":2422,"Ġabove":2423,"Ġterrorism":2424,"Ġinflu":2425,"Ġprovided":2426,"Ġdi":2427,"Ġbecom":2428,"Ġfamily":2429,"erial":2430,"Ġbi":2431,"ternal":2432,"Ġmodern":2433,"ured":2434,"Ġtold":2435,"unch":2436,"Ġbalance":2437,"vere":2438,"Ġdisp":2439,"Ġital":2440,"Ġnatural":2441,"Ġimmedi":2442,"Ġthinking":2443,"Ġdefin":2444,"Ġrelig":2445,"Ġtransparency":2446,"Ġpotential":2447,"Ġincreased":2448,"iation":2449,"Ġbehind":2450,"Ġbel":2451,"soci":2452,"Ġoblig":2453,"Ġbasic":2454,"why":2455,"ories":2456,"Ġfrance":2457,"europe":2458,"Ġalone":2459,"Ġatte":2460,"ruction":2461,"ograph":2462,"enge":2463,"secondly":2464,"Ġbrought":2465,"Ġleave":2466,"Ġinclude":2467,"Ġrequired":2468,"Ġcause":2469,"Ġpractice":2470,"moreover":2471,"Ġstructural":2472,"ination":2473,"Ġagriculture":2474,"Ġcompletely":2475,"Ġdiscussion":2476,"Ġmethod":2477,"Ġclos":2478,"Ġspeech":2479,"Ġways":2480,"cal":2481,"Ġprevious":2482,"hold":2483,"Ġlar":2484,"Ġil":2485,"Ġpercent":2486,"Ġculture":2487,"ired":2488,"Ġpalestin":2489,"Ġreality":2490,"Ġchallenge":2491,"reg":2492,"Ġhun":2493,"Ġrepe":2494,"Ġoutside":2495,"Ġpromote":2496,"Ġcla":2497,"like":2498,"Ġcrucial":2499,"Ġaut":2500,"iding":2501,"Ġdoubt":2502,"Ġlater":2503,"Ġmonetary":2504,"Ġcultural":2505,"Ġindia":2506,"ometimes":2507,"Ġevent":2508,"after":2509,"bo":2510,"bec":2511,"Ġavoid":2512,"Ġthus":2513,"Ġexternal":2514,"Ġcross":2515,"though":2516,"ively":2517,"Ġearly":2518,"Ġchallenges":2519,"ec":2520,"forms":2521,"Ġmovement":2522,"Ġdollar":2523,"Ġexplain":2524,"uly":2525,"Ġagreed":2526,"Ġindic":2527,"tod":2528,"Ġbri":2529,"sp":2530,"Ġden":2531,"Ġsays":2532,"Ġsound":2533,"ges":2534,"Ġbit":2535,"iversity":2536,"Ġill":2537,"Ġstage":2538,"Ġhappy":2539,"today":2540,"Ġfear":2541,"Ġimpos":2542,"Ġhigher":2543,"Ġassoci":2544,"Ġgl":2545,"because":2546,"Ġemission":2547,"ateral":2548,"itarian":2549,"Ġcontribution":2550,"Ġtask":2551,"ension":2552,"Ġheld":2553,"Ġeffort":2554,"Ġhour":2555,"Ġdebt":2556,"Ġcarry":2557,"Ġpurs":2558,"Ġroom":2559,"arily":2560,"rug":2561,"Ġgetting":2562,"Ġreview":2563,"lif":2564,"Ġregarding":2565,"Ġlegislative":2566,"lling":2567,"Ġactions":2568,"Ġdeveloped":2569,"Ġcommunication":2570,"Ġrecommend":2571,"erve":2572,"acc":2573,"Ġreturn":2574,"Ġvol":2575,"Ġaccession":2576,"imum":2577,"tom":2578,"20":2579,"Ġtakes":2580,"Ġpartnership":2581,"gest":2582,"Ġcrimin":2583,"Ġcolleagues":2584,"ev":2585,"ron":2586,"Ġdirection":2587,"iter":2588,"Ġrad":2589,"uff":2590,"ream":2591,"Ġprecise":2592,"Ġdecad":2593,"Ġexact":2594,"Ġbreak":2595,"Ġcorrect":2596,"use":2597,"Ġfarmers":2598,"Ġtechnical":2599,"Ġlanguage":2600,"Ġpressure":2601,"Ġsatisf":2602,"Ġexcept":2603,"Ġvoting":2604,"Ġcand":2605,"Ġbeginning":2606,"Ġpleased":2607,"Ġemb":2608,"Ġasse":2609,"Ġexisting":2610,"wise":2611,"well":2612,"Ġteach":2613,"Ġnorth":2614,"Ġpaper":2615,"rial":2616,"Ġstory":2617,"Ġaud":2618,"Ġremember":2619,"olution":2620,"Ġgrowing":2621,"Ġassistance":2622,"Ġlost":2623,"Ġlikely":2624,"Ġcle":2625,"ctions":2626,"Ġlove":2627,"Ġabsolutely":2628,"inese":2629,"Ġforces":2630,"Ġregime":2631,"Ġsan":2632,"Ġkill":2633,"ousand":2634,"while":2635,"Ġconsult":2636,"Ġorganis":2637,"Ġregulations":2638,"yes":2639,"ously":2640,"arent":2641,"Ġfo":2642,"Ġlabour":2643,"ilateral":2644,"Ġopportunities":2645,"Ġalthough":2646,"terday":2647,"Ġcurren":2648,"ior":2649,"Ġrich":2650,"Ġstatement":2651,"Ġcapac":2652,"Ġcreation":2653,"Ġbanks":2654,"Ġideas":2655,"Ġsea":2656,"Ġled":2657,"une":2658,"Ġraised":2659,"Ġdim":2660,"Ġnear":2661,"Ġequal":2662,"Ġcreated":2663,"Ġ/":2664,"Ġconfidence":2665,"Ġtotal":2666,"Ġknown":2667,"Ġsimilar":2668,"encies":2669,"Ġrat":2670,"Ġage":2671,"Ġrise":2672,"Ġamount":2673,"lam":2674,"ened":2675,"Ġvital":2676,"Ġpress":2677,"Ġthroughout":2678,"Ġtraff":2679,"Ġclass":2680,"Ġcohes":2681,"Ġfinally":2682,"mission":2683,"Ġregards":2684,"Ġsimple":2685,"Ġwaste":2686,"Ġeffects":2687,"Ġaspects":2688,"Ġilleg":2689,"lation":2690,"Ġfis":2691,"itional":2692,"even":2693,"inst":2694,"Ġflo":2695,"Ġoffer":2696,"Ġ30":2697,"ially":2698,"Ġens":2699,"Ġchinese":2700,"Ġreading":2701,"jo":2702,"Ġreforms":2703,"Ġexam":2704,"Ġcoll":2705,"Ġthousand":2706,"Ġwonder":2707,"Ġknowledge":2708,"Ġrates":2709,"Ġdrug":2710,"Ġextra":2711,"Ġcentury":2712,"estern":2713,"Ġindustrial":2714,"Ġmist":2715,"Ġdiscri":2716,"Ġcritic":2717,"Ġprepared":2718,"Ġcandid":2719,"yond":2720,"Ġaltern":2721,"Ġunemployment":2722,"Ġmedia":2723,"Ġflex":2724,"Ġig":2725,"Ġlevels":2726,"rist":2727,"Ġinstead":2728,"verse":2729,"Ġdiv":2730,"Ġeth":2731,"Ġintegr":2732,"Ġwal":2733,"mitted":2734,"Ġwest":2735,"Ġinterv":2736,"Ġwide":2737,"Ġsuccessful":2738,"Ġreached":2739,"Ġcarried":2740,"pped":2741,"Ġeffici":2742,"uing":2743,"Ġstudy":2744,"Ġlearn":2745,"ator":2746,"Ġdeli":2747,"Ġgain":2748,"por":2749,"Ġcriteria":2750,"Ġbritish":2751,"Ġexchange":2752,"Ġimag":2753,"Ġara":2754,"ished":2755,"Ġinteresting":2756,"Ġ50":2757,"Ġharmon":2758,"Ġcohesion":2759,"Ġcomplex":2760,"Ġwestern":2761,"Ġauthority":2762,"Ġcod":2763,"Ġ2000":2764,"Ġpowers":2765,"Ġperspect":2766,"Ġmyself":2767,"Ġtrust":2768,"Ġdocument":2769,"Ġpresented":2770,"Ġcal":2771,"Ġmaterial":2772,"itud":2773,"rop":2774,"Ġworth":2775,"Ġswed":2776,"Ġtraffic":2777,"Ġvo":2778,"Ġrequires":2779,"Ġprocedures":2780,"Ġcircum":2781,"Ġ12":2782,"Ġpackage":2783,"lt":2784,"Ġbody":2785,"Ġbenefits":2786,"Ġchance":2787,"sels":2788,"every":2789,"Ġrelation":2790,"dict":2791,"Ġbudgetary":2792,"orders":2793,"Ġslow":2794,"Ġrapid":2795,"estic":2796,"ological":2797,"Ġwants":2798,"Ġcompetit":2799,"Ġscale":2800,"Ġallowed":2801,"Ġfunction":2802,"Ġpersonal":2803,"rary":2804,"rely":2805,"Ġsometimes":2806,"Ġtraining":2807,"Ġeasy":2808,"Ġeconomies":2809,"Ġpati":2810,"Ġrelationship":2811,"Ġaccording":2812,"Ġstri":2813,"Ġwhose":2814,"Ġpriorities":2815,"Ġmill":2816,"Ġrespond":2817,"can":2818,"ania":2819,"Ġcapacity":2820,"ats":2821,"Ġfriend":2822,"Ġprim":2823,"Ġ25":2824,"Ġbeyond":2825,"ored":2826,"Ġinternet":2827,"Ġ000":2828,"Ġcondu":2829,"Ġdepend":2830,"mption":2831,"Ġsupported":2832,"Ġmessage":2833,"ix":2834,"Ġdead":2835,"Ġinstrument":2836,"Ġencourage":2837,"Ġaust":2838,"Ġparliamentary":2839,"Ġearth":2840,"Ġsecret":2841,"ha":2842,"Ġrural":2843,"Ġcollect":2844,"Ġscientific":2845,"further":2846,"Ġgiving":2847,"Ġevents":2848,"Ġsal":2849,"Ġgerman":2850,"reh":2851,"Ġfed":2852,"Ġinnovation":2853,"Ġfisheries":2854,"Ġcompany":2855,"Ġthanks":2856,"Ġterrit":2857,"Ġtreatment":2858,"Ġrenew":2859,"Ġgas":2860,"ĠâĢĺ":2861,"cer":2862,"Ġincome":2863,"Ġsaw":2864,"Ġintel":2865,"Ġrepublic":2866,"Ġhighlight":2867,"Ġemissions":2868,"ource":2869,"dom":2870,"Ġchrist":2871,"Ġprovisions":2872,"Ġrecon":2873,"Ġrequirements":2874,"Ġnote":2875,"Ġspace":2876,"Ġproduce":2877,"Ġvictims":2878,"Ġfamil":2879,"thern":2880,"Ġgrant":2881,"Ġanimals":2882,"ton":2883,"Ġtabled":2884,"Ġpie":2885,"Ġgave":2886,"Ġ11":2887,"Ġformer":2888,"Ġfront":2889,"Ġexactly":2890,"Ġreceived":2891,"Ġfellow":2892,"Ġmer":2893,"Ġund":2894,"ourable":2895,"aff":2896,"Ġremind":2897,"Ġprime":2898,"Ġislam":2899,"Ġdece":2900,"Ġregret":2901,"Ġtemp":2902,"Ġcrime":2903,"Ġwin":2904,"Ġweap":2905,"Ġminutes":2906,"rison":2907,"yet":2908,"Ġsens":2909,"Ġestablished":2910,"aring":2911,"Ġheart":2912,"Ġitem":2913,"Ġadvant":2914,"sibilities":2915,"action":2916,"Ġexport":2917,"Ġborders":2918,"Ġlate":2919,"Ġinstruments":2920,"Ġsolutions":2921,"fect":2922,"Ġcomput":2923,"Ġpolitics":2924,"Ġelection":2925,"Ġcop":2926,"Ġcreating":2927,"Ġdeg":2928,"Ġire":2929,"bia":2930,"unfortunately":2931,"Ġyesterday":2932,"ots":2933,"Ġinitiatives":2934,"reci":2935,"Ġvir":2936,"Ġhistor":2937,"Ġmonitoring":2938,"Ġpict":2939,"Ġprepar":2940,"Ġsubstant":2941,"Ġireland":2942,"lier":2943,"ca":2944,"Ġrelev":2945,"Ġshows":2946,"Ġneighbour":2947,"Ġshown":2948,"Ġlegit":2949,"Ġadditional":2950,"icians":2951,"Ġsupply":2952,"Ġadministration":2953,"Ġindependent":2954,"Ġoccur":2955,"Ġcircumst":2956,"aign":2957,"Ġconduct":2958,"ghan":2959,"Ġconclusion":2960,"Ġspir":2961,"Ġcampaign":2962,"Ġundert":2963,"aut":2964,"Ġdr":2965,"Ġnorm":2966,"Ġmorning":2967,"Ġwilling":2968,"Ġsucceed":2969,"Ġexpressed":2970,"iet":2971,"Ġparts":2972,"Ġukra":2973,"Ġillegal":2974,"liance":2975,"Ġcurrency":2976,"omp":2977,"Ġargu":2978,"rastruct":2979,"Ġstrategic":2980,"Ġcriminal":2981,"nam":2982,"Ġquot":2983,"Ġconsist":2984,"Ġsepar":2985,"Ġcounter":2986,"Ġmeasure":2987,"Ġmedium":2988,"Ġanalys":2989,"Ġsco":2990,"Ġpurpose":2991,"Ġinfrastruct":2992,"Ġfishing":2993,"firstly":2994,"gar":2995,"Ġnight":2996,"thank":2997,"Ġdecide":2998,"Ġinfluence":2999,"round":3000,"uine":3001,"Ġrecord":3002,"Ġconvin":3003,"Ġbusinesses":3004,"accept":3005,"Ġguid":3006,"Ġcompetitiveness":3007,"verage":3008,"Ġgoods":3009,"Ġfirm":3010,"Ġactive":3011,"Ġmand":3012,"Ġtack":3013,"Ġasia":3014,"head":3015,"Ġdelay":3016,"Ġseriously":3017,"Ġtool":3018,"Ġpolice":3019,"Ġcircumstances":3020,"sh":3021,"Ġspending":3022,"undred":3023,"Ġrisks":3024,"Ġfiscal":3025,"ounts":3026,"Ġinvolve":3027,"Ġwatch":3028,"Ġking":3029,"Ġdefic":3030,"Ġincluded":3031,"Ġpractical":3032,"Ġorganisations":3033,"Ġunaccept":3034,"Ġgenuine":3035,"Ġfriends":3036,"Ġextent":3037,"Ġmal":3038,"Ġlimited":3039,"Ġcredit":3040,"Ġpain":3041,"Ġpoll":3042,"Ġfue":3043,"Ġstay":3044,"Ġafghan":3045,"ama":3046,"agraph":3047,"val":3048,"Ġworked":3049,"Ġanti":3050,"Ġones":3051,"Ġdescri":3052,"Ġreduction":3053,"Ġincreasingly":3054,"Ġconsidered":3055,"Ġimplemented":3056,"Ġweeks":3057,"Ġbul":3058,"ilt":3059,"que":3060,"Ġperform":3061,"Ġlimit":3062,"Ġdangerous":3063,"anish":3064,"Ġmig":3065,"ortion":3066,"Ġappreci":3067,"not":3068,"ureau":3069,"Ġapplication":3070,"Ġimmigration":3071,"osov":3072,"Ġpaid":3073,"Ġviews":3074,"Ġhighly":3075,"furthermore":3076,"ump":3077,"Ġeffectively":3078,"Ġcontent":3079,"Ġtype":3080,"oint":3081,"Ġbureau":3082,"Ġunacceptable":3083,"rative":3084,"Ġprovides":3085,"bed":3086,"Ġwarm":3087,"Ġministers":3088,"sec":3089,"Ġagency":3090,"know":3091,"pre":3092,"Ġeastern":3093,"Ġchanged":3094,"ses":3095,"Ġannual":3096,"itude":3097,"entions":3098,"Ġmotion":3099,"Ġflow":3100,"Ġapplied":3101,"Ġinstitutional":3102,"Ġopposition":3103,"Ġspeaking":3104,"Ġdisease":3105,"umption":3106,"Ġconstruct":3107,"since":3108,"Ġsen":3109,"Ġcommer":3110,"Ġevidence":3111,"Ġrestrict":3112,"Ġbrief":3113,"Ġcat":3114,"ilit":3115,"Ġinvestig":3116,"Ġimpossible":3117,"ones":3118,"Ġpossibility":3119,"bs":3120,"Ġkore":3121,"Ġcell":3122,"dp":3123,"Ġoutcome":3124,"last":3125,"Ġkosov":3126,"Ġste":3127,"Ġplease":3128,"Ġefficiency":3129,"Ġsl":3130,"Ġcou":3131,"ster":3132,"Ġdespite":3133,"Ġfailure":3134,"oke":3135,"Ġhundred":3136,"imately":3137,"Ġkid":3138,"Ġ2007":3139,"Ġdiscussions":3140,"na":3141,"Ġexer":3142,"Ġrelating":3143,"Ġdiscrimination":3144,"Ġgives":3145,"Ġanyone":3146,"Ġnamely":3147,"Ġpalestinian":3148,"lin":3149,"Ġforget":3150,"Ġraise":3151,"Ġcha":3152,"Ġcommitted":3153,"Ġassessment":3154,"Ġprecisely":3155,"Ġdeclar":3156,"Ġperfect":3157,"Ġfailed":3158,"Ġdecember":3159,"hood":3160,"never":3161,"Ġdeleg":3162,"ology":3163,"equate":3164,"Ġcity":3165,"Ġperspective":3166,"Ġchoice":3167,"Ġspeed":3168,"Ġoccas":3169,"Ġeuropeans":3170,"force":3171,"Ġuseful":3172,"Ġbuy":3173,"Ġdomestic":3174,"lands":3175,"iss":3176,"ria":3177,"Ġsectors":3178,"Ġmut":3179,"Ġenable":3180,"ivity":3181,"Ġseek":3182,"Ġdiscussed":3183,"Ġcoordination":3184,"Ġrelevant":3185,"Ġdate":3186,"Ġaccepted":3187,"Ġaffected":3188,"Ġhy":3189,"Ġenorm":3190,"Ġrelated":3191,"Ġsteps":3192,"Ġstatus":3193,"Ġunfortunately":3194,"pping":3195,"ked":3196,"Ġmiss":3197,"Ġparagraph":3198,"Ġ18":3199,"Ġactivity":3200,"Ġhappens":3201,"Ġforms":3202,"Ġdecl":3203,"yl":3204,"Ġtruth":3205,"Ġcomments":3206,"Ġhumanitarian":3207,"Ġcalls":3208,"Ġtour":3209,"Ġje":3210,"such":3211,"itable":3212,"Ġdistribut":3213,"Ġproceed":3214,"Ġcompreh":3215,"Ġboard":3216,"Ġanimal":3217,"prises":3218,"Ã©":3219,"âĢĵ":3220,"Ġplans":3221,"Ġgir":3222,"Ġcomment":3223,"ah":3224,"any":3225,"Ġdirectly":3226,"Ġscope":3227,"ature":3228,"Ġnews":3229,"Ġmedic":3230,"Ġhappening":3231,"anu":3232,"Ġfinance":3233,"Ġearlier":3234,"parliament":3235,"Ġgreece":3236,"ira":3237,"ze":3238,"ouble":3239,"Ġdealing":3240,"Ġcharact":3241,"Ġchair":3242,"Ġclosely":3243,"Ġkosovo":3244,"rest":3245,"ensus":3246,"lom":3247,"ustom":3248,"Ġign":3249,"certain":3250,"Ġjoin":3251,"Ġcontribute":3252,"cul":3253,"Ġsad":3254,"Ġult":3255,"Ġinfrastructure":3256,"Ġtable":3257,"Ġalloc":3258,"Ġblack":3259,"Ġrussian":3260,"Ġcritical":3261,"Ġsun":3262,"Ġready":3263,"Ġcaused":3264,"Ġconnection":3265,"Ġalternative":3266,"Ġ100":3267,"ob":3268,"lled":3269,"Ġrepresentatives":3270,"Ġwind":3271,"ume":3272,"aging":3273,"Ġeval":3274,"Ġclar":3275,"Ġweapons":3276,"Ġdip":3277,"Ġqual":3278,"Ġexplo":3279,"Ġ2008":3280,"Ġconcent":3281,"Ġoverall":3282,"Ġworks":3283,"Ġcondem":3284,"Ġconsiderable":3285,"Ġreceive":3286,"Ġhor":3287,"Ġauthor":3288,"Ġtyp":3289,"Ġlaunch":3290,"Ġhours":3291,"Ġdict":3292,"Ġconcept":3293,"uard":3294,"Ġunivers":3295,"Ġgoal":3296,"endit":3297,"Ġpret":3298,"Ġarri":3299,"overy":3300,"atever":3301,"Ġrelative":3302,"Ġrefuge":3303,"Ġtried":3304,"Ġobviously":3305,"ik":3306,"Ġbod":3307,"lying":3308,"set":3309,"ussels":3310,"Ġefficient":3311,"Ġunderstanding":3312,"Ġspirit":3313,"Ġbeaut":3314,"Ġorganisation":3315,"Ġaimed":3316,"Ġdifference":3317,"Ġdemands":3318,"Ġjune":3319,"Ġguidel":3320,"Ġbecame":3321,"Ġrail":3322,"Ġ198":3323,"Ġcloser":3324,"Ġmarch":3325,"Ġconstitutional":3326,"Ġenjo":3327,"Ġreferen":3328,"Ġability":3329,"Ġ2009":3330,"Ġbecoming":3331,"Ġfoot":3332,"Ġcover":3333,"Ġleading":3334,"Ġscience":3335,"itious":3336,"urally":3337,"Ġsurv":3338,"Ġhung":3339,"Ġrein":3340,"Ġlooks":3341,"Ġfinancing":3342,"Ġ$":3343,"Ġsud":3344,"Ġrepl":3345,"Ġconfirm":3346,"Ġsil":3347,"ift":3348,"Ġconsensus":3349,"Ġpenal":3350,"Ġthousands":3351,"Ġstru":3352,"Ġworse":3353,"Ġadap":3354,"Ġconvinced":3355,"Ġfre":3356,"Ġuni":3357,"Ġadministrative":3358,"Ġdefence":3359,"Ġ40":3360,"Ġenterprises":3361,"works":3362,"Ġimproved":3363,"Ġfacing":3364,"lant":3365,"Ġprison":3366,"Ġreference":3367,"Ġbehav":3368,"Ġsend":3369,"ann":3370,"Ġtravel":3371,"Ġukraine":3372,"Ġgone":3373,"Ġsex":3374,"Ġknows":3375,"Ġlaws":3376,"cup":3377,"Ġdifficulties":3378,"cle":3379,"Ġstra":3380,"Ġasking":3381,"Ġenglish":3382,"Ġdiplom":3383,"agn":3384,"Ġobtain":3385,"Ġapproved":3386,"Ġdamage":3387,"will":3388,"Ġwhite":3389,"rane":3390,"Ġship":3391,"rants":3392,"Ġpath":3393,"those":3394,"Ġspent":3395,"Ġpoliticians":3396,"ma":3397,"Ġhar":3398,"lusions":3399,"Ġprofession":3400,"dam":3401,"Ġmother":3402,"Ġnegative":3403,"Ġtechnologies":3404,"Ġdifferences":3405,"Ġblo":3406,"Ġhop":3407,"Ġround":3408,"Ġcontract":3409,"Ġmoving":3410,"Ġreligious":3411,"dra":3412,"Ġcharacter":3413,"Ġgovernance":3414,"Ġahead":3415,"Ġsafe":3416,"Ġrevolution":3417,"Ġslo":3418,"aced":3419,"Ġduty":3420,"Ġcompl":3421,"ording":3422,"Ġbush":3423,"Ġbrain":3424,"erves":3425,"olid":3426,"anuary":3427,"fact":3428,"Ġproduced":3429,"Ġfulf":3430,"Ġcompetitive":3431,"Ġappear":3432,"Ġjanuary":3433,"Ġdevelopments":3434,"Ġsufficient":3435,"Ġafghanistan":3436,"Ġbrussels":3437,"ex":3438,"Ġrightly":3439,"Ġleadership":3440,"Ġbat":3441,"Ġsitting":3442,"Ġconstant":3443,"Ġenormous":3444,"akistan":3445,"Ġproviding":3446,"Ġreduced":3447,"Ġannoun":3448,"Ġportug":3449,"his":3450,"Ġwto":3451,"Ġlu":3452,"Ġcontrary":3453,"urance":3454,"Ġphys":3455,"âĢĻ":3456,"nevertheless":3457,"mental":3458,"Ġsuperv":3459,"Ġconclude":3460,"according":3461,"Ġlog":3462,"Ġarr":3463,"Ġdollars":3464,"pol":3465,"Ġafrican":3466,"Ġundertak":3467,"Ġguidelines":3468,"isms":3469,"imin":3470,"Ġjour":3471,"Ġputting":3472,"Ġurgent":3473,"Ġpicture":3474,"Ġwall":3475,"although":3476,"Ġrepresents":3477,"ya":3478,"Ġambitious":3479,"Ġprovision":3480,"Ġplaces":3481,"ylum":3482,"Ġfil":3483,"Ġ14":3484,"ufact":3485,"Ġconclusions":3486,"vert":3487,"Ġminimum":3488,"please":3489,"Ġensuring":3490,"Ġbodies":3491,"Ġinterested":3492,"under":3493,"Ġ13":3494,"rate":3495,"up":3496,"Ġeat":3497,"Ġconsideration":3498,"Ġdimension":3499,"Ġcustom":3500,"Ġadoption":3501,"Ġimproving":3502,"Ġnetwork":3503,"Ġentirely":3504,"Ġclaim":3505,"only":3506,"Ġexpected":3507,"Ġ2010":3508,"oph":3509,"Ġlower":3510,"Ġhonourable":3511,"Ġcomprehensive":3512,"Ġcr":3513,"cers":3514,"Ġpush":3515,"Ġobst":3516,"Ġbuilt":3517,"Ġsha":3518,"unt":3519,"Ġinflation":3520,"Ġasylum":3521,"Ġcorrupt":3522,"iterrane":3523,"Ġbudge":3524,"vereign":3525,"iterranean":3526,"Ġfather":3527,"Ġspread":3528,"eguard":3529,"Ġindependence":3530,"reet":3531,"aries":3532,"ames":3533,"Ġexpendit":3534,"Ġturned":3535,"Ġmediterranean":3536,"Ġstructure":3537,"Ġsep":3538,"Ġmanufact":3539,"med":3540,"Ġspain":3541,"Ġanalysis":3542,"Ġton":3543,"Ġbegan":3544,"Ġgdp":3545,"Ġheav":3546,"Ġhands":3547,"Ġequality":3548,"Ġsovereign":3549,"Ġ2004":3550,"Ġpakistan":3551,"tember":3552,"Ġsafeguard":3553,"Ġparticipation":3554,"Ġvoice":3555,"Ġcooper":3556,"Ġirish":3557,"Ġbalanced":3558,"Ġtotally":3559,"Ġarab":3560,"istics":3561,"Ġsomeone":3562,"Ġadded":3563,"Ġitaly":3564,"Ġcombat":3565,"Ġprospect":3566,"Ġelected":3567,"Ġimmediately":3568,"Ġtre":3569,"Ġcolleague":3570,"Ġdecades":3571,"elt":3572,"erent":3573,"Ġconserv":3574,"Ġschem":3575,"Ġdemocrats":3576,"izing":3577,"Ġcandidate":3578,"Ġintervention":3579,"Ġhit":3580,"Ġnice":3581,"oman":3582,"Ġproperly":3583,"Ġcra":3584,"Ġtalks":3585,"Ġforest":3586,"Ġstaff":3587,"ender":3588,"Ġpropose":3589,"Ġcommitments":3590,"Ġpra":3591,"Ġattempt":3592,"Ġseptember":3593,"Ġ0":3594,"Ġstated":3595,"Ġsimplif":3596,"Ġgoals":3597,"Ġaverage":3598,"Ġmach":3599,"Ġbear":3600,"Ġacknow":3601,"Ġurge":3602,"Ġoccup":3603,"Ġadvantage":3604,"Ġcommercial":3605,"Ġstarting":3606,"Ġpact":3607,"icles":3608,"Ġlay":3609,"ival":3610,"Ġveh":3611,"Ġfigure":3612,"Ġsources":3613,"Ġteam":3614,"coming":3615,"Ġnone":3616,"urd":3617,"Ġgeor":3618,"Ã¶":3619,"Ġlose":3620,"Ġturk":3621,"Ġnation":3622,"Ġreact":3623,"Ġstreet":3624,"Ġapplies":3625,"Ġaccomp":3626,"Ġburden":3627,"Ġdoct":3628,"ocol":3629,"Ġspend":3630,"Ġfeed":3631,"Ġplanet":3632,"Ġexception":3633,"Ġsource":3634,"Ġlooked":3635,"Ġunf":3636,"uck":3637,"Ġlargest":3638,"ught":3639,"Ġmanaged":3640,"Ġwhom":3641,"Ġsupposed":3642,"mes":3643,"anim":3644,"ket":3645,"Ġlea":3646,"Ġcompens":3647,"entially":3648,"third":3649,"Ġsus":3650,"Ġenh":3651,"akes":3652,"Ġdisaster":3653,"Ġelements":3654,"Ġreferred":3655,"Ġpiece":3656,"Ġsolve":3657,"Ġstrongly":3658,"Ġcomplain":3659,"ene":3660,"Ġda":3661,"Ġeight":3662,"Ġrecovery":3663,"Ġimagine":3664,"yed":3665,"Ġexcess":3666,"Ġmaybe":3667,"Ġinh":3668,"ye":3669,"Ġord":3670,"Ġeverybody":3671,"Ġ2005":3672,"Ġopening":3673,"xic":3674,"Ġstock":3675,"Ġintended":3676,"Ġ2006":3677,"fr":3678,"Ġmission":3679,"Ġreducing":3680,"Ġfacilit":3681,"Ġnormal":3682,"irms":3683,"Ġmerely":3684,"Ġcalling":3685,"Ġintroduced":3686,"Ġdrawn":3687,"Ġdiscussing":3688,"ented":3689,"Ġwealth":3690,"Ġsupporting":3691,"Ġappears":3692,"Ġreferend":3693,"mine":3694,"Ġstudents":3695,"Ġmechanism":3696,"eli":3697,"ork":3698,"Ġkingdom":3699,"ills":3700,"arents":3701,"Ġbir":3702,"Ġfast":3703,"Ġintroduction":3704,"Ġfloor":3705,"atically":3706,"Ġacceptable":3707,"Ġpowerful":3708,"Ġexplan":3709,"rete":3710,"augh":3711,"Ġtransfer":3712,"Ġsetting":3713,"lus":3714,"Ġforced":3715,"Ġwithdra":3716,"aught":3717,"Ġincent":3718,"els":3719,"Ġappeal":3720,"Ġclean":3721,"from":3722,"Ġacqu":3723,"Ġbudgets":3724,"Ġseven":3725,"Ġdoor":3726,"iful":3727,"Ġhost":3728,"Ġmembership":3729,"Ġtargets":3730,"Ġtun":3731,"rep":3732,"Ġcro":3733,"des":3734,"Ġpet":3735,"Ġfif":3736,"Ġsold":3737,"Ġtransparent":3738,"ocks":3739,"Ġtruly":3740,"Ġnato":3741,"Ġvisit":3742,"Ġarrange":3743,"instead":3744,"Ġconsumption":3745,"Ġbureauc":3746,"Ġought":3747,"Ġaims":3748,"Ġemerg":3749,"Ġsanctions":3750,"lines":3751,"Ġsurpris":3752,"Ġfollowed":3753,"Ġsides":3754,"Ġoperation":3755,"Ġproducers":3756,"Ġsize":3757,"Ġadjust":3758,"Ġunable":3759,"Ġfraud":3760,"Ġsuffering":3761,"itation":3762,"Ġmeant":3763,"enced":3764,"Ġchem":3765,"Ġaccordance":3766,"Ġdetermin":3767,"Ġgreatest":3768,"Ġwoman":3769,"Ġwhatever":3770,"Ġconcrete":3771,"Ġcontinues":3772,"Ġmainly":3773,"Ġintroduce":3774,"Ġpub":3775,"Ġaddressed":3776,"Ġincor":3777,"Ġspecifically":3778,"Ġnetworks":3779,"Ġdestro":3780,"put":3781,"ulated":3782,"using":3783,"Ġresponsibilities":3784,"Ġemphasise":3785,"Ġfamilies":3786,"Ġexpenditure":3787,"uations":3788,"Ã¡":3789,"Ġbot":3790,"Ġvul":3791,"Ġachieving":3792,"Ġkorea":3793,"Ġdon":3794,"idents":3795,"Ġagencies":3796,"oking":3797,"Ġcommunic":3798,"Ġcomputer":3799,"ees":3800,"Ġunanim":3801,"Ġlines":3802,"Ġmob":3803,"Ġneither":3804,"Ġdog":3805,"Ġreply":3806,"Ġmanner":3807,"Ġprefer":3808,"Ġinformed":3809,"Ġinside":3810,"Ġdrugs":3811,"Ġdegree":3812,"oon":3813,"gypt":3814,"Ġgradu":3815,"Ġofficials":3816,"Ġspecies":3817,"Ġpromoting":3818,"Ġflexibility":3819,"Ġvision":3820,"Ġworry":3821,"Ġopposed":3822,"Ġperman":3823,"ij":3824,"Ġgame":3825,"Ġlies":3826,"Ġshared":3827,"Ġsession":3828,"Ġeyes":3829,"sy":3830,"Ġoct":3831,"Ġdream":3832,"Ġcold":3833,"Ġletter":3834,"Ġrepresentative":3835,"Ġfelt":3836,"Ġcontact":3837,"Ġcomplic":3838,"Ġcontinent":3839,"Ġamericans":3840,"Ġwait":3841,"Ġobser":3842,"Ġdesigned":3843,"Ġpublish":3844,"Ġrob":3845,"Ġmeaning":3846,"Ġvulner":3847,"Ġ16":3848,"Ġplaying":3849,"Ġsensitive":3850,"commission":3851,"Ġromania":3852,"people":3853,"Ġpretty":3854,"mas":3855,"Ġcompar":3856,"Ġtransform":3857,"Ġcarefully":3858,"Ġdeclaration":3859,"Ġcard":3860,"Ġber":3861,"Ġactual":3862,"rog":3863,"Ġrele":3864,"Ġbeautiful":3865,"Ġgod":3866,"Ġsecure":3867,"Ġhimself":3868,"Ġrunning":3869,"zy":3870,"orry":3871,"vember":3872,"Ġii":3873,"Ġnovember":3874,"Ġotherwise":3875,"Ġcauses":3876,"Ġcontains":3877,"Ġpun":3878,"arks":3879,"Ġfactor":3880,"Ġmethods":3881,"Ġmillions":3882,"Ġforth":3883,"Ġimmediate":3884,"Ġdy":3885,"Ġintention":3886,"govern":3887,"Ġfigures":3888,"Ġdelegation":3889,"Ġcancer":3890,"Ġregular":3891,"abil":3892,"Ġintegrated":3893,"Ġconstructive":3894,"lantic":3895,"Ġparents":3896,"Ġstim":3897,"Ġ17":3898,"Ġdisapp":3899,"Ġisraeli":3900,"Ġprevention":3901,"Ġengine":3902,"Ġattemp":3903,"roso":3904,"enty":3905,"Ġprosper":3906,"Ġexercise":3907,"Ġturkish":3908,"Ġder":3909,"Ġelement":3910,"Ġdefend":3911,"Ġwelcom":3912,"Ġrecognition":3913,"Ġbelg":3914,"respon":3915,"Ġresist":3916,"Ġelectric":3917,"ourage":3918,"Ġrejected":3919,"Ġsubstantial":3920,"Ġ2001":3921,"Ġleader":3922,"Ġtraditional":3923,"Ġdocuments":3924,"Ġsized":3925,"Ġstrict":3926,"Ġcontra":3927,"Ġtend":3928,"Ġtele":3929,"Ġ2003":3930,"Ġmoral":3931,"ery":3932,"Ġsho":3933,"Ġspanish":3934,"Ġlimits":3935,"Ġreferendum":3936,"Ġwid":3937,"Ġtouch":3938,"ateful":3939,"Ġinstance":3940,"Ġafford":3941,"Ġfaced":3942,"Ġcharter":3943,"ulations":3944,"Ġexec":3945,"Ġhom":3946,"ops":3947,"Ġimprovement":3948,"Ġrepeat":3949,"Ġaudit":3950,"urs":3951,"mrs":3952,"Ġserve":3953,"Ġvirt":3954,"Ġtren":3955,"nes":3956,"Ġsav":3957,"Ġcommunities":3958,"Ġsupports":3959,"Ġdesire":3960,"Ġresolve":3961,"Ġlargely":3962,"cl":3963,"stood":3964,"Ġparliaments":3965,"Ġinsist":3966,"perhaps":3967,"Ġmusl":3968,"tic":3969,"Ġdisch":3970,"Ġkept":3971,"Ġstructures":3972,"Ġsubsidies":3973,"Ġdealt":3974,"Ġ1999":3975,"Ġdeliver":3976,"ober":3977,"another":3978,"Ġegypt":3979,"Ġarms":3980,"Ġcars":3981,"Ġcombating":3982,"Ġcouple":3983,"Ġoctober":3984,"Ġhot":3985,"Ġyork":3986,"Ġattacks":3987,"fare":3988,"viet":3989,"Ġstuff":3990,"Ġtarget":3991,"Ġstrugg":3992,"commissioner":3993,"Ġinvestments":3994,"Ġrecognise":3995,"Ġmechanisms":3996,"Ġgeneration":3997,"Ġwaiting":3998,"Ġglad":3999,"Ġdiversity":4000,"agen":4001,"Ġsigned":4002,"Ġwishes":4003,"Ġobstac":4004,"Ġimplementing":4005,"Ġcorruption":4006,"ateg":4007,"Ġpointed":4008,"Ġintellig":4009,"Ġpoland":4010,"Ġexports":4011,"Ġcontinuing":4012,"Ġlabor":4013,"Ġchamber":4014,"Ġuns":4015,"Ġcoal":4016,"Ġfactors":4017,"Ġlearned":4018,"Ġemerging":4019,"Ġobama":4020,"Ġyourself":4021,"Ġseeing":4022,"Ġcontinued":4023,"Ġexamples":4024,"Ġrefugees":4025,"br":4026,"Ġ2002":4027,"Ġindividuals":4028,"Ġrange":4029,"Ġsoviet":4030,"Ġpasseng":4031,"Ġdeficit":4032,"Ġpan":4033,"Ġbon":4034,"Ġplayed":4035,"Ġitalian":4036,"enh":4037,"Ġfire":4038,"Ġprotocol":4039,"Ġfederal":4040,"Ġtourism":4041,"Ġeasier":4042,"may":4043,"Ġpill":4044,"illed":4045,"Ġcarbon":4046,"Ġpractices":4047,"Ġautom":4048,"orary":4049,"Ġstake":4050,"Ġlaid":4051,"Ġcredibility":4052,"Ġpositions":4053,"Ġarrest":4054,"Ġrapporteurs":4055,"Ġbringing":4056,"Ġgreek":4057,"Ġdefinition":4058,"ladies":4059,"Ġwritten":4060,"Ġassemb":4061,"inary":4062,"Ġcateg":4063,"Ġgrateful":4064,"Ġhonest":4065,"Ġattract":4066,"Ġstrength":4067,"Ġdynam":4068,"Ġok":4069,"Ġsave":4070,"Ġseries":4071,"Ġengage":4072,"mos":4073,"ta":4074,"who":4075,"Ġchanging":4076,"Ġterrorist":4077,"Ġmutual":4078,"mark":4079,"iny":4080,"Ġ21":4081,"Ġbasically":4082,"Ġsett":4083,"Ġ2020":4084,"sibly":4085,"fe":4086,"nic":4087,"itch":4088,"Ġextend":4089,"Ġpayments":4090,"Ġconver":4091,"tedly":4092,"Ġspeakers":4093,"Ġsweden":4094,"Ġtro":4095,"Ġcities":4096,"Ġsymb":4097,"Ġfeeling":4098,"Ġdomin":4099,"Ġsubsidi":4100,"Ġrenewable":4101,"Ġsoft":4102,"Ġky":4103,"ana":4104,"ables":4105,"Ġmax":4106,"Ġpopular":4107,"Ġ60":4108,"Ġstrengthening":4109,"Ġterri":4110,"Ġnorthern":4111,"Ġkinds":4112,"Ġadvoc":4113,"Ġbarri":4114,"Ġfighting":4115,"Ġmassive":4116,"rs":4117,"Ġbound":4118,"Ġpartner":4119,"Ġoriginal":4120,"Ġdrink":4121,"Ġmandate":4122,"Ġfine":4123,"Ġincludes":4124,"Ġpassed":4125,"Ġbom":4126,"Ġresolutions":4127,"Ġelimin":4128,"Ġcheck":4129,"Ġhous":4130,"Ġattitude":4131,"Ġoption":4132,"Ġmusic":4133,"Ġrecommendations":4134,"oin":4135,"Ġstatements":4136,"Ġbase":4137,"Ġhelped":4138,"Ġlatin":4139,"Ġconsultation":4140,"Ġcode":4141,"Ġwo":4142,"Ġunderstood":4143,"Ġminority":4144,"Ġmeps":4145,"Ġgrand":4146,"Ġbecomes":4147,"iers":4148,"Ġadequate":4149,"sequently":4150,"Ġkids":4151,"bit":4152,"vered":4153,"Ġchristian":4154,"Ġheads":4155,"Ġloss":4156,"thirdly":4157,"Ġbill":4158,"Ġcondition":4159,"Ġhur":4160,"thus":4161,"Ġexpression":4162,"Ġtaxes":4163,"going":4164,"Ġsymbol":4165,"matic":4166,"Ġthor":4167,"Ġcourage":4168,"road":4169,"Ġvotes":4170,"ites":4171,"Ġfix":4172,"Ġcompe":4173,"Ġimplic":4174,"Ġtreaties":4175,"prise":4176,"oses":4177,"Ġproportion":4178,"Ġphil":4179,"Ġestablishment":4180,"Ġregulatory":4181,"despite":4182,"zil":4183,"Ġlisten":4184,"Ġgenerally":4185,"Ġlinked":4186,"Ġrid":4187,"Ġdebates":4188,"Ġfuel":4189,"Ġcub":4190,"Ġjuly":4191,"Ġremark":4192,"Ġbarroso":4193,"ony":4194,"Ġsto":4195,"Ġbritain":4196,"Ġwithdraw":4197,"etic":4198,"Ġacts":4199,"enhagen":4200,"zone":4201,"Ġinsurance":4202,"Ġeasily":4203,"Ġlanguages":4204,"Ġsorry":4205,"ingly":4206,"Ġforg":4207,"Ġincred":4208,"Ġclosed":4209,"Ġdraf":4210,"Ġplanning":4211,"tur":4212,"Ġpoore":4213,"Ġsubmitted":4214,"Ġphot":4215,"Ġabol":4216,"Ġadapt":4217,"imb":4218,"Ġ27":4219,"Ġcovered":4220,"Ġgets":4221,"Ġdirectives":4222,"Ġdischarge":4223,"50":4224,"assion":4225,"iling":4226,"Ġut":4227,"Ġwelfare":4228,"Ġchoose":4229,"Ġreven":4230,"inding":4231,"Ġsmes":4232,"Ġpatients":4233,"pret":4234,"ote":4235,"pir":4236,"asters":4237,"ade":4238,"Ġnumbers":4239,"Ġequally":4240,"raid":4241,"Ġpresence":4242,"Ġtelev":4243,"Ġevening":4244,"ground":4245,"Ġdig":4246,"aking":4247,"Ġspok":4248,"Ġcontrols":4249,"Ġmistake":4250,"Ġcriticism":4251,"Ġfrequ":4252,"Ġafraid":4253,"Ġaccident":4254,"Ġrising":4255,"Ġestablishing":4256,"Ġobserv":4257,"Ġincorpor":4258,"Ġuncertain":4259,"appe":4260,"Ġbalk":4261,"Ġtrading":4262,"Ġknew":4263,"Ġprotest":4264,"Ġconstruction":4265,"Ġsignal":4266,"Ġdrive":4267,"Ġchemical":4268,"Ġprove":4269,"Ġmedical":4270,"Ġlearning":4271,"Ġpermanent":4272,"hn":4273,"Ġemployees":4274,"Ġconflicts":4275,"Ġrepeated":4276,"ronic":4277,"sk":4278,"Ġunlike":4279,"ruit":4280,"Ġcult":4281,"Ġeye":4282,"Ġmem":4283,"Ġtackle":4284,"Ġpeop":4285,"Ġbiggest":4286,"Ġlarger":4287,"Ġcondemn":4288,"Ġdie":4289,"Ġglobalisation":4290,"Ġcorpor":4291,"Ġbooks":4292,"ken":4293,"Ġimf":4294,"Ġidentity":4295,"Ġquant":4296,"Ġelector":4297,"Ġguarantees":4298,"Ġbelong":4299,"Ġpeoples":4300,"Ġspoke":4301,"Ġboy":4302,"Ġobligations":4303,"Ġkilled":4304,"Ġoce":4305,"Ġinvestors":4306,"Ġnaturally":4307,"Ġurban":4308,"Ġdiseases":4309,"both":4310,"Ġappreciate":4311,"bor":4312,"di":4313,"hib":4314,"Ġconsolid":4315,"Ġtrain":4316,"Ġexperts":4317,"Ġoccasion":4318,"Ġseeking":4319,"Ġmeetings":4320,"Ġrelatively":4321,"Ġvulnerable":4322,"Ġtelevision":4323,"Ġbilateral":4324,"Ġdecis":4325,"Ġreasonable":4326,"Ġprofessional":4327,"Ġblood":4328,"Ġlux":4329,"Ġgeorg":4330,"andon":4331,"Ġsocialist":4332,"Ġ197":4333,"Ġtechnological":4334,"Ġcopenhagen":4335,"Ġlegitim":4336,"cast":4337,"Ġgender":4338,"right":4339,"Ġvast":4340,"Ġcareful":4341,"Ġpension":4342,"Ġtrafficking":4343,"Ġsevere":4344,"Ġsole":4345,"Ġprotecting":4346,"Ġjapanese":4347,"your":4348,"orse":4349,"Ġseparate":4350,"ril":4351,"Ġng":4352,"Ġgranted":4353,"Ġbelar":4354,"Ġarch":4355,"Ġsituations":4356,"Ġhelping":4357,"Ġreaching":4358,"Ġfirms":4359,"eties":4360,"Ġabandon":4361,"ience":4362,"Ġpeaceful":4363,"ding":4364,"Ġbrings":4365,"tw":4366,"Ġexists":4367,"Ġliberalisation":4368,"Ġrout":4369,"Ġcompared":4370,"Ġblock":4371,"Ġexpectations":4372,"Ġbelarus":4373,"kes":4374,"Ġplant":4375,"Ġexpand":4376,"ratic":4377,"Ġinvolvement":4378,"Ġsubsidiarity":4379,"Ġalliance":4380,"Ġdisappe":4381,"Ġamaz":4382,"Ġphen":4383,"Ġstudies":4384,"Ġswedish":4385,"Ġimposed":4386,"Ġstronger":4387,"Ġparticipate":4388,"Ġpollution":4389,"Ġperformance":4390,"wide":4391,"Ġtown":4392,"umer":4393,"Ġstanding":4394,"Ġdecade":4395,"Ġren":4396,"Ġusually":4397,"Ġcoast":4398,"Ġ1990":4399,"Ġassembly":4400,"Ġphenomen":4401,"Ġbos":4402,"Ġworst":4403,"Ġarmy":4404,"rant":4405,"Ġstable":4406,"Ġdispl":4407,"Ġapril":4408,"Ġpleas":4409,"Ġbrazil":4410,"Ġultimately":4411,"Ġthorough":4412,"once":4413,"Ġanswers":4414,"Ġdefinite":4415,"Ġapproval":4416,"Ġminorities":4417,"Ġendorse":4418,"Ġattach":4419,"Ġallows":4420,"Ġsummer":4421,"Ġsport":4422,"Ġwrite":4423,"Ġexclud":4424,"ifying":4425,"abor":4426,"Ġairp":4427,"Ġsudden":4428,"Ġang":4429,"Ġdelight":4430,"Ġunless":4431,"Ġagg":4432,"Ġapparent":4433,"Ġmobility":4434,"Ġassociated":4435,"enary":4436,"Ġtoler":4437,"Ġinev":4438,"Ġplants":4439,"Ġdriving":4440,"sterdam":4441,"Ġcomplicated":4442,"ties":4443,"Ġice":4444,"Ġnether":4445,"Ġexpensive":4446,"Ġspring":4447,"Ġentit":4448,"Ġresolved":4449,"Ġinspect":4450,"Ġcrimes":4451,"Ġelsewhere":4452,"Ġ80":4453,"hol":4454,"rich":4455,"Ġintend":4456,"Ġinterpret":4457,"Ġfinding":4458,"Ġnearly":4459,"Ġterritory":4460,"pres":4461,"Ġinad":4462,"Ġisol":4463,"osp":4464,"Ġinitial":4465,"Ġimprovements":4466,"Ġecb":4467,"Ġconsistent":4468,"Ġcells":4469,"Ġnetherlands":4470,"Ġcentre":4471,"ney":4472,"standing":4473,"Ġestim":4474,"Ġsignificantly":4475,"given":4476,"Ġsqu":4477,"Ġvolunt":4478,"Ġremarks":4479,"Ġcapable":4480,"Ġsocieties":4481,"Ġschools":4482,"Ġislamic":4483,"garia":4484,"gment":4485,"itution":4486,"ressive":4487,"Ġelectricity":4488,"Ġx":4489,"Ġbinding":4490,"Ġshar":4491,"Ġcitizen":4492,"Ġorganised":4493,"Ġstatistics":4494,"Ġplaced":4495,"Ġcollective":4496,"Ġbirth":4497,"iar":4498,"nia":4499,"ison":4500,"Ġtob":4501,"Ġamsterdam":4502,"Ġplenary":4503,"Ġpolitically":4504,"Ġbanking":4505,"Ġborn":4506,"Ġfunctioning":4507,"Ġhundreds":4508,"Ġdefined":4509,"Ġexistence":4510,"Ġradical":4511,"mar":4512,"Ġexe":4513,"Ġdepends":4514,"Ġassociation":4515,"Ġargument":4516,"Ġevaluation":4517,"Ġcatch":4518,"Ġcommittees":4519,"Ġrestruct":4520,"Ġuniversal":4521,"Ġenjoy":4522,"Ġarrangements":4523,"Ġdign":4524,"Ġconce":4525,"their":4526,"Ġsomewhat":4527,"Ġpromotion":4528,"prus":4529,"during":4530,"cious":4531,"Ġenforce":4532,"Ġtalked":4533,"Ġoptim":4534,"Ġemphasis":4535,"nal":4536,"Ġremo":4537,"Ġsmaller":4538,"Ġimmigrants":4539,"Ġcore":4540,"ancing":4541,"Ġmic":4542,"engen":4543,"Ġsell":4544,"Ġprotected":4545,"Ġcompetence":4546,"Ġdied":4547,"leep":4548,"Ġweight":4549,"Ġoffers":4550,"have":4551,"Ġadvert":4552,"Ġimage":4553,"Ġprimarily":4554,"Ġaccounts":4555,"Ġtasks":4556,"look":4557,"Ġorganization":4558,"does":4559,"Ġarguments":4560,"Ġsavings":4561,"Ġcast":4562,"Ġbab":4563,"lection":4564,"Ġentry":4565,"Ġreligion":4566,"Ġmaterials":4567,"Ġprosperity":4568,"itness":4569,"enth":4570,"Ġfacts":4571,"Ġvari":4572,"without":4573,"Ġoperate":4574,"Ġdemonstrated":4575,"Ġamounts":4576,"Ġjustified":4577,"Ġworldwide":4578,"Ġbelief":4579,"Ġleads":4580,"Ġpersonally":4581,"Ġabsence":4582,"Ġoperations":4583,"Ġencouraging":4584,"ulating":4585,"Ġeurozone":4586,"Ġsurve":4587,"Ġcontributions":4588,"Ġgal":4589,"Ġquar":4590,"Ġhighest":4591,"Ġtreated":4592,"Ġlabe":4593,"Ġpattern":4594,"Ġdutch":4595,"Ġbulgaria":4596,"Ġdetermined":4597,"Ġpul":4598,"Ġdark":4599,"Ġgaz":4600,"Ġproved":4601,"actory":4602,"Ġsouthern":4603,"Ġcyprus":4604,"Ġlegitimate":4605,"did":4606,"onia":4607,"Ġmoun":4608,"Ġretain":4609,"Ġparal":4610,"Ġschengen":4611,"Ġrecognised":4612,"Ġemergency":4613,"Ġspoken":4614,"nor":4615,"Ġslight":4616,"Ġgeograph":4617,"Ġdetailed":4618,"Ġextraordin":4619,"Ġstraight":4620,"apse":4621,"Ġproposing":4622,"Ġdepart":4623,"Ġmigration":4624,"Ġdistribution":4625,"Ġscheme":4626,"Ġshowed":4627,"Ġkeeping":4628,"Ġauditors":4629,"Ġreli":4630,"Ġfaith":4631,"Ġproposes":4632,"Ġtransition":4633,"Ġtaxation":4634,"Ġdemonstrate":4635,"Ġrestrictions":4636,"Ġvehicles":4637,"Ġproc":4638,"Ġintergovern":4639,"Ġadvance":4640,"Ġportugal":4641,"usion":4642,"Ġcz":4643,"Ġbeings":4644,"Ġfavor":4645,"Ġpersons":4646,"Ġzone":4647,"Ġtools":4648,"Ġintergovernmental":4649,"cks":4650,"Ġprimary":4651,"ointed":4652,"Ġinvolving":4653,"Ġtemporary":4654,"sych":4655,"Ġcam":4656,"Ġpsych":4657,"Ġfort":4658,"Ġacce":4659,"Ġopposite":4660,"Ġshape":4661,"bur":4662,"Ġextended":4663,"Ġapart":4664,"Ġversion":4665,"Ġeventually":4666,"Ġbarriers":4667,"Ġmag":4668,"Ġfat":4669,"Ġreve":4670,"Ġsomebody":4671,"Ġannounced":4672,"pay":4673,"ugh":4674,"uable":4675,"ley":4676,"ilst":4677,"Ġvig":4678,"ishing":4679,"Ġprior":4680,"Ġstands":4681,"Ġfocused":4682,"Ġproperty":4683,"Ġdescribed":4684,"Ġtypes":4685,"Ġcompensation":4686,"Ġpick":4687,"Ġuniversity":4688,"Ġprem":4689,"comm":4690,"Ġamongst":4691,"Ġflexible":4692,"bru":4693,"vest":4694,"Ġpure":4695,"Ġheavy":4696,"rees":4697,"Ġball":4698,"Ġpromise":4699,"Ġadvanced":4700,"Ġnegotiating":4701,"Ġholding":4702,"Ġintellect":4703,"rain":4704,"overed":4705,"bing":4706,"rated":4707,"Ġhosp":4708,"agree":4709,"Ġequip":4710,"Ġrapidly":4711,"Ġboost":4712,"Ġrespected":4713,"ondon":4714,"Ġlatter":4715,"Ġethnic":4716,"Ġwalk":4717,"Ġlegitimacy":4718,"ee":4719,"acco":4720,"emic":4721,"Ġliter":4722,"Ġjudicial":4723,"Ġwonderful":4724,"ient":4725,"orial":4726,"Ġnos":4727,"adow":4728,"Ġimpose":4729,"Ġlatest":4730,"Ġpursue":4731,"200":4732,"ming":4733,"Ġimports":4734,"Ġminute":4735,"Ġdelighted":4736,"Ġczech":4737,"bruary":4738,"Ġguaranteed":4739,"Ġoptions":4740,"hr":4741,"uds":4742,"ressed":4743,"Ġmoved":4744,"Ġconstantly":4745,"president":4746,"would":4747,"Ġreb":4748,"Ġdisasters":4749,"Ġfebruary":4750,"Ġformal":4751,"Ġhealthy":4752,"Ġindustries":4753,"Ġopinions":4754,"ero":4755,"Ġmac":4756,"Ġcomply":4757,"Ġblue":4758,"Ġsubstances":4759,"Ġhistorical":4760,"Ġbehavior":4761,"Ġjournal":4762,"Ġmaximum":4763,"Ġhospital":4764,"econom":4765,"pro":4766,"Ġwitness":4767,"Ġnar":4768,"Ġrecession":4769,"Ġstabil":4770,"Ġmexic":4771,"Ġovercome":4772,"Ġaids":4773,"Ġmilk":4774,"Ġ500":4775,"Ġfreedoms":4776,"Ġconcluded":4777,"Ġrecommendation":4778,"Ġdouble":4779,"Ġdistin":4780,"Ġppe":4781,"uted":4782,"Ġmeat":4783,"Ġwash":4784,"Ġoffered":4785,"Ġcommunist":4786,"Ġdignity":4787,"Ġthrow":4788,"Ġsac":4789,"ife":4790,"Ġcenter":4791,"Ġtradition":4792,"Ġpi":4793,"Ġoral":4794,"Ġadopting":4795,"Ġplayers":4796,"Ġallowing":4797,"Ġphase":4798,"Ġbaltic":4799,"Ġmanufacture":4800,"Ġpublished":4801,"Ġcontradict":4802,"uous":4803,"ari":4804,"iced":4805,"iliation":4806,"roud":4807,"Ġmark":4808,"Ġfirstly":4809,"Ġassume":4810,"Ġadvice":4811,"Ġmultilateral":4812,"Ġsecretary":4813,"idge":4814,"Ġcommissioners":4815,"Ġeffectiveness":4816,"Ġ1998":4817,"Ġtobacco":4818,"oo":4819,"onom":4820,"itime":4821,"Ġproducing":4822,"Ġscand":4823,"Ġcele":4824,"Ġskills":4825,"tin":4826,"Ġson":4827,"Ġtoward":4828,"Ġstories":4829,"rif":4830,"Ġasian":4831,"Ġincreases":4832,"areness":4833,"Ġobligation":4834,"Ġinequ":4835,"Ġ24":4836,"Ġcompon":4837,"Ġmargin":4838,"Ġvoluntary":4839,"ato":4840,"Ġye":4841,"Ġran":4842,"Ġrig":4843,"Ġpreced":4844,"Ġguy":4845,"Ġinvolves":4846,"oubtedly":4847,"Ġpalestinians":4848,"ingu":4849,"Ġeverywhere":4850,"Ġpromised":4851,"Ġsurround":4852,"Ġcustoms":4853,"Ġincentives":4854,"gence":4855,"resh":4856,"Ġsearch":4857,"Ġvill":4858,"cons":4859,"Ġstrategies":4860,"Ġhistoric":4861,"Ġvice":4862,"Ġlie":4863,"Ġmaritime":4864,"Ġelectronic":4865,"Ġdetermination":4866,"could":4867,"emb":4868,"Ġsight":4869,"Ġfaster":4870,"Ġputin":4871,"Ġtaxpay":4872,"Ġfirmly":4873,"Ġchairman":4874,"Ġdiplomatic":4875,"Ġfacilitate":4876,"Ġdecisive":4877,"lined":4878,"ware":4879,"Ġswe":4880,"ays":4881,"abilities":4882,"Ġpossibly":4883,"Ġpurch":4884,"Ġawareness":4885,"Ġdestruction":4886,"vak":4887,"Ġwine":4888,"Ġfit":4889,"oto":4890,"Ġcontrast":4891,"Ġdeeply":4892,"Ġperfectly":4893,"Ġexplanation":4894,"china":4895,"Ġrecall":4896,"Ġexcessive":4897,"Ġintellectual":4898,"face":4899,"Ġtheory":4900,"Ġmc":4901,"rote":4902,"amed":4903,"Ġcompliance":4904,"izations":4905,"Ġpredict":4906,"Ġdecline":4907,"Ġtraged":4908,"Ġroma":4909,"Ġdetails":4910,"Ġfulfil":4911,"ai":4912,"Ġbeg":4913,"Ġnoted":4914,"Ġrac":4915,"Ġaftern":4916,"Ġexpert":4917,"Ġbriefly":4918,"eff":4919,"Ġos":4920,"Ġmatch":4921,"ada":4922,"Ġgold":4923,"Ġthereby":4924,"ards":4925,"Ġinclusion":4926,"Ġdrawing":4927,"Ġfriendly":4928,"Ġreplace":4929,"Ġphysical":4930,"Ġcooperate":4931,"Ġbottom":4932,"Ġentitled":4933,"inc":4934,"Ġproud":4935,"rian":4936,"anda":4937,"Ġvia":4938,"Ġopened":4939,"Ġhearing":4940,"Ġcollapse":4941,"through":4942,"ourg":4943,"anging":4944,"Ġassure":4945,"Ġcrises":4946,"Ġsustainability":4947,"umb":4948,"Ġcuts":4949,"umerous":4950,"none":4951,"Ġwrote":4952,"Ġomb":4953,"Ġflight":4954,"Ġleban":4955,"Ġprofit":4956,"Ġgirl":4957,"Ġallocated":4958,"Ġlabelling":4959,"Ġombuds":4960,"Ġbed":4961,"Ġtransl":4962,"Ġblame":4963,"lder":4964,"Ġsatisfied":4965,"Ġgeorgia":4966,"Ġafternoon":4967,"Ġreaction":4968,"Ġyouth":4969,"Ġended":4970,"Ġscen":4971,"Ġchoices":4972,"bourg":4973,"Ġgrounds":4974,"Ġlaunched":4975,"Ġforthcoming":4976,"ws":4977,"asbourg":4978,"Ġbelieves":4979,"lastly":4980,"Ġluxemb":4981,"Ġfruit":4982,"Ġlived":4983,"Ġusa":4984,"Ġradio":4985,"Ġtough":4986,"Ġnobody":4987,"Ġmov":4988,"Ġrelates":4989,"Ġspeaker":4990,"Ġ1997":4991,"Ġsuffer":4992,"Ġexamine":4993,"Ġocean":4994,"30":4995,"Ġongoing":4996,"Ġstrasbourg":4997,"Ġfarming":4998,"Ġpatient":4999,"Ġaustria":5000,"Ġundoubtedly":5001,"Ġsexual":5002,"har":5003,"Ġabuse":5004,"Ġdisagree":5005,"Ġincom":5006,"ception":5007,"Ġcreates":5008,"Ġshowing":5009,"Ġplanned":5010,"Ġrepresented":5011,"Ġordinary":5012,"Ġobstacles":5013,"adv":5014,"ifications":5015,"Ġdetermine":5016,"Ġsuggested":5017,"Ġdictators":5018,"Ġimplications":5019,"Ġtit":5020,"Ġmath":5021,"osen":5022,"Ġdispos":5023,"Ġbelow":5024,"Ġabstain":5025,"Ġsubmit":5026,"Ġemot":5027,"european":5028,"Ġreconst":5029,"ball":5030,"Ġprosec":5031,"Ġvide":5032,"Ġspect":5033,"Ġvaluable":5034,"Ġterrible":5035,"Ġrestructuring":5036,"Ġequipment":5037,"Ġhus":5038,"asing":5039,"reneur":5040,"Ġundermin":5041,"Ġprocesses":5042,"Ġnecessarily":5043,"Ġjudge":5044,"repreneur":5045,"Ġluxembourg":5046,"Ġserbia":5047,"necess":5048,"ength":5049,"Ġsovereignty":5050,"Ġshift":5051,"Ġacting":5052,"Ġroot":5053,"Ġbackground":5054,"Ġessentially":5055,"Ġhardly":5056,"Ġleaving":5057,"Ġgap":5058,"Ġnotice":5059,"Ġabroad":5060,"Ġacp":5061,"Ġdism":5062,"Ġbox":5063,"Ġmonop":5064,"Ġrealistic":5065,"Ġurgently":5066,"bes":5067,"Ġali":5068,"Ġpresidential":5069,"Ġpref":5070,"Ġ70":5071,"Ġwidely":5072,"Ġdependent":5073,"Ġkyoto":5074,"Ġbalkans":5075,"Ġecu":5076,"Ġreserve":5077,"Ġteacher":5078,"Ġtroops":5079,"Ġdefinitely":5080,"Ġtrouble":5081,"Ġevolution":5082,"Ġentrepreneur":5083,"iction":5084,"Ġwars":5085,"Ġsignificance":5086,"Ġoperating":5087,"Ġturns":5088,"Ġep":5089,"iles":5090,"Ġexperienced":5091,"Ġargue":5092,"Ġstrengthened":5093,"Ġcontained":5094,"Ġwelcomed":5095,"two":5096,"economic":5097,"Ġisland":5098,"Ġrestric":5099,"Ġsupplement":5100,"Ġrecognize":5101,"Ġwider":5102,"yle":5103,"Ġnumerous":5104,"Ġsugar":5105,"Ġpartly":5106,"Ġapprove":5107,"Ġdaily":5108,"Ġombudsman":5109,"gic":5110,"isory":5111,"Ġprohib":5112,"Ġunnecess":5113,"Ġtrack":5114,"Ġvan":5115,"Ġfollows":5116,"Ġment":5117,"Ġchosen":5118,"Ġvoters":5119,"Ġprepare":5120,"Ġpurposes":5121,"Ġharmonisation":5122,"Ġsensible":5123,"Ġimpression":5124,"Ġarmed":5125,"Ġgreatly":5126,"Ġpayment":5127,"Ġcoordinated":5128,"Ġinnovative":5129,"ox":5130,"Ġsleep":5131,"Ġchann":5132,"Ġlesson":5133,"aughter":5134,"Ġtight":5135,"Ġremove":5136,"Ġinterven":5137,"Ġlessons":5138,"Ġmistakes":5139,"Ġunique":5140,"atures":5141,"ancy":5142,"irect":5143,"Ġanybody":5144,"Ġconstitu":5145,"Ġfoundation":5146,"Ġreflects":5147,"Ġaccompan":5148,"amb":5149,"Ġshadow":5150,"Ġrational":5151,"Ġnevertheless":5152,"Ġsurely":5153,"Ġera":5154,"Ġprospects":5155,"Ġtrend":5156,"Ġfal":5157,"ung":5158,"Ġprize":5159,"Ġpatent":5160,"Ġsubstance":5161,"Ġscientists":5162,"Ġsupervision":5163,"Ġadmit":5164,"Ġinfect":5165,"Ġrequirement":5166,"Ġvisa":5167,"Ġrequested":5168,"Ġcollabor":5169,"Ġbattle":5170,"Ġforgot":5171,"gen":5172,"gra":5173,"Ġted":5174,"Ġwat":5175,"Ġhol":5176,"Ġves":5177,"Ġreserv":5178,"astic":5179,"Ġbuildings":5180,"Ġsuffered":5181,"Ġbehavi":5182,"Ġacknowledge":5183,"Ġmuslim":5184,"Ġpoorest":5185,"Ġlic":5186,"Ġlength":5187,"Ġsum":5188,"Ġoccasions":5189,"Ġsurprised":5190,"Ġgaza":5191,"back":5192,"Ġstocks":5193,"Ġchap":5194,"Ġpolish":5195,"teen":5196,"Ġappoint":5197,"Ġzero":5198,"regard":5199,"Ġpenalty":5200,"Ġhopes":5201,"Ġstruggle":5202,"sub":5203,"ula":5204,"Ġpresidents":5205,"Ġ196":5206,"Ġpaying":5207,"Ġidentified":5208,"Ġassets":5209,"Ġsucceeded":5210,"Ġdeficits":5211,"Ġmos":5212,"oms":5213,"Ġrain":5214,"Ġprevail":5215,"Ġuniverse":5216,"Ġunfair":5217,"car":5218,"her":5219,"Ġcry":5220,"Ġlondon":5221,"urch":5222,"Ġunif":5223,"Ġrh":5224,"Ġconciliation":5225,"Ġfamiliar":5226,"Ġadvertising":5227,"care":5228,"Ġimb":5229,"Ġrevision":5230,"Ġurgency":5231,"Ġphenomenon":5232,"nel":5233,"Ġsymp":5234,"Ġcorrespon":5235,"Ġdoctor":5236,"lav":5237,"Ġmap":5238,"oud":5239,"Ġhamas":5240,"Ġalban":5241,"Ġfrank":5242,"Ġviolations":5243,"Ġfields":5244,"Ġmountain":5245,"similar":5246,"icip":5247,"Ġrelie":5248,"Ġdeserves":5249,"Ġtrial":5250,"Ġslovak":5251,"Ġmachine":5252,"uel":5253,"Ġspl":5254,"Ġsuffici":5255,"Ġngos":5256,"Ġpersu":5257,"Ġlosses":5258,"encing":5259,"uls":5260,"phere":5261,"Ġ90":5262,"Ġclarify":5263,"Ġpillar":5264,"Ġnine":5265,"Ġdecent":5266,"Ġthreats":5267,"Ġcroat":5268,"Ġsharing":5269,"Ġoperational":5270,"Ġdynamic":5271,"Ġextraordinary":5272,"itect":5273,"Ġforum":5274,"Ġdefine":5275,"Ġdifficulty":5276,"Ġpreventing":5277,"Ġsister":5278,"Ġbought":5279,"Ġnig":5280,"Ġreiter":5281,"Ġimportantly":5282,"ibet":5283,"Ġexclus":5284,"Ġterritorial":5285,"Ġsharp":5286,"Ġsusp":5287,"ets":5288,"abling":5289,"Ġdisadv":5290,"Ġtests":5291,"Ġsentence":5292,"Ġpreparing":5293,"Ġdisadvant":5294,"Ġcaught":5295,"oring":5296,"Ġprodi":5297,"Ġextension":5298,"Ġidentify":5299,"Ġreflected":5300,"Ġwindow":5301,"Ġcamer":5302,"down":5303,"rew":5304,"Ġrecip":5305,"Ġcharge":5306,"Ġmodels":5307,"Ġod":5308,"Ġ23":5309,"Ġpossibilities":5310,"Ġhousehold":5311,"Ġsuccessfully":5312,"Ġborrow":5313,"Ġcoherent":5314,"cape":5315,"Ġarchitect":5316,"Ġash":5317,"Ġarm":5318,"licit":5319,"Ġfeet":5320,"Ġlots":5321,"Ġreliable":5322,"son":5323,"Ġet":5324,"Ġhungarian":5325,"Ġprisoners":5326,"Ġstem":5327,"Ġdeals":5328,"Ġwarming":5329,"Ġarrived":5330,"Ġacknowled":5331,"ax":5332,"ba":5333,"pread":5334,"ulf":5335,"iring":5336,"unity":5337,"consequently":5338,"Ġraising":5339,"idespread":5340,"Ġaddressing":5341,"Ġcheap":5342,"viously":5343,"Ġgirls":5344,"zer":5345,"Ġfresh":5346,"Ġinj":5347,"Ġunity":5348,"Ġseat":5349,"oslav":5350,"Ġsyria":5351,"Ġdefense":5352,"Ġclaims":5353,"Ġdeclared":5354,"Ġmedicine":5355,"Ġexecut":5356,"Ġmexico":5357,"Ġtar":5358,"Ġmix":5359,"Ġfer":5360,"osoph":5361,"Ġimper":5362,"Ġaccur":5363,"Ġpromises":5364,"comp":5365,"ibly":5366,"Ġ2011":5367,"holders":5368,"Ġfly":5369,"Ġflu":5370,"active":5371,"Ġinterf":5372,"ugoslav":5373,"Ġcandidates":5374,"Ġsettlement":5375,"Ġhousing":5376,"Ġol":5377,"Ġtopic":5378,"Ġtragedy":5379,"old":5380,"Ġtibet":5381,"Ġwidespread":5382,"Ġtwenty":5383,"Ġextensive":5384,"Ġolder":5385,"Ġ2013":5386,"Ġelectoral":5387,"Ġpleasure":5388,"Ġreconstruction":5389,"Ġreass":5390,"Ġregist":5391,"Ġconsidering":5392,"Ġcharges":5393,"Ġconcentrate":5394,"Ġdisposal":5395,"Ġsympath":5396,"wan":5397,"Ġbreat":5398,"Ġrely":5399,"Ġexceed":5400,"Ġdiscip":5401,"Ġexpan":5402,"Ġdepth":5403,"Ġsurprise":5404,"Ġblind":5405,"Ġtelling":5406,"Ġviolent":5407,"Ġoccurred":5408,"Ġfem":5409,"Ġstation":5410,"Ġselect":5411,"umed":5412,"Ġproductivity":5413,"Ġfairly":5414,"Ġmobil":5415,"Ġamazing":5416,"Ġwife":5417,"Ġmine":5418,"Ġyugoslav":5419,"Ġsets":5420,"Ġusers":5421,"Ġdiscovered":5422,"Ġphone":5423,"Ġbrother":5424,"Ġfourth":5425,"Ġaffects":5426,"Ġwillingness":5427,"Ġmissing":5428,"Ġmedicines":5429,"Ġfilm":5430,"Ġphilosoph":5431,"Ġuniform":5432,"Ġdump":5433,"Ġaside":5434,"Ġscot":5435,"Ġinfring":5436,"Ġappropriations":5437,"Ġmaintaining":5438,"Ġflag":5439,"Ġflood":5440,"Ġconfirmed":5441,"pts":5442,"Ġcrow":5443,"asm":5444,"Ġtimet":5445,"Ġexplicit":5446,"Ġopenness":5447,"Ġvictory":5448,"Ġconducted":5449,"Ġreveal":5450,"ault":5451,"Ġdin":5452,"Ġstick":5453,"which":5454,"Ġnewsp":5455,"Ġsyn":5456,"Ġaccidents":5457,"Ġdebating":5458,"cel":5459,"cif":5460,"Ġissued":5461,"Ġorganizations":5462,"Ġmotor":5463,"Ġautonom":5464,"Ġdeliber":5465,"Ġcalcul":5466,"Ġberlin":5467,"Ġdigital":5468,"Ġuncertainty":5469,"part":5470,"osition":5471,"Ġchurch":5472,"apers":5473,"having":5474,"Ġreconcil":5475,"Ġpunish":5476,"Ġattempts":5477,"Ġreserves":5478,"Ġpred":5479,"Ġprofits":5480,"Ġmaintained":5481,"Ġcontracts":5482,"Ġrelease":5483,"Ġtv":5484,"Ġmort":5485,"Ġproof":5486,"Ġowners":5487,"Ġcontrolled":5488,"Ġillust":5489,"Ġquotas":5490,"Ġexpansion":5491,"Ġgames":5492,"kets":5493,"Ġvacc":5494,"Ġaviation":5495,"Ġdemanding":5496,"Ġstatute":5497,"Ġapplying":5498,"Ġsatisfactory":5499,"Ġratification":5500,"Ġbehaviour":5501,"ront":5502,"Ġâ":5503,"Ġenem":5504,"Ġtragic":5505,"Ġhumans":5506,"Ġprofound":5507,"Ġencouraged":5508,"Ġpassengers":5509,"Ġtaxpayers":5510,"house":5511,"Ġresource":5512,"ague":5513,"Ġdirector":5514,"Ġjohn":5515,"Ġrestore":5516,"Ġsurpl":5517,"Ġlinks":5518,"Ġhyp":5519,"Ġwaters":5520,"tr":5521,"Ġbol":5522,"Ġende":5523,"Ġstrange":5524,"uese":5525,"before":5526,"Ġemployed":5527,"Ġoperators":5528,"Ġfishermen":5529,"Ġcarrying":5530,"Ġdivided":5531,"Ġregrett":5532,"Ġneighbours":5533,"Ġendeav":5534,"xts":5535,"Ġsought":5536,"asc":5537,"Ġalarm":5538,"quid":5539,"cont":5540,"Ġsaving":5541,"anges":5542,"Ġstudent":5543,"Ġengaged":5544,"Ġcollege":5545,"Ġmotiv":5546,"Ġexclusion":5547,"ographic":5548,"Ġundertaken":5549,"Ġcuba":5550,"Ġlebanon":5551,"Ġthir":5552,"thly":5553,"Ġideal":5554,"Ġsurface":5555,"Ġlosing":5556,"Ġembar":5557,"Ġhighlighted":5558,"Ġinvestigation":5559,"obviously":5560,"Ġvideo":5561,"zz":5562,"Ã¼":5563,"Ġtort":5564,"outh":5565,"ading":5566,"ques":5567,"Ġatmos":5568,"Ġcreative":5569,"Ġcombined":5570,"Ġduties":5571,"Ġremoved":5572,"Ġimbal":5573,"ns":5574,"Ġq":5575,"atlantic":5576,"Ġfinish":5577,"Ġtwice":5578,"Ġturning":5579,"Ġportuguese":5580,"Ġinadequate":5581,"enn":5582,"Ġcourts":5583,"Ġentered":5584,"Ġresulting":5585,"Ġawa":5586,"ocked":5587,"Ġterrorists":5588,"Ġsuggests":5589,"irable":5590,"Ġenhance":5591,"Ġworrying":5592,"Ġsake":5593,"ington":5594,"Ġluck":5595,"ief":5596,"Ġactively":5597,"Ġfinland":5598,"Ġbelieved":5599,"Ġdramatic":5600,"Ġfamous":5601,"Ġsurvive":5602,"Ġstopped":5603,"Ġaug":5604,"Ġblow":5605,"Ġfinished":5606,"Ġhumanity":5607,"Ġsupplies":5608,"Ġfalls":5609,"Ġexplained":5610,"Ġkil":5611,"again":5612,"whel":5613,"Ġgoverning":5614,"Ġputs":5615,"Ġrealise":5616,"Ġintroducing":5617,"Ġsuspend":5618,"Ġbegun":5619,"Ġsick":5620,"Ġineff":5621,"Ġwhilst":5622,"Ġrough":5623,"Ġdefe":5624,"Ġdeploy":5625,"Ġ1996":5626,"Ġcutting":5627,"Ġresistance":5628,"aw":5629,"hus":5630,"Ġwise":5631,"erved":5632,"see":5633,"Ġparad":5634,"Ġbigger":5635,"Ġlistening":5636,"Ġgenerations":5637,"Ġdispute":5638,"itutional":5639,"iant":5640,"mo":5641,"thes":5642,"Ġadm":5643,"Ġevol":5644,"Ġevident":5645,"Ġoverwhel":5646,"Ġsched":5647,"Ġfewer":5648,"Ġcompleted":5649,"Ġseemed":5650,"Ġgreens":5651,"Ġconsequence":5652,"Ġwatching":5653,"Ġevalu":5654,"Ġtunis":5655,"Ġunlikely":5656,"udi":5657,"Ġrace":5658,"Ġguard":5659,"Ġcredible":5660,"Ġmultip":5661,"Ġstrike":5662,"rel":5663,"Ġmagn":5664,"Ġcanada":5665,"Ġthanking":5666,"Ġeconomically":5667,"Ġlawy":5668,"Ġcontributed":5669,"Ġignore":5670,"Ġsufficiently":5671,"Ġded":5672,"Ġdrop":5673,"Ġdictatorship":5674,"Ġdro":5675,"allow":5676,"Ġcoff":5677,"Ġtransatlantic":5678,"Ġdeserve":5679,"Ġinsuff":5680,"Ġremaining":5681,"Ġachievement":5682,"Ġfalling":5683,"Ġproceedings":5684,"Ġinterpretation":5685,"ino":5686,"Ġfash":5687,"racies":5688,"Ġvat":5689,"Ġintensive":5690,"Ġadult":5691,"Ġclause":5692,"Ġattend":5693,"Ġfacilities":5694,"Ġoppose":5695,"Ġpursu":5696,"Ġflows":5697,"Ġdisappoint":5698,"Ġconvergence":5699,"Ġunnecessary":5700,"Ġhiv":5701,"Ġtransitional":5702,"Ġscre":5703,"Ġ300":5704,"Ġheading":5705,"Ġbroader":5706,"Ġqualified":5707,"cra":5708,"four":5709,"Ġliquid":5710,"Ġrealize":5711,"Ġvalid":5712,"Ġnegotiation":5713,"Ġsuspect":5714,"Ġhal":5715,"Ġdub":5716,"Ġprograms":5717,"Ġinsp":5718,"Ġextrem":5719,"Ġiranian":5720,"Ġweakness":5721,"everyone":5722,"Ġbomb":5723,"gu":5724,"ti":5725,"Ġchain":5726,"Ġ22":5727,"Ġsmoking":5728,"Ġconstitute":5729,"Ġcroatia":5730,"Ġwage":5731,"oss":5732,"Ġinqu":5733,"Ġintens":5734,"Ġcompuls":5735,"Ġlegally":5736,"Ġconnected":5737,"Ġadvantages":5738,"Ġpreparation":5739,"Ġleaves":5740,"Ġrevenue":5741,"take":5742,"Ġsim":5743,"Ġech":5744,"forced":5745,"Ġremained":5746,"rust":5747,"Ġregimes":5748,"Ġindirect":5749,"Ġconfront":5750,"Ġeducational":5751,"Ġiraqi":5752,"Ġtargeted":5753,"Ġcorrectly":5754,"Ġ1980":5755,"uries":5756,"ounting":5757,"Ġatlantic":5758,"abwe":5759,"Ġcool":5760,"Ġdebated":5761,"Ġapprox":5762,"Ġamended":5763,"Ġenvironmentally":5764,"Ġpopulations":5765,"clearly":5766,"Ġcivilian":5767,"imbabwe":5768,"Ġcorporate":5769,"Ġfashion":5770,"iwan":5771,"Ġpil":5772,"Ġmur":5773,"Ġnoise":5774,"Ġraw":5775,"Ġeconomics":5776,"Ġguys":5777,"Ġexperiment":5778,"Ġpreviously":5779,"Ġgenuinely":5780,"similarly":5781,"Ġwarning":5782,"Ġneighbor":5783,"Ġsoldiers":5784,"Ġbaby":5785,"Ġweb":5786,"tering":5787,"usal":5788,"Ġriver":5789,"Ġviable":5790,"Ġburma":5791,"Ġsky":5792,"Ġsudan":5793,"Ġpurely":5794,"Ġgar":5795,"Ġweather":5796,"Ġworried":5797,"Ġloans":5798,"Ġlasting":5799,"phone":5800,"Ġprivile":5801,"Ġtonight":5802,"Ġcompulsory":5803,"Ã³":5804,"orous":5805,"opho":5806,"Ġintentions":5807,"Ġcausing":5808,"Ġinnoc":5809,"Ġneighbourhood":5810,"Ġexploitation":5811,"Ġenforcement":5812,"Ġmacro":5813,"erson":5814,"cient":5815,"Ġusual":5816,"Ġseeks":5817,"Ġcolon":5818,"Ġfran":5819,"Ġratified":5820,"Ġbureaucracy":5821,"Ġacceler":5822,"ky":5823,"Ġwood":5824,"omin":5825,"Ġcapt":5826,"Ġ1995":5827,"Ġhonour":5828,"Ġglass":5829,"Ġbosnia":5830,"actions":5831,"Ġmostly":5832,"Ġrefused":5833,"Ġswim":5834,"institutional":5835,"Ġeliminate":5836,"atible":5837,"Ġ26":5838,"Ġreported":5839,"Ġjustify":5840,"Ġsolved":5841,"Ġregarded":5842,"Ġambition":5843,"Ġtrem":5844,"Ġgradually":5845,"ursday":5846,"Ġintelligence":5847,"rates":5848,"Ġow":5849,"Ġfing":5850,"Ġislands":5851,"ils":5852,"Ġkn":5853,"Ġintends":5854,"Ġforemost":5855,"Ġhealthcare":5856,"Ġconservative":5857,"Ġadjustment":5858,"Ġincredible":5859,"uild":5860,"erate":5861,"americ":5862,"ocking":5863,"Ġexpense":5864,"Ġperpet":5865,"Ġequival":5866,"Ġdetect":5867,"Ġparalle":5868,"band":5869,"Ġshame":5870,"Ġmoreover":5871,"Ġsigns":5872,"Ġcorner":5873,"Ġmovements":5874,"Ġstressed":5875,"Ġsales":5876,"Ġslightly":5877,"Ġpace":5878,"che":5879,"Ġsection":5880,"Ġconsiders":5881,"ova":5882,"Ġpercentage":5883,"Ġindicated":5884,"Ġhomes":5885,"Ġcategory":5886,"Ġthursday":5887,"iry":5888,"Ġenvis":5889,"Ġpersist":5890,"Ġmoroc":5891,"Ġzimbabwe":5892,"Ġemerged":5893,"Ġinsufficient":5894,"mon":5895,"ption":5896,"Ġempty":5897,"Ġentail":5898,"Ġexperiences":5899,"Ġanaly":5900,"Ġfifth":5901,"Ġmobile":5902,"Ġremarkable":5903,"Ġrepeatedly":5904,"Ġbse":5905,"icted":5906,"Ġcertainty":5907,"Ġcongress":5908,"cohol":5909,"Ġsolely":5910,"rors":5911,"Ġgri":5912,"Ġvac":5913,"igned":5914,"Ġanywhere":5915,"Ġinvited":5916,"Ġembra":5917,"Ġalternatives":5918,"Ġquarter":5919,"ga":5920,"ny":5921,"sen":5922,"Ġthres":5923,"Ġoh":5924,"Ġdanish":5925,"asion":5926,"Ġarise":5927,"Ġdecre":5928,"Ġmold":5929,"Ġrealized":5930,"Ġfaces":5931,"Ġtrip":5932,"Ġbreach":5933,"Ġcatast":5934,"Ġcommunications":5935,"Ġthreshold":5936,"Ġcli":5937,"Ġreferring":5938,"Ġpalestine":5939,"Ġobliged":5940,"Ġannounce":5941,"Ġphotograph":5942,"Ġherit":5943,"sider":5944,"Ġdriven":5945,"Ġsurvival":5946,"Ġale":5947,"Ġgulf":5948,"Ġwebs":5949,"Ġ28":5950,"Ġjoined":5951,"Ġscar":5952,"ribute":5953,"Ġquote":5954,"Ġmovie":5955,"Ġatmosphere":5956,"imp":5957,"Ġwake":5958,"rad":5959,"keep":5960,"Ġcommod":5961,"wel":5962,"Ġindian":5963,"Ġendors":5964,"Ġhelps":5965,"Ġgained":5966,"Ġignored":5967,"Ġsuddenly":5968,"Ġfalse":5969,"Ġfost":5970,"Ġnut":5971,"Ġupd":5972,"Ġspite":5973,"Ġindones":5974,"Ġcompetent":5975,"Ġearn":5976,"Ġconvince":5977,"Ġprag":5978,"Ġbelgium":5979,"Ġforgotten":5980,"Ġheritage":5981,"uk":5982,"ona":5983,"Ġwages":5984,"Ġonto":5985,"Ġalcohol":5986,"Ġinterinstitutional":5987,"Ġtaiwan":5988,"cuse":5989,"Ġrepresentation":5990,"Ġsubjects":5991,"Ġminds":5992,"Ġapplications":5993,"Ġslowly":5994,"Ġhungary":5995,"Ġstimul":5996,"Ġemotion":5997,"rid":5998,"yal":5999,"Ġwed":6000,"Ġcas":6001,"Ġstream":6002,"akers":6003,"Ġcomplement":6004,"izes":6005,"Ġundermine":6006,"Ġpermit":6007,"Ġgenetic":6008,"Ġinterpre":6009,"Ġdistort":6010,"Ġdoubts":6011,"Ġcultures":6012,"Ġports":6013,"lymp":6014,"Ġalive":6015,"Ġshap":6016,"Ġoffering":6017,"Ġenthus":6018,"Ġrespects":6019,"Ġsuggestions":6020,"Ġdeadline":6021,"Ġbureaucratic":6022,"Ġfixed":6023,"Ġfrequently":6024,"commun":6025,"subject":6026,"Ġenthusi":6027,"Ġfinanced":6028,"Ġconsiderably":6029,"Ġdistance":6030,"Ġlibya":6031,"place":6032,"Ġdeaths":6033,"ecision":6034,"Ġnonetheless":6035,"Ġentrepreneurs":6036,"Ġtired":6037,"att":6038,"Ġsong":6039,"Ġmouth":6040,"alities":6041,"Ġanx":6042,"Ġcommand":6043,"Ġplat":6044,"Ġsocialists":6045,"Ġrefers":6046,"Ġscr":6047,"Ġresulted":6048,"Ġinstitute":6049,"Ġdepri":6050,"Ġplays":6051,"Ġnegotiated":6052,"Ġmicro":6053,"Ġtimetable":6054,"itably":6055,"Ġacad":6056,"Ġharmful":6057,"Ġspeeches":6058,"Ġtemper":6059,"should":6060,"Ġvessels":6061,"Ġetc":6062,"craft":6063,"Ġtremend":6064,"Ġliked":6065,"ager":6066,"Ġdemocracies":6067,"Ġlistened":6068,"Ġpensions":6069,"Ġrome":6070,"Ġpursued":6071,"Ġships":6072,"Ġracism":6073,"ham":6074,"Ġaspir":6075,"Ġbadly":6076,"Ġdestroyed":6077,"Ġexecutive":6078,"bb":6079,"lad":6080,"Ġdar":6081,"Ġhaz":6082,"amend":6083,"Ġregister":6084,"Ġdemographic":6085,"Ġwhereas":6086,"Ġbridge":6087,"Ġglobalization":6088,"Ġconsiderations":6089,"Ġfoundations":6090,"appro":6091,"Ġfuels":6092,"Ġpetitions":6093,"Ġvirtually":6094,"Ġscrut":6095,"Ġic":6096,"Ļ«":6097,"Ġcash":6098,"Ġpassion":6099,"anks":6100,"Ġhat":6101,"Ġunp":6102,"uman":6103,"Ġdiss":6104,"Ġsmart":6105,"Ġforecast":6106,"Ġaffecting":6107,"Ġroads":6108,"Ġcodecision":6109,"Ġschemes":6110,"Ġolymp":6111,"oler":6112,"Ġfault":6113,"Ġminim":6114,"Ġirre":6115,"Ġerror":6116,"Ġdemonst":6117,"Ġethical":6118,"Ġregrettable":6119,"bre":6120,"Ġcow":6121,"think":6122,"Ġyield":6123,"atell":6124,"Ġmarked":6125,"Ġclarity":6126,"Ġreturned":6127,"Ġbelgian":6128,"Ġsquare":6129,"Ġscandal":6130,"Ġreservations":6131,"Ġcoffee":6132,"eth":6133,"jud":6134,"Ġlith":6135,"idden":6136,"illing":6137,"Ġunre":6138,"Ġunpre":6139,"opard":6140,"Ġsphere":6141,"Ġperce":6142,"Ġmarketing":6143,"Ġremed":6144,"Ġdiscover":6145,"Ġnegotiate":6146,"Ġconstitutes":6147,"Ġthreatened":6148,"Ġcycle":6149,"Ġfears":6150,"Ġreinforce":6151,"Ġdisappointed":6152,"Ġintervene":6153,"Ġaccompanied":6154,"Ġinfringe":6155,"gn":6156,"Ġwild":6157,"Ġsite":6158,"Ġcert":6159,"ches":6160,"Ġken":6161,"otherwise":6162,"Ġfreely":6163,"Ġbonds":6164,"Ġnarrow":6165,"Ġendeavour":6166,"Ġnav":6167,"Ġmere":6168,"Ġdisabled":6169,"Ġoutstanding":6170,"Ġmodified":6171,"Ġ35":6172,"Ġannivers":6173,"Ġjourney":6174,"Ġcoalition":6175,"Ġsev":6176,"osis":6177,"Ġuses":6178,"Ġboom":6179,"Ġshares":6180,"Ġexceptional":6181,"Ġdisplay":6182,"Ġgeographical":6183,"Ġaugust":6184,"ÃŃ":6185,"iti":6186,"Ġmit":6187,"Ġchief":6188,"Ġpreserve":6189,"Ġincident":6190,"Ġthinks":6191,"Ġinstall":6192,"Ġgenet":6193,"Ġproductive":6194,"Ġmillenn":6195,"Ġvehicle":6196,"Ġmemory":6197,"burg":6198,"Ġwashington":6199,"Ġtariff":6200,"nat":6201,"itical":6202,"ulous":6203,"antly":6204,"arer":6205,"Ġtexts":6206,"Ġfunded":6207,"Ġrefuse":6208,"Ġrequests":6209,"Ġdevast":6210,"Ġcomputers":6211,"Ġairport":6212,"Ġsacrif":6213,"Ġmanufacturers":6214,"Ġanniversary":6215,"Ġmillennium":6216,"inational":6217,"Ġnotion":6218,"Ġunfortun":6219,"Ġsuitable":6220,"Ġcolom":6221,"together":6222,"Ġimages":6223,"Ġdeterior":6224,"Ġcopy":6225,"Ġpassenger":6226,"Ġchapter":6227,"ini":6228,"Ġmaced":6229,"Ġunions":6230,"Ġruling":6231,"Ġemployers":6232,"Ġfails":6233,"Ġbroke":6234,"Ġteachers":6235,"Ġequivalent":6236,"Ġunfortunate":6237,"bel":6238,"erc":6239,"ario":6240,"Ġjun":6241,"Ġclub":6242,"Ġcitizenship":6243,"Ġbeneficial":6244,"Ġexperiencing":6245,"Ġswift":6246,"Ġfallen":6247,"Ġroman":6248,"Ġunemployed":6249,"Ġdenmark":6250,"Ġasset":6251,"Ġdiscrimin":6252,"year":6253,"Ġsending":6254,"Ġfate":6255,"aded":6256,"Ġshi":6257,"Ġprovid":6258,"Ġdesp":6259,"Ġbroken":6260,"Ġcease":6261,"Ġvillage":6262,"bar":6263,"each":6264,"Ġwis":6265,"Ġanne":6266,"Ġgun":6267,"Ġonline":6268,"Ġstance":6269,"Ġshut":6270,"Ġkar":6271,"sight":6272,"Ġapproaches":6273,"Ġcomparison":6274,"Ġintelligent":6275,"water":6276,"Ġnames":6277,"Ġgross":6278,"Ġprolif":6279,"Ġindis":6280,"Ġgrown":6281,"Ġmulti":6282,"Ġmultinational":6283,"Ġsounds":6284,"ein":6285,"roc":6286,"Ġeating":6287,"Ġstor":6288,"add":6289,"umn":6290,"erences":6291,"Ġneglect":6292,"Ġpharm":6293,"Ġapolog":6294,"lah":6295,"Ġjudgment":6296,"Ġlogic":6297,"Ġexcluded":6298,"Ġinevitable":6299,"Ġbreath":6300,"Ġunderlying":6301,"Ġtransactions":6302,"Ġerad":6303,"Ġdiagn":6304,"Ġdivision":6305,"Ġneighbouring":6306,"Ġreplaced":6307,"Ġdisappear":6308,"Ġcomponent":6309,"Ġparallel":6310,"ko":6311,"itative":6312,"ctive":6313,"Ġneut":6314,"etor":6315,"Ġrelate":6316,"Ġhelpful":6317,"Ġliber":6318,"Ġabsor":6319,"Ġregulated":6320,"Ġemphasised":6321,"Ġlands":6322,"Ġearthqu":6323,"Ġincentive":6324,"Ġliterally":6325,"inn":6326,"Ġbub":6327,"Ġdan":6328,"ower":6329,"Ġconvers":6330,"pper":6331,"mean":6332,"law":6333,"Ġsloven":6334,"Ġchemicals":6335,"Ġlithu":6336,"Ġtaught":6337,"Ġmurd":6338,"eds":6339,"Ġgh":6340,"Ġsoil":6341,"Ġproven":6342,"Ġdirected":6343,"Ġpresentation":6344,"Ġnecessity":6345,"Ġchecks":6346,"Ġcapitalism":6347,"Ġpotentially":6348,"Ġsurrounding":6349,"follow":6350,"national":6351,"also":6352,"Ġelder":6353,"Ġsmoo":6354,"Ġmodest":6355,"Ġretire":6356,"Ġcombination":6357,"Ġgrew":6358,"Ġdemonstrates":6359,"Ġindicate":6360,"Ġexamined":6361,"Ġdeclare":6362,"Ġincredibly":6363,"Ġrestricted":6364,"Ġfemale":6365,"Ġreconciliation":6366,"spe":6367,"orn":6368,"oured":6369,"Ġraises":6370,"Ġpresenting":6371,"Ġviet":6372,"Ġvisible":6373,"Ġargent":6374,"Ġgenerate":6375,"Ġobtained":6376,"Ġstreets":6377,"Ġregularly":6378,"Ġcf":6379,"Ġpse":6380,"Ġfounded":6381,"regular":6382,"Ġsatisfaction":6383,"Ġlogical":6384,"Ġsoftware":6385,"Ġestimated":6386,"Ġscenario":6387,"ĠâĻ«":6388,"Ġvietnam":6389,"cap":6390,"Ġast":6391,"inder":6392,"Ġeco":6393,"ctic":6394,"Ġstyle":6395,"osing":6396,"emoc":6397,"Ġsomewhere":6398,"Ġrare":6399,"Ġkeen":6400,"Ġbusy":6401,"Ġvisited":6402,"Ġperiods":6403,"Ġcomplaints":6404,"Ġvariety":6405,"Ġapproximately":6406,"fall":6407,"Ġdav":6408,"Ġactors":6409,"Ġmarried":6410,"angible":6411,"Ġfeels":6412,"Ġvolume":6413,"Ġdelays":6414,"Ġjeopard":6415,"Ġobservers":6416,"Ġrhetor":6417,"Ġrelief":6418,"Ġox":6419,"oted":6420,"astrich":6421,"Ġsaudi":6422,"Ġdistingu":6423,"Ġviolation":6424,"arko":6425,"Ġemerge":6426,"Ġanticip":6427,"Ġacquis":6428,"Ġprocure":6429,"astricht":6430,"Ġtree":6431,"Ġbiod":6432,"ician":6433,"Ġexcuse":6434,"Ġheat":6435,"aken":6436,"cedented":6437,"Ġbrut":6438,"Ġdepression":6439,"Ġvictim":6440,"Ġgreenhouse":6441,"Ġuniversities":6442,"Ġheavily":6443,"Ġunanimously":6444,"Ġstimulus":6445,"Ġproliferation":6446,"cs":6447,"ationally":6448,"versi":6449,"rap":6450,"Ġmanaging":6451,"Ġroll":6452,"Ġreflection":6453,"Ġmaastricht":6454,"Ġsettle":6455,"chnya":6456,"Ġ31":6457,"Ġambitions":6458,"Ġultimate":6459,"Ġsupervisory":6460,"Ġinnocent":6461,"Ġunprecedented":6462,"arkozy":6463,"iable":6464,"ients":6465,"ka":6466,"zen":6467,"Ġaward":6468,"Ġsand":6469,"Ġlaugh":6470,"Ġhappiness":6471,"Ġguess":6472,"comings":6473,"Ġfailing":6474,"Ġabsurd":6475,"Ġprevented":6476,"nobody":6477,"Ġfunctions":6478,"Ġecological":6479,"Ġenhanced":6480,"Ġmurder":6481,"culation":6482,"Ġfab":6483,"Ġhair":6484,"Ġparis":6485,"Ġ29":6486,"Ġextending":6487,"Ġsolar":6488,"Ġshortcomings":6489,"Ġsuggestion":6490,"Ġsaddam":6491,"Ġarrive":6492,"Ġaccomplish":6493,"Ġroute":6494,"Ġtremendous":6495,"ded":6496,"russi":6497,"uity":6498,"requ":6499,"Ġsatell":6500,"Ġstore":6501,"Ġunderline":6502,"Ġregardless":6503,"Ġarticles":6504,"Ġdiver":6505,"Ġindicators":6506,"Ġaccordingly":6507,"Ġtackling":6508,"Ġhoriz":6509,"Ġreleased":6510,"Ġinequality":6511,"versial":6512,"oly":6513,"uct":6514,"ications":6515,"Ġlad":6516,"Ġfrag":6517,"Ġrevised":6518,"Ġchechnya":6519,"Ġcoordinate":6520,"Ġkilling":6521,"Ġpieces":6522,"Ġinhab":6523,"Ġtransformation":6524,"nonetheless":6525,"oided":6526,"time":6527,"wa":6528,"Ġlend":6529,"Ġshif":6530,"Ġpark":6531,"Ġresort":6532,"Ġaccounting":6533,"Ġfinances":6534,"Ġdifferently":6535,"Ġopenly":6536,"Ġavoided":6537,"Ġdistur":6538,"Ġtraditions":6539,"eva":6540,"Ġhyd":6541,"Ġfootball":6542,"Ġfifteen":6543,"Ġdumping":6544,"Ġbang":6545,"Ġrecy":6546,"Ġallies":6547,"Ġunit":6548,"until":6549,"Ġenlar":6550,"Ġplural":6551,"Ġcompassion":6552,"Ġincomp":6553,"Ġconfident":6554,"Ġfrid":6555,"Ġfrust":6556,"Ġshortly":6557,"Ġaccessible":6558,"Ġaustrian":6559,"Ġmerc":6560,"Ġhoped":6561,"Ġsimplification":6562,"Ġwelcomes":6563,"Ġcompete":6564,"Ġcollaboration":6565,"Ġtorture":6566,"Ġhence":6567,"child":6568,"Ġcommend":6569,"Ġconfron":6570,"Ġhero":6571,"Ġpacif":6572,"Ġmanufacturing":6573,"celona":6574,"Ġecho":6575,"Ġannex":6576,"Ġdur":6577,"Ġeuropol":6578,"Ġrand":6579,"Ġagrees":6580,"Ġlikes":6581,"Ġquiet":6582,"Ġoutput":6583,"Ġtrave":6584,"Ġbuying":6585,"Ġblair":6586,"Ġregulate":6587,"Ġlacking":6588,"Ġaudience":6589,"Ġpictures":6590,"Ġdistributed":6591,"Ġsilence":6592,"Ġmuslims":6593,"Ġapparently":6594,"Ġnigeria":6595,"Ġmary":6596,"Ġhong":6597,"room":6598,"Ġhabit":6599,"Ġeuros":6600,"Ġchamp":6601,"Ġstring":6602,"Ġemu":6603,"Ġirregular":6604,"Ġ1994":6605,"Ġrecognized":6606,"Ġdetri":6607,"Ġmotions":6608,"Ġveget":6609,"Ġaustral":6610,"Ġoccupation":6611,"Ġyeah":6612,"Ġsupplementary":6613,"Ġprocurement":6614,"bet":6615,"Ġfasc":6616,"stream":6617,"Ġunequ":6618,"Ġpled":6619,"Ġeconomists":6620,"Ġcontroversial":6621,"iban":6622,"Ġrejection":6623,"Ġdistinction":6624,"Ġmacedonia":6625,"cow":6626,"rous":6627,"ensible":6628,"adays":6629,"Ġenabling":6630,"Ġnovel":6631,"Ġmole":6632,"Ġhopefully":6633,"Ġorganized":6634,"Ġappeared":6635,"Ġdeeper":6636,"Ġpenalties":6637,"Ġairports":6638,"Ġsurplus":6639,"meanwhile":6640,"nl":6641,"Ġbow":6642,"Ġcovers":6643,"Ġfeature":6644,"Ġpermitted":6645,"Ġroots":6646,"Ġcolor":6647,"Ġsignals":6648,"Ġ2012":6649,"Ġfocusing":6650,"Ġdenied":6651,"Ġperspectives":6652,"Ġtrends":6653,"Ġjournalists":6654,"Ġbiodiversity":6655,"Ġwing":6656,"Ġsn":6657,"Ġfought":6658,"omal":6659,"Ġvoc":6660,"Ġkong":6661,"Ġpreca":6662,"Ġpoet":6663,"cessions":6664,"Ġpersec":6665,"Ġjoining":6666,"Ġprocessing":6667,"Ġorganic":6668,"Ġspeaks":6669,"Ġartific":6670,"Ġswitch":6671,"Ġbarcelona":6672,"Ġdrivers":6673,"Ġhunger":6674,"Ġdoctors":6675,"Ġmental":6676,"Ġroughly":6677,"iate":6678,"makers":6679,"Ã¤":6680,"Ġpage":6681,"Ġresc":6682,"Ġmanif":6683,"Ġconscious":6684,"Ġaccused":6685,"Ġtaliban":6686,"Ġstarts":6687,"Ġoppon":6688,"Ġgrave":6689,"Ġapplicant":6690,"Ġdescribe":6691,"Ġcoup":6692,"Ġtelephone":6693,"Ġpull":6694,"Ġinquiry":6695,"Ġstood":6696,"Ġalger":6697,"Ġspot":6698,"Ġdesirable":6699,"Ġmiles":6700,"Ġjointly":6701,"Ġbiological":6702,"haust":6703,"Ġallocation":6704,"Ġcelebr":6705,"following":6706,"rum":6707,"tical":6708,"Ġhes":6709,"otic":6710,"ifies":6711,"soever":6712,"aces":6713,"Ġwhatsoever":6714,"Ġmanip":6715,"Ġexposed":6716,"Ġinformal":6717,"Ġhanded":6718,"Ġachievements":6719,"Ġefficiently":6720,"Ġcomplexity":6721,"Ġattractive":6722,"Ġmathem":6723,"Ġabstained":6724,"point":6725,"atisf":6726,"icated":6727,"Ġconven":6728,"lihood":6729,"Ġjur":6730,"Ġsports":6731,"Ġcentres":6732,"Ġanswered":6733,"Ġcollection":6734,"Ġruns":6735,"Ġholds":6736,"Ġpreparations":6737,"Ġwarmly":6738,"Ġdiplomacy":6739,"Ġtonnes":6740,"Ġdestroy":6741,"Ġdrafting":6742,"Ġmorocco":6743,"bas":6744,"hence":6745,"much":6746,"Ġnotably":6747,"Ġrecover":6748,"anged":6749,"Ġsites":6750,"Ġdesper":6751,"Ġconventions":6752,"Ġcreativity":6753,"Ġharder":6754,"Ġcoherence":6755,"Ġillness":6756,"Ġexamination":6757,"Ġintegrity":6758,"Ġundertake":6759,"Ġautomatically":6760,"Ġpipe":6761,"Ġtunisia":6762,"aur":6763,"mal":6764,"Ġtribute":6765,"Ġfant":6766,"Ġstead":6767,"illance":6768,"Ġliability":6769,"Ġtransit":6770,"Ġwhereby":6771,"Ġdefault":6772,"Ġbanned":6773,"Ġcompetences":6774,"Ġinvesting":6775,"Ġiron":6776,"Ġapplicable":6777,"Ġskin":6778,"Ġdiverse":6779,"Ġcondemned":6780,"Ġobserved":6781,"maybe":6782,"Ġaccurate":6783,"Ġelderly":6784,"Ġnamed":6785,"Ġbeat":6786,"Ġnoticed":6787,"Ġimplies":6788,"Ġinvite":6789,"Ġplayer":6790,"Ġengland":6791,"Ġexciting":6792,"Ġdeny":6793,"Ġteaching":6794,"Ġsteel":6795,"Ġundertakings":6796,"Ġconservation":6797,"Ġcrops":6798,"Ġyugoslavia":6799,"Ġmanifest":6800,"bors":6801,"rations":6802,"Ġtic":6803,"inated":6804,"Ġfool":6805,"alling":6806,"Ġconsent":6807,"Ġinvent":6808,"Ġoffic":6809,"Ġgenoc":6810,"Ġtape":6811,"Ġbrok":6812,"Ġcircle":6813,"iox":6814,"Ġwording":6815,"Ġmigrants":6816,"Ġforests":6817,"Ġdrafted":6818,"Ġfortun":6819,"Ġslovakia":6820,"Ġsuspic":6821,"Ġacknowledged":6822,"Ġgenetically":6823,"hear":6824,"sometimes":6825,"Ġah":6826,"Ġsme":6827,"icy":6828,"Ġepid":6829,"utical":6830,"Ġabuses":6831,"Ġadverse":6832,"agers":6833,"Ġmarine":6834,"Ġeveryday":6835,"Ġideological":6836,"Ġfavourable":6837,"Ġinitially":6838,"Ġaccountability":6839,"Ġprivat":6840,"Ġrailway":6841,"Ġwithdrawal":6842,"Ġinevitably":6843,"Ġalbania":6844,"Ġsuspended":6845,"inal":6846,"isc":6847,"Ġsarkozy":6848,"Ġcens":6849,"cience":6850,"aceutical":6851,"Ġmoves":6852,"Ġends":6853,"Ġaircraft":6854,"Ġreceiving":6855,"Ġorient":6856,"Ġ150":6857,"Ġhurt":6858,"Ġutmost":6859,"Ġsurveillance":6860,"Ġtitle":6861,"Ġolaf":6862,"Ġmoldova":6863,"Ġhazard":6864,"appropri":6865,"Ġrhetoric":6866,"nish":6867,"via":6868,"Ġtiny":6869,"Ġcot":6870,"Ġdos":6871,"iled":6872,"Ġlag":6873,"Ġjump":6874,"Ġsahar":6875,"Ġmarks":6876,"Ġfundamentally":6877,"Ġtells":6878,"Ġsooner":6879,"Ġundertaking":6880,"Ġcommunicate":6881,"Ġobservation":6882,"Ġing":6883,"Ġprote":6884,"Ġalle":6885,"ray":6886,"Ġvent":6887,"lla":6888,"above":6889,"Ġdispar":6890,"Ġimported":6891,"enses":6892,"rators":6893,"mann":6894,"Ġprofess":6895,"within":6896,"Ġcongratulations":6897,"Ġtesting":6898,"Ġdisputes":6899,"book":6900,"Ġcampaigns":6901,"Ġdrinking":6902,"Ġreiterate":6903,"Ġimperative":6904,"Ġsympathy":6905,"Ġindonesia":6906,"Ġpharmaceutical":6907,"war":6908,"Ġtangible":6909,"itzer":6910,"oration":6911,"oul":6912,"Ġange":6913,"Ġbeef":6914,"Ġconve":6915,"Ġresponses":6916,"Ġfarms":6917,"Ġacceptance":6918,"sequent":6919,"Ġcontemp":6920,"Ġfleet":6921,"Ġtensions":6922,"Ġsubstantially":6923,"Ġsurprising":6924,"Ġhusband":6925,"Ġenemy":6926,"Ġdefeat":6927,"cking":6928,"gans":6929,"Ġbare":6930,"Ġdivers":6931,"Ġgrat":6932,"Ġcomfort":6933,"Ġinstability":6934,"Ġdefending":6935,"Ġentering":6936,"Ġterritories":6937,"Ġpollut":6938,"Ġunanimous":6939,"Ġtelecommun":6940,"Ġbillions":6941,"Ġincorporated":6942,"raints":6943,"Ġinhabit":6944,"Ġfriday":6945,"Ġrescue":6946,"Ġwave":6947,"Ġbail":6948,"Ġlending":6949,"Ġprescri":6950,"connect":6951,"Ġoutset":6952,"Ġoffices":6953,"ecd":6954,"Ġconsulted":6955,"Ġgranting":6956,"Ġengagement":6957,"Ġmonopoly":6958,"Ġdinner":6959,"ita":6960,"Ġdna":6961,"Ġdiox":6962,"Ġintoler":6963,"Ġposs":6964,"Ġrot":6965,"Ġ194":6966,"Ġinterim":6967,"Ġsincerely":6968,"Ġlibert":6969,"Ġassociations":6970,"Ġcriminals":6971,"Ġwalking":6972,"Ġmissed":6973,"Ġcategories":6974,"Ġtolerance":6975,"Ġdiscipline":6976,"long":6977,"enopho":6978,"Ġbread":6979,"Ġnord":6980,"Ġreverse":6981,"Ġexhaust":6982,"aph":6983,"Ġmonit":6984,"Ġgrass":6985,"Ġvisual":6986,"Ġdangers":6987,"Ġguaranteeing":6988,"Ġpursuing":6989,"Ġclearer":6990,"Ġrelationships":6991,"Ġitems":6992,"Ġrecorded":6993,"Ġ1970":6994,"Ġpilot":6995,"naturally":6996,"Ġwisdom":6997,"itzerland":6998,"Ġtall":6999,"Ġpig":7000,"Ġmich":7001,"Ġprompt":7002,"respect":7003,"Ġimprison":7004,"Ġcook":7005,"Ġarbit":7006,"Ġanyway":7007,"Ġescape":7008,"Ġobserve":7009,"Ġstruck":7010,"Ġisolation":7011,"Ġestimates":7012,"Ġappointment":7013,"cles":7014,"rather":7015,"Ġts":7016,"enna":7017,"ched":7018,"Ġunilateral":7019,"osy":7020,"Ġenterprise":7021,"Ġcounterfe":7022,"Ġpainful":7023,"Ġappreciation":7024,"Ġownership":7025,"Ġenlarged":7026,"oh":7027,"Ġnic":7028,"Ġsuic":7029,"Ġacted":7030,"licate":7031,"Ġbacking":7032,"Ġcenturies":7033,"Ġelite":7034,"bert":7035,"Ġtextile":7036,"Ġcurrencies":7037,"Ġsplit":7038,"Ġgenocide":7039,"gies":7040,"gue":7041,"Ġreward":7042,"ivered":7043,"istical":7044,"among":7045,"Ġkh":7046,"abe":7047,"Ġfeatures":7048,"Ġmonday":7049,"Ġbrand":7050,"Ġphr":7051,"Ġ400":7052,"Ġargued":7053,"Ġdelivered":7054,"Ġqualifications":7055,"Ġhouses":7056,"Ġattached":7057,"Ġmacroeconomic":7058,"Ġscrutiny":7059,"Ġtast":7060,"oning":7061,"Ġfoss":7062,"Ġgather":7063,"Ġstu":7064,"develop":7065,"Ġinternationally":7066,"Ġsubsequent":7067,"Ġwarrant":7068,"Ġ45":7069,"Ġessence":7070,"Ġcongratulating":7071,"Ġerrors":7072,"board":7073,"Ġearthquake":7074,"su":7075,"isite":7076,"Ġhu":7077,"Ġhide":7078,"stuff":7079,"whe":7080,"Ġmoderate":7081,"Ġadvised":7082,"Ġaccepting":7083,"Ġairlines":7084,"Ġgains":7085,"ijing":7086,"Ġderog":7087,"Ġoverwhelming":7088,"Ġinspired":7089,"Ġtelecommunications":7090,"aid":7091,"Ġtail":7092,"Ġmuse":7093,"Ġvary":7094,"Ġresearchers":7095,"Ġpromoted":7096,"Ġmessages":7097,"Ġworthy":7098,"Ġunderest":7099,"Ġcrazy":7100,"Ġxenopho":7101,"Ġwebsite":7102,"rem":7103,"Ġfan":7104,"Ġstations":7105,"Ġseats":7106,"Ġhell":7107,"Ġabst":7108,"Ġcontam":7109,"Ġsomehow":7110,"Ġmarri":7111,"Ġgovernmental":7112,"Ġassured":7113,"Ġmeets":7114,"Ġinspir":7115,"Ġstars":7116,"Ġredund":7117,"Ġcrash":7118,"Ġdonors":7119,"Ġunanimity":7120,"Ġimbalances":7121,"asp":7122,"Ġgall":7123,"kel":7124,"tery":7125,"Ġsees":7126,"Ġdoha":7127,"Ġreporting":7128,"Ġjustification":7129,"neither":7130,"Ġforever":7131,"Ġcivilians":7132,"Ġpostal":7133,"Ġkorean":7134,"Ġjuris":7135,"bly":7136,"port":7137,"erb":7138,"Ġbag":7139,"essions":7140,"Ġhall":7141,"Ġdup":7142,"Ġimperial":7143,"aked":7144,"Ġsaved":7145,"Ġevil":7146,"ounds":7147,"ube":7148,"Ġserved":7149,"mmet":7150,"Ġgeneva":7151,"Ġreloc":7152,"Ġprotectionism":7153,"Ġ1992":7154,"Ġmisunder":7155,"Ġneighbors":7156,"Ġquota":7157,"Ġconsolidation":7158,"Ġceleb":7159,"Ġmarginal":7160,"Ġowing":7161,"Ġdossi":7162,"ios":7163,"mer":7164,"matically":7165,"nis":7166,"Ġtam":7167,"Ġfur":7168,"ounce":7169,"Ġselling":7170,"rown":7171,"Ġnationals":7172,"Ġcontributing":7173,"Ġbenefici":7174,"Ġsustained":7175,"yesterday":7176,"Ġobstacle":7177,"Ġchannel":7178,"Ġscotland":7179,"Ġautonomy":7180,"Ġplatform":7181,"Ġlithuania":7182,"russia":7183,"Ġrecyc":7184,"Ġmuseum":7185,"ensions":7186,"Ġnur":7187,"Ġbankrupt":7188,"Ġconventional":7189,"Ġalongside":7190,"Ġdivide":7191,"Ġdeclarations":7192,"Ġauthoritarian":7193,"Ġclaimed":7194,"rogen":7195,"Ġargentina":7196,"tra":7197,"Ġcab":7198,"Ġsupre":7199,"Ġsequ":7200,"istry":7201,"Ġadmitted":7202,"iph":7203,"Ġsubs":7204,"Ġassert":7205,"Ġpersonnel":7206,"Ġfacility":7207,"Ġbroadcast":7208,"Ġimposing":7209,"Ġrenewed":7210,"Ġweapon":7211,"Ġnormally":7212,"Ġconservatives":7213,"Ġabandoned":7214,"Ġsv":7215,"Ġholid":7216,"osure":7217,"Ġknowing":7218,"ounded":7219,"Ġwarn":7220,"Ġimmense":7221,"Ġexceptions":7222,"Ġchristians":7223,"Ġenjoyed":7224,"Ġstrictly":7225,"Ġokay":7226,"Ġisolated":7227,"Ġmoscow":7228,"Ġcamera":7229,"Ġexplicitly":7230,"break":7231,"limin":7232,"uzz":7233,"Ġties":7234,"Ġdaughter":7235,"Ġvit":7236,"Ġque":7237,"Ġpropag":7238,"Ġconfusion":7239,"Ġsecular":7240,"Ġirrespon":7241,"Ġassessments":7242,"Ġpostpon":7243,"Ġclosing":7244,"Ġmeantime":7245,"Ġcontacts":7246,"Ġarrested":7247,"Ġexclusively":7248,"Ġnewspaper":7249,"ni":7250,"Ġvers":7251,"Ġsorts":7252,"Ġfires":7253,"Ġflying":7254,"Ġancient":7255,"Ġlunch":7256,"Ġstal":7257,"Ġprerequ":7258,"Ġdiffer":7259,"Ġserves":7260,"Ġmoon":7261,"Ġresolving":7262,"Ġ37":7263,"Ġfron":7264,"Ġswitzerland":7265,"Ġcongo":7266,"nothing":7267,"Ġigc":7268,"Ġchristmas":7269,"Ġsenior":7270,"Ġcatal":7271,"Ġhouseholds":7272,"Ġhypoc":7273,"children":7274,"Ġalleged":7275,"Ġliberties":7276,"Ġfossil":7277,"pass":7278,"Ġcere":7279,"Ġinput":7280,"olf":7281,"uled":7282,"opol":7283,"Ġshot":7284,"Ġselection":7285,"Ġvene":7286,"Ġattain":7287,"Ġrush":7288,"Ġreput":7289,"Ġtimely":7290,"Ġfeas":7291,"Ġclin":7292,"Ġsubsequently":7293,"Ġrepression":7294,"Ġadvis":7295,"Ġedge":7296,"Ġstudying":7297,"Ġpopul":7298,"Ġlocation":7299,"Ġtypical":7300,"Ġsimplify":7301,"Ġincomes":7302,"Ġpacific":7303,"whether":7304,"hu":7305,"mans":7306,"off":7307,"Ġsnow":7308,"Ġsale":7309,"aria":7310,"icking":7311,"ective":7312,"Ġdisast":7313,"Ġtechni":7314,"Ġlabel":7315,"Ġceiling":7316,"Ġbreast":7317,"Ġparticipating":7318,"Ġliberals":7319,"Ġ75":7320,"Ġpartnerships":7321,"Ġfisch":7322,"Ġdependence":7323,"Ġtrees":7324,"stuffs":7325,"fur":7326,"Ġcul":7327,"Ġcos":7328,"Ġstages":7329,"unction":7330,"Ġintense":7331,"Ġtrick":7332,"Ġfinnish":7333,"Ġbold":7334,"Ġconstraints":7335,"Ġbegins":7336,"Ġlowest":7337,"Ġexerc":7338,"Ġengineering":7339,"Ġobservations":7340,"Ġstorage":7341,"Ġsatellite":7342,"pone":7343,"rical":7344,"ugg":7345,"Ġbes":7346,"Ġmaster":7347,"thanks":7348,"Ġstip":7349,"Ġhaiti":7350,"Ġsuit":7351,"Ġadequ":7352,"Ġtea":7353,"Ġunderp":7354,"Ġaccum":7355,"Ġreluct":7356,"Ġsystematic":7357,"Ġbacked":7358,"Ġcamb":7359,"Ġreductions":7360,"Ġcompromises":7361,"Ġparticipants":7362,"Ġgenerated":7363,"Ġwinter":7364,"Ġvirus":7365,"Ġstimulate":7366,"Ġstakeholders":7367,"erity":7368,"Ġoecd":7369,"Ġnaz":7370,"Ġbeijing":7371,"Ġunjust":7372,"Ġcompatible":7373,"Ġwhenever":7374,"Ġdefining":7375,"Ġowned":7376,"Ġmeasured":7377,"petus":7378,"Ġpostpone":7379,"Ġautumn":7380,"Ġorganisms":7381,"Ġenshr":7382,"Ġcollaps":7383,"Ġukrain":7384,"Ġclarification":7385,"Ġgeorge":7386,"Ġbirds":7387,"Ġaustralia":7388,"Ġcup":7389,"Ġtoxic":7390,"lete":7391,"Ġunh":7392,"Ġchick":7393,"teg":7394,"Ġprejud":7395,"Ġprelimin":7396,"Ġroc":7397,"Ġminor":7398,"Ġviewed":7399,"beit":7400,"Ġorganise":7401,"Ġ1993":7402,"roductive":7403,"Ġimpetus":7404,"Ġwalked":7405,"itudes":7406,"Ġhighlights":7407,"Ġadvocate":7408,"Ġdepartment":7409,"Ġexpertise":7410,"iro":7411,"ule":7412,"eda":7413,"Ġnotes":7414,"imag":7415,"Ġranging":7416,"Ġplain":7417,"Ġsolving":7418,"Ġsafer":7419,"Ġplane":7420,"Ġletters":7421,"berg":7422,"Ġinterventions":7423,"Ġconcentration":7424,"Ġsilent":7425,"Ġcharacteristics":7426,"Ġmachines":7427,"Ġutter":7428,"appropriate":7429,"Ġjurisdict":7430,"Ġtact":7431,"Ġald":7432,"Ġms":7433,"Ġincon":7434,"rapporteur":7435,"Ġdoors":7436,"Ġjer":7437,"Ġdisrupt":7438,"Ġtrained":7439,"Ġdebts":7440,"Ġguide":7441,"Ġcarri":7442,"Ġinvested":7443,"Ġexchanges":7444,"Ġvoices":7445,"Ġbeauty":7446,"Ġcomparable":7447,"Ġspectrum":7448,"Ġphilosophy":7449,"Ġprecaution":7450,"Ġinhabitants":7451,"Ġvenez":7452,"Ġdivid":7453,"Ġalbeit":7454,"ussions":7455,"Ġuphold":7456,"Ġcope":7457,"ressing":7458,"Ġloved":7459,"Ġcommunism":7460,"Ġwherever":7461,"Ġobjections":7462,"Ġabsent":7463,"Ġambig":7464,"Ġdamaging":7465,"Ġarabia":7466,"Ġconsistently":7467,"nesday":7468,"Ġcoastal":7469,"Ġpreliminary":7470,"rec":7471,"Ġpose":7472,"Ġna":7473,"Ġreaff":7474,"ilty":7475,"ram":7476,"Ġdisarm":7477,"Ġrock":7478,"Ġtransf":7479,"Ġremote":7480,"Ġpublicly":7481,"Ġsocio":7482,"Ġpays":7483,"Ġcareer":7484,"Ġexpressing":7485,"Ġrefugee":7486,"Ġdonor":7487,"Ġosce":7488,"Ġdismiss":7489,"Ġwednesday":7490,"Ġproviders":7491,"Ġretirement":7492,"Ġopponents":7493,"Ġmathemat":7494,"Ġdisastrous":7495,"bol":7496,"women":7497,"Ġbath":7498,"three":7499,"Ġreun":7500,"state":7501,"Ġgard":7502,"Ġshop":7503,"Ġtrillion":7504,"Ġaccomm":7505,"Ġending":7506,"Ġfeelings":7507,"Ġbroadly":7508,"Ġdevoted":7509,"Ġinterview":7510,"Ġhorse":7511,"Ġridic":7512,"Ġprotests":7513,"Ġpatterns":7514,"Ġprosecut":7515,"Ġstupid":7516,"Ġaccommod":7517,"Ġtens":7518,"Ġpity":7519,"Ġutil":7520,"ids":7521,"Ġdetain":7522,"Ġseason":7523,"Ġexac":7524,"ude":7525,"Ġplenty":7526,"Ġoutbreak":7527,"Ġinstruct":7528,"Ġhandle":7529,"Ġequity":7530,"Ġrepresenting":7531,"Ġgenerous":7532,"Ġflat":7533,"Ġratify":7534,"Ġ1989":7535,"Ġpraise":7536,"Ġoptimistic":7537,"Ġvigil":7538,"Ġchannels":7539,"Ġolympic":7540,"Ġexacerb":7541,"mis":7542,"tered":7543,"Ã¨":7544,"Ġpestic":7545,"esh":7546,"aling":7547,"Ġhidden":7548,"Ġbearing":7549,"Ġheight":7550,"aret":7551,"Ġtrace":7552,"Ġyours":7553,"Ġformula":7554,"Ġpractically":7555,"Ġexperiments":7556,"Ġpassing":7557,"laim":7558,"Ġsentences":7559,"Ġrestrictive":7560,"turn":7561,"Ġangry":7562,"Ġmonopol":7563,"Ġpersuade":7564,"Ġarchitecture":7565,"Ġashton":7566,"Ġendorsed":7567,"person":7568,"ss":7569,"tes":7570,"erted":7571,"Ġpromin":7572,"Ġenables":7573,"Ġenrich":7574,"Ġprecond":7575,"Ġposed":7576,"Ġlegacy":7577,"ileo":7578,"Ġpressing":7579,"Ġintegrate":7580,"Ġabolition":7581,"Ġcultiv":7582,"Ġrevealed":7583,"Ġliberty":7584,"da":7585,"inet":7586,"Ġwhol":7587,"llor":7588,"ogle":7589,"Ġguilty":7590,"Ġconviction":7591,"Ġmandatory":7592,"Ġpushed":7593,"Ġflights":7594,"Ġpunishment":7595,"Ġfragile":7596,"Ġpapers":7597,"Ġfill":7598,"Ġdying":7599,"ili":7600,"ulz":7601,"Ġunus":7602,"ador":7603,"Ġshel":7604,"ultane":7605,"Ġtroub":7606,"Ġmakers":7607,"Ġcostly":7608,"Ġsecondly":7609,"Ġwholehear":7610,"Ġprogressive":7611,"Ġausterity":7612,"Ġthoroughly":7613,"regarding":7614,"Ġliquidity":7615,"Ġcommodity":7616,"Ġcolombia":7617,"Ġingred":7618,"vity":7619,"erving":7620,"Ġmir":7621,"Ġmale":7622,"Ġmira":7623,"Ġdat":7624,"thy":7625,"Ġlists":7626,"Ġadding":7627,"Ġsecur":7628,"Ġcontinuation":7629,"Ġaffair":7630,"Ġschulz":7631,"Ġescal":7632,"Ġdelayed":7633,"Ġadapted":7634,"Ġoccupied":7635,"lusive":7636,"turkey":7637,"bally":7638,"cas":7639,"human":7640,"Ġase":7641,"Ġske":7642,"Ġelig":7643,"Ġrevers":7644,"Ġbears":7645,"Ġpresents":7646,"Ġappointed":7647,"Ġindication":7648,"Ġoverlook":7649,"Ġrealities":7650,"Ġdramatically":7651,"Ġrespective":7652,"Ġgrasp":7653,"Ġfoods":7654,"Ġkeeps":7655,"Ġthoughts":7656,"Ġthreatening":7657,"Ġsubstit":7658,"Ġoriginally":7659,"ography":7660,"Ġharmonised":7661,"Ġinvestigate":7662,"Ġcovering":7663,"Ġdominant":7664,"Ġconcepts":7665,"Ġtemperature":7666,"bi":7667,"Ġtear":7668,"ani":7669,"Ġband":7670,"Ġbreed":7671,"Ġbond":7672,"rage":7673,"Ġrarely":7674,"Ġanymore":7675,"Ġtranslation":7676,"Ġfragment":7677,"Ġprincipal":7678,"Ġadvances":7679,"Ġunderstandable":7680,"mptions":7681,"Ġcombine":7682,"Ġcypri":7683,"Ġstrikes":7684,"Ġcommerce":7685,"Ġjew":7686,"Ġdismant":7687,"Ġfinger":7688,"america":7689,"amendment":7690,"Ġartificial":7691,"hist":7692,"making":7693,"rating":7694,"vent":7695,"Ġfilled":7696,"Ġdrast":7697,"ara":7698,"Ġcompli":7699,"Ġcoinc":7700,"Ġherz":7701,"Ġbran":7702,"Ġfinds":7703,"Ġdepos":7704,"Ġrevol":7705,"Ġstudied":7706,"Ġresponded":7707,"Ġreminded":7708,"Ġtreas":7709,"Ġrevenues":7710,"Ġcomponents":7711,"fourthly":7712,"Ġcolonial":7713,"Ġirregularities":7714,"dens":7715,"mat":7716,"medi":7717,"Ġmun":7718,"Ġegg":7719,"Ġgaps":7720,"Ġworker":7721,"Ġruled":7722,"Ġprocedural":7723,"Ġcheaper":7724,"Ġisraelis":7725,"Ġvolat":7726,"Ġconsistency":7727,"anyone":7728,"Ġsunday":7729,"Ġrebuild":7730,"Ġ1960":7731,"Ġevaluate":7732,"Ã³n":7733,"Ġaspirations":7734,"Ġsmooth":7735,"osystem":7736,"Ġsuicide":7737,"cur":7738,"Ġcath":7739,"Ġeib":7740,"Ġgest":7741,"cture":7742,"Ġug":7743,"Ġdear":7744,"Ġorgans":7745,"Ġplus":7746,"iously":7747,"Ġpolicymakers":7748,"Ġassurance":7749,"Ġsmoke":7750,"Ġfindings":7751,"Ġhandling":7752,"Ġ1991":7753,"Ġconsultations":7754,"Ġgradual":7755,"Ġpoorer":7756,"Ġadults":7757,"Ġconversation":7758,"Ġmonitored":7759,"sm":7760,"isen":7761,"stan":7762,"Ġlam":7763,"Ġlingu":7764,"sein":7765,"Ġenabled":7766,"Ġnobel":7767,"Ġboys":7768,"Ġtrib":7769,"Ġborne":7770,"Ġpreventive":7771,"Ġecosystem":7772,"Ġdefinitive":7773,"Ġrobust":7774,"Ġmeaningful":7775,"ski":7776,"Ġdisappeared":7777,"Ġparadox":7778,"Ġsupreme":7779,"Ġdatab":7780,"bul":7781,"icks":7782,"Ġnomin":7783,"Ġatom":7784,"Ġrub":7785,"ami":7786,"uela":7787,"rence":7788,"Ġnationalism":7789,"Ġdemocratically":7790,"Ġsocially":7791,"Ġmoments":7792,"Ġdevice":7793,"Ġcalm":7794,"Ġinvestigations":7795,"Ġgalileo":7796,"Ġfavorite":7797,"Ġemotional":7798,"Ġalde":7799,"xual":7800,"zed":7801,"oting":7802,"several":7803,"ifor":7804,"Ġgoogle":7805,"Ġspecul":7806,"Ġboat":7807,"Ġhomework":7808,"Ġdimensions":7809,"Ġseekers":7810,"Ġsimplified":7811,"Ġdreams":7812,"Ġregistration":7813,"Ġsimultane":7814,"Ġdemonstration":7815,"Ġperceived":7816,"Ġcosm":7817,"vic":7818,"ancies":7819,"Ġinappropriate":7820,"rol":7821,"Ġconcessions":7822,"ustain":7823,"Ġchances":7824,"ocal":7825,"Ġarctic":7826,"Ġherself":7827,"Ġformed":7828,"Ġformally":7829,"lessly":7830,"Ġcriter":7831,"Ġstatistical":7832,"Ġpaul":7833,"Ġveto":7834,"Ġhoping":7835,"Ġteams":7836,"Ġhussein":7837,"Ġscarce":7838,"Ġhazardous":7839,"gs":7840,"Ġcart":7841,"ales":7842,"Ġstric":7843,"Ġunclear":7844,"igation":7845,"Ġappla":7846,"Ġinvented":7847,"Ġhole":7848,"Ġprud":7849,"Ġmail":7850,"Ġexisted":7851,"Ġzones":7852,"Ġsixth":7853,"Ġbiof":7854,"Ġchancellor":7855,"Ġexplanations":7856,"Ġrobot":7857,"Ġcards":7858,"Ġcontradiction":7859,"Ġdecentral":7860,"Ġlawyer":7861,"Ġprecautionary":7862,"Ġcriterion":7863,"bian":7864,"col":7865,"isra":7866,"Ġpoc":7867,"Ġbird":7868,"Ġdish":7869,"Ġreme":7870,"Ġrice":7871,"Ġresign":7872,"Ġconsists":7873,"Ġnowhere":7874,"Ġmothers":7875,"Ġscore":7876,"Ġmomentum":7877,"ugen":7878,"Ġincorporate":7879,"Ġmortg":7880,"Ġenthusiasm":7881,"Ġneutral":7882,"Ġadequately":7883,"ares":7884,"had":7885,"night":7886,"Ġtac":7887,"enko":7888,"Ġinsec":7889,"idential":7890,"Ġimpressive":7891,"Ġdisabilities":7892,"Ġoutlined":7893,"Ġposes":7894,"Ġperiph":7895,"Ġgenes":7896,"Ġ195":7897,"icially":7898,"Ġcapabilities":7899,"Ġideology":7900,"Ġbarack":7901,"Ġburdens":7902,"Ġverhe":7903,"Ġconvincing":7904,"Ġparagraphs":7905,"ika":7906,"Ġsymbolic":7907,"Ġpsychological":7908,"Ġphrase":7909,"ki":7910,"lock":7911,"ship":7912,"Ġpit":7913,"Ġchile":7914,"Ġkurd":7915,"coni":7916,"Ġcomposition":7917,"whatever":7918,"Ġrespecting":7919,"Ġwished":7920,"Ġseconds":7921,"Ġbrothers":7922,"Ġregulators":7923,"Ġprogramming":7924,"something":7925,"Ġinnovations":7926,"Ġdimin":7927,"Ġimagination":7928,"certainly":7929,"Ġexploit":7930,"Ġxenophobia":7931,"Ġtransfers":7932,"Ġverheugen":7933,"bby":7934,"ell":7935,"fast":7936,"Ġrum":7937,"ourse":7938,"Ġcompare":7939,"Ġarmen":7940,"Ġarising":7941,"Ġdriver":7942,"Ġbreaking":7943,"Ġreinforced":7944,"Ġcustomers":7945,"Ġtendency":7946,"Ġelectorate":7947,"Ġsurvey":7948,"Ġmixed":7949,"Ġmultiple":7950,"Ġpursuant":7951,"Ġembrace":7952,"Ġrandom":7953,"Ġreputation":7954,"Ġapplaud":7955,"uously":7956,"za":7957,"Ġ`":7958,"Ġtor":7959,"Ġtheme":7960,"Ġsla":7961,"organ":7962,"stone":7963,"riend":7964,"irt":7965,"Ġring":7966,"rats":7967,"Ġscene":7968,"Ġinteract":7969,"Ġmainstream":7970,"Ġdepl":7971,"Ġpromising":7972,"everything":7973,"Ġmalta":7974,"Ġcooperative":7975,"Ġbelongs":7976,"Ġundermined":7977,"Ġprofessor":7978,"Ġbarely":7979,"Ġdioxide":7980,"iov":7981,"pens":7982,"ĠÃ":7983,"Ġrede":7984,"Ġalleg":7985,"Ġmyth":7986,"Ġrecital":7987,"iann":7988,"Ġproducer":7989,"Ġpride":7990,"Ġcaut":7991,"Ġsheep":7992,"ovina":7993,"Ġrestaur":7994,"Ġrussians":7995,"Ġfailures":7996,"Ġliberalization":7997,"Ġdestabil":7998,"Ġrecommended":7999,"Ġpaint":8000,"Ġinherent":8001,"Ġhotel":8002,"Ġexpanding":8003,"Ġexemp":8004,"Ġdavid":8005,"Ġhesit":8006,"Ġpossess":8007,"Ġrecycling":8008,"Ġpropaganda":8009,"Ġprerequisite":8010,"Ġreaffirm":8011,"good":8012,"Ġtiss":8013,"Ġhate":8014,"Ġdress":8015,"Ġdrought":8016,"mple":8017,"unte":8018,"Ġresidence":8019,"Ġrepair":8020,"apart":8021,"oked":8022,"Ġcouncils":8023,"Ġinvitation":8024,"Ġbases":8025,"Ġsystematically":8026,"Ġdesired":8027,"Ġassumed":8028,"Ġbrill":8029,"Ġinterrupt":8030,"tenance":8031,"Ġimmunity":8032,"Ġrecognises":8033,"Ġthreaten":8034,"Ġveter":8035,"likewise":8036,"Ġresponding":8037,"Ġfederation":8038,"Ġfulfilled":8039,"Ġspreading":8040,"Ġpillars":8041,"holm":8042,"Ġmcc":8043,"Ġdublin":8044,"kyo":8045,"hi":8046,"ener":8047,"Ġbact":8048,"Ġtokyo":8049,"Ġeg":8050,"oty":8051,"emen":8052,"Ġconscience":8053,"Ġnewly":8054,"Ġpolitician":8055,"Ġgoverned":8056,"Ġaccus":8057,"Ġsigning":8058,"Ġmaintenance":8059,"Ġadvent":8060,"Ġfright":8061,"Ġtopics":8062,"Ġbreakthrough":8063,"everybody":8064,"Ġmalaria":8065,"Ġrailways":8066,"Ġcruel":8067,"Ġseverely":8068,"Ġinequalities":8069,"Ġprecedent":8070,"Ġalike":8071,"Ġfoster":8072,"Ġirresponsible":8073,"Ġjurisdiction":8074,"sad":8075,"vi":8076,"inter":8077,"Ġsomal":8078,"Ġcake":8079,"roph":8080,"Ġwear":8081,"Ġdeem":8082,"Ġsums":8083,"opia":8084,"ander":8085,"unk":8086,"Ġprede":8087,"Ġassum":8088,"Ġdemanded":8089,"Ġ2015":8090,"Ġjudges":8091,"Ġcamps":8092,"Ġbiology":8093,"life":8094,"Ġdegrees":8095,"Ġauthorisation":8096,"Ġdominated":8097,"Ġalarming":8098,"Ġscheduled":8099,"Ġdropped":8100,"Ġindispens":8101,"Ġjewish":8102,"Ġcau":8103,"ionary":8104,"Ġupper":8105,"seen":8106,"olic":8107,"Ġrating":8108,"Ġours":8109,"Ġadh":8110,"Ġnowadays":8111,"Ġspeculation":8112,"Ġperception":8113,"Ġproduces":8114,"ologists":8115,"Ġinitiated":8116,"Ġmisle":8117,"ugabe":8118,"Ġunex":8119,"Ġtension":8120,"Ġvolunte":8121,"Ġageing":8122,"Ġexamining":8123,"rophe":8124,"Ġseparation":8125,"Ġfreight":8126,"Ġpushing":8127,"Ġemergence":8128,"Ġboundaries":8129,"Ġinjured":8130,"Ġbrutal":8131,"pa":8132,"Ġax":8133,"Ġowe":8134,"Ġpt":8135,"Ġstagn":8136,"Ġstuck":8137,"irty":8138,"Ġunits":8139,"Ġseas":8140,"Ġsoc":8141,"Ġdisse":8142,"Ġpregn":8143,"Ġrose":8144,"Ġrefusal":8145,"Ġdesert":8146,"Ġcapita":8147,"Ġencourages":8148,"Ġdiam":8149,"Ġtackled":8150,"Ġchaos":8151,"Ġshoes":8152,"Ġaggressive":8153,"Ġgalax":8154,"Ġfrankly":8155,"Ġcatastrophe":8156,"Ġremedy":8157,"Ġalgeria":8158,"Ġvenezuela":8159,"Ġindispensable":8160,"far":8161,"hab":8162,"ipped":8163,"japan":8164,"rass":8165,"vable":8166,"wood":8167,"Ġath":8168,"Ġble":8169,"still":8170,"Ġvague":8171,"Ġresumed":8172,"llow":8173,"ford":8174,"Ġincidents":8175,"Ġdeciding":8176,"Ġsympt":8177,"Ġamending":8178,"Ġattitudes":8179,"Ġglobally":8180,"Ġgrants":8181,"Ġvienna":8182,"Ġapproaching":8183,"Ġcontributes":8184,"Ġlocated":8185,"Ġminded":8186,"Ġtotalitarian":8187,"Ġrevolutionary":8188,"Ġphysics":8189,"Ġtouched":8190,"Ġannouncement":8191,"Ġhorizont":8192,"Ġtribun":8193,"kind":8194,"po":8195,"vation":8196,"Ġsli":8197,"urg":8198,"Ġstone":8199,"Ġshock":8200,"Ġexag":8201,"Ġjail":8202,"Ġreperc":8203,"Ġmyster":8204,"Ġteeth":8205,"next":8206,"Ġlift":8207,"Ġobjects":8208,"Ġsincere":8209,"Ġcontrolling":8210,"comes":8211,"gged":8212,"Ġdamaged":8213,"Ġbirthday":8214,"Ġoxy":8215,"Ġconfronted":8216,"democ":8217,"give":8218,"pal":8219,"Ġfi":8220,"stat":8221,"Ġiv":8222,"pel":8223,"olved":8224,"Ġmel":8225,"ifiable":8226,"consider":8227,"Ġinvasion":8228,"Ġsecuring":8229,"Ġaccountable":8230,"Ġtransportation":8231,"Ġweaken":8232,"otechn":8233,"Ġtowns":8234,"Ġexemption":8235,"Ġexclusive":8236,"Ġdarfur":8237,"Ġpipeline":8238,"Ġepidemic":8239,"Ġrepercussions":8240,"tion":8241,"Ġsoph":8242,"eness":8243,"Ġhars":8244,"icate":8245,"Ġweigh":8246,"Ġstorm":8247,"Ġunknow":8248,"ode":8249,"Ġjac":8250,"Ġresidents":8251,"Ġsolana":8252,"Ġempire":8253,"Ġ32":8254,"archy":8255,"Ġcorre":8256,"Ġensured":8257,"Ġurged":8258,"Ġexplore":8259,"Ġconsequently":8260,"Ġfocuses":8261,"Ġbright":8262,"Ġpreferred":8263,"Ġadaptation":8264,"Ġlawyers":8265,"Ġacademic":8266,"Ġmarriage":8267,"Ġpesticides":8268,"Ġlinguistic":8269,"Ġau":8270,"icing":8271,"Ġloud":8272,"Ġforb":8273,"Ġunres":8274,"lls":8275,"rend":8276,"text":8277,"osevic":8278,"inton":8279,"Ġartists":8280,"Ġpatten":8281,"Ġyounger":8282,"Ġdevices":8283,"Ġsenti":8284,"Ġsafeguards":8285,"Ġdisplaced":8286,"consist":8287,"Ġfloods":8288,"Ġembarrass":8289,"Ġscreen":8290,"Ġbubble":8291,"Ġslovenia":8292,"Ġbrilliant":8293,"Ġnerv":8294,"ull":8295,"akh":8296,"ieth":8297,"Ġmanagers":8298,"forest":8299,"Ġopens":8300,"Ġbench":8301,"Ġtrials":8302,"Ġtrigg":8303,"Ġaddresses":8304,"Ġcharged":8305,"Ġdetention":8306,"Ġweekend":8307,"Ġtested":8308,"Ġdisprop":8309,"Ġstrive":8310,"exist":8311,"Ġcomplaint":8312,"Ġtransferred":8313,"Ġabolished":8314,"Ġwitnessed":8315,"welve":8316,"Ġdevastating":8317,"Ġfischler":8318,"Ġsecurities":8319,"ustainable":8320,"hard":8321,"oral":8322,"Ġtoys":8323,"thor":8324,"omed":8325,"Ġgmos":8326,"Ġdereg":8327,"Ġappalling":8328,"Ġtransmission":8329,"Ġgene":8330,"oval":8331,"Ġavailability":8332,"Ġoriented":8333,"Ġpackaging":8334,"Ġreturns":8335,"Ġfold":8336,"Ġclarified":8337,"Ġconcentrated":8338,"Ġdistinct":8339,"Ġregistered":8340,"Ġthirds":8341,"Ġseventh":8342,"Ġcambod":8343,"iannual":8344,"ipp":8345,"public":8346,"Ġtone":8347,"Ġdelicate":8348,"Ġleague":8349,"Ġintim":8350,"Ġacute":8351,"Ġsupporters":8352,"Ġrelax":8353,"Ġpointing":8354,"Ġdepending":8355,"egovina":8356,"Ġunderstands":8357,"Ġsubjected":8358,"Ġweaker":8359,"Ġindicates":8360,"Ġdelegations":8361,"Ġsafeguarding":8362,"Ġattempted":8363,"Ġadvocates":8364,"Ġrigorous":8365,"Ġpurchase":8366,"Ġconstituency":8367,"Ġpursuit":8368,"Ġshipping":8369,"Ġaston":8370,"remlin":8371,"israel":8372,"fi":8373,"oy":8374,"view":8375,"Ġsin":8376,"Ġbrown":8377,"stop":8378,"Ġgue":8379,"quite":8380,"Ġoutcomes":8381,"Ġincur":8382,"tex":8383,"Ġremit":8384,"Ġextract":8385,"Ġ48":8386,"Ġlimiting":8387,"Ġvisas":8388,"Ġ600":8389,"strÃ¶":8390,"Ġcontaining":8391,"Ġclosure":8392,"Ġsanter":8393,"Ġpressures":8394,"Ġdeclining":8395,"Ġfeeding":8396,"Ġarrangement":8397,"Ġattempting":8398,"Ġvirtual":8399,"Ġabolish":8400,"Ġembargo":8401,"Ġneighborhood":8402,"Ġinfringement":8403,"Ġstringent":8404,"Ġnervous":8405,"Ġdisproportion":8406,"strÃ¶m":8407,"power":8408,"Ġcig":8409,"Ġbid":8410,"orously":8411,"Ġmugabe":8412,"ura":8413,"ola":8414,"Ġshr":8415,"mbered":8416,"Ġkremlin":8417,"outs":8418,"Ġuser":8419,"Ġprint":8420,"Ġguine":8421,"Ġproblematic":8422,"Ġdistant":8423,"Ġshortage":8424,"Ġretail":8425,"Ġ65":8426,"Ġverts":8427,"Ġconnections":8428,"Ġbitter":8429,"Ġacquired":8430,"Ġpunished":8431,"Ġdedicated":8432,"Ġpragmatic":8433,"Ġdossier":8434,"Ġenshrined":8435,"Ġherzegovina":8436,"Ġstricter":8437,"tal":8438,"yn":8439,"Ġpap":8440,"Ġfro":8441,"Ġinse":8442,"aled":8443,"Ġdare":8444,"ille":8445,"Ġster":8446,"Ġstamp":8447,"Ġunified":8448,"amount":8449,"acing":8450,"osexual":8451,"Ġroth":8452,"Ġsuppose":8453,"Ġlibrary":8454,"Ġrisky":8455,"Ġflour":8456,"Ġreviewed":8457,"Ġcriticised":8458,"Ġsensit":8459,"Ġlimitations":8460,"Ġacquire":8461,"Ġunsatisf":8462,"onym":8463,"Ġpurchasing":8464,"Ġnewspapers":8465,"Ġqa":8466,"Ġhalt":8467,"Ġenvisaged":8468,"Ġdeprived":8469,"Ġecofin":8470,"Ġdistinguish":8471,"Ġconvey":8472,"Ġingredients":8473,"Ġcaucas":8474,"11":8475,"rition":8476,"inct":8477,"atom":8478,"Ġwond":8479,"Ġpand":8480,"icious":8481,"ested":8482,"Ġride":8483,"Ġju":8484,"Ġdisregard":8485,"Ġarises":8486,"Ġsyner":8487,"Ġclinton":8488,"anger":8489,"Ġfactory":8490,"Ġremoval":8491,"Ġestonia":8492,"Ġ36":8493,"Ġheaded":8494,"Ġfunny":8495,"Ġidentical":8496,"Ġmultiannual":8497,"Ġstresses":8498,"Ġavoiding":8499,"Ġethi":8500,"Ġreinfor":8501,"Ġmissions":8502,"Ġmagic":8503,"Ġodd":8504,"true":8505,"Ġentails":8506,"Ġhydrogen":8507,"Ġpostponed":8508,"anes":8509,"Ġhind":8510,"Ġdual":8511,"Ġbeach":8512,"Ġunst":8513,"Ġunrest":8514,"esty":8515,"Ġshoulder":8516,"uels":8517,"Ġtimor":8518,"agon":8519,"uber":8520,"Ġcaution":8521,"Ġexpecting":8522,"Ġeducated":8523,"Ġsatur":8524,"Ġchallenging":8525,"Ġmassac":8526,"Ġbiotechn":8527,"Ġsatisfy":8528,"Ġcollected":8529,"Ġmedicinal":8530,"willing":8531,"Ġstockholm":8532,"Ġquantities":8533,"Ġexpanded":8534,"Ġtranslate":8535,"icycle":8536,"bollah":8537,"Ġunusual":8538,"count":8539,"ek":8540,"Ġinconsist":8541,"Ġgiant":8542,"rig":8543,"Ġabund":8544,"Ġspons":8545,"seless":8546,"neg":8547,"Ġfoodstuffs":8548,"Ġclothes":8549,"Ġcivilization":8550,"Ġburning":8551,"Ġexcited":8552,"political":8553,"Ġdestroying":8554,"Ġconsolidate":8555,"Ġdisadvantage":8556,"Ġevolved":8557,"Ġdecrease":8558,"Ġwholeheartedly":8559,"Ġkurdish":8560,"iest":8561,"mother":8562,"Ġtherap":8563,"Ġmu":8564,"Ġnl":8565,"Ġstret":8566,"Ġalter":8567,"Ġexert":8568,"forward":8569,"tell":8570,"Ġrap":8571,"ordan":8572,"Ġconfused":8573,"Ġinteraction":8574,"Ġinterconnect":8575,"Ġmilosevic":8576,"Ġprivacy":8577,"Ġweakened":8578,"Ġredist":8579,"Ġstriking":8580,"Ġmerkel":8581,"Ġrecords":8582,"Ġslaughter":8583,"Ġtypically":8584,"Ġwithdrawn":8585,"Ġtuna":8586,"Ġngl":8587,"Ġoptimism":8588,"vestock":8589,"Ġstabilisation":8590,"Ġindirectly":8591,"Ġinterpreted":8592,"Ġlandscape":8593,"Ġfabric":8594,"Ġfantastic":8595,"Ġdisarmament":8596,"Ġhorizontal":8597,"Ġbunch":8598,"Ġdile":8599,"Ġgraph":8600,"unless":8601,"Ġincap":8602,"Ġexpenses":8603,"Ġapple":8604,"Ġunderway":8605,"Ġguant":8606,"Ġaffirm":8607,"teneg":8608,"Ġdelivery":8609,"Ġoccurs":8610,"Ġguidance":8611,"Ġcattle":8612,"Ġdisadvantaged":8613,"Ġcopyright":8614,"Ġunequiv":8615,"Ġcelebrate":8616,"Ġholiday":8617,"imagine":8618,"Ġpredecess":8619,"Ġunknown":8620,"mits":8621,"Ġcoc":8622,"Ġinject":8623,"Ġunwilling":8624,"oren":8625,"Ġenact":8626,"Ġlev":8627,"Ġlivestock":8628,"Ġusd":8629,"Ġwanting":8630,"Ġconfirms":8631,"Ġsecre":8632,"Ġentertain":8633,"Ġlifel":8634,"Ġlatvia":8635,"Ġassessing":8636,"Ġ95":8637,"Ġembark":8638,"Ġworthwhile":8639,"rehensible":8640,"Ġstayed":8641,"Ġjews":8642,"Ġhungry":8643,"Ġfulfilling":8644,"Ġstruggling":8645,"Ġexclude":8646,"Ġinspection":8647,"Ġinfected":8648,"Ġinterference":8649,"Ġmotivated":8650,"Ġharsh":8651,"uum":8652,"inations":8653,"Ġbay":8654,"Ġdry":8655,"arians":8656,"Ġgases":8657,"Ġwearing":8658,"unlike":8659,"Ġrw":8660,"Ġdisin":8661,"inki":8662,"Ġofficially":8663,"Ġcountryside":8664,"Ġassumption":8665,"Ġscan":8666,"Ġinsult":8667,"Ġpromotes":8668,"Ġsoul":8669,"Ġthreatens":8670,"Ġtopical":8671,"Ġembry":8672,"Ã¡n":8673,"Ġundermining":8674,"Ġthirty":8675,"Ġweaknesses":8676,"Ġvocational":8677,"Ġtechniques":8678,"Ġqaeda":8679,"sch":8680,"zing":8681,"Ġpages":8682,"Ġanger":8683,"Ġhed":8684,"Ġconj":8685,"Ġasks":8686,"Ġchose":8687,"load":8688,"Ġdisor":8689,"Ġmining":8690,"Ġrequiring":8691,"Ġhandled":8692,"lessness":8693,"Ġsuccesses":8694,"Ġactivists":8695,"Ġemphasize":8696,"Ġdomain":8697,"Ġposts":8698,"Ġmodernisation":8699,"Ġethics":8700,"Ġ250":8701,"Ġexploited":8702,"Ġdictator":8703,"Ġharvest":8704,"Ġsupposedly":8705,"Ġadjustments":8706,"Ġdelivering":8707,"Ġsettled":8708,"Ġblocked":8709,"Ġiceland":8710,"Ġcorrespond":8711,"Ġconfrontation":8712,"Ġdesperate":8713,"Ġorientation":8714,"Ġsaharan":8715,"Ġfeasible":8716,"Ġunderpin":8717,"Ġukrainian":8718,"Ġgarden":8719,"Ġdilemm":8720,"10":8721,"cot":8722,"due":8723,"hand":8724,"sinki":8725,"Ġscept":8726,"ĠbÃ¶":8727,"Ġunt":8728,"cile":8729,"Ġjar":8730,"Ġjordan":8731,"conc":8732,"Ġpeak":8733,"Ġclash":8734,"Ġdirections":8735,"Ġdeflation":8736,"Ġmah":8737,"Ġhelsinki":8738,"Ġauthors":8739,"Ġpatents":8740,"Ġlacks":8741,"Ġreturning":8742,"Ġratio":8743,"Ġdivisions":8744,"Ġharmonise":8745,"Ġwinning":8746,"Ġsubstantive":8747,"Ġquantity":8748,"Ġroutes":8749,"Ġstraightforward":8750,"Ġmagaz":8751,"grace":8752,"Ġcorresponding":8753,"trans":8754,"Ġschedule":8755,"Ġromanian":8756,"Ġsuspicion":8757,"respective":8758,"Ġutterly":8759,"Ġsimultaneously":8760,"Ġbiofuels":8761,"glo":8762,"Ġtill":8763,"Ġtheore":8764,"Ġfla":8765,"Ġeager":8766,"Ġprolong":8767,"Ġhague":8768,"Ġwasted":8769,"Ġpretext":8770,"Ġmartin":8771,"Ġlegs":8772,"Ġtwent":8773,"Ġmines":8774,"Ġafterwards":8775,"too":8776,"Ġartist":8777,"Ġintegral":8778,"Ġprofitable":8779,"Ġplacing":8780,"Ġillegally":8781,"Ġmerit":8782,"Ġappreciated":8783,"Ġadvocated":8784,"Ġsymbols":8785,"Ġthrown":8786,"Ġyellow":8787,"Ġpluralism":8788,"Ġofficers":8789,"Ġnordic":8790,"Ġridiculous":8791,"Ġmonopolies":8792,"Ġatomic":8793,"cut":8794,"cend":8795,"others":8796,"Ġtong":8797,"anas":8798,"ica":8799,"Ġproves":8800,"ests":8801,"Ġenforced":8802,"Ġabortion":8803,"Ġworkforce":8804,"Ġmart":8805,"Ġpermission":8806,"Ġloan":8807,"Ġattribut":8808,"Ġ1930":8809,"Ġnationalist":8810,"ructive":8811,"Ġearmark":8812,"Ġrestored":8813,"Ġsecondary":8814,"Ġpersonality":8815,"Ġsectoral":8816,"Ġambass":8817,"Ġskill":8818,"Ġdeparture":8819,"Ġproclaim":8820,"ariat":8821,"Ġrigid":8822,"Ġawait":8823,"Ġfranc":8824,"Ġprominent":8825,"Ġcigaret":8826,"Ġguinea":8827,"enous":8828,"Ġpump":8829,"rained":8830,"Ġcancell":8831,"Ġinclusive":8832,"Ġmonti":8833,"Ġpron":8834,"Ġresolute":8835,"Ġdeadlines":8836,"Ġfrontiers":8837,"Ġfacilitating":8838,"Ġeliminating":8839,"Ġalien":8840,"Ġcrying":8841,"Ġcatastroph":8842,"Ġbeneficiaries":8843,"ifornia":8844,"Ġcaucasus":8845,"aire":8846,"ius":8847,"writ":8848,"Ġmush":8849,"Ġinex":8850,"ione":8851,"alistic":8852,"Ġdrew":8853,"Ġmep":8854,"quest":8855,"Ġpolls":8856,"alled":8857,"Ġtempt":8858,"Ġprest":8859,"athers":8860,"Ġfinancially":8861,"Ġtreating":8862,"Ġassass":8863,"Ġintermedi":8864,"Ġlisted":8865,"Ġbrave":8866,"Ġgeopol":8867,"Ġscientist":8868,"Ġdivor":8869,"Ġfrontier":8870,"Ġpreparatory":8871,"Ġflowers":8872,"Ġforestry":8873,"Ġegyptian":8874,"Ġinspections":8875,"Ġineffective":8876,"Ġdisappointment":8877,"ladesh":8878,"Ġpersecution":8879,"Ġdisparities":8880,"Ġbacteria":8881,"Ġtribunal":8882,"Ġunsatisfactory":8883,"99":8884,"fif":8885,"yer":8886,"yan":8887,"Ġba":8888,"Ġmas":8889,"Ġdil":8890,"Ġdance":8891,"Ġaltogether":8892,"sile":8893,"Ġ120":8894,"india":8895,"Ġmonteneg":8896,"Ġglobe":8897,"Ġforesee":8898,"Ġsurger":8899,"Ġwheel":8900,"Ġbenefited":8901,"Ġprofile":8902,"Ġairpl":8903,"Ġattacked":8904,"Ġdiet":8905,"Ġwondering":8906,"Ġcriticisms":8907,"Ġexecution":8908,"Ġasean":8909,"aust":8910,"father":8911,"Ġtum":8912,"Ġtab":8913,"Ġtwelve":8914,"oness":8915,"Ġpy":8916,"Ġpuzz":8917,"Ġnative":8918,"leted":8919,"Ġlap":8920,"antic":8921,"Ġpartial":8922,"Ġplastic":8923,"Ġdisgrace":8924,"author":8925,"Ġcofin":8926,"Ġcoins":8927,"Ġcoexist":8928,"Ġpoison":8929,"Ġindiff":8930,"Ġtransnational":8931,"Ġsimpler":8932,"Ġsections":8933,"Ġadvisory":8934,"Ġcompletion":8935,"Ġfounding":8936,"Ġencoun":8937,"Ġgravity":8938,"Ġjudged":8939,"Ġ800":8940,"Ġpatience":8941,"Ġmerits":8942,"Ġprofessionals":8943,"lusconi":8944,"Ġhomosexual":8945,"Ġpanel":8946,"Ġautomatic":8947,"Ġcorporations":8948,"Ġspectac":8949,"keeping":8950,"Ġhatred":8951,"25":8952,"ige":8953,"ridge":8954,"win":8955,"was":8956,"Å¡":8957,"inating":8958,"inery":8959,"Ġdad":8960,"raf":8961,"rade":8962,"thetic":8963,"Ġshocks":8964,"Ġshocked":8965,"Ġexhib":8966,"liers":8967,"âĢľ":8968,"Ġintr":8969,"apore":8970,"whilst":8971,"Ġcurious":8972,"Ġcontinually":8973,"Ġestimate":8974,"Ġsurge":8975,"ibi":8976,"Ġze":8977,"Ġchoosing":8978,"Ġcoordinating":8979,"Ġclauses":8980,"Ġclasses":8981,"Ġreactions":8982,"Ġtransformed":8983,"Ġshopping":8984,"Ġaffordable":8985,"Ġbalkan":8986,"Ġremoving":8987,"Ġselected":8988,"Ġpredicted":8989,"Ġawaiting":8990,"Ġdisappointing":8991,"Ġkenya":8992,"Ġgratitude":8993,"Ġtsun":8994,"Ġfrontex":8995,"Ġcautious":8996,"Ġmisleading":8997,"ae":8998,"gments":8999,"ker":9000,"tail":9001,"Ġtag":9002,"Ġaqu":9003,"oned":9004,"Ġpin":9005,"anium":9006,"Ġbone":9007,"rot":9008,"stal":9009,"ulates":9010,"Ġleap":9011,"ometers":9012,"Ġpolar":9013,"Ġkinn":9014,"Ġworkplace":9015,"Ġloyal":9016,"Ġclimb":9017,"Ġconfined":9018,"Ġdesk":9019,"Ġpublication":9020,"Ġwarned":9021,"being":9022,"Ġaiming":9023,"Ġmistaken":9024,"Ġrelevance":9025,"Ġslide":9026,"Ġwalls":9027,"Ġorders":9028,"Ġincorrect":9029,"Ġbombs":9030,"Ġeliminated":9031,"Ġtolerate":9032,"Ġcontradictory":9033,"Ġrooted":9034,"Ġinterfere":9035,"Ġautonomous":9036,"Ġmortality":9037,"Ġcfsp":9038,"Ġsubscri":9039,"Ġkinnock":9040,"iety":9041,"Ġcure":9042,"Ġdread":9043,"Ġgang":9044,"Ġlin":9045,"Ġlikewise":9046,"Ġregain":9047,"ago":9048,"Ġserving":9049,"Ġrobert":9050,"Ġ1950":9051,"Ġsmugg":9052,"working":9053,"Ġformulated":9054,"Ġchildhood":9055,"Ġdemocratisation":9056,"Ġclothing":9057,"Ġsummar":9058,"Ġbrains":9059,"Ġparent":9060,"Ġjudici":9061,"Ġcirculation":9062,"Ġassessed":9063,"Ġfairness":9064,"Ġensures":9065,"Ġsecretariat":9066,"Ġsalary":9067,"umph":9068,"Ġreferences":9069,"Ġpremium":9070,"Ġcapture":9071,"Ġminimal":9072,"Ġcounterfeiting":9073,"Ġtampe":9074,"Ġstalin":9075,"Ġchicken":9076,"gain":9077,"mi":9078,"Ġtries":9079,"intern":9080,"isible":9081,"Ġsends":9082,"Ġpup":9083,"ano":9084,"vez":9085,"Ġgift":9086,"Ġyemen":9087,"Ġneo":9088,"Ġmeal":9089,"ima":9090,"Ġleh":9091,"Ġchern":9092,"Ġkick":9093,"Ġoutrage":9094,"Ġpool":9095,"Ġissuing":9096,"Ġroles":9097,"Ġclim":9098,"Ġjoy":9099,"Ġdiscovery":9100,"Ġestate":9101,"Ġgotten":9102,"Ġbarn":9103,"Ġparticipated":9104,"Ġpoorly":9105,"Ġsuperf":9106,"Ġgaining":9107,"Ġcompetitors":9108,"Ġignor":9109,"accordingly":9110,"Ġdogs":9111,"Ġberlusconi":9112,"Ġengineers":9113,"Ġfrequent":9114,"Ġquarters":9115,"Ġanxious":9116,"Ġacadem":9117,"Ġtravelling":9118,"Ġmichel":9119,"Ġsubstitute":9120,"Ġoxygen":9121,"Ġintimid":9122,"Ġly":9123,"Ġpian":9124,"Ġbio":9125,"Ġinsight":9126,"Ġga":9127,"Ġallev":9128,"Ġuphe":9129,"Ġrecruit":9130,"Ġindig":9131,"Ġtermin":9132,"Ġlobb":9133,"Ġfacto":9134,"Ġattended":9135,"Ġnationality":9136,"airy":9137,"Ġrulers":9138,"Ġobjection":9139,"Ġ34":9140,"Ġministerial":9141,"Ġgermans":9142,"Ġobsc":9143,"Ġmetaph":9144,"Ġcapacities":9145,"Ġsadly":9146,"Ġdictionary":9147,"Ġcharacterised":9148,"Ġpicked":9149,"Ġpremature":9150,"Ġsharply":9151,"Ġlucky":9152,"Ġvacuum":9153,"Ġtariffs":9154,"Ġbangladesh":9155,"Ġprotein":9156,"Ġventure":9157,"Ġarbitrary":9158,"Ġrestaurant":9159,"mary":9160,"oby":9161,"var":9162,"zbollah":9163,"Ġtied":9164,"Ġbicycle":9165,"Ġfrat":9166,"Ġhang":9167,"Ġdal":9168,"asy":9169,"Ġlou":9170,"Ġluc":9171,"idel":9172,"Ġally":9173,"Ġunamb":9174,"ounted":9175,"iped":9176,"Ġroof":9177,"Ġjoke":9178,"Ġbehave":9179,"Ġtriumph":9180,"Ġmorator":9181,"Ġfloren":9182,"Ġharmonization":9183,"Ġcalifornia":9184,"Ġjean":9185,"Ġfooting":9186,"Ġcompensate":9187,"Ġpreference":9188,"Ġconstituents":9189,"Ġlicence":9190,"Ġreassure":9191,"Ġduplic":9192,"Ġvigilant":9193,"Ġredistribut":9194,"Ġincapable":9195,"global":9196,"Ġtwentieth":9197,"Ġjudiciary":9198,"bles":9199,"build":9200,"ja":9201,"lause":9202,"Ġthin":9203,"Ġfol":9204,"Ġfled":9205,"Ġinability":9206,"Ġhect":9207,"Ġdairy":9208,"Ġunification":9209,"oper":9210,"oded":9211,"Ġrival":9212,"Ġrow":9213,"Ġclock":9214,"ords":9215,"Ġenergies":9216,"belie":9217,"Ġspecified":9218,"Ġpositively":9219,"germany":9220,"Ġrenewal":9221,"Ġinfrastructures":9222,"Ġwealthy":9223,"Ġpetition":9224,"Ġbarrier":9225,"Ġquantitative":9226,"Ġinspectors":9227,"tini":9228,"Ġodds":9229,"Ġdeployed":9230,"Ġprivilege":9231,"Ġcompliment":9232,"Ġtampere":9233,"Ġchernoby":9234,"Ġchernobyl":9235,"gent":9236,"atri":9237,"Ġinjust":9238,"lets":9239,"Ġumb":9240,"social":9241,"Ġjack":9242,"Ġkitch":9243,"Ġcomplied":9244,"Ġmars":9245,"Ġmadrid":9246,"surely":9247,"Ġtransplant":9248,"Ġemail":9249,"Ġcritics":9250,"Ġreformed":9251,"Ġairline":9252,"Ġreceives":9253,"Ġbankers":9254,"Ġcapitalist":9255,"print":9256,"Ġperforming":9257,"irac":9258,"Ġautomob":9259,"Ġcourageous":9260,"Ġhospitals":9261,"Ġradioactive":9262,"Ġpreferences":9263,"Ġreciproc":9264,"Ġdeliberately":9265,"Ġforecasts":9266,"Ġticket":9267,"recently":9268,"Ġeligible":9269,"Ġtreasury":9270,"Ġveterinary":9271,"Ġmontenegro":9272,"fire":9273,"top":9274,"tles":9275,"Ġporn":9276,"Ġhoc":9277,"Ġdates":9278,"ilater":9279,"Ġgamb":9280,"Ġham":9281,"ades":9282,"Ġworries":9283,"Ġchocol":9284,"Ġpreserv":9285,"Ġages":9286,"Ġintent":9287,"Ġacced":9288,"Ġfaire":9289,"Ġcoverage":9290,"Ġprecious":9291,"Ġrealised":9292,"Ġforming":9293,"Ġseriousness":9294,"Ġbargain":9295,"Ġsummary":9296,"Ġemphasises":9297,"Ġskilled":9298,"Ġdeepening":9299,"Ġclever":9300,"Ġsalaries":9301,"Ġarrival":9302,"Ġtony":9303,"Ġcrack":9304,"Ġdoctr":9305,"Ġmaxim":9306,"Ġoceans":9307,"Ġroutine":9308,"Ġbabies":9309,"Ġlady":9310,"Ġdetriment":9311,"Ġinspiration":9312,"Ġreluctant":9313,"Ġcollapsed":9314,"Ġremembered":9315,"Ġmoratorium":9316,"ilaterally":9317,"fol":9318,"lim":9319,"taking":9320,"wer":9321,"isual":9322,"ider":9323,"teries":9324,"ams":9325,"Ġupset":9326,"Ġlobby":9327,"Ġentity":9328,"Ġcarries":9329,"Ġelectrical":9330,"Ġbloc":9331,"Ġblocks":9332,"Ġswiss":9333,"Ġregulating":9334,"cope":9335,"Ġdemonstrations":9336,"Ġlearnt":9337,"Ġexplosion":9338,"Ġharass":9339,"Ġobserver":9340,"Ġchecked":9341,"Ġcuban":9342,"Ġcondemnation":9343,"Ġsweet":9344,"Ġborrowing":9345,"Ġcalculations":9346,"against":9347,"Ġanxiety":9348,"Ġmurdered":9349,"Ġsettlements":9350,"Ġpromptly":9351,"current":9352,"Ġexagger":9353,"..":9354,"dr":9355,"pan":9356,"Ġtank":9357,"invest":9358,"Ġpris":9359,"ald":9360,"step":9361,"Ġhav":9362,"raint":9363,"Ġleon":9364,"aming":9365,"Ġkaz":9366,"Ġtiming":9367,"Ġunderlined":9368,"ernity":9369,"uesday":9370,"Ġconferences":9371,"Ġmont":9372,"Ġcontinuity":9373,"ailand":9374,"Ġbanana":9375,"Ġinflic":9376,"Ġsimpl":9377,"Ġdeput":9378,"Ġ33":9379,"Ġ38":9380,"Ġnorms":9381,"Ġears":9382,"Ġannually":9383,"ashed":9384,"Ġidentification":9385,"Ġ85":9386,"Ġweakening":9387,"Ġindications":9388,"Ġaudiov":9389,"Ġricher":9390,"Ġreconcile":9391,"Ġmutually":9392,"Ġeaten":9393,"Ġmachinery":9394,"Ġprosperous":9395,"Ġcompeting":9396,"Ġniger":9397,"Ġscott":9398,"usalem":9399,"Ġshaped":9400,"Ġintolerable":9401,"Ġbankruptcy":9402,"Ġcambodia":9403,"concern":9404,"Ġearmarked":9405,"Ġaudiovisual":9406,"mony":9407,"itives":9408,"Ġmi":9409,"ala":9410,"looking":9411,"Ġcompris":9412,"pected":9413,"Ġspin":9414,"Ġmineral":9415,"Ġmao":9416,"Ġeleph":9417,"Ġlights":9418,"Ġflee":9419,"isticated":9420,"Ġrejecting":9421,"Ġdefinitions":9422,"Ġbreakfast":9423,"atson":9424,"Ġreminds":9425,"Ġdetermining":9426,"Ġunsustainable":9427,"Ġaccepts":9428,"Ġsighted":9429,"Ġmovies":9430,"Ġenemies":9431,"Ġimbalance":9432,"Ġaccelerate":9433,"Ġsacrifice":9434,"Ġdiscriminatory":9435,"Ġmultinationals":9436,"Ġbiotechnology":9437,"countries":9438,"Ġtsunami":9439,"Ġunambig":9440,"cc":9441,"eenth":9442,"Â·":9443,"Ġtuesday":9444,"Ġcs":9445,"oup":9446,"lex":9447,"Ġgath":9448,"owski":9449,"Ġseize":9450,"liest":9451,"Ġimpunity":9452,"Ġkim":9453,"Ġlikelihood":9454,"Ġeconomist":9455,"Ġoffences":9456,"risy":9457,"Ġgrows":9458,"Ġcapability":9459,"Ġrisen":9460,"Ġprotectionist":9461,"Ġwriter":9462,"Ġreforming":9463,"Ġpatri":9464,"Ġshareholders":9465,"Ġwaves":9466,"Ġsubsidy":9467,"Ġdeval":9468,"Ġdemonstrating":9469,"Ġradiation":9470,"Ġextrad":9471,"Ġencouragement":9472,"Ġfilms":9473,"undering":9474,"governments":9475,"Ġbeliefs":9476,"Ġtranslated":9477,"Ġdeterioration":9478,"Ġdetrimental":9479,"Ġdeemed":9480,"Ġunexpected":9481,"Ġdisorder":9482,"lers":9483,"Ġtig":9484,"Ġsir":9485,"Ġdirty":9486,"Ġbeer":9487,"Ġhab":9488,"cher":9489,"aint":9490,"Ġleverage":9491,"ours":9492,"Ġoutlook":9493,"Ġmarry":9494,"Ġrecur":9495,"Ġconfidential":9496,"article":9497,"Ġcontinuous":9498,"Ġuranium":9499,"Ġsuppliers":9500,"Ġpricing":9501,"Ġcollecting":9502,"Ġwatched":9503,"Ġstaying":9504,"Ġpakistani":9505,"ilingual":9506,"Ġgolden":9507,"Ġprohibited":9508,"Ġsplend":9509,"Ġextremists":9510,"Ġupdate":9511,"Ġcertific":9512,"Ġapologise":9513,"Ġversus":9514,"Ġhypocrisy":9515,"Ġprosecutor":9516,"ĠÃł":9517,"Ġdilemma":9518,"gi":9519,"Ġaver":9520,"Ġwatson":9521,"Ġsant":9522,"Ġped":9523,"icism":9524,"Ġnap":9525,"Ġnons":9526,"oles":9527,"Ġchirac":9528,"Ġkne":9529,"Ġadhere":9530,"depend":9531,"Ġspare":9532,"ips":9533,"Ġsystemic":9534,"Ġrefund":9535,"Ġdownturn":9536,"Ġnorway":9537,"Ġvalley":9538,"Ġfurthermore":9539,"Ġbarbar":9540,"Ġgrain":9541,"Ġdestructive":9542,"Ġdevote":9543,"Ġconcluding":9544,"Ġanalog":9545,"Ġillusion":9546,"Ġcreditors":9547,"Ġinvestigated":9548,"Ġcrush":9549,"Ġinher":9550,"Ġhostile":9551,"Ġfifty":9552,"backs":9553,"Ġferre":9554,"Ġmagnitude":9555,"Ġalex":9556,"Ġvegetables":9557,"Ġskept":9558,"Ġsophisticated":9559,"Ġderegulation":9560,"Ġsensitivity":9561,"Ġethiopia":9562,"Ġtongue":9563,"Ġgeopolitical":9564,"Ġsurgery":9565,"Ġkitchen":9566,"Ġchocolate":9567,"Ġpreservation":9568,"sa":9569,"onic":9570,"atories":9571,"icts":9572,"lements":9573,"Ġlake":9574,"Ġforcing":9575,"Ġunw":9576,"imination":9577,"Ġagents":9578,"Ġresid":9579,"Ġpresidencies":9580,"igate":9581,"ller":9582,"sia":9583,"Ġrape":9584,"Ġbeha":9585,"Ġirrespective":9586,"Ġ55":9587,"Ġcreatures":9588,"Ġstructured":9589,"itherto":9590,"Ġappropriately":9591,"Ġburn":9592,"Ġhonor":9593,"Ġobtaining":9594,"Ġexceptionally":9595,"Ġenhancing":9596,"Ġpermanently":9597,"Ġcomparative":9598,"Ġiii":9599,"Ġinsisted":9600,"Ġhurry":9601,"Ġemotions":9602,"asmus":9603,"Ġextremism":9604,"Ġneglected":9605,"Ġcontemporary":9606,"Ġsequence":9607,"tegration":9608,"Ġreunification":9609,"Ġprecondition":9610,"Ġprestige":9611,"bra":9612,"math":9613,"sv":9614,"Ġlying":9615,"Ġak":9616,"Ġflaw":9617,"Ġanc":9618,"Ġeve":9619,"Ġrect":9620,"Ġlank":9621,"Ġproactive":9622,"Ġunite":9623,"Ġseeds":9624,"liances":9625,"soon":9626,"Ġhezbollah":9627,"Ġpartially":9628,"okay":9629,"Ġdiffering":9630,"Ġserbian":9631,"Ġprovoc":9632,"Ġentities":9633,"Ġcenters":9634,"Ġtransposition":9635,"Ġmedi":9636,"Ġcontrovers":9637,"Ġcivilisation":9638,"Ġmissile":9639,"Ġfarmer":9640,"Ġgrab":9641,"appy":9642,"Ġmodernization":9643,"Ġperformed":9644,"Ġordered":9645,"front":9646,"Ġvirtue":9647,"Ġtraditionally":9648,"Ġcalculated":9649,"Ġdiagnosis":9650,"Ġaccomplished":9651,"Ġwholly":9652,"Ġdrastic":9653,"Ġdatabase":9654,"Ġmagazine":9655,"Ġsplendid":9656,"aunch":9657,"Ġtabling":9658,"Ġaer":9659,"Ġshed":9660,"cio":9661,"Ġkiss":9662,"ivable":9663,"aker":9664,"Ġcounts":9665,"Ġroyal":9666,"Ġemph":9667,"Ġsmile":9668,"worthy":9669,"Ġbanning":9670,"Ġformation":9671,"Ġsingapore":9672,"Ġlivelihood":9673,"Ġarguing":9674,"Ġexplains":9675,"Ġoccurring":9676,"Ġtunnel":9677,"Ġphoto":9678,"Ġmemor":9679,"Ġdisagreement":9680,"baij":9681,"Ġvaccine":9682,"Ġdistortions":9683,"Ġprost":9684,"iran":9685,"Ġuncle":9686,"Ġorch":9687,"Ġnoon":9688,"Ġprec":9689,"Ġreck":9690,"Ġinstances":9691,"Ġprovince":9692,"Ġaddiction":9693,"ologist":9694,"Ġbackwards":9695,"Ġinterdepend":9696,"Ġtechnically":9697,"Ġlifted":9698,"Ġindex":9699,"Ġelimination":9700,"Ġ42":9701,"cker":9702,"Ġtextiles":9703,"hope":9704,"Ġgenerating":9705,"Ġfleets":9706,"Ġexcellence":9707,"Ġportfol":9708,"Ġinfluenced":9709,"Ġrobots":9710,"Ġvulnerability":9711,"clock":9712,"carious":9713,"Ġmountains":9714,"Ġdeliberations":9715,"contro":9716,"Ġawarded":9717,"Ġdisturbing":9718,"Ġgathering":9719,"Ġjerusalem":9720,"Ġvolatility":9721,"sadly":9722,"Ġsomalia":9723,"Ġunstable":9724,"negoti":9725,"Ġlifelong":9726,"Ġrwanda":9727,"kov":9728,"list":9729,"Ġthailand":9730,"Ġot":9731,"esity":9732,"Ġindu":9733,"Ġreop":9734,"Ġbee":9735,"Ġgor":9736,"Ġlocked":9737,"Ġstating":9738,"ounced":9739,"Ġorange":9740,"Ġkur":9741,"Ġparliamentarians":9742,"Ġarisen":9743,"Ġcloning":9744,"Ġdefici":9745,"ologically":9746,"Ġrevise":9747,"Ġmilitar":9748,"Ġpassport":9749,"Ġclosest":9750,"Ġintegrating":9751,"Ġfunctional":9752,"Ġconducting":9753,"Ġseparated":9754,"Ġhorrif":9755,"Ġexplanatory":9756,"Ġderiv":9757,"Ġconsolidated":9758,"prot":9759,"Ġcrowd":9760,"Ġswimming":9761,"Ġincomprehensible":9762,"Ġmercury":9763,"Ġabstract":9764,"Ġcatholic":9765,"Ġprisons":9766,"bus":9767,"cor":9768,"ey":9769,"fo":9770,"fish":9771,"met":9772,"net":9773,"Ã§":9774,"Ãº":9775,"Ġazer":9776,"Ġsink":9777,"almost":9778,"Ġhill":9779,"Ġhier":9780,"Ġdies":9781,"Ġease":9782,"Ġnit":9783,"thal":9784,"Ġneur":9785,"Ġuncom":9786,"Ġeurostat":9787,"Ġshocking":9788,"essim":9789,"Ġimped":9790,"Ġimpart":9791,"akis":9792,"Ġoutline":9793,"Ġprecarious":9794,"Ġdecides":9795,"Ġoffset":9796,"Ġparticles":9797,"Ġgoodwill":9798,"Ġconfine":9799,"Ġministry":9800,"Ġscared":9801,"Ġbrid":9802,"gging":9803,"Ġescap":9804,"Ġstrongest":9805,"Ġframeworks":9806,"Ġviolated":9807,"Ġfundamentalism":9808,"Ġcriticise":9809,"Ġstrip":9810,"Ġcollectively":9811,"Ġstepped":9812,"Ġauthorised":9813,"Ġharbour":9814,"polit":9815,"Ġplanets":9816,"Ġreferendums":9817,"Ġpriorit":9818,"besides":9819,"Ġprevailing":9820,"Ġshifting":9821,"Ġduration":9822,"Ġchampion":9823,"Ġgallery":9824,"Ġbroadcasting":9825,"Ġcarriers":9826,"Ġmirror":9827,"Ġtears":9828,"Ġinsecurity":9829,"Ġaccusations":9830,"Ġbarnier":9831,"Ġpiano":9832,"jad":9833,"lary":9834,"recent":9835,"Ġsri":9836,"itz":9837,"Ġinland":9838,"Ġlung":9839,"Ġconform":9840,"Ġasy":9841,"Ġunb":9842,"Ġresume":9843,"Ġintu":9844,"Ġcooking":9845,"Ġarts":9846,"Ġgenome":9847,"Ġmayor":9848,"Ġmeasuring":9849,"Ġsmith":9850,"Ġbacks":9851,"Ġprevents":9852,"Ġinfin":9853,"Ġorganising":9854,"Ġreduces":9855,"Ġelites":9856,"Ġ44":9857,"Ġmentioning":9858,"Ġengaging":9859,"Ġoperates":9860,"Ġiraqis":9861,"plete":9862,"Ġcyn":9863,"Ġbreaks":9864,"Ġislamist":9865,"Ġfriendship":9866,"Ġexcessively":9867,"france":9868,"Ġjournalist":9869,"Ġscreening":9870,"Ġanalyse":9871,"Ġunrealistic":9872,"Ġincompatible":9873,"Ġunderestimate":9874,"Ġvitally":9875,"Ġpopulist":9876,"personally":9877,"Ġgesture":9878,"Ġtissue":9879,"democracy":9880,"Ġshrink":9881,"building":9882,"ext":9883,"great":9884,"iver":9885,"jour":9886,"vice":9887,"Ġaz":9888,"reb":9889,"Ġsak":9890,"Ġpir":9891,"Ġpessim":9892,"Ġmentions":9893,"Ġnom":9894,"sters":9895,"Ġpreserving":9896,"Ġexposure":9897,"Ġsyrian":9898,"Ġrefusing":9899,"Ġreasonably":9900,"Ġforeigners":9901,"Ġadministrations":9902,"Ġidentifying":9903,"Ġfishery":9904,"Ġexporting":9905,"Ġgirlf":9906,"Ġreactors":9907,"Ġhonesty":9908,"Ġretained":9909,"Ġwitnessing":9910,"Ġlengthy":9911,"Ġhypo":9912,"Ġperpetrators":9913,"Ġpersistent":9914,"Ġdespair":9915,"Ġfrustration":9916,"Ġmathematics":9917,"Ġslavery":9918,"Ġkazakh":9919,"Ġazerbaij":9920,"ua":9921,"Ġsque":9922,"Ġfib":9923,"Ġanch":9924,"asive":9925,"osur":9926,"Ġencomp":9927,"Ġreplied":9928,"arest":9929,"Ġpermits":9930,"Ġloves":9931,"introdu":9932,"Ġbasel":9933,"Ġpointless":9934,"Ġ193":9935,"Ġbudd":9936,"Ġlifting":9937,"Ġearliest":9938,"uccess":9939,"Ġ700":9940,"pran":9941,"Ġcrossing":9942,"Ġbreakdown":9943,"Ġharmony":9944,"Ġslowdown":9945,"Ġreconsider":9946,"Ġdescription":9947,"obama":9948,"Ġappearance":9949,"Ġlaying":9950,"Ġbottle":9951,"Ġpanic":9952,"Ġhonestly":9953,"Ġluxury":9954,"Ġphenomena":9955,"Ġdepartments":9956,"Ġrestricting":9957,"Ġkilomet":9958,"Ġinstallations":9959,"Ġredundant":9960,"Ġtraceability":9961,"Ġmortgage":9962,"Ġencompass":9963,"ique":9964,"Ġtap":9965,"Ġtons":9966,"Ġastr":9967,"Ġwire":9968,"orate":9969,"along":9970,"Ġhi":9971,"Ġhinder":9972,"Ġreorgan":9973,"Ġmeters":9974,"Ġchris":9975,"Ġcontents":9976,"about":9977,"Ġpoem":9978,"health":9979,"Ġrab":9980,"Ġtraum":9981,"orship":9982,"Ġdiscret":9983,"Ġempow":9984,"Ġassault":9985,"Ġschol":9986,"Ġrestoration":9987,"Ġequipped":9988,"Ġviability":9989,"Ġsuccessive":9990,"Ġconsume":9991,"Ġafricans":9992,"Ġkeynes":9993,"Ġsimilarly":9994,"Ġdinos":9995,"Ġprivileged":9996,"Ġcasual":9997,"Ġprejudice":9998,"Ġinstructions":9999,"missible":10000,"Ġeggs":10001,"Ġindigenous":10002,"Ġumbre":10003,"Ġancest":10004,"mod":10005,"zens":10006,"Ġbless":10007,"orious":10008,"Ġfathers":10009,"Ġnie":10010,"asant":10011,"ilation":10012,"Ġgn":10013,"idently":10014,"ressions":10015,"Ġunch":10016,"terror":10017,"Ġpreserved":10018,"Ġresil":10019,"Ġbutter":10020,"ouses":10021,"Ġtech":10022,"Ġarrog":10023,"inejad":10024,"Ġtrains":10025,"Ġspaces":10026,"Ġrefrain":10027,"Ġadds":10028,"Ġdefended":10029,"bean":10030,"Ġsheet":10031,"Ġvibr":10032,"Ġinitiate":10033,"Ġeru":10034,"Ġ99":10035,"Ġexplaining":10036,"Ġradically":10037,"Ġcorrected":10038,"Ġmalay":10039,"Ã©s":10040,"Ġdrafts":10041,"Ġextraordinarily":10042,"Ġreveals":10043,"Ġvigorously":10044,"Ġevolutionary":10045,"Ġsurpluses":10046,"Ġfortunately":10047,"Ġimprisoned":10048,"Ġderogation":10049,"Ġmiracle":10050,"Ġtrigger":10051,"Ġfrattini":10052,"Ġreciprocity":10053,"Ġasymmet":10054,"pranational":10055,"kash":10056,"Ġtie":10057,"Ġtends":10058,"Ġsis":10059,"Ġsessions":10060,"Ġcrop":10061,"Ġfits":10062,"ali":10063,"roach":10064,"urances":10065,"ching":10066,"Ġsupranational":10067,"cipe":10068,"quar":10069,"Ġengin":10070,"Ġwors":10071,"Ġimply":10072,"Ġquart":10073,"Ġdisability":10074,"Ġtrap":10075,"Ġinvisible":10076,"Ġhumane":10077,"Ġreasoning":10078,"Ġblocking":10079,"Ġsuccessor":10080,"Ġ46":10081,"Ġelev":10082,"Ġdraws":10083,"Ġtennis":10084,"Ġlinking":10085,"Ġconcludes":10086,"Ġreligions":10087,"Ġrichest":10088,"Ġreplacing":10089,"Ġlays":10090,"Ã¶der":10091,"Ġlaboratory":10092,"Ġbombing":10093,"born":10094,"Ġexemptions":10095,"Ġfortune":10096,"Ġracist":10097,"incre":10098,"Ġfruitful":10099,"Ġundermines":10100,"Ġdeliberate":10101,"Ġcommodities":10102,"Ġcomplementary":10103,"Ġchampions":10104,"Ġsteadily":10105,"Ġtaste":10106,"Ġdismantling":10107,"Ġdisproportionate":10108,"Ġfrozen":10109,"Ġgathered":10110,"Ġengines":10111,"dis":10112,"fts":10113,"fund":10114,"high":10115,"prom":10116,"rance":10117,"vo":10118,"ĠÂ":10119,"Ġthri":10120,"Ġpione":10121,"Ġbans":10122,"Ġdu":10123,"Ġrehab":10124,"Ġuseless":10125,"Ġalign":10126,"orted":10127,"essed":10128,"istically":10129,"Ġcanc":10130,"Ġactor":10131,"Ġobesity":10132,"Ġoffensive":10133,"athy":10134,"Ġlaundering":10135,"Ġguided":10136,"Ġcarib":10137,"Ġgrid":10138,"Ġreadiness":10139,"Ġbalances":10140,"Ġelabor":10141,"Ġ43":10142,"Ġexpressly":10143,"Ġvisits":10144,"afi":10145,"Ġwinner":10146,"namo":10147,"Ġallocate":10148,"Ġshipy":10149,"Ã¡namo":10150,"Ġterrif":10151,"Ġgrandmother":10152,"harov":10153,"Ġvessel":10154,"Ġmercosur":10155,"Ġunderestim":10156,"Ġcypriot":10157,"Ġzeal":10158,"international":10159,"mun":10160,"map":10161,"ores":10162,"vian":10163,"inform":10164,"Ġwil":10165,"Ġmol":10166,"Ġhorm":10167,"Ġhitherto":10168,"Ġdwell":10169,"Ġgro":10170,"rav":10171,"chet":10172,"Ġnets":10173,"Ġven":10174,"weight":10175,"Ġenlight":10176,"oda":10177,"Ġadmission":10178,"Ġcounting":10179,"Ġups":10180,"Ġmano":10181,"licity":10182,"Ġconcert":10183,"Ġunderground":10184,"Ġboats":10185,"itely":10186,"Ġdiscrep":10187,"Ġsecured":10188,"Ġlifet":10189,"Ġconditional":10190,"Ġadvise":10191,"Ġexpectation":10192,"Ġindividually":10193,"Ġmidst":10194,"Ġgrade":10195,"Ġcircles":10196,"Ġantibi":10197,"Ġslower":10198,"Ġtourists":10199,"Ġlaunching":10200,"Ġcooperating":10201,"Ġsimplifying":10202,"Ġboss":10203,"Ġparalys":10204,"Ġliterature":10205,"Ġprecedence":10206,"thesis":10207,"Ġevolve":10208,"Ġsuspected":10209,"Ġunhappy":10210,"Ġinsect":10211,"Ġambassador":10212,"Ġtemptation":10213,"Ġsakharov":10214,"Ġgirlfriend":10215,"Ġumbrella":10216,"ao":10217,"cultural":10218,"pes":10219,"vard":10220,"Äį":10221,"anen":10222,"Ġreimb":10223,"Ġgear":10224,"gered":10225,"Ġsemin":10226,"Ġdozen":10227,"Ġabd":10228,"Ġquo":10229,"Ġexpon":10230,"Ġspur":10231,"Ġworlds":10232,"Ġprovin":10233,"Ġdirectors":10234,"lows":10235,"petition":10236,"racted":10237,"Ġimproves":10238,"Ġallowances":10239,"Ġwelcoming":10240,"Ġequation":10241,"Ġpopulated":10242,"Ġsinging":10243,"Ġliberation":10244,"Ġbaroness":10245,"Ġboring":10246,"Ġsuggesting":10247,"euv":10248,"Ġjudgments":10249,"crimin":10250,"Ġbiom":10251,"Ġdenomin":10252,"Ġimagined":10253,"Ġbloody":10254,"erential":10255,"Ã¡vez":10256,"Ġhurric":10257,"Ġstopping":10258,"Ġdeployment":10259,"Ġintensify":10260,"amendments":10261,"Ġpoettering":10262,"Ġfortunate":10263,"Ġconjunction":10264,"Ġcatastrophic":10265,"quarters":10266,"Ġrehabilit":10267,"Ġcaribbean":10268,"Ġmanoeuv":10269,"15":10270,"don":10271,"uy":10272,"Ġwolf":10273,"Ġmud":10274,"Ġdg":10275,"Ġnas":10276,"Ġstol":10277,"ortions":10278,"Ġseed":10279,"Ġkal":10280,"conf":10281,"Ġcountless":10282,"auer":10283,"Ġcourses":10284,"Ġkeys":10285,"ictions":10286,"Ġbananas":10287,"Ġlegislators":10288,"Ġawful":10289,"Ġsuffers":10290,"Ġoldest":10291,"Ġhearings":10292,"Ġversions":10293,"Ġindicator":10294,"Ġcodes":10295,"Ġrestriction":10296,"Ġdeclined":10297,"exper":10298,"Ġcleaner":10299,"Ġhostage":10300,"Ġdynamics":10301,"Ġforgive":10302,"turning":10303,"Ġfrequency":10304,"Ġpensioners":10305,"Ġrender":10306,"Ġvillages":10307,"Ġcorresponds":10308,"Ġsuspension":10309,"Ġinefficient":10310,"Ġparadig":10311,"Ġeradicate":10312,"Ġcotton":10313,"Ġclinical":10314,"Ġaxis":10315,"Ġsymptoms":10316,"ĠguantÃ¡namo":10317,"Ġtheoretical":10318,"concerning":10319,"Ġazerbaijan":10320,"gers":10321,"kest":10322,"mese":10323,"orically":10324,"Ġef":10325,"Ġuen":10326,"uts":10327,"Ġhaul":10328,"Ġconvert":10329,"Ġuncond":10330,"Ġunav":10331,"imer":10332,"Ġparame":10333,"Ġaging":10334,"Ġabide":10335,"umers":10336,"abul":10337,"Ġplot":10338,"Ġpredom":10339,"Ġthemes":10340,"Ġdecomm":10341,"Ġoverse":10342,"Ġclust":10343,"Ġinternally":10344,"Ġmood":10345,"Ġprince":10346,"Ġphones":10347,"Ġcorrid":10348,"Ġwishing":10349,"Ġsummits":10350,"Ġappeals":10351,"Ġburst":10352,"Ġburmese":10353,"Ġcontempt":10354,"someone":10355,"Ġrecommends":10356,"Ġsanction":10357,"Ġrepublican":10358,"Ġanalyses":10359,"cules":10360,"culosis":10361,"Ġbattery":10362,"Ġdimensional":10363,"Ġderived":10364,"Ġdynamism":10365,"Ġaccompanying":10366,"Ġtibetan":10367,"Ġprofoundly":10368,"Ġenvisage":10369,"Ġqueen":10370,"Ġinconven":10371,"Ġmunicip":10372,"uberculosis":10373,"Ġcoexistence":10374,"Ġgambling":10375,"Ġhabits":10376,"protect":10377,"Ġkazakhstan":10378,"Ġdecommission":10379,"big":10380,"hann":10381,"Ġthrust":10382,"real":10383,"rese":10384,"Ġpair":10385,"Ġrecipe":10386,"Ġlamp":10387,"Ġhaw":10388,"Ġarena":10389,"Ġasp":10390,"Ġparamount":10391,"Ġheed":10392,"Ġreprodu":10393,"Ġnose":10394,"Ġsupportive":10395,"Ġfees":10396,"Ġserbs":10397,"Ġoverr":10398,"Ġsymmet":10399,"Ġoffence":10400,"angle":10401,"Ġsubordin":10402,"Ġdiscred":10403,"Ġdiscoura":10404,"Ġattending":10405,"Ġassigned":10406,"Ġneglig":10407,"Ġexpectancy":10408,"Ġrecognising":10409,"Ġheadquarters":10410,"Ġentirety":10411,"Ġpotato":10412,"Ġhearts":10413,"Ġmultilingual":10414,"Ġrejects":10415,"Ġsupermar":10416,"Ġhistorically":10417,"Ġspiritual":10418,"Ġunfold":10419,"Ġstrengthens":10420,"Ġfatal":10421,"Ġsweep":10422,"Ġreplacement":10423,"Ġsleeping":10424,"Ġchapters":10425,"Ġswiftly":10426,"Ġfascinating":10427,"Ġimprisonment":10428,"Ġnazi":10429,"Ġperipheral":10430,"Ġpregnant":10431,"Ġencounter":10432,"Ġimpartial":10433,"kestein":10434,"Ġpredomin":10435,"research":10436,"eken":10437,"ii":10438,"ias":10439,"ports":10440,"uated":10441,"vention":10442,"wash":10443,"Ġtuberculosis":10444,"Ġamp":10445,"inent":10446,"isations":10447,"Ġcats":10448,"Ġpending":10449,"Ġtoy":10450,"Ġfru":10451,"Ġfile":10452,"arraf":10453,"Ġmelt":10454,"Ġatroc":10455,"Ġchronic":10456,"ometer":10457,"aks":10458,"simp":10459,"Ġtruck":10460,"members":10461,"heres":10462,"Ġinvention":10463,"Ġdefer":10464,"Ġscra":10465,"Ġscul":10466,"ountered":10467,"Ġrises":10468,"Ġrestoring":10469,"Ġletting":10470,"Ġdistortion":10471,"Ġsupplied":10472,"Ġoppression":10473,"Ġencountered":10474,"Ġcredits":10475,"Ġimpacts":10476,"Ġwaited":10477,"Ġredress":10478,"Ġhunting":10479,"Ġpainting":10480,"Ġspeedy":10481,"Ġenormously":10482,"Ġphotos":10483,"consumers":10484,"Ġlicences":10485,"Ġdirectorate":10486,"Ġkilometers":10487,"Ġfingers":10488,"Ġcornerstone":10489,"Ġpassionate":10490,"Ġscandalous":10491,"Ġunreason":10492,"Ġanticipated":10493,"Ġcontempl":10494,"Ġdiversification":10495,"Ġairplane":10496,"Ġcofinancing":10497,"Ġdoctrine":10498,"Ġdeputy":10499,"Ġnonsense":10500,"Ġkurds":10501,"Ġstolen":10502,"iated":10503,"sc":10504,"vial":10505,"zbe":10506,"anz":10507,"Ġbin":10508,"Ġeld":10509,"Ġgm":10510,"Ġgol":10511,"opoul":10512,"Ġate":10513,"Ġreproductive":10514,"six":10515,"dec":10516,"agement":10517,"ignific":10518,"Ġfeared":10519,"actually":10520,"Ġreminder":10521,"Ġcorn":10522,"Ġequitable":10523,"Ġblat":10524,"Ġshorter":10525,"finan":10526,"Ġannan":10527,"Ġemphasized":10528,"Ġdesigners":10529,"Ġdestination":10530,"Ġpackages":10531,"Ġstops":10532,"Ġreflecting":10533,"Ġsalt":10534,"Ġconstructed":10535,"oboda":10536,"Ġobstruct":10537,"Ġlayer":10538,"Ġreacted":10539,"Ġwidening":10540,"Ġphilipp":10541,"Ġaggreg":10542,"Ġalbanian":10543,"Ġinjury":10544,"Ġbolkestein":10545,"Ġmotivation":10546,"Ġirrelev":10547,"Ġdanube":10548,"emocratic":10549,"Ġconsciousness":10550,"Ġderogations":10551,"Ġcontamination":10552,"Ġmisunderstanding":10553,"Ġpockets":10554,"energy":10555,"Ġignorance":10556,"Ġquartet":10557,"din":10558,"mn":10559,"tt":10560,"va":10561,"vin":10562,"Ġsar":10563,"orable":10564,"idal":10565,"Ġnepal":10566,"Ġunilaterally":10567,"Ġimpressed":10568,"Ġabused":10569,"Ġabbas":10570,"Ġmankind":10571,"Ġteen":10572,"things":10573,"Ġovernight":10574,"Ġfactories":10575,"Ġlaeken":10576,"Ġscri":10577,"Ġsignatures":10578,"Ġcairo":10579,"Ġ2050":10580,"Ġswoboda":10581,"Ġtrig":10582,"Ġlowering":10583,"Ġopposing":10584,"thodox":10585,"apped":10586,"Ġrepeating":10587,"Ġembod":10588,"Ġrichard":10589,"Ġwinners":10590,"Ġquoted":10591,"Ġqualitative":10592,"Ġcondemning":10593,"Ġsurvived":10594,"Ġdrinks":10595,"Ġgrandfather":10596,"Ġbelonging":10597,"Ġselective":10598,"Ġvaccination":10599,"Ġboliv":10600,"Ġdisplayed":10601,"Ġclubs":10602,"Ġmolecules":10603,"Ġcomfortable":10604,"Ġtactics":10605,"Ġoverlooked":10606,"Ġecosystems":10607,"Ġentertainment":10608,"Ġdreadful":10609,"Ġinjustice":10610,"Ġlanka":10611,"elect":10612,"mid":10613,"vy":10614,"Ġsam":10615,"Ġhoney":10616,"Ġhiding":10617,"Ġdust":10618,"rose":10619,"Ġreception":10620,"urate":10621,"Ġstro":10622,"Ġalt":10623,"Ġdeeds":10624,"uss":10625,"contin":10626,"Ġupgra":10627,"rup":10628,"Ġindul":10629,"Ġmini":10630,"Ġadditives":10631,"Ġaftermath":10632,"Ġelectron":10633,"Ġindefin":10634,"Ġinsol":10635,"Ġimmune":10636,"cule":10637,"parts":10638,"Ġapproached":10639,"Ġprofessions":10640,"Ġpassive":10641,"Ġcharles":10642,"Ġdestiny":10643,"Ġmasses":10644,"lson":10645,"space":10646,"Ġspiral":10647,"Ġignoring":10648,"Ġlukash":10649,"Ġsurprisingly":10650,"Ġrend":10651,"Ġaggression":10652,"Ġcastro":10653,"Ġpiracy":10654,"Ġpredictable":10655,"Ġpreferential":10656,"Ġpersuaded":10657,"Ġreiterated":10658,"Ġvaccines":10659,"Ġguardian":10660,"Ġsmell":10661,"Ġdeposit":10662,"Ġjacques":10663,"Ġfrancis":10664,"Ġspectacular":10665,"Ġcontroversy":10666,"hannes":10667,"prog":10668,"Ġtune":10669,"Ġtenth":10670,"Ġfier":10671,"Ġinner":10672,"throp":10673,"Ġrelying":10674,"Ġbees":10675,"lywood":10676,"Ġalert":10677,"operation":10678,"Ġexit":10679,"Ġexcise":10680,"Ġvicious":10681,"ĠâĢĶ":10682,"Ġimpover":10683,"Ġrivers":10684,"Ġincin":10685,"Ġtimber":10686,"dez":10687,"tel":10688,"Ġcogn":10689,"Ġconsp":10690,"meas":10691,"Ġpossel":10692,"ogen":10693,"Ġray":10694,"Ġrecourse":10695,"ubar":10696,"Ġinval":10697,"Ġagreeing":10698,"Ġcurtain":10699,"Ġmaur":10700,"Ġscour":10701,"Ġdrag":10702,"Ġearned":10703,"Ġtrivial":10704,"Ġintroduces":10705,"atah":10706,"Ġmisery":10707,"equally":10708,"Ġspecialist":10709,"mployment":10710,"Ġembass":10711,"Ġseparately":10712,"Ġbulk":10713,"Ġexpenditures":10714,"Ġballot":10715,"Ġtaxpayer":10716,"Ġprosecution":10717,"Ġwindows":10718,"Ġillustrates":10719,"addafi":10720,"Ġcensure":10721,"Ġnurt":10722,"Ġbesides":10723,"Ġspeculative":10724,"Ġscarcely":10725,"Ġtacis":10726,"Ġexemplary":10727,"Ġassuming":10728,"Ġwondered":10729,"Ġdivorce":10730,"Ġpornography":10731,"financial":10732,"Ġtriggered":10733,"Ġposselt":10734,"acio":10735,"bted":10736,"produ":10737,"rational":10738,"rez":10739,"Ġpas":10740,"icable":10741,"icular":10742,"Ġprox":10743,"Ġproving":10744,"Ġyen":10745,"Ġneu":10746,"Ġcommem":10747,"quit":10748,"Ġorte":10749,"Ġku":10750,"abet":10751,"ultimately":10752,"Ġquit":10753,"Ġpla":10754,"Ġcoin":10755,"Ġmarking":10756,"Ġspell":10757,"Ġspends":10758,"angered":10759,"Ġrefuses":10760,"Ġendangered":10761,"Ġsolv":10762,"Ġassurances":10763,"Ġtalent":10764,"Ġbrink":10765,"Ġinteroper":10766,"Ġprocessed":10767,"Ġforefront":10768,"Ġimminent":10769,"Ġ47":10770,"Ġopted":10771,"Ġindependently":10772,"Ġdoubled":10773,"Ġcoordinator":10774,"Ġroadmap":10775,"Ġtourist":10776,"Ġqualities":10777,"Ġphysically":10778,"Ġoccasionally":10779,"Ġpleasant":10780,"Ġboosting":10781,"2001":10782,"Ġsurrounded":10783,"Ġacknowledges":10784,"Ġbreathe":10785,"Ġexceeded":10786,"Ġinspire":10787,"Ġclients":10788,"Ġshaping":10789,"Ġbubbles":10790,"Ġslovenian":10791,"Ġmanipulation":10792,"basically":10793,"Ġdesperately":10794,"Ġsteady":10795,"Ġfairer":10796,"Ġoverseas":10797,"Ġsculpt":10798,"zbek":10799,"ubarak":10800,"ser":10801,"usions":10802,"Ġsab":10803,"Ġsided":10804,"Ġnaked":10805,"Ġninet":10806,"pered":10807,"raction":10808,"theast":10809,"oping":10810,"Ġvain":10811,"ĠrÃ¼":10812,"Ġintra":10813,"Ġadvers":10814,"ema":10815,"Ġmann":10816,"Ġdecoup":10817,"Ġovert":10818,"Ġovercoming":10819,"Ġload":10820,"Ġloose":10821,"Ġcurtail":10822,"Ġassign":10823,"Ġservants":10824,"Ġindebted":10825,"Ġnegotiators":10826,"Ġseemingly":10827,"Ġestablishes":10828,"Ġpasses":10829,"Ġeleven":10830,"Ġpalacio":10831,"Ġcycl":10832,"Ġtrusted":10833,"camb":10834,"Ġsenate":10835,"Ġadapting":10836,"Ġharvard":10837,"Ġsafely":10838,"Ġappealing":10839,"Ġpreferable":10840,"Ġproportionality":10841,"Ġscandals":10842,"Ġincomplete":10843,"Ġepis":10844,"Ġprohibit":10845,"Ġdubious":10846,"Ġfranco":10847,"Ġcertification":10848,"Ġabsorb":10849,"Ġvegetable":10850,"Ġofficer":10851,"Ġallegations":10852,"Ġunresolved":10853,"Ġrecruitment":10854,"Ġautomobile":10855,"Ġortega":10856,"een":10857,"mail":10858,"tan":10859,"Ġtrop":10860,"reck":10861,"Ġmism":10862,"Ġfert":10863,"Ġbell":10864,"Ġgy":10865,"Ġgreed":10866,"Ġforge":10867,"Ġuncontro":10868,"ĠchÃ¡vez":10869,"Ġabdu":10870,"ocaust":10871,"Ġfines":10872,"ensity":10873,"Ġthematic":10874,"Ġpercept":10875,"Ġcloud":10876,"Ġtransaction":10877,"Ġrelatives":10878,"Ġminors":10879,"Ġideals":10880,"Ġdealings":10881,"Ġbenefiting":10882,"withstanding":10883,"Ġexpresses":10884,"Ġmetal":10885,"Ġsentenced":10886,"Ġilo":10887,"Ġarabs":10888,"Ġexported":10889,"Ġexporters":10890,"Ġkidn":10891,"Ġpretend":10892,"Ġbatteries":10893,"Ġfastest":10894,"Ġstimulating":10895,"Ġshoot":10896,"Ġvigorous":10897,"Ġmargins":10898,"Ġcameras":10899,"Ġdarwin":10900,"Ġunequal":10901,"Ġproteins":10902,"Ġdismissed":10903,"Ġbreeding":10904,"Ġstagnation":10905,"Ġforbidden":10906,"Ġsquee":10907,"Ġlukashenko":10908,"either":10909,"fat":10910,"garian":10911,"iably":10912,"try":10913,"Ġpitch":10914,"Ġbric":10915,"ional":10916,"omas":10917,"Ġstere":10918,"versible":10919,"Ġdozens":10920,"amble":10921,"Ġorthodox":10922,"Ġacid":10923,"agan":10924,"lick":10925,"Ġunderlines":10926,"ounding":10927,"Ġspr":10928,"ighter":10929,"Ġcontinuously":10930,"Ġinforming":10931,"Ġbrush":10932,"Ġinterior":10933,"Ġbuff":10934,"Ġconvictions":10935,"letion":10936,"Ġreaches":10937,"Ġhardest":10938,"cooperation":10939,"Ġreding":10940,"Ġdenial":10941,"Ġclassic":10942,"Ġclassroom":10943,"Ġstrain":10944,"ĠwallstrÃ¶m":10945,"few":10946,"Ġboxes":10947,"Ġashamed":10948,"Ġsynthetic":10949,"Ġnavigation":10950,"Ġpledged":10951,"Ġahmad":10952,"Ġexhausted":10953,"Ġfragmented":10954,"forestation":10955,"Ġforeseeable":10956,"Ġlobbying":10957,"Ġprostitution":10958,"Ġlifetime":10959,"Ġphilippines":10960,"cular":10961,"five":10962,"kh":10963,"mir":10964,"ras":10965,"rality":10966,"Ġaus":10967,"Ġsle":10968,"Ġomission":10969,"itan":10970,"Ġbones":10971,"Ġtoll":10972,"Ġfatah":10973,"Ġgon":10974,"Ġlama":10975,"Ġwet":10976,"otive":10977,"otics":10978,"Ġford":10979,"illa":10980,"Ġunc":10981,"Ġaged":10982,"Ġreserved":10983,"Ġadam":10984,"Ġoutright":10985,"redict":10986,"Ġtooth":10987,"Ġextends":10988,"Ġlaure":10989,"Ġcontinents":10990,"Ġguiding":10991,"Ġdrain":10992,"Ġmode":10993,"Ġrests":10994,"Ġblan":10995,"Ġmilest":10996,"rett":10997,"Ġshortages":10998,"Ġbarrel":10999,"Ġretreat":11000,"whereas":11001,"afric":11002,"Ġgreet":11003,"Ġeuratom":11004,"Ġimposition":11005,"Ġrooms":11006,"instein":11007,"john":11008,"Ġharmonising":11009,"Ġbulgarian":11010,"Ġcomplac":11011,"Ġoccupying":11012,"Ġattaches":11013,"Ġinadequ":11014,"Ġpulled":11015,"Ġsacred":11016,"Ġcontradictions":11017,"Ġholocaust":11018,"Ġextremist":11019,"Ġcaptured":11020,"Ġendeavours":11021,"Ġceasefire":11022,"Ġanticipate":11023,"Ġaccommodate":11024,"Ġcultivation":11025,"Ġreversed":11026,"Ġarmenia":11027,"Ġdeplore":11028,"Ġinconsistent":11029,"Ġtherapy":11030,"Ġmetaphor":11031,"currently":11032,"bl":11033,"Ġmouse":11034,"Ġmaps":11035,"Ġfiction":11036,"Ġrewards":11037,"Ġstir":11038,"rium":11039,"ulsion":11040,"Ġshy":11041,"Ġsever":11042,"Ġdoomed":11043,"Ġkat":11044,"Ġkash":11045,"acity":11046,"Ġcontest":11047,"Ġdisgu":11048,"iel":11049,"Ġevasion":11050,"Ġlegality":11051,"Ġjohannes":11052,"Ġendless":11053,"Ġturbul":11054,"Ġtransposed":11055,"Ġformulate":11056,"Ġauthent":11057,"Ġdepressed":11058,"Ġnatura":11059,"Ġtaj":11060,"Ġinsurg":11061,"Ġlesser":11062,"Ġresemb":11063,"Ġmeanwhile":11064,"Ġcohn":11065,"Ġdesignated":11066,"Ġvoiced":11067,"Ġdependency":11068,"Ġcounterparts":11069,"Ġmigrant":11070,"Ġcharacteristic":11071,"Ġ140":11072,"Ġhitler":11073,"elson":11074,"Ġrecipient":11075,"Ġfluct":11076,"Ġaccelerated":11077,"Ġcfp":11078,"Ġpledge":11079,"support":11080,"Ġcontaminated":11081,"Ġambiguity":11082,"Ġdetained":11083,"Ġbranch":11084,"small":11085,"Ġgalaxy":11086,"Ġunequivocal":11087,"Ġsecrecy":11088,"Ġparameters":11089,"Ġinteroperability":11090,"cambridge":11091,"fra":11092,"nesty":11093,"umber":11094,"Ġarose":11095,"rea":11096,"Ġcu":11097,"Ġpn":11098,"Ġbund":11099,"Ġanonym":11100,"Ġhits":11101,"around":11102,"uting":11103,"otal":11104,"Ġpromp":11105,"erers":11106,"Ġlecture":11107,"amin":11108,"Ġji":11109,"Ġhey":11110,"const":11111,"umes":11112,"Ġcoach":11113,"Ġmaternity":11114,"Ġquestioned":11115,"Ġrealism":11116,"Ġattent":11117,"Ġprotective":11118,"Ġemployee":11119,"Ġreadily":11120,"Ġexpects":11121,"Ġviolate":11122,"Ġvaried":11123,"Ġcivic":11124,"Ġcircu":11125,"Ġchallenged":11126,"Ġdamages":11127,"Ġhighlighting":11128,"Ġundemocratic":11129,"Ġvirgin":11130,"iki":11131,"Ġenjoying":11132,"Ġprisoner":11133,"Ġtraveling":11134,"Ġ130":11135,"Ġoccupy":11136,"Ġadjusted":11137,"Ġengineer":11138,"Ġattracted":11139,"Ġadvocating":11140,"Ġdecisively":11141,"arios":11142,"Ġranks":11143,"Ġlebanese":11144,"Ġscenarios":11145,"Ġinfection":11146,"Ġillustrate":11147,"Ġdistinguished":11148,"Ġrelocation":11149,"Ġhypocrit":11150,"Ġauction":11151,"Ġpredecessor":11152,"Ġhedge":11153,"Ġalleviate":11154,"Ġdalai":11155,"Ġextradition":11156,"Ġorchest":11157,"Ġgnp":11158,"ael":11159,"brit":11160,"fold":11161,"ole":11162,"wing":11163,"Ġcited":11164,"itting":11165,"Ġbendit":11166,"Ġmubarak":11167,"Ġhub":11168,"Ġnab":11169,"Ġreef":11170,"Ġgay":11171,"Ġlen":11172,"Ġwhist":11173,"Ġstun":11174,"Ġdeaf":11175,"Ġasleep":11176,"Ġeurojust":11177,"Ġparking":11178,"weg":11179,"Ġchad":11180,"Ġaller":11181,"odes":11182,"ardo":11183,"Ġrepressive":11184,"Ġconcerted":11185,"Ġspa":11186,"Ġcommitting":11187,"ratory":11188,"Ġextin":11189,"Ġcurb":11190,"Ġorganize":11191,"Ġirrational":11192,"Ġ52":11193,"Ġdistress":11194,"Ġfamine":11195,"Ġmorality":11196,"Ġpassage":11197,"Ġchecking":11198,"Ġmaintains":11199,"Ġeventual":11200,"Ġdenying":11201,"Ġembed":11202,"Ġdegrad":11203,"Ã¶r":11204,"Ġreferenda":11205,"Ġimplicit":11206,"Ġcatches":11207,"Ġshameful":11208,"Ġdemonstrators":11209,"Ġinfringements":11210,"Ġdisturb":11211,"better":11212,"between":11213,"Ġprivatisation":11214,"Ġimperialist":11215,"iosity":11216,"Ġcabinet":11217,"Ġwarnings":11218,"Ġrocket":11219,"Ġsynergy":11220,"Ġmusharraf":11221,"Ġredistribution":11222,"Ġderivatives":11223,"Ãºn":11224,"Ġrehabilitation":11225,"Ġunavoid":11226,"Ġirrelevant":11227,"aven":11228,"cop":11229,"culate":11230,"dated":11231,"faced":11232,"gor":11233,"je":11234,"oons":11235,"Ġtheater":11236,"Ġtheories":11237,"oni":11238,"onou":11239,"enlarge":11240,"Ġozone":11241,"Ġbern":11242,"Ġbills":11243,"Ġdressed":11244,"Ġrethink":11245,"olas":11246,"estyle":11247,"Ġjos":11248,"Ġrepay":11249,"igration":11250,"heimer":11251,"Ġracial":11252,"Ġspill":11253,"undi":11254,"taining":11255,"itement":11256,"Ġrelaunch":11257,"Ġdiscl":11258,"Ġturmo":11259,"Ġinterl":11260,"Ġlifestyle":11261,"Ġeste":11262,"Ġfavoured":11263,"engu":11264,"Ġpeacekeeping":11265,"Ġretention":11266,"Ġstandardisation":11267,"Ġhomeland":11268,"Ġexplos":11269,"Ġvisiting":11270,"Ġheadlines":11271,"Ġerasmus":11272,"Ġselfish":11273,"Ġautoc":11274,"Ġtempor":11275,"Ġcounterp":11276,"Ġblackmail":11277,"Ġhorri":11278,"Ġhorror":11279,"Ġdiplomats":11280,"Ġhitting":11281,"Ġconversion":11282,"Ġmemories":11283,"Ġangle":11284,"Ġmanufacturer":11285,"Ġjudgement":11286,"Ġreservation":11287,"Ġdissatisf":11288,"Ġolympics":11289,"Ġincidentally":11290,"Ġcensorship":11291,"Ġcotonou":11292,"Ġuganda":11293,"viol":11294,"Ġproclaimed":11295,"Ġscottish":11296,"Ġdeficiencies":11297,"Ġmalaysia":11298,"Ġatrocities":11299,"Ġunreasonable":11300,"Ġnineteenth":11301,"Ġturmoil":11302,"gree":11303,"lining":11304,"mill":11305,"Ġari":11306,"Ġolig":11307,"anne":11308,"anmar":11309,"Ġmile":11310,"arat":11311,"Ġreintrodu":11312,"sts":11313,"Ġlion":11314,"Ġuzbek":11315,"Ġsty":11316,"Ġdelete":11317,"Ġvlad":11318,"Ġjames":11319,"Ġko":11320,"Ġpeters":11321,"occup":11322,"Ġcomposed":11323,"Ġinclined":11324,"Ġworkable":11325,"Ġteles":11326,"Ġarray":11327,"Ġobli":11328,"Ġbother":11329,"Ġsubmission":11330,"Ġhumili":11331,"Ġconfusing":11332,"Ġassent":11333,"Ġscream":11334,"Ġstandpoint":11335,"beyond":11336,"Ġlegislate":11337,"Ġ39":11338,"Ġphare":11339,"Ġinsists":11340,"Ġconvicted":11341,"Ġconsuming":11342,"Ġlocally":11343,"Ġburned":11344,"Ġproperties":11345,"Ġemerges":11346,"azz":11347,"Ġassisting":11348,"Ġportra":11349,"Ġinfluential":11350,"Ġobligatory":11351,"Ġclassified":11352,"Ġclassification":11353,"Ġdeadlock":11354,"Ġdescribes":11355,"Ġgraduate":11356,"Ġtendencies":11357,"Ġdominate":11358,"Ġtighten":11359,"gener":11360,"Ġdisadvantages":11361,"Ġprivileges":11362,"Ġnuts":11363,"ÃŃn":11364,"Ġsahara":11365,"Ġexercised":11366,"Ġpandemic":11367,"various":11368,"limited":11369,"Ġemphatically":11370,"terrorism":11371,"Ġauthentic":11372,"enlargement":11373,"aired":11374,"citiz":11375,"ez":11376,"eba":11377,"oa":11378,"Ġthrew":11379,"Ġslu":11380,"Ġhanging":11381,"icago":11382,"stein":11383,"Ġgates":11384,"Ġstub":11385,"Ġhamp":11386,"Ġaltered":11387,"Ġunle":11388,"Ġunthink":11389,"Ġshore":11390,"Ġjim":11391,"Ġkla":11392,"llers":11393,"Ġoutdated":11394,"izar":11395,"Ġramp":11396,"vedev":11397,"Ġdefect":11398,"Ġempower":11399,"Ġentrust":11400,"Ġassad":11401,"Ġmodes":11402,"uclear":11403,"Ġblamed":11404,"Ġcompleting":11405,"Ġdistances":11406,"Ġrecognizing":11407,"Ġzo":11408,"Ġ2014":11409,"Ġholders":11410,"Ġgeared":11411,"Ġdevised":11412,"Ġhugely":11413,"regrett":11414,"Ġpressed":11415,"Ġtraffick":11416,"Ġstriving":11417,"ieties":11418,"Ġmandelson":11419,"Ġinvestigating":11420,"Ġarriving":11421,"Ġsupervis":11422,"Ġclaiming":11423,"Ġchemistry":11424,"Ġderive":11425,"Ġimperfect":11426,"Ġmobilise":11427,"particular":11428,"related":11429,"Ġattendance":11430,"Ġintensity":11431,"Ġvacation":11432,"Ġphotographs":11433,"Ġentrepreneurship":11434,"Ġicc":11435,"Ġeradication":11436,"specif":11437,"Ġfoolish":11438,"Ġcounterfeit":11439,"Ġsuperflu":11440,"foot":11441,"Ġantibiotics":11442,"Ġmanoeuvre":11443,"Ġpnr":11444,"citizens":11445,"regrettably":11446,"grow":11447,"pat":11448,"pers":11449,"upp":11450,"zheimer":11451,"Ĥ¬":11452,"Ġthro":11453,"atibility":11454,"Ġcia":11455,"Ġcite":11456,"Ġpound":11457,"ilib":11458,"Ġgsp":11459,"Ġgolf":11460,"Ġlud":11461,"Ġlone":11462,"Ġlord":11463,"Ġlock":11464,"peace":11465,"iration":11466,"Ġunden":11467,"imir":11468,"Ġcharity":11469,"Ġrank":11470,"Ġcanad":11471,"Ġheated":11472,"Ġorph":11473,"Ġadjour":11474,"Ġplun":11475,"Ġmyanmar":11476,"Ġpoly":11477,"Ġmarsh":11478,"Ġspots":11479,"Ġtwin":11480,"Ġconfed":11481,"Ġapproving":11482,"Ġcurric":11483,"owners":11484,"Ġhopeful":11485,"Ġdownward":11486,"Ġpowerless":11487,"Ġrestraint":11488,"thenburg":11489,"Ġlabels":11490,"Ġvisibility":11491,"Ġcombining":11492,"Ġmindset":11493,"Ġmiser":11494,"Ġmotives":11495,"Ġwaiver":11496,"ushch":11497,"Ġprobability":11498,"Ġimmigrant":11499,"Ġfigured":11500,"Ġindicating":11501,"Ġdenounce":11502,"tomorrow":11503,"Ġfox":11504,"Ġigno":11505,"Ġunders":11506,"Ġdrunk":11507,"Ġsunni":11508,"Ġmanufactured":11509,"Ġfeedback":11510,"oints":11511,"Ġaggrav":11512,"Ġsharon":11513,"Ġgeography":11514,"burgh":11515,"atoeba":11516,"Ġtightening":11517,"Ġfertil":11518,"Ġaccurately":11519,"ĠâĤ¬":11520,"Ġdefeated":11521,"Ġintensified":11522,"Ġupdated":11523,"Ġunpredict":11524,"Ġcypriots":11525,"Ġrevolutions":11526,"Ġhesitate":11527,"Ġegf":11528,"Ġsocrates":11529,"Ġcorrection":11530,"Ġassassination":11531,"Ġsmuggling":11532,"Ġharassment":11533,"hopefully":11534,"Ġparadigm":11535,"Ġjohannesburg":11536,"Ġcounterproductive":11537,"Ġsuperfluous":11538,"aurs":11539,"bg":11540,"case":11541,"dad":11542,"freedom":11543,"gone":11544,"mare":11545,"rne":11546,"Ġcres":11547,"Ġbible":11548,"Ġmam":11549,"Ġlul":11550,"Ġseized":11551,"Ġgothenburg":11552,"Ġjam":11553,"enders":11554,"aculture":11555,"eman":11556,"Ġincumb":11557,"nowadays":11558,"Ġpreach":11559,"Ġprerog":11560,"Ġpope":11561,"okes":11562,"Ġbetra":11563,"Ġrains":11564,"Ġundergoing":11565,"Ġfee":11566,"Ġinstinct":11567,"Ġresponds":11568,"Ġsocialism":11569,"lude":11570,"Ġcarl":11571,"Ġmeda":11572,"Ġpreval":11573,"Ġinflows":11574,"Ġfraction":11575,"Ġschmid":11576,"Ġcondol":11577,"Ġargues":11578,"Ġdrives":11579,"ometric":11580,"Ġdevise":11581,"Ġcycles":11582,"Ġmodernise":11583,"Ġcrossed":11584,"Ġcleared":11585,"Ġclassical":11586,"Ġarafat":11587,"Ġrenewables":11588,"Ġstepping":11589,"ustomed":11590,"Ġcrude":11591,"Ġcomplained":11592,"Ġcleaning":11593,"Ġvisitors":11594,"tax":11595,"Ġterribly":11596,"Ġcompelling":11597,"Ġspokes":11598,"sky":11599,"Ġgeorgian":11600,"Ġconceal":11601,"Ġscandina":11602,"Ġholes":11603,"Ġmobilisation":11604,"Ġchurches":11605,"Ġdecreased":11606,"Ġbreaches":11607,"Ġnutrition":11608,"Ġirreversible":11609,"Ġconversations":11610,"Ġmurders":11611,"Ġheroes":11612,"Ġcataly":11613,"Ġnaive":11614,"Ġescalation":11615,"Ġincurred":11616,"Ġmassacre":11617,"Ġunambiguous":11618,"Ġflawed":11619,"Ġuncomfort":11620,"Ġkilometres":11621,"Ġdecommissioning":11622,"Ġtropical":11623,"Ġahmadinejad":11624,"london":11625,"sing":11626,"Ġthr":11627,"ints":11628,"Ġpiv":11629,"Ġbizar":11630,"Ġmd":11631,"Ġmild":11632,"oure":11633,"educ":11634,"Ġeman":11635,"Ġlt":11636,"Ġwhis":11637,"Ġforty":11638,"Ġstakes":11639,"Ġhamm":11640,"Ġconqu":11641,"chen":11642,"Ġunlimited":11643,"Ġsuited":11644,"Ġbyrne":11645,"Ġlean":11646,"sofar":11647,"Ġliik":11648,"Ġhege":11649,"Ġheating":11650,"Ġintact":11651,"access":11652,"Ġpeter":11653,"Ġrio":11654,"agog":11655,"Ġsamp":11656,"ache":11657,"Ġoversight":11658,"Ġoverdue":11659,"Ġgeneric":11660,"Ġholy":11661,"Ġdefines":11662,"Ġbackward":11663,"Ġpowered":11664,"Ġsignature":11665,"Ġenvironments":11666,"Ġmedina":11667,"Ġsimplicity":11668,"Ġsheets":11669,"Ġdeepen":11670,"Ġverification":11671,"Ġflav":11672,"Ġflash":11673,"Ġindicative":11674,"Ġundes":11675,"Ġtempted":11676,"Ġhygi":11677,"Ġslogan":11678,"Ġcontinental":11679,"Ġboycot":11680,"Ġangola":11681,"Ġslightest":11682,"Ġsearching":11683,"Ġprevails":11684,"Ġadmire":11685,"Ġwebsites":11686,"Ġearnings":11687,"Ġshapes":11688,"Ġghost":11689,"Ġsmoothly":11690,"Ġladen":11691,"Ġcelebrated":11692,"Ġredundancies":11693,"Ġmisunderstand":11694,"Ġadvisers":11695,"Ġlamy":11696,"Ġmystery":11697,"Ġhavens":11698,"Ġelephant":11699,"Ġrefunds":11700,"Ġneurons":11701,"Ġbiomass":11702,"Ġfrancisco":11703,"Ġfierce":11704,"Ġstereoty":11705,"Ġtemporarily":11706,"Ġliikanen":11707,"14":11708,"farm":11709,"mble":11710,"moud":11711,"wal":11712,"Ġcents":11713,"Ġoomen":11714,"Ġfli":11715,"Ġeinstein":11716,"Ġlas":11717,"Ġlament":11718,"owed":11719,"rians":11720,"chi":11721,"irs":11722,"admitted":11723,"geor":11724,"Ġvested":11725,"Ġenfor":11726,"solete":11727,"rome":11728,"Ġabilities":11729,"Ġpoles":11730,"Ġkg":11731,"Ġqua":11732,"render":11733,"early":11734,"Ġouts":11735,"itionally":11736,"Ġpreoccup":11737,"Ġgovernor":11738,"Ġstrand":11739,"Ġmoz":11740,"rator":11741,"Ġmonu":11742,"Ġquestionable":11743,"Ġassu":11744,"Ġinvestor":11745,"neys":11746,"Ġschr":11747,"Ġ350":11748,"Ġreads":11749,"Ġrevive":11750,"Ġesp":11751,"afe":11752,"Ġburied":11753,"Ġconflicting":11754,"Ġrequesting":11755,"Ġski":11756,"Ġorigins":11757,"Ġmethodology":11758,"Ġreviewing":11759,"Ġanalysed":11760,"linary":11761,"Ġexploiting":11762,"Ġconfirmation":11763,"anny":11764,"Ġbureaucrats":11765,"Ġtransforming":11766,"rosoft":11767,"Ġtelecom":11768,"Ġcorporation":11769,"Ġabandoning":11770,"Ġparaly":11771,"Ġpurchases":11772,"Ġunnecessarily":11773,"Ġlicens":11774,"Ġolive":11775,"Ġflags":11776,"Ġoverwhelm":11777,"Ġevaluating":11778,"Ġdictatorships":11779,"Ġvalidity":11780,"Ġsudanese":11781,"wait":11782,"Ġintolerance":11783,"Ġunjustified":11784,"Ġdividing":11785,"Ġshelter":11786,"history":11787,"Ġdissemin":11788,"Ġgalaxies":11789,"Ġsentiment":11790,"Ġflourish":11791,"ĠbÃ¶ge":11792,"Ġportfolio":11793,"Ġerupt":11794,"Ġhurricane":11795,"ignificant":11796,"Ġbolivia":11797,"Ġcognitive":11798,"Ġvladimir":11799,"Ġunthinkable":11800,"Ġignores":11801,"admittedly":11802,"bear":11803,"lor":11804,"norm":11805,"ping":11806,"sol":11807,"Ã±":11808,"Ġtender":11809,"Ġaven":11810,"Ġwines":11811,"itual":11812,"Ġpengu":11813,"ioned":11814,"Ġdrow":11815,"rooms":11816,"Ġee":11817,"Ġrehn":11818,"sement":11819,"Ġdeleted":11820,"ullah":11821,"Ġlethal":11822,"usive":11823,"Ġheaven":11824,"Ġkor":11825,"Ġpeer":11826,"Ġapples":11827,"Ġcoat":11828,"Ġsample":11829,"Ġpole":11830,"Ġtrapped":11831,"Ġobsolete":11832,"Ġpolite":11833,"Ġperu":11834,"Ġindians":11835,"actor":11836,"ologies":11837,"Ġmodification":11838,"Ġhandic":11839,"Ġvalued":11840,"Ġsurrender":11841,"Ġequilib":11842,"Ġ54":11843,"Ġstark":11844,"Ġrecognizes":11845,"iberal":11846,"Ġruij":11847,"Ġpencil":11848,"Ġsuperpower":11849,"Ġlanding":11850,"regional":11851,"Ġilliter":11852,"Ġassociate":11853,"Ġislamists":11854,"Ġanalysing":11855,"Ġmaln":11856,"Ġpainted":11857,"Ġflower":11858,"Ġcontractual":11859,"Ġinsisting":11860,"Ġautomotive":11861,"Ġdominance":11862,"Ġabolishing":11863,"Ġexcluding":11864,"Ġinterpretations":11865,"Ġgeographic":11866,"Ġreliability":11867,"Ġthrowing":11868,"Ġtougher":11869,"Ġprohibition":11870,"Ġlaughing":11871,"Ġshifted":11872,"Ġillnesses":11873,"Ġtaller":11874,"Ġvarying":11875,"Ġfragmentation":11876,"Ġbranches":11877,"Ġnominal":11878,"Ġresignation":11879,"Ġastonishing":11880,"Ġreinforcing":11881,"Ġsaturday":11882,"Ġastronom":11883,"Ġdinosaurs":11884,"Ġfruits":11885,"Ġscourge":11886,"Ġruijten":11887,"bat":11888,"city":11889,"diff":11890,"drop":11891,"ih":11892,"show":11893,"Ġtide":11894,"Ġthomas":11895,"itter":11896,"iture":11897,"ora":11898,"Ġdense":11899,"roots":11900,"icit":11901,"Ġreap":11902,"Ġrejo":11903,"Ġrena":11904,"ctors":11905,"ldom":11906,"Ġstif":11907,"ulum":11908,"Ġnotable":11909,"Ġnotification":11910,"ounder":11911,"Ġshirt":11912,"Ġvitor":11913,"mbowski":11914,"Ġritual":11915,"Ġlip":11916,"Ġliable":11917,"Ġkir":11918,"Ġamnesty":11919,"Ġcontag":11920,"Ġpecul":11921,"ireland":11922,"Ġprecip":11923,"Ġoverview":11924,"Ġaccustomed":11925,"Ġbasque":11926,"Ġ192":11927,"Ġlasted":11928,"Ġprotects":11929,"Ġcarc":11930,"Ġsuccession":11931,"Ġhealthier":11932,"Ġdemocratization":11933,"Ġcritically":11934,"Ġbali":11935,"Ġcontributors":11936,"overall":11937,"Ġshortfall":11938,"Ġvaries":11939,"Ġairspace":11940,"Ġexploration":11941,"Ġspecialists":11942,"Ġdesignate":11943,"Ġmuscle":11944,"Ġlosers":11945,"Ġexchanging":11946,"Ġbias":11947,"Ġdescribing":11948,"ilitary":11949,"Ġproceeding":11950,"zembowski":11951,"ikh":11952,"Ġsafeguarded":11953,"Ġconditionality":11954,"Ġsporting":11955,"Ġexempt":11956,"Ġpsychology":11957,"Ġrigour":11958,"Ġtragedies":11959,"Ġmatched":11960,"Ġholland":11961,"Ġinjuries":11962,"Ġaccelerating":11963,"Ġthresholds":11964,"Ġdistorted":11965,"attered":11966,"Ġyields":11967,"Ġpersecuted":11968,"development":11969,"trade":11970,"Ġpostponement":11971,"Ġperiphery":11972,"rendt":11973,"Ġreinforces":11974,"Ġjarzembowski":11975,"Ġmahmoud":11976,"Ġpuzzle":11977,"Ġpupils":11978,"Ġduplication":11979,"Ġinflicted":11980,"Ġalexander":11981,"Ġbridges":11982,"Ġempowered":11983,"ĠcancÃºn":11984,"Ġparalysis":11985,"Ġaggregate":11986,"Ġkashmir":11987,"Ġunavoidable":11988,"field":11989,"hy":11990,"iries":11991,"tings":11992,"youn":11993,"Ã´":11994,"rey":11995,"Ġwik":11996,"isons":11997,"Ġsket":11998,"eries":11999,"env":12000,"Ġcin":12001,"Ġcock":12002,"Ġpounds":12003,"Ġbh":12004,"Ġank":12005,"Ġduly":12006,"Ġemin":12007,"Ġlan":12008,"Ġweird":12009,"otted":12010,"otism":12011,"pelled":12012,"Ġstig":12013,"Ġunlaw":12014,"Ġsemi":12015,"Ġseldom":12016,"anted":12017,"ichet":12018,"Ġresent":12019,"umably":12020,"Ġtrichet":12021,"Ġwhoever":12022,"Ġmanual":12023,"Ġmanager":12024,"Ġimporting":12025,"Ġraining":12026,"Ġspo":12027,"Ġrolling":12028,"Ġclearing":12029,"Ġconfer":12030,"Ġprototy":12031,"Ġmarketplace":12032,"Ġtreatments":12033,"Ġcolumb":12034,"Ġformat":12035,"Ġinfer":12036,"Ġrespectively":12037,"Ġsurf":12038,"Ġcoral":12039,"Ġblank":12040,"Ġgentleman":12041,"paragraph":12042,"Ġfreeze":12043,"Ġedf":12044,"Ġurging":12045,"Ġplea":12046,"Ġappearing":12047,"Ġtransported":12048,"Ġcongratulated":12049,"Ġecr":12050,"inson":12051,"Ġinflux":12052,"Ġbike":12053,"Ġteaches":12054,"Ġcriticized":12055,"Ġcalculation":12056,"Ġnightmare":12057,"Ġ02":12058,"Ġcomplaining":12059,"Ġdawn":12060,"repres":12061,"Ġdefenders":12062,"Ġarrests":12063,"Ġfixing":12064,"Ġrebel":12065,"throughout":12066,"Ġprofitability":12067,"Ġmentality":12068,"Ġinfectious":12069,"Ġarchitects":12070,"Ġdetection":12071,"Ġfostering":12072,"Ġperceive":12073,"Ġprovider":12074,"Ġguns":12075,"Ġbreathing":12076,"Ġghana":12077,"Ġjeopardise":12078,"Ġlagging":12079,"Ġtroubles":12080,"Ġtroubled":12081,"Ġsoccer":12082,"Ġpyram":12083,"Ġexaggerated":12084,"Ġnigerian":12085,"Ġhierarchy":12086,"information":12087,"Ġembedded":12088,"Ġbizarre":12089,"Ġvitorino":12090,"12":12091,"hel":12092,"Ġtables":12093,"erts":12094,"Ġpou":12095,"Ġfence":12096,"Ġdent":12097,"Ġdensity":12098,"lez":12099,"Ġrelies":12100,"oming":12101,"Ġbeating":12102,"Ġgate":12103,"Ġlakes":12104,"raine":12105,"Ġunbelie":12106,"Ġsemit":12107,"Ġleaf":12108,"Ġgoe":12109,"Ġcharm":12110,"Ġagent":12111,"reevy":12112,"Ġevidently":12113,"Ġrecovered":12114,"Ġcommunists":12115,"Ġgenius":12116,"Ġremun":12117,"Ġenters":12118,"Ġcolors":12119,"Ġguilt":12120,"Ġgrowers":12121,"need":12122,"Ġmedvedev":12123,"Ġglobalised":12124,"Ġmodifications":12125,"Ġdepreci":12126,"Ġconsumed":12127,"Ġbalancing":12128,"Ġdistrict":12129,"Ġcivilised":12130,"Ġlocations":12131,"Ġfried":12132,"Ġgrey":12133,"Ġpenet":12134,"Ġiranians":12135,"Ġtargeting":12136,"Ġmetals":12137,"Ġverdict":12138,"Ġlandf":12139,"Ġloses":12140,"Ġslowing":12141,"ahu":12142,"Ġmeaningless":12143,"Ġbelgrade":12144,"Ġresistant":12145,"Ġkyi":12146,"Ġpopularity":12147,"roads":12148,"Ġconsolidating":12149,"Ġmicrosoft":12150,"prof":12151,"Ġcrystal":12152,"Ġsisters":12153,"Ġknife":12154,"Ġprague":12155,"Ġangel":12156,"developing":12157,"Ġambiguous":12158,"Ġpreconditions":12159,"Ġcoincidence":12160,"Ġmccreevy":12161,"Ġassumes":12162,"Ġathlet":12163,"Ġembryos":12164,"Ġcigarette":12165,"Ġresolutely":12166,"Ġexhibition":12167,"Ġoutrageous":12168,"Ġcynical":12169,"Ġuzbekistan":12170,"Ġuncomfortable":12171,"bic":12172,"bach":12173,"dy":12174,"dner":12175,"iri":12176,"sud":12177,"Ġwi":12178,"isan":12179,"erra":12180,"Ġbour":12181,"Ġfired":12182,"Ġinsofar":12183,"Ġhen":12184,"Ġepp":12185,"stud":12186,"Ġgut":12187,"Ġalzheimer":12188,"rams":12189,"ulent":12190,"Ġsuu":12191,"opular":12192,"osity":12193,"Ġvisions":12194,"Ġleve":12195,"Ġbutton":12196,"temp":12197,"Ġapplause":12198,"foreign":12199,"ernal":12200,"Ġbelieving":12201,"Ġresponsibly":12202,"lander":12203,"Ġcrew":12204,"Ġshell":12205,"Ġprojected":12206,"Ġtaxi":12207,"Ġexperimental":12208,"Ġcreature":12209,"ĠbarÃ³n":12210,"Ġsciences":12211,"Ġruin":12212,"Ġcentralised":12213,"Ġdrift":12214,"Ġ96":12215,"Ġlanded":12216,"Ġstressing":12217,"Ġdoubtful":12218,"Ġvolcan":12219,"Ġlovely":12220,"Ġcounterpart":12221,"garians":12222,"Ġmigratory":12223,"Ġhyper":12224,"Ã©n":12225,"Ġsunlight":12226,"Ġfulfill":12227,"Ġphysic":12228,"unta":12229,"Ġinflationary":12230,"Ġbaseball":12231,"Ġcompelled":12232,"Ġproportionate":12233,"Ġamazed":12234,"Ġrent":12235,"Ġpremise":12236,"Ġentrepreneurial":12237,"Ġprevailed":12238,"Ġrecipients":12239,"Ġenthusiastic":12240,"Ġnaval":12241,"Ġindiscrimin":12242,"Ġabsorbed":12243,"Ġhorizon":12244,"Ġepidem":12245,"Ġpollutants":12246,"aphne":12247,"Ġbeneficiary":12248,"Ġfronts":12249,"Ã¨s":12250,"Ġrebuilding":12251,"Ġpocket":12252,"Ġredef":12253,"Ġupheld":12254,"Ġtiger":12255,"Ġferrero":12256,"greater":12257,"Ġinsects":12258,"Ġmultilingualism":12259,"Ġmisman":12260,"Ġmilestone":12261,"Ġhorrible":12262,"Ġcanadian":12263,"Ġequilibrium":12264,"away":12265,"ĠÅ¡":12266,"Ġtb":12267,"Ġthick":12268,"inate":12269,"isa":12270,"itate":12271,"Ġbust":12272,"oria":12273,"Ġinsure":12274,"Ġerect":12275,"Ġeec":12276,"Ġngo":12277,"omes":12278,"Ġalliances":12279,"irts":12280,"Ġbypass":12281,"Ġchairs":12282,"usible":12283,"Ġbutt":12284,"Ġshoulders":12285,"Ġtru":12286,"Ġdisorders":12287,"agues":12288,"Ġexpressions":12289,"Ġapparat":12290,"Ġmarx":12291,"Ġconcur":12292,"Ġspark":12293,"Ġspont":12294,"Ġyourselves":12295,"Ġconfuse":12296,"Ġmature":12297,"Ġcuriosity":12298,"Ġquestioning":12299,"Ġempt":12300,"Ġinterface":12301,"Ġbehrendt":12302,"Ġallowance":12303,"Ġequals":12304,"Ġemployer":12305,"Ġpeacefully":12306,"Ġfundamentals":12307,"Ġbars":12308,"Ġpassports":12309,"Ġmotto":12310,"Ġtextbook":12311,"Ġero":12312,"Ġerika":12313,"Ġdesigning":12314,"Ġobsessed":12315,"Ġattacking":12316,"europeans":12317,"Ġillusions":12318,"Ġindustrialised":12319,"Ġwaldner":12320,"Ġcalend":12321,"Ġmergers":12322,"Ġexporter":12323,"Ġslim":12324,"Ġdistribute":12325,"Ġenjoys":12326,"Ġtraveled":12327,"Ġpray":12328,"frank":12329,"Ġsoldier":12330,"Ġgladly":12331,"Ġtroika":12332,"Ġwithdrawing":12333,"twenty":12334,"Ġadvertise":12335,"Ġpulling":12336,"Ġpreceded":12337,"Ġscenes":12338,"Ġsubmitting":12339,"Ġmagnific":12340,"Ġwoods":12341,"american":12342,"Ġupdating":12343,"Ġjuncture":12344,"Ġapologize":12345,"Ġneutrality":12346,"Ġgrassroots":12347,"Ġpigs":12348,"Ġugly":12349,"Ġprudent":12350,"Ġflaws":12351,"Ġprolonged":12352,"Ġlyn":12353,"Ġbargaining":12354,"Ġescaped":12355,"Ġunconditional":12356,"Ġindefinitely":12357,"Ġnabuc":12358,"Ġcondolences":12359,"Ġassumptions":12360,"ĠschrÃ¶der":12361,"Ġspontane":12362,"best":12363,"dog":12364,"hen":12365,"iat":12366,"kward":12367,"nar":12368,"oth":12369,"oft":12370,"rgy":12371,"Ġ00":12372,"Ġtip":12373,"remember":12374,"Ġsidel":12375,"Ġpave":12376,"Ġplight":12377,"Ġfles":12378,"Ġfusion":12379,"Ġinch":12380,"Ġants":12381,"Ġanomal":12382,"arctic":12383,"roed":12384,"Ġnich":12385,"stad":12386,"Ġlor":12387,"Ġsticking":12388,"Ġyard":12389,"Ġeuph":12390,"Ġatoms":12391,"Ġcher":12392,"Ġchimp":12393,"Ġreson":12394,"aka":12395,"aki":12396,"asty":12397,"Ġquad":12398,"Ġplate":12399,"Ġproportions":12400,"Ġexped":12401,"Ġtex":12402,"Ġarsen":12403,"Ġfeat":12404,"Ġrecre":12405,"orses":12406,"Ġbasket":12407,"Ġdefensive":12408,"Ġrealm":12409,"Ġachievable":12410,"Ġmoder":12411,"Ġorganism":12412,"Ġrevising":12413,"Ġwriters":12414,"Ġmisuse":12415,"Ġidi":12416,"Ġemphasising":12417,"Ġhalfway":12418,"Ġdeepest":12419,"Ġweakest":12420,"Ġfloating":12421,"Ġcollateral":12422,"Ġ110":12423,"anyway":12424,"Ġsilk":12425,"Ġsilver":12426,"Ġinhuman":12427,"yeah":12428,"Ġpublishing":12429,"Ġchristianity":12430,"Ġmexican":12431,"Ġstems":12432,"Ġillustrated":12433,"Ġevaluated":12434,"Ġtunisian":12435,"impro":12436,"ukraine":12437,"Ġcows":12438,"Ġjuncker":12439,"Ġhydro":12440,"Ġmolecule":12441,"Ġmolecular":12442,"Ġcelebrating":12443,"Ġfrightening":12444,"Ġembarrassing":12445,"hardt":12446,"Ġprinting":12447,"Ġlaptop":12448,"Ġindifferent":12449,"Ġaquaculture":12450,"Ġlivelihoods":12451,"Ġdiscretion":12452,"Ġcasualties":12453,"Ġunderestimated":12454,"Ġprovinces":12455,"progress":12456,"greece":12457,"Ġcrespo":12458,"actorily":12459,"Ġpeculiar":12460,"Ġerosion":12461,"Ġnabucco":12462,"rgyz":12463,"fia":12464,"iance":12465,"make":12466,"overs":12467,"Ġwary":12468,"Ġwound":12469,"Ġwins":12470,"Ġcord":12471,"itated":12472,"Ġbog":12473,"Ġfake":12474,"Ġflies":12475,"Ġhans":12476,"Ġdaphne":12477,"Ġgi":12478,"Ġip":12479,"Ġwhale":12480,"Ġdeforestation":12481,"atemal":12482,"imity":12483,"Ġshops":12484,"Ġenqu":12485,"Ġlever":12486,"Ġchicago":12487,"ĠâĢ¦":12488,"Ġimplied":12489,"igence":12490,"ums":12491,"Ġupris":12492,"teenth":12493,"Ġoverly":12494,"Ġaccounted":12495,"Ġdeserved":12496,"Ġguer":12497,"Ġcaring":12498,"Ġintercultural":12499,"Ġadopts":12500,"Ġmoderation":12501,"Ġschroed":12502,"Ġhandful":12503,"ucks":12504,"egal":12505,"Ġwheat":12506,"Ġeasing":12507,"Ġgenerals":12508,"Ġ51":12509,"Ġspecify":12510,"Ġawkward":12511,"Ġswallow":12512,"Ġtribal":12513,"Ġtribes":12514,"Ġoperator":12515,"Ġmiscon":12516,"Ġtraded":12517,"play":12518,"Ġantarctic":12519,"Ġurges":12520,"Ġverify":12521,"Ġsuperior":12522,"Ġportion":12523,"Ġconsulting":12524,"Ġratings":12525,"ltry":12526,"Ġlimitation":12527,"anyahu":12528,"Ġcharacters":12529,"Ġarranged":12530,"Ġ04":12531,"Ġexecuted":12532,"Ġkyrgyz":12533,"Ġobservatory":12534,"Ġcondemns":12535,"Ġconceived":12536,"Ġmicros":12537,"Ġmultilateralism":12538,"Ġexceeds":12539,"Ġadmiration":12540,"Ġevolving":12541,"Ġglasses":12542,"Ġclient":12543,"welcome":12544,"Ġinterpreters":12545,"Ġsongs":12546,"Ġcoupled":12547,"Ġbailout":12548,"Ġfurn":12549,"Ġcereals":12550,"Ġdetainees":12551,"Ġexacerbated":12552,"Ġdeposits":12553,"Ġscoreboard":12554,"Ġinterrupted":12555,"Ġsentiments":12556,"Ġlehne":12557,"Ġsimplistic":12558,"Ġinfinite":12559,"Ġscholars":12560,"Ġworsening":12561,"Ġdecoupling":12562,"Ġadjourned":12563,"Ġunpredictable":12564,"Ġlulling":12565,"Ġhygiene":12566,"Ġenforcing":12567,"Ġpoultry":12568,"bish":12569,"ipping":12570,"ĠÎ":12571,"Ġay":12572,"inos":12573,"era":12574,"enza":12575,"Ġbits":12576,"Ġmast":12577,"inge":12578,"Ġdc":12579,"Ġnail":12580,"ask":12581,"Ġlom":12582,"urt":12583,"Ġhaven":12584,"Ġascertain":12585,"ithm":12586,"ghdad":12587,"Ġunple":12588,"Ġexile":12589,"Ġwilli":12590,"Ġvag":12591,"Ġchrom":12592,"Ġrang":12593,"Ġker":12594,"Ġrepatri":12595,"Ġdissid":12596,"Ġouter":12597,"Ġcomplying":12598,"techn":12599,"Ġindign":12600,"Ġtransmitted":12601,"Ġsittings":12602,"Ġenduring":12603,"Ġsierra":12604,"Ġhappily":12605,"Ġhappier":12606,"Ġguatemal":12607,"Ġscare":12608,"Ġformulation":12609,"Ġcave":12610,"took":12611,"Ġirrit":12612,"Ġprogressively":12613,"Ġ53":12614,"Ġ58":12615,"Ġ450":12616,"Ġhonoured":12617,"Ġromantic":12618,"Ġapplicants":12619,"Ġassistants":12620,"Ġseparat":12621,"Ġconstructively":12622,"Ġconcentrating":12623,"Ġsurviv":12624,"Ġshipbuilding":12625,"Ġharness":12626,"Ġoccupational":12627,"aughters":12628,"Ġdonations":12629,"Ġobserving":12630,"Ġinsistence":12631,"Ġdischar":12632,"Ġunsafe":12633,"feld":12634,"Ġremarkably":12635,"Ġincorporation":12636,"Ġbrazilian":12637,"Ġ1967":12638,"Ġexecutives":12639,"Ġflooding":12640,"Ġembraced":12641,"Ġsacrifices":12642,"Ġdeteriorating":12643,"Ġconvenience":12644,"Ġbeaten":12645,"Ġinspiring":12646,"Ġstipulated":12647,"Ġenrichment":12648,"Ġdrastically":12649,"Ġdissemination":12650,"Ġembarked":12651,"Ġattributed":12652,"Ġcigarettes":12653,"Ġbaghdad":12654,"Ġleonardo":12655,"Ġknees":12656,"simply":12657,"measures":12658,"Ġextinction":12659,"Ġincumbent":12660,"Ġundesirable":12661,"cive":12662,"nuclear":12663,"Ġavert":12664,"Ġwiped":12665,"Ġcad":12666,"Ġfta":12667,"Ġhut":12668,"Ġreinst":12669,"asse":12670,"otti":12671,"Ġalgor":12672,"Ġsuits":12673,"opian":12674,"Ġshark":12675,"erer":12676,"estion":12677,"Ġhelic":12678,"Ġrescu":12679,"umi":12680,"Ġnoble":12681,"def":12682,"Ġexpose":12683,"Ġmarg":12684,"Ġpolicing":12685,"Ġtracking":12686,"Ġinviting":12687,"Ġoverha":12688,"Ġstrang":12689,"xty":12690,"Ġinteractive":12691,"Ġbeforehand":12692,"Ġcaptain":12693,"Ġtechnoc":12694,"Ġlegislature":12695,"ovation":12696,"Ġrevital":12697,"Ġrevival":12698,"Ġeditor":12699,"Ġesdp":12700,"swed":12701,"Ġcareers":12702,"Ġ41":12703,"Ġmonthly":12704,"priv":12705,"Ġvariation":12706,"Ġspecifications":12707,"Ġcheese":12708,"Ġcredential":12709,"Ġgenerates":12710,"Ġliberalism":12711,"Ġdolph":12712,"Ġimposes":12713,"Ġsatisfactorily":12714,"Ġconducive":12715,"Ġmissiles":12716,"Ġcustomer":12717,"Ġdonation":12718,"Ġtolerated":12719,"Ġsurveys":12720,"common":12721,"prov":12722,"Ġnarrative":12723,"Ġlicense":12724,"Ġpredic":12725,"Ġendorses":12726,"Ġscrutin":12727,"speaking":12728,"Ġtickets":12729,"Ġpolluter":12730,"Ġ1945":12731,"Ġvolatile":12732,"Ġfrightened":12733,"Ġvolunteers":12734,"Ġunreserved":12735,"Ġtumor":12736,"Ġindifference":12737,"Ġobscure":12738,"business":12739,"Ġreimbur":12740,"Ġproximity":12741,"Ġexplosive":12742,"young":12743,"environ":12744,"Ġapparatus":12745,"stadt":12746,"Ġunpleasant":12747,"Ġhelicop":12748,"han":12749,"Ġvel":12750,"Ġtanks":12751,"Ġtorn":12752,"Ġaster":12753,"rets":12754,"onian":12755,"Ġsau":12756,"Ġcute":12757,"itt":12758,"Ġpicking":12759,"Ġfract":12760,"icon":12761,"Ġnest":12762,"Ġnpt":12763,"Ġnass":12764,"Ġnerve":12765,"omy":12766,"Ġgif":12767,"ules":12768,"Ġmeth":12769,"Ġeurobon":12770,"Ġshake":12771,"Ġshia":12772,"unting":12773,"ainted":12774,"Ġlee":12775,"Ġchat":12776,"Ġliver":12777,"Ġjung":12778,"Ġjunta":12779,"Ġabu":12780,"ivo":12781,"Ġreplies":12782,"aug":12783,"Ġupcoming":12784,"agg":12785,"agric":12786,"Ġspheres":12787,"Ġfever":12788,"Ġpertin":12789,"Ġrecru":12790,"Ġinventions":12791,"Ġclou":12792,"atively":12793,"Ġaccent":12794,"Ġentrench":12795,"Ġcolour":12796,"Ġscrap":12797,"Ġsmok":12798,"Ġconstrained":12799,"worse":12800,"balanced":12801,"Ġsheer":12802,"Ġadvancing":12803,"Ġprogressing":12804,"Ġ56":12805,"Ġ57":12806,"Ġlottery":12807,"Ġ49":12808,"Ġartistic":12809,"Ġtrips":12810,"Ġ62":12811,"Ġerit":12812,"Ġfinalised":12813,"Ġconnecting":12814,"Ġdevil":12815,"Ġscientifically":12816,"Ġoccurrence":12817,"Ġproceeds":12818,"Ġdictate":12819,"Ġ03":12820,"Ġreactor":12821,"Ġunfounded":12822,"Ġtransferring":12823,"Ġcontrad":12824,"Ġteleph":12825,"Ġtouches":12826,"climate":12827,"Ġattracting":12828,"Ġrevenge":12829,"Ġaggress":12830,"Ġvariations":12831,"Ġrebels":12832,"Ġfulfilment":12833,"Ġrhy":12834,"Ġrevealing":12835,"Ġregrettably":12836,"Ġperpetrated":12837,"Ġmoroccan":12838,"Ġwedding":12839,"Ġdissent":12840,"Ġdiscoveries":12841,"Ġmitigate":12842,"Ġdisappearance":12843,"Ġconfronting":12844,"bett":12845,"Ġpoetry":12846,"Ġalgerian":12847,"Ġallegedly":12848,"Ġexercising":12849,"Ġexacerbate":12850,"Ġarmenian":12851,"Ġathens":12852,"Ġcorrelation":12853,"Ġmulder":12854,"question":12855,"Ġsubscribe":12856,"Ġlinear":12857,"Ġflorence":12858,"Ġjackson":12859,"Ġunwanted":12860,"Ġunchanged":12861,"Ġresilience":12862,"Ġshipyards":12863,"Ġhypocritical":12864,"Ġtraffickers":12865,"Ġoverwhelmingly":12866,"Ġcredentials":12867,"bc":12868,"hor":12869,"iating":12870,"uay":12871,"uate":12872,"Ġample":12873,"ref":12874,"Ġthess":12875,"Ġcous":12876,"Ġost":12877,"angh":12878,"Ġfals":12879,"Ġfond":12880,"Ġinert":12881,"alon":12882,"Ġhire":12883,"Ġhired":12884,"Ġhorses":12885,"Ġeats":12886,"Ġgb":12887,"Ġlod":12888,"Ġlula":12889,"Ġunint":12890,"lib":12891,"Ġpresumably":12892,"Ġcanary":12893,"Ġjan":12894,"Ġpolio":12895,"umane":12896,"oston":12897,"tsin":12898,"eltsin":12899,"Ġproposition":12900,"Ġdemise":12901,"indust":12902,"Ġhook":12903,"Ġdesires":12904,"Ġenvoy":12905,"Ġviewpoint":12906,"Ġmediation":12907,"Ġforeseen":12908,"Ġprinted":12909,"Ġphased":12910,"Ġcorbett":12911,"Ġbene":12912,"doing":12913,"Ġrepresentations":12914,"Ġfavours":12915,"Ġexistent":12916,"prime":12917,"Ġfundamentalist":12918,"Ġmorally":12919,"Ġpenins":12920,"Ġtyr":12921,"Ġspecialised":12922,"Ġcompromised":12923,"Ġidentities":12924,"Ġbroadband":12925,"Ġ92":12926,"Ġdelhi":12927,"Ġinfluenza":12928,"Ġorganisational":12929,"Ġsenses":12930,"Ġviruses":12931,"Ġmalt":12932,"Ġfueled":12933,"Ġqualify":12934,"Ġpaths":12935,"Ġaccompany":12936,"Ġinhumane":12937,"brid":12938,"Ġcatching":12939,"Ġrationale":12940,"Ġfemin":12941,"Ġtortured":12942,"guided":12943,"Ġtemperatures":12944,"Ġdevastated":12945,"Ġhesitation":12946,"Ġangela":12947,"Ġadmittedly":12948,"Ġwholes":12949,"Ġdeplorable":12950,"Ġadhered":12951,"Ġslip":12952,"Ġsponsored":12953,"Ġintrins":12954,"aea":12955,"Ġancestors":12956,"Ġelaborate":12957,"Ġesteem":12958,"education":12959,"Ġunlawful":12960,"Ġpyramid":12961,"Ġmagnificent":12962,"based":12963,"free":12964,"food":12965,"fail":12966,"len":12967,"lit":12968,"marks":12969,"scient":12970,"tically":12971,"vol":12972,"were":12973,"wind":12974,"Ã£":12975,"Ġathe":12976,"inf":12977,"Ġther":12978,"Ġwounded":12979,"Ġwreck":12980,"Ġsul":12981,"Ġcort":12982,"Ġbange":12983,"Ġboston":12984,"Ġtoile":12985,"ester":12986,"esters":12987,"Ġfats":12988,"alus":12989,"Ġdaughters":12990,"rocal":12991,"Ġiaea":12992,"utrition":12993,"Ġforwards":12994,"Ġsta":12995,"keys":12996,"Ġuna":12997,"imm":12998,"Ġseaf":12999,"Ġvivid":13000,"oding":13001,"Ġconting":13002,"ocally":13003,"Ġproph":13004,"Ġundertook":13005,"Ġrecast":13006,"Ġindo":13007,"Ġlooph":13008,"Ġguards":13009,"Ġscrat":13010,"Ġenerget":13011,"hips":13012,"iciency":13013,"Ġcream":13014,"Ġblunt":13015,"Ġsmallest":13016,"Ġ59":13017,"Ġbuilds":13018,"Ġsuffice":13019,"Ġmisguided":13020,"Ġturnover":13021,"Ġnetanyahu":13022,"identally":13023,"Ġfacebook":13024,"Ġ98":13025,"Ġbiometric":13026,"Ġbelt":13027,"spain":13028,"Ġmistrust":13029,"Ġsalmon":13030,"Ġmerger":13031,"Ġslave":13032,"Ġspeeding":13033,"Ġrounds":13034,"Ġcontracting":13035,"Ġturkmen":13036,"Ġacquiring":13037,"Ġhostility":13038,"Ġpetrol":13039,"Ġprotocols":13040,"Ġstrengths":13041,"Ġvariable":13042,"Ġswept":13043,"Ġosset":13044,"Ġmatches":13045,"Ġphilosopher":13046,"moving":13047,"Ġdrove":13048,"keepers":13049,"Ġindonesian":13050,"Ġremedies":13051,"Ġjunior":13052,"Ġshifts":13053,"Ġeuroscept":13054,"Ġprivatization":13055,"Ġnurse":13056,"Ġversa":13057,"Ġsceptical":13058,"Ġintimidation":13059,"Ġflorenz":13060,"Ġmemorand":13061,"Ġinterdependence":13062,"Ġhorrific":13063,"Ġanchor":13064,"Ġnielson":13065,"Ġscript":13066,"Ġimpoverished":13067,"Ġincineration":13068,"Ġcircuit":13069,"Ġmisunderstandings":13070,"farmers":13071,"Ã´te":13072,"Ġcalendar":13073,"frankly":13074,"Ġflesh":13075,"Ġthessalon":13076,"Ġbangemann":13077,"Ġloopholes":13078,"acies":13079,"bers":13080,"dac":13081,"hundred":13082,"ji":13083,"nn":13084,"Ġtent":13085,"Ġai":13086,"Ġaung":13087,"Ġwings":13088,"ĠcÃ´te":13089,"Ġpv":13090,"Ġdots":13091,"Ġrear":13092,"Ġreagan":13093,"Ġstored":13094,"Ġprover":13095,"oline":13096,"Ġnotwithstanding":13097,"Ġneat":13098,"Ġsharks":13099,"Ġseal":13100,"Ġleis":13101,"Ġworsen":13102,"Ġallotted":13103,"Ġimpl":13104,"Ġresumption":13105,"ocation":13106,"ensen":13107,"Ġpoliceman":13108,"Ġdevelops":13109,"Ġtranscend":13110,"ceptive":13111,"Ġowner":13112,"Ġdrama":13113,"Ġimprov":13114,"Ġmodulation":13115,"Ġappet":13116,"Ġstarvation":13117,"Ġartic":13118,"Ġanswering":13119,"Ġoperated":13120,"Ġheadings":13121,"Ġheadway":13122,"Ġsoutheast":13123,"Ġtraders":13124,"Ġerr":13125,"Ġlangen":13126,"Ġflew":13127,"Ġpenalised":13128,"Ġprovisional":13129,"Ġspreads":13130,"Ġcompensatory":13131,"Ġsuscept":13132,"Ġfacilitation":13133,"Ġfraudulent":13134,"Ġquantum":13135,"Ġmounting":13136,"Ġpsychiat":13137,"community":13138,"Ġintellectuals":13139,"Ġpredictions":13140,"Ġincompet":13141,"Ġrelieved":13142,"Ġreciprocal":13143,"Ġtimetables":13144,"Ġblowing":13145,"relations":13146,"Ġgrip":13147,"Ġclip":13148,"Ġunpopular":13149,"Ġnicolas":13150,"Ġfanat":13151,"Ġholidays":13152,"Ġpopulism":13153,"Ġchickens":13154,"Ġsymptom":13155,"Ġintermediate":13156,"Ġtaboo":13157,"Ġnomination":13158,"Ġsupermarket":13159,"generally":13160,"Ġlicensing":13161,"Ġcinema":13162,"Ġankara":13163,"sudden":13164,"ivoire":13165,"Ġclouds":13166,"hundreds":13167,"500":13168,"bring":13169,"call":13170,"gia":13171,"kland":13172,"success":13173,"vals":13174,"Ġtatoeba":13175,"Ġthumb":13176,"Ġpile":13177,"Ġhug":13178,"Ġanderson":13179,"Ġrelied":13180,"Ġthatcher":13181,"otion":13182,"uration":13183,"urable":13184,"Ġaligned":13185,"Ġdelic":13186,"Ġunfore":13187,"open":13188,"Ġshout":13189,"Ġshield":13190,"unted":13191,"Ġleone":13192,"Ġchess":13193,"Ġchanne":13194,"Ġrally":13195,"Ġjul":13196,"Ġresur":13197,"Ġresigned":13198,"lles":13199,"oused":13200,"lose":13201,"Ġcompatibility":13202,"izoph":13203,"Ġram":13204,"Ġperse":13205,"Ġboast":13206,"ighters":13207,"Ġstranger":13208,"Ġdiscard":13209,"Ġlax":13210,"Ġlaud":13211,"Ġfutures":13212,"Ġschizoph":13213,"Ġdeport":13214,"comb":13215,"Ġlibr":13216,"Ġeducate":13217,"legal":13218,"ofi":13219,"Ġ64":13220,"Ġuneven":13221,"Ġ77":13222,"central":13223,"Ġgreeks":13224,"Ġdocumentation":13225,"Ġsalv":13226,"Ġmalm":13227,"Ġsenegal":13228,"Ġsteer":13229,"Ġdelegated":13230,"Ġcomprehensible":13231,"Ġultra":13232,"Ġallocating":13233,"Ġsilly":13234,"Ġcharacterized":13235,"Ġjourneys":13236,"Ġfiles":13237,"Ġfeeds":13238,"Ġcardiff":13239,"Ġfederalist":13240,"Ġstores":13241,"Ġvoluntarily":13242,"Ġfortress":13243,"Ġsupplemented":13244,"Ġintervening":13245,"Ġconstituent":13246,"Ġanalysts":13247,"Ġscarcity":13248,"Ġdiscriminated":13249,"Ġkaras":13250,"Ġcommendable":13251,"Ġbowis":13252,"Ġconvenient":13253,"Ġpolluting":13254,"Ġfeasibility":13255,"Ġculp":13256,"Ġstipulates":13257,"Ġaccumulation":13258,"Ġrocard":13259,"Ġabundant":13260,"Ġpredecessors":13261,"Ġenacted":13262,"Ġcancelled":13263,"Ġdisgraceful":13264,"Ġhectares":13265,"Ġmixt":13266,"Ġcertificates":13267,"negotiations":13268,"Ġdraftsman":13269,"Ġzealand":13270,"experience":13271,"Ġcluster":13272,"Ġmeltdown":13273,"Ġstroke":13274,"ĠrÃ¼big":13275,"Ġfluctuations":13276,"Ġorphan":13277,"needless":13278,"Ġlorries":13279,"Ġasteroid":13280,"Ġeurobonds":13281,"Ġleisure":13282,"Ġschizophren":13283,"18":13284,"bro":13285,"bank":13286,"dled":13287,"fl":13288,"sur":13289,"inth":13290,"Ġcun":13291,"Ġcum":13292,"Ġpour":13293,"Ġpier":13294,"anke":13295,"Ġfu":13296,"already":13297,"Ġrebal":13298,"Ġreliance":13299,"Ġgore":13300,"Ġgand":13301,"Ġlately":13302,"mentioned":13303,"Ġeurodac":13304,"weigh":13305,"Ġchip":13306,"usa":13307,"Ġwasting":13308,"Ġimpat":13309,"Ġregrets":13310,"aste":13311,"Ġplug":13312,"Ġincidence":13313,"Ġupward":13314,"Ġcoerc":13315,"Ġsail":13316,"ogene":13317,"Ġoverl":13318,"Ġaccuse":13319,"Ġcommunal":13320,"Ġprotesters":13321,"Ġmafia":13322,"Ġturks":13323,"Ġcarte":13324,"Ġbuck":13325,"Ġpresently":13326,"Ġbuses":13327,"Ġorganizing":13328,"Ġdepleted":13329,"Ġcosta":13330,"Ġresett":13331,"Ġpractise":13332,"Ġconstitutions":13333,"Ġsuppression":13334,"Ġolds":13335,"whenever":13336,"Ġlowered":13337,"Ġcharging":13338,"Ġcapitals":13339,"Ġdesigner":13340,"Ġcoordinators":13341,"Ġverge":13342,"Ġtestim":13343,"Ġcrucially":13344,"apping":13345,"prints":13346,"Ġkills":13347,"Ġmerch":13348,"Ġpollen":13349,"Ġcontentious":13350,"Ġslaught":13351,"Ġboards":13352,"Ġclarifying":13353,"Ġconcentrations":13354,"Ġcraft":13355,"Ġpetro":13356,"Ġpunct":13357,"Ġshooting":13358,"Ġstruggles":13359,"Ġbonino":13360,"Ġgrandchildren":13361,"Ġboyf":13362,"Ġapartment":13363,"Ġballoon":13364,"ambique":13365,"Ġcrowded":13366,"Ġblown":13367,"Ġdetected":13368,"Ġabsorption":13369,"Ġacquisition":13370,"Ġfrustrated":13371,"Ġjumped":13372,"Ġprescribed":13373,"Ġmichael":13374,"Ġdossiers":13375,"Ġtechnique":13376,"Ġmathematical":13377,"Ġeligibility":13378,"Ġspeculators":13379,"Ġdecentralised":13380,"Ġdiminished":13381,"Ġmainstreaming":13382,
[...]
