#version: 0.2 - Trained by `huggingface/tokenizers`
Ġ d
e s
Ã ©
Ġ l
e n
o n
Ġ p
Ġ a
Ġ c
o u
Ġd e
t i
Ġ s
q u
r e
Ġ .
en t
Ġ ,
e r
a n
i s
Ġ e
i n
i t
Ġ qu
Ġ m
Ġ n
u r
Ġl a
l e
ti on
u n
r a
Ġ Ã
m ent
Ġ t
Ġp a
Ġl e
Ġ un
o r
o m
Ġe t
t e
Ġ f
s i
r Ã©
Ġ v
ĠÃ ł
Ġl es
i l
Ġ en
ou s
Ġd es
Ġ Ã©
r o
ou r
Ġqu e
Ã ¨
on s
Ġ es
Ġa u
on t
â Ģ
Ġc e
m e
Ġes t
âĢ Ļ
t a
u s
an t
c e
r i
v e
r es
l i
Ġ in
an s
qu e
a tion
Ġd Ã©
a r
Ġpa r
Ġun e
Ġp our
Ġ j
n e
Ġp ro
o p
t Ã©
i re
c i
Ġ b
Ġc om
t re
Ġd u
Ġ rÃ©
a l
Ġf a
Ġ -
Ġpa s
e u
o i
Ġn ous
Ġd ans
c h
Ġ g
it Ã©
Ġ il
Ġ re
s e
a is
Ġqu i
m p
Ġc on
Ġp l
a u
l le
d e
p p
Ġ C
Ġs ur
Ġp o
Ġn e
l a
l es
le ment
Ġ i
t s
ur op
Ġa v
Ġs e
f f
Ġe x
t u
Ġc h
t er
d i
Ġ P
t te
g e
si on
en d
Ġpl us
Ġa c
n i
Ã¨ re
o l
o s
Ġ ra
i r
Ã ª
or t
Ġ M
Ġj e
en s
Ã© e
ur s
om m
ou v
Ġ h
i e
Ġ o
er s
Ġs u
Ġp rÃ©
Ġt ou
urop Ã©
c es
J e
a in
I l
b le
Ġe uropÃ©
Ġ r
tion s
qu es
Ġt r
Ġm e
Ġv ous
Ġ U
Ã¨ s
ĠeuropÃ© en
a it
Ġs ont
si d
p e
u e
Ġm o
Ġp r
ĠÃ ª
Ġa ve
Ã© s
Ġs i
Ġde v
y s
Ġcom m
ti que
Ġi mp
Ġa i
m es
Ġc ons
u x
Ġce tte
Ġp eu
u l
Ġt ra
t es
Ġc a
a i
Ġa pp
ĠÃª tre
Ġ ent
m b
Ġcom p
an d
oi r
Ġd i
t en
Ġ ont
Ġau x
Ġ E
Ã© es
an ce
e l
d u
Ġc ont
Ġa n
is sion
si e
Ġave c
en ce
N ous
L a
f i
on n
a ire
or d
o it
ĠC omm
a le
Ġm on
Ġs ou
Ġfa it
Ġpo li
i en
Ġc es
s si
L e
ĠÃ© c
Ġ ?
Ġ res
au x
Ġra pp
u i
o is
Ġ A
C e
ation s
is s
Ġl i
Ġ y
g a
Ġau t
Ġs a
Ġm ais
ou ve
Ġm a
Ġpro p
j e
Ġs er
Ġ ou
ĠÃ© ta
Ġg r
Ġpa ys
Ġpar ti
ch e
c tion
sid ent
Ã© r
Ġac c
g i
Ġcon c
t r
l Ã¨
Ã© ra
v i
ĠComm ission
o tre
ĠÃ© tÃ©
m i
ment s
c u
re r
Ġt e
c ti
ĠeuropÃ©en ne
in s
Ġd is
ĠÃ ī
L es
on ne
u t
Ã ´
Ãª me
it e
d a
l Ã©
Ġtou t
ta ts
p r
Ġent re
Ġa r
Ġcom me
ĠU ni
Ã© ri
Ġo b
v a
or s
Ġfa ire
Ġp u
o ci
ouv er
Ġa m
a t
ĠUni on
f or
a b
il le
l les
Ġe ff
s ent
ĠP rÃ©
Ġd ire
Ġ "
Ġ 1
is e
o y
Ġ 2
Ã ł
o c
in e
sie ur
Ġf in
a c
on sieur
ĠPrÃ© sident
on c
E n
a g
Ġin ter
ant s
Ġpoli tique
Ġav ons
v ent
Ġqu es
Ġa g
Ġin s
Ġm Ãªme
Ġ B
Ġe lle
s s
Ġv i
Ġc o
Ġ on
Ġn Ã©
Ġb ien
ai res
0 0
Ġimp ort
on om
Ġ S
Ġp er
Ġs on
Ġa d
Ġrapp ort
tu re
j our
ĠP ar
Ġau ssi
Ġ :
Ġn ouve
ĠdÃ© c
Ġpeu t
it s
eu x
ĠÃī tats
Ġm es
Ġex p
e lle
Ġtr Ã¨s
ti tu
Ġa t
Ġle ur
Ġa l
v en
b re
Ã© n
ĠÃ©c onom
Ġil s
v es
ons e
o si
or te
Ġv ou
Ġme mb
end re
on d
ĠPar lement
i que
ur es
ga lement
Ġpro b
ĠÃ© galement
m er
an de
Ġin tÃ©
Ġp ers
Ġd ro
Ġc er
ĠrÃ© s
Ġm ar
Ġtra va
ra i
ti ques
c o
ra it
is t
Ġn om
ĠE urop
l er
n er
Ġn otre
m in
ĠdÃ© p
is i
Ġcomm un
a ble
Ġt er
ĠEurop e
g ra
Ã¨ me
b li
c te
itÃ© s
ol u
E t
u re
Ġa b
s se
ces s
Ġdi ff
Ġt ous
Ġde ux
Ġmemb res
Ġm an
Ġd oit
Ġaut res
en ti
Ã §
Ġan n
Ġque l
c t
f in
al es
Ġcer ta
l is
ou p
Ġf or
Ġde m
onse il
Ġs oci
ĠC onseil
tr u
Ġp ouv
Ġprob lÃ¨
Ġ I
Ġce la
a s
ar d
Ã¨ res
Ġ )
Ġques tion
c a
Ġacc ord
Ġtrava il
al is
ain e
ĠÃ©ta it
ti n
Ġconc er
Ġ T
Ġ Â
us e
d re
Ġs eu
Ġd onc
Ġ R
Ġen v
ve l
mp s
o se
me t
Ġtr ans
ĠrÃ© p
g er
en se
vel op
ra is
an te
g n
Ġdev ons
c Ã©
Ġp re
Ġpo in
il itÃ©
Ġp ri
M ais
ĠdÃ© b
Ġsu is
Ġc ro
ĠdÃ© velop
a m
Ġs es
Ġs Ã©
u ti
Ġv o
Ġn os
u d
Ġm il
Ġ or
Ġj us
Ġpro du
v re
tÃ© s
Ġprop osi
ĠdÃ© m
Ġmar ch
g ie
Ã »
Ġ O
ĠÃ© v
je t
l u
Ġ op
c ation
a ge
t ra
co re
Ġnom bre
Ġn i
Ġe mp
Ġcont re
ĠprÃ© sent
f s
u m
Ġen core
jour d
Ġt ro
ti ve
g u
Ġc rÃ©
Ġa ss
ĠM onsieur
ri e
Ġm Ã©
Ġ ti
ci p
ĠrÃ© gi
Ġmon de
s er
omm es
Ġs ans
v er
o in
te urs
ce p
g Ã©
Ġ uti
Ġde r
Ġes p
Ġn on
Ġg ouver
c er
Ã ®
ne ment
is es
Ġl ors
Ġd onn
Ġre c
Ġau tre
u er
Ã ¹
ent s
Ġman i
Ġr en
our s
Ġ F
Ġ D
ĠnÃ© cess
it u
al itÃ©
Ġ G
Ġvou d
om me
Ġm ain
d Ã©
Ġle urs
en ir
olu tion
b les
Ġf on
Ġc la
Ġpre mi
Ġder ni
ai ent
r it
Ã© li
it er
Ġm oi
Ġre p
Ġpr in
Ġd ont
Ġs oit
h ui
Ġd it
ch er
t ant
Ġte mps
eu re
Ġau jourd
Ġo Ã¹
ĠU E
Ġtou te
Ġimport ant
Ġdis p
Ġp ense
Ġ N
Ġc ar
an ge
for m
m ble
end ant
e au
ĠÃ© le
Ġvoud rais
Ġa ff
Ġav oir
is te
Ġeff e
ĠdÃ©velop pe
Ġparti cu
Ġfa ut
Ġcomp r
Ã©ra tion
m ment
Ġra is
Ġa ur
Ġfin an
Ġ2 00
on g
o ra
i ent
Ġpu bli
Ġparticu li
cti ve
M onsieur
P our
ti Ã¨re
Ã¨ g
p u
Ġes s
Ġs itu
Ġpo ssi
Ġ L
Ġs ys
c un
si ons
c ur
in si
Ġdro its
Ġca s
Ġpoin t
Ġd oi
Ġl Ã©
Ġob je
ĠdÃ©veloppe ment
Ġc ol
o ta
Ġ (
Ġgr and
ou t
oc ra
r Ãª
mp le
onn es
d er
n es
a ce
Ġg Ã©n
ri b
Ġb eau
Ġs ommes
it oy
g is
l s
Ġp e
c ul
pr Ã¨s
c oup
Ġd om
p ar
Ã´ le
Ġuti lis
Ġdiff Ã©r
Ġr Ã¨g
Ġam en
Ġdoi vent
ent e
Ġce t
Ġmil li
Ġsys t
Ġi m
v ers
Ġac tu
Ġf ois
Ġcon f
Ġ ri
Ġm in
ĠproblÃ¨ me
cur itÃ©
Ã© qu
b ilitÃ©
n is
Ġobje cti
Ġsitu ation
ol o
ta t
p h
Ġproposi tion
Ġi ci
qu oi
Ġcon sid
Ġbeau coup
ĠdÃ©m ocra
j Ãł
n ation
Ġpo si
an is
Ġm al
ĠdÃ© jÃł
ĠÃ©conom ique
Ġch a
Ã ¢
i g
Ġmarch Ã©
l o
Ġc r
Ġc i
en ces
Ġc itoy
qu er
Ġmani Ã¨re
Ġpoli tiques
ĠsÃ© curitÃ©
gra m
Ġn ation
Ġme t
Ġau cun
Ġsa v
Ġm ont
o ire
Ġfinan ci
Ġb es
d es
an ti
Ġser a
ou te
t ro
Ġl Ãł
Ġmo ins
Ġpro gram
Ġper met
Ġv rai
Ġamen de
Ġa insi
isi on
S i
Ġca p
e z
g ue
Ġenv ir
ĠdÃ©b at
D ans
Ġad op
E lle
Ġm en
Ġli b
p i
Ġj our
Ġni ve
Ġch ose
ĠC h
Ġentre pr
Ġex e
Ġinter nation
or ts
Ġin c
iss aire
ou pe
r an
Ġb ud
Ġpers onnes
Ġl ui
Ġ %
Ġv ie
Ġdem and
Ġs ta
sie urs
Ġ1 9
Ġmes ures
p Ã©
Ġe lles
Ġapp ro
p ons
Ġgouver nement
Ġann Ã©es
Ġi d
f ois
ain es
jour s
Ġcons titu
e m
Ġemp l
Ġprop os
Ġpar ce
Ġpar t
Ġtou jours
ille urs
Ġ H
ta ire
ta ge
Ġsou ti
Ġag it
r ont
ab les
ĠÃ© ner
pu is
Ġcitoy ens
Ġg ar
Ġv otre
Ġconcer n
ĠÂ »
Ġmain ten
m is
Ġv a
Ġv is
onne ment
ĠdÃ© f
Ġmon di
Ġma tiÃ¨re
ĠÃ© g
Ġf er
Ġen se
ti s
Ġan s
a da
Ġapp li
Ġ J
Ġpro f
Ġl ong
Ġsou h
il i
Ġav ant
Ġgr oupe
li g
m a
er ci
elle ment
te ur
Ġo c
Ġtou tes
ti f
h Ã©
Ġres pons
Ġor g
rÃ© sent
Ġc ent
an g
Ġt ant
Ġb a
Ġsyst Ã¨me
l ons
Ġin form
Ġgr ande
cte ur
Ġca dre
qu i
Ġin d
Ġdro it
Ġ âĢ
ĠÃ §
Ã¨re ment
us es
Ġcon n
Ġbes oin
Ġmo y
V ous
Ce la
Ġrep rÃ©sent
Ġ K
ĠÃ§ a
Ġa prÃ¨s
Ġpl u
Ġnive au
Ġcons Ã©qu
Ġcon tin
A u
Ġpouv oir
m Ã©
Ġn a
Ġpour quoi
Ġsouh ait
d ent
Ġen f
c tions
Ce tte
i ti
Ġexe mple
Ġ !
ĠÂ «
Ġat t
Ġprin cip
Ġres pe
Ġcommun au
t ri
Ġ- -
Ġpu is
ada me
Ġdiff i
l ent
ĠU nis
ĠproblÃ¨ mes
Ġques tions
ti ves
Ġf ond
Ġin f
Ġeff i
Ġav ait
Ġseu lement
Ġt u
Ġparti e
l ar
el les
Ġs oi
Ġh omme
v Ã©
te ment
ĠgÃ©n Ã©ra
Ġf em
ĠrÃ© du
Ġins titu
ĠintÃ© rÃª
rai ent
Ġcomm ission
a ra
t h
el s
gu es
or is
Ġs ous
Ġser vi
Ġcerta ins
Ġconcer ne
Ġ ;
Ġpeu vent
in es
Ã§ on
Ġpe ti
Ġte ch
Ġrais on
l Ã©e
Ġh um
Ġcomp te
Ġcont r
Ġpers onne
c le
ĠrÃ©gi on
ĠrÃ© f
Ġco op
Ġpas s
Ġv oi
ti e
Ã´ t
Ġdev rait
Ġa fin
Ġcol lÃ¨
n ent
Il s
ĠnÃ© g
Ġm i
Ġenvir onnement
Ġpl an
Ġab ord
en ne
iss ance
Ġc or
mer ci
Ġre merci
Å ĵ
D e
P ar
ti v
i ques
Ġsu i
Ġave z
Ġam Ã©li
Ġde puis
Ġar ri
Ġin di
Ġcont rib
or itÃ©
Ġv oir
an ces
Ġmet tre
Ġpouv ons
Ġce ux
Ġorg anis
ĠM es
Ġal ors
Ġpr endre
o li
Ġnouve au
Ġdem ande
Ġen ga
Ġser ait
os es
ĠlÃ© gis
ĠrÃ©s ul
Ġquel ques
ten tion
Ġp ens
ĠdÃ© s
Ġai de
Ġg ens
Ġpro cÃ©
ĠprÃ© sident
Ġsu b
Ġdis c
i x
Ġag ri
Ã Ģ
Ġp res
Ġdire ctive
Ġpour rait
Ġun i
Ġv ue
tion ne
Ġqu and
ten ir
Ġch ange
Ġp h
Ġch oses
Ġvrai ment
Ġe ur
l on
r ent
Ġd ur
Ġeffe t
t ent
Ġess enti
Ġmainten ant
tra tÃ©
Ġdom aine
Ġcr ise
Ġp op
i ons
Ġense mble
Ġ 3
u vre
Ġann Ã©e
l ation
om p
Ã©ri c
g ent
Ġop p
Ġc ours
Ġgar anti
Ġs tratÃ©
Ġsu jet
Ġa s
Ġnouve lle
Ġpossi ble
Ġj ou
p endant
cess us
Ġquel que
Ġpro cessus
end u
Ġsu pp
Ġprogram me
Ġv ers
Ġpro te
Ġcons omm
Ġapp r
O n
Ġb on
ĠÃ© ch
g ment
Ġse in
Ġ2 0
Ġe u
g es
Ġfon ction
Ġcoop Ã©ration
U ne
Ġsav oir
Ġr is
ĠdÃ©c la
Ġc ri
Ġcont ra
Ġs Ã»
Ġac cep
se ment
Ġfa Ã§on
ĠnÃ©g oci
Ġtro p
Ġin ves
g ne
Ġentrepr ises
Ġprote ction
Ġtro is
am ais
p er
ĠeuropÃ© ens
or itÃ©s
ouv ent
Ġse cteur
Ġn u
rÃ© e
Ġli eu
Ġsoci Ã©
ven tion
i res
Ġl u
Ġcom ment
Ġab s
Ġpro g
a li
Q u
use ment
Ġj amais
ĠÃī tat
ain s
Ġr Ã´le
Ġre g
Ġcon di
Ġin iti
ĠrÃ© alis
Ġrapp orte
Ġ ord
ĠprÃ© c
Ġinves ti
Ġau gment
tÃ© e
Ġres s
Ġpl ace
Ġj u
Ġconcern ant
que lle
Ġs pÃ©
Ġla quelle
Ġsouti en
Ġren for
Ġo ff
Ġ V
lle ment
ais s
sse mb
ĠÃ©conom ie
Ġpremi Ã¨re
Ġba se
ch es
ent es
Ġsi mp
Ġcomp Ã©
Ġs ens
x te
ĠnÃ©cess aire
ĠprÃ© v
Ġh ist
ant Ã©
i Ã¨me
Ġd a
Ġfon da
Ġcro issance
Ġpubli c
i on
Ġav enir
Ġfa is
Ġh eure
ur i
o ins
c ture
Ġb onne
Ġcla ire
Q ue
Ġb i
Ġre la
Ġmo ment
Ġmes ure
Ġind us
Ġfem mes
ĠâĢ ĵ
en u
Ġme ille
Ġbud ge
Ġpr om
s t
ĠrÃ©s olution
Ġav an
Ġce l
ci le
a teurs
ul ation
Ġre cher
cte urs
ti fs
m an
Ġra pi
gi que
Ġs antÃ©
sid ence
Ã©r ence
C es
U n
Ġcomm en
g ni
om b
ĠrÃ© g
Ġposi tion
Ġfonda ment
ant es
Ã©n Ã©
v an
Ġpr is
Ġv eu
Ġenf ants
Ãª te
ve ur
Ġna ture
Ġen c
ĠÃ© tu
qu Ã©
Ġcro is
Ġmilli ons
Ġrec onn
Ġparticuli er
ag ne
Ġres te
Ġvo te
Ġp ra
or ter
ĠspÃ© ci
Ã© rer
Ġobjecti f
o rer
Ġc ul
Ġa tte
ve z
ne ments
Ġter me
Ġn ota
ta tion
it es
Ġtrans p
ĠM me
ĠrÃ© for
Ġfa veur
Ġimport ance
r u
ĠrÃ¨g lement
ĠÃ© tr
Ġpri x
ab ilitÃ©
Ġri en
Ġfor m
Ġcha que
ac itÃ©
Ġeffi ca
fi er
Ġamende ments
ri ons
Ġtra itÃ©
ven ir
a ri
ĠÃ© vi
Ġpro ch
ĠCh ine
Ġproposi tions
lÃ© ment
ĠÃ©ner gie
o v
Ã© ment
ou ra
i m
Ġun ique
Ġg ra
Ġ 5
Ġc our
Ġli m
Ġsoi ent
ge ment
Ġv ol
Ġrapi de
Ġam Ã©ric
Ġservi ces
Ġrapporte ur
ĠcollÃ¨ gues
Ġac tion
Ġiniti a
Ġ z
Ġpa ra
ssemb lÃ©e
Ġjus te
u rer
Ġv er
fi cation
ra tion
a y
rÃ© s
res s
Ġre l
Ġmo is
Ġesp Ã¨re
Ġes ti
Ġcons tru
ĠdÃ©p u
Ġl an
Ġnouve lles
ĠÃ©g ard
Ġpremi er
j ou
Ġsu ff
Ġobjecti fs
Ġempl oi
our ces
Ġ19 9
Ġa illeurs
Ġv Ã©r
ĠsÃ» r
ĠComm issaire
Ġsi gni
Ġnombre ux
Ġre m
Ġm is
Ã©ri e
Ġvi ol
ĠdÃ© fin
Ġco Ã»
on e
Ġprodu its
ĠmÃ© di
Ġm ise
Ġ Åĵ
s u
le x
Ġse mble
Ġnota mment
ĠA m
la b
Ġpro jet
Ġdonn er
res sion
Ġjus qu
iss ent
ĠdÃ©c ision
que l
mb re
o t
Ġatte in
ĠÃ©ta ient
n olo
Ġb Ã©nÃ©
Ġcommun e
Ġs ouvent
Ġbudge t
ĠM adame
Ġs al
ci pe
Ġinvesti sse
Ġlib er
uri di
Ġb as
hÃ© sion
Ġj uridi
Ġplu sieurs
it aire
Ġmi eux
Ġ 4
Ġf ut
Ġcontr Ã´le
Ġinstitu tions
b il
Ġt ota
Ġparticuli Ã¨rement
Ġa li
ĠÃ© qu
ĠA ssemblÃ©e
Ġcom b
Ġv ale
Ġ Je
Ġc li
o de
Ġexp ri
Ġav is
Ġn or
Ġpar ler
Ġaucun e
ab lement
Ġse c
r ons
Ġid Ã©e
uer re
ĠI n
Ġcondi tions
Ġcel ui
Ġe ux
Ġex iste
Ġd ou
ĠstratÃ© gie
o le
ĠrÃ© c
rie ur
Ġt a
gra tion
Ġs tru
ĠbÃ©nÃ© fi
a lement
ĠR us
Ġamende ment
Ġnouve aux
i es
Ġce lle
Ã® tre
r on
Ġcomm issaire
Ġapp el
Ġtech nolo
Ã©li c
ora tion
Ġparti cip
Ġser ont
Ġprin cipe
r Ã¨s
Ġb an
Ġimp li
ĠrÃ¨g les
au t
an ger
v ant
ĠdÃ©mocra tie
ĠrÃ©p onse
ĠsociÃ© tÃ©
Ġf our
Ġre f
Ġimp os
van tage
ĠdÃ© ci
Ġfond s
ĠintÃ©rÃª t
Ġcontrib u
Ġat tention
Ġf Ã©lic
ĠprÃ© sidence
ĠA f
Ġtr ouver
Ġpeu x
Ġma j
il l
Ġrecher che
Ġsoci ale
Ãª che
Ġclaire ment
fi c
Ġc an
Ġac tiv
Ġjus ti
Ġda vantage
Ġv oy
y p
il les
min er
Ġse lon
Ġpar ten
Ġimport ante
Ġt Ã©
Ġar ti
Ã® t
Ġar gent
ĠdÃ©c isi
i er
Ġs olution
cu p
Ġpoin ts
Ġv eux
Ġmondi ale
Ġs ais
ĠnÃ©goci ations
Ġje un
c tu
Ġ W
ĠRus sie
Ġeff orts
ais e
ĠrÃ©p ond
Ġt our
Ġp endant
ĠÃ© p
osi tion
C omme
ouve z
vi ent
ut Ã´t
Ġexp li
Ġp Ã©ri
Ġeffica ce
Ġderni er
Ġ ouver
Ġa it
Ġsi gn
Ġderni Ã¨re
Ġn o
ĠÃ©conom iques
in g
Ġg uerre
Ġc Ã´
ine ment
Ġfa v
Ġord re
Ġcul ture
Ġmoy en
Ġt aux
Ã ¯
n Ã©
ĠPrÃ©sident e
Ġdiffi cile
Ġv u
ma tique
ĠdÃ©pu tÃ©s
je ts
ta ble
Ġcent ra
su ite
Ġp le
Ġcerta ines
g rÃ©
Ġ La
Ġ ur
Ġla r
lle m
Ġremerci er
Ġpl utÃ´t
Ġqu alitÃ©
Ġsu c
Ġd Ã¨s
Ã¨ ne
ta ires
Ġch e
Ġsimp lement
Ãª mes
Ġlors que
Ġin dÃ©
gra ph
e t
Ġvou lons
Ġress ources
c Ã¨s
Ġse m
ĠeuropÃ©en nes
Ġpop ulation
Ġpar lement
Ã© rÃ©
Ġs ci
e il
ĠÃ© lar
Ġeur o
ĠÅĵ uvre
Ġcap it
Ġfa ce
Ġagri cul
Ġins tru
ĠÃ©tr ang
fi que
Ġmo di
Ġinternation ale
da mes
ĠcrÃ© er
Ġappro che
Ã© d
Ġpass Ã©
ĠMes sieurs
Ġch ar
Ġf ont
a p
Ġch er
T out
Ġs orte
Ġhist oire
ĠÃ©c rit
Ġcomm erci
Ġprop re
Ġrem ar
v is
Ġd o
Ġdonn Ã©
Ġoc ca
l us
Ġpa ix
Ġfor me
Ġseu le
ĠrÃ© un
c ont
Ġbud gÃ©
r Ã¨
ĠÃ© t
Ġaur ait
ĠlÃ©gis lation
ĠrÃ©gi ons
ri que
Ġh ab
Ġins ta
Ġliber tÃ©
Ġex tr
Ġmarch Ã©s
Ġm Ãªmes
Ġvo tÃ©
T oute
ci dent
Ġrespe ct
a d
Ġenc oura
Ġconsomm ateurs
Ġrel ations
it able
qu ie
Ġlu tte
Ġas pe
ĠÃ©v al
ur r
Ġali ment
Ġf ra
Ġqu oi
Ġsou lig
Ġchange ment
is me
D onc
c lÃ©
Ġp Ãªche
Ġdev raient
Ġrespons abilitÃ©
o b
Ġal ler
Ġcon fi
Ġter r
tro du
t rie
oup es
Ġdemand er
Ġou tre
Ġconc lu
Ġex c
Ġconc urr
Ġdi ri
ĠconsÃ©qu ent
ance ment
ch Ã©
Ġp ouvez
du re
Ġa sse
t out
Ġfa m
ĠdiffÃ©r ents
Ġactu elle
Ġaut ant
Ġinform ation
g ence
ĠrÃ©sul tats
Ġsou tenir
f ie
Ġvoi e
ar itÃ©
l ais
ĠprÃ© oc
t res
Ġprog rÃ¨s
Ġpo s
Ġa ni
Ġte lle
p a
Ġinform ations
Ġter mes
te mps
ĠdÃ©p ens
Ġextr Ãªme
Ġc in
Ġaut oritÃ©s
Ġcommun i
Ġ Le
Ġsuff is
Ġcerta in
Ġmo d
Ġactu ellement
Ġent endu
Ġnu clÃ©
Ġc ir
Ġent ra
h eure
Ġin trodu
Ġvol ont
a ts
f ait
Ġdonn Ã©es
Ġv ais
ĠprÃ©c is
ta tions
Ġs y
ĠintÃ© rieur
Ġd oute
Ġtoute fois
l an
ĠprocÃ© dure
Ġconstitu e
D es
Ġseu l
ĠrÃ© us
ti Ã¨res
ni que
tÃ© ri
Ġess ay
Ġexp Ã©ri
Ġs oli
Ġin v
Ġg es
me tte
Ġjuridi que
l and
iss ant
Ġass urer
Ġaur a
Ġqu a
Ġre pr
Ġnombre uses
Ġgaranti r
Ġacc omp
Ġpeu p
00 0
Ġdisc us
Ġsur tout
lo b
ĠrÃ© alitÃ©
Ġat ta
Ġch i
Ġocca sion
Ġai der
Ġessenti el
Ġani m
Ġrais ons
ĠintÃ©rÃª ts
Ġtrans par
Ġp Ã©
Ġdisp os
Ġterr oris
Ġris que
Ġrapide ment
ra s
Ġdeux iÃ¨me
Ġdev rions
Ġcommunau taire
ĠamÃ©li orer
ri r
Ġderni Ã¨res
Ġmilli ard
Ġindus trie
Ġgouver nements
ac t
Ġveu t
Ã©ri que
ĠT ur
u es
Ġt ent
min ist
Ġstru cture
Ġar rÃª
Ġasse z
Ġs us
Ġprodu ction
Ġcons ta
a teur
ve ment
ĠnÃ©cess itÃ©
l ors
Ġv ois
ro s
Ġcon du
v res
si ble
Ġli bre
Ġpr Ãª
er ce
ĠE tats
gi es
Ġpro tÃ©
Ã¨ mes
Ġpre u
Ġti ens
er re
Ġacc Ã¨s
cti ves
Ġaff aires
Ġpubli que
Ġinitia tive
ĠrÃ©g lement
Ġconf l
Ġf ran
end ance
Ġre ven
Ġs Ã©rie
is ation
Ġconsid Ã©ra
Ġmoy ens
Ġad minist
Ġf i
au v
la it
ni e
Ġatt end
da m
Ġre mp
Ġp or
Ġ 6
ĠÃ© che
Ġcla ir
Ġappli cation
ĠpÃ©ri ode
tÃ© es
al o
Ġcontin uer
is se
par t
Ġarti cle
a z
Ġplu part
ĠMes dames
Ġa mb
Ġfinanci Ã¨re
Ġv oit
M adame
Ġmaj oritÃ©
mÃ© di
Ġle quel
r is
Ġcon v
Toute fois
ĠnÃ©cess aires
Ġjeun es
heure usement
ag es
ĠrÃ© v
ĠdÃ©cisi ons
Ġca use
Ġ is
Ġtr ouve
Ġtrava illeurs
c ts
ĠdÃ© ter
Ġs au
Ġtra ite
Ġt y
it aires
ĠÃ© qui
Ġvis ant
Ġles que
Ġce pendant
Ġcompr om
Ġt en
ĠcrÃ© ation
En fin
ĠÃ©tu di
fi ques
s ui
Ġre t
Ġconcurr ence
Ġg en
ĠÃ©qu ili
Ġp orte
ĠgÃ©nÃ©ra l
end ra
Ġsa tis
Ġmal a
l in
Ġcompr is
Ġin n
la ire
A lors
ĠÃª tes
t ons
Ã¨ te
ĠÃ© tant
il Ãł
Ġtra vers
Ġremerci e
Ġtr ouv
Ġtra in
Ġges tion
Ġagri co
Ġconfi ance
ĠÃ© du
Ġrespe c
Ġl oin
Ġla iss
is tre
Ġdom aines
Ġsta bilitÃ©
re z
Ġpour sui
Ġutilis er
Ġpermet tre
Ġe au
Ġgr oupes
Ġr endre
Ġi r
Ġin qui
Ġsouhait e
Ġs c
Ġcon te
aiss ance
ĠintÃ© ress
alis ation
ĠtÃ© lÃ©
Ġcompr endre
Ġfa i
ĠTur quie
Ã© cu
Ġor ig
ĠdiffÃ©r entes
B ien
Ġes pr
Ġob ser
ce l
Ġprogram mes
Ġ 7
ĠprÃ© cÃ©
ĠÃ©v iter
Ġinternation al
Ġrenfor cer
o que
ĠbÃ©nÃ©fi ci
mette z
Ġsou ten
ĠÃ©ta t
Ġmemb re
Ã¢ ce
ra k
ol lar
Ġutilis ation
ĠE t
ĠdÃ©mocra tique
Ġcons ci
Ġc oup
Ġv os
ĠÃ© n
Ġg lob
Ġ20 1
er a
ĠI s
Ġte xte
Ġad hÃ©sion
ĠÃ©lar gis
isi Ã¨me
Ġpossi bilitÃ©
Ġd ollar
Ġm er
ti ent
Ġac tions
Ġob lig
Ġeur os
Ġsa vez
Ġf ort
Ġl oc
ĠÃ©le ctions
de mment
Ġcomm erce
ĠlÃ©gis la
Ġf orte
Ġm auv
Ġsu ite
Ġty pe
Ġpra tique
ĠextrÃªme ment
Ġdes tin
ĠAf rique
cte ment
ĠrÃ©for me
Ġmod Ã¨
om met
Ġai mer
Ġlib Ã©ra
Ġmeille ure
il s
is c
Ġr ou
Ġapp elle
Ġren cont
Ġconv ain
Ġsigni fie
n a
ĠconsÃ©qu ences
ĠÃ©ta bli
m on
Ġh ommes
en nent
Ġpro jets
oi res
s es
Ġf ron
Ġp i
v Ã©s
Ġh e
Ġpas se
Ġa y
Ġimp orte
ĠÃ©ner gÃ©
Ġprof es
Ġsav ons
ĠrÃ©du ire
ĠprÃ©oc cup
Ġcontra ire
Ġrapp el
Ġsoulig ner
Ã¨ rent
ĠÃ©largis sement
Ġ1 0
Ġfin ancement
Ġt el
C er
p ara
Ġcontr Ã´
Ġpas ser
ĠrÃ©pond re
titu de
Ġaccep ter
Ġdi alo
min ation
Ce pendant
re mi
ri c
v Ã©e
Ġmilliard s
ĠÃ©val u
Ġex cel
Ġdev ant
Ġlong temps
Ġcomprom is
Ġdo cu
m en
ti r
Ġr end
Ġdisp osi
Ġdiri ge
on de
qu ent
h a
ĠrÃ©s er
Ġespr it
ĠdÃ©b ut
b e
Ġ 8
re t
Ġse mb
l ande
ra in
Ġob jet
Ġrec omm
Ġj ours
Ġpers pe
Ġor ient
Ġf ix
olu tions
Ġaccord s
Ġtravail ler
Ġ Il
Ġpr Ã¨s
Ġz one
ĠcÃ´ tÃ©
Ġan ci
ĠcompÃ© ti
ĠE N
ap on
is ter
m oins
Ġd ois
ac un
lÃ© g
Ġexp l
Ġimport ants
ĠL is
Ġesti me
a ss
b onne
ĠrÃ©gi me
Ġapp ar
Ġdis cu
Ġjusti ce
Ġpa uvre
Ġm ul
ĠAm Ã©rique
ĠLis bonne
Ġop in
ist an
Ġdiffi cul
Ġapp orter
Ġtransp ort
ĠrÃ©sul tat
us se
Ġdi vers
Ġdialo gue
c il
Ġco ord
Ġex a
Ġempl ois
ĠÃ©le ct
Ġre Ã§
ni ques
Ġsi mple
ien nent
Ġlors qu
Ġgrand es
l ure
tive ment
tÃ© ra
Ġou bli
met tre
Ġass oci
Ġpreu ve
s p
Ġvo ter
Ġex erci
Ġconte xte
Ġgen re
om ment
Ġsci enti
Ġdes s
Ġqua tre
ĠdÃ© ta
Ġca ra
Ġvolont Ã©
Ġvi cti
D eux
Ġt ard
or m
Ġv ont
Ġdur able
Ġv enir
Ġs enti
Ġprodu it
Ġprop res
Ġti tre
ĠindÃ© p
Ġsui v
Ġav aient
Ġsuc cÃ¨s
in ation
Ġpour raient
Ġex ist
c acitÃ©
Ġex ig
Ġsyst Ã¨mes
Ġadop ter
f es
Ġqu ant
Ġpuis se
Ġag ir
ĠreprÃ©sent e
ti m
Ġsupp lÃ©ment
Ġ 9
di e
Ġcommen cer
d s
an moins
Ġd Ã»
ĠÃ© lab
Ġmin istre
Ġprincip es
Ġf isc
Ã «
Ġim mi
Ġindus tri
Ġaff ir
Ġnation aux
Ġexerci ce
Ġa jou
ĠdÃ©fin i
Ġdemand Ã©
Ġcin q
Ġnor mes
Ġenv is
Ġopp os
Ġactiv itÃ©s
on i
Ġreg ard
Ġsoci al
Ġparti es
ar de
e ment
Ġch ez
Ġaugment ation
Ġan al
ĠbudgÃ© taire
Ġcon vient
Ġs ommet
ĠA llem
Ġman que
Ġres ter
ĠrÃ©s ou
r ance
Ġsi Ã¨
ĠcompÃ© ten
ĠrÃ© se
Ġsoli d
Ġfor ce
Ġen d
ta r
Ġse p
Ġimportant es
Ġfinanci ers
c Ã©e
ĠÃ© lÃ©
Ġre v
Ġ 000
ĠintÃ© gration
Ġconc ent
Ġass ur
di da
ĠA n
Ġenga gement
Ġjou er
Ġjour n
Ġce lles
Ġcan dida
oi x
Ġh au
ar t
Ġtrans f
Ġgr Ã¢ce
Ġcommunau tÃ©
ĠÃ©du cation
ĠÃ©n or
Ġgrand s
ĠÃ ¢
Ġs an
Ġmon Ã©
Ġd onne
Ġob tenir
Ġpa ro
T u
M al
Ġeffi cacitÃ©
is tes
Ġvale urs
ond s
Ġtranspar ence
y er
Ġmani fes
Ġcon cep
vi d
Ġ ouv
Ġm ort
ĠrÃ© ellement
ĠC on
h i
Ġfa ud
ĠprÃ© f
Ã« l
Ġre li
Ġentra Ã®
ĠintÃ© g
Ġinqui Ã©
Ġfav ora
Ġce ci
t oc
Ġv en
ten ti
Ġproch aine
er t
Ġt elles
Ġaimer ais
Ġc al
ue l
ĠmÃ© th
in ois
Ġt els
ĠrÃ© jou
olu ment
Ġan ti
Ġcommuni cation
v il
Ġmen tion
Ġl o
Ġc rit
Ġen suite
Ġh ar
Ġcap acitÃ©
ĠvÃ©r itable
Ġmont re
ĠdÃ©cla ration
end s
ta s
Ġch oix
Ġattein dre
L ors
Ġm u
Ġvi ent
Ġs or
ure au
Ġpeti t
Ġvale ur
ĠdÃ© si
Ġpro v
ien ne
ĠÃ©ta is
Ġnation ales
Ġinf lu
Ġ erre
ag n
Ġinter vention
ais se
Ġcerta inement
gi ques
t on
Ġrapp orts
Ġagricul ture
ĠdÃ©pens es
ĠrÃ©sou dre
Ġparti s
Ġhe ures
re ment
Ġy eux
Ġemp Ãª
o re
Ġhab it
Ġaspe cts
Ġh ui
Ã©r ons
Ġinn ov
ĠIs ra
Ġque lle
ĠN ations
ti ne
Ġch acun
Ġpauvre tÃ©
ĠÃ©lÃ© ments
Ġ Y
ri Ã©
Ġb ou
Ġti ers
da p
Ġenvir on
Ġpar le
Ġcontrib uer
Ġpr ise
tionne l
ĠC our
ĠexpÃ©ri ence
ĠrÃ©for mes
ĠP a
am ment
Ġsem aine
ĠAllem agne
Ġimp act
Ġch ois
Ġmondi al
Ġfron tiÃ¨res
ti ni
or i
Ġt Ã¢
Ġfinanci Ã¨res
Ġterroris me
Ġcomp lÃ¨
Ġdem ain
Ġanim aux
rÃ© es
ĠnuclÃ© aire
M on
Ġhum an
Ġsou ff
Ġex i
ĠmodÃ¨ le
g Ã©s
Ġa che
rit an
c ri
ct ures
Ġlar ge
N otre
Ġid enti
ĠÃ©nergÃ© tique
ĠA l
Ġ1 5
Ġf u
ĠÃ©v olution
ĠmÃ© c
Ġter rit
te l
ĠÃ© mis
ĠdÃ©f ense
Ġsoci aux
om a
Ġs ol
Ġdisposi tions
Ġdi x
Ġal lons
Ġpo tenti
Ġconf ront
Ġa dap
Ġvicti mes
ĠÃ©v o
ĠÃ©g alitÃ©
Ġrecomm and
Ġfinanci er
Ġpar tage
Ġcol lab
Ġunique ment
C omment
Ġt h
Ġt enir
Ġch Ã´
ĠL i
Cer ta
N e
Ġdis t
Qu and
Ġviol ence
o graph
ĠI rak
c ations
Ġb ut
Ġris ques
ĠlÃ© g
Ġorig ine
o ilÃł
Ġfour ni
m Ã©e
Ġdollar s
Ġj eu
Ġsolid aritÃ©
Ġe mb
Ġparti r
a Ã®t
c les
ĠrÃ©du ction
Ġpar venir
Ã§ ons
Ġesp ace
Ġtota lement
Ġca mp
ce mment
ĠprotÃ© ger
a Ã®tre
e c
Ġinvestisse ments
u te
Ġcli matique
orm ais
Ġ Nous
tiv itÃ©
on es
h an
ĠpÃ© tro
Ġadop tÃ©
u vres
Ġmont rer
e ur
Ġm Ã©r
Ġfondament aux
ĠÃ©valu ation
d it
l itÃ©
ti er
Ġob s
rib u
Ġpres que
ce v
Au jourd
Ġmeille ur
ĠprocÃ© d
ort un
Ġabs olument
ĠÃ©p oque
Ġg Ã©
ĠF rance
Ġnation al
Ġacc ro
E lles
ĠcollÃ¨ gue
Ġpar mi
Ġl oi
Ġch ers
ĠprÃ©sent e
p tion
Ġprob ablement
Pour quoi
l ant
Ġsta tu
ĠfÃ©lic iter
Ġd os
er ts
is er
Ġdire ction
ĠD E
Ġfer me
Ġhar mon
p rÃ©
Ġdev enir
Ġcommen cÃ©
Ġcentra le
Ġra di
ĠE uropÃ©
Ġmul ti
Ġorganis ations
Ġuni vers
Ġopin ion
c ent
Ġmo der
ĠcoÃ» ts
Ġdirige ants
Ġim mÃ©di
. .
a re
Ġen fin
Ġav ais
Ġexpl oit
ĠF onds
Ġper mis
ĠdÃ©velop per
l Ã©s
li e
ven tions
Ġaff aire
Ã¨ de
Ġcor re
Ġpeup le
Ġen tiÃ¨re
Ġprog res
Ġsi x
en nes
ĠrÃ© a
Ġentrepr ise
Ã© v
Ġservi ce
ĠdÃ©s ormais
Ġpr ises
di ci
ĠM a
Ġcomp lex
Ġpri oritÃ©
Ġpe ine
gue ur
a ie
ĠÃ©vi demment
qu Ã©e
Ġappro p
Ġpeti tes
Ġfem me
Deux iÃ¨me
V oilÃł
e x
u is
Ġaut oris
Ġc ou
Ġtra di
onc er
Ġapp rÃ©
Ġret our
Ġopp ortun
ĠÃ©ta b
Ġrespons ables
ĠC e
Ġsub st
Ġch anger
Ġma ri
Ġf il
Ġo ct
Ġexpri mer
Ġsatis f
Ġform ation
ie z
fi Ã©
b lement
Ġb ritan
ĠÃ©ch ange
Ġcomp orte
Ġveu lent
Ġfran Ã§
Ġdifficul tÃ©s
p ens
ta it
Ġnation ale
ĠÃ©v Ã©
eil ler
gn Ã©
ĠrÃ© cemment
Ġh aut
Ġchange ments
ĠmonÃ© taire
t tes
Ġcons ul
Ġs en
Ġexp or
ra tions
Ġex tÃ©
Ġconfl it
Ġpar fait
ĠmÃ©c anis
Ġt enu
Ġadop tion
Ġcons er
ĠIn de
Ġt es
Ġdev oir
ctive ment
Ġim m
Ġappli quer
Ġ /
ag er
Ġban ques
ĠIsra Ã«l
Ġpa uvres
Ġri ches
Ġcrit Ã¨res
Ġcr u
ue lle
Ġ us
Ġtro isiÃ¨me
Ġprofes sion
Ġv Ã©
Ġid Ã©es
ĠprÃ©sent er
Ġindi vid
Ġs ait
au tÃ©
ul er
ca p
c s
Ġtechnolo gie
m age
Ġat ti
ĠJ apon
ĠdÃ©ci dÃ©
Ġb ureau
Ġex ac
r ou
Ġin tention
ce ment
el on
Ġchi ff
Ġpar fois
Ġrespec ter
tro ph
ĠÃ©mis sions
Ġref us
ĠS ch
Ġparten ari
ĠchÃ´ mage
Ġre tar
ĠlÃ© gi
Ġpri oritÃ©s
Ġ. ..
alis tes
ĠT ra
Ġch inois
ĠI r
ist ance
ver se
tionne lle
Ã© ro
Ġpour ra
ab il
Ġprom ouv
tas troph
re ux
Ġmes s
ĠdÃ©p os
Ġuni es
ĠÃ© m
Ġprop ose
in er
Ġca tastroph
A insi
A prÃ¨s
Ġch ance
ĠÃ©conom ies
p l
Ġs our
Ġim ag
Ġt omb
ĠÃ© lÃ©ment
ri er
Ġob ten
Ġco lle
Ġcon dam
Ce ci
Ġs in
Ġmil itaire
Ġfor ces
ĠsociÃ© tÃ©s
j us
mi que
ĠI ran
onn er
titu tion
ĠrÃ©us si
Ġar mes
Ġagrico le
Ġpens er
Ġi gn
Ġli vre
Ġrappel er
Ġenga ge
v ie
ro i
Ġind is
ĠdÃ© fi
Ġre je
Ġsouhait er
Ġtraite ment
le z
alis te
Ġdi min
ne t
x e
Ġin ten
ĠComm un
Ġco hÃ©sion
Ġvoi x
ĠprocÃ©d ures
Ġd ange
DeuxiÃ¨me ment
Ã© pu
ĠS ud
Ġenv oy
Ġcontin u
ĠamÃ©li oration
Ġarri ve
li r
Ġ3 0
ĠÃ©c ou
Ġ1 2
Ġt hÃ©
ro y
Ġo ra
Ġsu g
Ġparten aires
ĠapprÃ© ci
g Ã©e
Ġp ort
Ġmin ist
Ġh ier
ĠamÃ©ric aine
ĠÃ©quili bre
Ġg az
Ġli gne
Ġpres sion
Ġpromouv oir
ten ant
Ġesp oir
Ġoc cident
ri ent
Ġob li
Ġsui vre
Ġencoura ger
Ġre tr
bil itÃ©s
ĠrÃ©un ion
ĠprÃ©cis Ã©ment
ĠB an
ĠN ord
al itÃ©s
Ġp en
Ġinstru ments
Ġconvain c
u b
Ġquel qu
Ġeffe ts
Ġju dici
Ġeffe ctu
Ġpublic s
Que l
ĠprÃ© s
ti me
Ġpar ven
Ġl ut
Ġco h
ĠO N
Ġv eiller
Ġpour tant
Ġactu el
Ġinstru ment
Ġan g
ĠÃ© vent
Ġex cep
Ġvi gueur
Ġconf Ã©rence
Ġpr end
Ġbes oins
Ġs olutions
lÃ© ch
a te
Ġexcel lent
Ġay ant
Ġp Ã©n
ĠrÃ©f Ã©rence
ue il
Ġinvestisse ment
Ġparticip ation
Ġh on
Ġ200 0
Ġlu mi
ĠÃ©le vÃ©
i ci
cul ation
Ġpr en
Ġm ouve
si ve
Ġdiscus sion
Ġqu ali
Ġex tra
lis sement
Ġorganis ation
i eu
Ġde l
ĠIr lande
Ġdocu ment
Ġse cteurs
qu Ã©s
Ġac qu
Ġheure ux
or ique
ĠB ar
Ġpara graph
Ġs Ã©ri
ĠprÃ©sent Ã©
Ġderni ers
Ġmais on
Ġ2 5
ĠgÃ©nÃ©ra le
Ġparo le
Ġsur ve
Ġcontribu tion
Ġur gence
ĠÃ©che lle
Ġconc rÃ¨
Ġlong ue
Ġdisc ri
i gn
ĠprÃ© pa
Ġcerta ine
Ġarri ver
ĠconsÃ©qu ence
Ġsign al
j oin
Ġfait es
Ġz ones
Ġprofession ne
Ġsu per
Ġpar ta
Ġexc lu
Ġm and
Ġdev ra
Ġsoci ales
Ġcontin ue
o les
Ġv it
Ġpeti te
v aux
Ġ k
ĠdÃ© li
Ġpoursui vre
Ġend ro
Ġdos si
c ons
Ġcons ac
Ġindis pens
a pp
Ġex is
Ġinitia tives
Ġsuffis amment
Ġdiscus sions
ĠempÃª cher
Ġa Ã©ri
or ie
ĠdÃ©cla rÃ©
Ġn our
ont re
Ġsou li
in dre
Ġex Ã©cu
di es
ĠdÃ©f is
Ġmo t
Ġpropos Ã©
Ġimmi gration
Ġstatu t
M Ãªme
m at
Ġpo ss
Ġpo ser
lÃ¨ ve
oy au
lis ation
Ġtechnolo gies
Ġen qu
Ġav ions
ĠÃ©vi d
P er
Ġconf ir
ur ent
ĠsÃ©ri eux
Ġa si
ĠÃ© tro
Ġmauv ais
ĠÃ© li
Ġent endre
Ġsou le
Ġatt endre
Ġrela tives
Ġb Ã¢
Ġmen ace
it ent
Ġex am
ĠcompÃ©ti tivitÃ©
Ġdel Ãł
ras tru
Ġtra du
fi ca
Ġpossi bilitÃ©s
Ġconsid Ã¨re
Ġpra tiques
ĠdÃ©p end
Ġpo l
Ġenv ers
ĠO rient
ĠamÃ©ric ain
Ġlaiss er
Ġconsomm ation
Ġple inement
z e
Ġm onn
Ġinf rastru
Ġcomb at
oi ci
Ġaugment er
v Ã©es
Ġpeti ts
Ġhum ains
h en
ĠfÃ©lic ite
c ta
Ġdi pl
Ġord in
ĠÃ©trang Ã¨re
si que
2 0
ni es
Ġfam ille
ĠÃ©vi dent
ĠBan que
an i
la ge
Ġex er
c on
Ġ5 0
Ġcont enu
Ġci vi
Certa ins
Ġs p
ĠdÃ© fic
Ġexe mp
Ġlumi Ã¨re
ĩ a
iss ons
ĠrÃ©glement ation
ĠÃ©tabli r
Ġpartenari at
Ġb onnes
Ġinternation ales
Ġexig ences
Ġcandida ts
Ġmo ts
Ġfais ons
Ġconstitu ent
di ction
land ais
Ġconsid Ã©ration
Ġdisp oni
Ġmal heureusement
ĠCommun autÃ©
Per mettez
p s
olo gique
Ġ Les
Ġb ar
qu Ã©es
Ġmal grÃ©
ĠsiÃ¨ cle
Ġinnov ation
c Ã©es
v al
Ġactiv itÃ©
Ġl iste
Ġaux que
Ġimp ression
Ġai me
Åĵ ur
Ġpens ons
Ġaliment aire
is ent
Ġb re
alis me
Ġpersonne l
Ġb r
ĠM ar
Ġ1 1
Ġoff ici
Ġdess us
il a
Ġmo ra
Ġlesque ls
Ġrespons abil
M a
Ġp ous
at ri
Ġempl oy
ta ges
Ġacc Ã©
or Ã©
ri Ã¨re
Ġa llem
Ġter re
Ġpop ul
O r
or Ã©e
op h
Ġat titude
Ġabord er
Ġg ag
Ġcru ci
rie z
Ġsem aines
Ġa ir
Ġaut our
Ġorg an
ue ls
Ġdi men
ĠS u
Ġpar lÃ©
ĠdÃ© ce
Ġsi m
Ġcons eil
Ġagricul teurs
Ġdur ant
ĠÃ©qui pe
Ġlesque lles
ĠrÃ©f lÃ©ch
ch ar
Ġcomp a
Mal heureusement
Ġt Ãªte
Ġg ard
for me
S ur
ĠC ons
ain tenant
fi Ã©e
Ġfa cil
Ġopp osition
Ġcir cons
S elon
Ġad Ã©qu
Ġmess age
Ġte mp
Ġcoord ination
Ġconstru ction
ĠEuropÃ© ens
c tÃ©
Ġv ille
ĠE st
ĠreÃ§ u
n ant
ĠprÃ© ser
Ġsec ond
Ġajou ter
Ġfa cile
Ġh a
ĠR oyau
o des
Ġfai ble
ĠRoyau me
Ġi dÃ©
Ġp ie
Ġar gu
Ġrela tive
ĠG r
t oire
res se
Ġtra vaux
Ġconc lure
Ġmainten ir
Ġrespons able
Ġcondi tion
Ġsui vi
Ġcri min
ĠcompÃ©ten ces
Ġph ot
r ant
Ġs ort
Ġdire ctement
Ġeffe ctivement
ĠpÃ©tro le
ti Ã©
Ġv al
rie ures
Ġpubli ques
ĠtÃ¢ che
Ġsur pr
Ġpu issent
v ision
Ġt oi
ch ent
Ġadminist ration
Ġabs ence
Ġresponsabil itÃ©s
n Ã©e
Ġpouv ait
Ġde tte
ĠÃ© mer
for mer
it ablement
Ġma tin
Ġjou e
Ġent end
Ġren ouve
Ġmand at
Ġposi tif
Ġprof ond
it ation
ĠÃ©c ole
Ġparagraph e
ve c
Ġtr an
Ġparlement aire
ĠÃ©vÃ© nements
Ġpo se
Ġfais ant
Ġproch ain
Ġesti m
Ġen g
cti f
Ġamb i
ĠnÃ© ga
ĠrÃ©us s
p it
Ġreven us
ĠrÃ©jou is
y se
ĠO M
Ġr ur
man ie
g Ã©es
le t
ĠgÃ©n Ã©
Ġenf ant
Ġconn aiss
v isi
Ġqu anti
bli que
Ġessay er
Ġai ent
Ġaspe ct
ĠrÃ©alis er
Ġtransp orts
Ġti rer
Ġimpos sible
Ġra ti
Ġimp or
Ġa mi
ci d
o d
Ġmen er
Ġtech nique
Ġfut ur
g han
Ġtrouv Ã©
Ġcivi le
E st
Ġm ission
Ġin ac
ĠcoÃ» t
o x
fic ations
Ġm us
au che
Ġapp or
Ġconclu sion
Ġfa b
Ġoff re
ti en
Ġ1 8
Ġab and
Ġoblig ations
Ġvoy ez
Ġperspe ctives
ĠA sie
Ġpa ie
Ġal ter
Ġs oir
Ġappr ouv
Ġexa miner
Ġoc cu
ĠmÃ©di ca
V oici
Ġc y
Ġremp la
Ġinflu ence
Ġadminist ra
b er
Ce t
ĠB al
Ġdisc ours
Ġmonn aie
v itÃ©
Ġai des
Ġhum aine
Q ui
Ġre le
gn es
ĠprÃª ts
Ġfavora ble
Ġpi Ã¨
res p
Ġaccord er
Ġfav oris
Ġminist res
Ġmilli ers
ĠspÃ©ci fique
P remi
ĠU k
ĠE n
c ro
Ġle cture
tru ction
Ġnive aux
ĠspÃ©ci fiques
l ou
Ġh Ã©
Ġfonction nement
Ġattein t
ĠsupplÃ©ment aires
Ġv ite
Ġ Z
Ġpermet tant
Ġsy n
Ġapprop ri
Ġbritan nique
ĠB r
Ġscienti fiques
Ġcons iste
Ġcour t
ĠN e
ĠTra itÃ©
M aintenant
Ġgra ve
Ġouver ture
ĠprÃ©s ence
A vec
T ro
Ġinac cep
c k
v ir
Ġg ros
rai gn
ang es
lex i
Ġcollab oration
Ġre ti
Ġcon form
ĠmÃ©di as
Ġle t
Ġconn aissance
Ġplan Ã¨te
Ġf ig
ten ce
Ġop Ã©ra
ĠrÃ©f u
Ġconsci ence
and is
Ġfourni r
Ġper man
Ġtech niques
Ġma je
vi er
Ġins u
Ã ĩa
ra ine
Ġpermet tra
ila tÃ©ra
Ġpr on
Ġcir culation
an ie
Ġdev en
Ġvi vre
Ġlar gement
Ġt able
Ġcommunau taires
Ġvoit ure
Ġs ouv
ĠindÃ©p end
Ġobs ta
Ġexac tement
Ġalter na
Ġf al
Ġprincip al
ĠdÃ©ce mbre
Ġt Ã´t
oy en
Ġmin im
Ġsouti ens
Ġmont rÃ©
Ġexi ge
Ġconsta ter
ĠinquiÃ© tu
ĠdÃ©velop p
Ġsan ctions
ĠCons titution
Ġa f
Ġpa les
Ġtra iter
Ġuti le
Ġsimp li
Ġper du
us h
Ġins tant
Ġ200 7
Ġengage ments
e use
ĠprÃ© para
che ts
cev oir
Ġpales tini
ĠP remi
c ra
l oc
an di
Ġb al
ĠÃ©tu de
ĠdÃ©f endre
De puis
Ġconclu sions
Ġlut ter
ĠM oyen
Ġci vil
Ġcent re
Ġfai bles
toc k
ĠR Ã©pu
Ġpuis que
o tion
Ġou ti
Ġense ig
Ġs tri
ĠG rÃ¨
Ġp oi
ĠGrÃ¨ ce
i ra
k istan
Ġt endance
ĠÃ© l
Ġexpli quer
u tes
Ġt on
Ġen tier
Ġindispens able
a Ã¯
ĠCon vention
Ġam is
Ġprincip aux
Ġser aient
ĠdÃ©ter min
Ġexp os
ĠUk raine
v ation
Ġ200 8
Premi Ã¨rement
Ġcara ct
ĠrÃ©se au
Ġv ision
Ġal li
Ġpart out
Ġpop u
Ġsupp ri
Ġanal yse
n aires
ĠdÃ©p l
ĠdÃ©m ar
Ġnor m
Ġconfl its
ĠdÃ©b ats
Ġerre ur
ĠÃ©ta pe
ĠrÃ©fu gi
s Ã©
Ġf lexi
Ġfin alement
b es
Ġv as
Ġsen si
Ġcomp tes
ĠfranÃ§ ais
A N
Ġim age
ers onne
Ġimpli que
ag ue
ru ption
Ġtota l
Ġperspe ctive
Ã ī
ĠprÃ©cÃ© dent
Ã© anmoins
Ġc Ã©
Ġb lan
Ġmoi tiÃ©
ĠrÃ© gu
Ġfer a
Ġfra pp
Ġdossi er
c Ã©s
ĠE sp
Ġavan tages
Ġg u
ront ali
ĠIn ter
ĠdÃ© chets
ĠreprÃ©sent ants
c in
la m
Ġs o
Ġacc ueil
Ġparticip er
que t
Ġte llement
ĠÃ©quili b
Ġprov o
Ġsigni fica
Ġche min
ĠcomplÃ¨ tement
ĠI ta
ĠcrÃ© di
Ġb ru
Ġli Ã©s
Ġmondi alisation
ĠK os
Ġr ent
Ġres se
Ġ200 9
Pour tant
Ġreli gi
un i
Ġdis tin
ĠdÃ©c en
Ġadop tÃ©e
ĠnuclÃ© aires
Lors que
Ġdipl oma
Ġen re
ĠP ro
Ġfait s
c tes
Ġ iss
Ġcon ven
Ġcro ire
ĠdÃ©ci der
tÃ©ri eure
te mbre
Ġoc cup
g ner
Ġr endu
Ġpour rons
Ġcomp ag
ma tiques
Ġappr endre
Ġfonction ne
T ous
Ġcar b
ĠÃ©nor me
Ġparfait ement
rÃ© hen
Ġper mettez
ili er
Ġcor resp
Ġavan cer
Ġ ro
ĠdÃ©cla rations
Ġcaract Ã¨re
qu ant
Ġnouve l
ĠÃ©che c
ĠlibÃ©ra lisation
li er
tu g
Ġcomp li
Ġcomp os
Ġm ai
ill ance
Ġsouhaiter ais
Ġda te
ĠimmÃ©di a
d its
ĠP I
Ġsenti ment
Ġau quel
ĠdÃ©p la
ĠprÃ©occup ations
Ã© g
Ġin tel
Ġent rÃ©e
Ġcri tique
Ġ1 00
Ġesp Ã©rons
v ons
Ġsour ce
Ġdi ver
Ġrenfor cement
N Ã©anmoins
ĠreprÃ©sent ent
Ġs ouver
Ġdev enu
ĠÃ©trang Ã¨res
Ġmala die
x im
Ġmil itaires
Ġreg ret
ĠbudgÃ© taires
Ġmauv aise
Ġn eu
Ġprodu cteurs
Ġparticuli Ã¨re
a k
Ġp Ã¨re
Ġcons ens
Ġamb iti
ĠrÃ©v ision
ĠKos ov
Ġf ru
Ġcomm ence
Ġph y
rÃ© ti
ĠM ais
Ġexp ression
Ġcapit al
Ġcamp agne
Ġ200 4
Ġju in
t ances
tÃ© g
ĠR ou
Ġesp Ã¨
tionne lles
Ġab ou
M es
ĠnÃ© anmoins
Ġsep tembre
ĠÃ¢ ge
Ġcorresp ond
C E
Ġexam en
ĠRÃ©pu blique
ĠPI B
i ens
ces sion
Ġsu p
Ġprodu ire
ĠvÃ©r itÃ©
ĠPremi er
Ġapp ara
ĠmÃ© de
Ġf eu
Ġposi tive
ĠAm Ã©ric
Ġcomb ien
Ġglob ale
Ġcontin ent
Ġpotenti el
P eu
Ġprop riÃ©
ĠAf ghan
Ġpeup les
ĠÃ©tro ite
Ġcor ps
Ġterrit oire
n Ã©s
Ġpoli ce
ĠdÃ©ta il
Ġcara ctÃ©
t rait
ar ti
ch Ã¨
Ġr oute
Ġreconn aÃ®tre
Ġm Ã¨re
Ġli gnes
ĠrÃ©p Ã©
ĠdÃ©mocra tiques
ĠrÃ©f Ã©r
o th
Ġpa ti
Ġf r
ĠdÃ©p art
ĠdÃ©m ont
Ġpe ur
Ġfaud ra
Ġconstru ire
Ġagrico les
Ġre qu
Ġaut om
Ġacc ent
Ġdimen sion
ĠdÃ© n
Ġac tes
Ġdev ront
Ġvois ins
Ġeffica ces
iss ante
Ġvou lez
Ġdisp ose
ĠKosov o
ĠAfghan istan
Ġpl ac
Ġdisp osition
b al
Ġre lation
Ġma tÃ©ri
am a
ĠOM C
Ġpa quet
Ġ4 0
Ġscienti fique
ĠentiÃ¨re ment
Ġre venir
Ġcon vi
Ġsor tir
M E
Ã ¶
Ġs t
Ġgra ves
Ġretar d
Ġo eu
ux elles
Ġinternation aux
Ġconn ais
l ise
Ġla isse
Ġenc ontre
ĠintÃ©ress ant
ĠIta lie
P lus
Ġpa yer
Ġse x
ĠdÃ© lÃ©g
Ġstructure ls
ĠindÃ©p endance
w e
ou d
Ġrais onn
ĠO b
Ġintrodu ction
Ġdiscu ter
ĠrÃ©fugi Ã©s
Ġl ois
Ġ19 8
Ġinstitu tion
Ġnature llement
Ġcli mat
ĠÃ©vid ence
ĠdÃ© rou
Ġapp u
Ġinter prÃ©
Ġnu it
ĠÃ©lect ora
ĠbÃ¢ ti
ĠrÃ©f lex
o g
il ler
Ġ200 6
ĠrÃ©alis Ã©
Ġinsta l
Ġmouve ment
Ġconsens us
Ġpu issance
Ġmala dies
our g
ĠB el
olo gie
ur ation
Ġpris on
Ġlim ites
Ġfaud rait
Ġconn u
Ġprincip alement
Ġhum ain
Ġ201 0
ĠBr uxelles
Ġintel lig
is ant
Ġb at
Ġinaccep table
Ġde me
Ġv ise
ĠO r
iter ran
Ġpouvoir s
ta bles
Ġfondament al
ĠÃ©tu des
Ġc oura
ĠN i
Ġreg arde
Ġa ra
ĠâĢ Ŀ
ĠrÃ©gion ale
Par ce
Ġexa min
Ġt andis
lle z
ĠB ush
Ã©n om
Ġdiscri mination
Ġt rib
Ġaut oritÃ©
tr on
ĠmÃ©r ite
ĠmÃ©dica ments
g en
Ġpro cÃ¨s
Ġ 0
Ġil lÃ©g
Ġeff ort
Ġcro y
Ġutilis Ã©
Ġc Åĵur
res ser
Ġencoura ge
P ersonne
ĠÃ©c la
Ġop Ã©ration
si vement
Ġpour rions
ch i
Ġn um
Ġper d
Ġgouver n
Ġph Ã©nom
Ġs oins
ĠdiffÃ©r ence
ĠrÃ©se aux
Ġatti rer
Ġsurve illance
Ġpol lu
ĠmÃ©th ode
Ġsouli gnÃ©
Ġv aut
Ġpour ront
ĠPrÃ© sidence
Ġjuridi ques
Ġcher che
ĠimmÃ©dia tement
ci lement
Ġac teurs
Ġca tÃ©g
Ġimpos er
ta l
Ġcer ve
Ġseu ls
ĠprÃ©v oit
ĠA r
Ġasi le
Ġqu o
or de
Ġ1 3
Ġcha mp
ĠstratÃ© gique
Ġpie d
Ġp orter
la ires
Ġser vir
Ġha usse
C h
Ġd anger
Ġc rain
ĠrÃ© vÃ©
Ġrep ro
t ures
Ãª tre
ĠR om
Ġmo indre
mi ques
cep ti
a ces
Ġra l
Ġpres se
Ġprom otion
Ġchiff res
itÃ© e
Ġpl ais
Ġlan gue
Ġb out
Ġdire ct
Ġta x
Ġta ille
Ã© rÃ©e
Ġra c
Ġdev ait
ĠâĢ ľ
Ġna vi
Ġenga ger
ĠarrÃª ter
Ġconcep t
au ff
ĠprÃ© vention
Ġou i
Ġat ten
Ġbi ais
Ġrec ours
Ġchar ge
Ġexis tence
Ġd y
Ġl it
Ġapp are
Ġinsu ff
S A
Ġfin al
Ġti ent
Ġterroris tes
Ġter rain
ĠdÃ©fini tion
ĠEsp agne
Ġar mÃ©e
ĠdiffÃ©r ences
our ir
Ġpro sp
Ġpopul ations
Ġl our
Ġaur ont
Ġfour n
ĠrÃ© el
cti fs
Ġqu it
Ġch an
ĠprÃ© t
Ġcel lu
Ġsatis fait
Ġpopu laire
is sement
Ġh u
ĠB er
Ġsta tis
Ġhuman itaire
Ġsim il
T om
Ġc lÃ©
Ġres tri
Ġass u
ĠsupplÃ©ment aire
Ġsouten u
Ġv illes
ĠON U
ĠAmÃ©ric ains
Ãª t
Ġcap able
Ġcri tiques
Ġtent a
Ġsemb lent
S on
Ã© c
ĠtÃ©lÃ© ph
Ġv Ã©ri
ĠcrÃ© Ã©
Ġpremi Ã¨res
Ġproch aines
Ġlim iter
E D
Ġp an
ĠrÃ© elle
ĠdÃ©c ouver
Ġfor mes
ĠprocÃ© der
Ġoubli er
n aire
in aire
ch Ã©s
Ġpropos er
Ġprof it
Ġharmon isation
Ġg auche
Ġgaranti e
l ations
Ġde vez
ĠamÃ©ric ains
Ġlo gique
Ġpoi ds
e urs
Ġdev ient
Ġcor ruption
Ġent rer
Ġaur aient
o te
Ġpar ents
Ġpar lons
Ġh yp
Ġmen ac
Ġgouvern ance
k i
Ġessenti ellement
Ġsu d
ili ation
ĠÃ©ch anges
Ġaccro Ã®tre
Ġbureau cra
Ġs ources
an vier
Ġau prÃ¨s
fi Ã©s
Ġinf lation
Ġconvain cu
Ġconcent rer
Ġconform Ã©ment
alis er
Ġcontra in
Ġcommun es
Ġjeun e
ti ci
Ã¨ nes
ue llement
Ġcapit aux
S a
Ġt ri
Ġcon tient
ĠP ales
ĠprÃ© sid
ĠdÃ©fin ir
ĠconsidÃ©ra ble
Ġoblig ation
Ġenqu Ãªte
ur ant
Ġmin utes
Ġre d
Ġsou mis
che ment
Ġ1 4
Ġass istance
Ġvis ite
Ġcomm is
Ġappro f
c itÃ©
Ġma ssi
Ġdocu ments
h ors
j u
Ġrec ons
olo giques
Ġmu tu
P uis
Ġacc us
Ġis ra
ĠcontrÃ´ les
Ġs tim
Ġb aisse
Ġvoi ci
ĠcaractÃ© ris
Ġpa y
Ġj anvier
Ġpl ans
Ġessenti elle
Ġreconn aissance
ro g
Ġcon vention
ĠÃ©c ri
ĠprÃ©v u
ĠprÃ©cÃ© d
ĠrÃ©a ction
P E
Ġmoy enne
ĠrÃ©ser ves
Ġinfrastru ctures
Ġc ouv
se ur
lu sion
Ġexp erts
cil es
Ġanal ys
Ġs tock
ĠP L
Ġinter diction
ĠÃ©le c
Ġcoh Ã©r
va teurs
Ġinv ite
Ġgard er
Ġ '
Ġt ab
la s
onc Ã©
Ġmar s
Ġple in
Ġremar que
ĠÃ©tudi ants
us si
ĠO T
Ġlet tre
ch ant
Ġter miner
Ġdivers itÃ©
Ġprof onde
Ġcomplex e
Ġendro it
er b
ĠP ME
Ġfait e
Ġvi ens
Ġtrans form
Ġhist orique
Ġsal ue
Ġnour rit
au d
m Ã©s
Ã©r itÃ©
Ġtrava ille
Ġappr is
Ġdimin u
l Ã©es
En suite
Ġins ister
Ġexcel l
Ġang lais
Ġaf ric
A C
Ġl ire
Ġv ing
Ġh Ã´
iss ait
Ġaff ec
Ġdiffi ciles
Ġreven u
l oir
ĠE ur
Ġesp agn
Ġch ances
ĠcrÃ© dits
Ġvoy age
a de
Ġ200 5
Ġhau te
ĠOT AN
Ġ1 7
Ġform ul
Ġaliment aires
ĠvÃ© hi
Ġallem and
c ite
o h
Ġcom itÃ©
Ġaur ais
ĠbÃ©nÃ©fici er
ĠmÃ©canis me
e d
ons es
la bles
ĠA ut
Ġte x
ĠrÃ©p onses
Ġsouhait ons
Ġsuff it
Ġliber tÃ©s
om bre
ve mbre
Ġcomp rÃ©hen
Ġconstitu er
con que
Ġdire ctives
ĠdÃ© char
Ġtra fic
Ġres tent
ĠsÃ© ance
Ġemp r
Ġmain tien
Ġconsid Ã©rer
Ġappro visi
Ġdist ribu
de z
Ġmain s
ĠdÃ©mocra tes
Ġconfront Ã©s
Ġpro ven
Ãª tes
ĠcontrÃ´ ler
Ã¨ tres
Ġregard er
Ġcomporte ment
end a
Ġmulti p
Ġban c
Ġloc ales
Ġobten u
Ġpa cte
Ġv ac
Ġal lÃ©
ĠdiffÃ©r ente
ĠdÃ©fic it
ĠrÃ©flÃ©ch ir
Ġno vembre
Ġfil m
l lÃ¨
ti di
Ġt ur
ĠÃ©tr anger
Ġ X
Ġd ra
Ġpa ci
Ġr Ãª
Ġma xim
ĠGr ande
Ġb ons
Ġpr ud
ĠÃ©le vÃ©s
ĠgÃ©nÃ©ra lement
Ġir rÃ©
re use
de m
end um
Ġ1 6
ĠrÃ©uss ite
Ġde hors
Ġv enu
Ġg re
Ġcircons tances
Ġli Ã©es
Ġvi vent
Ġpremi ers
olo gne
Ġanci en
M I
S ans
ĠdÃ© tru
Ġca us
Ġstru ctures
ĠrÃ©v olution
Ġrela tif
ĠtÃ© m
Ġsuiv ante
ĠextÃ© rieur
ĠvÃ©hi cu
b an
Ġdis ent
Ġcla sse
Ġsta de
Ġerre urs
i c
Ġf l
Ã©r ant
Que lle
Ġsec onde
M erci
Ġs omme
ni Ã¨re
Ġtra itÃ©s
Ġbudge ts
f Ã©rence
Ġa llez
Ġin t
ĠdÃ©lÃ©g ation
Ġc ouver
Ġre tra
Ġcon ver
ĠrÃ©alis ation
ĠRou manie
Ġcompr ends
Ġ200 3
Tro isiÃ¨me
Ġcons oli
Ġrapp ro
Ġlim ite
Ġche fs
Ġremar ques
Ġpati ents
Ġs pe
Ġin uti
la ient
Ġvou lais
Ġprom es
Ġv iennent
Ġcommerci aux
ĠcompÃ©ten ce
a h
Ġ â
Ġp ire
Ġt yp
it ant
or ce
ĠÃ© tique
Ġsu jets
Ġquo tidi
m Ã©es
Ġcent aines
Ġrepr ises
Ġsin c
a se
ille t
Ġno te
Ġvois in
Ġparlement aires
Ġtransf rontali
Ġobli ga
Ġaur ons
Ġforte ment
Ġn ord
ĠÃ ®
Ġpri m
ĠD e
Ġaccomp li
Ġgag ner
Ġf rÃ©
oi e
Ġmo bil
ient Ã´t
Ġinc roy
Ġouver t
para vant
Ġrecommand ations
Ġcatastroph e
O u
Ġ ul
Ġque lles
Ġper dre
Ġpri vÃ©
Ġsci ence
ĠmÃ©th odes
es t
ĠsÃ© pa
tis ation
Ġlan cer
Ġh onn
Ġdro ite
Ġenvis ager
Ġfa s
Ġces se
ĠdÃ©ter miner
Ġfisc ale
Ġder riÃ¨re
Ġrep os
ĠvÃ©r itablement
Ġouver te
Ġcentra les
Ã©d Ã©ra
ĠrÃ©ser ve
ĠrÃ©fÃ©r endum
g o
ĠcoÃ» te
Ġappel Ã©
Ġmus ul
Ļ «
Ġf ou
Ġmodi fier
Ġt ol
itoy ens
Ġcher cher
ue lles
ag ers
Ġreconn aiss
Ġcorre ctement
de ment
Ġprop or
Ġvo ire
Ġconcern Ã©s
Ġ Vous
en ci
Ġfa sse
Ġtr ouvent
Ġlan gues
Ġouv rir
Ġoeu vre
Ġpl Ã©
Ġsouti ent
ĠconcrÃ¨ tes
Ġtran si
a sse
Ġn ations
Ġme illeurs
Ġ199 9
Ġintrodu ire
ĠNe w
b res
Ã§ ant
Ġarri vÃ©
Ġtrib un
le ur
Ġoff rir
Ġcommerci ales
Ġ6 0
Ġrapp elle
Ġdis ant
Ġinter venir
ĠcrÃ© dit
Ġexpor tations
Ġqu ota
Ġmin oritÃ©s
ĠÃ©lec tron
o w
Ġsys tÃ©
ĠÃ©lab oration
Ġdisponi bles
gis tre
Ġnourrit ure
Ġempr un
g anis
ol ue
Ġmont rent
Ġuni on
Ġfonction ner
Ġdange reux
Ġfab ri
Ġefficace ment
ĠmÃ©canis mes
A ussi
en ez
in Ã©
ĠnÃ©goci ation
Ġache ter
end ue
Ġconc itoyens
ĠsÃ» re
Ġmoyen nes
Ġmodi fication
Ġb ientÃ´t
ĠB re
ĠC orÃ©e
Ġsubst ances
ĠÃ© par
ac tions
Ã§ u
ĠrÃ©p u
ĠrÃ¨g le
Ġconsid Ã©rÃ©
Ġdur Ã©e
a ction
y th
Ġche f
ĠprÃª t
Ġcomp ens
Ġvo ilÃł
Ġph ase
Ġbi ens
Ġfondament ale
Ġcan cer
Ġsep t
Ġextra ord
Ġfacil iter
Ġauxque ls
Ã© m
Ġp es
ĠÃ©v olu
Ġdemand es
Ġdispos er
Ġradi c
r il
Ġv ul
ĠrÃ© ag
ĠPa kistan
Ġv isi
Ġplais ir
i le
Ġau paravant
Ġcommunau tÃ©s
Ġchan gÃ©
Ġc ra
Ġcerve au
Ġâ Ļ«
ur Ã©
Ġh y
ros o
Peu t
Ġstatis tiques
a ture
Ġh ors
Ã» t
Ġsub s
ĠmÃ©di c
Ġ it
Ã© rÃ©s
Ġc ens
Ġun s
Ã¨ se
Ġter min
Ġfinan cer
Ġsitu ations
Ġth Ã¨me
Ġexemp les
k o
ĠC an
Ġmar che
ora ble
Ġprincip ale
Ġrapporte urs
ĠC a
ces si
Ġma ch
Ġper tin
Ġcompr end
D Ã¨s
Ġs oy
Ġcont raign
Ġcoura ge
Ġag issant
Ġconsomm ateur
Ġfam illes
Ġassur ance
Ġg ro
Ġr u
ĠdÃ©p ass
Au cun
Ġjudici aire
Ġit ali
t rÃ©
Ġf ille
Ġin cap
Ġac cident
ol Ã©
ac itÃ©s
Ġpr ennent
Ġremar qu
Ġsoulig ne
t an
oi gn
Ġres ta
at h
Ġfondament ales
i ch
n Ã©ra
u le
ĠgÃ©n Ã©ration
ĠdÃ©pu tÃ©
ĠÃ©qu itable
Ġmoder ne
TroisiÃ¨me ment
J us
Ġin cer
Ġmil ieu
Ġdemand ons
Ġprof iter
ĠprÃ©ser ver
a ti
ou tes
it ables
Ġf roi
Ġ200 1
tionne ls
ĠBal k
u sion
Ġfa cilement
Ġex tÃ©rieure
Ġli vres
Ġag ences
ĠdiffÃ©r ent
Ġpro che
ĠintÃ© ri
Ġass is
ĠbÃ©nÃ©fi ces
ĠentraÃ® ner
Ġrele ver
Ġenseig nement
it ations
Ġpro toc
Ġh andi
ĠInter net
Ġsouver aine
Ġapprof on
la i
ul ga
Ġmarch and
Ġsau ve
ĠCon fÃ©rence
ĠrÃ©gu li
on ce
Ġes c
Ġcap acitÃ©s
Ġexpri mÃ©
Ġsus cepti
Ġisra Ã©li
ĠÃ© th
ĠP ologne
Ġmeille ures
ĠphÃ©nom Ã¨ne
re ts
Ġaff ai
omb e
Ġtota le
ograph ique
ĠrÃ©flex ion
Ġins c
Ġprincip ales
Ġtour isme
Ġhab itu
Ġrepr ise
ĠsÃ©rie usement
ĠexÃ©cu tion
Ġflexi bilitÃ©
ĠOb ama
Ġvul nÃ©ra
s ter
ĠC O
Ġpu iss
Ġinter g
Ã©d ois
Ġexploit ation
ri ch
Ġin jus
ĠrÃ© di
Ġmont ant
ĠH ong
Ġref lÃ¨
land aise
Ġglob al
Ġhabit ants
o bre
Ġde mi
Ġactu elles
ĠÃ©trang ers
Ġdispos ons
d ation
Ġin Ã©g
ar te
Ġh or
ĠÃª tres
Ġver t
ĠÃ©val uer
Ġving t
si l
Ġsou ci
Ġcap ables
ĠÃ©ch ou
Ġcontribu Ã©
Ġpor tÃ©e
Ġf rais
Ġb Ã©
Ġconn aÃ®t
Ġtransi tion
p es
Ġre vient
Ġcon ne
Ġeff ond
Ġconn aÃ®tre
ĠdÃ©char ge
k a
Ġd omm
Ġmo de
Ġses sion
Ġgar de
Mal grÃ©
Ġl ien
Ġre ce
Ġtravail lÃ©
ĠF MI
Ġpens ent
Ġcomment aires
ĠBalk ans
Ġcomp lÃ©ment
Ġcr ises
Ġrela tivement
Ġinvestisse urs
Ġorgan es
Ġf Ã©dÃ©ra
Ġv ir
Ġfa cteur
onn Ã©
Ġ8 0
on du
ti ennent
Ġfa cteurs
ĠM al
en ant
an e
Ġinter net
Ġvoy ons
Ġsc Ã¨ne
ĠopÃ©ra tions
a f
Ġr usse
Ġaccep tÃ©
atri Ã¨me
m ar
te au
ĠlÃ©gisla tif
Ġoct obre
a tique
t t
Ġt end
il lage
Ġprogres ser
re uses
Ġpar c
Ġre join
ouver nement
ĠF in
Ġidenti tÃ©
Ġobsta cles
Ġapprovisi onnement
S E
Ġvi ande
Ġpossi bles
Ġhandi cap
d o
ct oire
Ġmaj eure
ĠprÃ©para tion
Ġvas te
Ġau di
Ġb ilatÃ©ra
Ġposi tions
Ġessenti els
Ġ20 20
Ġambiti eux
O Ã¹
or k
Ġman ger
Ġdou ble
Ġfra u
in t
us ses
Ġac te
Ġm ises
Ġtr ou
ĠR e
Ġappli que
Ġavan tage
l en
il es
Ġvou loir
Ġla b
ta gne
oy er
Ġinter d
Ġvou lu
ĠÃ©le cteurs
Ġdivers es
ĠplÃ© niÃ¨re
re tte
Ġ200 2
ro p
ĠdÃ© lai
Ġh om
Ġcar te
Ġconstitu tion
Ã©rie ur
ĠdÃ© t
Ġsub ventions
Ġcommerci al
ĠconsidÃ©ra bles
Ġcal end
Ġa p
Ġcondu ite
Ġexer cer
C ar
b Ã©
er c
Ġper te
Ġus age
Ġquota s
Ġma tiÃ¨res
vi end
Ġab us
Ġinten si
Ġcruci al
te lle
ĠrÃ© ta
Ġsa vent
t oires
u a
ĠC E
fi Ã©es
si di
Ġpl ain
ĠB as
Ġinvesti r
Ġattend ons
Ġfavoris er
Ã©r ance
Ġpri vil
ĠÃ©tab lissement
Ġappr ouver
Ġquanti tÃ©
ĠcrÃ©di bilitÃ©
Ġassoci ation
ĠPa ys
Ġdy na
Ġb les
Ġg Ã©rer
tique ment
Ġcondu it
ĠtÃ©lÃ© vision
ss er
ĠO n
ĠconsidÃ©ra blement
Ġimmi g
Ġferme ment
Ġcompag nies
ĠÃ© tions
Ġsu Ã©dois
Ġ2 1
Ġuni verse
Ġenvis age
Ġimag iner
ĠBre tagne
ĠreprÃ©sent ant
g yp
l it
Ã ¡
Ġre jet
ĠP or
Ġcomp ter
ĠrÃ¨glement s
Ġbre ve
Ġraisonn able
b ation
it ons
Ġpl ai
Ġar me
ĠrÃ©du it
Ġinsuff is
ĠE S
Ġchois ir
m ont
Ġch ale
os ti
Ġar tis
Ġsui vant
Ġfam ili
Ġopportun itÃ©
Ġcellu les
Ġa mple
Ġb ri
ric itÃ©
Ġorient ations
ĠcomplÃ¨ te
ĠÃ©vo quÃ©
ĠprÃ©pa rer
en h
sse ment
Ġuti lise
Ġali ments
ĠSu Ã¨de
r ite
Ġvoit ures
Ġf ins
ĠU SA
Ġpermet tent
Ġpara Ã®t
Ġargu ment
r itÃ©
Ġv ra
Ġdisp ar
Ġtent er
ĠÃ©lect ricitÃ©
Ġcal cul
Ġacqu is
Ġprosp Ã©ritÃ©
Ġinterg ouvernement
Ġe aux
Ġactu els
Ġjou Ã©
Ġcour ant
ĠÃ©tudi er
Ġblan c
vi Ã©
ss es
Ġutilis Ã©s
Ġsub sidi
Ġmodi fications
Ġindivid us
ĠC ro
va ge
Ġag gra
Ġjus tement
un e
Ġun itÃ©
Ġil lus
Ġmo des
ĠS i
Ġprotoc ole
r ants
isi ons
Ġexist ent
ster dam
ĠPor tug
Ġtravail lent
ĠO c
ĠÃ©nor mes
cid ents
Ġexp lo
ĠAm sterdam
Ġconsul tation
en ons
an im
ne l
aisse z
Ġadap ter
ĠOc cident
C ha
d itÃ©
Ġcri mes
Ġenvoy er
C P
o ine
Ġf lo
Ġre lÃ¨ve
Ġparlement s
ĠBar roso
Ġa jus
Ġsou m
ĠrÃ©gi mes
Ġgaranti es
ĠdÃ©ta ils
Ġhu it
tte ment
ĠI I
Ġcitoy en
Ġsy mb
prÃ© sident
Ġsur f
Ġsus p
ĠdÃ©cen nies
Ġample ur
an a
ĠrÃ© si
ĠA gence
Ġ2 7
Ġcla ri
Ġposi tifs
Ġsatisf ais
Ġrur al
ĠmÃ©de c
m ans
Ġimp ose
Ã©qu ili
ĠdÃ©f a
Ġlan cÃ©
ĠÃ©lab orer
Ġestim ons
Ġj apon
Ġpos te
Ġis la
ganis ation
Ġet h
Ġv ites
ro vi
ĠprÃ© ju
cti vitÃ©
Ġju illet
ĠrÃ©c ente
ĠintÃ©g rer
Ġgre c
Cha que
Ġs ang
ĠdÃ© lais
Ġcont ent
ĠÃ©ch app
Ġmention nÃ©
Ġiss ue
Ġral enti
ti es
ra ge
Ġb el
Ġre cevoir
Ġinter ven
Ġjourn Ã©e
Ġ Qu
Ġenvis ag
Ġcombat tre
ĠvÃ©hicu les
Ġa ch
Ġb ois
ĠrÃ© cession
Ġcon join
Ġpl aÃ®t
Ġquel s
Ġqua si
Ġchois i
Ġphy sique
Ġrepro du
T outes
ĠP PE
ph Ã¨re
Ġnature lles
Ġsubsidi aritÃ©
anim itÃ©
N os
Ġd iss
ĠdÃ© g
ar ra
ĠT h
Ġvo tes
ĠF ran
Ġay ons
Ġmari time
Ġcalend rier
s y
Ġav ril
Ġtr u
Ġad ress
Ġfu ture
Ġassu mer
C eux
Ġma t
ĠdÃ©c ou
ĠdÃ©f aut
Ġindi quÃ©
Ġanci ens
Ġcrimin alitÃ©
Ġextraord inaire
ri ces
Ġent a
Ġacc r
Ġvi eux
Ġco de
gu er
ĠD ieu
Ġmu sique
Ġhuman itÃ©
Ġprofond Ã©ment
Ġter ri
Ġter res
Ġfig ure
ro c
ch auff
se urs
la tÃ©ra
Ġmo bilitÃ©
ux e
Ġfin i
Ġvou lait
Ġ19 7
Ġfer rovi
Ġsc and
Ġouti ls
A vant
Ġet c
Ġin telle
eau coup
ĠaccÃ© lÃ©
Ġfrau de
ĠP our
Ġdev rons
Ġsa ur
ĠG u
mis tes
Ġavan cÃ©es
Ġparven us
Ġtab ac
ve ille
ĠC ong
Ġaut or
ĠD an
ora tions
ĠrÃ©gion al
Ġreg rette
Ġver sion
ĠÃ©vo quer
Ġcarb one
ĠC op
Ġeff or
Ġvi es
Ġpers onn
Ġpass agers
ĠprÃ©oc cu
ĠÃ©cou ter
ĠPortug al
ĠprÃ© al
Ġapp ui
iss aires
Ġcha Ã®
Ġcy cle
t ants
Ġtou che
Ġret rait
Ġmaje ur
Ġtyp es
ĠÃ©t endre
Ġsy mp
Ġphot o
f e
Ġir landais
Ġfavora bles
Ġc iter
Ġra ssemb
Ã´ ts
Ġat tra
ĠarrÃª t
Ġcondu ire
Ġsouten ons
Ġdeven ue
Ġm erci
Ġav Ã¨re
Ġaut onom
Ġser ons
Ġorganis er
Ġsug g
Ġintelle ctu
r y
Ġcla ires
Ġpermet trait
Ġconcern Ã©es
Ġpuis qu
Ġur gent
Ġessay Ã©
Ġappor tÃ©
Ġpollu tion
Ġv endre
ĠB rÃ©
ĠK y
Ġs ent
Ġinc lure
Ġorganis mes
Ġfut ures
Ġcommerci ale
Ġrencont rÃ©
oh n
e uses
Ġf os
Ġpr Ãªte
Ġann uel
Ġpuis sions
Ġcri me
Ġfais ait
ĠexpÃ©ri ences
ĠthÃ© orie
P endant
Ġun animitÃ©
Ġch rÃ©ti
Ġli c
Ġatt ribu
ĠdÃ©s as
en gen
is Ã©
Ġn omm
Ġsta bil
Ġsouhait ent
Ġ5 00
Ġrenouve lables
g ou
Ġt ort
ĠÃ©le ction
Ġpratique ment
Ġsp ort
R e
g le
Ġsi gne
ĠsÃ© v
Ġaff e
Ġappro bation
ĠindÃ© pendant
Ġconcep tion
enh ague
Ġcri ti
Ġexcep tion
b y
ĠÃ© pi
ta ient
Ġ2 4
ĠrÃ©c la
Ġlaiss Ã©
Ġcontinu ent
Ġimpor tations
N on
Ġre van
ĠM on
Ġsoci aliste
Ġaur ions
Ġculture lle
ĠinquiÃ©tu des
Ġsuppri mer
gyp te
ga ge
ĠrÃ©p arti
Ġ7 0
ĠSch engen
5 0
S eu
g arde
Ġp ou
Ġc l
Ġs il
Ġb lo
Ġmoder nis
ĠpiÃ¨ ce
Ã©c onom
Ġfl ux
ĠCop enhague
Ġ199 8
ot o
ĠrÃ©un ions
Ġalterna tive
Ġminim um
o di
ci eux
Ġli ens
ĠrÃ©alis Ã©s
Ġta xe
ĠY ork
Ġla tine
Ġren v
Ġaccep table
Qu ant
Ġdifficul tÃ©
ĠlÃ©gi tim
ĠpropriÃ© tÃ©
Jus qu
un is
Ġrep ose
Ġpropos Ã©s
ĠBrÃ© sil
Ġrevan che
c omm
Ġac tifs
Ġper form
Ġprob able
bli r
Ġdit es
Ġdisp ara
ĠH am
tis me
Ġur b
Ġ9 0
Ġpaci fique
B eaucoup
Ġa Ã©ro
Ġdi vis
Ġdi cta
ĠÃ©c oles
ĠprÃ©occup ation
Ġretra ite
m ation
Ġsou p
ĠcrÃ© e
g ents
Ġvi v
ĠCh yp
lan tique
Ġfourn it
or ti
Ġad resse
ĠrÃ©gion ales
ĠextÃ© rieures
i ce
ti ers
an n
Ġpersonne llement
Ġrela tifs
Ġch ute
ĠB ulga
Ġcer tes
ĠrÃ©g ler
Ġsol da
Ġcatastroph es
Ġoccident aux
Ġapprouv Ã©
Ġin Ã©v
Ġhum aines
ĠprÃ©c ise
Ġreli gie
Ġparta ger
Ġargu ments
ĠPales tini
ĠB CE
ĠrÃ©p ondu
Ġcha pit
Ġpens Ã©
b ourg
Ġpro tes
Ġpublic itÃ©
Ġcapit ale
Ġsau ver
Ġb u
ĠdÃ©c ouv
cep tion
Ġmulti latÃ©ra
Ġrecons truction
Ġ Ils
Ġcommun s
Ġarri Ã¨re
Ġlim itÃ©
Ġple ine
Ġpreu ves
Ġposs Ã¨de
ĠespÃ¨ ces
Ã© re
Ġa gi
ĠrÃ© chauff
Ġav ance
Ġpri e
ĠnÃ©cess ite
Ġform uler
Ġrecommand ation
Ġora teurs
h ou
Ġn oir
ĠA ra
Ġinter ne
Ġbien ven
Ġsec rÃ©
ad ers
Ġatta quer
Ġexi ger
Ġauxque lles
Ġle aders
Ġenvironnement ale
ĠamÃ©li orations
Ġrecher ches
Ġnature l
Ġprofessionne lle
Ġmarchand ises
a tiques
us s
Ġb o
Ġca uses
ĠT i
Ġordin ateur
Ġara be
g os
Ġpropos Ã©e
Ġva ri
Ġconsta te
ĠON G
Ġf o
Ġo cÃ©
ĠprÃ© venir
Ġapp orte
Ġloc aux
Ġanci enne
Ġaccr ue
on y
Ġinter ventions
Ġag issait
ĠdÃ©p it
Ġpens ais
Ġviol ations
Ġsur mont
Ġconc iliation
ente ment
Ġchiff re
ĠinquiÃ©tu de
Ġrestri ctions
Ġdyna mique
mb our
Ġtechnolo gique
Ġconsci ents
ĠmodÃ¨ les
ĠOr ganisation
ĠBulga rie
Ġm orts
Ġesp Ã©rer
ĠD a
Ġpass age
Ġsal ari
Ã©v rier
Ġdeme ure
Ġa j
Ġpour suite
ch Ã©e
ĠG az
ĠsystÃ© matique
ĠaÃ©ro p
D E
n Ã©es
onn Ã©e
Ġappel er
Ġfour nis
Ġenre gistre
Ġac tive
Ġli qui
Ġpense z
ĠÃ©ner gies
ĠfranÃ§ aise
Ġendro its
Ġhabitu de
ĠC ol
Ġar ch
Ġprob lÃ©
Ġappr ouve
Ġfonction naires
Ġso viÃ©
l y
il li
Ġdes truction
Ġar t
Ġag enda
ĠS lo
tru ct
omb ien
ĠamÃ©ric aines
Ġresse mble
Ġdev iennent
Ġapp ort
Ġper tes
Ġenvironnement ales
Ġexcell ente
Ġspe cta
ĠrÃ©ag ir
Ã¨ ge
Ġb loc
Ġver tu
Ġnavi res
o k
Ġen j
Ġvi dÃ©
ĠS y
Ġmar que
tra s
Ġparten aire
as h
Ġarri vÃ©e
Ġsupp os
Ġreconn u
Ġaccomp ag
Ġconvainc re
ĠcomprÃ©hen sion
c y
t ante
ĠI T
ĠcrÃ© a
Ġappli c
Ġattend ent
Ġexpor tation
Ġfin ir
gn itÃ©
ĠmÃ© m
ĠprÃ©sident s
Cer tes
ĠtÃ¢ ches
es te
al a
Ġre mettre
tr ont
Ġass ass
ĠG Ã©
Ġress ort
Ġju ge
Ġmention ner
Ġpaie ment
Ġoccu per
Ġappropri Ã©e
ĠdÃ©couver t
Ġremarqu able
c ord
Ġm ent
Ġf Ã©vrier
ĠS h
Ġpri or
Ġautre ment
ĠdÃ©bat tre
Ġaugment Ã©
Ġcul tures
Ġ199 7
erb ie
g ist
ar m
ĠprÃ©sent s
Ġrencont re
Ġindustri elle
ĠdÃ©pos Ã©
Ġsouveraine tÃ©
Ġdi gnitÃ©
ĠA b
ĠintÃ© rieures
ĠV erts
Ġimpli quer
ĠdÃ©ter mination
Ġsyn di
P r
Ġb ord
Ġi rak
Ġpouv aient
ĠlÃ©gisla tives
ĠÃ©nergÃ© tiques
Ġsubst anti
E S
Ġp sy
Ġpa pi
Ġfinan ces
Ġpres sions
ĠpÃªche urs
Ġresse mb
llÃ¨ lement
ĠPalestini ens
Ġd en
ie l
Ġcont act
cu le
Ġal lou
Ġindi que
Ġban que
Ġexclu sion
Ġk il
t ur
Ġf illes
Ġdes c
Ġpri vÃ©e
Ġsupp ose
Ġ199 0
Ġaffir mer
cri ption
Ġpaie ments
Ġreligi on
Ġintergouvernement ale
Ġde grÃ©
Ġimp Ã©ra
ĠA L
ĠÃ©ta ts
Ġplan i
Ġviol ation
Ġsal aires
Ġfix er
Ġconnais sent
ĠdÃ©sas tre
Ġd on
Ġc lÃ©s
er ti
Ã¨ ve
ch ons
Ġdis ait
vers aire
Ġavan cÃ©e
Ġhonn Ãªte
ĠlÃ©gitim itÃ©
or di
or gie
Ġf ils
si f
Ġin former
Ġg ui
Ġmen aces
Ġinc ont
Ġatta que
Mes dames
ĠprÃ©sid enti
ti mes
il lÃ©
ri che
iss on
ĠS erbie
Ġal lait
Ġsoli de
ĠaÃ©ri en
Ġvites se
Ġm Ã©n
Ġad resser
ĠT erre
Ġexpli que
Ġatta ques
Ġhon te
Ġconnaiss ons
Ġneu f
oi vent
ĠsÃ© le
ĠmÃ© d
ĠinterprÃ© tation
a mb
si as
la ble
ĠM Ã©d
ĠE lle
ĠdÃ©c lin
Ġutilis Ã©e
Ġfond Ã©e
ĠdÃ©s Ã©quili
Ġsimp les
Ġremar quer
Ġmer veille
ni er
Ġcomm issaires
Ġpri vÃ©s
Ġabou ti
Ġarch ite
Ã¨ vement
ĠM ac
ĠB os
ss ant
Ġad mettre
Ġmin ute
Ġadop tÃ©es
ĠprÃ©cis er
ĠadÃ©qu ate
ĠhÃ´ pit
i a
ĠÃ© lu
ne lle
Ġsou d
Ġcro issante
Ġorganis Ã©
Ġrempla cer
l ine
ant er
ĠdÃ©b ou
Ġconcern ent
ĠgÃ©nÃ©ra tions
ob ile
ĠrÃ©pÃ© ter
Ġtenta tive
ĠÃ©tique tage
Ġsurf ace
ĠrÃ©si de
Ġmo teur
ĠrÃ©s olu
Ġdestin Ã©es
Ġrev Ãªt
Ġouti l
b a
ur ants
Ġent hou
Ġvi ctoire
Ġtrans former
ĠMÃ©d iterran
Ġenthou sias
Ġqu in
Ġi ran
Ġex trÃ©
alis Ã©s
Ġatt entes
Ġinf ra
Ġfron tiÃ¨re
Ġappar tient
Ġcoh Ã©rence
ra di
Ġt chÃ¨
Ġmilli on
Ġpropos Ã©es
ole il
Ġaliment ation
Ġtomb er
Ġretr ouver
ĠdÃ©mar che
ĠcohÃ©r ente
Ġmaxim um
Ġin h
Ġpour su
Ġfin ance
ĠrÃ©p erc
Ġcor ri
Ġparo les
Ġobliga toire
ĠrÃ©perc us
c ter
Ġmondi aux
ĠlÃ©gisla tive
ĠLi vre
ĠGÃ© orgie
n am
Ġav ion
Ġli Ã©e
ora ire
Ġph il
ari tion
Ġsinc Ã¨rement
ĠHam as
ĠChyp re
Ġex ten
Ġappr enti
ĠrÃ©glement ations
Ġbri Ã¨vement
in te
Ġle Ã§ons
Ġv e
ĠrÃ©s olutions
ĠdÃ©f end
Ġopin ions
Ġexist antes
Ġrati fication
Ġfru its
e uropÃ©
Ġin vent
Ġag ence
Ġdestin Ã©s
Ġhau teur
Ġsen sible
Ġvoisin age
ĠMÃ©diterran Ã©e
2 00
p ro
Ġc op
or tÃ©
Ġg ri
Ġra cont
Ġri che
Ġrepr endre
E h
or ies
ar b
Ġmo tiv
Ġcomp ara
Ġcont ro
fi ci
Ġim ages
vers itÃ©
ĠpÃ© ti
ĠÃ©m ission
ĠdÃ©velopp Ã©s
k e
ĠÃ ¨
ter a
Ġutilis ent
ĠreflÃ¨ te
Ġsolda ts
ĠGaz a
Ġre qui
Ġvi a
Ġconstitu tionnel
ĠnÃ©g li
Ġpos Ã©
Ġconser ver
Ġregret table
Ġs tu
Ġs ite
Ġb elle
Ġsur vi
Ġex ter
Ġpoli tici
Ġinc ombe
ĠdÃ©s es
Ġsupp ression
ĠrÃ©chauff ement
Ġen ne
Ġam our
Ġins pe
ĠintÃ© grÃ©
Ġintrodu it
Ġinflu en
Ġinfrastru cture
Ġreti rer
ĠintÃ©ri eure
ĠKy oto
e i
ĠprÃ©sent ation
Ġsal u
Ġsuffis ant
Ġsignal er
te z
Ġac cidents
Ġdi z
Ġmet tent
ĠreprÃ©sent er
ĠÃ©li miner
p ire
Ġ os
ĠM ex
ĠA CP
Ġcla ssi
Ġmen Ã©
Ġchi miques
Ġsenti r
ĠentraÃ® ne
Ġradi o
Ġdimin uer
Ãī tant
a tie
o Ã»t
Ġp il
Ġdro gue
Ġdom in
Ġessenti elles
Ġbas Ã©e
ĠbÃ¢ti ment
Ġinsc rit
ĠrÃ©percus sions
g ation
ou tine
Ġfa ute
Ġme ur
Ġimp Ã´ts
Ġan ni
ĠL ond
Ġmen Ã©e
Au tre
ĠprÃ©v ue
ĠW al
ĠcÃ´ tÃ©s
Ġis ol
Ġrev oir
ĠdÃ© ga
Ġdev i
Ġinter mÃ©di
Ġop tion
ĠCh arte
ĠÃ©ch Ã©
Ġhist oires
Ġno tion
Ġrou ge
Ġsouv enir
Ġm ur
us er
Ġr yth
Ġsou mettre
Ġma ga
Ġmar ge
Ġpra ti
Ġsign Ã©
Ġtransf ert
Ġopportun itÃ©s
ĠÃ©lectron ique
ĠrÃ©parti tion
tras bourg
O ui
Ġfa ux
Ġch oc
Ġser t
Ġins pi
ss age
Ġtrans it
Ġinc l
ĠÃ©t onn
Ġconnaiss ances
ĠÃ¨ re
B on
Ġav i
Ġces ser
Ġma sse
Ã©ra ble
ĠG e
Ġrel ance
Ġenvoy Ã©
Ġregarde z
Ġbanc aire
r omp
Ġli Ã©
ĠnÃ© er
ĠS trasbourg
ĠPar ti
Ġexpri me
Ġjusti fier
Ġcentra l
Ġgu Ã¨re
Ġch ien
dÃ© m
Ġrespe cte
Ġcontrib ue
Ġindustri es
Ġincroy able
I n
Ġt or
Ġb ras
Ġra vi
Ġaut o
Ġins iste
Ġutilis Ã©es
Ġaugment e
Ġorig in
Ġouv re
Ġign or
Ġadministra tives
b it
Ġin gÃ©
ni ers
ĠM c
ine z
ĠprÃ©sent Ã©e
Ġinc omp
Ġindi ca
Ġbas es
ĠÃ©qui val
Ġimm ob
Ġsug ges
Ġport ant
Ġsort es
Ġvra ie
Ġla cun
ĠÃ© pr
Ġli v
Ġcha mbre
Ġbritan niques
Ġautom obile
m un
ri Ã¨res
Ġcons tat
Ġaut oma
Ġvoi ent
Ġpropor tion
h eur
ĠE tat
Ġres truct
Ã©r ences
ver bal
Ġapprop riÃ©
ĠtÃ©lÃ©ph one
l or
Ġb il
Ġvi vant
Ġpalestini en
Ġprim ordi
Ġag isse
dÃ© c
Ġpens Ã©e
Ġheure use
Ġmouve ments
Ġro b
ĠespÃ¨ ce
Ġdiminu tion
ĠS a
Ġsal le
Ġajou tÃ©e
Ġnorm al
Ġappara Ã®t
Ġespagn ol
ch t
Ġdev rais
Ġcomp let
alis Ã©
Ġpubli Ã©
Ġmen Ã©es
Ġcontinuer a
Ġenta mer
gos la
ĠmÃ©d iterran
ou gosla
is Ã©e
Ġac tivement
ĠÃ©c ologique
Ġ2 3
Ġlib res
Ġense ign
ĠdÃ©ci de
Ġmusul mans
m os
Ġ we
Ġl in
Ã¨ le
Ġcont ac
Ġinter nes
Ġvi ce
ĠN L
mis me
ĠstratÃ© gies
Ġsimil aires
ĠLond res
Ġa x
ur de
Ġpa tri
Ġacc orde
onne ur
Ġvi vement
ĠrÃ©p and
Ġprodu ctivitÃ©
Ġci b
Ġcomb in
Ġcontribu ables
Ġexpli cation
ĠintÃ©g rÃ©e
Ġfal lait
Ġenre gist
ĠCro atie
ĠtchÃ¨ que
ĠmÃ©diterran Ã©
Ġpour rais
ĠrÃ©p Ã¨te
Ġaff ront
ĠdÃ©fic its
Ġeng end
Ġsignifica tive
Ġscand ale
M me
a tes
Ġpas sion
Ġmo tion
Ġattend s
Ġtrouv ons
Ġhon orable
Ġapprenti ssage
Ġr usses
ĠÃ©c ar
Ġamen er
ĠrÃ©du ctions
Ġjou ent
Qu oi
Ġvolont aire
ĠsoviÃ© tique
R ien
Ġd oc
Ġaccomp lir
ori z
Ġdistribu tion
Ġpapi er
Ġcont en
ag nes
Ġmin i
Ġinsta urer
ograph ie
Ġtes t
Ġallem ande
Ġtax es
ĠAut riche
lÃ¨ vent
ĠgÃ©nÃ©ra les
Ġcoop Ã©rer
Ġpos tes
ĠlibÃ©ra ux
Ġcommis sions
Ġmach ine
Ġferrovi aire
O b
ais on
Ġper Ã§
ĠG uerre
Ġinc on
Ġ199 6
Ġtour ner
ĠsiÃ¨ ge
ĠÃ©tab lis
Ġreje ter
Ġobsta cle
r om
Ġa mp
Ġv ente
Ġpo issons
Ġdis cip
Ġdire cteur
Ġal co
ist ant
lu sieurs
ĠspÃ©ci al
ĠÃ©tr ange
Ġorient ation
Ġaffir me
Ġjapon ais
Ġg uer
Ġculture l
Ġconver gence
ĠrÃ©guli Ã¨rement
Ġryth me
ĠP T
os oph
Ġtra gÃ©
Ġser ais
ĠdÃ©velop pÃ©
Ġdemand ent
Ġtent Ã©
Ġsau f
Ġrencont rer
Ġexist ants
Ġinten tions
Ġdiscri min
d on
m ine
Ġc Ã©rÃ©
ra se
Ġb le
ĠC I
Ġpo lon
Ġcommun iste
Certa ines
ĠÃ©troite ment
Ġcra ins
ĠprÃ©al able
Ġpsy ch
Ġphil osoph
g h
ĠP outine
Ãª ts
Ġmon op
Ġdire cte
Ġci v
ĠamÃ©li or
ĠrÃ©ussi r
Ġeffectu er
Ġbles s
e k
Ġs lo
ta litÃ©
Ġh oriz
Ġad hÃ©
ĠT ED
Ġatt ent
Ġress enti
ĠlÃ©gi time
Ġemploy Ã©s
Ġaband onner
ĠCan ada
Ġf onc
Ġop tim
ĠprÃ©v oir
Ġtes ts
ĠprÃ©t end
ĠFin lande
Ġexten sion
Ġciv ils
l ue
Ġt ox
Ġau teur
Ġcomp lÃ©
Ġfor cÃ©
ĠindÃ©pend ants
ĠdÃ©t our
C A
Ġs ti
ra ire
rai res
Ġfer ont
ĠnÃ©cessaire ment
Ġclair s
Ġbre f
Ġsup Ã©rieur
Ġpromes ses
ĠproblÃ© matique
Ġj eux
Ġcon Ã§
Ġpo isson
ĠM in
Ġr om
Ġr ue
Ġenvironnement aux
Ġreconn aÃ®t
cri re
Ġriches se
Ġambi tion
m ission
n itÃ©
u k
Ġv olu
Ġh i
Ġh onneur
ien nes
Ġfor Ãªts
Ġsec ret
Ġparticip Ã©
Ġ201 1
ĠPro di
ĠvulnÃ©ra bles
C ombien
o la
on ie
Ġp ier
ĠdÃ©p endance
Ġdonn ent
Ġdonn Ã©e
Ġcla use
Ġdiscu tÃ©
Ġautoris ation
Ġsatisf aire
Ġsoule vÃ©
C omp
us ti
ĠdÃ© ri
Ġpoli ci
je un
Ġad ul
Ġsta ble
Que lles
Ġrend ent
Ġsouli gn
Ġsurmont er
G r
qu ons
or iques
ch Ã©es
ĠC or
Ġquel conque
as p
Ġmi cro
Ġabord Ã©
Ġprofes seur
ĠindÃ©pend ante
Ġbureaucra tie
Ġtex tes
Ġanni versaire
C oncer
v iennent
Ġp ilier
Ġqu ar
Ġt re
Ġsoci alistes
Ġemp Ãªche
ĠrÃ©gion aux
Ġloc al
Ġsug gÃ©
ĠdÃ©cen nie
Ġproven ance
Ġun ilatÃ©ra
Ġv in
li ons
ĠprÃ© ven
fi ent
Ġvi vons
Ġorganis Ã©e
Ġlan gage
Ã©rÃ© es
Ġpartis ans
Ġabou tir
Ġinuti le
ĠÃ©th ique
P lusieurs
le urs
ĠÃ© radi
Ã¨ que
Ġpour cent
se ments
ĠC ar
ys t
Ġai m
ĠdÃ©c len
Ġab at
ĠmÃ©r itent
Ġpen cher
Ġdirect rices
ĠtÃ©m oi
Ġalco ol
b i
Ġh ong
Ġo ise
tra tion
rie urs
Ġfer ait
Ġgra tu
Ġsais ir
chÃ© t
Ġcandida t
Ġemb ar
Ġpren ons
a min
Â «
ĠC om
ĠM erci
ĠÃī gypte
Ġ2 2
ĠB ro
ĠprÃ©c on
ĠÃ©cri re
Ġdiz aines
Ġhong ro
b on
Ġv ent
ĠO u
Ġph rase
Ġfix Ã©
ĠdÃ©pos Ã©s
Ġreje tÃ©
Ġsimpli fication
ĠdÃ©mont rÃ©
Ġchale ure
Ġqu atriÃ¨me
fi ant
Ġconsid Ã©rons
Ġress orti
Ġ199 5
Ġorient ale
Ġexig ence
Ġtradi tion
Ġrur ales
ĠcatÃ©g orie
ĠÃ©par gne
ĠaccÃ©lÃ© rer
ĠSy rie
Ġfonc tions
Ġs oin
ĠrÃ© els
Ġat mos
Ġsemb ler
Ġidenti fier
Ġcomplex es
ĠÃ©lectora le
Ġsoy ons
Ġden rÃ©es
Concer nant
I D
Ġdi rais
Ġalterna tives
ĠdÃ©pl oy
ĠrÃª ve
Ġprivil Ã©
Ġdes ign
Ġau s
ĠrÃ© mun
ĠB i
Ġcent res
Ġba ta
Ġremp lir
ĠdÃ©si r
n u
r ange
Ġl ou
ti c
Ġf la
li f
ĠdÃ© l
Ġdis ons
ist ent
Ġutilis ant
ĠstratÃ© giques
Ġcontra ts
Ġunivers itÃ©
ĠRom s
Ġm ine
Ġex ces
end ront
ten u
Le ur
ins titu
Ġconstru ctive
ĠÃ©lar g
Ġoppos er
Ġterrit ori
Ġsatisf action
ĠapprÃ©ci e
ĠÃ® le
ĠchrÃ©ti ens
ĠMex ique
Ġm Ã¨
Ġg la
Ġh Ã©s
Ġexp an
ud es
Ġvie il
Ġindi quer
Ġprom is
Ġmis sions
Ġdispos ent
ĠintÃ©ress ante
Ġjourn alistes
Ġport ent
Ġl on
ĠÃ© lus
Ġfa im
Ã® tr
ĠnÃ©goci er
ĠcaractÃ©ris tiques
Ġsuscepti bles
ĠchaÃ® ne
Ġt ari
rÃ© ment
me urs
os se
Ġinter ro
Ġobser vateurs
Ġvit al
Ġconfir mer
Ġconseil s
Ġmutu elle
Ġchapit re
I S
in d
Ġprodu isent
Ġprin temps
Ġsc Ã©n
Ġign orer
Ġretr ouv
Ġtemp oraire
ĠcÃ© lÃ¨
ĠdÃ©fa v
ĠdÃ©g Ã¢
dÃ©c ision
P as
ti ez
an cer
Ġre cev
cu re
ĠB ir
Ġann oncÃ©
Ġsuc re
Ġaccomp lis
Ġfisc ales
Ġoppos Ã©
S es
r ante
ar us
Ġav oc
Ġinter institu
Ġco dÃ©cision
Ġpri vÃ©es
Ġarti cles
Ġten sions
Ġterrit oires
ĠscÃ©n ari
D u
il la
ĠP AC
Ġrenfor cÃ©e
Ġreconn ais
Ġconsta mment
Ġpor tug
ĠÃ©quilib rÃ©
ĠBel arus
Ġmassi ve
Gr Ã¢ce
s h
in a
el ui
Ġres tre
Ġconc rets
Ġseu les
qui Ã¨me
ĠrÃ©alis te
ĠmÃ©di ateur
ĠrÃ©c entes
Ġhyp oth
is tÃ©
Ġv Ã©cu
Ġb us
Ġfin ale
gu is
Ġvis age
Ġinsta r
ĠexpÃ©ri ment
Ġtransform ation
ĠdÃ©gÃ¢ ts
y c
Ã ¼
Ġf ier
Ġf urent
nis me
Ġdou tes
ĠÃ©vÃ© nement
Ġprofessionne ls
Ġexpos Ã©
Ġinstal lations
Ġstock s
Ġne ttement
Ġex ister
Ġac tif
Ġmo dÃ©
Ġca f
Ġprop ag
mi di
Ġpouv ais
ĠG o
Ġcompr ennent
Ġaccep te
Ġiniti ale
Ġdestin Ã©
Ġmanifes tations
Ġprison niers
Ġv ain
Ġpro ches
Ġan ne
ĠS e
Ġab oli
Ġsal uer
Ã¯ s
Ġ201 3
Ġsensi bles
Ġsugg Ã¨re
Ġ Q
Ġc uis
le y
Ġle Ã§on
ar k
Ġb our
Ġtr oupes
Ġtrans at
ĠdÃ©bat tu
Ġid en
ĠvÃ©r itables
ĠrÃ©c ent
Ġanim al
Ġoct roi
ĠfrÃ© qu
Ġvir us
ĠBos nie
Ġv ague
ais ser
Ġpl af
Ġtrans actions
Ġcitoy enne
Ġgouvernement ales
Ġprog ress
Ġorgan e
Ġexpan sion
w an
Ġs ites
Ġs oleil
si les
Ġpro t
Ġre mÃ©di
Ġar bit
ille z
Ġmondi ales
Ġsuffis ante
ĠdÃ©li b
Ġcompa ti
Ġoccu pe
s on
Ġc iel
end rait
Ġimp u
Ġtra it
Ġseu il
Ġposi tives
tri ce
Ġpass Ã©e
Ġappu yer
ĠbÃ¢ti ments
Ġp Ã©r
Ġpour riez
ĠrÃ© ex
Ġfa ill
Ġpolitique ment
titu des
ĠrÃ©p ression
Ġreven di
Ġobser vation
Ġexploit er
Ġconven u
ĠvidÃ© o
Ã© di
ĠrÃ© vis
ten us
Ġper pÃ©
Ġconsid Ã©rÃ©e
Ġsouh a
ĠÅĵ u
ĠaÃ©ri ennes
Ġcompag nie
Ġin ond
Ġin ex
Ġex cÃ©
ĠD Ã©pu
Ġenga gÃ©
Ġconstru it
Ġfort es
ĠlÃ©g ale
Ġcruci ale
ĠpiÃ¨ ces
Ġbru it
Ġquotidi en
Ġpolitici ens
A vez
e ff
Ġm or
Ġf re
Ġj oin
Ġmo tifs
Ġca d
Ġacc um
ĠdÃ©c ri
ing ton
Ġrepr is
Ġmanifes tement
ĠÃ©quilib rÃ©e
Ġhy d
Ġguer res
Ġpro s
ens es
Ã©ri r
Ġsal aire
Ġdange reuses
Ġmora le
ĠsÃ©le ction
m ant
Ġla it
or g
Ġen ce
Ġin dem
ĠC ub
Ġcont es
ĠT V
Ġop ti
Ġmani p
ĠcompÃ© tent
ĠconcrÃ¨ te
Ġconsac rÃ©
Ġperman ent
Ġassass in
Ġquin ze
Ġm orte
ĠdÃ© te
Ġh as
Ġser re
Ġuti les
Ġfal lu
ĠmÃ©de cin
ir ont
Ġfut urs
ĠbÃ©nÃ©fici ent
Ġcontraire ment
Ġadap tation
Ġeffond rement
Ġrece ttes
Ġbil an
C on
Ġc lar
mb ourg
Ġaccord Ã©e
Ġexpli cite
Ġfix Ã©s
Ġcontribuer a
Ġpron oncer
Ġstri ctes
Ġfr Ã¨re
Ġsimil aire
Ġrejoin dre
i ca
o tes
Ġa chÃ¨
Ã¨ dent
ve ux
Ã©ri eure
Ġaff i
Ġri gou
Ġinc lu
Ġattein te
ĠpÃ©tro li
Ġappropri Ã©es
Ġstim uler
ĠHong rie
Ġdomm ages
ĠprivilÃ© gi
Ġsur vie
Ġtr om
Ġpu rement
ss Ã©
Ġconsid Ã¨rent
ĠreprÃ©sent ation
Ġdou ani
ĠconsidÃ©ra tions
Ġsor ti
Ġlit tÃ©ra
ĠvÃ©ri fier
Ġinjus ti
Ġmodernis ation
Ġclar tÃ©
v ations
Ġf oi
Ã¨ tes
Ġpro c
Ġdev aient
ĠA u
ĠS ec
Ġop tions
ĠprÃ©sent ent
um Ã©
gu Ã©
Ġind ire
ov ine
Ġcontribu tions
Ġobser ver
Ġexclu sivement
ĠprÃ©cÃ©d ente
L A
ge ant
Ġr ang
ĠN on
Ġadop tÃ©s
Ġinstitu tionnel
Ġvoi es
ĠV I
Ġcli matiques
Ġconsta tÃ©
ĠrÃ©s istance
ĠT om
Ġvis as
ĠJ ohn
Ġremercie ments
Ġunivers itÃ©s
Ġoccident ale
Ġquit ter
R Ã©
y ant
z y
Ġm orce
Ġn aissance
Ġin verse
ĠdÃ© gra
Ġch em
Ġpers ua
Ġass ure
Ġparticuli ers
Ġvis ent
Ġsouhait able
Ġpersonne lle
ĠprÃ©v ues
ĠentraÃ® nÃ©
ĠsecrÃ© taire
Ġkil om
d is
Ġpa tient
Ġra res
ĠA g
Ġvi de
ĠdÃ©c rit
rais on
tif ie
Ġlin guis
jeun er
ĠR O
gn ation
ĠdÃ©b u
ĠdÃ©veloppe ments
Ã¨g es
Ġ19 6
ĠrÃ©c ents
Ġref use
Ġth Ã¨mes
Ġprogres sivement
Ġbar riÃ¨res
Ġsil ence
ĠU n
Ġent am
Ġbon heur
Ġabs olue
ĠprÃ©v oy
Ġlim itÃ©e
ĠÃ©t end
Ġten ue
ĠprÃ©cÃ© demment
Ġaffir mÃ©
ĠnÃ©ga tif
ĠprÃ©cÃ©d ents
ĠCong rÃ¨s
d Ã©e
v ait
an es
Ġpr enne
Ġpr endra
Ġco eur
ĠD Ã©
Ġmin oritÃ©
Ġentrepr en
Ġanti cip
ĠLi ban
Ġcomplex itÃ©
ĠillÃ©g ale
Ġrac isme
Ġatten tivement
Ġafric ains
Ġpromes se
Ġincer titude
cy cle
Ġrequi ert
ĠremÃ©di er
L Ãł
Ġm ens
le ts
Ġcon for
au l
ac cord
Ġrec ourir
Ġdoi g
ĠCh inois
Ġsoutien nent
ĠsÃ©rie use
Ġoubli ons
ĠÃ¢ gÃ©es
Ġeffectu Ã©
Ġdisponi ble
ĠaccÃ© der
Ġst y
ĠBer lin
ĠocÃ© an
lif Ã©ration
Ġb omb
Ġma Ã®tr
Ġfon de
Ġappli quÃ©es
ĠÃ©m o
ĠinÃ©g alitÃ©s
l aud
ĠM ont
Ġdev riez
ĠE L
sie z
Ġma cro
ca ts
ĠdÃ©mocra ties
Ġinc lusion
Ġenga gÃ©s
Ġsubst ance
Ġdistin ction
Ġappare il
or ge
Ġdu re
Ġcon forme
end rons
Ġinstitu tionnelle
Ġconvainc ue
Ġmauvais es
Ġperman ente
ĠX X
Ġlacun es
ĠtragÃ© die
Ġl un
on te
ĠrÃ© in
Ġsu it
Ġbas Ã©
Ġinv iter
Ġinqui Ã¨te
Ġnum Ã©ro
Ġtenta tives
Ġcontrain tes
Ġproven ant
Ġlon gues
P ara
er ait
un itÃ©
Ġh Ã©r
Ġcons enti
va quie
Ġcro issant
Ġinc or
ĠdÃ©s accord
ĠdÃ©cla re
ad dam
Ġjeunes se
ĠtÃ©lÃ© comm
Ġconsci ent
Ġdestin Ã©e
Ġaccro issement
Ġapprofon di
G M
f eu
an o
ur ie
si bles
ch a
os s
Ġimp ati
Ġma gni
Ã©ri ques
Ġmont agne
Ġcontra di
ĠcompÃ© t
ĠÃ©t endue
Ġcommuni quer
land es
Ġsuiv antes
Ġphot os
Ġcivil es
Ġconvi ction
ĠcatÃ©g ories
Ġmat hÃ©
ĠmÃ©m oire
C elui
Ġ er
Ã© min
Ġle ver
ri ques
ar me
di a
ul sion
Ġan c
En tre
ĠrÃ©s ol
isi ble
ĠÃ©le vÃ©es
Ġess aie
Ġcol Ã¨re
Ġform ulation
ĠsÃ»r s
Ġpous ser
Ġprovo quer
ĠrÃ©di gÃ©
ash ington
Ġhas ard
I ci
ĠA t
Ġsa c
ĠO GM
ĠmÃ© pr
Ġappli quÃ©e
Ġ3 1
Ġcommen cent
Ġnature lle
Ġesti ment
Ġocca sions
ĠdÃ©fini tive
Ġcaf Ã©
3 0
A R
e tte
r ans
Ġc landes
Ġt ente
ĠdÃ© tri
Ġad di
ĠPar is
ĠÃ©conom istes
Ġman ge
alis Ã©e
Ġutilis ateurs
ĠreÃ§ oivent
Ġreligi eux
Ġoccup ation
Ã Ĭ
Ġra ss
ĠprÃ© te
ĠO C
Ġ3 5
Ġopp ose
ĠW ashington
Ġsoule ver
Ġre b
Ġpo sent
Ġpr ends
Ġave u
Ġsa ges
Ġgar Ã§on
Ġsign es
Ġinv itÃ©
ĠmonÃ© taires
Ġsurpr is
Ġpourcent age
ĠCub a
i mb
Ġm ol
Ã¨ lement
Ġin forme
Ġin cid
Ġcon ventions
la h
Ġtr iste
oc k
Ġjus tifie
ĠdÃ©m ontre
ocra tes
Ġlib Ã©ration
Ġproch ains
Ġimpli cation
ĠpÃ©ri odes
Ġdiploma tie
bal l
Ġmultip li
ĠÃ©chou Ã©
D Ã©
ĠÃ© man
Ġpro lon
va s
ĠdÃ©b arra
Ġrenfor cÃ©
Ġz Ã©ro
ĠrÃ©c onc
Ġrou tes
Ġrefus Ã©
ĠÃ® les
Ġreconnaiss ant
g il
Ġdev ienne
and ard
Ġ2 8
ĠamÃ©li ore
Ġsouff rent
Ġchinois e
Ġara bes
Ġcherche urs
Ġfroi de
ĠpÃ©ti tions
Ġbata ille
ĠBir manie
ĠdÃ©tri ment
ĠdÃ© rog
oi ent
ir ent
Ġ2 9
Ġ3 00
Ġexist ant
Ġrester a
oph ob
Ġgag nÃ©
Ġsurpr ise
Ġadministra tive
Ġdeven us
ĠTV A
Ġm ou
and a
Ġag rÃ©
orte ur
Ġtrans mettre
Ġinc en
Ġappli quent
Par mi
ĠrÃ©c omp
Ġimpli quÃ©s
Ġc raign
li c
Ġdis si
ĠB en
ĠintÃ© resse
ĠdÃ©cla rer
ĠV er
Ġhist oriques
Ġchar ges
Ġchar bon
Ġpalestini enne
F in
g ences
o bil
it a
Ġpa l
ĠÃ©c us
Ġpermet tront
oli que
ĠV an
Ġstructure lles
ĠÃ©qui v
Ġsouten ue
Ġache tÃ©
ograph iques
Ġpen sions
Ġambi tions
Ġnum Ã©rique
ath ie
ĠrÃ©ta blir
g in
Ġp orts
ur Ã©e
Ġf ront
Ġg Ã¢
Ġg asp
ĠdÃ©p asse
Ġmarch er
Ġass ister
Ġfer ai
ĠrÃ©g ulation
ĠbÃ©nÃ©fi ce
ĠCe la
ĠÃ©li mination
Ġappare mment
Ġtex ti
Ġfas sent
Ġpuiss ances
Ġinterd ire
r in
Ġf an
Ġre mbour
Ġpl antes
ul Ã©
ĠÃ©c art
ĠB la
ĠT a
Ġimpos ent
Ġalli Ã©s
Ġaffront er
g ure
Ġd an
Ġch at
omm age
Ġmo ments
ĠA D
ĠÃ©ta pes
Ġ2 6
Ġco ali
Ġtravail lons
pu le
Ġarri vent
Ġenga gÃ©e
Ġref lÃ©
Ġobser vations
Ġa ssemblÃ©e
Ġf Ãªte
ar di
ter re
Ġdro gues
ĠprÃ©sent Ã©s
ĠG en
Ġmet tant
ĠlÃ©gis lations
Ġoppos Ã©s
Ġrefus er
Ġbr Ã»
Ġpron onc
ĠcÃ©lÃ¨ bre
is ons
Ġau teurs
me mbre
ĠS ar
tin ation
Ġentrepr endre
Ġfond Ã©
Ġenvironnement al
Ġpra g
Ġform ule
Ġfran ch
Ġsc ru
Ġcoord onner
ĠrÃ©a ff
ĠpÃ©n ale
Ġquali fiÃ©e
Ġconfir mÃ©
Ġcrimin els
ĠmatÃ©ri el
Ch acun
Ġsalari Ã©s
ĠtÃ©lÃ©comm uni
V otre
Ã ³
ent ra
ĠD i
Ġobje ts
ĠIn s
Ġven ons
Ġcrain tes
Ġfo ot
Ġcontac ts
Ġdan ois
Ġm ille
Ġin va
Ġin eff
Ġser ai
cu laire
ĠsÃ© para
ĠG ol
Ġfer mer
Ġna v
ĠV i
Ġfondament alement
Ġsign ature
Ġir landaise
Ġvicti me
ĠAl li
Ġchaleure usement
u ve
Ã Ń
Ġpl ate
Ġra men
ĠB ureau
Ġal lant
Ġann once
ĠR i
Ġrec yc
lo re
em ark
mÃ© ment
Ġris quent
Ġdiscu tons
Ġjeu di
ĠdÃ©pend ent
Ġdicta ture
Ob jet
imb ab
T el
me ts
ĠS addam
Ġenv er
Ġchar gÃ©
Ġten us
ĠbÃ©nÃ©fici aires
Ġtemp Ã©ra
ĠBel gique
Ġbienven ue
Ġpolon ais
Ġe m
it h
Ġpa ge
Ġli eux
Ġsa cri
Ġenv ie
Ġvie ille
lon e
Ġtranspar ente
ĠarrÃª tÃ©
ĠÃ©nor mÃ©ment
Ġsan ction
Ġven ue
Ġcrit Ã¨re
Ġpartage ons
Ġsimpli fier
Aucun e
ĠDan emark
ti Ã¨me
Ġre viend
ĠA ff
Ġconc rÃ©ti
ĠÃ©le vÃ©e
ĠL uxe
Ġatt ente
ĠrÃ©c ol
ĠlibÃ©ra l
Ġindustri els
Ġjourn al
Ġst andard
Ġimmig rants
Ġcontro vers
Ġrestruct uration
Ġen ti
Ġdu quel
el l
Ġma ter
ĠÃ©g al
ĠgÃ©nÃ©ra ux
Ġexpli quÃ©
Ġmoder nes
Ġimm ense
Ġconsac rer
Ġmora l
ĠEur o
ĠhÃ´pit al
ĠintermÃ©di aire
Ġin a
Ġmani Ã¨res
Ġcontribu ent
Ġdist ance
ĠBal tique
Ġfroi d
Ġvolu me
Ġp ont
Ġde ttes
Ġs ain
ĠP e
Ġra y
Ġtr ente
Ġme tte
Ġpr ouver
Ġdi v
Ġam end
ĠmÃ© l
ĠD o
man n
Ġconstru ctif
ĠÅĵ il
Ġrappel Ã©
Ġtermin Ã©
Ġdomm age
Ġach at
ĠMac Ã©d
Ġenthousias me
ĠCom itÃ©
b et
qu ante
Ġv illage
Ġimp osition
Ġgr andi
gi ci
Ġam Ã¨ne
lis Ã©e
Ġaccord Ã©
Ġconf usion
ĠÃ©du ca
Ġdess ous
Ġmusul man
Ġdispar u
Ġincont es
ĠLuxe mbourg
b ie
Ġa ci
Ġm ourir
Ġv end
ĠM ol
Ġdi rai
vi du
Ġman quer
Ġindi vidu
Ġabs or
Ġrecher cher
Ġlibre ment
Ġpor tÃ©
ĠLi by
Ġdossi ers
ĠopÃ©ra teurs
Ġcivil isation
Ġtribun al
Ġhandicap Ã©es
Ã©conom ique
a der
o o
ĠdÃ© tÃ©ri
ĠrÃ© cip
Ġch ans
Ġdi agn
lÃ© b
ss ants
Ġfor um
Ġmala de
ĠbÃ©nÃ©fici e
Ġsemb lait
Ġconfront Ã©e
Ġign ore
Ġanalys er
Ġbreve ts
L aissez
T ant
Ġc re
Ġam us
ĠS ommet
Ġfor mer
Ġvoud rions
ĠN o
Ġinc iter
Ġba teau
Ġgaranti t
Ġcour se
ĠprÃ©f Ã¨re
Ġconvainc us
Ġpous s
Ġmaje urs
ĠNi ce
Ġplain tes
Para llÃ¨lement
ou ff
Ġs it
Ġex cessi
fin i
ĠdÃ©bat tons
Ġinsta uration
Ġessay ons
Ġmul tination
Ġfisc aux
ĠAn gle
Ġphy si
Ġprud ence
Ġsoy ez
Ġtend ances
Ġsoum ise
Ġcontent er
Ġautonom ie
ĠSlo vaquie
Comp te
g enti
v oir
Ġre met
Ġsur ven
Ġmil it
ĠD ar
Ġess ence
Ġdur ables
Ġinsta bilitÃ©
Ġinn oc
Ġoubli Ã©
Ġsenti ments
Ġhau tement
Ġenqu Ãªtes
Ġordin ateurs
Ġfab ric
Ġtable au
Ġdiploma tique
Ġformul Ã©es
Ġtribun aux
ĠAngle terre
or iste
Ġin du
Ġaut rich
vi endra
va teur
Ġat tÃ©
ĠT unis
Ġcamp agnes
Ġoffici elle
Ġprovo quÃ©
ĠmÃ©dec ins
Ġcoali tion
ĠAff aires
T elle
ĠrÃ© form
ili ers
Ġas pi
ĠprÃ©c ises
Ġju ger
Ġbi odi
Ġrappro cher
Ġeth niques
Ġbiodi versitÃ©
Ġpar lent
Ġfa ti
ĠÃ©c rite
ĠrÃ©s u
ĠprÃ©sent Ã©es
vers er
Ġju gement
Ġviol ences
Ġten ant
ĠÃ©lab orÃ©
Ġmanifes te
ĠPales tine
Ġcouv rir
Ġmultip les
Ġconne x
Ġpatri m
Ġsouha itÃ©
e y
Ġm Ã¨ne
Ġt onnes
Ġb rÃ¨
Ġre mis
os er
Ġra rement
ĠM il
Ġsou lÃ¨ve
ac k
Ġvi able
cur r
rib uer
cul ture
Ġinform Ã©s
Ġbi ologique
Ġrecomm ande
Ġsor tie
Ġsin on
Ġsurve iller
ĠnÃ©er landais
I N
i eux
ar itÃ©s
au tion
pp e
Ġtr omp
Ġcons tante
Ġrec ueil
Ġabs urde
pa ti
Ġcolle ctive
Ġtradu it
Ġsp or
ĠFran Ã§
Ġintellectu elle
Ġsyndi cats
E R
Ġm Ã¨tres
Ġt uer
onn Ã©s
mi cycle
Ġag res
Ġad h
ĠdÃ©c Ã¨s
as tri
ĠmÃ© ta
Ġ201 2
Ġjourn aux
Ġchacun e
Ġtradi tions
Ġtomb e
Ġespoir s
ĠÃ©l oi
ĠcÃ© lÃ©b
Ġsex uelle
Ġconsoli dation
Ġajus tement
Ġfaill ite
ĠVI H
ĠtÃ©lÃ©communi cations
C ont
Ġen rich
ĠdÃ© vas
Ġg agn
Ġav erti
Ġent ends
ĠO ui
Ġculture lles
Ġrespec tÃ©
ĠY ougosla
Ġparven u
Ġpie ds
Ġprofond es
Ġplac er
Ġbat tre
Ġisla mique
ĠAlli ance
b lissement
es se
Ġs Åĵur
te aux
Ġh osti
ĠU ne
Ġinter dit
Ġrespect ent
Ġloc ale
Ġindivid uels
ĠsystÃ©matique ment
ĠimpÃ©ra tif
Ġressorti ssants
Ġer ron
ĠMacÃ©d oine
Ġs co
Ġcon cevoir
Ġtou cher
ĠÃ©c oute
Ġconc ret
Ġco in
ist ons
Ġcro it
Ġadop te
Ġfer ons
Ġappli quÃ©
ang ers
Ġlo gici
ĠpÃ©n al
Ġvac ances
Ġreligie uses
Ġinterinstitu tionnel
Ġpatrim oine
Ġp Ãª
Ġa per
ti fication
Ġs ois
ĠdÃ© jeuner
Ġsu pr
Ġcomp as
oy ez
ĠB u
ĠS ol
ĠintÃ© gra
lis er
velop pe
ĠK h
ĠrÃ©du ite
Ġmi gra
endu es
Ġjudici aires
Ġaccueil lir
Ġfeu ille
ĠÃ©cla ir
Ġitali en
Ġaj oute
Ġoise aux
ĠLiby e
c at
Ġf en
ta le
Ġpl ur
ĠprÃ© cieux
Ġcomm and
ĠEurop ol
Ġuti litÃ©
Ġavan cÃ©s
ĠdÃ©cisi onne
Ġpos Ã©e
ĠdÃ©pens er
Ġcommuni cations
Ġconfir me
Ġalli ance
Ġespagn ole
dem ain
ĠÃ©volu er
ĠsuÃ©dois e
Ġcitoyenne tÃ©
a tis
Ġ [
Ġfa Ã§ons
Ġg enti
ĠA h
lis te
gn Ã©e
ĠdÃ©m ographique
Ġactu alitÃ©
Ġpara llÃ¨
Ġsus c
ĠintÃ©g ritÃ©
ĠgÃ© ographique
ĠMa astri
Ġtradu ire
ĠhÃ© micycle
ĠZ imbab
Ġfos sÃ©
Ġexces sive
ĠprÃ©te xte
ĠYougosla vie
A s
g ente
en sion
ou er
qu ait
Ġpa re
Ã´ tre
Ġcomme t
ise z
Ġag ents
Ġemp ire
ĠL itu
Ġpass ant
Ġ199 4
Ġdou b
ĠTra itÃ©s
Ġsensi bil
Ġsuscepti ble
Ġterri ble
Ġlic enci
ĠaÃ©rop orts
ĠMaastri cht
Ġ ]
an ci
Ġpa ir
Ġpas sent
ĠM e
ĠA us
Ġacc ru
ĠUni es
ĠO ues
Ġtota litÃ©
Ġamb ass
Ġdestin ation
Ġconcent ration
ĠEuropÃ© enne
Ġautoris er
Ġambi gu
Ġprofonde ur
Ġtol Ã©rance
Ġesc la
Ġimmig rÃ©s
ĠdÃ©couv rir
ĠadhÃ© rer
ĠÃ©larg ir
LA F
ĠOues t
A fin
Ġ om
Ã© sie
Ġab sent
Ġgra vitÃ©
Ġcli ents
Ġfisc alitÃ©
tel l
ĠAut oritÃ©
Ġcompens ation
Ġhor ri
Ġatmos phÃ¨re
Ġcompas sion
A ux
ĠrÃ© da
Ce lle
Ġsa tell
Ġpu issant
Ġpri va
Ġarri vÃ©s
Ġcontra diction
Ġremp li
ĠÃ©quipe ments
Ġbo Ã®
Ġpoursu it
ĠdÃ©ses pÃ©
Ġpier re
ÃĬ tes
ĠrÃ©aff ir
A S
Ġl entement
ti ens
Ġun es
ĠrÃ© sid
Ġre cti
ĠC S
ĠT chÃ©t
Ġti ennent
Ġoff rent
Ġarti fici
Ġcin quiÃ¨me
ĠgÃ©nÃ© tique
Ġarchite cture
Ġtrom pe
A r
Ġra t
pe au
Ġimp asse
Ġri di
Ġappel ons
Ġdange reuse
Ġfaibles se
Ġdiver si
Ġkilom Ã¨tres
Ġl en
Ã¨ tre
ĠC omment
Ġje ter
Ġvo la
Ġemp ris
Ġrec ul
Ġdur abilitÃ©
ĠsÃ» rement
Ġbi bli
Ġsci ences
ĠÃ©lar gie
Ġinsta mment
ĠÃ©cou tÃ©
Ġora teur
Ġexamin Ã©
ĠRom e
ĠbÃ© bÃ©
Ġuniverse l
Ġclari fier
is Ã©s
Ġt al
Ġch auff
Ġtou chÃ©s
Ġimp rÃ©
Ġimp arti
va ges
bli c
Ġfon dement
lo t
tionne llement
Ġcomb usti
Ġir res
Ġsignifica tif
Ġtrou bles
Autre ment
ĠdÃ©fav oris
c re
d ra
Ġd angers
al u
Ġr ense
Ġme urent
ĠS V
Ġper tur
Ġti re
Ġvis a
ĠprocÃ© dÃ©
ill ant
ĠprÃ©f Ã©rÃ©
ĠAl b
Ġretr ouve
Ġfr us
ĠmÃ©dec ine
Ġquasi ment
Ġimmob ilier
Ġpo st
Ġdi vision
lis me
Ġcar tes
Ġrenfor ce
Ġcapit alisme
Ġindispens ables
Ġpan ne
Ġincap acitÃ©
Ġstabil isation
Ġprimordi al
ĠMin istre
Ġcad res
l ong
Ġ x
Ġm ig
om Ã©
Ġf Ã©min
ĠdÃ© v
Ġai d
mes tre
Ġfor ts
Ġren oncer
Ġutilis ons
Ġsupp orter
Ġimpli cations
ĠprÃª ter
Ġdirige ant
ĠsiÃ¨ cles
ĠimmÃ©di ate
Ġsurpr enant
Ġautom ne
oud an
Ġindica teurs
ĠhÃ©r it
Ġmagni fique
Ã© curitÃ©
Ġt as
ta g
ĠC as
Ġac teur
Ġma ss
Ġdiff usion
am Ã©ric
olo gues
Ġpropos ons
Ġrev Ãª
Ġcollab orer
Ġharmon iser
Ġoct roy
Ġcondam ner
Ġpen sion
Ġdipl Ã´
Ġhyp oc
Ġapprofon die
Ġsatisfais ante
ĠprÃ©occu pe
Ġmaga s
Ġattent ats
raire ment
Ġdiagn osti
ĠTunis ie
H eure
Ġ Que
es ti
Ġun ani
Ġb aisser
Ġfa c
Ġne tt
ĠÃ©le vage
Ġinform Ã©
Ġcour te
ĠÃ©vent uelle
Ġdimen sions
Ġcompa raison
ĠgÃ©nÃ© tiquement
Ġcroy ons
ĠdÃ©tru ire
Ġadul tes
ĠIns titu
z ar
Ġl ancement
ta ine
Ġre j
Ġinter romp
ĠS er
Ġconstitu Ã©
Ġnu lle
Ġprom et
Ġcomb ler
Ġimpos Ã©es
Ġvu es
Ġ7 5
Ġhuman itaires
ĠÃ©tab l
Ġordin aires
Ġconsoli der
Ġavi ation
Ġinond ations
ĠrÃ©cip ro
O R
r its
Ġl oy
Ġl uxe
Ġm uni
Ġpr ouv
Ġapp els
Ġab orde
ĠÃ©p re
ĠAn d
Lors qu
ĠapprÃ©ci er
Quel qu
Ġassis tÃ©
Ġlab ora
Ġillus tre
Ġeffor cer
Ġplani fication
Ġracont er
ĠscÃ©nari o
ĠLitu anie
a rer
i d
Ġn er
om in
me ur
Ġj amb
ĠrÃ© actions
Ġg el
at t
ĠS oudan
ure aux
Ġri vi
Ġconsid Ã©rÃ©s
Ġmont Ã©e
ĠH er
Ġcomment aire
Ġrapi des
ĠdÃ©cisi f
Ġexpli cations
ĠÃ©t o
Ġexig ent
ĠÃ©vent uellement
ĠSu isse
Ġestim ations
ĠspÃ©cifique ment
Ġnomm Ã©
ĠCol omb
ĠAL E
ĠBla ir
I T
c is
o ts
in tes
ĠÃ© va
Ġr ub
tr ons
Ġgrande ment
Ġsub vention
Ġfonction nent
ĠÃ©gard s
Ġchar te
Ġferme ture
Ġcondam nÃ©
Ġora l
Ġfru ctu
Ġcouv re
Ġence inte
ĠDo ha
Ġirres pons
ĠhÃ©rit age
m ons
v rer
Ġf rontali
Ġin titu
Ġb ureaux
Ġcon Ã§u
Ġse xe
ort ent
Ġres sent
Ġma s
Ġmain tes
ĠnÃ©g lig
Ġsigni fier
ha us
ĠimmÃ©di at
Ġretour ner
Ġemploy eurs
ĠnÃ©ga tive
Ġstim ul
ĠsÃ»re tÃ©
Ġaffai bli
Ġinfra ction
Ġinfluen cer
dÃ©m ie
Ġc os
ou l
ĠÃ© lÃ¨
Ġpro je
mp e
ul tan
Ã©ra tions
cu pÃ©
Ġvou laient
ĠD Ã©m
Ġcar riÃ¨re
Ġpubli cation
Ġrespe ctu
Ġexpri mÃ©es
Ġdou leur
ĠRus ses
Ġparticip ants
ĠpÃ©ri ph
Ġpoursui v
Ġ15 0
Ġcou leur
ĠÃ©l oign
Ġlaisse z
A pp
a mi
er te
Ġn ul
om e
ĠÃ© lÃ¨ve
Ġpar viend
ĠprÃ© cip
Ġdev ions
ĠÃ©c ologiques
Ġentre tenir
Ġti endra
Ġorganis me
ĠrÃ©sul te
Ġcontra t
ĠrÃ©for mer
Ġnor ma
Ġculture ls
Ġmodi fiÃ©
ĠsÃ©rie uses
ĠMa roc
Ġconser vateurs
Ġsurvi vre
ĠAg enda
. -
a il
a ch
t us
Ã ¤
ce lone
os c
Ġmes urer
Ġfor mi
Ġtrans mis
Ġcha sse
ĠcÃ´ te
Ġsus citÃ©
hi p
Ġcomporte ments
ĠdÃ©li ca
ĠcrÃ©di ble
ĠÃ©lectron iques
ko zy
ĠES B
ĠZimbab we
E x
O N
an gi
Ġdes que
tÃ© ritÃ©
Ġqui conque
lÃ¨ vement
Ġal loc
Ġmar quÃ©
Ġti ss
ĠrÃ¨g ne
Ġ19 4
Ġpersonne lles
ĠdÃ©s olÃ©
Ġsub ir
ĠspÃ©ci ale
Ġtechnolo giques
Ã¯ n
ĠÃ©vid ente
ĠÃ©mer gence
ĠnÃ©ga tives
ĠdÃ©tail lÃ©e
ĠmatÃ©ri aux
Ġbanc aires
Ġapplic ables
ĠdÃ©sÃ©quili bres
Ġdiscip line
ĠAD N
Ġlen demain
Ġrense ig
Ġmass ac
s ki
y a
re usement
in i
le m
te ments
ĠrÃ© cupÃ©
ais ons
ĠP Ã©
ĠP SE
Ġai ment
vi ons
ĠT u
Ġop tique
Ã® ner
Ġrec on
cul er
ĠCh a
ĠprÃ©v isions
ĠÃ©tudi ant
Ġcorre cte
Ġdispara Ã®tre
Ġincor p
ta il
ĠC o
Ġch u
Ġac cessi
Ġapp e
Ġins ur
ĠB e
Ġcol on
Ġmont er
ĠH u
Ġassoci ations
Ġfisc al
ĠdÃ©si re
Ġcolle cte
Ġquanti tÃ©s
Ġtre mb
Ġtransat lantique
Fin alement
Ġpro vis
Ġdu e
Ġcon vers
la teurs
pe ct
Ġar range
Ã©n ophob
ense z
lu b
Ġinc lus
Ġinform atique
ĠdÃ©s a
Ġrel ancer
Ġ4 00
ĠfÃ©lic itations
Ġno ter
Ġtraite ments
Ġanci ennes
Ġbel ge
Ġprior itaires
ĠingÃ© nie
Ġmol Ã©cu
ĠconcrÃ©ti ser
Ġx Ã©nophob
Ġformi da
on ge
Ġa oÃ»t
Ġen de
itÃ© es
ĠP N
ĠM ad
ord anie
Ġmais ons
Ġad mis
Ġpouv ant
ĠD ans
Qu atriÃ¨me
chÃ© nie
Ġven ez
Ġreje tte
ĠBar celone
ĠÃ©mer gents
Ġbu lle
Ġphilosoph ie
Ġmor talitÃ©
Ġjoin dre
curr ence
Ġbibli oth
N ombre
m ag
s te
Ġa ssi
di ens
ces sions
Ġser vent
gi le
Ġmar gin
ĠT out
ĠsÃ© jour
Ġor es
ĠH a
Ġprotection nisme
Ġparticip ent
isse ments
Ġdist or
Ġobten us
ĠaccÃ© l
ĠprÃ©ju di
ĠTchÃ©t chÃ©nie
d ans
in o
Ġf lu
ri ce
ch ie
Ġimp Ã´t
Ġob ti
ĠS te
Ġti rÃ©
Ġcha uss
Ġsav ais
Ġinc ar
Ġgar s
Ġconn ue
ĠK o
Ġprov in
Ġdevoir s
Ġpren ant
ĠaÃ©ri enne
Ġposs Ã¨dent
Ġtradu ction
Ġval able
ĠdÃ©mont rer
Ġcrain te
Ġsatisfait s
ĠÃ©cri v
Ġquotidi enne
Ġmobil iser
ĠcomplÃ©ment aires
ĠbilatÃ©ra ux
Ġrassemb ler
Ġconstat ons
ĠexcÃ© dent
ĠrÃ©sol us
Ġfoot ball
Ġb ran
Ġav iez
ĠM u
Ġdi gne
oc ation
Ġpoin te
ĠdÃ©m ission
ĠdÃ©mocra tisation
Ġmont ants
Ġentrepr is
Ġuni forme
Ġreg r
ĠspÃ©ci alement
Ġappel Ã©e
ctu ellement
Ġfix e
Ġfu sion
ĠadÃ©qu at
Ġenne mi
Ġimpati ence
P ouvez
Ã© lor
ri d
Ġj ui
ci euse
Ġra re
ĠÃī c
Ġins istÃ©
Ġvi gil
Ġson da
Ġfor Ãªt
Ġcro ient
Ġess ais
Ġprof its
oli e
Ġexc lure
ĠdÃ©ta ill
Ġretar ds
Ġrati fiÃ©
Ġcompli quÃ©
Ġintellig ence
ĠtÃ©m oign
Ġsauve tage
Ġflo tte
Ġenregistre ment
Ġterritori ale
S e
l ers
l ing
ou b
is Ã©es
om ali
ĠÃ© mettre
Ġav Ã©rer
Ġch o
ora bles
Ġdom es
Ġdonner a
Ġis lam
ĠprÃ©f Ã©rable
ĠlÃ©g Ã¨rement
ĠCe tte
Ġoct ro
Quel ques
ĠnÃ©ga tifs
Ġ198 0
ĠrÃ©vÃ© lÃ©
Ġcouver ture
Ġeth nique
ĠinÃ©v itable
Ġprior itaire
ĠmÃ©n ages
Ġdevi endra
Heure usement
i rait
Ġs pati
ais es
ĠM an
Ġca mps
and s
at ures
ner a
ĠO S
Ġti tres
ĠD es
ĠG re
ĠL u
Ġoc currence
Ġba teaux
Ġfais aient
Ġesti mÃ©
ĠrÃ©glement aire
ĠintÃ©ress antes
Ġassoci Ã©s
Ġport es
ĠconcrÃ¨ tement
Ġparta gent
ĠidÃ© al
ĠhÃ© las
Ġappara Ã®tre
Ġint ol
Ou tre
Ġve ille
E I
V eu
si fs
Ġpl uri
Ġex ag
Ġo re
Ġsi gner
Ġimp Ã©ri
Ġeff ra
En core
ĠB on
Ġcer cle
ĠrÃ©s umÃ©
Ġdonn ant
Ã©li ens
Ġci ble
gent es
Ġsoli des
Ġay ez
Ġsouff re
Ġmess ages
Ġsignal Ã©
ĠidÃ© ologie
ĠprÃ©cÃ©dent es
Ġtransfrontali Ã¨re
Ġaffe cte
Ġsages se
ĠrÃ©conc iliation
Ġre lÃ¨vent
de v
ĠP h
ĠM o
Ã§ a
ĠD ub
Ġamen Ã©
Ġgaranti s
Ġassoci er
Ġfrapp Ã©
og le
Ġreligie use
Ġleaders hip
ĠMol da
h u
j i
Ġf it
Ġb ande
Ġces sÃ©
vi ens
Ġar res
Ġdire cts
Ġnom ination
Ġdisp arition
Ġconsid Ã©rant
Ġindi quent
ĠÃ©valu ations
Ġassur Ã©ment
ĠintÃ©g rante
Ġchinois es
Ġbr ut
Ġsecond es
ĠNi ger
Ġfabri cation
Ġsaur ait
Ġplaf ond
ĠFranÃ§ ais
f as
g ard
Ġpa in
ĠÃ© di
ta in
ĠM M
Ġca mi
Ġnom in
lis Ã©
Ġrec ru
Ġvoud rait
Ġattein ts
Ġnor me
Ġtour ne
Ġterr oriste
Ġaccomp agn
Ġanim ale
Ġten ons
Ġconcent re
Ġinnov ations
Ġexploit ations
Ġprogres sive
Ġang le
Ġintensi fier
Ġtor ture
Ġwe b
Ġmultination ales
Ġs aine
ra pp
Ġle ader
ĠÃ© te
Ġin tr
Ġpar viennent
Ġsi da
Ġsoci o
Ġtravail lant
Ġrel Ã¢
Ġdou ce
Ġouver tement
Ġcher chent
Ġcin Ã©
Ġsuiv ants
ature llement
Ġresta urer
ĠÃ©chapp er
Ġralenti ssement
Ġmerveille ux
Ġentrepren eurs
ĠSar kozy
j ac
ur g
Ġen le
Ġau da
ta teurs
mp ing
Ġav Ã©rÃ©
ĠM ich
ens itÃ©
Ġtou chÃ©
Ġdev ise
Ġexp osition
Ġpouv ions
ĠsÃ© cur
ĠD onc
dÃ© p
Ġeffe ctive
Ġtu Ã©
Ġheure usement
Ġrem ise
Ġindustri el
Ġconcep ts
Ġconser vation
Ġexis tait
Ġso laire
Ġdiver gences
Ġgro sse
Ġenj eu
ĠcomplÃ© ter
illa ges
ĠDÃ©pu tÃ©s
ĠsÃ©para tion
A ctuellement
l ut
Ġla iti
ro b
Ġb ac
Ġch anti
os Ã©
Ġca b
Ġal lusion
Ġmar quer
Ġemp re
Ġdemande urs
Ġsub i
ĠdÃ©fin is
ĠW e
Ġstructure lle
Ġhe ur
Ġtransf erts
Ġpotenti ellement
Ġemb al
Ġcorre ct
ĠÃ©tab lit
Ġatti re
Ġjudici eux
Ġpren ez
Ġimpor tation
Ġrent rer
Ġcorri ger
ĠforcÃ© ment
ĠVer h
Ġineff ica
ĠrÃ©da ction
H ier
N aturellement
d t
Ġpro long
Ġsur p
ĠM er
Ġr hÃ©
Ġdev ises
Ġent ou
Ġdi ox
ĠF is
ace u
Ġsav ait
ĠH usse
Ġvoter ons
Ġsouff rance
Ġminist Ã¨re
Ġsouv iens
Ġtransfrontali ers
ĠrÃ©pu tation
Ġpuiss ants
Ġinjus te
ĠfÃ©dÃ©ra le
Re garde
arm aceu
Ġchans on
ĠMolda vie
ĠrhÃ© t
d itÃ©s
l au
y n
Ġv entes
Ġpro cure
de au
Ġch au
ĠprÃ© d
ĠE C
oy ons
ĠgÃ©n oci
Ġmin es
Ġprof ite
ĠprÃ©sident e
Ġdou ze
Ã©d Ã©ration
ĠrÃ©un i
Ġfi ables
ĠcompÃ©ti tive
Ġus ine
Ġfig urent
Ġappu y
Ġlour de
Ġobliga toires
ĠdÃ©pass er
ĠisraÃ©li en
Ġgrec que
ĠPour quoi
Ġvendre di
Ġenj eux
Ġsugges tions
ĠdÃ©barra sser
ĠGen Ã¨ve
Ġrecyc lage
Ġenver gure
Cont rairement
Ġfac ilitÃ©
rapp orteur
ĠHusse in
N E
k in
Ġle vÃ©e
Ġb elles
al l
Ġpl as
Ġann oncer
Ġconcer t
ĠR ob
Ġautre fois
Ġconstitu tionnelle
ĠK ong
Ġver re
Ġsuffis antes
Ġglob alement
Ġpotenti els
ĠindÃ©pend amment
Ġencourage ant
ĠAr genti
Ġvac c
Ġtur c
Ġsoum ises
pire r
Ġsit ue
Ġunani me
Ġ ombre
rÃ© g
ĠÃ© puis
ĠÃ© tiez
ta bil
ĠrÃ© tic
Ġch aud
ces seur
Ġimp ri
ĠA sh
ĠS tock
ĠdÃ©c entra
ĠcrÃ© ant
ĠH ol
Ġavan cÃ©
Ġouver ts
Ġcher chÃ©
ĠÃ©tudi Ã©
ĠprÃ©pa re
Ġitali enne
Ġsauve garde
ĠcomplÃ©ment aire
Ã©re mment
Ġfournis seurs
ĠextrÃ© mistes
ĠXX I
f our
Ġpa ges
Ġper ception
Ġann uelle
ĠprÃ©sent es
Ġparticuli Ã¨res
oli tique
Ġremar quÃ©
Ġgen res
ĠÃ©tabli es
Ġautoris Ã©
Ġtru cs
ĠÃ©pi dÃ©mie
ĠcrÃ©a tivitÃ©
Ġembar go
Ġaus tÃ©ritÃ©
Ġcuis ine
c tique
n iste
t y
x i
Ġl ob
Ġn oire
ĠrÃ© ve
Ġh ommage
Ġpr ouve
Ġtra gique
onn Ã©es
ĠÃ©c os
va ble
Ġco fin
Ġnom s
ĠF I
ĠF ra
nis tes
Ġva li
Ġinf Ã©rieur
ĠprÃ©v us
man che
Ġver te
Ġur gente
Ġpron oncÃ©
Ġambiti euse
Ġclassi que
ĠÃ©tonn ant
ĠGe orge
Ġvieil lissement
ĠGo ogle
Ġexplicite ment
Ġsty le
QuatriÃ¨me ment
U E
n alitÃ©
o raires
Ġl ance
in n
si ves
ĠdÃ© Ã§
op ie
ĠP o
ĠP er
Ġconc lus
Ġren f
Ġprogram mation
Ġbi oc
Ġpos Ã©es
Ġpoursui vi
ĠIs lam
Ġoppos ants
ĠIsra Ã©liens
Ġtradi tionnelle
Ġpartenari ats
ĠlÃ©gi times
ĠprÃ©pa rÃ©
Ġperman ence
Ġflexi ble
ĠdÃ©pass Ã©
Ġaj out
Ġapplic able
uk rain
ĠdÃ©ploy Ã©s
Ġhypoth Ã¨se
Ġfabric ants
k h
Ġ ukrain
or es
Ġpl ait
Ġai dÃ©
ĠA z
onne ments
ĠS an
Ġad met
Ġpers Ã©cu
ĠÃ©v Ã¨
Ġconcern Ã©
Ġatt endant
Ġgaranti ssant
ĠdÃ©pens Ã©
Ġfran chement
ĠÃ©lect rique
Ġhau ts
ĠinquiÃ© tant
Ġmari age
Ġjoue ts
Ġsup Ã©rie
Ġrepos er
Ġbreve t
Ġtru c
Ã©conom iques
ĠdÃ©ga ger
Ġlun di
b ra
Ġp Ã¢
Ġen nu
ĠdÃ© tes
Ġpar tant
Ġse rez
Ġres tÃ©
ler a
am en
ĠÃ©v olutions
Ġrep ous
Ġaugment ent
Ġbi zar
Ġlim itation
Ġexpri mÃ©s
ĠW i
ĠrÃ©pond ent
cri p
Ġposs Ã©d
Ġasi atiques
Ġnorm ale
Ġappu ie
ĠÃ©quival ent
Veu illez
I mag
b o
h ol
ent re
Ġcomp osition
che z
ĠPar ce
Ġann onc
ĠG ali
Ġlib Ã©rer
Ġdemand ant
Ġappro ches
Ġsoi gne
Ġconsci ente
ĠlÃ©gisla tifs
Ġsuiv ie
Ġoccident al
Ġexcep tions
Ġquali fiÃ©s
Ġnour rir
Ġeng lob
Ġlet tres
Ġsup Ã©rieure
Ġplac Ã©
Ġemprun ter
Ġartis tes
ĠAus tra
Ġpluri ann
Ġbioc arb
P ensez
c ar
g ul
p rÃ©sent
Ġp eau
Ġde dans
au ca
Ġai mÃ©
ten ue
Ġparti ellement
Ãªte ments
Ġgra vement
Ġimpli quant
Ġrespec tÃ©s
Ġlo gement
Ġsuper vision
Ġdiploma tiques
ĠdÃ©pla cer
Ġintellig ent
Ġrejoin t
ĠAra bie
Ġentam Ã©
ĠboÃ® te
Ġc lub
ra bles
Ġpu re
Ġdiff Ã©remment
Que ls
Ã©nÃ© g
Ġ199 2
Ġrend ue
Ġconsul tations
Ġminim ales
Ġfru it
Ġfilm s
Ġvisi ble
Ġinterven ants
Ġirak ien
Ġautoma tiquement
ĠOS CE
f Ã©rer
u alitÃ©
ĠÃ© met
Ġin quie
Ġj oie
ĠrÃ© ac
Ġal lÃ©s
Ġess ai
Ġmal heure
ĠH aÃ¯
Ġpass Ã©s
ĠamÃ©li orÃ©
Ġbi ologiques
Ġcommerci alisation
Ġmod alitÃ©s
Ġassur Ã©
ĠrÃ©jou ir
Ġsim ultan
Ġautom obil
Ġtax ation
Ġul tÃ©rieure
Ġdon ateurs
ĠnÃ©gli ge
ĠAlb anie
ĠArgenti ne
I C
b ol
Ġc ite
Ġc lon
Ġun ie
ĠdÃ© ser
ch nolo
Ġcons ister
Ã©ra p
vi demment
ct ent
ĠT im
ĠH U
Ġatt endu
Ġmi gration
ĠdÃ©fin it
Ġdou lou
ĠÃ©lect riques
ĠinquiÃ© ter
Ġcal me
Ġbou le
ĠÃ©vent ail
Ġpous se
Ġquit tÃ©
Ġstock age
Ġafric aine
Ġambass ade
ĠÃ©lÃ¨ ves
f a
i ge
ti ge
Ġs ombre
ta ri
res sent
Ġb ille
ĠrÃ© elles
ens er
ĠE l
Ġsou la
Ã©r ents
Ġcer titude
Ġbeau tÃ©
ĠJ o
tri ces
Ġpass Ã©es
Ġindi ff
ĠprÃ©c aution
ĠdÃ©ci d
Ġche veux
Ġdo ter
Ġfra g
ĠdÃ©fense urs
Ġriches ses
Ġquali fications
Ġoffici ellement
ĠirrÃ© gul
ĠmÃ©dic aux
Ġcens ure
europÃ© ens
ĠmÃ©pr is
Ġformida ble
t ance
in Ã©e
Ġm Ã¨res
ĠÃ© b
Ã¨ vre
Ġpour par
Ġpl a
Ġex haus
ĠP ol
Ġr ues
Ġcomp tent
at oire
ag o
alis Ã©es
anis me
vÃ© ni
Ġexpri mÃ©e
Ġcomprom et
ĠbÃ©nÃ©fici Ã©
Ġrou m
ĠrÃ©a gi
ĠadÃ©qu ates
Ġstri cte
Ġanalys es
Ġdiminu Ã©
ĠcomprÃ©hen sible
Ġspe c
Ġincap able
Ġchale ur
ĠCong o
Ġperform ance
Ġfinance ments
Ġdiscrimin ations
ID A
Ġpourpar lers
R app
c isme
c oni
d en
k y
n ons
Ġ roi
Ġl ente
Ġc uri
Ġc lin
ta is
Ġin ad
ĠdÃ© loc
Ġb ris
ĠP E
Ġra tion
ort h
Ġan alo
Ġsou met
ĠB ara
Ġgar Ã§ons
ang ent
ĠamÃ©li orÃ©e
ali b
ĠprÃ©c ision
Ġvol er
ĠIn don
Ġcoord onnÃ©e
ĠprÃ©f Ã©rence
Ġprochaine ment
Ġconfront Ã©
ĠapprÃ©ci ation
Ġobli ger
Ġobli gÃ©
Ġpalestini ens
Ġpes tici
ĠdÃ©cri re
ĠÃ©cos yst
Ġbiocarb urants
o tiques
Ġp un
Ġla issent
ĠrÃ© or
al ise
Ġapp arition
Ġdi manche
Ġser ions
tr Ã¶
Ġinc onn
Ġinstitu tionnelles
ĠdÃ©fin ies
Ġsec ours
Ġimpos Ã©
Ġvit ale
ĠÃ©li min
ĠinÃ©v itablement
ĠCI G
ĠpÃ©r il
ĠcompÃ©tent es
trÃ¶ m
ĠÃ© lan
ri ers
que mment
Ġfa Ã§
Ġmo b
Ġmo tif
Ġar mÃ©es
Ġar bres
Ġam ie
Ġam Ã©n
ard in
ĠF a
ĠUE M
Ġconn aissez
Ġmi ra
Ġpens ait
ĠrÃ©un ir
Ġconcurr enti
Ġdispos Ã©s
ĠrÃ©v Ã¨le
ĠAn ge
Ġmention nÃ©s
Ġprofessionne l
Ġcontenu es
Ġoccu pÃ©
oud ite
ĠtÃ©lÃ©ph on
Ġinuti les
ĠÃ©volu Ã©
Ġcontraign ant
Ġgro sses
Ġsalu ons
Ġchem ins
Ġchauss ures
ĠDub lin
Ġspec tre
Ġs cep
an ou
Ġg Ã¨nes
ĠP at
Ġimp ulsion
Ġcont a
ĠB EI
ĠdÃ©p lore
Ġab ond
ĠO LAF
ĠÃ©v oque
ĠcrÃ© Ã©e
lo cu
ĠÃ©ch elon
Ġimpli quÃ©es
Ġdiri ger
Ġaider a
ĠextÃ© rieurs
Ġappor tÃ©es
Ġmaje ures
Ġiss us
Ġmach ines
ĠintÃ©ri m
Ġincl ut
Ġhongro ise
v ienne
Ġp iliers
Ġpa kistan
Ġv Ãªtements
Ġau rez
ve urs
Ġpar vient
Ġre dÃ©
Ġch ir
ut ri
Ġvou lions
ĠdÃ©p ense
Ġconn us
ĠtraitÃ© e
Ġfra gile
Ġcin quante
Ġapporter a
Ġautoris Ã©s
Ġcondam nation
Ġfaibles ses
Ġcarb urant
Ġaggra ver
Ġstu pi
Ġmonop ole
ĠtÃ©moi gne
Ġfla g
Ġdoig t
Ġmig rants
ĠrhÃ©t orique
g Ã¨ne
en de
Ġt angi
Ġb oire
au ts
Ġex h
Ġpr Ã´
ĠÃ©c ran
Ġman Åĵ
nation al
ĠH ar
tis Ã©
ĠK en
Ġas c
ĠdÃ©cisi ve
ĠÃ©p ous
Ġinv itÃ©s
ĠlÃ©gisla ture
ĠÃ©tabli e
Ġrend us
Ġdisposi tif
Ġeng endre
Ġmutu ellement
Ġgla ce
ĠtempÃ©ra ture
Ġem men
ĠprÃ©judi ce
hol m
alib ans
on ction
Ġs chÃ©
Ġf arde
ĠrÃ© alitÃ©s
Ġg agne
ĠC auca
ĠM i
ĠE lles
sident s
vi c
oc a
Ġco Ã¯n
Ġmet tons
ran ces
Ġinf e
Ġsous c
ĠV al
Ġbi o
ĠÃ©p au
Ġfav or
Ġexc uses
Ġinv itation
ĠarrÃª te
ĠprotÃ© ines
isse z
Ġven us
Ġhabit ant
Ġ198 9
Ġsatisfais ant
Ġperform ances
Ġspecta culaire
Ġgri ppe
ĠunilatÃ©ra le
Ġsembler ait
Ġmine urs
Ġincid ence
ĠÃ©pre uve
Ġprovis oire
Ġbille ts
ur Ã©s
op e
Ġdu rement
Ġfa usse
Ġil li
Ġne ur
at o
Ġins crire
Ġal arm
Ġmil lÃ©
Ġdiffi cilement
Ġcour ir
Ġvol s
Ġ4 5
Ġfra gment
ĠchÃ´ meurs
Ġk m
Ġexam ine
ĠmÃ©dica ment
Ġconform itÃ©
Ġdeme urent
Ġexamin ons
Ġmobil isation
Ġincroy ablement
Ġsent ent
ĠrÃ©cla me
ĠprÃ©sidenti elles
Ġenseign ants
Ġincon vÃ©ni
Ġaboli tion
ĠOC DE
Ġfan tas
ĠNo Ã«l
ĠparallÃ¨ le
Ġprouv Ã©
osc ou
Ġinad mis
ĠCauca se
d ite
m il
s en
ĠdÃ© tention
Ġg Ãª
Ġav ent
ter r
ĠÃ©c ras
Ġar ra
Ġvi endra
ĠrÃ©s ister
ĠO h
Ġren dement
ĠgÃ©n Ã©rer
Ġconf Ã©rences
ĠÃ©g yp
Ġenf re
Ġ3 7
ĠspÃ© cu
Ġtransp osition
Ġtent ent
Ġtravers er
Ġrou tiÃ¨re
Ġappar ten
ĠreÃ§ oit
Ġmari times
Ġimag ination
Ġacqu Ã©rir
Ġprofessionne lles
Ġtoi le
Ġraisonn ables
Ġintellig ente
Ġdy nam
Ġtur que
Ġdra matique
ĠmÃ©dic ale
Ġdiss ua
Ġaccompag ner
Ġsugges tion
Ġoptim iste
Ġportug aise
ĠmathÃ© matiques
ĠÃ©to iles
ĠAustra lie
ĠIndon Ã©sie
ne ls
ces sible
pe l
Ġcons istant
ĠE U
ĠnÃ© fas
Ġat om
age ment
Ġcompr enons
ĠrÃ©du its
Ġ3 2
Ġsigni fication
Ġvoy ager
Ġsus cite
ĠprotÃ© gÃ©s
Ġtradi tionnelles
ign ent
ĠaÃ©ri ens
Ġexpos Ã©s
ĠCa mb
Ġiran ien
ĠrÃ©mun Ã©ration
Ġanne xe
ĠcompÃ©t ente
Ġtexti le
Ġtremb lement
y de
an z
Ġen ra
ĠdÃ© rÃ©g
ter ie
ĠprÃ© mat
Ġsi Ã¨ges
Ġca m
ĠS IDA
ĠdÃ©c oura
Ġcommun isme
Ġtrans mission
Ġgouver ne
ĠN ouve
Ġmen tionne
tis sent
Ġdisc rÃ©
Ġnature ls
ĠtraitÃ© es
Ġstru ct
Ġmaj or
Ġobser ve
Ġaffir mation
ĠPa ci
ĠSch ul
ĠprÃ©ser vation
Tro is
Ġbal ance
Ġradic ale
ĠlimitÃ© es
Ġhi ver
ĠlittÃ©ra lement
arme ment
ĠColomb ie
Ã© taire
il lent
ĠÃ© ter
Ã¨ tent
ta tif
Ġcon cessions
ol y
ĠS al
ct orie
gu rer
ĠcrÃ© ent
Ġcha os
Ã¢ tre
Ġsui ci
Ġnota tion
Ġexc use
Ġfi d
ĠÃ©qui p
Ġconte mp
ĠÃ©lab or
Ġassur ances
ĠlÃ©g al
Ġimm unitÃ©
ĠÃ©quipe ment
ĠfrÃ© quemment
ĠÃ©chÃ© ant
Ġnorma lement
ĠgÃ©noci de
ĠStock holm
Ġf ar
Ġv ag
ta bilitÃ©
Ġb aiss
ĠP as
Ġtou chent
ois e
ite ment
Ġexp ress
ĠF R
Ġpremi Ã¨rement
Ġconstitu tionnelles
Ġindustri elles
Ġtradi tionnels
Ġconsul ter
ĠvÃ© tÃ©
Ġtran qu
ber g
ĠdÃ©termin Ã©e
Ġaffec ter
ĠAt lantique
Ġfen Ãªtre
Ġpestici des
V u
s un
Ġd in
Ġl istes
ta blement
li que
Ġin ti
Ġcom itÃ©s
Ġex act
ĠM oscou
ĠE x
Ã§ ait
ĠrÃ©p arer
ĠN Ã©
Ġfond Ã©es
ĠdÃ©s in
Ġph armaceu
Ġver ts
Ġimpli quÃ©
Ġven ait
ĠrÃ©jou issons
Ġsouff rances
Ġcontinu itÃ©
ĠdÃ©li cat
Ġcircons cription
Ġval oir
Ġappor tÃ©e
ĠdÃ©termin ant
Ġappare ils
ĠcoÃ»te ux
Ġincap ables
ĠsÃ©v Ã¨res
Ġfournit ure
ony me
ĠdÃ©cide urs
Ġcombin aison
Ġble u
ĠbrÃ¨ ve
Ġrivi Ã¨re
ĠHaÃ¯ ti
Ġ Å
Ġs phÃ¨re
ur a
Ġf oc
end rai
Ġcomm ises
Ġcomp orter
Ġal lu
isi bles
ose vic
Ġcla sses
Ġinc itations
Ġconstitu era
mis er
Ġlan cÃ©e
ĠJe an
Ġappel lent
Ġcoup ables
ha Ã¯
Ġentend ons
Ġappropri Ã©s
ĠdÃ©couver te
Ġpay Ã©
ĠcohÃ©r ent
ĠconsidÃ©rÃ© es
Ġapport ent
ola t
Ġdissi m
l d
y l
ĠÃ© lo
Ġb oute
ĠP aul
Ġar bre
Ġal lais
ĠL T
ĠdiffÃ©r enci
ĠCh ili
st an
ov is
Ġ199 3
Ġjuridique ment
Ġdispos Ã©e
Ġfi able
Ġmala des
Ġparfait e
Ġcontinu Ã©
Ġ25 0
Ġrati fier
ĠillÃ©g al
Ġcellu le
Ġvir tu
ĠMal te
Ġaudi ovis
Ġmodes te
ĠdÃ©bou cher
Ġsoigne usement
b Ã©ra
Ġc u
qu ants
us te
Ġin g
Ġpro vient
Ġne tte
di en
ĠM Ã©di
Ġconc ours
ĠS in
ĠO K
gu Ã©s
ĠF er
Ġri gi
Ġenf ance
Ġmi di
ĠbÃ©nÃ©fi que
Ġimpli quent
Ġinv o
Ġdispos Ã©
ĠrÃ©glement er
Ġadminist rations
Ġcontinuer ons
Ġmu si
Ġtomb Ã©
Ġexpos er
Ġappara issent
Ġrequ Ãªte
Ġfos siles
ĠBi Ã©lor
Ġmorce au
ĠSchul z
j a
ti ver
Ġv Åĵ
Ġre gistre
Ġav orte
Ġad ore
Ġjus que
ĠF or
ĠN or
Ġsouti endra
ĠK re
Ġgra ph
ĠÃ©qu itables
Ġpublique ment
ĠÃ©che cs
Ġpi ra
Ġfrapp e
ĠpropriÃ© taires
Ġhoriz ont
Ġmuni cip
Ġfarde au
Ġinti mi
e usement
Ġd or
our ce
Ġg oÃ»t
Ġmo teurs
Ġcons e
ĠB ang
ĠS w
Ġcommun istes
ĠR o
Ġtrans met
Ġjus tes
Ġrec ouv
Ġrec ord
Ġren dez
ĠG ar
Ġrem ont
Ġges te
Ġtranspar ent
Ġconfront ation
Ġinten se
Ġpous sÃ©
ĠdÃ©rou le
Ġinsuff isant
ĠinÃ©g alitÃ©
Ġcl os
ĠNiger ia
ĠXXI e
crip tions
ĠirrÃ©gul aritÃ©s
g an
Ġla Ã¯
Ġf lÃ©
ta ux
Ġpar ent
ĠC ali
Ġdi c
Ġper mette
Ġad oles
ct oires
ĠdÃ©m ant
Ġti enne
ĠN ob
ĠL an
ĠreprÃ©sent Ã©
Ġplu ie
ĠÃ©ch o
ĠnÃ©goci Ã©
ĠprÃ©v al
ĠÃ©t ouff
Ġorient al
Ġappar u
Ġcompa rer
Ġdistin guer
ĠreflÃ¨ tent
Ġuniverse lle
Ġwe ek
Ġavoc ats
Ġindem nis
Ġlinguis tique
ĠPaci fique
A l
m ise
Ġin je
ar s
Ġpro xim
Ġdu mping
Ġfa ille
di ons
ĠprÃ© dÃ©
Ġparti cipe
Ġparticu les
Ġnation alisme
Ġ19 5
ĠdÃ©s armement
Ġpara llÃ¨lement
ay e
ĠrÃ©c lam
Ġouver tes
Ġmodi fiÃ©s
Ġentra ver
Ġfi ers
lin ton
Ġrou tier
ĠgÃ© op
ĠrÃ©flex ions
ĠprÃ©t endre
ote chnolo
Ġdesc end
Ġinfra ctions
Ġpoursu ites
Ġexter nes
Ġenregist rÃ©
ĠdÃ©ri vÃ©s
Ġramen er
ĠmÃ©l ange
ĠDar four
ĠInstitu t
T rÃ¨s
n an
z i
z Ã©g
Ġd orm
on tiers
Ġt ardi
Ġpro lifÃ©ration
Ġo x
Ġca cher
Ġent rÃ©
Ġou est
ab it
Ġins tances
Ġvi abilitÃ©
Ġdiff us
ĠT e
Ġri gueur
ĠdÃ©f ait
ĠdÃ©f auts
Ġaccep tÃ©e
Ġprog ression
Ġress ource
Ġvol ontiers
Ġfu ite
ĠdÃ©termin Ã©
Ġtol Ã©rer
Ġtermin Ã©e
ĠTh e
pro du
ĠcÃ©rÃ© ales
Ġiden tique
Ġambigu Ã¯
Ġrub rique
Ġproxim itÃ©
zÃ©g ovine
en sive
on ale
it ch
Ġpar lait
Ġj ardin
ci ens
Ġcomm ande
iss es
ĠS K
Ġal lÃ©e
ĠrÃ©s olue
Ġman quÃ©
as sent
ca lement
ĠrÃ©p ara
Ġinc itation
Ġinf ir
th Ã¨se
ĠdÃ©s tabil
Ġfonction nÃ©
Ġchar gÃ©e
Ġcontinuer ont
Ġret omb
Ġoblig Ã©s
Ġassoci Ã©
Ġoppos ent
Ġbou che
ĠpÃ©n urie
Ġstri ctement
ĠÃ©l ite
Ġallemand s
Ġcaus Ã©
Ġaudi tion
Ġsti pule
ĠMil osevic
Ar rÃª
Ġoctro yer
D urant
c al
k ov
p our
t hÃ©
u f
Ġd ents
Ġe ut
Ġn Ã´tre
le o
Ġil lusion
Ġre tenir
la teur
ĠA ss
Ġad mi
Ġman quent
ĠmÃ© cont
Ġpubli er
Ġmainten u
ĠÃ©qui pes
ĠintÃ©ress Ã©s
Ġ9 5
ĠdÃ©fini tif
Ġven ant
ĠMa rie
Ġus ines
ĠapprÃ©ci Ã©
visi ons
Ġsex es
Ġformul Ã©
ĠrÃ©ta blissement
Ġarme ment
Ġexplo sion
Ġsoup les
ĠÃ©radi quer
Ġincen dies
ĠattÃ© n
NE W
Ġexpress Ã©ment
ĠCali for
ĠdÃ©mant Ã¨lement
D em
k s
w a
ou x
Ġqu art
ĠÃ Ģ
ĠdÃ© tenus
Ġne ige
Ġac cessible
Ġh aine
Ã¨s es
Ġan tÃ©
ĠA lors
Ġpu issante
ag Ã©
Ġins ul
ĠB o
Ġal lÃ©g
ĠdÃ©p ression
Ġdisp rop
ĠlÃ© gu
Ġconn ues
Ġpersonne ls
Ġabs olu
Ġpor table
ĠcompÃ©ti tion
Ġsan itaires
Ġoccident ales
Ġobli ge
ĠÃ©vent uelles
ĠdÃ©mar ches
Ġlour ds
Ġcouver t
Ġfabri quer
Ġpersonn alitÃ©
Ġviv ants
ĠTi bet
ĠdÃ©l oy
Ġvola ti
ĠNob el
Ġdisprop or
F ace
Ã© le
Ġp ires
Ġs tÃ©
ur des
Ġt un
Ġj ur
Ġcon g
ĠC linton
Ġex cÃ¨s
Ãª tres
ie t
Ġtra Ã®
Ġass oup
ĠD u
Ġbi otechnolo
Ġsign aux
Ġfam ine
Ġcoup s
Ġregard Ã©
Ġatti rÃ©
Ġacqu isi
Ġparagraph es
Ġrempla cement
ĠcÃ© der
ĠfÃ©dÃ©ra l
Ġsubstanti elle
Ġstu pÃ©
Ġphysi ques
1 0
l ys
us sie
res sions
ne lles
Ġex erce
ĠprÃ© par
Ġtra verse
Ġcont enir
ĠA pp
Ġvo let
Ġni er
Ġrais onnement
Ġmis Ã¨re
ron ique
Ġinn o
ĠlÃ©g Ã¨re
Ġordin aire
ĠMar tin
Ġoffici el
Ġoffici elles
ĠdÃ©velopp Ã©e
Ġoccup ent
Ġinstal ler
Ġrappro chement
ĠisraÃ©li enne
Ġinsuffis ante
Ġdispar itÃ©s
Ġsymp athie
ĠDa vid
Ġsoud aine
Ġiden tiques
Ġautrich ienne
ĠDÃ©m ocrates
ĠrÃ©cupÃ© rer
ĠPÃ© kin
S u
Ġ âĢĻ
te in
Ġau dit
ne y
Ġch angent
mi de
tin s
Ġop Ã©rer
Ġcla uses
ĠK ara
Ġenf er
Ã©rÃ© ment
Ġindustri alisÃ©s
Ġbou ger
Ġbou lot
Ġparle z
Ġindivid uelle
Ġsecond aire
Ġlour d
ĠAL DE
ĠprÃ©sidenti elle
Ġopti misme
ĠagrÃ© able
Ġaspi rations
ĠrÃ©su mer
ĠdÃ©cisionne l
Ġrat tra
Ġmagas in
ĠAsh ton
ĠBiÃ©lor ussie
p ture
z a
Ġp ur
ch en
Ġg l
Ġg are
ĠC omme
Ġi ra
Ġmin uti
Ġmal ent
Ġvie illes
Ġfer mÃ©
ĠreprÃ©sent a
Par fois
Ġsui vent
ĠspÃ© culation
Ġmodi fiÃ©e
Ġpropre ment
Ġporte feu
Ġtrouv Ã©e
Ġpoursui vent
ĠprÃ©occup Ã©s
Ġprov iennent
Ġaband onnÃ©
Ġapprouv Ã©e
ĠphÃ©nom Ã¨nes
Ġbureaucra tique
Ġul time
Ġfas cin
ĠdÃ©cou le
Ġmaga z
Ġprogress Ã©
Ġridi cule
ĠxÃ©nophob ie
Imag inez
C a
t raient
er tes
Ġm yth
Ġf ili
Ġen va
ta les
ta ins
ĠdÃ© lÃ©
eu gen
Ġins Ã©curitÃ©
Ġco ex
ĠS E
ĠdÃ©c lar
Ġann uels
tin g
ĠCh ar
Ġfer ais
Ġabs tenir
ron te
ĠAf ric
Ġencoura gÃ©
Ġrev ue
Ġidenti fication
Ġquali fiÃ©
Ġsoule vÃ©es
Ġinaccep tables
ĠdÃ©velopp Ã©es
Ġaf ghan
Ġesc omp
Ġretrait es
ĠaÃ©rop ort
Ġenne mis
ĠdÃ©rog ation
ĠVerh eugen
Ġautomobil es
ĠMÃ©di ateur
B re
I E
j an
k el
y o
Ġc itÃ©
Ġin se
Ġpar lant
Ġfa cul
Ġcont enant
Le urs
Ġsa che
at oires
Ġal laient
ose x
ĠO s
ĠG al
Ġju gÃ©
rÃ©s or
Ġbas Ã©es
ĠfÃ©lic itons
ĠÃ©t endu
ĠLe t
Ġpasser a
ĠrÃ©ser vÃ©
Ġdess in
Ġsan itaire
Ġfu mer
ĠvÃ© lo
Ġexemp tion
Ġrenouve lable
Ġstri ct
Ãī videmment
ĠvÃ©ri fication
ĠÃ©th iques
Ġsymb ole
ĠchaÃ® nes
Ġsymp t
Ġhoriz on
Ġpriva tisation
ĠCalifor nie
Ġa lig
Ġn ager
Ġla issant
ĠÃ ĩa
Ġf e
Ġin cident
Ġfa me
Ġse mestre
di r
Ġtou chÃ©es
ĠB ritan
Ġfor ment
Ġrep ort
Ġadop tant
Ġva riÃ©
Ġinstitu tionnels
ĠrÃ©alis Ã©e
Ġprom ette
Ġpris ons
Ġaction naires
ĠÃ©qu itÃ©
Ġvoy ages
Ġrespect ant
Ġvolont aires
Ġora le
ĠdÃ©li v
Ġterre ur
Ġjoue urs
Ġpopu laires
ĠdÃ©pla ce
Ch ers
ĠrÃ©vÃ© ler
Ġaccus ations
Ġcompens er
Ġflo t
Pr enons
ĠÃ©tablis sements
Ġreconnais sent
Ġassassin at
fini ment
Ġcam Ã©ra
m s
es sion
Ġb or
Ġg ala
Ġcon gÃ©
Ġcon tiennent
de ur
ĠP D
ĠP ES
ĠM us
Ġpays age
Ġdire ctes
Ġag issent
ĠsÃ© qu
ĠprÃ©sent ant
ĠD el
ĠnÃ©cess iter
Ġrep as
Ġaucun s
ĠJ a
ĠJ our
Ġdemande z
Ġaccep tables
ĠrÃ©alis Ã©es
ĠprÃ©v oient
yp ri
ĠÃ¢ me
ĠintÃ©g rÃ©s
Ġemb ry
Ġharmon ie
Ġparven ue
Ġsuper fici
ĠhÃ© ros
Ġcrain dre
Ġ197 0
Seu le
Ġliqui ditÃ©s
ĠdÃ©ses p
Ġconten us
rom pu
Ġquar tier
ĠSol ana
Ġennu y
Ġox y
Ġdispropor tion
S ous
e aux
Ġd Ã®ner
ti enne
or tÃ©s
Ġca th
and es
Ġcont our
ĠdÃ©p endra
ĠR oth
Ġcha mps
Ġbi ologie
ĠdÃ©fin ie
Ġjusti fication
Ġfi ctifs
ĠÃ©tudi e
mon ie
Ġfavora blement
ĠMar y
Ġfourn issent
ĠdÃ©tru it
ĠvÃ©hicu le
ĠrÃ©fÃ©rendum s
Ġaffai blir
Ġenvisag Ã©
Ġautonom e
ĠocÃ© ans
Ġfonde ments
Ã³ n
ĠGol fe
ĠBara ck
ĠattÃ©n uer
C in
a tre
m o
Ġ oly
Ġs omb
our ant
ol f
Ãª tement
Ġcons tant
Ġent rent
Ġprob abilitÃ©
um Ã©e
Ġesp aces
ĠG UE
Ġaff ich
ĠÃ©conomique ment
Ġaccep tent
Ġaccep tation
Ġnor di
Ġfi gurer
Ġ6 5
Ġespr its
Ġoubli e
Ġexist ante
Ġarriver a
Ġsoule vÃ©e
Ġoffici els
ĠÃ©lectora l
Ġaccus Ã©
ĠhÃ´ tel
Ġaffec tÃ©s
ĠmÃ©dic al
ĠrÃ©di ger
Ġhom osex
Ġconjoin tement
Ġcriti quer
dÃ©m ocra
Ġavoc at
ĠperpÃ© tu
Ġinadmis sible
Ġoly mp
o Ã¯s
r ise
u laire
Ġl Ã¢
is ti
Ġm ous
ri ra
Ġb ra
ch ait
Ġvi gou
Ġper dent
ĠintÃ© resser
Ġaccord ent
Ġim min
Ġci ga
ez bol
ĠH ezbol
Ġappr end
Ġju ges
Ġcommen Ã§ons
Ġchi ens
Ġcoup able
Ġprofes seurs
Ġcandida ture
Ġmanifes tation
Ġprov oque
ĠlÃ©g ales
Ġasi atique
ĠidÃ© ologique
ĠillÃ©g aux
Ġred ist
Ġvac cin
ĠhÃ´pit aux
ĠmÃ©diterranÃ© enne
ĠÃīc osse
omali e
Ġdiox yde
Ġbizar re
Ġgala x
ĠHezbol lah
e v
g rÃ©s
m Ã¨tres
en cer
our v
Ġin grÃ©
Ġne t
and er
Ġdi rait
va toire
ĠS ta
ĠS anter
ĠdÃ©p ourv
ĠF ed
Ġcar dia
Pour riez
Ġfond ations
Ġris quer
Ġnu llement
Ġoff res
Ġ199 1
Ġatta che
Ġth Ã©rap
Ġeffectu Ã©s
atri ce
ĠÃ©mer ge
Ġcarb urants
Ġmaxim ale
ĠMon ti
ĠdÃ©l its
Ġprot Ã¨ge
Ġlabora toire
Ġbiblioth Ã¨que
ĠGali leo
ĠingrÃ© di
i de
o lement
Ġt ac
Ġen veloppe
Ġb ai
Ġb ombe
oi ement
Ġse ctorie
Ġacc ue
ac te
Ġinter pr
ĠS ain
ĠÂ °
Ã® tra
ĠN a
ĠdÃ©f endu
ĠrÃ©du isant
Ġpass ait
Ġinitia lement
ot hÃ©
ĠindÃ© ni
Ġexc lus
Ġrespec tÃ©es
Ġoppos Ã©e
Ġjourn aliste
Ġsol s
ĠMa h
Ġmus Ã©e
Ġrele vant
ĠPro che
Ġcerve aux
ĠrÃª ves
Ġjapon aise
Ġpropag ande
Ġlogici els
ĠÃ©tabl issant
Ġparviend rons
ĠFis ch
Ġfavor ise
en dez
in ture
ĠdÃ© du
Ġg rÃ©
ĠP ap
Ġres tant
Ã´ les
ĠB ol
lis tes
ĠrÃ©p ar
ĠprÃ©sent era
form Ã©ment
ĠH ist
ĠÃ©ner gique
Ġprof il
vÃ© nie
Ġta p
Ġextr Ãªmes
ĠdÃ©fini tivement
Ġmanifes ter
ĠAl g
Ġsix iÃ¨me
Ġdimin ue
Ġexcep tionnelle
Ġparta gÃ©
ĠprÃ©para tifs
Ġvas tes
ĠInter national
Ġoccup Ã©s
Ġprosp Ã¨re
Ġcontraign ante
ĠSlo vÃ©nie
Ġgri mp
ĠsuggÃ© rÃ©
Ġhongro is
Ġplas tique
Ġavorte ment
ĠlÃ©gu mes
A c
C O
c ence
l ante
w n
Ġa is
Ġa xe
Ġc ub
Ġt sun
il lement
Ġcon former
Ġra vie
ĠprÃ© co
ait es
ai wan
ĠB ien
ĠrÃ©s olument
Ġtrans nation
gn Ã©s
Ġprodu ite
ĠmÃ© fi
ĠnÃ©cess itent
ĠÃ©le ver
Ġmin or
Ġcomment er
Ġiniti al
ĠspÃ©ci fic
Ġver rez
ĠcÃ´ tes
Ġlar ges
Ġche val
Ġexc user
Ġdiri gÃ©
Ġmer cre
Ġrencont rÃ©s
ĠgÃ© ni
Ã©v alu
Ġreje tÃ©e
ĠEst onie
Ġreligi ons
Ġfr Ã¨res
Ġtyp ique
Ġfou le
Ã¡ n
Ġblo quer
ĠpÃª cher
Ġsatell ite
ĠdÃ©lica te
ĠingÃ©nie urs
Regarde z
Ġmercre di
c tÃ©s
in aires
ra d
li ers
Ġb ovine
Ġai gu
Ġman gÃ©
Ġri v
Ġnu ire
ĠspÃ©ci aux
Ġrem onte
Ġjusti fiÃ©e
Ġchi mique
Ġfran c
Ġfi Ã¨vre
ĠintÃ©ress Ã©
ĠlibÃ©ra le
ĠvÃ© gÃ©
Ġemploy er
Ġrequ is
ĠdÃ©lÃ©g ations
Ġnavi gation
Ġcontrain ts
Ġisla mistes
Ġressemb ler
Ġexter ne
Ġrob ot
Ġrom an
ĠÃ©radi cation
Ġpersua dÃ©
ĠÃ©quiv oque
Ġnav ire
Ġcofin ancement
ĠPat ten
ĠmillÃ© naire
G L
a taires
d enti
d ox
g re
Ġ $
Ġ roy
ro v
ĠdÃ© Ã§u
ĠrÃ© itÃ©
Ġg am
tu me
ol Ã©e
Ġsou ches
Ġcer ti
ĠR E
Ġass istons
ĠG ro
Ġmont rant
Ġsouhait s
Ġatt ribuer
Ġaccep tÃ©s
ĠrÃ©alis tes
Ġjusti fiÃ©
Ġtrouv ait
ĠdÃ©mocratique ment
Ġrencont rent
Ġhui le
Ġindivid uelles
Ġlongue ur
Ġaband on
Ġrestri ction
Ġmenac Ã©s
Ġcaus Ã©s
Ġint Ã¨g
Ġpertin entes
ĠÃ©chou er
Ġattribu tion
ok yo
Ġtransit oire
Ġclandes tine
Ġaccessi bles
Ġsonda ges
inn ock
ĠdÃ©fait e
Ġinfir mi
D R
E s
f ord
l ins
Â ´
Ġp Ã©nÃ©
is on
is tÃ©ri
ĠdÃ© val
ter ing
ul ture
Ġdi ction
Ġexp ul
Ġexp erti
Ġfor es
ĠT rans
ĠsÃ© cher
ĠN GL
ĠH els
ĠK innock
Ġpens aient
Ġaccomp agne
Ġsus pens
Ġvoter ai
Ġaffir ment
Ġajou tÃ©
Ġanti bi
Ġtemp Ãªte
Ġsensi blement
Ġafric ain
Ġpertin ente
Ġagi ra
Ġtox iques
Ġcraign ent
chen ko
Ġexperti se
D Ã©s
c onne
k er
r en
ou n
is sions
in ki
Ġv et
ĠE h
iss ants
Ġconc rÃ©
Ġtrans europÃ©ens
gn ent
Ġsta tion
ĠJ ac
Ġindi en
Ġpres s
Ġ4 2
Ġobser vÃ©
Ġpasse p
Ġhabit uellement
Ġrecommand er
Ġcontinu ons
Ġbre fs
ĠdÃ©pla cement
Ġcontrain t
ĠbilatÃ©ra les
Ġconjoin te
Ġradio a
Ġdouani Ã¨re
ĠÃ©mo tions
Ġflu ctu
ĠÃ©vÃ¨ nements
ĠFisch ler
b Ã©s
o tique
v o
on f
ĠC entre
Ġh Ã¢
Ġapp laud
Ġsa chant
Ã´ mes
va bilitÃ©
at om
oy ers
Ġaur iez
ĠJ u
Ġver rons
ĠW h
Ġconcurr ents
ĠLe h
Ġsouten us
Ġconsac rÃ©e
ĠÃ©mer gentes
Ġexcell ence
Ġsauve gard
Ġsusp ension
ĠindÃ©pendant es
Ġtari f
ĠreflÃ© ter
Ġfati guÃ©
Ġtromp er
Ġirrespons able
Ġende ttement
tari at
ĠHist oire
c an
e ments
f t
g eux
Ġ orth
Ġa ille
Ġv rais
Ġv illages
Ãª ter
ĠM ed
ai es
ĠA d
Ġpays ans
Ġal g
Ġconcer tation
Ġmet tra
Ġ3 6
Ġaccep tons
Ġtour nant
ob o
Ġessay e
ĠrÃ©v ol
Ġsouten ant
Ġ201 5
Ġaimer ions
Ġtransf Ã©rer
ĠprÃ©f Ã©rences
Ġcompa rÃ©
Ġreti rÃ©
ĠrÃ©fÃ©r ences
Ġrequ ises
Ġcroy ez
Ġcouver ts
Ġradic aux
ĠbÃ© tail
Ġsymb olique
Ġterri bles
mbour ge
Ġallou Ã©s
ĠhonnÃªte tÃ©
ĠÃ©chÃ© ance
Ġincomp rÃ©hen
Ġcompati ble
Ġfre in
Ġapprofondi r
Ġplur alisme
Ġintitu lÃ©
ĠMad rid
Ġbac tÃ©ri
Ġmalheure ux
Bre f
ĠLet ton
ĠHels inki
c ales
ti ser
Ġf leurs
Ã¨ ques
ĠC es
di tion
ĠP la
ouv ons
Ġdev ais
Ġtra h
ĠB Ã¶
ist ants
ĠT okyo
ĠcrÃ© Ã©s
Ġesp Ã©rance
Ġmin istÃ©ri
Ġtu Ã©s
Ġenga gÃ©es
Ġuni fication
Ġoff ert
ari a
Ġpara dis
Ġsec rets
Ġdou ter
Ġradi calement
ĠlÃ©gi fÃ©rer
Ġbar re
Ġsensi bilitÃ©
ĠdÃ©mont rent
ĠopÃ©ration nel
Ġsatisfait e
Ġmassi f
rog Ã¨ne
Ġcesse z
Ġlab el
ĠrÃ©cla mer
Ġaci er
Ġsusc iter
ĠdÃ©favoris Ã©es
Ġcab ine
ĠflÃ© au
Ġvet o
ĠLetton ie
n ait
Ġn oci
Ġt ue
ro ir
Ġin app
Ġj a
ci euses
Ġb eaux
Ġac tives
Ġan Ã©
for mes
Ġinter f
Ġinter conne
co le
Ġenv oie
ĠL ou
Ġconf ond
anti l
Ġpropos ent
ĠâĢ ¦
ĠK al
Ġsais on
et tes
ĠrÃ©un is
Ġsuffis ants
ĠintÃ©ress ants
ass er
Ġdisponi bilitÃ©
Ġgu ise
Ġcorrespond ent
Ġpati ence
Ġrac ines
Ġlour des
ĠsuggÃ© rer
ĠdÃ©gra dation
Ġlinguis tiques
Ġinva sion
Ġenti tÃ©
Ġsensibil isation
Ġhorri ble
ĠdÃ©taill Ã©es
Ġvag ues
B R
L E
b ul
c om
o du
Ġd us
Ġa qu
Ġn Ã©e
Ġun itÃ©s
Ġb oit
Ġcon j
ĠC D
ff e
Ġdi visions
Ã´ me
co fin
dÃ© qu
Ġrep orter
Ġobje ctions
ĠCh ris
ĠH e
th i
Ġabord Ã©s
ĠsÃ» res
ĠspÃ©ci alistes
Ġlim itÃ©s
Ġconstru cteurs
Ġcli ent
Ġconfi denti
Ġ6 00
Ġis olement
Ġpi Ã©
ĠcompÃ©ti tifs
Ġadap tÃ©e
ĠgÃ© ographiques
Ġcou che
Ġretar der
ĠdÃ©pos er
Ġcolle ctif
Ġretr ouvent
Ġparven ons
Ġrequ ise
Ġrecons tru
Ġplai de
Ġfamili ale
Ġexplo rer
Ġautor ise
Ġstabil iser
ĠdÃ©sÃ©quili bre
Ġmotiv ation
Ġdoc tr
ĠBro k
ĠrÃ©vis er
ĠSec rÃ©
ĠÃ©man ant
Ġina dÃ©qu
Ġdiagnosti c
Ġclon age
S in
f u
t o
Ġl y
ar isation
ga be
che t
ĠsÃ© du
ĠdÃ©m ons
Ġcol oni
Ġappli cations
Ġindi cations
ris ie
Ġten nis
Ġexpl osi
ĠAllem ands
Ġsouff ert
ĠÃ©vent uels
Ġconsac rÃ©s
ĠexÃ©cu tif
Ġsp ir
ĠrÃ©pÃ© tÃ©
Ġintellig ents
Ġreconnaiss ons
ĠrÃ©pu blique
Ġradic al
Ġcontraign antes
Ġresta urant
ĠentraÃ®ner a
ĠdÃ©cou lent
ĠsÃ©v Ã¨re
Ġsil enci
ĠmultilatÃ©ra l
Ġpolici Ã¨re
Ġtari fs
Ġarres tation
Ã©nÃ©g ro
ĠCamb od
Ġcontemp ora
ĠambiguÃ¯ tÃ©
E sp
c ale
m lin
Ġc ents
Ġde grÃ©s
Ġf oyers
que ment
eu tiques
Ġai dent
Ġcons eiller
Ġconc ilier
onne z
Ġob tient
Ġam ou
ise mb
Ġvo tons
pi ra
mÃ© tri
Ġcor romp
Ġsub issent
Ġpres tations
Ġph ras
ĠÃ©ch antil
Ġcour ants
Ġ4 8
fait s
Ġtranspar entes
Ġsus pe
Ġcondu cteurs
Ġsau vages
ĠempÃª chÃ©
ĠpÃ©n ales
ck er
ĠdÃ©tail lÃ©
ĠdÃ©n oncer
ĠinterprÃ© ter
Ġcoura geux
Personne llement
Ġcontrain te
Ġferrovi aires
Ġrenv oy
Ġinspe ctions
ĠintÃ©grÃ© es
Ġmeur tre
ĠrevÃª tent
Ġluxe mbourge
Ġrenseig nements
ĠcinÃ© ma
Ġcuri eux
er ont
Ġqu alitÃ©s
Ġm enti
Ġpa th
or ent
ation al
Ġpour rez
Ġdu rer
Ġpo table
Ġav al
Ġav ancement
Ġdi lem
ĠE gypte
Ġeff orce
Ġfin landaise
ĠB ur
Ġcontre fa
ig ne
Ġfer mes
Ġoff rant
ĠV iet
ĠspÃ©ci ales
Ġimpos Ã©e
lus coni
Ġsuffis ent
Ġsemb lable
Ġassur Ã©e
Ġpotenti elle
ĠdÃ©pos Ã©es
Quel que
Ġfacil es
Ġsecond aires
Ġconvi endrait
Ġhyp othÃ©
Ġconstituer ait
Ġparc our
Ġajus tements
ĠprÃ©occu per
pro lifÃ©ration
Ġincomp ati
ĠSec onde
ĠgÃ¢ teau
Ġprag matique
Ġescla vage
Ġhypoc risie
ĠRob ert
Ġsimultan Ã©ment
ĠKre mlin
M e
P I
V ou
t end
Ġ w
Ġt oit
li ez
ar isme
Ġb ain
ĠrÃ© tro
Ġapp auv
Ġren de
ma d
Ġjou issent
Ġabs tenu
ĠV enez
Ġpara lys
Ġvais se
ĠprÃ©cis Ã©
Ġsemb lables
ĠcompÃ©ti tif
Ġ9 9
ĠdÃ» ment
ĠAn nÃ©e
Ġsour is
Ġimag ine
ĠthÃ© Ã¢tre
Ġparta gÃ©e
ĠbÃ¢ tir
Ġmonn aies
Ġst ress
Ġassu me
Ġtransfrontali Ã¨res
Ġpes er
Ġparc ourir
ĠprÃ©ju dici
Ġinspi ration
Ġenti tÃ©s
Ġcombusti bles
Ġchanti ers
Ġredist ribu
ĠAlg Ã©rie
Ġantibi otiques
D i
v ants
ci r
Ġg ig
Ġch ypri
Ġcont ente
Ġres ser
Ã©r ants
Ġdis e
Ġob tention
ĠdÃ©c oup
ĠT AC
ĠG i
Ġgouvernement ale
Ġfer mi
Ġplan Ã©taire
ĠV oici
ĠprÃ©v isible
Ġtransp orte
Ġinqui Ã¨tent
Ġappar ence
Ġindivid uellement
Ġbal ay
Ġprud ent
Ġprim aire
ĠisraÃ©li ens
Ġcompara ble
ĠnÃ©er landaise
Ġcontradi ctoires
Ġlob by
Ġdynam isme
P A
l issent
Ġp Ã¨se
or ons
ĠdÃ© ception
ĠrÃ© ins
Ġav er
tu i
ĠI N
ĠT rib
ĠF E
out ons
ĠH aye
ĠÃ©g ale
Ġpass ons
Ġcor p
ĠrÃ©sul tant
ĠdÃ©s ord
Ġoff ertes
Ġreconn ue
Ġbas er
Ġunivers itaire
Ġhon orables
ĠadÃ©qu ats
ĠÃ©lectora t
ĠcaractÃ©ris tique
Ġpaci fiques
Ġul tÃ©
Ġreprodu ire
Ġadress Ã©
Ġcl Ã´
Pr enez
Ġpil ote
ĠdÃ©lib Ã©rÃ©ment
ĠpÃ©troli ers
Ġaveu g
Ġscru tin
Ġmilit ants
Ġconvers ation
Ġprovin ce
ĠNouve lle
Ġdic tat
ĠBritan niques
G E
l Ã¢
s ons
Ġp and
Ġs oph
an ais
un n
Ġun ir
li Ã¨re
Ġj al
ĠP acte
os itÃ©
ĠM ED
ens Ã©
ĠS m
Ġal lon
ĠÃ©conom iser
Ġmar ins
Ġnation alitÃ©
Ġmen a
ĠH au
Ġva che
Ġfer aient
Ġba sse
Ġabord Ã©e
Ġban anes
Ġsy ner
Ġcoup er
Ġappar tenant
ĠÃ¢ gÃ©s
Ġrefus ent
Ġsoule vÃ©s
Ġsyn onyme
Ġneu tra
Ġpay Ã©s
Ġpes si
Ġplain te
Ġprivil Ã¨ge
Ġfamili ales
Ġchoc olat
Ġauto dÃ©
ĠdÃ©rog ations
ĠPh ili
Ġchir ur
ĠmanÅĵ uvre
ĠCambod ge
Ġphras es
N A
P rÃ©
f at
g me
h e
n o
t rai
u les
Ġd il
Ġp ommes
is ations
ur Ã©es
il lÃ©e
il lon
ĠdÃ© d
ar on
Ġch Ã¨re
os a
Ġr endra
Ġca deau
vi ce
Ġdis aient
ĠS ak
Ġfor cer
ver sement
Ġmain tient
ls on
Ġpe ines
Ġconcern Ã©e
ĠÃ©g aux
Ġrenfor Ã§ant
Ġtour n
Ġfra udes
Ġremp ortÃ©
Ġsep tiÃ¨me
Ġmanifes tants
ĠY OR
Ġbou c
Ġsouff le
Ġadap tÃ©
ĠÃ©m otion
Ġacqu ise
orique ment
ĠÃ©tro it
ĠÃ©vident es
Ġreti re
aÃ¯ d
ĠdÃ©termin Ã©s
ĠBer lusconi
Ġapprof ond
Ġaffe ctent
Ġcriti quÃ©
Ġchapit res
Ġspecta cle
europÃ© en
Ġcompara bles
ĠMc C
Ġengend rer
Ġconfor mes
Ġprolon ger
ĠdÃ©tÃ©ri oration
Ġsupr Ãªme
Ġjamb es
ĠMu gabe
Ġeffra y
ĠMer kel
ĠamÃ©n agement
Ġavent ure
ĠYOR K
D er
N i
T andis
a miner
c tÃ©es
d y
h Ã©r
l ux
Ã© tÃ©
re ur
is ait
Ġn ot
Ġn utri
om ph
Ġv ienne
Ġin cidents
ci o
ci en
ci ation
Ġb ulga
Ġg al
Ġch im
Ġr endant
ĠU S
el ons
ale m
iss aient
Ġins cri
ĠS p
ĠR a
Ġemp orter
ĠcrÃ© anci
ĠF ond
Ġobje ction
Ġri re
ĠdÃ©mocra te
Ġappli quÃ©s
Ġ3 3
Ġ5 5
Ġver ra
ot on
Ġsign ale
Ġintrodu ite
ĠdÃ©si gnÃ©
Ġemb lÃ©e
Ġquali fier
Ġposs ession
ĠÃ©li gi
Ġpol lue
Ġadministra tifs
ĠdÃ©pl oiement
Ġconvi ctions
Ġmenac Ã©
Ġtri omph
Ġpertin ent
Ġsoud ain
Ġinh abit
ĠprÃ©con ise
ĠmÃ¨ nent
ĠperpÃ© t
Ġaveu gle
Ġpertur b
ĠKen ya
ĠgÃ©op olitique
ronte x
ĠdÃ©sesp oir
Ġais Ã©ment
ĠprÃ©co ce
Esp Ã©rons
r Ã´
Ã© ros
Ġa ie
Ġa ssemb
Ġc enti
ti l
un g
res pect
Ġb la
ĠC is
Ġsur cro
Ġi di
ĠM ande
ĠprÃ© cieuse
Ġca che
onn ent
ĠS tre
Ġann on
ĠÃ©le veurs
ĠÃ©ch anger
Ġfais ais
Ġrapi ditÃ©
Ġvoter a
Ġcondam ne
Ġnour r
Ġmora toire
Ġami tiÃ©
ĠrÃ©gu lateurs
Ġhonn Ãªtes
ow ski
Ġsubs titu
Ġap ais
ĠGu ant
ĠÃ©car ts
Ġconnex ion
mpe re
Ġchu tÃ©
ĠallÃ©g ations
Ġtsun ami
Ġdiction naire
thi opie
ĠViet nam
Ġsoph isti
b out
v Ã¨ge
ti vÃ©
ri mination
Ġb ale
eu t
Ġtou chant
fi ce
Ġy ougosla
Ġar chi
ĠB ill
Ġmar in
ĠT aiwan
Ġdoi ve
ĠgÃ©n Ã¨re
rib lement
Ġnation alistes
Ġfinanci Ã¨rement
Ġvis er
Ġna val
Ġenga gent
Ġas p
ĠV ienne
Ġpara Ã®tre
Ġattein tes
Ġcan c
Ġdo tÃ©
Ġintrodu ites
Ġrepr end
Ġregard ons
ĠempÃª chent
Ġdist ances
Ġobs ol
Ġcou leurs
Ġtradi tionnel
Ġimag inez
vie w
Ġsuper f
Ġbal le
Ġmat ch
Ġressemb lent
Ġcontro verse
Ġbless Ã©s
Ġrevendi cations
Ġindire ctement
ĠTa mpere
Ġaverti ssement
Ġaper Ã§u
Ġcommet tre
Ġcolon ies
Ġpluriann uel
ĠTim or
ĠNor vÃ¨ge
Ġgig antes
' "
F aites
P ro
R este
S oyez
Ġd ite
Ã© der
Ã© lo
Ġf us
ro is
us alem
au f
ue la
ssi ons
ĠA SE
Ã©ra r
Ġinter vient
ĠO ff
ĠÃ©g lise
ĠrÃ©f Ã¨re
ĠbÃ©nÃ© v
Ġcontribu able
Ġforme lle
Ġasse oir
lan tation
Ġten sion
Ġdisposi tifs
Ġsol lic
Ġth on
Ġunivers itaires
Ġexemp laire
Ġimpression n
ĠGr oupe
ĠÃ©l ites
aÃ¯ wan
Ġaccueil li
Ġsignifica tifs
Ġexamin Ã©e
Ġtri p
Ġdra me
Ġcens Ã©
Ġincer titudes
Seu l
Ġinvent Ã©
Ġpsych ologique
Ġinterro ger
ĠrÃ©ex amen
Ġrembour sement
Ġsco laire
ĠintÃ©rim aire
ĠingrÃ©di ents
ĠmÃ©fi ance
E ss
g Ã¨nes
m us
o od
y an
Ġ Qui
is tence
Ġm our
Ġm ers
Ġm Ã¢
Ġpa tron
Ġpl omb
la ges
tu e
di ctions
Ġmon sieur
ĠA lex
ĠB our
Ġvi ole
Ġco tÃ©
ĠS omalie
Ġmar quÃ©e
Ġtrans forme
Ġcro Ã®tre
Ġmil ieux
ĠÃ©v olue
ĠD G
ĠN oire
Ġna z
Ġinf Ã©rie
Ġbi Ã¨re
Ġno tes
Ġchar gÃ©s
Ġsy ri
Ġ8 00
Ġfix Ã©es
Ġcondam nÃ©s
Ġexige ant
Ġisra Ã©lo
Ġterminer ai
erb aÃ¯d
AC H
ĠEur os
ĠsÃ©pa rÃ©
Ġaffai b
Ġfo lle
Ġanne x
Ġdesque ls
Ġdistor sions
ĠspÃ©cu la
erbaÃ¯d jan
b as
u ad
Ġde bout
er me
Ġla ment
un al
Ġen ca
ta teur
Ġre jets
Ġcon d
Ġch anter
ter ait
Ġh er
Ġtra itons
iss antes
Ġaut hen
Ġsa ge
Ã©r usalem
Ġam or
rais se
ĠdÃ©b lo
Ġfinan cÃ©
Ġlong s
Ġpara issent
Ġmis siles
Ġtour is
Ġcapit ales
Ġdemander ai
ĠÃ©n um
Ġsolid aire
Ġmanifes tÃ©
Ġadap tÃ©es
Ġgu Ã©r
Ġcompos ants
ĠdÃ©pla cÃ©es
Ġinstal lation
Ġatten tifs
Ġmenac ent
Puis que
Ã©m ie
Ġcontraign ants
Ġsusp endre
ĠGu inÃ©e
ĠTi mes
ĠextrÃ© misme
Ġpil otes
Ġliv rer
ĠmÃ©diterranÃ© en
Ġressenti r
ĠconÃ§ ue
Ġhi Ã©rar
Ġmens onge
Ġmette z
Ġtiss u
Ġappe lait
Ġacquisi tion
ĠSecrÃ© taire
9 9
H O
g s
g it
j ordanie
s ch
Ġp ond
Ġm Ãª
ch ose
Ġil lu
ĠM or
Ġo eil
mb res
Ġaut oc
Ġsa oudite
Ġdire cteurs
ĠÃ©conom iste
ĠdÃ©p endre
Ġter mine
ĠR ich
ĠdÃ©m ante
Ġemp i
Ġfinan cÃ©s
Ġcha peau
Ġvie ill
ĠreprÃ©sent ante
Ġinf li
Ã´t res
Ġban qui
ĠtÃ© moins
Ġstructure l
Ġemb ra
Ġconser vateur
Ġpren antes
ĠdÃ©rou lement
ĠillÃ©g ales
Ġru pture
Ġartis te
ĠdÃ©cou lant
Ġmodernis er
ĠAra fat
nier ie
Ġmotiv ations
Ġattent at
Ġportug ais
ĠrÃ©ex aminer
ĠPe ter
Ġapparten ance
ĠVenez uela
ĠTrib unal
ĠCis jordanie
O K
Ã© men
il er
Ġin co
Ġin tui
ci ent
Ġb ro
Ġch ante
ir ons
ĠM art
Ġh Ã©ro
Ġimp unitÃ©
ĠS L
Ġmes sieurs
ĠmÃ© tal
Ġdonn ons
ĠF ED
ĠL in
Ġsta bles
ĠK i
Ġsoi x
ĠcollÃ¨ ge
Ġ3 4
Ġopp ression
Ġappr ennent
ĠrÃ©alis ations
ĠarrÃª tÃ©s
ĠIs lande
Ġcommencer ai
ĠY Ã©men
ĠÃ©vent uel
Ġval oris
Ġapprouv ons
ĠdÃ©mar rer
Ġsouver ains
Ã©c la
Ġint ensitÃ©
Ġretra itÃ©s
Ġsinc Ã¨res
Ġenvisag Ã©e
Ġlic ence
ĠsecrÃ© tariat
Ġgui der
ĠnÃ©gli ger
Ġorigin al
ĠÃ©car ter
Ġslo va
Ġamus ant
Ġineffica ce
Ġfantas tique
Ġconse ill
ĠrÃ©para tion
ĠAfric ains
Ġaccue ille
Ġsurcro Ã®t
i ces
Ġl Ã¨
it z
Ġqu Ãªte
ĠÃ© ri
ci ence
Ġg ou
Ġg Ã©rÃ©
ĠC al
Ġne z
Ġse ction
Ġme ts
Ġtra itent
ĠA c
cu laires
Ġdire ctions
Ġab e
Ġab ri
lis Ã©es
ĠR Ã©s
ĠrÃ©p res
Ġpri mes
Ġri z
ig ue
Ġpermet traient
Ġvis itÃ©
Ġdou ane
Ġno tÃ©
Ġpor tait
Ġaffir m
Ġrester ont
Ġpartis an
Ġfourni es
ĠdÃ©pos Ã©e
ani um
Ġmora les
Ġsyn thÃ¨se
ĠdÃ©velopp ent
Ġcompos Ã©e
Ġplac Ã©s
Ġtransform Ã©
Ġvra isemb
Ġautor itaire
Ġenregistre r
Ġmerveille use
Ġinh um
Ġinspe ction
Ġrass urer
Ġnett oy
Ġdomes tique
ĠultÃ©rieure ment
Ġmob ile
ĠschÃ© ma
Ġmajor itaire
Ġmagaz ine
ĠJac ques
Sin on
e lez
p t
p al
y r
on al
on ique
Ġc oupes
it t
it ter
Ġm urs
Ġn age
Ġla tin
Ġf oyer
si bilitÃ©
ro ga
Ġpar ts
Ġil lÃ©
Ġcon qu
tu aires
ul ent
ĠE r
Ġan gu
Ġar rog
ĠUni versitÃ©
ĠS ah
Ġper fe
Ġexp orter
Ġal ban
gn ant
Ġor ches
Ġren verser
Ġba ss
ĠK ar
Ġinf Ã©rieure
Ġaugment ations
Ġcour rier
ĠÃ©p ouv
Ġur anium
Ġencoura gement
Ġassur ant
ĠentraÃ® nent
Ġferme tÃ©
ĠÃ©vent ualitÃ©
ĠpiÃ¨ ge
ak h
ĠtÃ©lÃ©ph ones
Ġexcell ents
Ġvoyage urs
Ġformul Ã©e
Ġmobil es
Ġfamili al
Ġmodes tes
Ġnomm er
Ġdivis Ã©
ĠmultilatÃ©ra le
Ġbloc age
Ġcop ie
Ġprati quer
Ġamp li
ĠcompÃ©t ents
Ġmater nelle
Ġincontes tablement
Ġpouss Ã©e
Ġinnoc ents
Ġfructu euse
Ġnomin al
ĠMich el
Ġoxy gÃ¨ne
n al
Ġ onc
Ġ Quand
Ġp om
Ġp onc
Ġc oute
er ve
Ġla c
Ġb ir
ĠrÃ© alise
Ġfa ct
ces seurs
Ġr omp
Ġcomm Ã©m
Ġca ta
Ġcont este
Ġcont amin
Ġres tÃ©s
Ġar mÃ©
va bles
oci ation
ĠT aÃ¯wan
Ġprodu ites
Ġtro pi
gis tes
ĠJ Ã©rusalem
Ġna Ã®tre
Ġinf ec
ines s
Ġanim ales
Ġ7 00
Ġappar tiennent
ĠmÃ©c an
Ġcolle ctives
Ġconsac re
ĠMar s
Ġrele vÃ©
Ġcompos Ã©
cepti cisme
ĠdÃ©t ente
Ġrenv oyer
Ġinspe cteurs
Ġdoc teur
Ġpropag ation
Con formÃ©ment
ĠdÃ©bu tÃ©
Ġindu b
Ġalloc ations
Ġstupi de
ĠnÃ©fas tes
Ġdorm ir
Ġsouples se
Ġinapp rop
c orÃ©
d Ã©s
d isc
l utÃ´t
n ob
t or
w in
ou e
me u
res sement
ĠdÃ© range
tre r
ĠE s
Ġres tÃ©e
Ġma Ã¯s
Ġar mÃ©s
Ġfin it
Ġon Ã©
ud isme
ver sion
ĠF rontex
Ġcoop Ã©ra
Ġcor Ã©
ĠdÃ©s app
Ġform ations
Ġcour ante
Ġviol ent
Ġdonner ait
Ġjuridi ction
lan tiques
ĠpÃ© ni
Ġten eur
Ġrou ges
Ġorient er
ĠprÃ©f Ã¨rent
Ġsouff rir
Ġcorre ction
Ġimm enses
Ġk urde
Ġbr ill
Ġpopul aritÃ©
Ġtemp oraires
Ġfrapp er
Ġcorrespond ant
ĠdÃ©n u
Ġstatis tique
Ġsubs iste
ĠbÃ© bÃ©s
Ġhom ologues
ĠII I
Ġclari fication
Ġdicta teur
Ġbo om
Ġirak ienne
ĠdÃ©bou chÃ©
Ġbless ures
Ġsti p
ĠtÃ©moi gner
ĠmaÃ®tr iser
ĠMont Ã©nÃ©gro
Ġconsenti s
ĠmÃ©ta ph
Ġscep tiques
Ġing Ã©rence
ĠSain t
ĠanÃ© anti
T A
d ents
Ġp Ã¨s
Ġt endre
ĠÃ© ro
Ã¨ lent
Ġin att
Ġre tenu
di o
Ġra b
ĠM illÃ©
Ġh ol
ĠprÃ© le
Ġcomp ortent
Ġres titu
ist ante
Ġfor mÃ©
ĠD eux
ora teurs
Ġobje ctive
ĠÃ©g oÃ¯s
ĠJ eux
Ġatte ler
Ġviol ents
ĠmÃ©di oc
ĠÃ©p is
et tering
Ġdo tÃ©e
Ġassoci Ã©e
ĠgÃ© nie
Ġtes ter
Ġblan che
Ġmutu el
Ġprud ents
ĠrÃ©volution naire
Ġsomme ts
ĠÃ©tique tte
ĠrÃ©pu blic
Ġextraord inaires
ĠSh aron
Ġdomin ante
Ġignor ance
ĠrÃ©pand ue
ĠÅĵu vrer
Ġhyd rogÃ¨ne
Ġmorce aux
Ġdoig ts
Ġpal udisme
Ġtal ent
Ġrej oins
ĠAz erbaÃ¯djan
Ġpakistan ais
Ġgraph ique
Ġindemnis ation
ĠOff ice
ĠÃ©pouv an
ĠMillÃ© naire
M oi
P eux
f ense
Ġp Ã©d
Ġf ur
Ġv ocation
Ġen ch
ĠrÃ© h
Ġre tenue
end us
Ġli ti
ga pour
Ġparti el
Ġinter view
Ġexp ert
ĠdÃ©p assent
ĠI ra
ard s
Ġprodu cteur
Ġren vers
gram me
anti le
ĠrÃ©du ites
ĠrÃ©g lÃ©
ĠrÃ©g issant
ari at
Ġsuc c
Ġdiri gÃ©e
Ġpos taux
Ġtent ation
ĠcontrÃ´ lÃ©e
Ġmention nÃ©e
Ġchois ie
Ġprogres se
Ġimag in
Ġexer gue
Ġexer cÃ©e
Ġemploy Ã©
Ġenseig ner
Ġbru tale
Ġrent abilitÃ©
Ġdevenu es
Ġcrain t
Ġdra peau
Ġcalcul s
Ġadress Ã©es
Ġurb aines
Ġsoup Ã§
Ġliqui de
ĠpÃ©ti tion
Ġrob ots
Ġscandale ux
ĠfrÃ©qu ence
Ġrigou reux
Ġinjusti ce
Ġbomb arde
ĠÃ©duca tif
ĠCha mbre
ĠaccÃ©l Ã©ration
Ġconta mination
ĠvÅĵ ux
Ġinse ctes
ĠRE ACH
obo da
Ġredistribu tion
Ġyougosla ve
Ġponc tu
A i
C elles
Ġun is
or tÃ©e
ro l
our ent
ĠP ra
Ġapp rÃª
Ġdi am
tr ent
Ġinter ag
Ġag issons
ĠS t
ĠS IS
min aire
ĠrÃ©p ri
Ġpri me
cul ose
Ġdemand ait
Ġsouti endrons
Ġprof itent
Ġtu ber
Ġfonda teurs
ĠcÃ´ tiÃ¨res
ĠdÃ©si gnation
Ġtomb Ã©e
Ġ12 0
Ġadministra tif
ĠdÃ©pl oyer
Ġblan chi
Ġregret ter
ĠOb ser
ĠÃ©lectora les
ĠdÃ©couver tes
Ġmenac Ã©e
Ġred oub
Ġtur cs
Ġrepos ent
Ġreprodu ction
Ġintellectu els
Ġurb ain
Ġtox ic
Ġpier res
ĠprÃ©ven tive
Ġretrouv Ã©
ĠprÃ©voy ant
ĠrÃ©in trodu
Ġfrus tration
Ġpoursuiv ra
ĠPN B
Ġregr oup
ĠprÃ©d ire
ĠPo ettering
Ġmira cle
Ġilli m
ĠSw oboda
Ġcontrefa Ã§on
- -
S oyons
a des
l ur
m Ã¨re
r ist
Ġa char
er tion
Ġt alibans
Ġle vÃ©
ĠÃ© mi
ro t
ri es
li ens
ĠrÃ© sidence
Ġre dev
la di
Ġdis ais
Ġat out
Ġpers uad
Ġmar di
ĠT haÃ¯
ĠR Ã©
Ġprof itÃ©
Ġrespe ctifs
Ġsais i
ĠprÃ©cÃ© dÃ©
Ġfix Ã©e
Ġregard ant
Ġign orÃ©
Ġexcep tionnel
Ġflexi bles
ĠvulnÃ©ra bilitÃ©
Seu ls
Ġurb aine
Ġrestre indre
Ġanticip er
Ġrembour ser
Ġdoub lÃ©
Ġner veux
Ġinquie ts
ĠEU R
ĠBol k
Ġdoctr ine
Ġdilem me
disc rimination
p o
p os
Ã© rez
Ġp Ã¨res
ti t
Ġf ant
Ġf ri
Ġdu es
Ġam Ã¨
Ġins pirer
ĠS o
endre z
ist res
ĠT rÃ©sor
Ġprodu ise
ĠF lor
Ġaff lux
Ġaur ai
ls trÃ¶m
Ġim meu
Ġci bles
Ġconstitu ait
Ġprof onds
ĠgÃ©nÃ©ra lisÃ©e
Ġ4 3
Ġsec rÃ¨
Ġtour nÃ©
Ġinnov antes
han a
ĠÃ©mer ger
Tro p
Ġrent re
Ġcompli quÃ©e
Ġplac Ã©e
ĠopÃ©ration nelle
Ġesc al
Ġsymb oles
Ġlic ences
ĠMon di
este in
Ġenregist rÃ©s
ĠachÃ¨ tent
Ġgasp illage
Ġmater nitÃ©
Ġassi mil
Ġcami ons
Ġrecru tement
Ġlaiti ers
Ġboute ille
ĠbactÃ©ri es
oton ou
Ġtuber culose
ĠBolk estein
F aisons
c ours
h am
x tes
Ġc oupe
it y
Ġm ien
Ġn Ã©s
Ġle vier
Ġv eil
Ġen n
Ġin au
Ġb lÃ¢
ĠC otonou
tu rer
ter mination
Ġh ali
ĠprÃ© li
ĠA li
gi ons
ĠB end
Ġco di
Ġon ze
ĠR w
ĠR ed
ĠD r
ĠD ro
Ġcompr en
ĠlÃ© galement
des h
Ġinc omb
Ġba f
Ġconn ait
ĠK ir
Åĵ urs
Ġorganis Ã©es
Ġ3 8
Ġreconn us
ru p
Ġinstru ctions
Ġcher chons
Ġcommuni quÃ©
ĠlÃ©gisla teurs
Ġhabit udes
ĠBar nier
Ġnorm alisation
Ġsignifica tives
Ġrent able
ĠAr mÃ©
Ġdistribu Ã©
Ġcaus er
Ġhandicap Ã©s
Ġprotes tations
ĠintermÃ©di aires
ĠÃ©pr ouv
Ġproportion nalitÃ©
ĠperÃ§ ue
Ġslo v
Ġbour si
Ġsupr an
Ġmigra toires
Ġintr ins
Ġfrag iles
ĠÃ©b ran
ĠinconvÃ©ni ents
H Ã©
I s
P lutÃ´t
d ul
i ze
j ad
m y
n ographie
u be
v aient
Ġ ours
Ġp ne
Ġm uti
Ġra tionnelle
ĠB ri
Ġat h
Ġpers iste
Ġmar qu
ĠdÃ©p rÃ©
ĠdÃ©p endant
Ġter riblement
ct ant
ĠdÃ©m ographiques
ĠG Ã¶
Ã¨g ent
ocra tie
par cours
Ġvis iter
Ġinform atiques
Ġfond ation
Ġindi quant
Ġpara dox
Ġlar mes
Ġmodi fiÃ©es
Ġrend s
ĠinquiÃ© tante
Ġlo gis
Ġidenti fiÃ©
Ġsol enne
ĠÃ©vo quÃ©e
Ġhon orer
Ġphot ograph
Ġcy c
Qui conque
Ġcompos ante
ĠcaractÃ© rise
Ġperd ue
ĠsÃ©pa rÃ©ment
Ġsubs istent
ĠvulnÃ©ra ble
Ġtend ent
Ġbles sÃ©
Ġralenti r
Ġrenv oi
Ġdesc endre
Ġinspi rÃ©
ĠingÃ© nierie
Ġincon di
ĠdÃ©tour ner
Ġarbit raire
ĠÅĵu fs
ĠmaÃ®tr ise
ĠrÃ©comp ense
ĠÃ©clair c
ĠdÃ©sespÃ© rÃ©ment
Ġcombusti ble
Ġalloc ation
ĠSin gapour
Ġvolati litÃ©
Ġtransporte urs
ĠEuros tat
ĠThaÃ¯ lande
D is
c our
f el
h o
l t
t ora
z z
Ġd r
Ġcon fier
Ġpl on
Ġra p
Ġra con
Ġcomm er
Ġsou ter
Ġli aison
Ġob Ã©
osi tions
Ġtravail liste
ĠT it
ĠT ony
Ġdom ination
Ġcr is
Ġsoi rÃ©e
Ġindi cation
Ġur gents
Ġsuc cessi
Ġforme llement
Ġaliment er
Ġessay ant
Ġglob aux
Ġprofes sions
Ġappar ente
ĠAn nan
Ġsan gu
Ġtenu es
Ġexac te
Ġrur ale
Ġrempla cÃ©
ĠX I
Ġul tra
Ġattra per
Ġdivis er
Ġaccompag nÃ©
Ġment ale
CA M
Ġadul te
Ġpersua der
Ġincid ences
atis f
Ġdiversi fication
Ġbaiss Ã©
Ġtun nel
ĠtraÃ® ne
Ġrattra per
Ġcoex istence
ĠautodÃ© termination
ĠcrÃ©anci ers
C omm
T E
b urg
s a
v ard
Ġa Ã©r
Ġa isÃ©
ou ts
ur ations
ĠC ara
ers on
Ġsa per
Ġinter action
Ġat roc
Ġpouv iez
alis ations
ĠdÃ©b rou
ĠN at
ĠgÃ©n ome
ĠdiffÃ©r ends
olo gue
Ġsta gnation
Ġpropos ant
Ġarri vons
Ġsub ord
Ġdur Ã©
Ġas y
ĠrÃ©g ul
ot yp
Ġdou z
ĠdÃ©ci dÃ©e
Ġpos Ã©s
Ġrou tiers
Ġpen che
Ġeffectu Ã©es
Ġrenouve llement
Ġquanti ta
Ġenseig nements
aÃ¯ da
Ġro be
Ġneu tre
Ã¶ der
Ġsex uel
Ġmenac er
Ġsomme il
Ġtransfrontali er
ĠsÃ©pa rer
Ġhy gi
Ġcens Ã©s
ĠbilatÃ©ra l
ĠdÃ©fa ill
Ġadress Ã©e
Ġespagnol s
Ġdiscrimin atoire
Ġble ue
Ġmanip ulation
ĠachÃ¨ vement
Ġbomb es
Ġmacro Ã©conomique
Ġrecueil lir
Ġmassac re
Ġregr oupe
Ġgarantis sent
ĠrÃ©ac teurs
ĠJo han
Ġsousc ris
ĠdÃ©rÃ©g lement
ĠPES C
Ġonc le
Ġatroc itÃ©s
F ais
I F
b org
l ants
m ir
m ises
Ã© dÃ©
Ġl is
Ġa ph
Ġs h
Ġm it
om pÃ©
ĠÃ© ve
ta taires
Ġpar d
au tÃ©s
ĠprÃ© roga
Ġtra giques
Ġca tal
Ġcomp tons
ĠE c
Ġacc ou
ine jad
Ġins istance
Ġat titudes
ĠintÃ© ressent
Ġmar ques
Ġprodu ctions
ĠO tan
Ġass ise
ĠF Ã©dÃ©ration
ĠD im
ran ger
Ġ19 3
ari enne
Ġgra d
Ġcour be
Ġesti mer
ĠdÃ©pu tÃ©e
Ġcomb iner
Ġexpri ment
Ġatta r
Ġmention nÃ©es
Ġexi gÃ©
Ġconfront Ã©es
ĠEuropÃ© en
Ġpropor tions
prÃ©sident e
ĠÃ©pi dÃ©
comm un
Ġgui de
Ġmeur tri
Ġprimordi ale
Ġquar ante
ĠBro wn
Ġrecev ront
Ġtransat lantiques
Ġdouani Ã¨res
Ġreb elles
ĠÃ©criv ain
Ġportefeu ille
Ġorth od
ĠRich ard
Ġsoix ante
Ġperfe ction
ĠIra q
Ġtoxic om
ĠRw anda
h ard
m ais
p ol
r ui
z u
es s
Ġp omme
Ġf leur
Ġf olie
Ġin vention
di enne
ĠP ala
Ġh oc
ĠprÃ© su
Ġimp rob
Ġtra um
Ġaut rui
cu les
Ġob tiennent
Ġeff ac
onc ture
ĠS ri
Ġmar ine
ler ai
Ġaccord Ã©s
ĠcrÃ© ons
Ġesp Ã©rant
ĠD al
ĠG A
Ġeffe ctif
ph ab
Ġposi tivement
ĠCh ira
Ġ19 1
ĠreprÃ©sent Ã©s
Ġprom en
ĠÃ©lar gi
Ġmod Ã©ration
Ġcir culer
Ġinv itons
ĠprotÃ© gÃ©es
Ġrespec tÃ©e
Ġrenforcer a
Ġdonne z
hi ma
ĠprÃ©f Ã©re
Ġache ver
Ġautoris Ã©e
Ġexpor tateurs
Ġus agers
ĠJapon ais
fica tif
Ġoccup Ã©e
Ġconvi ens
ĠprÃ©t endu
Ġmassi ves
Ġinsc rits
Ġpersonn age
Ġpersonn alitÃ©s
ĠprÃ©occu pÃ©
Ġdivis Ã©e
Ġprotes tation
Ġnoir s
ĠprÃ©tend ent
Ġ196 0
ĠÃ©quiv aut
Ġtexti les
esti mer
dÃ©p endance
ĠsupÃ©rie urs
ĠÃ©cosyst Ã¨mes
Ġadoles c
Ġchypri ote
nob yl
ĠObser vatoire
ĠChira c
V i
m ire
y ra
Ġp uni
ou Ã©
Ġm eu
Ġque ue
Ġin cul
ĠdÃ© lit
Ġb ul
oi le
ĠP ri
ort ant
Ġo se
Ġtr ouvez
fi ants
Ã©ra it
Ġal erte
Ã©n Ã©ra
ĠdÃ©p ri
ĠdÃ©p Ã´t
enti elle
Ġsoci alement
as es
ĠT cher
Ġess aient
Ġmont agnes
ĠreprÃ©sent ait
Ġfond er
Ġservi ra
Ġcor rÃ©
Ġord res
ĠV ice
Ġple urer
ĠrÃ©glement aires
Ġinn omb
Ġlaiss ons
ĠtÃ©lÃ© vis
Ġglob ales
Ġ8 5
ret tes
Ġcontribuer ait
Ġcollab orateurs
ĠlÃ©g alitÃ©
Ġaccro Ã®t
char ge
Ġval ables
ĠdÃ©n on
Ġperd ants
Ġrepos ant
Ġvisi bilitÃ©
Ġhom og
ĠDan ube
Ġciter ai
Ġmonop oles
Ġrestre int
Ġfranch ir
Ġreviend rait
Ġadh Ã¨re
Ġlogici el
Ġlicenci ements
Ġdesque lles
Ġarrange ments
Ġspati ale
Ġore ille
Ġprocure ur
ĠEC HO
ĠnÃ©glige able
Ġexhaus tive
Ġcompromet tre
Ġatom ique
Ġminor itaires
Ġspir it
Ġconseill ers
Ġblanchi ment
Ġescal ade
ĠMondi ale
Ġd ons
Ġn aiss
Ġpa ient
om as
ne z
au teur
Ġapp lau
Ġcomp lais
Ġdi ab
onn age
ĠA ir
mi es
ĠÃī g
ĠB us
Ġcer tification
ĠdÃ©p is
sse ments
ĠR Ã©v
ĠcrÃ© Ã©es
ĠF erre
itu de
Ġmin us
Ġinc in
Ġindi enne
Ġoff ensive
Ġrem Ã¨de
Ġviol ente
Ġexpli quent
ĠLa ma
Ġattend ais
Ġorig ines
Ġfix ation
Ġcou ches
Ġconsul tÃ©
ĠCommun autÃ©s
Ġang l
Ġlongue ment
Ġapprouv Ã©s
Ġexpos Ã©es
ĠdÃ©rou lent
Ġbureaucra tiques
Ġvisite urs
ĠsÃ©pa re
Ġemprun ts
olÃ© ances
Ġtrou b
Ġsusp endue
Ġach Ã¨te
Ġterres tres
Ġsoup le
Ġamend es
Ġmusulman e
ĠdÃ©Ã§ us
Ġenva h
ĠgÃ©ni al
Is ra
ĠJohan nes
ĠPala cio
R S
c aux
h r
i cile
Ġd resser
Ġa ise
ra ges
Ġpa vil
Ġun iques
ous e
Ġpar viendra
Ġb illet
ĠrÃ© Ã©
ĠC os
Ġimp orter
Ġtra Ã§
Ġca sse
Ġag ent
Ġag ression
lis Ã©s
ĠN ational
olo gistes
Ġfer ti
ĠJ ordanie
ĠK im
ara k
Ġpres tation
Qu atre
ĠrÃ©alis able
Ġaucune ment
Ġtrouver a
Ġchar ger
Ġcir cu
Ġentra ve
ĠrÃ©us sie
Ġatta cher
Ġfi Ã¨re
Ġis olÃ©
ĠdÃ©ter mine
ĠintÃ©ress Ã©es
Ġhe cta
Ġassoci Ã©es
Ġsin ges
Ġextra dition
Ġsuper mar
Ġcrimin el
Ġestim ation
Ġalli Ã©
ĠfrÃ© quent
Ġcens Ã©e
ĠMal ais
ĠprÃ©ju gÃ©s
ke ting
Ġorigin ale
ĠamÃ©lior ent
Ġpolici ers
Ġatmos ph
ĠQ aÃ¯da
ĠdÃ©te cter
RÃ© cemment
Ġexcessi f
Ġvacc ins
ĠmÃ©cont entement
Ġtap is
ĠrÃ©h abil
Ġslov Ã¨ne
Ġinnomb rables
M ar
c ope
n itÃ©s
Â ·
Ġ &
es tim
ou ement
te use
Ġf umÃ©e
Ġj un
Ġch Ã¢
ter ont
Ġra m
Ġra il
Ġcomp tables
ĠE ri
onn aires
Ġmon te
ĠdÃ©c ro
Ã©n at
Ġmar keting
Ġass ain
ĠmÃ© tro
ĠN ap
Ġnation aliste
Ġpens Ã©es
Ġrenfor cent
Ġsens Ã©e
Ġvol Ã©
Ġver sions
Ġbas Ã©s
Ġcomb ats
Ġta cti
ill Ã©s
Ġencoura gent
Ġessay ez
Ġmer cure
Ġmul titude
Ġassoci e
Ġtard er
Ġassur Ã©s
ĠÃ©vo quÃ©s
Ġign o
Ġexcep tionnelles
Ġgag nent
Ġentend ent
ĠgÃ©nÃ© tiques
Ġbal tes
Ġcivil isations
Ġsuppri mÃ©
ĠfranÃ§ais es
ĠrÃ©gu lier
ĠcrÃ©di bles
Ġsouver ain
ĠdÃ©rou ler
Ġaccus ation
Ġprud ente
ĠsÃ©pa rÃ©s
ĠÃ©par gner
Ġpertin ence
ĠentraÃ®ner ait
Ġoise au
ID GE
Ġcompati bles
ĠVi Ãªt
omÃ© tri
Ġinterromp ue
ĠrÃ©cipro citÃ©
ĠpÃ©riph Ã©rie
ĠpÃ©riph Ã©riques
ĠmolÃ©cu les
Ġtangi ble
Ġmalent endu
Ġcath olique
ĠincomprÃ©hen sible
BR IDGE
ĠRÃ©s erve
Ġredoub ler
CAM BRIDGE
d or
g anda
l ines
t tini
x ic
Ġl ent
ou le
om en
Ġf Ã¢
Ġdes cription
ĠÃ© min
Ġin Ã©
Ġin time
Ġdans e
ĠC ohn
Ġav Ã©rÃ©e
ĠM erc
Ġtr istes
Ġme xic
ĠU N
Ġcons entement
Ġca bil
Ġli er
Ġser be
ĠB a
ĠB lan
ĠS P
Ġper Ã§u
Ġper mets
ĠdÃ©c ol
Ġal arme
Ġann ulation
Ġpri ver
Ġass or
ota ge
ĠJ ack
Ġinf lig
Ġmi roir
Ġremerci ons
Ġph ases
Ġjou it
Ġaugment ant
Ġaugment era
Ġgra titude
Ġdemander ais
ats on
Ġremp orter
ĠprÃ©occup ent
Ġdess iner
Ġlut tent
Ġprend ront
Ġexer cent
Ġtechnique ment
Ġfal si
ĠrÃ©pÃ© ti
ĠNi co
Ġcroy ance
Ġral lier
Ġvisi bles
Ġgro ssi
ĠisraÃ©li ennes
Ġinsuffis antes
ĠAb bas
ĠWal lstrÃ¶m
Ġengend rÃ©
ĠconÃ§ us
ĠCor bet
Ġgratu itement
ĠscÃ©nari os
ĠmodÃ© rÃ©s
Ġsco laires
veloppe ment
ĠimprÃ© visi
Ġsignifier ait
Ġrespectu eux
ĠdÃ©sa van
ĠFra ttini
Ġambassade ur
ĠFor um
Ġsoudaine ment
Ġluxembourge oise
Ġslova que
ĠTcher nobyl
ĠCorbet t
H er
m ie
p li
z one
Ġd ota
is tait
it ants
it arisme
te borg
si vitÃ©
Ġv an
Ġv endu
Ġin si
ci ons
Ġb rou
Ġav ouer
ge ance
ge ments
ol is
Ġra vis
ĠM ay
onn aire
Ġres tait
Ġacc ises
tr onom
Ġins istons
Ġco ins
Ġdiff Ã¨re
ud ence
ĠdÃ©m Ã©n
gu Ã©e
Ġvoud raient
ĠL igue
Ġmen Ã©s
ĠCh i
Ġcent aine
Ġna Ã¯
Ġinf antile
Ġconsomm er
ĠV oilÃł
Ġtransp oser
Ġappel Ã©s
Ġparticip ant
ĠW atson
Ġpi ano
Ġcoord in
ĠlÃ©g aux
ĠÃ©m ises
Ġobten ez
jus t
Ġposs Ã©der
Ġimpor tÃ©s
Ġminim al
Ġperd us
ĠprÃ©sid ences
Ġtribun e
Ġpertin ents
Ġparc ours
ĠÃ©pr ouve
Ġlou able
ĠDÃ©pu tÃ©
Ġpros titution
Ġinclu ent
Ġincen die
Ġreviend rai
ĠattÃ© nu
tag on
Ġmas cul
ĠtÃ©moign ent
Ġdomes tiques
ĠdÃ©ser t
ĠLan ka
Ġretomb Ã©es
Ġconj oncture
Ġreconstru ire
Ġpollue ur
Ġabe illes
Ġbir man
Ġhali eutiques
ĠBend it
Isra Ã«l
g ma
Ġa lÃ©
Ġs onne
Ġm os
Ġm Ã©ri
or ld
ĠÃ© oli
tÃ© rie
Ġcon venir
Ġex tin
ĠP H
ĠP osse
os t
Ġan d
ĠA ri
iss er
Ġma Ã®t
Ġentre tien
co tt
ĠdÃ©p ar
Ġdiff user
ĠT Ã©
ĠrÃ©p onde
Ġconf Ã¨re
Ġinc ite
Ġgouvernement aux
ĠJ usti
Ġsouhait ez
Ġindi ce
ĠdÃ©s olÃ©e
Ġrenfor cÃ©es
ĠmÃ©di atique
Ġimpli cite
Ġref u
Ġref onte
Ġno tions
Ġsuc cesseur
ĠindÃ© si
ĠindÃ© finiment
ras mus
ĠrÃ©v Ã¨lent
ĠprÃ©occup ant
ĠprÃ©occup ante
Ġregard ent
Ġrev iennent
ĠAn g
Ġgaz odu
Ġami es
Ġrempla ce
Ġfavoris ent
Ġminim ale
Ġenseig ne
ĠÃ©cla i
Ġpan ique
Ġmenac Ã©es
Ġdyna miques
Ġinterven us
Ġach ats
Ġbienven u
Ġsuppos Ã©
Ġautoma tique
ĠamÃ©lior Ã©es
Ġindem nitÃ©s
Ġinclu ant
Ġincontes table
Ġsurven us
ĠChar les
Ġciga rettes
Ġgam me
ĠhypothÃ© c
mad inejad
Ġnaval s
Ġindub itablement
Ġaph teuse
ĠRÃ©v olution
Her zÃ©govine
ĠJusti ce
c tÃ©e
c Ã¨lement
h end
i k
Ã º
Ġd ys
Ġd ras
Ġl Ã¨ve
Ġc ord
ur it
un es
Ġpour v
ĠrÃ© cup
al ita
ĠP C
ĠP CP
Ġra ci
Ġent ente
Ġces sent
Ġ1 000
ĠnÃ© oli
Ġprodu ira
Ġcontre par
Ġmal h
Ġvrai es
Ġdemand a
ĠH aut
Ġmainten ue
tent ri
Ġjou eur
Ġvers er
Ġabs tra
Ġpara mÃ¨tres
Ġ4 7
Ġfour nie
Ġjusti fiÃ©es
ing t
Ġcapit aliste
Ġexc lut
ros itÃ©
ĠÃ©n onc
ĠdÃ©fini tions
Ġsep tentri
Ġhar cÃ¨lement
ĠdÃ©fense ur
Ġrecommand Ã©
ĠIr landais
Ġconseil lÃ©
ĠgÃ©nÃ© reux
ĠgÃ©nÃ© rositÃ©
Ġsouv enez
ĠpropriÃ© taire
ĠmatÃ©ri els
Ġsex uels
ĠtÃ©m oin
Ġhonn Ãªtement
Ġreconnaiss ante
Ġremarqu ables
Ġrece tte
ĠFin ances
Ġinsuffis ants
Ġsugg Ã¨rent
Ġprotes ter
Ġabat tage
ĠOu ganda
Ġmanip ul
Ġaffi cher
Ġrigou reuse
Ġproc la
Ġmens ong
Ġprononc Ã©e
Ġscru pule
ĠrÃ©affir mer
Ġdistor sion
Ġintol Ã©rable
ĠsupÃ©rie ures
ĠdiscrÃ© tion
ĠdÃ©sin tÃ©
Ġtac tique
ĠFond ation
ĠStre et
ĠpÃ¨s ent
ĠGÃ¶ teborg
Ġhygi Ã¨ne
ĠPosse lt
ĠnÃ©oli bÃ©ra
B C
O L
h n
Ġqu alita
Ġm yst
ur ait
Ġf le
ĠÃ© mette
ĠdÃ© tient
ar chie
Ġb ov
Ġg ains
Ġpo che
ĠM ur
Ġtr ous
Ġdi able
ĠE rasmus
onn ant
ĠA R
da d
va trice
Ġfin issent
Ġins table
Ġvi ve
Ġaccord ant
ĠT oute
Ġop Ã¨rent
ĠUE N
Ġeffe ctifs
Ġcontin ents
Ġprotection nistes
Ġlu cra
Ġreconn ues
Ġgra m
lab lement
Ġban ane
Ġcontribu ant
ĠÃ©t oile
Ġremp lis
Ġgestion naires
ĠapprÃ© hend
Ġindivid uel
Ġeffectu Ã©e
Ġcontinue llement
Ġenqu Ãªter
ĠidÃ© ologiques
Ġfavoris ant
Ġpoi gnÃ©e
Ġatten tif
Ġfourn issant
ah arienne
Ġemprun t
Jus te
ĠAra bes
ĠvidÃ© os
ĠimpÃ©ra tivement
Ġenseign ant
Ġbour se
Ġgrandi r
Ġrecon sid
Ġore illes
Ġprolong ation
ĠWi ki
Ġsympt Ã´mes
Ġcardia que
ĠintÃ¨g re
ĠdÃ©mons tration
Ġcond olÃ©ances
ĠSah ara
Ġintrins Ã¨que
ĠmÃ©ri di
A t
a tive
a illes
d Ã©es
f re
Ġ 00
Ġd ose
Ġc ous
Ġs ains
qu aient
un di
Ġt ribu
Ġpa use
or table
Ġf ret
ro le
me di
op p
Ġb rÃ©
ĠrÃ© uti
ĠrÃ© Ã©quili
ĠrÃ© sidents
Ġfa usses
se z
Ġpo lÃ©
la desh
os ur
Ġr Ã´les
Ġpr it
Ġdi ap
Ġinter locu
Ġins ol
Ġins pire
ĠB ag
Ġco des
ĠS il
Ã©n a
lis es
Ġor ange
Ġass iste
ĠG ra
Ġess or
Ġconcern ait
ĠJ ui
Ġ20 50
Ġcontra ctu
Ġcontra ste
Ġ4 4
Ġimpos ant
ĠW orld
Ġsign ataires
Ġtranspar ents
Ġfort une
Ġdisposi ons
ĠrÃ©jou it
Ġhabit uelle
Ġchanger a
ĠexÃ©cu ter
ĠÃ©tro ites
ĠidÃ© aux
Ġfig urant
Ġexige ons
ĠAr ctique
Ġtab ag
ĠbilatÃ©ra le
Ġrejet ons
Ġconjoin t
Ġsymp ath
Ġrequi Ã¨rent
ĠÃ©pr ouvent
Ġslo gan
ĠdÃ©clen cher
Ġexces sivement
Ġvain que
Ġprononc Ã©s
ĠSer bes
ĠnÃ©glig ence
Ġislam iste
Ġrenf lou
ĠNÃ© pal
Ġaudiovis uel
ĠJour nÃ©e
Ġsauvegard er
Ġamou reux
ĠTAC IS
Ġpand Ã©mie
osa ures
Ġapprofond issement
Ġbanqui ers
ĠdÃ©pis tage
ĠtraÃ§ abilitÃ©
O h
l os
v oire
an gÃ©
it ait
Ġm aire
si le
il lons
Ġin tra
ĠdÃ© chi
ĠM aintenant
Ġje tÃ©
Ġo tages
ĠU C
Ġca ro
Ġma Ã®tre
ins tein
Ġins cription
Ġman uf
Ġti bÃ©
out ent
Ġinc ompÃ©
Ġva ches
ĠdÃ©f lation
Ġsoi gner
Ġuni form
ĠnÃ©goci ateurs
Ġcul p
Ġconstru ctives
ĠcoÃ» tÃ©
Ġsem ences
Ġlaiss Ã©e
Ġsuiv ra
Ġcou cher
Ġeffectu e
Ġbar ba
Ġcruci aux
Ġfeu illes
ĠpropriÃ© tÃ©s
Ġplain dre
Ġenvisag Ã©es
ĠprÃ©al ables
Ġblo quÃ©
Ġsuppos er
Ġallou Ã©
Ġiran iens
ĠdÃ©ga gÃ©
Ġchoc s
Ġindica teur
Ġrestruct urations
ĠmÃ©diterranÃ© ens
Ġoptim ale
Ġaus tra
Ġquotidien nement
Ġfre iner
Ġaccum ulation
ĠpÃ©troli Ã¨re
ĠpÃ©troli Ã¨res
Ġproc Ã¨de
Ġcontradi ctions
Ġpont s
Ġexcessi fs
Ġgagn ant
Ġpare il
Ġloy ale
ĠÃ©va cu
Ġjui fs
Ġembal lages
Ġsurp lus
ĠÃ©pau le
ĠstÃ© rÃ©
ĠvariÃ© tÃ©
ĠSm ith
ĠhÃ©ro Ã¯
Ġmarqu age
ĠCara Ã¯
Ġcabil laud
T S
c or
en g
ra ble
ta h
au er
Ġra ce
Ã©s itÃ©
Ġca ssÃ©
Ġcomp atri
Ġdi ra
ga s
Ġma th
Ġparti elle
Ġob Ã©sitÃ©
ag in
ĠB Ã¢
Ġexp Ã©di
rais ons
ĠcrÃ© ateurs
ĠF e
Ġfinan cÃ©es
Ġdom inÃ©
Ã¢ mes
ada p
ĠK a
ĠK az
Ġpuis siez
oli ques
Ġgaranti ra
Ġaccep tÃ©es
ĠcoÃ» tent
Ġimpos sibilitÃ©
Ġpor tables
ses sion
ha rov
ĠrÃ©ser ver
ĠdÃ©si rer
ĠÃ©vo quÃ©es
Ġemb arra
Ġcatastroph ique
Ġlumi Ã¨res
atri ces
Ġsort ent
ĠdÃ©termin ante
Ġtur ques
ĠCa mp
Ġaudi tions
Ġintensi fication
Ġvites ses
Ġagi rait
Ġincont rÃ´
Ġmeur tres
Ġax Ã©e
Ġpolon aise
ĠamÃ©lior ant
ĠprÃ©ven tives
ĠOu z
Ġfier tÃ©
Ġnav ale
Ġstandard s
Ġerron Ã©e
ĠintÃ©gra lement
Ġnett oyer
Ġjamb e
Ġclin iques
Ġintimi dation
Dem ain
Ġaqu ac
Ã©cla ration
ĠNat ura
ĠMerc osur
g on
Ġv us
ĠÃ© me
ve dev
ci e
Ġfa illi
Ġfa ssions
Ġcon cession
ĠP rin
Ġh os
Ġtou chÃ©e
Ġmo ind
Ġpr omp
Ġtra fi
Ġent er
fi ait
ĠÃ©c rou
Ġgr Ã¨ve
ite urs
Ġins tance
Ġins atisf
Ġco ton
ĠS ur
Ġexp ose
Ġat tes
Ġab u
Ġaccord Ã©es
Ġconcer ner
ĠmÃ© tier
ĠL omÃ©
Ġcol oss
Ġmin Ã©ra
Ġadop tent
ĠrÃ©du isent
Ġtech n
Ġjou era
Ġoff erte
Ġatte ignent
Ġtransp os
Ġcour ent
Ġpara do
Ġ4 6
Ġref let
ctu rer
Ġtour nÃ©e
Ġple u
Ġhab ite
Ġquoi que
Ġinv itÃ©e
Ġcondu isent
Ġty ran
Ġrencont rÃ©es
ĠreÃ§ ues
Ġhau tes
Ġouv riers
Ġpotenti elles
Ġadap tÃ©s
ĠSch r
Ġsouhaiter ions
ĠÃ©vid ents
Ġimpression nant
ĠrÃ©uss ites
Ġsyn thÃ©
vir on
Ġiss ues
Ġcompos antes
ĠmatÃ©ri au
Ġlour dement
Sa vez
ic roso
ĠcoÃ»te use
ĠmultilatÃ©ra les
Ġbloc s
Ġiran ienne
Ġisol er
ĠperÃ§ oivent
ĠprivilÃ©gi Ã©
Ġconsenti r
ĠEuro just
ĠintÃ©gra litÃ©
ĠAh madinejad
Ġtal ents
Ġpanne aux
Ġfrontali ers
Ġconvers ations
Ġvigil ance
Ġaccompagn Ã©e
Ġempre inte
Ġpun ir
ĠÃ©cras ante
Ġbiotechnolo gie
Ġnordi que
Ġgalax ies
Ġpassep ort
ĠWh ite
ĠFE M
ĠSak harov
ĠhiÃ©rar chie
ĠCos ta
Ã©na vant
Ġtabag isme
ĠCaraÃ¯ bes
Ġmoind res
Ġparado xe
C ons
f onction
t Ã¨re
en z
on ais
Ġp ul
Ġc itÃ©s
re prÃ©sent
er ai
an y
Ġn Ã´tres
Ġt chÃ©t
our n
Ġj oli
Ġg ang
Ġpo Ã¨me
oir s
ĠÃ©c laire
ĠdÃ©p Ã´ts
enti el
Ã§ aient
alis ent
ĠO Ã¹
Ġop ter
ĠN A
ĠN am
Ġfinan cÃ©e
ĠL ang
Si x
Ġmen ant
ĠK urdes
Ġsous crire
Ġhum ili
Ġsens ation
Ġbi oma
Ġpara ly
Ġattein d
Ġche v
Ġmodi fie
Ġrencont res
ĠÃ©lÃ© ph
ĠdÃ©si reux
ĠdÃ©si gner
Ġdist ribuer
Ġprogres sif
Ġtradi tionnellement
Ġajouter ai
Ġcy cles
ck et
Ġdiploma tes
Ġnum Ã©riques
Ġpollu ants
ĠhÃ´ te
Ġarme ments
Ġterres tre
Ġhonte ux
ĠXX e
Ġdanois e
Ġvend us
Ġsensibil iser
ĠrÃ©cipro que
Ġempre intes
Ġrepous ser
Ġenglob e
Ġpharmaceu tiques
ĠdÃ©loy ale
Ġennuy eux
Ġolymp iques
Ġtarif aires
ĠministÃ©ri elle
ĠclÃ´ ture
unn ites
Ġfact o
Ġbul les
ĠbrÃ© si
icroso ft
k is
u it
u ation
Ġd op
re ction
it or
Ġun itaire
Ġf Ã»t
Ġv ins
Ġque re
Ġin verser
ĠdÃ© ch
ne llement
Ġpro a
Ġg onf
Ġcon si
ge ons
ul mans
ĠÃ©c oss
Ġsa vions
Ġentre ra
Ã©ri a
Ġinter val
ss ons
ĠS am
Ġper mission
Ġal locu
Ġseu ils
ĠR ui
gn ants
ĠÃ©v itÃ©
ĠcrÃ© atures
Ġti rent
ĠG au
ĠG hana
Ġmont rÃ©e
ĠdÃ©s ag
Ġas sie
ĠrÃ©alis me
ĠprÃ©c aire
ĠprÃ©c isions
Ġemploi e
ĠÃ©crit es
ĠcontrÃ´ lÃ©es
Ġappar ent
Ġmu tation
ĠIrak iens
Ġretour ne
Ġconsul tatif
Ġimag inÃ©
Ġcondam nÃ©e
Ġcruci ales
Ġcrimin elles
Ġrenouve ler
Ġexaminer a
ĠdÃ©n omin
Ġpay eur
Ġallemand es
ĠirrÃ© ver
Ġhy per
Ġresta uration
Ġhor mon
ĠchrÃ©ti enne
ĠproblÃ© matiques
200 1
Ġclassi ques
ek en
Ġfla mb
Ġprogress iste
Ġence intes
Ġanc Ãªtres
AR E
Ġrecueil li
Ġom ni
Ġsatell ites
Ġtiss us
Ġarrange ment
oub arak
Ġdoulou reux
Ġbris er
Ġdin osaures
Ġmyth e
ĠdÃ©place ments
Ġcontour ner
ĠindÃ©ni able
Ġfluctu ations
Ġillu sions
Ġvraisemb lablement
ĠdÃ©sapp r
Ġredev ances
ĠArmÃ© nie
Ġracon te
Ġimprob able
ĠBag dad
ĠJui fs
Ġparaly sie
A llez
V os
a el
i um
p in
Ġd ress
Ġc le
re b
it Ã´t
Ġn oyau
ĠÃ© gi
ta la
Ġb onnement
ĠrÃ© n
Ġra ge
ĠM ul
ĠM itch
Ġo zone
Ġcont raires
ĠA vant
Ġar ts
Ġar sen
for es
ss Ã©s
Ġvi des
Ġcer cles
Ġdem ie
Ġesp Ã¨rent
Ã® tront
ĠF re
Ġamen Ã©s
ĠCh rist
Ġinc ons
Ġpens es
Ġsub it
Ġveu ille
Ġconstru ite
Ġ4 1
Ġsign atures
ad is
Ġpos ter
pa role
Ġatta quÃ©
Ġpor c
ĠintÃ©ress Ã©e
ĠbÃ©nÃ©fici ant
Ġadopter a
ĠmÃ©th od
Ġemb au
Ġexac erb
Ġexer cÃ©
Ma rie
ĠOM S
Ġinsu pp
Ġpron once
ĠdÃ©pl orable
Ġregret tons
Ġmassi vement
Ġaffec tÃ©
Ġitali ens
ĠrÃ©guli Ã¨re
Ġenvisag ent
Ġurgent es
Ġbu ts
Ġax es
Ġconten ue
rom e
ĠcÃ©rÃ© bra
Ġsoulign ent
Ġimpu issance
Ġerron Ã©
Ġsoula ger
Rapp elons
ĠFa tah
Ġabond ance
dite urs
Al lons
Ġbai gn
Ġcorromp us
ĠDro its
otyp es
ĠÃīg lise
ĠMalais ie
Ġdys fonction
ĠÃ©gi de
M S
P C
S oit
b ri
h ai
u c
Ġd at
Ġl une
on da
Ġp ion
Ġs cepticisme
it ler
Ġm ys
Ġm aux
Ġm Ã»
un d
Ġpa ter
or Ã©s
Ġf ous
Ġes ca
Ġpro ie
Ġre viens
Ġch aise
ĠM ag
ĠM oubarak
Ġr it
Ġimp lant
Ġcomp tabilitÃ©
Ġparti cul
Ã©ra bilitÃ©
Ġins tants
Ġco ra
Ġmar ges
Ġvo tant
ĠN ig
Ġcompr ise
Ġdom icile
Ġcap ture
oli d
Ġuni formes
Ġatte ign
Ġtour istes
Ġglob e
Ġpi le
ĠpÃ©tro lier
Ġexploit ants
ĠÃ©lÃ©ment aires
Ġcolle cti
Ġexam ens
Ġstri cts
Ġiss u
Ġsex uelles
ĠÃ©cla tÃ©
Ġstim ulation
ĠEur atom
ĠbÃ©nÃ©ficier ont
Ġinsuffis ance
Ġgrec ques
Ġcib lÃ©es
Ġaddi tifs
Nombre ux
Ġlaiti er
Ġindiff Ã©rence
Ġflag rante
Ġemmen er
Ġtranqu ille
Ġpharmaceu tique
Ġtardi ve
Ġalig ner
ĠrÃ©itÃ© rer
ĠsÃ©cher esse
Ġinterconne x
Ġsilenci eux
Ġfermi ers
Ġdictat ures
Ġchim ie
Ġauthen tique
Ġangl aise
Ġextin ction
ĠPH ARE
ĠrÃ©Ã©quili b
Ġmanuf act
A yant
L aisse
P S
m oud
es ses
Ġc Ã¢
Ġs ente
Ġt aire
om o
ĠdÃ© ni
Ġb oy
Ġre vers
Ġsur vÃ©
Ġch rÃ©
ĠM icrosoft
Ġimp ar
Ġsa medi
Ġma m
ĠB h
gra de
Ġann uler
Ġfor cÃ©e
ĠI R
ĠT ch
Ġenv oi
Ġprodu ctive
ĠmÃ© tÃ©
Ġgouver ner
Ġdonn ait
Ġlib el
ĠCh rÃ©ti
ĠJ un
Ġconn a
mÃ© trie
Ġsouhait ait
Ġmi xte
Ġplan Ã¨tes
Ġorganis Ã©s
Ġrenfor cÃ©s
Ġfondament alisme
ĠdÃ©ci dent
Ġcan a
ĠrÃ©pond ant
ĠrÃ©pond rai
ĠLa eken
Ġdispos ant
Ġtent ant
Ġten ait
Ġtravers ent
Ġtrouv aient
Ġconcep tions
Ġlo gements
Ġrefus ons
Ġchance lier
Ġtomb ent
Ġjudici euse
ĠprÃ©para toires
ĠMais on
Ġlois ir
ĠinterprÃ© tations
Ġbat tu
Ġrepro che
Ġrac cour
Ġtravaille ur
ĠcoÃ»te uses
ĠCE E
Ã¡ vez
Ġisla miques
Ġpou let
Ġrenv oie
ĠdÃ©fend ent
ei j
Ġsalu Ã©
Ġcib lÃ©e
Ġaim ait
Ġgratu it
Ġgla ci
ĠdÃ©lib Ã©rations
ĠrÃ©col te
ĠrÃ©su me
ĠcÃ©lÃ©b rer
Ġhosti litÃ©
Ġartifici elle
Ġempris onnement
Ġfrontali Ã¨res
Ġsuici de
Ã©le ct
ĠJa mes
ĠMed vedev
Ġgigantes que
ĠinfÃ©rie urs
Ġliti ges
Ġdr Ã´le
ĠprÃ©roga tives
Ġadolesc ents
Ġmath s
ĠBÃ¢ le
fores tation
a o
e ts
Ġp el
Ġp istes
is pr
Ġm ons
Ġf lÃ¨
Ġf eux
Ġen gra
Ġin ch
ĠdÃ© ro
ĠdÃ© tiennent
ĠdÃ© gage
Ġg a
Ġsur v
Ġpo Ã¨te
Ġex il
Ġch ronique
ĠP Ã©r
ol er
ouv rir
Ġh uis
Ġr hu
ten ues
ĠA dam
ĠA NA
Ġma gique
Ã©r entes
ĠÃī thiopie
ag an
Ġvi f
ĠS oci
Ġutilis ateur
ph el
Ġadop tons
Ġlib y
ĠH ow
tis Ã©e
ĠJ ar
Ġsub mer
Ġ3 9
Ġris quons
ĠrÃ©alis ent
Ġno ti
Ġchar gÃ©es
Ġdo tÃ©s
ĠdÃ©pens Ã©s
Ġattend ue
Ġtravers Ã©
Ġsc ol
Ġcomprendre z
Ġorig inaire
Ġrappel lent
Ġoubli ez
Ġdonne urs
ĠdÃ©si rent
Ġbou ge
Ġconser ve
Ġextra ire
Ġalli ons
Ġ0 1
Ġ0 2
Ġcroy ances
Ġporter a
Ġcouv rent
Ġaffec tation
ĠmÃ©dic ales
Ġaffai blissement
ĠsÃ©v Ã¨rement
Ġdicta teurs
Ġaccompag nement
Ġallou er
ĠrÃ©solu es
ĠextrÃ© m
Ġsoulign ant
Ġhypoth Ã¨ses
Ġindire cte
ĠDÃ© fense
Ġlun ettes
Ġrecti fier
ĠCas tro
Ġlabora toires
Ġincorp orer
Ġauda ce
Ġineffica ces
ĠrÃ©tic ence
ĠdÃ©tes te
ĠPol onais
Ġlente ur
Ġclin ique
ĠÃ©cosyst Ã¨me
Ġtangi bles
oca uste
Ġjur ispr
ĠsÃ©qu ence
Ġsomb res
Ġcorp ore
Ġbass in
Ġlogis tique
Ġattar der
Ġcontrepar tie
Ġtrafi quants
c as
c rit
r h
u la
Ä į
Ġc auche
Ġen lÃ¨ve
ĠÃ© lÃ¨vent
me d
Ġin vers
Ġre ch
Ġac cess
ol s
Ġo f
Ġo li
Ġcomp table
ĠE v
fi ces
che v
Ġconc lur
Ġins tin
ss Ã©e
Ġvou liez
Ġter ra
ĠI V
Ġor phel
ĠO k
Ġemp orte
Ġdonn a
ĠN ie
Ġpubli Ã©e
Ġmal aria
ĠH arb
ĠH itler
Ġfer mÃ©e
Ġrespe ctivement
Ġpens ant
ĠdÃ©s ar
Ġpres tige
Ġabs tenus
Ġju gÃ©s
Ġoff ice
Ġda tes
Ġcommen Ã§a
ĠIn diens
Ġtour nent
ĠLa den
ĠrÃ©un ies
Ġintrodu its
ĠarrÃª ts
Ġlaiss Ã©s
ĠcontrÃ´ lÃ©
Ġappar ue
Ġmort es
ĠgÃ© ant
Ġautoris Ã©es
ĠprÃ©pa rÃ©s
Ġoffici ers
ĠidÃ© ale
Ġval ent
ĠRÃ©pu blic
ĠÃ©quilib rer
ĠimmÃ©dia tes
Ġdra matiques
Ġrappro che
Ġincroy ables
Ġsubs titution
Ġinsc rite
Ġartis an
Ġcalcul er
Ġsymb ol
ĠrÃ©cla ment
Ã©re ra
Ġsubstanti el
Ġclassi fication
ĠconÃ§ ues
Ġpolici er
Ġaim ons
ĠexpÃ©riment ation
Ġmanip uler
Ġrej oign
Ġappuy Ã©
Ġvali ditÃ©
ĠpersÃ©cu tion
Ġinquie t
Ġconcurrenti el
ĠÅ ķ
ĠprÃ©dÃ© cesseur
Ġparcour u
ĠmÃ©can ique
Ġrefu ge
ĠSchr Ã¶der
ĠANA SE
C R
N ul
P ire
V eux
v in
Ġc lo
ti endra
Ġs ale
er ons
Ġf lou
Ġv Ã´tre
Ġdes tru
res que
ĠdÃ© di
Ġfa cture
Ġre mb
Ġcon ju
Ġpl aces
Ġpo ches
Ġex trait
Ġent rÃ©s
Ġent endez
Ġma gie
Ã©ra ient
da ge
Ġob session
Ġpu its
Ġins ou
ĠS oleil
Ġad vers
ĠdÃ©c al
Ġmes ur
Ġcompr endra
Ġmal aise
Ġcha ts
ig h
Ġmont Ã©
Ġfer iez
Ġremerci ant
Ġsens Ã©
ĠbÃ©nÃ©fi ques
Ġimpli quÃ©e
ĠÃ©crit ure
tres se
Ġtent ons
ĠprÃª tes
Ġpor tuaires
ĠÃ©lab orÃ©e
ĠAn dre
ĠentraÃ® nant
Ġcou loir
Ġinten sive
Ġparta gÃ©es
ĠbÃ¢ ton
Ġmora lement
ĠhÃ© gÃ©
Ġambiti euses
ĠrÃ©vÃ© lÃ©e
Ġtax i
Ġpuiss antes
Ġartis tique
Ġavi aire
Ġvolontaire ment
Ġplaf onds
Ġpair s
Ġrempli es
ĠWe b
Ġvacc ination
ĠÃ©puis Ã©
ĠredÃ© fin
ĠHar vard
ĠcoÃ¯n cid
Ġcabine t
Ġly cÃ©e
Vou lez
ĠMED A
Ġcatal yse
ĠrÃ©habil itation
ĠEri ka
Ġbov ins
Ġculp abilitÃ©
ĠKaz akh
Ġaquac ulture
Ġhos pit
ĠsurvÃ© cu
ĠChrÃ©ti ens
T on
p Ã¨re
u ves
u laires
y pe
Ã© si
Ġp ing
Ġs auv
Ġs pira
Ġf ui
Ġf ana
Ġv oc
ĠdÃ© tresse
Ġj olie
Ġg ain
au me
ĠC er
ĠC aire
ĠP ack
Ġtra je
Ġprop ice
Ã©r ent
Ã©r ante
Ġdis sidents
Ã´ te
ĠnÃ© o
ĠS ha
Ġexp on
ct rice
ard o
ca ra
ĠR oy
Ġprodu ctif
Ġcompr enant
ĠlÃ© ger
lo rer
ĠCh ic
ĠÃ©g ales
ma ra
ĠK ad
Ġmi c
Ġpres tataires
Ġ3 50
ges tion
Ġnu age
Ġcul te
ĠÅĵ uvres
Ġparler ai
Ġta sse
Ġforme l
ĠLe on
Ġentendu es
ĠdeuxiÃ¨me ment
Ġfi abilitÃ©
Ġattend ait
Ġsau ter
Ġsau vÃ©
Ġir ra
Ġcoup le
Ġ201 4
ĠprÃ©occup Ã©e
Ġache vÃ©
ĠDE M
Ġexac er
Ġobten ue
Ġconsac rÃ©es
Ġsort ant
Ġperman ents
Ġsouv i
Ġbru tal
Ġillus tration
ĠÃ©chapp e
illi on
ĠcrÃ©a tive
ĠdÃ©sastre ux
ĠdÃ©sastre uses
ĠmÃ©n age
Ġorigin aires
Ġaboli r
ĠdÃ©battu e
Ġhyd ro
Ġinforme lle
ĠtempÃ©ra tures
Ġabsor ption
Ġspor tives
Ġpromet tre
ĠPN R
Ġchau de
ĠBang ladesh
Ġimmin ente
ĠMah moud
Ã©valu ation
ĠhÃ¢ te
Ġneutra litÃ©
Ġbla gue
Ġapais er
Ġaffirm ations
onal d
ĠÃ©pis ode
HÃ© las
ĠChic ago
2 5
g uration
p ent
Ġd ensitÃ©
Ġa te
ou ch
Ġn ui
Ġn oy
Ġt Ã©n
Ġpa ier
Ġf ir
si de
Ġen di
op Ã©rabilitÃ©
Ġb ond
ch ions
se mble
ais sent
ĠC A
ĠC ap
ĠP lan
ens en
Ġo tage
Ġcons ter
Ġtra itant
Ġcont rer
Ġan ony
va trices
ag ent
Ġinter opÃ©rabilitÃ©
ĠintÃ© rieurs
ard er
ĠT er
ĠR app
am o
ĠsÃ© ances
Ġti mide
oin t
ĠG and
Ġcompr enez
pu issance
cul ent
par ti
Ã¢ t
Ġsav aient
ĠCh Ã¡vez
Ġ19 50
Ġva rient
tis ations
Ġappli quant
Ġnu ages
Ġju me
Ġrecher chÃ©
Ġlan cÃ©es
Ġimpos Ã©s
Ġactiv istes
Ġentra in
Ġremp lissent
ĠlibÃ©ra les
Ġsemb lant
Ġanti dÃ©mocra
Ġcontribuer ont
Ġsouff rant
Ġfourni ra
ĠSch mi
Ġcondam n
Ġpren ions
Ġpous sent
Ġappor tÃ©s
ira ge
Ġprovo quent
Ġdeme urer
Ġperd ons
Ġbureaucra tes
Ġtri mestre
Ġaffec tÃ©es
Ġmultip lier
ĠallÃ© ger
Ġsinc Ã¨re
Ġfonctionner a
Ġfaciliter a
ĠÃ©volu ent
ĠrÃ©guli ers
Ġplai d
Ġconjoin ts
Ġdispara issent
Ġapport ant
Ġinvent er
ĠBi ble
ĠmodÃ© rÃ©e
Ġprot Ã¨gent
Ġaffi che
ĠprÃ©voy ait
Ġmacro Ã©conomiques
Ġmultipli cation
Ġprag ma
Ġray ons
Ġcre us
ĠrÃ©form ateurs
Ġenrich ir
Ã¤ n
Ġaccessi bilitÃ©
ĠrelÃ¢ che
Ġentou re
Ġimpri mer
ĠfaÃ§ onner
Ġfid Ã¨le
Ġfili Ã¨re
ĠspÃ©cific itÃ©s
ĠPhili pp
Ġangu laire
Ġarrog ance
ĠÃ©clairc issements
ĠcorrÃ© lation
Ġmensong es
Ġjurispr udence
ĠKazakh stan
A ss
J amais
b el
h ei
Ġd iront
an en
an Ã©ment
Ġqu arti
Ġla ver
Ġpa trie
or tÃ©es
Ġf lam
ĠÃ© ni
Ã¨ les
Ġau be
li en
Ġb is
mp anz
Ġpl at
Ġpl age
ĠM onde
ĠM ann
ĠM IT
Ġdev int
du le
fi able
ĠA C
Ġsa ble
Ġper cevoir
Ġson ge
Ġat ro
Ġpers istent
min aires
ĠR am
ĠsÃ© par
Ġop tÃ©
Ġesp Ã©rÃ©
dÃ© mique
Ġrep ar
Ġrep enser
Ġgrand issante
rib ue
ĠH el
Ġsouti enne
Ġfer mÃ©s
Ġgrande ur
Ġress or
Ġda me
Ġavan cent
Ġexpri mant
ĠÃ©t onne
Ġentra ves
Ġaccomp lissement
Ġchi mpanz
Ġsus pi
ĠprotÃ© gÃ©
Ġfi let
Ġremp lit
Ġdiscu te
Ġconcent rÃ©
ĠMa urit
Ġsour ire
Ġconvainc ante
Ġang ois
ĠexÃ©cu tions
ĠdÃ©ce vant
Ġblan cs
Ġdiver ti
Ġappu yant
Ġatten dez
Ġhu meur
Ġred onner
Ġinuti lement
Ġfabri quÃ©s
Ġeffond rer
Ġprivil Ã¨ges
Ġaggra vation
Ġinterven u
ĠTh omas
Ġattra y
Ġimmob ili
Ġmini miser
ĠmÃ¨ ner
Ġem m
Ġspor tifs
Ġcos mÃ©
Ġannonc Ã©e
Ġclub s
Ġroum ain
Ġneur ones
Ġfragment ation
ĠprÃ©mat urÃ©
Ġdor Ã©navant
Ġfame ux
Ġhomosex uels
ĠÃ©nergique ment
Ġgrimp er
ĠLeh ne
ĠdÃ©sord re
yan mar
ĠmÃ©taph ore
Ġrap at
ĠXI X
ĠdÃ©rÃ©glement ation
Ġcomplais ance
Ãº n
Ġpragma tisme
Ġquarti ers
M A
P ouvons
l ler
n s
Ġs cul
Ġt Ãªtes
om es
ĠdÃ© cev
ar iser
ĠrÃ© sident
Ġje tte
Ġtra ins
Ġca mara
Ġcomp ar
Ġdi git
Ġgr en
mi f
at or
Ġinter min
Ġinter rog
Ġexp i
ist antes
Ġnom bres
ĠO IT
ĠÃ©v ite
Ġemp ois
rie d
Ġti rÃ©es
ĠF ord
ĠG or
Ġcar re
Ġsitu ent
Ġsitu Ã©s
ĠL os
Ġlib Ã©rÃ©
Ġinc itants
Ġvis ages
ĠÃ©g lises
Ġabord Ã©es
Ġuni fiÃ©e
Ġcours es
Ġcri mine
ĠV ladi
Ġcommen Ã§ant
ĠrÃ©g lÃ©e
Ġform Ã©s
Ġ5 6
Ġlan cÃ©s
ĠmÃ©di ation
ĠÃ©p anou
Ġno tification
Ġsuc cÃ©
Ġche vaux
ĠcrÃ©er a
Ġfra ction
Ġfi lets
ĠcontrÃ´ lent
Ġsemb lÃ©
Ġoppos ons
ĠcomplÃ¨ tes
Ġextra ction
ĠÃ©tro its
ze mb
Ġaime z
Ġbr illant
Ġemploy eur
ĠrÃ©flÃ©ch i
ĠGr and
Ġsuivi es
Ġrequ ins
Ġexamin Ã©es
ĠopÃ©ration nels
Ġradic ales
ĠMal ms
Ġbois sons
ĠFran cis
Ġautor itaires
Ġpersonn ages
Ġvari ations
Ġfournis seur
Ġisol Ã©s
ĠrÃ©pand u
Ġterritori ales
ĠmÃ¨ nera
Ġinterro ge
Ġrecev ra
ĠexcÃ© dents
Con sid
Ġinforme l
Ġfranch ise
Ġenrich issement
Ġhosti le
Ġchauff age
Ġpanne au
tag eux
Ġintol Ã©rance
Ġenle ver
ĠdÃ©loc alisations
ĠconcrÃ© tisation
ĠIN D
Ġcanc ers
Ġromp re
Ġbioma sse
ĠdÃ©sag rÃ©
Ġspira le
ĠMalms trÃ¶m
D ix
F aire
V oud
a que
d ner
m as
v itÃ©s
Ġl ue
qu in
er ie
Ġe h
ur itÃ©
ri g
ri ront
ch aient
Ġre de
Ġre ga
Ġpl ante
ĠP i
Ġac qui
ĠM yanmar
Ġimp a
ĠE instein
Ġrapp elez
Ġaut ob
Ġou ra
gi on
ise ment
ac ts
Ġinter rompu
Ġat ter
ĠR Ã¼
ĠÃ©v itant
um an
ours es
ĠD Ã©claration
ĠG il
ĠL ors
Ġpe in
pi ration
Ġinc once
Ġ19 30
ĠH Ã©
Ġva rie
Ġvis ites
Ġconn aisse
Ġas tronom
Ġjou ir
Ġgra ines
Ġver ront
ĠLa tine
Ġur nes
Ġcher chant
ĠdÃ©pens ent
Ġidenti fiÃ©s
Ġth er
Ġtomb Ã©s
Ġcolle ctivement
Ġsuper vis
Ġparta gÃ©s
ĠdÃ©pend ants
Ġalterna tifs
Ġcompli quer
Ġcommence z
Ġst op
Ġexamin Ã©s
Ġatten tive
ĠprÃ©sid Ã©
Ġrecons titution
Ġcouv rant
Ġapprovisi onnements
Ġvisi blement
ĠFran k
Ġviv ait
Ġjuge ments
Ġimpliquer ait
Ġressemb lait
Ġarchite ctes
Ġsouvenir s
Ġincl uses
ĠlittÃ©ra ture
ĠRi o
Ġamend er
ĠDar win
Ġmigra tions
Ġinterromp re
Ġloy autÃ©
Ġstimul ant
Ġarres tations
Ġinconn u
Ġgouverne urs
ĠAss ociation
Ġgou tte
Ġlatin o
Ġsupran ation
ĠFerre ro
ĠAng lais
ĠOuz bÃ©
ĠPÃ©r ou
Ġrhu me
ĠJar zemb
Ġremb ours
Ġmic ros
Ġcrimine lle
A n
k ing
t os
y on
Ġp yra
Ġc um
Ġv aud
que tte
Ġpar itaire
Ġpro vid
Ġg Ã¨ne
Ġre viendra
ĠprÃ© cieuses
Ġpr or
ul Ã©e
Ġent rÃ©es
Ġres tons
Ġres tants
ĠÃī cofin
Ġentre tient
ine use
ĠB ange
ĠB ig
Ġat outs
Ġdiff Ã¨rent
Ġman gent
Ġses sions
ĠdÃ©m ago
tra ire
ĠF A
ĠN et
Ġcol l
olo gies
Ġmont rÃ©s
Ġpermet tait
ĠK e
Ġindi gÃ¨nes
Ġnouveau tÃ©
ĠV ir
Ġavan tageux
Ġcul tiv
ĠW olf
Ã¯ ka
Ġcentra ux
Ġatta chement
Ġchi ites
ĠTur k
ĠprotÃ© gÃ©e
Ġsc an
ĠlÃ©gisla teur
ĠlibÃ©ra liser
ĠÃ©valu Ã©
Ġven aient
Ġchois is
Ġenvoy Ã©e
ĠthÃ© orique
ĠthÃ© ories
roy ez
Ġbar riÃ¨re
Ġgard ant
Ġsyn d
ĠprÃ©para toire
Ġpalestini ennes
ĠÃ©l ue
Ġprovo quÃ©e
Ġdistin gue
Ġcompos ent
ĠdÃ©rou lÃ©
ĠinterprÃ© tÃ©
Ġbat terie
Ġgre cs
Ġfas c
ĠsystÃ© mique
af ric
ĠÃ©chapp Ã©
Ġextraordinaire ment
roc arb
Ġattribu Ã©
ĠCol lÃ¨
ĠdÃ©clen chÃ©
ĠrÃ©vis Ã©
Ġrang s
Ġempire r
Ġdoub ler
Ġescla ves
ĠdÃ©lica tes
ĠÃ©te indre
Ġchanti er
ĠrÃ©uni fication
Ġconsister ait
Ġhorizont ale
ArrÃª te
Ġcong rÃ¨s
Ġembry ons
Ġidi ot
Ġarchi ves
Ess ay
ĠDeux iÃ¨me
Ġench Ã¨res
ĠRed ing
Ġreconsid Ã©rer
Ġhormon es
ĠrÃ©n ov
ĠOuzbÃ© kistan
ĠBange mann
A V
O P
P ri
S ou
S ais
b b
c rÃ©
c Ãºn
r Ã¨res
w ood
Ġ Quel
Ġl oup
Ġp iles
ti g
Ġs unnites
ĠÃ© lÃ©g
me z
li a
Ġin adap
Ġcom ble
ĠrÃ© cep
Ġdans er
ch age
Ġne ts
ĠP ie
Ġpr ouvent
Ġsi Ã©
Ġimp op
Ġapp a
Ġdi eu
ĠA PE
Ġinter dÃ©pendance
ĠB Ã©
Ġvi ves
ĠS tu
ĠS ara
ĠdÃ©c omp
Ġat terr
Ġal ent
gra d
Ġconcer tÃ©e
Ġtrans c
ĠdÃ©b ar
Ġor b
ĠO omen
Ġdisp ers
Ġaff ron
Ġpubli Ã©s
oute z
Ġdemand Ã©e
Ġfer vent
ma teurs
ang le
Ġfond ent
ara ge
Ġabord ons
Ġpres criptions
Ġfais able
Ġbi omÃ©tri
Ġveu illez
Ġvol ant
Ġz o
Ġsigni fient
ĠÃ©qu itablement
ron ie
Ġmoyen nant
ĠrÃ©un it
ĠÃ©t onner
ĠarrÃª tÃ©e
Ġconsta tation
ĠprotÃ© geant
Ġconv o
Ġtrouve rez
Ġsouten ues
Ġcoup Ã©
Ġrou es
ĠcontrÃ´ lÃ©s
ĠrÃ©sou dra
ĠrÃ©a pp
Ġmari er
Ġcolle ction
Ġmand ats
Ġsp ont
Ġmora litÃ©
Ġfacil ite
Ġapprouv Ã©es
Ã¶ r
ĠopÃ©ration nelles
tal ine
Ġ13 0
Ġnavi ga
Ġfou et
Ġpes ant
ĠCa mer
Ġhor reur
ka chenko
Ġinterd ite
Ġajus ter
Ġment alitÃ©
Ġsubstanti elles
Ġsubstanti els
ĠWal dner
Ġignor ent
Ġcombin Ã©e
ĠCI A
Ġvain cre
Ġpros pÃ©
Ġassassin ats
ĠprivilÃ©gi er
Ġclandes tins
ĠamÃ©liore ra
rin aires
ĠÃ©loi gner
Ġfen Ãªtres
Ġpare ille
ĠdÃ©favoris Ã©s
Ġfructu eux
Ġressent ent
Ġrespectu euse
Ġmassac res
ĠmolÃ©cu le
Ġende t
hu it
ĠAnge les
Ġexh orte
ĠvÃ©tÃ© rinaires
ĠdÃ©clar ant
ĠOs lo
Ġja une
Ġfant Ã´me
Ġsouter ra
Ġallocu tion
ĠMitch ell
ĠchrÃ© tien
ĠEv ans
Ġadvers aires
ĠMaurit anie
ĠJarzemb owski
O S
b ur
d om
g res
l l
r ine
t Ãªte
Ġc itation
ou re
Ġ. .
er n
an cÃ©
Ġen tiÃ¨res
Ġce inture
ĠdÃ© forestation
Ġpour rai
Ġb lÃ©
Ġb ourses
Ġpl ong
ĠC Ã´te
Ġsur viennent
Ġav Ã¨rent
ter ies
ĠP u
ĠM ari
Ġo deur
Ġent rant
Ġmon des
Ġser ve
for ment
Ġfin ira
Ġinter culture
ven u
Ġpers Ã©v
Ġman uel
ĠT IC
ĠT alibans
ĠdÃ©m unis
gu ay
Ġconf Ã©rer
Ġmin ce
anis ation
Ġappro cher
tis te
Ġoc cul
Ġsub ti
Ġnota ble
Ġ5 1
Ġ5 4
Ġlim itent
Ġver di
Ġcan aux
Ġessay ent
ĠarrÃª tÃ©es
Ġpoursui vis
Ġobser vateur
Ġ7 8
Ġpi c
Ġdess ins
Ġsuiv ront
Ġinnov ants
Ġfu sions
Ġdix iÃ¨me
Ġreje tÃ©s
Ġenvoy Ã©s
Ġquali fication
Ġsuper puissance
Ġconfir ment
Ġpol y
Ġbr us
ĠhÃ© tÃ©
ĠdÃ©velopp ant
Ġral li
tici ens
Ġaccus Ã©s
Ġfl or
Ġcompens ations
ĠrÃ©ta bli
Ġsusp endu
Ġmat uritÃ©
ĠdÃ©fend ons
Ġlacun e
gh ans
ĠfrÃ©qu entes
ĠrÃ©vis Ã©e
Ġaddi tion
ĠOC M
Ġcontrovers Ã©
Ġcontrovers Ã©e
Ġsurven u
Ġsonda ge
dÃ©p end
ĠdÃ©centra lisation
Ġukrain ien
ĠrÃ©or ient
ĠcoÃ¯n ci
ĠinconvÃ©ni ent
Cin quiÃ¨me
Ġvigou reusement
Ġcoute au
commun au
Ġtacti ques
ĠrÃ©pÃ©ti tion
ĠTch ad
Ġcauche mar
J ohn
M ont
P resque
R Ã©s
T ra
c ol
d h
d in
e ba
j ten
o ff
o Ã»
u il
v ar
Ġd enti
Ġa jour
an amo
ĠÃ ´
Ã¨ nement
li ques
Ġin ventions
ĠdÃ© form
Ġpar vienne
ĠrÃ© ci
ĠrÃ© ception
ĠC entra
Ġi mb
Ġac a
ĠM at
Ġmo tivÃ©
Ġcons Ã©cu
Ġconc lut
tr ant
mi des
ite ur
Ġvi cieux
Ġco gni
Ġad versaire
Ġexp ulsion
Ġat tir
ĠdÃ©p lorer
Et ant
Ġfor cÃ©s
ĠR en
gn Ã©es
uti le
Ġass istants
Ġderni Ã¨rement
Ġrep rÃ©s
Ġcar ences
Ġna talitÃ©
Ġtu meur
th e
Ġindi ens
ĠV ol
ĠprÃ©v aut
Ġenc our
Ġtransp orter
Ġform ules
ĠmÃ©di a
Ġdonner ai
Ã©lic op
Ġref roi
ĠW est
Ġinstru ction
Ġfran chi
ĠcompÃ©ti tives
Ġconcent rations
ĠgÃ© rÃ©e
ĠCe ci
Ġsatisf ont
Ġcolle ctifs
Ġcondam nons
Ġpren ait
Ġconfir mation
Ġentend ue
ĠrÃ©uss it
Ġrent rÃ©
Ġtur bul
ĠirrÃ© aliste
Ġrassemb lement
Ġintellectu el
ĠsoviÃ© tiques
ĠnÃ©gli gÃ©
ĠWal l
Ġdevi endrait
Ġimmob iliers
Ġsti gma
Ġbus iness
Ġcontradi ctoire
Ġexcessi ves
ĠmÃ©ta ux
Ġaper Ã§
ĠÃ©loign Ã©s
Ġbiblioth Ã¨ques
jac entes
Ġasc ense
Ġinfe cti
ĠdÃ©coura ger
Ġrigi de
ĠlaÃ¯ que
Ġinterpr Ã¨tes
Ġconfidenti alitÃ©
Ġbulga re
Ġimpressionn ante
Ġher be
ĠdÃ©tente urs
ĠPra gue
Ġdota tion
ĠdÃ©par tement
Ġmalh onn
ĠflÃ¨ che
Ġcatalyse ur
Ġtraje ctoire
ĠVladi mir
Ġinconce vable
ĠreprÃ©s ailles
D A
H A
R E
S ouvent
c Ã´
i cacitÃ©
p ond
r inaire
Ġs illage
qu is
Ġm ente
Ġm ienne
om Ã¨tre
ta lement
Ġj adis
Ġre lÃ©
Ġex on
ĠP en
end raient
ĠM org
Ġh oraires
Ġh Ã©licop
Ġcons istait
Ġrapp orter
iss age
Ã©ra bles
ĠS taline
Ġexp ressions
Ġal phab
ĠT w
Ġni g
Ġuti l
lo ire
Ġlib Ã©rÃ©s
ĠH ans
Ġfer ions
Ġsous cri
ĠrÃ©sul tent
Ġjou et
ĠprÃ©v ision
Ġjusti fient
Ġvoy ait
Ġsign Ã©e
Ġrespect ons
Ġencoura gÃ©e
Ġges tes
Ġcondu cteur
Ġfi ction
Ġsau vage
ĠrÃ©ser vÃ©e
Ġappar us
Ġaffir mant
ĠprÃ©f Ã©rÃ©e
ĠimmÃ©di ats
Ġcorre ctes
Ġprend rait
ĠBar Ã³n
Ġphot ographie
Ġfrapp ant
ĠRou ge
Ġ198 8
ĠcatÃ©g oriquement
Ġrac istes
ĠcohÃ©r entes
ĠirrÃ© gu
Ġreconnaiss ants
Ġfabri quÃ©
Ġsouci er
ĠRe hn
Ġinterd isant
Ġenvisage ons
Ġplai der
Ġcl Ã´t
Ġincont ourn
Ġax Ã©
Ġconten ait
ĠQ a
Ġhyd rocarb
Ġproc lam
ĠÃ©duca tifs
Ġcre user
Ġhypoc rite
Ġmagas ins
att le
ĠHer zÃ©govine
Ġobti endrons
Ġprolong Ã©e
kh az
ĠÃ©pous e
ĠÃ©pau les
ato eba
Ġdissua sion
ĠvÃ©tÃ© rinaire
Ġdissim uler
Ġadmi ration
Ġassoup lissement
ĠnÃ©cessiter a
Ġaffich age
Ġradioa ctifs
ĠÃ©chantil lon
ĠrÃ©ins tal
Ġinscri vent
Ġenca d
ĠAc cord
Ġbombarde ments
Ġdiab Ã¨te
ĠToute fois
ĠÃ©me utes
Ġinterconnex ion
Ġconclur ai
ĠHarb our
Ġping ou
Ġsynd rome
A ut
P rÃ¨s
R es
S ommes
i ers
on Ã©si
Ġa z
Ġs ons
Ġs Åĵurs
er cu
Ġla ps
Ġt ours
Ġpa ttes
or tait
us hima
Ġin fin
ci ences
au te
Ġsur g
Ġi tin
Ġav Ã¨nement
tu de
ĠP au
Ġac cession
Ġo v
Ġtra ce
Ġcomp ose
ten tions
ĠE mp
Ġan tÃ©rieure
fi a
Ġaut os
Ã©ra teur
Ã©ri ons
Ġinter ruption
ĠB lo
ĠS ier
Ġman teau
ct on
Ġsoci alisme
ĠrÃ©p ercu
ĠF ab
ĠF uk
Ġcompr enne
Ġind onÃ©si
Ġinstitu t
Ġpass ages
Ġindi gnation
Ġcul tiver
Ġtransp lantation
Ġlim itant
Ġlim itations
Ġvoy ant
Ġsuc cession
Ġencoura gÃ©s
Ġten ais
ĠbÃ©nÃ©fici era
ha fi
ĠAn go
Ġouv rage
Ġcou tu
Ġcou tume
Ġimm un
ĠÃ©li re
Ġpopul istes
Ġinsu laires
Ġdiver gence
Ġ0 3
Ġchan tage
ĠcaractÃ©ris Ã©
Ġespagn oles
ĠrÃ©ag issent
Ġinsuffis ances
Ġdiss oci
ĠdÃ©sastre use
Ġsoud anais
Ġisol Ã©e
Ġprati quent
ĠcÃ©rÃ© monie
Ġpsych ologie
ĠdÃ©bu ts
Ġdissi per
ÃŃ a
ĠÃ©loi gnÃ©
Ġcommand es
Ġgenti l
ĠrÃ©sid us
Ġrecti ficatif
ĠimprÃ© v
ĠfÃ©min ine
ĠdiplÃ´ mes
ĠpossÃ©d ant
Ġsoula gement
ĠAnge la
Ġscep tique
Ġilli cite
ArrÃª tez
Ġinsul te
ĠdÃ©lÃ© guÃ©s
ĠMus ulmans
DÃ©s ormais
ĠprÃ©judici able
ĠdÃ©blo quer
Ġenn uis
Ġbaf ou
Ġasy mÃ©tri
Ġorthod ox
Ġatmosph Ã©rique
ĠindÃ©si rables
ĠcoÃ¯ncid ence
ĠPhilipp ines
Ġalent ours
Ġnig Ã©ri
ĠAngo la
a si
j k
k ara
p lex
z oo
Ġ +
Ġl ot
en di
en Ã§ons
Ġa isÃ©e
Ġm iel
Ġla x
le tte
ra ser
Ġpa ri
or ant
ont aine
li eu
Ġb andes
oi ds
Ġg loire
de x
Ġra ma
ĠM ora
Ġh oraire
Ġtr oupe
Ġimp r
Ġca chÃ©
Ġam er
Ġinter pel
Ġman uels
ĠI voire
ĠR and
Ġtrans mises
Ġcro issantes
Ġemp athie
Ġcontre d
Ġrec uler
ĠD ire
ocra tique
Ġpe inture
Ġobjecti ves
Ġmal heur
Ġmet tait
Ġmen ons
pi ers
ĠJ i
qui er
ĠdÃ©s h
Ġinves tissent
Ġnu is
ali ment
ĠspÃ©ci alisÃ©s
Ġ5 8
Ġpara di
Ġsuff ira
ĠcoÃ» tera
ĠÃ©qu ation
Ġsais is
ĠpÃ©ri odi
Ġpos tu
Ġfi le
Ġfi ctif
Ġrencont rons
Ġassur ent
Ġprov oc
ori ale
ĠmÃ©r ites
ĠSch w
Ġcoh ab
Ġexclu sive
Ġsurpr en
Ġrati o
Ġsimpli citÃ©
Ġdiver gent
Ġconvi endra
Ġintellig entes
ĠÃ©cla tement
Ġbout on
Ġprim autÃ©
Ġincer tain
Ġconne cter
ĠRe agan
Ġinterd ites
Ġphysique ment
Ġscand ales
ĠÃ©pi zoo
Ġvari ables
Ġirak iens
Ġplani fier
ĠreprÃ©senter ait
Ġtransit oires
Ġagisse ments
ĠdÃ©ri ve
Ġgratu ite
ĠSe attle
Ġcontes ter
Ġopti mistes
ĠdÃ©te ction
ĠDi am
ĠrÃ©col ter
Ġvend ent
Ġconnex es
ĠparallÃ¨ les
Ġaccru es
ĠÃ©va sion
Ġvigil ants
Ġspati al
ĠpossÃ©d ons
ĠrÃ©ac teur
Ġsousc rit
Ġenra yer
ĠantÃ© rieures
ĠprÃ©par ons
Ġdisproportion nÃ©e
ĠspÃ©cific itÃ©
ĠLou kachenko
Ġchirur gie
ĠGuant anamo
Ġsuperf lu
ĠASE AN
ĠillÃ© galement
Ġinapprop ri
ĠNico las
Ġseptentri onale
Ġmyst Ã¨re
ĠNA SA
Ġinterval le
Ġinsupp ortable
Ġterra ins
Ġprovid ence
L ON
T ON
g nement
g iste
m uni
n d
r s
y Ã©
Ã ±
Ġd its
Ġp lier
an cÃ©e
Ġt onne
Ġen lÃ¨vement
Ġes cient
Ġau ss
Ġpar f
Ġpas sive
Ġpas sif
Ġch ant
Ġra ff
onn ons
ui es
Ġma man
Ġser vant
Ġser bes
gi ens
gi eux
ine mment
ĠB ow
ĠdÃ©c ent
ĠdÃ©c rÃ©
Ġal our
Ġaccord ons
Ġop Ã¨re
ĠF ried
ĠD A
ĠD ou
Ġcol lÃ©
ĠgÃ©n Ã©rÃ©
ĠgÃ©n Ã¨rent
Ġmilli er
Ġcr uellement
Ġ19 0
ĠK u
Ġatt rait
Ġfonction naire
Ġ5 7
ĠdÃ©fin issent
Ġdou anes
Ġban lieu
ĠrÃ©pond s
Ġexpli quant
Ġfra gil
Ġrend ons
Ġrecomm encer
Ġend omm
ĠÃ¢ gÃ©
Ġouv rent
Ġreli er
Ġchois issent
Ġfu ir
Ġautoris ations
Ġopportun e
Ġconsul ta
ĠlÃ©gi ti
ĠÃ©m inemment
ĠIran iens
ĠÃ©cou lÃ©e
Ġexcellent es
Ġquali fiÃ©es
Ġtradu isent
Ġving tiÃ¨me
Ġrejet tent
Ġaggra ve
Ġsurf aces
Ġirlandais es
Ġautonom es
Ġsalari ale
ĠprÃ©sidenti el
Ġpolitici en
ĠÃ©chÃ© ances
Ġdiscip lin
ĠtragÃ© dies
Ġinex p
Ġineff icacitÃ©
Ġplate forme
Ġsacri fices
Ġgenti lles
Ġhorri bles
Ġrenseig nement
Ġbran che
Ġjui f
Ġembal lage
ĠdÃ©Ã§ ue
ĠprÃ´ ne
Ġinfe ction
ĠÃ©gyp tien
Ġtoile ttes
Ġfoc aliser
Ġboit e
Ġrende ments
Ġmena Ã§ant
Ġsyner gies
Ġbale ines
Ġobsol Ã¨tes
Ġrestitu tions
Ġsucc omb
Ġregroupe ment
Ġinsi gni
any ah
Ġassie tte
Ġcollecti vitÃ©s
Ġengra is
ĠKad hafi
Ġsouterra ines
Ġverdi ct
Ġauss itÃ´t
A b
D ites
D ieu
D onnez
F A
T a
V oyez
b us
f lÃ©ch
g ans
h il
i gnÃ©
l oi
r oupe
t Ã¨res
v ille
Ġd ent
Ã© lande
Ġl itu
Ġc aution
Ġde Ã§
Ġs aines
Ġe ue
ra m
or ith
te ga
Ã¨ cle
Ġin ta
Ġin fi
que z
que ts
ĠdÃ© mes
Ġpar lions
Ġpro di
Ġb eur
ch Ã¨ne
ĠP res
ĠP lus
Ġsu re
Ġimp er
Ġimp acts
Ġsou fre
Ġpoli o
Ġma xi
Ġprop h
Ġser iez
Ġacc ab
mi tisme
da me
En semble
Ġvi ti
Ġco erci
Ġad mets
Ġat lantique
Ġal titude
ĠrÃ©s out
use z
ĠR os
Ġvo tÃ©e
Ġvo lets
Ġcontre car
um s
ver a
Ġren on
ĠN otre
Ġcar t
Ġcar rÃ©
Ġcol line
Ġconsid Ã©rants
Ġmet trait
Ġenvir ons
ĠH i
Ġmainten us
ĠJ osÃ©
ĠreprÃ©sent Ã©e
oris er
Ġarri vait
Ġas pire
Ġvers Ã©
ĠdÃ©cla rÃ©e
Ġress ens
Ġfondament alistes
Ġbas ant
Ġdou x
Ġappel ant
Ġfour mis
Ġref aire
Ġaliment Ã©
Ġfran co
Ġtravers ons
Ġcoord onnÃ©es
Ġend os
Ġindis cu
Ġconnaiss ait
Ġsuppri me
Ġrent ables
Ġrendu es
Ġprison nier
Ġ0 4
Ġencourage ons
ĠrÃ©vÃ© lateur
Ġquit te
Ġassu ment
Ġvisi ons
ĠCan cÃºn
Ġcourage use
Ġhabitu Ã©s
Ġassass inÃ©
200 2
Ġisol ation
Ġliv raison
ĠSa oudite
Ġvolu mes
Ġtemporaire ment
Ġdouani ers
Ġincor re
Ġprag matiques
Ġsacri fier
Ġdiv orce
Ġabsor ber
Ġgagn ants
Ġaverti ssements
Ġaid ant
Ġcami on
Ġenra cin
ĠprÃ©val oir
ĠprÃ©dÃ© cesseurs
ĠrÃ©clam ons
ĠpÃ©nÃ© trer
ĠMande lson
Ġinco h
Ġbrill ante
ĠÃ©ro sion
Ġpne um
Ġincondi tionnel
Ġgazodu c
Ġcord es
Ġcompatri otes
ĠRui jten
Ġautob us
ĠCollÃ¨ ge
ĠbiomÃ©tri ques
CinquiÃ¨me ment
ĠSier ra
9 8
j o
k ins
t z
u ff
v ra
Ġ ut
Ġ olÃ©
Ġd au
ou ille
ou lou
ou est
ent er
Ġn it
un esse
om ination
Ġb ague
Ġg oÃ»
au re
ĠC omp
ĠC resp
ĠP V
end t
Ġra va
Ġra ils
Ġimp ens
Ġent ourent
Ġmon u
Ġsou cis
ga ges
Ġma dame
Ã©ri oritÃ©
onc ent
Ġag ro
ĠB G
ĠB or
ĠB yr
Ġad mission
enti els
Ġtrans mise
gu isme
ĠD am
Ġmain tiennent
ora le
Ġpubli Ã©es
der a
cul ations
ĠK la
ĠV itor
Ġfais abilitÃ©
Ġprom o
Ġcul ti
Ġpara s
Ġver sement
Ġemploi ent
Ġviol entes
Ġbas que
ĠJe unesse
ĠtÃ© les
Ġsais ie
Ġcentra lisÃ©e
ĠÃ©t endues
Ġmod ulation
Ġinv isible
Ġpor nographie
Ġ6 2
Ġpoursui ve
Ġobser vons
Ġconcent rÃ©s
ĠAn kara
ĠLi ik
ĠprocÃ©d ur
Ġharmon isÃ©e
Ġmulti lin
Ġpropose z
ĠapprÃ©ci ons
Ġbar b
Ġpopul isme
Ġrenouve au
ĠgÃ©nÃ© reuse
ĠdÃ©pl orons
Ġtotal itaire
Ġgu Ã©rir
Ġconven able
Ġro se
Ġro tation
Ġcompos Ã©s
Ġraisonn ablement
Ġ198 7
Ġinstitution n
og Ã¨nes
ĠBel grade
Ġbat tus
Ġchamp ign
Ġquit tent
Ġafric aines
Ġitali ennes
Ġincer taine
Ġintergouvernement al
ĠQu in
ĠDa ph
Ġapport ons
ĠAb khaz
Ġincl use
Ġincomp lÃ¨
Ġabat tu
Ġretrouv ons
Ġaccum uler
Ġanc rÃ©e
ĠrÃ©comp ens
Ġprononc Ã©es
ĠGol d
Ġagres sive
ĠÃ©loi gne
ĠdÃ©vas tat
Ġillustre r
oul os
Ġ194 5
ĠingÃ©nie ur
ĠMich ael
Ã©le ction
ĠstupÃ© fiants
Ġfame use
ĠDel ors
Ġtypique ment
Ġinfirmi Ã¨res
Ġfores tiÃ¨re
Ġalg orith
Ġorches tre
ĠÃ©pouvan table
hard t
Ġminus cule
ĠJohannes burg
Ġpavil lon
Ġhecta res
Ġinsatisf ais
ĠMul der
ĠhÃ©gÃ© monie
Ġressor tir
Ġchimpanz Ã©s
ĠXIX e
Ġorb ite
Ġhydrocarb ures
ĠdeÃ§ Ãł
ĠCresp o
ĠVitor ino
ĠLiik anen
C royez
E T
I I
P u
R ec
a w
d al
f er
f ants
m it
o Ã¯
Ġ titu
Ġ Quelle
Ġp iste
re ev
Ġqu ator
Ġm y
Ġla urÃ©
si Ã¨re
Ġes qu
Ġpar u
op oulos
Ġpas sions
Ġg olf
Ġil lic
ĠC ologne
Ġi ronie
Ġra sse
Ġsi en
ul Ã©s
Ġapp Ã©
Ġcomp ortant
fi ables
onn a
Ġaut orÃ©
Ġma riÃ©
vi Ã¨me
mi ons
onne t
at ur
ĠS Ã©nat
Ġrapport ent
ĠdÃ©c Ã©d
ĠdÃ©p Ãª
ĠI F
ĠI stan
Ġren ation
ĠG ore
Ġsitu Ã©es
Ġsta tions
Ġ19 2
Ġconstitu Ã©e
Ġpart ent
Ġvis ait
Ġgroupe ments
ĠreprÃ©sent aient
ĠK er
Ġfond Ã©s
Ġcompte z
Ġcor de
Ġopp ri
Ġgaranti sse
Ġprom ul
Ġver tes
Ġviol s
Ġ4 9
Ġno ble
ĠLa my
ĠÃ©trang es
ap a
Ġfi bres
ĠrÃ©v olutions
Ġgen oux
Ġrou e
ĠrÃ©ser voir
Ġfix es
Ġappar tement
Ġsuiv ons
Ġ9 6
Ġconcent rent
cap it
Ġretar dÃ©
Ġobten ons
Ġencourager a
ĠpÃ©n ins
ĠprÃ©pa rÃ©e
Ġexis tÃ©
Ġorgan ise
Ġfacil itÃ©s
Ġcircons tance
Ġval lÃ©e
Ġcy ber
ĠZ Ã©lande
Ġsimpli fiÃ©e
Ãī c
Ġfrapp Ã©s
cin q
Ġprovo quant
Ġcompli quÃ©es
ĠdÃ©pla cent
ĠOr tega
Ġcroy ait
Ġrepro cher
Ġrac ine
Ġaccus er
Ġanalys Ã©
Ġanalys tes
Ġtransform Ã©e
Ġaffec tÃ©e
Ġconver sion
Ġquotidi ens
Ġapprofon dies
ĠrÃ©guli Ã¨res
Ġsouci e
Ġfrau dule
Ġenvisage able
Ġexplo itÃ©
Ġflo ttes
Ġeffor cent
Seu lement
Ġdispara Ã®t
Ġdivis Ã©s
ĠmultilatÃ©ra lisme
Ġsuppos Ã©s
Ġabouti t
Ġpsych ologiques
ĠhÃ©s iter
ĠdÃ©bu ter
Ġprolon gement
Ġautrich ien
Ġaspi ration
Ġconnex ions
ey nes
Ġagres sions
amÃ©ric ains
Ġinsur mont
ĠaccÃ©l Ã¨re
Ġintr an
ĠrÃ©ve iller
ĠtÃ©lÃ©phon iques
Ġstruct urÃ©
Ġfid Ã¨les
Ġcommande ment
ĠprÃ©par ent
Ġpromette ur
ĠMcC reev
ĠBour se
Ġlament able
Ġtouris tique
Ġintui tion
ĠPri x
Ġassain issement
ĠtchÃ©t chÃ¨ne
Ġarsen al
ĠmÃ©thod ologie
Ġrega gner
ĠFuk ushima
Ġdau ph
ĠByr ne
Ġillic ites
ĠIstan bul
ĠMcCreev y
1 5
F orce
G arde
g hi
m ala
o ter
r antes
t rÃ©s
en ga
or mi
Ġv ire
ro ph
ro Ã¯
Ġest hÃ©
ta dt
us a
Ġin dex
ar da
Ġse l
Ġch Ã¨que
pe z
Ġsi ff
Ġimp itoy
and re
Ġan tisÃ©
fi ante
ĠÃ©c rans
ĠA th
ĠA IE
Ġsa ou
En viron
Ġins ertion
Ġco ol
ĠS Ã©curitÃ©
Ġper plex
Ġmes dames
ĠT or
ĠT anz
Ġprodu ctifs
ĠO x
gu a
ĠcrÃ© ances
ĠF i
ĠF ontaine
ĠL une
out h
Ġdom iner
Ġim mis
Ġri deau
Ġenvir onnements
ĠH il
ĠH omme
ĠJ ose
Ġsouhait ant
Ġsouhait ais
Ġsouhait aient
Ġtech ni
Par tout
Ġas tu
Ġsupp ort
Ġeu ph
Ġcontra indre
Ġ5 2
Ġcapit aine
Ġatta chÃ©
ĠarrÃª tent
Ġoblig Ã©e
Ġrappel lerai
ĠreÃ§ ue
ĠprÃ©f Ã©r
Ġanti p
Ġadap tations
ĠLi ber
Ġobs curitÃ©
ĠgÃ© org
ĠÃ©lÃ©ment aire
Ġcolle cter
Ġsouhaiter ait
ĠthÃ© matique
Ġacqu it
ĠBar rot
Ġarriver ons
ĠdÃ©li m
Ġ11 0
Ġcompa raisons
Ġgard Ã©
Ġfacil itant
Ġcy nique
Ġnorm ales
Ġdistin cts
ĠÃ©cla irage
Ġfl ui
Ġcouver tes
Ġsubs istance
Ġru de
Ġresta urants
Ġ197 9
ĠinÃ©v itables
Ġscandale use
Ġrecev ons
ĠGo e
Ġarbit raires
Ġrevendi cation
Ġchem ise
Ġkilom Ã¨tre
laud issements
ĠmathÃ© matique
Ġfront s
Ġsanction ner
ĠdiplÃ´ mÃ©s
Ġaffaibli e
Ġchu ter
Ġrenf erme
Ġajout ent
Ġukrain ienne
ĠMi k
ĠnÃ©fas te
Ġboute illes
Ġnordi ques
ĠthÃ©rap ie
Ġinterpr Ã¨te
Ġlobby ing
ĠperpÃ©t rÃ©s
ĠbÃ©nÃ©v oles
ĠSo viÃ©
Ġmeu bles
ĠSP G
ĠJack son
ĠirrÃ©ver sible
Ġomni prÃ©sent
ĠcosmÃ© tiques
ĠautorÃ© g
ĠantisÃ© mitisme
d ant
o eu
o ques
v ise
z hei
re urs
in in
ur Ã©ment
Ġpa ire
Ġv enti
Ã¨ des
Ġest om
Ġin tri
Ġpar itÃ©
Ġfa illes
Ġi rai
Ġi rait
Ġch ou
ĠP an
Ġsi enne
Ġtra ces
ten ons
el la
fi ons
ĠA prÃ¨s
Ġacc use
Ġdis cer
Ġinter dits
Ġins p
Ġins ensÃ©
Ġvi ables
ĠS ir
Ġper dure
Ġal lÃ¨
min es
Ġann uelles
ĠConseil s
Ġtravail lait
ĠrÃ©p ert
ĠsÃ© isme
ĠF ace
ĠnÃ©cess itant
ĠG Ã©nÃ©ra
Ġrep ortÃ©
Ġdisp u
Ġci ment
anti s
Ġgouvernement al
ĠH en
tis tes
ĠJ ong
Ġprof itable
Ġsouh ai
ma tie
Ġind ul
ĠreprÃ©sent era
Ġrespe ctives
ĠrÃ©du irait
Ġindi ces
tratÃ© gie
Ġnouvelle ment
Ġnu isent
Ġver tic
Ġcomb inÃ©
Ġdou blement
ill Ã©es
Ġtour ment
Ġple ins
Ġur gences
ĠcrÃ©er ait
Ġinsta urÃ©
Ġentra vent
Ġsus men
Ġcondu ira
Ġporte ur
Ġtrouv Ã©s
Ġsemb laient
Ġfix ant
Ġrev u
Ġouv rant
Ġhabit uel
Ġchois it
Ġcollab orÃ©
Ġobs cur
ĠMa o
Ġrefus ant
verse ments
Ġcatastroph iques
ate mala
Ġentend us
Ġfavoris Ã©
Ġexpos Ã©e
Ġsuppri mÃ©es
Ġconven tionnelles
Ġencourage ants
Ch er
Ġrestri ctives
Ġmassi fs
ĠcaractÃ©ris Ã©e
ĠrÃª ver
Ġcaus Ã©e
Ġint enses
Ġprotoc oles
ĠÃ©chou e
Ġintensi f
ĠCro ix
Ġsaur a
ĠGu atemala
Ġattra ction
ĠKy i
Ġpou b
ĠdÃ©sÃ©quili b
Ġdevi endront
Ġcib ler
Ġmini me
ĠÅĵu v
ĠDÃ© p
Ġconfor table
Ġgasp iller
Ġinva li
Ġdiversi fier
Ġoctroy Ã©e
ĠdiplÃ´ me
ĠÃ©loign Ã©es
Ġinsur rection
ĠprÃ©d omin
Ġboule vers
Ġgrosses se
Ġasc ension
ĠÃ©labor Ã©s
Ġremont er
Su ite
Ġgalax ie
ĠdÃ©val uation
Ġconfond re
Ġinhabit uel
ĠspÃ©cula tifs
ĠdÃ©mante ler
Ġnettoy age
Ġalban ais
ĠpÃ©ni ble
ĠblÃ¢ mer
ĠprÃ©li minaire
ĠdÃ©prÃ© ciation
ĠhypothÃ©c aires
Ġraci ale
ĠapprÃ©hend er
ĠpolÃ© mique
ĠUC LAF
Ġpleu voir
ĠÃ©coss ais
Ġdat ant
ĠJun cker
Ġimpens able
ĠAbkhaz ie
Ġrenation alisation
ĠpÃ©nins ule
zhei mer
Ġsusmen tion
B ER
G B
P ass
c ue
f ra
f ond
n y
s Ã©s
v ens
y ons
Ġp ente
Ġc urie
qu a
rÃ© er
Ġes cro
Ġre vi
de urs
Ġra tÃ©
Ġra tionnel
ĠM ins
ĠM as
ie v
ĠprÃ© dictions
Ġcomp are
Ġdi vid
Ġdi gnes
ĠE cofin
Ġan tis
Ġres pirer
ĠA si
Ġma gnÃ©
Ġeff roy
Ġfin alitÃ©
Ġfin landais
Ġinter actions
ĠB ali
orte z
rai ment
co t
enti ment
ĠR u
gu ent
ĠL iste
nes ty
ph Ã¨res
Ġcha mbres
Ġcitoy ennes
ĠCh e
Ġfer mÃ©es
Ġju gÃ©e
aiss ons
ĠrÃ©g ression
ĠrÃ©g uler
ĠspÃ©ci alisÃ©es
Ġconstru ctions
Ġappel ler
Ġimpos sibles
Ġtrouver ons
Ġsign Ã©s
ĠÃ©t onnÃ©
Ġfra Ã®
Ġexc lue
Ġentra iner
ĠrÃ©glement Ã©e
Ġpoursui vie
Ġeuros cep
Ġorient Ã©e
Ġexerci ces
Ġmanifes tent
ĠAl zheimer
ĠmÃ©r iter
ĠprocÃ©d Ã©s
ĠgÃ© rÃ©s
ĠgÃ© ographie
Ã©v al
Ġcou ler
Ġimm atri
Ġobten ues
Ġcondam nÃ©es
Ġsuper be
Ġimpor tateurs
Ġalli ances
Ġmai gre
ak a
Ġoeu vres
Ġinstal lÃ©
ĠÃ©cla ter
ĠvÃ©ri fie
Ġred resser
Ġred ressement
ĠdÃ©tru its
Ġconver ti
Ġprofiter a
ĠHong rois
Ġaudi ence
Ġlab o
Ġuniverse ls
Ã¡ nam
Ġaggra vÃ©
Ġreprodu ise
ĠdÃ©cou ler
ĠchrÃ©ti ennes
Ġpacifique ment
Ġsolda t
Ġvari able
ĠSh ang
Ġpapi ers
Ġarchite cte
ĠunilatÃ©ra lement
yst Ã¨me
ĠdÃ©sir s
Ġarbit re
Ġfaill ites
Ġmorte l
ĠAu jourd
ĠAg ri
Ġprolon gÃ©
Ġray on
Ġfabric ant
IN G
Ġlicenci Ã©s
Ġrat ta
Ġbran ches
ĠdÃ©mission ner
ĠGre en
Ġentou rÃ©
ĠdÃ©centra lisÃ©e
bo ok
ĠdÃ©clar ent
Ġfe rez
ĠcamÃ©ra s
ĠPD G
Ġalg Ã©ri
ĠKal inin
Ġmenti r
ĠÃ©ligi bilitÃ©
Ġinterag ir
Ġpersuad Ã©e
ĠFlor ence
ĠdÃ©faill ances
Ġhomog Ã¨ne
Ġsupermar chÃ©
Ġcle f
Ġbaign ade
ĠNig Ã©ria
Ġsente z
Ġmam mif
ĠRÃ©public ains
Ġrejoign ent
Ġrapat rie
Ġimpa tient
Ġpyra mide
ĠNet anyah
Ġinterculture l
Ġparadi gme
Ġrasse mble
Ġintran si
Ã¡nam o
ĠKalinin grad
1 1
2 000
A d
F ran
I A
a res
c op
c Ã¨rent
e p
e mment
s k
s pe
t rÃ©e
Ġl inÃ©
re ra
re yer
er ais
Ġm outons
ra ts
âĢ ĳ
Ġin finiment
Ġpro cu
Ġb Ãªte
Ġfa us
eu f
se t
mp ed
ĠC ash
Ġse ctions
ĠP ier
Ġh al
ĠprÃ© lÃ¨vement
Ġimp ro
ul ling
che mire
ut ent
Ġinter a
Ġvi b
Ġbien faits
ĠS ac
Ã©n Ã©ration
sse z
Ġman oeu
tin es
Ġmil ices
ĠO ssÃ©
Ġdonn Ã©s
Ġren oncÃ©
Ġren versement
ĠF SE
ĠG auche
Ġaff lu
Ġsitu Ã©e
ĠL ulling
Ġim iter
Ġappro xi
ĠH at
Ġtu Ã©es
Ġmi gn
Ġplan che
Ġdur ablement
Ġnu isibles
Ġreg istres
Ġiniti ales
Ġoff rira
Ġfonda teur
Ġfav ori
ĠLa mb
Ġagricul teur
ĠLe one
Ġintrodu isant
Ġdoute ux
Ġpor cs
Ġcoup les
Ġaccepter a
Ġvoter ont
Ġ9 8
Ġoppos Ã©es
Ġinflu er
ĠlÃ©g ers
Ġretour nÃ©
ĠSch reyer
ĠapprÃ©ci ent
Ġveiller a
Ġexcep tionnellement
Ġcombat tu
ĠSu u
ĠrÃ©uss issent
Ġami ante
Ġbal lon
Ġconven us
Ġconven ablement
Ġcommence ment
ĠAmÃ©ric ain
Ġrequ in
Ġscientifique ment
Ġperd ant
ĠdÃ©tru ite
ĠDe puis
Ġdisposer ons
ĠaccÃ©lÃ© rÃ©
ĠdÃ©sas tres
Ġstabil is
ĠChyp ri
europÃ© enne
Ġracont Ã©
Ġmotiv Ã©s
Ġmeur t
gh t
ĠCor an
ĠexpÃ©riment ations
ĠdÃ©saccord s
ÃŃ n
Ġchans ons
Ġspor tif
ĠdÃ©v o
ĠÃ©loign Ã©e
Ġchasse urs
Ex c
ĠKo fi
ĠGre cs
Ġenle vÃ©
ĠinquiÃ©tant es
ĠschÃ© mas
Ġalarm ante
Ġgouverne ur
ĠFer n
Ġrecouv rement
ĠdÃ©loy ales
ĠApp le
Su pp
Ġolymp ique
Ġsectorie lles
Ac cord
ĠvÃ©gÃ© tales
Ġroy aume
hÃ©r an
Ġasp irent
ĠpÃ©d op
Ġsuccessi fs
Ġeffac er
Ġtristes se
ĠBlan che
Ġlucra tif
Ġmanufact uri
ĠGand hi
ĠantidÃ©mocra tique
ĠpersÃ©v Ã©rance
Ġbeur re
Ġprocu rer
mped usa
4 0
6 0
D C
T r
i raient
Å Ħ
Ġp li
Ġc it
Ġc end
Ġs Ã¨
in ter
Ġm iti
si Ã¨cle
Ġdes ser
ĠÃ© pu
ta ines
Ġin action
Ġb er
oi ve
se pt
Ġsur s
Ġje t
ens Ã©ment
ĠprÃ© side
Ġcons ent
ĠE T
el ho
Ġsou lÃ¨vent
Ġces s
Ġy en
Ġma rÃ©e
Ġar genti
Ġinter viennent
Ġinter dictions
ĠB oli
Ġvi er
ĠS tan
ĠS ocrates
Ġal ar
Ġpers ister
Ġmar ines
enti elles
ĠR oc
ĠdÃ©b ord
Ġvo eux
ĠO l
Ġemp ortÃ©
cep tions
ĠN ab
Pour rais
Ġsitu Ã©
Ġgrand issant
Ġcap tures
Ġvis u
ĠJ im
ang Ã©s
ĠconsÃ©qu ente
Ġtu ent
Ġsoi e
Ġinstitu ts
Ġcor rompu
Ġjou ant
omb res
Ġ4 50
ĠrÃ©pond ra
ĠÃ©p ing
nÃ© si
ĠLa mpedusa
Ġfran cs
Ġ6 7
Ġir re
ĠÃ©largis sements
Ġappar ues
Ġ9 7
Ġoppos ant
Ġrev it
ĠdÃ©si rons
ĠÃ©m ise
Ġlut tes
Ġcombat tants
Ġpopul iste
Ġgard es
Ġval ait
Ġperdu es
ĠdÃ©cider a
Ġdiver gentes
ak i
Ġ198 5
ĠdÃ©rou lÃ©e
Ġtrib us
Ġcroy ais
Ġnum Ã©r
Ġred ou
Ġempr ise
ĠallÃ© gement
Ġcaus Ã©es
ĠÃ©tique ttes
Ġfas siez
Ġru meurs
Ġap titude
gyp tiens
Ġappui ent
ĠrÃ©cla mÃ©
Ġviv aient
ĠmultilatÃ©ra ux
Ġsuppos Ã©e
Ġprati quÃ©
ĠÃ©tonn amment
Ġble us
ĠadhÃ© rÃ©
ĠÃ©larg it
Ġrigou reuses
Ġinclu sive
Ġindire cts
Ġ196 7
ĠÃ©mo tionnel
ĠrÃ©in vent
cha Ã®
ĠdÃ©sespÃ© rÃ©e
Ġrecon version
ĠBe hr
ĠcinÃ© mat
urg ien
ĠsÃ©cur itaire
Ġunanime ment
Ġfrag ilitÃ©
ĠrÃ©or ganis
Ġenfre int
Ġfacul tÃ©
Cin q
ĠBÃ¶ sch
Ġbalay er
ĠGuant Ã¡namo
Ġobsol Ã¨te
Ġcata lo
Ġimmeu ble
ĠdÃ©savan ta
ĠstÃ©rÃ© otypes
ĠdÃ©nomin ateur
Ġinsou ten
ĠredÃ©fin ir
Ġpingou ins
Ġquator ze
ĠTanz anie
ĠOssÃ© tie
Ġapproxi ma
K en
V oyons
on au
ou illes
er landais
an taine
Ġn auf
Ġle cteurs
Ġf Ã©dÃ©ration
ro se
ĠdÃ© lin
ch o
Ġpl uies
Ġse mi
ĠP eut
ĠprÃ© da
ĠprÃ© dis
ĠprÃ© pond
Ġr ouvrir
pe ur
Ġtra cÃ©
ĠComm issaires
Ġres tes
Ġser rÃ©
Ġser as
Ġgr is
Ġar du
Ġam ont
ĠB un
Ġbien ve
ĠS T
ĠS ou
ĠS olid
Ġad join
Ġmes urÃ©
ner gie
min eux
Ġnos tal
ĠprÃ©sent ait
Ġtro Ã¯ka
ĠmÃ© da
ĠG er
Ġmain ts
ĠL Ã©
Ġcol onie
ĠdiffÃ©r end
gram mes
Ġadop tions
Ġlib anais
ran gÃ©
Ġsouti endront
Ġinform Ã©e
ĠâĢ ĺ
ĠreprÃ©sent ons
Ġsous traire
ĠrÃ©f Ã©rer
oli tiques
Ġappr enons
Ã©nÃ© zu
Ġver b
Ġsuff rage
Ġsigni fiait
ot ti
Ġsal les
Ġtrouver ont
Ġcan cÃ©
ĠdÃ©pens ons
Ġsy mÃ©tri
Ġaider ont
ĠprÃª tÃ©
Ġloin tain
ĠbÃ©nÃ©fici aire
Ġpasser ait
Ġmanque ments
Ġanti terr
Ġprov ocation
ĠY ou
ori al
Ġidenti tÃ©s
Ġsol vabilitÃ©
ĠmÃ©r it
Ġmari Ã©e
Ġmari ages
ager ie
ĠtroisiÃ¨me ment
Ġminist Ã¨res
Ġcivi ques
Sur tout
Ġ18 0
Ġexaminer ons
Ġfavoris era
ush arra
Ġbru its
Ġbat tent
Ġ14 0
Ġtab ou
Ġconstituer ont
Ġconsoli dÃ©e
Ġquotidi ennes
Ġhor lo
Ġhom ophob
Ġutilise z
Ġsoum ission
ĠTh ess
Ġautor outes
Ġpsy chi
200 3
Ġisol Ã©es
Ġinspi rÃ©e
ĠÃ©tonn ante
Ġliv rÃ©
Ġtre ize
ĠdÃ©ploy Ã©
Ġdesign ers
ĠmodÃ© rÃ©
Ġcompati bilitÃ©
Ġsusc itent
Ġrivi Ã¨res
Ġprovin ces
ĠÃ©criv ains
yn n
ĠdÃ©cid Ã©es
Ġroum ains
ĠrÃ©or ganisation
ĠÃ©limin Ã©
Ġflag rant
Ġsuici des
ĠNÃ© erlandais
ĠvÅĵ u
ĠdÃ©liv rance
ĠBÃ¶ ge
ĠdÃ©coup lage
Ġaveug les
Ġsyner gie
he ad
Ġtouris tiques
ĠmÃ©dioc re
Ġrenvers Ã©
ĠapprÃª te
Comm enÃ§ons
ĠTÃ© hÃ©ran
Ġfle uve
ĠLang en
Ġfir mes
ĠCentra le
ĠMins k
ĠBehr endt
usharra f
C onn
D onne
L i
b at
c able
e mp
e th
l om
m or
m ait
m Ã¨tre
Å ¡
es el
Ã© die
Ġl Ã©s
Ġp ans
Ġc lore
qu en
is it
Ġla pi
Ġf Ã©ro
Ġau gure
Ġin er
Ġin cess
Ġin fini
ar ch
al onique
Ġfa ctions
oi ff
Ġg Ã¨re
Ġg Ã©rÃ©es
Ġre ine
Ġre form
Ġcon ce
Ġcon fin
la ss
di ez
ĠP r
ĠP uis
ort ons
Ġh Ã©ritÃ©
Ġsu prÃ©
Ġmo tiver
Ġimp ul
Ġent ourant
ten dez
Ġan th
ĠA ct
ĠA ung
Ã©r ente
Ġconc ili
tr om
Ġar mateurs
ĠB ah
ĠnÃ© ant
ĠS ter
ĠdÃ©c er
Ġal tÃ©
Ġal la
Ġab rit
ĠT rÃ¨s
ĠT ob
ĠR as
Ġren Ã©g
Ġrep li
Ġconf is
Ġobjecti vitÃ©
olo giste
Ġcha otique
Ġcr uel
ĠreprÃ©sent ations
Ġhum our
Ġiniti Ã©
Ġplace ment
Ġprom eut
ĠW a
ĠW illi
ĠÃ©val ue
Ġconfi Ã©
Ġani mÃ©
Ġaider ait
Ġporte urs
Ġrappel ons
rain iens
ĠÃ©lab ore
Ġreli e
ĠmÃ©th ane
Ġhabit at
ori ens
Ġfu sil
Ġharmon isÃ©
Ġcorre ctions
Ġimm obil
Ġappliquer a
ĠÃ©cou lÃ©
Ġexcep tionnels
Ġha Ã¯
Ġha usses
Ġcondition nalitÃ©
Ġaband onne
ĠUk rainiens
Ġsuppri mÃ©s
Ġnorm aux
ĠEsp agn
Ġdiver gents
Ġabou tissent
Ġaccent uer
ĠtÃ©lÃ©ph onie
Ġtri angle
ĠprÃ©sid er
Ġcouver te
Ġtrou ble
Ġdispar us
Ġexplo itÃ©es
ĠQu arte
Ġ197 3
ĠdÃ©couv re
Ġkil o
Ġautoma tiques
Ġdoc tora
ĠBro th
Ġretrouv Ã©s
ĠrÃ©conc ilier
ĠrÃ©col tes
Ġforum s
Ġaid Ã©s
ĠCo elho
ĠdÃ©taill Ã©s
ĠimpÃ©ri alisme
ĠBon ino
Ġdouce ur
ĠÃ©vÃ¨ nement
amen ei
ĠdÃ©rÃ©g ulation
ĠÅ ł
Ġvirtu el
Ġjustes se
ĠÃ©touff er
ĠdÃ©stabil iser
Ġenva hi
ĠRoth ley
Ġcardia ques
DR ES
Ġapplaud is
Ġsuspe cts
Ġbulga res
Ġperturb ations
Ġbale ine
Ġannex es
Ġvaloris ation
Ġtropi cales
ĠTit ley
ĠDim as
ĠrÃ©cup Ã©ration
Ġdop age
ĠGau lle
ĠdÃ©cal age
Ġexpi ration
ĠFrancis co
Ġatterr issage
ĠprospÃ© rer
LON DRES
ĠPres tige
Ġestom ac
ĠDÃ©p ression
ĠShang hai
ĠAgri culture
ĠThess alonique
ĠsuprÃ© matie
B ill
F aut
I mp
N P
b dom
c os
i ro
n ous
Ġl isez
en fants
Ġa pi
Ġa iles
in ts
Ġqu an
Ġt unis
Ġf es
Ġf oie
il Ã©
Ġen su
Ġen tiers
ĠÃ© dul
Ġb Åĵ
Ġfa u
eu tique
Ġg amin
Ġpo t
Ġpo lar
Ġpo Ã©sie
Ġch Ã¨res
end es
ĠM ai
Ġmo que
Ġpr u
Ġca mb
ĠE d
ĠÃ©c ologie
ĠÃ©c rits
Ġma gist
at han
ĠB ab
Ġon des
ĠS tar
ĠdÃ©c onne
Ġvou lue
Ġpers istance
min g
alis ant
Ġenv oient
Ġsuis se
gu Ã©es
Ġass entiment
Ġti rÃ©e
Ġesp i
Ġvoud ront
dÃ© jeuner
Ġcar ton
Ġinc lin
Ġdemand ais
Ġgar dienne
Ġvis uel
Ġsoi f
ĠrÃ©f rig
Ġris quÃ©
ĠdÃ©cla rÃ©s
Ġprotection niste
Ġabs ur
ĠprÃ©v isi
ĠrÃ©g issent
Ġlim it
Ġpara p
Ġrel ais
Ġviol er
Ġcentra lisÃ©
Ġaliment e
Ġir ri
ĠIs la
Ġhe bdom
Ġcal mer
ori eux
Ġfu ites
Ġth Ã¨se
ĠLi fe
Ġradi odi
Ġconsul tÃ©s
Ġcru autÃ©
Ġdange reusement
Ġvit aux
Ġexis taient
Ġsp orts
Ġexemp tions
Ġimpression nÃ©
Ġaband onnÃ©s
Ġtable aux
aÃ¯ que
Ġsuppri mÃ©e
ĠdÃ©mar rÃ©
Ġso laires
Ġbru talement
ĠPro gramme
ĠdÃ©n oncÃ©
ĠÃ©lectora ux
Ch ris
Ġpan el
Ġlogique ment
ĠX ia
Ġclasse ment
Ġprim aires
Ġpropor tionnelle
ĠsystÃ© matiques
ĠinÃ©g al
ĠaccÃ©lÃ© rÃ©e
Ġsaur ons
Ġsymp a
Ġrassemb lÃ©
Ġliqui ditÃ©
ly n
Ġirak iennes
Ġallou Ã©es
ĠimpÃ©ra tifs
Ġabouti ssement
Ġiran iennes
ĠÃ©quival ente
ĠrÃ©pand re
Ġamp lement
Ġdiscip lines
Ġphilosoph e
ĠhÃ©s ite
ĠÃ©tend us
Ġsty lo
Ġmagni fiques
ĠÃ©man e
Ġpal lier
Ġabsor b
ĠHer man
ĠdÃ©sa vantage
Ġration alisation
Ġchir urgien
ĠÃ©gyp tienne
Ġatom es
ĠKara s
Ġminuti eux
Ġafghan e
ĠlÃ¢ che
Ġcub ain
Ġrenvoy Ã©
Ġincompati ble
Ġsollic iter
ĠBour l
Ġinfli ger
Ġsolenne lle
ĠaÃ©r onau
ĠdÃ©brou iller
Ġtraum atis
ĠprÃ©fÃ©re rais
Ġincin Ã©ration
Ġram Ã¨ne
ĠÃ©oli enne
ĠintrinsÃ¨que ment
Ġbarba rie
ĠWhite head
Ġexpon entielle
Ġgentilles se
Ġlitu an
Ġnit ra
Ġmultilin guisme
Ġrapatrie ment
ĠChypri otes
Ġiner tie
Ġensu it
Ġhebdom ad
Ġradiodi ff
a rÃ©
g ations
h ad
i Ã©
l itÃ©s
n ing
p Ã©s
p osition
w ley
Ġp oup
Ġa Ã®
ti qu
Ġs tra
in k
in en
Ġpa p
Ġv int
us tion
Ġin im
Ġpar lais
Ġpar don
Ġpro tagon
ci on
ch ir
Ġre tenus
Ġav Ã©rÃ©s
Ġex ode
Ġch anges
di eux
Ġra ch
Ġtra its
Ġca sser
mb les
ĠÃ©c ologistes
Ġsa chent
Ġou t
at ta
Ġvi endront
Ġco que
Ġimport ent
ĠdÃ©c rite
Ġpers istante
Ġab er
Ġann u
Ġfor ger
ĠT ex
ĠR es
ose z
Ġcontre p
Ġass um
ĠD is
Ġvoud ra
Ġrep or
Ġcar rÃ©ment
Ġavoir s
pu y
Ġess u
Ġvis Ã©s
Ġense ignÃ©
ĠJ on
qui ons
Ġindi ennes
ĠrÃ©sul ter
Ġord onnÃ©
ĠprÃ©c Ã¨de
ĠprÃ©v isibles
Ġnota bles
ari es
Ġ5 9
Ġvol can
ĠdÃ©fin issant
ĠcoÃ» ter
Ġattein dra
Ġdou bles
ĠfÃ©lic itÃ©
ill ants
ill ard
rÃ¨ tement
Ġdemander a
Ġfam ilier
land er
Ġattend aient
Ġ6 4
Ġret ours
Ġtrouv ais
ĠdÃ©ta chement
Ġajou tant
Ġjourn ali
Ġmontre ra
Ġhabit uelles
Ġobs c
Ġstatu ts
Ġharmon isÃ©es
Ġsin istre
Ġparven ions
Ġprend rons
Ġacqu ises
Ġexer cÃ©es
Ġcivi que
ĠprÃ©ser va
Ġsurpr endre
Ġfrapp Ã©e
Ġintel li
Ġaccent u
Ġ198 4
Ġprosp Ã¨res
Ġpan ier
Ġconver tir
ĠCa chemire
Ġru meur
Ġattribu Ã©s
Ġaffe ctant
Ġcriti quent
Ġviv ante
illi ons
Pr ends
Ġdon ateur
Ġenthousias te
In ter
Ġlou er
ĠhÃ©s itation
ĠprivilÃ©gi Ã©e
ĠEL DR
ĠmathÃ© ma
Ġsac rÃ©
Ġdiv ise
Ġadh Ã©rents
amÃ©ric aine
Ġmuni tions
ĠAnd erson
Ġsubvention ner
ĠMo z
jac ente
ĠdÃ©ser tification
Ġdoulou reuse
ĠdÃ©loc alisation
ĠtÃ©lÃ©phon ique
Ġprovisoire ment
ĠÃ©lo ge
Ġportefeu illes
Ġtransnation ales
ĠÃ©chantil lons
Ġincompati bles
ĠprÃ©judici ables
ĠÃ©ligi bles
Ġtriomph e
ĠMande la
Ġtrip le
ĠcorÃ© enne
ĠÃ©pidÃ© mies
Ġcaro tte
Ġquere lles
uc co
ĠCer tains
Ġexacer ber
Ġdiverti ssement
Ġimmobili Ã¨re
Ġscan ner
Pass ons
ĠCash man
ĠNab ucco
ĠBourl anges
A E
L oin
R B
T elles
V a
a ques
b ig
b ies
c us
c ÃŃa
d dh
i z
j ani
v it
v oy
Ġd urs
Ġd ures
en berg
ou sie
Ġs ine
Ġpa per
or Ã©es
te re
ar iste
Ġj oy
Ġpro ver
al lem
Ġfa isions
Ġre tenti
ĠC lau
Ġsur vient
Ġi ront
di ff
ge mment
ni ons
ol ont
ol fe
ĠM en
ĠM usharraf
Ġh abilitÃ©
ĠprÃ© dit
sid es
Ġai le
ul Ã©es
Ġcomp tant
Ġcont ents
ord on
Ġsou pe
ui ons
ĠA P
ga z
Ġprop ager
Ġacc omm
vi ces
Ġdis que
Ġins Ã©rer
Ġvou lant
ond es
lis se
as co
am an
ĠO ost
Ġop Ã©rant
Ġren omm
ĠF l
ĠG ates
dÃ© o
ocra te
Ã¢ cle
ig o
ĠCh ance
Ġsta des
ĠK ab
ĠK eynes
iti Ã©
Ġabs tention
Ġver sements
ot ype
Ġcomb ustion
Ġple ut
Ġpos ons
ĠLe inen
Ġsau mon
Ġobser vÃ©e
ĠlibÃ©ra lisme
Ġrend rait
Ġapporter ont
Ġ9 00
ĠrÃ©sou d
Ġconcent rÃ©e
Ġmu tations
Ġsor tis
ĠAl ban
ĠlÃ©g Ã¨res
ĠempÃªcher a
ĠdÃ©pend ante
Ġgard ent
Ġperman entes
ĠdÃ©pl oie
ĠdÃ©mar rage
ersonne l
Ġcompli ments
Ġcorrespond re
ĠNi cara
Ġnum Ã©ros
ĠcatÃ©g orique
ĠBer Ã¨s
ĠÃ©lec trom
ĠcohÃ©r ents
oh l
Ġdistribu teurs
ĠsÃ©pa rÃ©e
Ġconne ctÃ©
ĠRe garde
Ġcalcul Ã©
Ġillus trent
ĠrÃ©si li
Ġnomm Ã©e
Ġcl ose
Ġbienven us
Ġspecta culaires
Ġkil os
Ġinh Ã©rents
Ġinfluen cÃ©
Ġdomin ant
ĠWal lis
Ġinspi rÃ©s
Ġpassion n
ĠperÃ§ us
Ġjaponais es
Ġvent re
Ġcuis iner
Ġopti miser
Ġimpati ents
AR C
Ġmultipli Ã©
ĠrÃ©comp enses
ĠbrÃ» ler
ĠbrÃ¨ ves
Ġabsent s
ĠrÃ©affir mÃ©
Ġtrompe use
Ġempris onnÃ©s
amÃ©ric ain
Ġparviend ront
Ã©nÃ©g al
Ġconsister a
Ġration aliser
Ġmob ili
Ġpakistan aise
ĠspÃ©cu lateurs
ĠstÃ© ril
Ġmalent endus
Ġfascin ant
Ġsuperfici e
ĠdÃ©du ire
Ġpassep orts
Ġapplaud issements
Ġinterf ace
ĠinadÃ©qu ate
Ġparalys Ã©
Di ff
ĠdÃ©d ommage
Ġsyri en
ĠÃ©ri ger
Ġmajoritaire ment
Ġrab ais
Ġcommer Ã§
Ġjun te
ĠmaÃ®t res
ĠmÃ©ridi onale
Ġinterlocu teurs
Ġvainque ur
Ġproa ctive
Ġdigit ales
Ġoura gan
Pri mo
ĠTw itter
Ġitin Ã©ra
ĠQuin ze
ĠAth Ã¨nes
ĠAIE A
Ã©val uer
Ġinim agin
ĠOost lander
M et
O U
P R
a tement
k os
n utri
o fs
v ot
y e
Ġd ense
Ġp itiÃ©
Ġa raign
Ġc Ã©li
Ġs ter
Ġs Ã©n
Ġs phÃ¨res
Ġpa trons
Ġpa quets
Ġf ine
ri el
ri rait
li on
ĠdÃ© ra
ĠdÃ© gu
ci ente
oi gne
ch w
Ġg er
Ġg olfe
Ġpl ant
Ġpl au
ĠC oupe
Ġch ag
Ġch rom
ter res
ter min
ĠP al
ni Ã¨res
ĠM ouve
Ġca da
Ġcomp lets
Ġan xi
Ġres tÃ©es
ui vre
Ġli aisons
Ġma sses
Ġgr Ã¨
da c
pr om
Ġins istent
Ġper tine
Ġper cepti
Ġmes urÃ©e
Ġann ulÃ©
Ġfor fait
ĠI ou
ĠT ous
Ġpri ori
ĠdÃ©b Ã¢cle
Ġmarch ent
ĠÃ©v itÃ©e
tra tions
Ġti endront
ĠF ront
ĠF rÃ¨res
ĠG ui
Ġcha ir
des c
Ġinc itÃ©
Ġgar ant
Ġvis Ã©
ĠdÃ©f e
ĠdÃ©f endue
Ġappli quons
Ġeffi cience
Ġhum ilitÃ©
Ġsui vis
Ġarri vÃ©es
Ġaccep tant
ĠnÃ©goci Ã©e
Ġinves tis
Ġord onn
ches ter
Ġprom ets
Ġreconn aisse
ĠspÃ©ci alisÃ©
ov ie
Ġconstru its
Ġcan al
ĠW ynn
ĠLa b
Ġchar itÃ©
Ġdo g
ĠrÃ©un issent
Ġhab ile
Ġdiri gent
Ġatta chÃ©s
ĠTur cs
Ġpor tÃ©es
Ġpoursui vons
Ġ10 3
men sion
Ġexpl oration
Ġcoord onnÃ©
ĠintÃ©g rant
Ġinnov ante
Ġbou ddh
ĠAl muni
ĠgÃ© ants
ĠCe pendant
ĠÃ©cou lÃ©es
Ġang lo
Ġpol len
Ġaugmenter ait
Ġaband onnÃ©e
Ġrempla cÃ©s
ĠhÃ© ber
ĠcÃ© dÃ©
ĠÃ©quilib rÃ©es
Ġbru talitÃ©
Ġdistin ctes
Ġconven ons
Ġcontinent ale
Ġrequ Ãªtes
Ġ198 6
Ġinstal lÃ©s
Ġplais anter
ĠcaractÃ©ris ent
ĠÃ©cri vait
ĠprÃ©cÃ©d ant
Ġtransform Ã©s
ĠCan cun
ĠCan aries
Ġsouci eux
rop ie
Ġsyndi cat
ĠBos ton
Ġinscrit es
Ġignor ons
ĠlÃ©gitime ment
ĠdÃ©clen che
ĠmÃ¨ tre
Ġinterinstitu tionnelle
ĠfrÃ©qu ences
Ġtrom pÃ©
Ġmange ons
Ġramen Ã©
Ġdiv ul
Ġremet tent
Ġtromp ent
ĠdÃ©vas tateur
Ġplur aliste
Ġcommand Ã©
Ġoctroy Ã©s
ĠAnd ers
Ġinsur gÃ©s
ĠKo we
ĠrÃ©tic ents
Ġpluriann uels
Ġcuri ositÃ©
Ġanalo gie
anou kov
Ġmunicip ales
ĠrÃ©par tir
ĠTrans n
ĠAd minist
Ġtrah ison
Ġnoci fs
ffe ctivement
ĠsÃ©du is
ĠBur undi
Ġvaisse au
ĠHau tala
Ġenca dre
Ġinco hÃ©r
ĠonÃ© reux
Ġimmeu bles
Ġplon ger
Ġdouz aine
ĠDal aÃ¯
Ġcoordin ateur
ĠdÃ©sintÃ© gration
ĠminÃ©ra ux
ĠÃ©claire r
Ġaffron tements
ĠCamer on
ĠrÃ©instal lation
ĠcollÃ© gi
ĠFace book
ĠAlban ais
Ġster ling
Ġchrom os
Ġpertine mment
ĠAlmuni a
anoukov itch
9 7
A m
S ont
V ingt
c la
g ur
h is
k op
s ky
s aharienne
Ġd ort
Ġl isant
Ġp in
ou f
Ġun it
Ġun issent
si er
Ġen sui
Ġdes truct
li bÃ©ra
ĠdÃ© r
Ġpro cur
Ġre lÃ¨vement
se y
Ġpl onge
Ġi ronique
Ġr ange
Ġsi d
Ġdev rez
Ġcons omme
Ġcomp tait
ĠÃ©c o
ĠA I
ĠA i
ĠA s
iss Ã©
ĠÃ©ta tiques
Ġpays ages
da go
Ġinter m
Ġinter vienne
ĠB rit
ĠB ay
Ã©n er
ĠT ri
ĠT PI
Ġpri mi
Ġcro issants
ĠsÃ© cession
Ġfon ci
Ġaff am
cul Ã©
Ġmal nutri
Ġpropos ait
ĠJ an
Ġinstitu ant
oris ation
Ġhum iliation
Ġsub sides
Ġcontra ction
Ġpublic itaires
Ġavan Ã§ons
Ġform Ã©e
Ġsuff irait
ĠdÃ©ci da
Ġvoy agent
ob s
Ġcir culent
Ġatta chÃ©e
ĠpÃ© dago
Ġvois ine
Ġtrouv ant
ĠtÃ©lÃ© char
Ġrencont rÃ©e
Ġappar tenir
Ġsol li
Ġprogres sent
Ġmora ux
Ġcircons criptions
ĠÃ©mer gent
Ġfab rique
Ġrempla cÃ©e
Ġenre gis
Ġconven tionnelle
Ġcorrespond ance
Ġplac ent
Ġoeu vrer
Ġcoura mment
ĠrÃ©vÃ© la
Ġrac iste
Ġaccus ent
Ġhistorique ment
Ġmaxim al
Ġvenu es
ĠsÃ©pa rÃ©es
ĠÃ©chapp ent
Ġadress Ã©s
Ġeffor Ã§ons
Ġsent ais
Ġpou ce
Ġpou lets
Ġurb ains
ly wood
riche t
Ġdiz aine
Ġrob uste
Ġamp u
ĠamÃ©lior Ã©s
Ġtox ique
Ġsoulign Ã©e
Ġquar ts
ĠunilatÃ©ra les
ĠrÃ©mun Ã©rations
Con tin
Ġaffi chÃ©
Ġoctroy Ã©es
ĠÃ©pre uves
rid ge
ĠimpÃ©ri aliste
Ġeffra yant
ĠÃ©di tion
ĠÃ©di fice
ĠHol ocauste
Ġanalo gue
Ġarra che
Ġfar ce
Ġpira terie
ĠGar cÃŃa
zi o
Ġassoup lir
Ġminuti eusement
ĠPD J
ĠrÃ©par tis
ĠGro sse
Ġinfirmi Ã¨re
ĠrÃ©vol te
ĠPla th
Ġcontempora ine
tend ent
Ġaver tir
Ġpom piers
ĠarmÃ© ni
Ġillim itÃ©e
ĠsecrÃ¨ te
Ġcris tal
Ġcircu its
ĠrÃ©uti lisation
Ġoli ve
Ġendi guer
parti te
ĠRÃ¼ big
ĠpÃ©dop or
ĠBoli vie
Ġpru demment
Ġlimit roph
ĠNicara gua
Ġmobili Ã¨res
Ġmalnutri tion
9 6
A h
G lob
L P
L ui
R I
S ouv
d ote
e ction
h in
i mp
m ence
n alisme
p an
s Ã©e
u p
w s
w Ã©
y ez
z on
Ġa une
Ġc ant
is aient
il d
li enne
ĠdÃ© ris
ne aux
Ġpro hi
ire z
Ġb os
ĠrÃ© Ã©valuation
Ġfa utes
Ġg arage
Ġcon gÃ©s
de aux
ĠC orÃ©
ĠC PI
Ġch al
di x
ni k
ni ti
Ġra che
ĠM onnet
ens tein
Ġh ur
Ġo lig
Ġr onde
Ġtra cer
Ġtra Ã®ner
Ġent rai
du cation
Ġan orm
ĠÃ©c li
Ġli on
ĠÃ©ta ge
ĠÃ©ta tique
tr ui
Ġam user
Ġinter fÃ©rence
Ġinter fÃ©rer
Ġag ran
ĠB oud
ĠS c
ĠS ant
Ġad min
ond ur
Ġab aisser
ĠT s
ĠT ro
ĠT ha
ĠT richet
gn ait
Ġvo tent
Ġmarch ait
Ġemp ressement
ĠcrÃ© ateur
ĠcrÃ© ature
ĠD anie
ĠN ass
cun do
ĠgÃ©n Ã©riques
rib e
cul teurs
Ġconstitu tions
Ġvis Ã©es
ĠdÃ©f ensive
Ġvoi le
Ġabord able
Ġdur ent
Ġvers Ã©es
Ġprote ctions
Ġ20 30
Ġfonction nait
Ġabs trait
aiss es
Ġpublic itÃ©s
Ġreconn ait
oura ge
Ġ5 3
Ġcour ts
Ġcour tes
ĠvÃ©r itÃ©s
Ġrem Ã¨des
Ġinvestisse ur
Ġinv olont
ĠrÃ©glement Ã©
Ġreven ons
Ġrou ler
Ġdialo guer
Ġ8 2
Ġexpl osÃ©
ĠAn t
ĠÃ¢ gÃ©e
ĠentraÃ® nement
Ġlo go
Ġexploit ent
Ġexac tes
Ġchance liÃ¨re
Ġsin o
Ġacqu itter
ĠdÃ©li vrer
Ġexis tenti
ĠadÃ©qu ation
Ġtemp ore
Ġtemp Ãªtes
Ġmus cles
ĠhÃ© mis
Ġreti rÃ©e
ĠopÃ©ra teur
Ġperdu rer
ĠprÃ©para tions
ĠdÃ©termin ent
ĠrÃ©fugi Ã©
Ġdistin cte
Ġcompli cations
tÃ©g rer
Ġformul Ã©s
ĠdÃ©char ges
Ġsinc Ã©ritÃ©
Ġfas cisme
Ġcompens atoires
Ġcomprend ront
ĠcomplÃ©ment aritÃ©
ĠfÃ©dÃ©ra lisme
tt om
Ġap titudes
Ġsatisfais ants
Ġbel ges
Ġreprodu isent
Ġautor oute
Ġattra pÃ©
Ġliqui des
ĠcrÃ©a tif
Ġcop ine
Ġsurvi vants
Ġabat tre
ĠdÃ©fav orable
Ġexister a
Ġcraign ons
Chacun e
Ġray onnement
Ġaci des
Ġambigu Ã«
Ġimparti ale
ĠfÃ©min in
ĠSer vice
Ġintitu lÃ©e
Ġcho quant
ĠLu la
ĠVerh ofs
Ġemmen Ã©
Ġalarm ant
ĠprÃ©mat urÃ©e
ĠÃ©quip Ã©s
ĠÃ©quip age
ĠdiffÃ©renci ation
Ġtransmet trai
ĠApp laudissements
ĠreprÃ©senta tive
ĠDel hi
ĠdÃ©pourv u
ĠGro en
ĠMed ina
Ġdil ig
Ġnot oire
Ġsubstitu er
Ġembra sser
ĠillÃ© gi
Ġath lÃ¨
fel d
Ġparticul aritÃ©s
Ġaccess oires
Ġcondamn ations
Ġsuspi cion
Ġstop per
ĠFA O
ĠTurk m
Ġinfecti euses
ĠRand zio
Ġendos ser
ĠJose ph
ĠcÃ©li ba
ĠAdminist ration
ĠVerhofs tadt
C onc
a taire
l vi
n ard
t Ã¨rent
z oph
z Ã¡
Ġa ne
Ġs omm
Ġs onner
Ġs chi
Ġn ar
Ġn ouer
ra f
Ġt ar
Ġf ol
ous se
our t
us t
ant h
ĠdÃ© cevoir
Ġpar king
Ġj oins
Ġfa ctures
eu p
ĠC ox
Ġsur n
Ġsur venir
Ġav ois
Ġse gment
Ġch ron
ĠP it
ĠP ort
Ġra jou
Ã©s us
Ġdev iner
Ġai mes
Ġca chÃ©s
Ġdi esel
ĠE TA
ĠÃ©c ris
Ġres tru
je ctif
ĠÃī gyptiens
Ġar d
Ġpu zz
oy e
oc al
Ġinter viens
Ġins istant
ss ante
ĠS W
Ġper cÃ©e
Ġper dez
ĠdÃ©c Ã©dÃ©
Ġmar quÃ©es
ist rie
Ġcommun ique
lu ie
ĠG ordon
Ġprin ce
Ġdisp aritÃ©
ĠCh en
ĠH an
ang Ã©es
Ġba p
ĠgÃ©nÃ©ra lisÃ©es
ĠrÃ©du ira
Ġservi rait
Ġpass ation
Ġuni fiÃ©
Ġcri cket
Ġabs tenue
ĠprÃ©c aritÃ©
Ġbi cycle
Ġrecher chent
Ġform alitÃ©s
Ġcour bes
ĠAm nesty
ĠcontrÃ´le urs
ctu eux
Ġno bles
Ġple ure
Ġmodi fiant
Ġforme lles
Ġexc itant
Ġconcurr encer
Ġdiri gÃ©es
lan tations
Ġchi ite
Ġdispos ait
Ġreven ue
ĠÃ©tudi ent
Ġfai blement
Ġpi eux
Ġexpl oser
Ġ9 3
ĠempÃª chant
Ġache vÃ©e
Ġemb oute
Ġsin gu
Ġreje tÃ©es
ĠÃ©cou lÃ©s
ĠpÃ©n aliser
Ġexclu es
Ġnour ris
Ġconfir mÃ©e
Ġtradu its
Ġrenouve lÃ©
Ġtran che
Ġmus cle
Ġcy nisme
Ġsyn ch
Ġsimpli fiÃ©
ĠÃ©l ud
Ġfrapp ent
Ġcompli citÃ©
Ġencourage ments
Ġrestri ctive
Ġpay e
ĠdÃ©tru ites
ĠdÃ©tru isent
ĠrÃ©ag it
Ġvisi onnaire
Ġapprouver a
Ġplai dÃ©
Ġaggra vÃ©e
Ġillus oire
ĠTh at
Ġpou les
Ġblo quÃ©e
ĠcrÃ©a tives
Ġquin quen
In utile
ĠMc Car
Ġenregist rÃ©es
Ġpassion nant
Ob ama
Ġdiscrimin atoires
Ġbless ure
Ġsoulign ons
ĠtÃ©moi gnÃ©
Ġchaleure ux
ĠcÃ©lÃ¨ bres
ĠrÃ©ex amin
Ġaccum ulent
ĠEuro dac
oo ds
Ġcre ve
ey nÃ©si
ĠKh amenei
Ġartifici el
amÃ©ric aines
Ġlob bies
Ġexhaus tif
ĠPE V
Ġconcurrenti elle
ĠgÃª ne
ĠÃ©labor Ã©es
Ġrecouv re
Ġescomp tÃ©
Ġescomp tÃ©s
Ġmous tiqu
ĠpÃªcher ies
ĠultÃ© rieur
Ġdil u
Ġnaz is
Ġaffaib lit
Ġpom pe
Ġinapprop riÃ©
Ġcodi fication
ĠaÃ©r one
Ġpuni tion
ĠÃ©mette urs
ĠincompÃ© tence
ĠrÃ©Ã©quilib rage
Ã©lect rique
Ġcoll ision
communau taires
Ġturbul ences
ĠEmp ire
ĠappÃ© tit
Ġsouhai tions
fond Ã©
Ġeuroscep tiques
ĠPier re
Ġnauf rage
ĠBun des
Ġhorlo ge
Ġparap luie
ĠaÃ©ronau tique
Ġanxi Ã©tÃ©
ĠTransn istrie
ĠGrosse tÃªte
Ġane c
Ġschi zoph
2 2
A tt
D H
R en
c Ã©ra
d ou
k es
m uss
o der
Ġ ros
Ġc oc
Ġc reuse
an che
Ġe us
Ġe Ã»t
ur rent
un ies
ĠdÃ© tra
Ġpar cs
pp i
ĠC et
la cer
Ġex or
di mension
Ġo h
pe dia
Ġcomm ise
Ġcons omment
ul ant
Ġres pira
Ġrapp ortÃ©
ĠA insi
Ġsa pe
Ġprop age
Ã©r ur
lÃ¨ ver
ĠB ob
ss oure
Ġco tisations
Ġon de
ĠS Ã©
ĠS ans
Ġad ressent
Ã©n istan
ĠrÃ©s ur
Ġab ro
ĠT r
ĠT atoeba
Ġtrans forment
ĠdÃ©b iteurs
ĠO ly
tra ge
Ġti rÃ©s
Ġti gre
Ġuti lement
Ġrec ense
Ġrec ondu
ĠD eng
ĠL ann
ĠL yn
Ġconf us
anti ni
Ġdemand Ã©s
ĠH y
ĠH on
ĠH al
Ġsouti endrai
Ġgar diens
Ġvis uelle
ma il
ĠK han
Ġatt ribue
Ġabord ent
Ġph are
Ġvers Ã©s
Ġbon us
Ġinvesti t
Ġoff erts
ĠV igo
Ġsimp liste
Ġhist oriens
Ġtransp osÃ©
Ġtransp ortÃ©s
Ġgra s
Ġpara ch
Ġpara issait
ress Ã©
Ġconstru isent
Ġcli ma
Ġexpri mons
Ġimpli quait
ĠW ar
Ġsy mÃ©trie
Ġatta quent
Ġconsta tÃ©es
Ġcondu its
Ġfran che
Ġobser vÃ©es
Ġ7 2
Ġmer c
Ġloc alisation
Ġrou le
Ġpasse re
ĠÃ©valu Ã©s
Ġdiscu tÃ©e
Ġtransf Ã©rÃ©
Ġven geance
Ġfu meurs
ĠmÃ©c onn
are mment
Ġconser vÃ©
Ġparven ues
Ġbar rage
Ġpous siÃ¨re
ĠÃ©mer gÃ©
ck x
Ġreti rÃ©s
Ġdeven ait
Ġtotal itaires
Ġtotal itarisme
ĠrÃ©gu lateur
ĠdÃ©pla cÃ©
Ġcorrespond antes
ĠdÃ©rou lÃ©es
Ġpollu antes
ĠRom ney
Ġtravaille z
Ġemprun tÃ©
Ġhy bri
Ġuniverse lles
ĠCro wley
Ġconjoin tes
Ġaccompag nent
Ġenthousias tes
Ġinvent aire
Ġcib lÃ©
Ġengend rent
ĠCar diff
Ġtari fication
Ġmorte ls
Ġrigou reusement
Ġinjusti fiÃ©es
ÃĬ tre
ĠdÃ©passe ment
Ġdommage able
Ġmanquer a
ĠÃ©loi gnement
Ġhosti les
ĠÃ©coute z
ĠÃ©clair cir
Ġcommet tent
Ġabsent e
Ġpertur ber
Ġner ve
ĠHa w
ĠtÃ©moign age
Ġexag Ã©rÃ©
ĠÃ©te int
ĠÃ©met tent
Ġpira tes
Ġdor mi
ars ovie
Ġsomb rer
ĠdÃ©pourv ue
Ġrisquer ait
Ġtransnation aux
ĠsÃ©cher esses
DÃ©s olÃ©
Ġresser rement
ĠultÃ© rieures
Der nier
Ġcanc Ã©ri
ĠrÃ©introdu ire
ĠsecrÃ¨ tes
ĠprÃ©li minaires
Ġgrad uelle
ĠLama ssoure
Ġintime ment
Ġdras tique
ĠÃ©nonc Ã©s
Ġtyran nie
ĠmÃ©tÃ© or
Ġloisir s
Ġincontourn able
Ġnuis ances
Ġtechni ciens
Ġhal lu
ĠRas muss
ĠWilli am
ĠTex as
ĠClau de
Ġsid Ã©rur
ĠDanie l
ĠGroen land
ĠTurkm Ã©nistan
ĠLann oye
ĠRasmuss en
A vons
C om
E u
F OR
O k
] .
k land
m al
n ar
r yth
v ais
Å Ł
Ġl ents
Ġp Ã¨
Ġc aisse
Ġc oiff
Ġs que
Ġn oires
Ġt rÃ©sor
or ganis
us tri
Ġin tes
Ġin opp
ĠdÃ© pe
ĠdÃ© go
Ġj ar
ĠrÃ© tention
ĠrÃ© Ã©lection
Ġg i
Ġg ouff
ĠP ir
ir ant
ĠM os
ĠM ada
ouv oir
Ġh ale
Ġh Ã©ri
ĠprÃ© cur
Ġr anger
pe aux
Ġca li
Ġcomp tÃ©
ĠE m
Ġan cra
Ġsou lÃ¨vement
ĠÃ©c arte
ĠÃ©c outent
Ġma roc
Ġconc urrent
Ġentre tiennent
Ġpu b
Ġfin aliser
ĠB BC
ss on
ĠS R
Ã©n dez
ĠrÃ©s istÃ©
Ġdem andi
tin a
ĠdÃ©b it
Ġass orti
Ġass umÃ©
oin d
ĠF al
ĠD ur
rit es
Ġdisp ute
ĠN ature
par lement
Ġconf ection
Ġri val
Ġcr Ã¢
Ġconstitu tionnels
Ġagit ation
Ġva se
Ġba tte
ĠK GB
Ġna tale
Ġinstitu er
els on
Ġplan e
Ġcontra cter
ĠspÃ© culations
ĠV arsovie
Ġpublic ations
Ġbi don
Ġrecher chons
ĠrÃ©g lÃ©s
ĠspÃ©ci aliste
Ġsuff ire
Ġviol on
ĠcÃ´ tiÃ¨re
Ġhab illement
Ġinsta bles
Ġencoura gÃ©es
Ġfra cture
Ġconfi guration
Ġatta chons
Ġpor tail
Ġ6 8
ris ti
Ġten ez
Ġir rit
ĠlibÃ©ra lisÃ©
ĠÃ©lect ro
ĠreÃ§ us
oni ens
Ġconcent rant
Ġhabit ations
Ġhabit uels
ĠmÃ©r itÃ©
cev ons
Ġus er
ĠprÃ©senter ons
Ġign orÃ©e
Ġenvoy ons
ĠthÃ© matiques
Ġport rait
ub er
Ġang les
Ġvit alitÃ©
Ġtradu ctions
Ġbar il
resse urs
Ġeng ins
ĠZ e
Ġbal les
ĠdÃ©termin ants
Ġaccueil lons
Ġoccup ant
chÃ¨ nes
Ġplac Ã©es
Ġ198 2
Ġtax er
Ġrecons titu
ĠEur ob
ĠcomprÃ©hen sibles
Ġrepos ait
Ġemprun teurs
ork ov
Ġplain t
Ġexplo itÃ©s
Ġach op
Ġenta me
Ġaccr us
Ġsaur ais
Ġattra pe
Ġattribu tions
ĠsÃ©v it
Ġcriti quÃ©e
Ġbloc us
amb ule
ei d
Ġprati quÃ©e
ĠÃ©pr ouver
Ġressenti ment
ĠdÃ©tour nÃ©
Ġtre mp
ette z
Ġinforme lles
Ġmusulman es
Ġinnoc entes
Ġmigra toire
Ġambass ades
Ġartifici ellement
Ġchauff eur
Ġchauff eurs
Ġimparti alitÃ©
ĠfÃ©min ines
Ġirrespons ables
Ġcos tume
ĠxÃ©nophob es
Ġmargin alisation
Ġpla ques
ĠÃ©pous er
dite ur
ĠÃ©lo qu
Ġrigi des
Ġdiffus Ã©
Dem ande
ĠÃ©merge ants
Ġallon ger
Ġbouc lier
ĠperpÃ©t rÃ©es
ĠAlex ander
Ġviole mment
ĠMor illon
Ġampli fier
Ġregroup er
Ġsuccessi ves
Ġpromen ade
Ġjun gle
ĠimprÃ©visi ble
Ġbrou illard
ĠattÃ©nu ation
Ġabstra ction
gas car
ĠÃ©lÃ©ph ants
Ġpater nitÃ©
ĠHow itt
AV E
Ġmalhonn Ãªte
Aut ant
Ġautos uff
ĠBow is
ĠGÃ©nÃ©ra l
Ġcend res
ĠTob in
ĠFl ori
ĠcommerÃ§ ants
ĠMouve ment
ĠKowe Ã¯
Ġpuzz le
Ġinopp ortun
Ġancra ge
1 99
E E
E urop
E ffectivement
F aute
T T
f al
g r
g y
h enti
l op
m ers
m iste
r ure
t ta
Ġd resse
en e
Ġp is
Ġp unis
Ġs aut
in age
it ante
Ġn Åĵ
Ġla ve
Ġla be
Ġt oma
Ġt endue
Ġpa lais
Ġv esti
Ġdes se
ĠdÃ© rais
Ġpour voir
ci des
Ġb ais
al ga
Ġfa une
Ġfa uss
Ġpl ats
ĠC N
ĠC i
ĠC ulture
ĠM Ãªme
ĠM Ã©ndez
Ġh Ã©li
Ġh Ã©rÃ©
Ġtr Ãª
ĠU ru
Ġtra jet
Ġca ge
Ġca du
Ġent rons
Ġent ourage
ĠÃ©c raser
ĠA la
ĠA ma
ĠA ub
Ġli tige
Ġaut op
Ġaut henti
Ġsa b
cu lement
onne l
Ġam oind
oy le
Ġfin aux
Ġques teurs
ĠB il
ĠS and
ĠS cott
ĠS tratÃ©gie
Ġal b
Ġpers istant
ĠdÃ©p or
Ġdiff use
Ġman quait
Ġtravail listes
ĠR oss
ĠrÃ©p li
Ġprodu ctives
ĠdÃ©m ographie
Ġcontre b
ĠprÃ©sent ons
Ġrec r
ĠG on
dÃ© veloppement
cher ie
ĠN elson
form ation
Ġcol ons
ĠgÃ©n it
Ġdom ine
par ce
Ġmal s
Ġcha sser
ig ner
pi es
Ġconstitu aient
ĠH eure
Ġva peur
ĠdÃ©f aire
tis h
ang Ã©e
ĠK iev
Ġinf il
Ġinf lexi
Ġtu y
Ġarri va
Ġarri vez
Ġpres cription
Ġjou ait
ĠrÃ©alis ables
Ġbase ball
Ġbi Ã©lor
Ġcrois Ã©s
Ġdonner ont
Ġsal ut
Ġtota les
ĠrÃ©c it
Ġsais ies
Ġface ttes
ĠLe w
Ġ6 3
ĠÃ©du quer
Ġobser vent
Ġ7 3
Ġloc alement
Ġdialo gues
Ġrend it
Ġ8 6
Ġdiscu tions
Ġaffir ma
Ġhabit ent
dap est
Ġache teurs
Ġmari Ã©s
Ġexpor tateur
ĠvÃ© cue
Ġexcep tÃ©
Ġpren aient
Ġnour ri
ani fes
ĠrÃ©flÃ©ch issez
Ġfacil itation
ĠprÃ©ser vant
Ġtran cher
Ġpose z
Ġambi ance
ĠOM D
od orkov
Ġfig urait
Ġfal loir
Ġsuppri mant
Ġaccueil lie
Ġsup Ã©rioritÃ©
Ġfr om
ĠmatÃ©ri elle
og an
ĠRom puy
tici en
Ġcens Ã©es
Ġmarchand ise
Ġhabitu Ã©
Ġhor mis
Ġeffond re
Ġillus trÃ©
ĠdÃ©g Ã©nÃ©
Ġaffe ction
Ġpou dre
Ġurb anisation
ĠcrÃ©a tifs
Ġgui dÃ©
Ġobligatoire ment
Ġve cteur
Ġbil ans
Ġoptim al
ĠunilatÃ©ra l
Ġabat tus
Ġmine ur
ĠQ ai
ĠfrÃ©qu ents
Ġjoin t
Ġinjusti ces
Ġ196 8
Ġmange z
Ġsain te
Ġsurven ue
Ġmilit arisation
ĠrÃ©form Ã©
Ġfati guÃ©e
IN I
Ġhosti litÃ©s
ĠBu dapest
Ġoctroy Ã©
Ġproje ctions
Ġrespectu euses
Ġpoursuiv rons
ĠSte vens
Ġaccompagn Ã©s
Ġappuy ons
ĠrÃ©tic ences
entre pr
Ġboule versements
Ġinconn ue
Ġconta gion
Ġenfre indre
ĠGar ri
Ġinje ction
ĠdÃ©stabil isation
ĠAss ad
Ġbiotechnolo gies
ĠsÃ©qu ences
Ġtransnation ale
Ġriv aliser
ĠintÃ¨g rent
ĠLeh man
ĠKal las
Ġappauv ri
Ġpessi misme
Ġinhabit uelle
ĠlÃ¨ vres
ĠrÃ©public ain
ĠsoupÃ§ onne
Ġscrupule usement
Ġdysfonction nements
Ġvoc ab
ĠRapp orteur
Ġangois se
Ġcamara des
Voud riez
ĠVir gin
ĠrÃ©nov ation
Ġimpr ud
Ġmonu ment
ĠdÃ©vastat rices
ĠOx ford
ĠautorÃ©g ulation
Ġmammif Ã¨res
Ġinsouten able
Ġhomophob ie
ĠSter ckx
ĠBroth ers
Ġquan tique
Ġradiodiff usion
Ġencadre ment
ĠMada gascar
ĠnÅĵ ud
1 2
A P
L aissons
c onc
m illion
w w
Ã £
Ġc aisses
Ġm ord
Ġt rÃ©s
or cer
Ġf Åĵ
il Ã©e
ta te
ce berg
ri tique
res t
Ġin estim
que ttes
Ġg orge
ĠC F
ĠC ab
ĠC ombien
Ġpo it
Ġi ceberg
ter s
di que
ĠP y
ĠP ara
os ons
Ġsu l
ĠprÃ© lÃ¨ve
pe ment
Ġca ca
Ġent Ã©r
Ġdi ag
ĠE F
Ġan archie
fi le
onn able
ĠA vec
Ġser v
Ã©ra is
Ã©ra teurs
vi es
Ġentre v
Ġentre tiens
at ts
ag nÃ©
ĠS ystÃ¨me
ĠS Ã©nÃ©gal
Ġad ju
Ġmar quÃ©s
Ġfor ti
Ġvo le
Ġprodu isant
Ġrec ourant
ĠF ARC
Ġvoud riez
Ġfinan cent
ĠL ud
Ġobje ctivement
Ġcol onne
par th
Ġamen Ã©e
Ġdemand aient
ĠH ab
ĠH ondur
ĠJ Ã©sus
Ġcontin gents
Ġas tÃ©
Ġjou ons
Ġsupp lÃ©
Ġsupp orte
Ġfonction nant
ĠdÃ©cla rait
ĠnÃ©goci e
ĠprÃ©c aires
ĠV el
Ġheure uses
uri es
Ġprom ise
st one
Ġver rait
Ġver rou
Ġdou cement
Ġcontribu teurs
ĠW oods
ĠÃ©p ais
Ġcentra lisation
Ġinsta ure
Ġessay a
Ġdispos era
Ġtent Ã©s
Ġsus pect
ĠconsidÃ©ra ient
Ġfi ch
Ġlaiss Ã©es
Ġsc ann
Ġdiscu tÃ©s
Ġdiscu table
Ġsolid aires
Ġrev ienne
Ġidenti fiÃ©es
Ġconfront er
ĠLi b
ĠÃ©m issaire
Ġinten able
Ġconvainc ant
ĠprÃ©s omp
Ġprend rai
Ġk g
Ġconsac rent
Ġtradu ira
Ġcondition nÃ©
Ġentend ait
Ġconnaiss ais
Ġquanti tatif
Ġso ja
uni ch
Ġcompli que
Ġneu fs
ĠdÃ©n ouement
Ġperd ront
Ch ez
ĠrÃ©vÃ© lÃ©s
ĠprÃ©t endue
Ġpan europÃ©en
Ġdiminu ent
Ġformul ations
Ġconsoli dÃ©
Ġsubs ister
ĠdÃ©pass Ã©e
Ġabus er
ĠdÃ©fa illance
Ġinterven ue
Ġenvisag Ã©s
Ġ197 4
ĠMon Ã©taire
ĠaÃ©rop or
ĠmÃ©m oires
Ġment al
Ġve illant
Ġexter n
Ġos Ã©
ĠSa ou
ĠperÃ§ oit
Ġlou ables
Ġlou anges
ĠfrÃ©qu ente
Ġaccum ulÃ©
Ġassassin Ã©s
ĠDÃ© veloppement
ano Ã¯
Ġsacri fice
Ġcontrovers Ã©es
Ġadh Ã¨rent
ĠSol bes
ĠrÃ©affir me
esti mÃ©
Ġappe lez
Ġcolon isation
Ġobti endra
ĠimpÃ©ri alistes
ĠrelÃ¢ cher
Ġauda cieux
Ġcab otage
Ġenglob er
Ġstupi des
Ġfar ine
Ġvirtu elle
Ġinvo quer
Ġadoles cent
ĠPES D
Ġminor itaire
Ġvaisse aux
ĠHau g
ĠÃ©mi gration
Ġveil lÃ©
Ġsangu ins
Ġapplau di
ĠinÃ© lu
Ġmanipul ations
ĠWiki pedia
Ġinsol vabilitÃ©
Ġboy cott
Ġimpar fait
eij ing
Ġate liers
Ġattray ante
Ġinterrog ations
ĠLors que
Ġvaud rait
ĠBlo kland
Ġsurpren ante
ĠlÃ©giti mer
Ġcontrecar rer
Ġbarb are
Ġalgorith mes
ĠesthÃ© tique
Ġescro quer
Fran chement
ĠRoc ard
Ġdoctora t
Ġespi onnage
Ġpaper asser
Ġprover be
Ġlimitroph es
Glob alement
Ġrestru cturer
ĠThat cher
ĠdÃ©tra cteurs
Ġjar gon
Ġautosuff is
Ġlabe ur
ĠtrÃª ve
parth eid
ĠHondur as
B A
M ieux
T e
V o
V enez
d ogan
g gen
h er
l antes
Ã ²
Ġl ie
en a
Ġp end
ra l
Ġpa rait
Ġf irent
Ġen ri
ri ght
Ġin j
ĠdÃ© tenu
Ġj ach
Ġb et
ĠrÃ© cur
ĠrÃ© bel
Ġre capit
ais sement
ĠC re
ĠC oca
Ġsur cap
Ġi rons
ge t
Ġac tiver
ĠM it
ĠprÃ© ambule
ĠU RS
Ġcons istent
Ġca chent
ĠE thiopie
Ġan tagon
ĠA E
ĠA lan
ĠA MI
Ġser in
ĠÃ©ta g
Ġparti tion
lÃ¨ rent
Ġfin ales
ag one
Ġinter parlement
ss oni
Ġvi fs
ĠS tra
Ġexp ire
Ġvou Ã©e
co les
Ġdiff am
ĠI anoukovitch
as t
Ġpri ve
Ġni d
Ġass aut
Ã® mes
Ġren aissance
ĠG IE
Ġdisp a
Ã¨g lement
Ġpe urs
Ġpe int
Ġutilis ations
Ġri pos
lo ts
Ġcr uelle
Ġlib Ã¨re
Ġpropos era
Ġgar dien
mis ation
tis Ã©es
ĠJ er
ĠJ am
Ġba gages
Ġind iss
ĠreprÃ©sent Ã©es
ĠK enne
Ġcontin gent
ĠgÃ©nÃ©ra lisÃ©
Ġarri vant
Ġcri er
Ġgra in
Ġviol Ã©s
Ġtour nÃ©s
ĠÃ©trang lement
Ġpos tal
Ġessay ait
Ġconte xtes
Ġobser vatoire
Ġ7 4
Ġ7 6
Ġmer de
Ġpasse z
Ġrend ait
Ġassoci ant
Ġanal y
tar ctique
Ġconcep tu
Ġinflu ent
Ġhui tiÃ¨me
Ġidenti fie
Ġobs tin
Ġmoder nitÃ©
uis enberg
Ġautoris ent
Ġpromouv ant
Ġveiller ons
Ġexclu ant
Ġk eynÃ©si
ĠSu Ã©dois
Ġconseil la
ĠEn ron
Ġsouv ient
ĠdÃ©termin Ã©es
Ġalli ez
ĠEsp ace
Ġgu it
Ġprovo quÃ©es
Ġdistin ct
Ġfonctionne l
Ġcompli ment
Ġcompli ces
Ġmai gres
ĠdÃ©pla cÃ©s
ĠrÃ©pÃ© tÃ©es
og o
Ġbat teries
ĠNi ch
Ġservir ont
Ġral lie
ĠvÃ©ri fiÃ©
Ġlimiter ai
Ġmutu els
Ġcra yon
Ġsubs aharienne
ĠrÃ©di gÃ©s
Ġhor reurs
Ġeffond rÃ©
Ġhandicap s
Ġplai gnent
Ġargument ation
ĠprÃ©al ablement
Ġsent ons
Re gard
Ġexiger a
Ġvari ole
ĠCol lins
Ġax Ã©es
Ġenregist rÃ©e
ĠperÃ§ ues
Ġamp oule
ĠCI T
ĠprÃ©ven tif
ĠexpÃ©riment er
Ġprot otype
Ġsouha itÃ©e
Ġmorte lle
Ġassure ra
Ġentrepren eur
Ġsac rÃ©e
Ġreb ond
Ġmou che
Ġplate au
Ġcontrovers es
ĠcÃ©lÃ©b rons
Ġerron Ã©es
ĠpÃª ches
ĠKh odorkov
Ġgenti lle
Ġom et
Ġtrompe uses
ĠdÃ©v ouement
Ġrub riques
App aremment
ĠprÃ©cip iter
ĠprÃ©cip itation
Ġincar ne
Se cundo
jac ents
Ġbac tÃ©rie
Ġmarquer a
Ġheur te
Ġdiox ine
ĠFra ssoni
ĠAz nar
Ġdissua der
Ġhorizont al
Ġconse ille
produ ctif
Ġmous tiques
ĠthÃ©rap eutique
ĠindÃ©ni ablement
Ġpessi miste
Ġtourn ure
ĠprÃ©le ver
ĠrÃ©public ains
ĠrÃ©pri mer
ĠFlor enz
ĠprÃ©su me
ĠimprÃ©visi bles
pli cation
ĠtibÃ© tain
ĠhÃ©roÃ¯ ne
Ġcorpore ls
ĠNie lson
Ġclo che
ĠRoy al
ĠtÃ©n acitÃ©
ĠÃ©ni Ã¨me
RÃ©s ul
Ġascense ur
ĠPV C
Ġchampign ons
ĠDaph nÃ©
ĠincomplÃ¨ te
ĠSac coni
Exc usez
ĠÃ©pu isement
ĠrÃ©organis er
Ġanth rop
ĠbÅĵ uf
Ġhebdomad aire
ĠgrÃ¨ ves
ĠpÃ©dopor nographie
Ġadmin istre
ĠNass auer
ĠhÃ©mis phÃ¨re
Ġsynch ron
Ġgouff re
ĠPir ker
ĠKoweÃ¯ t
ĠUru guay
Ġfrom age
Ġenri chi
Ġbet tera
ĠURS S
B M
G e
G ar
I CE
P enses
R a
h m
p oser
Ä ĩ
Ġd Ã®
ou i
ent agone
in os
it en
ur ance
Ġv endues
Ġv Ã©nÃ©zu
il o
Ġen velop
ĠÃ© ruption
ont rol
ar omÃ¨tre
ĠrÃ© Ã©valuer
ch iez
Ġg Ã¨rent
Ġcon gestion
ĠC ity
tu aire
ol it
ĠM oh
ĠM id
Ġh ind
Ġme c
mes tri
du ire
Ġan ten
ĠA Ã§
ga ret
Ġma fia
che min
Ġag r
ĠB eijing
ss Ã©es
Ġvi endrait
ĠS antÃ©
Ġad mire
bli ques
fin ancement
Ġtrans action
Ġcro Ã®t
ĠsÃ© minaire
um Ã©s
ĠcrÃ© ations
Ġass er
Ġren once
ĠD TS
ĠD uisenberg
Ġrep ortÃ©e
Ġdisp ens
Ġcar rÃ©s
ĠÃ©le vait
ĠL oi
ĠL ie
ĠL Ãł
Ġconf ort
Ġmin uit
Ġmal ad
ĠdÃ©f endant
Ġmondi alisÃ©e
ĠJ in
ĠK ing
Ġcoop Ã¨rent
ĠnÃ©g ation
Ġoff rons
Ġcommen Ã§ait
ĠrÃ©g ner
Ġenc re
ĠspÃ©ci alisÃ©e
Ġcour antes
ay a
Ġconstru ites
Ġsuff iront
ĠcoÃ» terait
ĠcontrÃ´le ur
Ġta per
Ġappel lation
Ġref er
Ġno vatrices
ĠÃ©t onnement
Ġentra inÃ©
Ġintrodu isent
ĠprÃ©cis ant
Ġrepr endra
Ġcondu isant
ĠprÃª teur
Ġ6 6
Ġtrouv Ã©es
Ġlaiss era
Ġ7 7
Ġconsci emment
Ġglob alisÃ©
ĠrÃ©ser vÃ©s
Ġcommencer a
Ġend orm
Ġjourn Ã©es
Ġpartage ant
Ġcou l
ĠvÃ© hÃ©
ĠSch ro
ĠdÃ©fi ciences
Ġhon ore
Ġquali fie
ĠsÃ©ri es
Ġk urdes
Ġemploy Ã©e
Ġorgan iques
ĠrÃ©flÃ©ch is
Ġcompa rÃ©e
Ġval ue
Ġmatin s
Ġcaract Ã¨res
ĠÃ©quilib res
Ġprovo quÃ©s
ĠIta liens
ĠdÃ©n omination
Ġcroy aient
Ġatten dions
ĠvÃ©ri fications
Ġstim ule
Ġving taine
Ġ17 0
Ġ17 5
Ġdistribu Ã©s
ĠNew ton
Ġemprun te
Ġcourage uses
ĠdÃ©pass ant
Ġcalend riers
Ġsang lante
Ġinterven ant
Ġattribu Ã©e
Ġspecta teurs
Ġmerveille uses
ĠdÃ©bou che
Ġphil anth
Ġcop ies
Ġcombin Ã©s
Ġslo gans
Ġmicro bes
Ġmicro crÃ©
Ġabat t
Ġgratu its
ĠrÃ©mun Ã©rÃ©
ĠpÃ©r en
Ġindem nitÃ©
Ġsorti ra
Ġpersua sion
ĠdÃ©crit es
aul t
Ġbomb ard
Ġclandes tin
ita tives
Ġsain t
ĠBu iten
ĠboÃ® tes
Ġvola ille
ĠrevÃª tir
ĠÃ©va p
Ġirrespons abilitÃ©
ĠHol lande
Ġbris Ã©
Ġbaiss es
ĠÃ©lo ges
Ġmusi cale
Ġpira tage
Ġrecord s
ĠLan cker
ĠantÃ© rieurs
Ġdisproportion nÃ©
Ġimmin ent
Ġciga rette
Ġnoci ves
ĠclÃ´ turer
Ġchirur gi
Ġnourr issent
Ġasp irons
ĠbÃ©nÃ©v olat
ĠamÃ¨ nent
IF T
ĠÃ©ve illÃ©
Ġpard onner
ĠEc onom
Ġgrad uellement
Ġtoxicom anie
Ġcircu it
ĠÃ©min ents
Ġsonne tte
Ġimplicite ment
Ġgram mes
Ġconna Ã®tra
Ġorphel ins
Ġlue ur
Ġdenti ste
Ġcoutu mes
ghi z
Ġpoub elle
ĠAsi atiques
Ġimmatri culation
ĠlinÃ© aire
Ġimpro vis
Ġcess ation
Ġvier ge
ĠmÃ©da ille
Ġcontrep oids
Ġchag rin
ĠAnders son
kes pe
Ġhale ine
ĠFlori de
Ġadju di
Ġpaperasser ie
ĠGIE C
ĠAÃ§ ores
1 4
M anifes
N S
P rop
S er
S ui
S ois
V iens
c issement
d ations
e da
g al
h at
h uber
m and
m fal
n as
v os
v Ã©r
y la
Å Ĥ
Ġp ut
Ġp ique
Ġc uivre
qu ateur
er o
an Ã©e
Ġqu ad
Ġn oc
Ġn aissent
Ġla i
Ġle vÃ©es
Ġf un
Ġf ora
Ġf Ã©c
ta tive
ce au
op ol
ĠrÃ© it
Ġfa tal
Ġpas sifs
ch ill
Ġg raisse
pp es
Ġi on
Ġse ize
Ġch ol
ĠP op
ĠP ow
ge l
ĠM unich
Ġje tons
Ġimp lantation
Ġcomp ri
ten ariat
du mping
Ġan onyme
Ġres titution
ĠA be
Ġy ens
Ġsa chions
Ã©r ances
Ã©ra pies
Ġte mple
Ġdis iez
Ġar c
Ġar ranger
ĠUni vers
Ġam alga
ise ments
Ġins ti
ĠB ER
ss ait
ĠS Ã©v
Ġad orent
Ġal tru
Ġman quons
ĠI C
as ta
Ġtravail laient
Ã» te
Ġop t
ĠmÃ© ga
cip ation
cip lin
Ġren ouer
ĠF orce
ĠD ay
ĠG lob
ĠG rad
tant es
ĠN ai
ĠL IF
Ġcol ombien
Ġconf use
Ġri vaux
Ġmet tront
Ġinc itant
Ġdemand Ã©es
Ġmainten ues
Ġense mbles
ĠJ ane
Ġcent rÃ©e
ĠâĢ Ķ
lar y
Ġpass ager
Ġabord era
Ġindi gne
Ġ3 000
ali ban
Ġreg arda
Ġinvesti ture
Ġju gent
Ġbi jou
Ġatte igne
Ġpara ph
Ġpara mil
Ġconstru ctifs
Ġconstru isons
Ġsuff i
ĠdÃ©fin iti
ĠbÃ©nÃ© diction
Ġsal on
Ġappel Ã©es
Ġvoy aient
ĠdÃ©cisi ves
ĠLa os
ĠLa mfal
Ġinsta lle
ob e
fie ld
Ġentra ine
Ġinv isibles
ĠprÃª teurs
Ġremp lie
Ġpor tÃ©s
Ġpoursui vant
rak a
ĠÃ©n oncer
Ġ8 8
Ġ8 9
Ġorient Ã©
Ġmanque ment
ĠAn tarctique
Tu be
Ġconcep teurs
toc ole
Ġanti mis
Ġbou cle
Ġemb lÃ©
Ġautoris ant
Ġconser vant
Ġcondam nant
Ġmilitaire ment
ĠÃ©cou tant
Ġ12 5
Ġeffectu ent
Ġvit ales
Ġpol lin
ani a
ani ens
Ġexer Ã§ant
ĠMar sh
ĠSu per
ĠrÃ©flÃ©ch it
ĠrÃ©flÃ©ch ie
Ġfab ule
Ġnorm alitÃ©
Ġblan ches
Ġparticiper ont
Ġcompos er
Ġcorrespond ants
Ġcorrespond ante
ĠrÃ©pÃ© tÃ©e
ĠillÃ©g alitÃ©
ĠAr mÃ©e
ĠX V
Ġ16 0
Ġcaus ent
ĠrÃ©volution naires
Ġfou lÃ©e
ĠsystÃ© miques
ĠrÃ©pu bliques
Ġgro ss
Ġconne ctÃ©s
ĠfÃ©dÃ©ra liste
Ġvir ul
ĠRe prÃ©sent
Ġsatisfais antes
Ġbois son
Ġbo euf
Ġsalari ales
Ġment aux
Ġabouti ra
Ġcorri gÃ©
200 6
Ġstu dio
ĠGe b
Ġignor Ã©s
Ġliv rent
ĠdÃ©clen chement
ĠhÃ©s itÃ©
ĠdÃ©battu es
Ġprogress istes
Ġimpu issants
ĠprivilÃ©gi Ã©s
ĠJohn son
Ġanticip Ã©e
ĠÃ©mo tionnelle
ĠTa jani
Ġamend Ã©
anci er
Ġempris onnÃ©
ĠÃ©tabl issent
ĠapprÃ©cier ais
Ġner fs
Ġressent ons
ĠtÃ©moign ages
ĠWe ggen
Ġchau ds
ĠrÃ©ve illÃ©
ĠpersÃ©cu tions
Ġannonc Ã©es
Rapp elez
ĠredÃ© mar
ĠÃ©ter nelle
Ġtranqu illement
Ġmunicip alitÃ©s
Ġtransmet tent
Ġremont ent
ĠThe ato
ĠvariÃ© tÃ©s
Ġcath oliques
Ġvigou reuse
Ġsectorie lle
Ġcerti fica
Ġappauv ris
Ġpessi mistes
ĠMcC ain
ĠUS D
Ġsuperf lue
Ġgigantes ques
ĠASE M
ĠguÃ©r ison
Ġcompren ait
Ġmuti lations
ĠdÃ©pendant es
Ġdouz aines
ĠprÃ©su pp
Ġmexic aine
Ġgrossi Ã¨re
ĠalÃ© atoire
Ġcora il
Ġfui ent
ĠSchmi dt
Ġscul p
Ġmicros cope
ĠBÃ© lar
Ġalphab Ã©
ĠQa tar
Ġinappropri Ã©e
Ġincoh Ã©rence
Ġimmis cer
Ġmanoeu vre
ĠrÃ©invent er
ĠcinÃ©mat ographique
Ġcatalo gue
Ġapproxima tivement
Ġfes tiv
ĠMoz amb
Ġinimagin able
ĠsÃ©n ateur
ĠSW IFT
ĠOly mp
Ġcontreb ande
ĠQai da
Ġvocab ulaire
Ã£ o
Ġpoit rine
ĠastÃ© roÃ¯
Manifes tement
Ġnoc tur
Ġchol Ã©ra
ĠSÃ©v ille
ĠGrad in
A T
D a
D ois
M oins
P AR
S auf
a tisme
b u
b ler
b ier
c it
i op
l issant
Ã Ł
Ä ĥ
Ġ u
Ġd ors
Ã© th
Ġa h
ou les
ti se
er vateurs
an ol
Ġm ue
ur ons
rÃ© al
Ġv ents
ĠÃ© ti
ĠÃ© dit
ri ca
ĠdÃ© tenues
Ġb las
ĠrÃ© veille
ch on
ch ers
Ġpl ages
ĠC am
Ġsur pa
Ġsur charge
di mbourg
ĠP S
ĠP ersonne
os ph
Ġra ter
ĠM ill
ĠM Ã¼
ens pan
ĠprÃ© diction
ĠU ribe
ue z
Ġcomp agn
and ais
ĠE M
fi antes
ĠA cte
Ġli mp
Ġsa cs
Ġma gn
je ctifs
je vo
Ġser vie
ĠÃ©ta yer
mi um
Ġentre z
Ġentre tenu
Ġpu ce
oc ontrol
ĠB R
ĠB ra
ĠB at
ĠS en
ĠPar k
Ġal lure
Ġprob abil
ĠrÃ©s or
ĠdÃ©p ou
ca rest
ĠR od
vel t
mps on
Ġpri er
am ine
ĠdÃ©m oli
Ġemp e
Ġemp la
Ġcontre bal
ver b
ĠD Ã¨s
ĠD oyle
itu ation
ĠG as
ĠN ag
Ġri ve
Ġmont ent
Ġcap turer
Ġlib an
Ġsta lin
ĠdÃ©f er
ĠJ os
Ġenf lam
Ġsui ve
Ġdisc orde
Ġjou g
Ġsupp ortent
ĠÃ©ch af
Ġcontra ct
ĠnÃ©goci Ã©s
ĠrÃ©alis ons
Ġress us
Ġju gÃ©es
Ġenc lins
Ġnota tions
ĠrÃ¨glement ations
Ġlan Ã§ons
Ġlan cent
ĠmÃ©di ateurs
Ġvoy agÃ©
ĠrÃ©pond it
ĠÃ©p oux
ĠrÃ©un ira
Ġdiri gÃ©s
Ġpos ait
ĠLe ader
Ġdoute use
Ġrepr enant
Ġatta chent
ĠpÃ© chÃ©
ris tes
Ġconv iennent
Ġloin taine
na pp
Ġrend ront
Ġdirige ante
Ġorient Ã©es
Ġdiscu tÃ©es
ĠreÃ§ oive
tim itÃ©
Ġrester ait
Ġconcent rons
ĠinquiÃ© tants
Ġven deur
ĠtÃ¢ cher
ĠÃ©vo quent
Ġcollab ore
Ġaccro cher
ĠMa j
Ġsour i
Ġcolle ctÃ©es
Ġengage ons
Ġpen chÃ©
ĠdÃ©li cats
Ġtradu ite
20 10
Ġbr ille
Ġemploy Ã©es
ĠadÃ©qu atement
Ġval u
Ġestim Ã©s
Ġrati fiÃ©e
ĠZ aÃ¯
Ġcourt ois
ĠPremi Ã¨re
Ġsensi bilitÃ©s
ak is
oth Ã©rap
Ġretard Ã©e
Ġ198 1
ĠdÃ©rou lera
og Ã¨ne
Ġnavi guer
Ġlit tora
Ġpan ta
Ġpay ent
Ġpay ons
ĠhÃ´ tes
ĠÃ©par gnants
ĠÃ©chou ent
mar k
Ġdiss olution
Ġautor itarisme
ĠDan ois
Ġeffor cÃ©
Ġeffor cÃ©s
Re ven
Ġblo quÃ©s
ĠGaz prom
Ġsubstanti ellement
Ġmotiv Ã©e
Ġinfluen cent
ĠSa var
Ġaim ais
Ġinterro gÃ©
Ġimpu table
Ġentam Ã©es
Ġdure ra
ĠrÃ©in tÃ©
Ġmultipli ent
DÃ© p
ĠrÃ©comp enser
ĠbrÃ» le
Ġinva ri
Ġcontrovers Ã©s
Ġpouss Ã©s
Ġagres sif
Ġcommand ant
Ġom is
Ġridi cul
ĠInstitu te
Ġcos m
Ġprovis oires
Ġbulle tin
Ġcho quÃ©
Ġrecru ter
Ġauda cieuse
Ġannonc ent
Ġmalheure use
Rapp ort
Ġanalo gues
Ġsoumet tra
Ġmira cles
ĠintÃ©rim aires
ĠmanÅĵ uvres
Ġrigi ditÃ©
Ġmusi ciens
ĠprÃ©val ent
ĠgÃ©op olitiques
Ġtardi vement
ks in
Ġacquisi tions
Ġmagaz ines
Ġconstant es
Ġroman tique
Ġannon Ã§ant
ĠcoopÃ©ra tive
ĠdÃ©nu Ã©e
Ġinatt endu
ĠÃ©goÃ¯s me
ĠpÃ©d oph
Ġpersuad Ã©s
Ġaccou tu
ĠBus quin
Ġsupermar chÃ©s
ĠdÃ©mÃ©n agÃ©
Ġmascul in
Ġvainque urs
Ġaustra le
ĠPrin temps
reprÃ©sent ant
Ġflamb Ã©e
Ġanony mat
ĠsÃ©par ent
Ġintermin able
Ġsupervis er
Ġaca dÃ©mique
ĠMorg an
Ġcontred ire
ĠFried man
Ġsure x
ĠHil lary
Ġantip ersonnel
Ġdiscer nement
Ġdivid endes
ĠYou Tube
ĠMai j
Ġnitra tes
ĠKab oul
ĠÃ©lectrom agnÃ©
ĠRegarde z
chw itz
ĠEurob aromÃ¨tre
Ġachop pement
ĠStevens on
ĠfÅĵ tus
Ġjach Ã¨re
Ġsurcap acitÃ©
Ġcoul isses
kespe are
ĠGeb hardt
ĠMozamb ique
ĠZaÃ¯ re
ĠSavar y
1 8
8 0
D T
E A
c ites
f ort
Ġp Ã´le
Ġp Ã´les
Ġa partheid
Ġc f
Ġc m
Ġc Ã¨de
Ġc ock
Ġs ai
Ġs pons
re Ã¯n
er al
in eux
Ġn ie
Ġt haÃ¯
or n
te ction
rÃ© gi
Ã¨ nent
âĢ ¢
li one
Ġpar is
Ġpar rain
Ġpar laient
ne au
Ġb ous
au tions
de p
Ġi cÃ´
ter esse
ĠP entagone
Ġra vages
Ġr ond
ul ations
Ġca ric
Ġan atom
ĠÃ©c our
Ġres piration
ĠA mer
Ġy a
Ġgr ille
vi ol
mi Ã¨res
Ġar demment
ab ad
Ġag g
Ġins in
ĠB ak
Ġco qu
ĠS un
Ġad viendra
Ġal inÃ©
bre u
Ġmar rant
Ġcommun Ã©ment
Ġab omin
Ġfor teresse
tin ent
ĠT chÃ¨
ĠT NP
ose velt
Ġvo leur
Ġmil es
ĠÃ©v itÃ©s
Ġti mi
gÃ© rer
ĠF u
ĠG h
Ġfon te
Ġaur as
ĠL ange
Ġmal Ã©
Ġpermet tons
Ġlib rai
tis Ã©s
Ġabord ables
Ġsui cid
Ġindi quÃ©e
Ġpres crit
Ġuni fier
Ġchange ant
Ġph ar
Ġquelque fois
Ġnu isible
ĠV a
ĠV in
uri eux
ĠspÃ©ci fications
Ġform at
Ġgra v
Ġgra ti
Ġvol ent
fic at
ĠÃ©p ine
ing h
ĠrÃ©un issant
rÃ¨ te
Ġhab il
Ġdoute uses
Ġvois ines
Ġcondu ites
Ġcondu irait
ĠprÃª tre
Ġsau te
Ġsau ce
ĠÃ©tudi ante
ĠÃ©du quÃ©s
Ġ7 50
Ġrenforcer ait
ĠÃ©valu Ã©es
Ġdess ine
Ġajou tÃ©s
ĠAn ne
ĠAn na
Ġjourn alisme
Ġtransf Ã©rÃ©s
Ġtransf Ã©rÃ©es
Ġouv rira
ĠdÃ©si gne
ori Ã©tÃ©
ĠÃ©vo quant
Ġth Ã©rapies
Ġemb auche
Ġconser vatrice
Ġimm ora
Ġengage ant
ĠÃ©cou ler
Ġ12 9
Ġretr ans
Ġdocument ation
Ġexclu sif
Ġmand a
Ġvit amin
Ġk id
ĠexÃ©cu tive
Ġposer a
Ġenqu Ãª
Ġsim ulation
Ġfacil itent
Ġimpor tÃ©
Ġpron on
Ġalterna tif
Ġaf ghans
Ġbru y
Ġcompli ce
Ġcompos ant
Ġsouver aines
bal gs
Ġdeme urant
ĠrÃ©vÃ© lÃ©es
rog ation
Ġdra con
Ġmaxim ales
ic ains
Ġcra va
ĠCa ta
Ġru ine
Ġinjus tement
Ġvert us
Ġlab els
Ġintensi fs
ĠOn u
ĠSi mpson
ĠOccident aux
Ġadress ant
Ġ197 6
ĠPour tant
Ġsent ait
ĠTi bÃ©
Ġenregistre ments
Ġsyndi c
Ġsyndi caux
tur Ã©s
Ġdesc endu
Ġsurvi v
ĠÃ©quival ents
Ġengend rÃ©s
Ġdoc teurs
Ġbless Ã©es
Ġrom pu
Ġrestre inte
Ġvain cu
Ġarbit rage
ĠÅĵu f
Ġcad mium
Ġcontes tÃ©
RÃ© flÃ©ch
Ġchem ises
ĠMont rÃ©al
DÃ© charge
Ġreviend rons
Ġindu it
ĠrÃ©form Ã©e
ĠdÃ©cisionne ls
ĠAus chwitz
omÃ© trie
Ġproje ter
Ġobti enne
ĠMan uel
Ġconcentre rai
ĠWe ber
Ġsurp Ãªche
ĠPer mettez
ĠdÃ©tes tent
Ġdoulou reuses
ĠfaÃ§ ade
ĠFa va
Ġbio gaz
Ġarra cher
Ġdin gue
ĠdÃ©boucher a
Ġ195 6
Ġretomb er
Ġfascin Ã©
ĠdÃ©liv rÃ©
Ġbor ner
Ġembry onnaires
Ġhomosex ualitÃ©
Ġamou reuse
Ġnot oriÃ©tÃ©
Ġnutri ments
ĠinfÃ©rie ures
Ġpond Ã©ration
ĠmÃª ler
Ġinfli gÃ©
Ġhol landais
ĠÃ©mi g
ĠBri an
Ġplon gÃ©
ĠÃ©pidÃ© mi
Ġpourv u
ĠÃ©lÃ©ph ant
Ġpion nier
Ġanony mes
Ġjume aux
tig lione
ĠPie balgs
ĠSara jevo
ĠrÃ©orient ation
Ġattir ant
ĠDiam ant
Ġbanlieu e
Ġconsulta tifs
Ġimper fe
ĠolÃ© odu
ĠKla us
ĠtÃ©les cope
Ġdauph ins
Ġchou ette
ĠNetanyah u
Ġnostal gie
ĠBah reÃ¯n
ĠrenÃ©g oci
Ġabsur ditÃ©
Ġinterm od
ĠTPI Y
ĠCorÃ© ens
niti ative
ĠcrÃ¢ ne
ĠprÃ©lÃ¨ve ments
ĠSaou diens
ĠrÃ©cur rent
ĠrÃ©bel lion
ĠNich ol
ĠMoh am
ĠrÃ©it Ã¨re
ĠBER D
ĠMarsh all
Ġcertifica ts
Ġkid napp
7 5
A A
C o
V D
c rits
d issement
h ier
i ori
p re
u min
v ol
v iez
w ell
Ġl isi
Ġa dep
Ġc itÃ©es
Ġs oc
it udes
Ġla mpe
Ġt um
or y
Ġf is
Ġf Ã©cu
il ie
Ġen dÃ©mique
ĠÃ© ga
ĠÃ© diteurs
Ġin cur
Ġin Ã©d
ar th
Ġg lu
Ġg isements
Ġre haus
Ġpl aise
ĠC elui
Ġsur rÃ©
Ġsur chauff
ts ine
Ġse re
di jk
ĠP Ã¨re
ĠM ass
Ġmo trice
ul l
Ġca deaux
ĠA y
ĠA ussi
ĠÃ©ta lon
cti tude
Ġdis tra
Ġdis ions
ut to
Ġar ro
Ġeff rÃ©
Ġfin ie
ag en
ĠB onn
ĠB ret
ĠS on
Ġper vers
Ġper ceptions
Ġson ores
Ġad mise
ven ue
Ġpers pi
Ġmar teau
Ġab Ã®
Ġab rogation
ĠI S
ĠI DE
ĠT el
ĠT am
ĠR A
ĠR TE
Ġpri ons
Ã» ment
Ã» mes
ĠO PE
ĠÃ©v in
Ġop ium
Ġcontre ven
gu ant
Ġass omb
Ġti endrons
ĠG ale
ĠG ah
Ġpense urs
ĠN ami
ĠL ies
Ġcol latÃ©ra
Ġim agerie
Ġri ves
Ġmont rait
ĠdÃ©bat tus
pi d
ran ca
Ġvie t
Ġfer ment
ĠJ az
ĠK ur
ĠK ohl
Ġtu telle
Ġindi gÃ¨ne
Ġsub venir
ĠdÃ©cla ra
Ġcontra ri
ĠV il
ĠprÃ©v alu
iÃ¨me ment
Ġ5 000
Ġlan Ã§ant
Ġviol Ã©
Ġbas culer
Ġali bi
ĠIn dien
ĠÃ©p Ã©e
Ġple ines
ĠLa gen
Ã©d Ã©s
Ġdo gme
Ġinsta urÃ©e
ad ji
Ġcin qu
Ġcommuni quent
Ġcommuni quÃ©es
ĠLe e
Ġcir que
Ġvolont ariat
Ġessay ais
Ġinv oque
Ġtrouv ions
Ġir rÃ©s
Ġsc Ã¨nes
Ġloc omo
Ġrou tine
Ġpi Ã¨ges
Ġaccepter ont
Ġ8 3
Ġdiscu tent
Ġregard s
Ġsolid itÃ©
tar isation
ĠÃ¢ ges
Ġmanifes tÃ©e
ĠprÃ©f Ã©rons
Ġhabit ats
Ġbou l
tel lis
ĠÃ©vo quons
Ġunivers alitÃ©
ĠapprÃ© hen
Ġfil tres
Ġconser vent
Ġchance ux
ĠpÃ©n uries
ĠexÃ©cu tÃ©s
Ġlaisser ai
Ġair s
Ġgard ons
ĠidÃ© ologies
od ine
Ġapprouv ant
Ġadministra teurs
ĠpiÃ¨ tre
Ġrent rent
Ġconven ue
Ġconven ues
Ġcompli quÃ©s
Ġneu tres
ĠdÃ©n onc
Ġdiscuter ons
ĠinterprÃ© tÃ©e
og ation
og roupe
Ġ0 5
Ġ13 7
Ġporter ait
Ġsatisfait es
Ġinflation niste
Ġred ond
ĠPL D
Ġtransform ations
ĠEur ogroupe
Ġfou les
ow n
Ġradic alisme
ĠCa ro
ĠÃ©th iop
ĠinÃ©g ale
af ranca
ĠCE CA
Ġfamili ers
Ġnomm Ã©s
Ġbienven ues
Ġfournis se
Ġden iers
ĠsÃ©le ctive
ĠtchÃ¨ ques
Ġdiminuer a
Ġdomin Ã©e
In dÃ©pend
Ġtor tu
Ġcontac ter
Ġphilosoph ique
ĠcomplÃ© tÃ©
Ġpolici Ã¨res
Ġbata illes
Ġretrouv Ã©e
Ġimpu tables
Ġinex tri
ĠsÃ©lection ner
Ġanticip Ã©
DÃ© jÃł
Ġplate formes
Ġcontenter ai
Ġinnoc ent
Ġspor tive
ĠdÃ©vas tateurs
ĠBu carest
ĠrÃ©cipro ques
Ġfructu euses
Ġmas quer
Ex amin
ĠrÃ©cupÃ© rÃ©
ĠSte ve
Ġnomin ations
Ġaccompagn Ã©es
jac ent
Ġauda cieuses
ĠrÃ©ve il
Ġadmet tent
ĠÃ©cras Ã©
ĠSal afranca
ĠFer ber
Ġfe me
ĠthÃ©rap eutiques
ren ica
Ġcoloni ale
Ġpath ogÃ¨nes
Ġresser rer
ĠrÃ©ins ertion
Ġgal erie
Ġcenti mÃ¨tres
Ġnourr issons
Ġimpressionn ants
ĠFED ER
Ġvaloris er
ĠrÃ©pres sives
ĠEr dogan
Ġalban aise
Ġinfec tÃ©es
corÃ© en
ĠonÃ© reuse
ĠpÃ©ni bles
ĠmÃ©dioc res
ĠÃ©pouvan tables
Ġillim itÃ©
ĠKir ghiz
Ġmeurtri er
Ġtraum atisme
Ġpromen er
Ġspirit uel
ĠAir bus
Ġassor tie
Ġfalsi fiÃ©s
ĠdÃ©savan tages
Ġsympath ique
Ġcaro ttes
Ġposter iori
Ġembau cher
Ġesca liers
ĠBh utto
Ġsymbol ise
ĠSchmi d
Ġrepar tir
Ġsupranation ale
Ġpror o
Essay ez
Ġzo om
Ġspont anÃ©ment
Ġencour us
Ġaz ote
Ġcohab itation
Ġmaxi miser
Ġpneum atiques
ĠDam as
Ġimpitoy able
ĠLiber ia
ĠfÃ©ro ce
Ġprotagon istes
ĠBrit tan
ĠTha ksin
Ġinvolont aire
Ġbicycle tte
Ġschizoph rÃ©
Ġaffirma tive
Ġsul f
ĠLud ford
ĠCIT ES
raka tellis
ĠÃ©chaf au
ĠNichol son
ĠLagen dijk
IndÃ©pend amment
2 7
G A
S T
U ti
V IT
a ten
a sie
c z
c table
d eux
g ot
h um
o xe
z aine
Ġl us
Ġa illent
ou dre
Ġs ki
an ier
is si
in Ã©s
it ure
Ġt ante
Ġpa pe
or ien
Ġf Ãªtes
rÃ© ation
Ġv il
Ġv este
us sy
ri min
Ġin Ã©qu
ar n
Ġpar s
Ġpar les
Ġpar viens
op oulou
ch ais
Ġg au
Ġpl anter
ĠC ola
Ġsur char
Ġpo ison
Ġac trice
Ġra ts
ĠM el
Ġsu ites
ys er
Ġcons istÃ©
Ġdi ar
ĠA K
Ġli gnÃ©e
Ġma ra
Ġma illon
cti ble
ĠÃī nergie
ĠÃī ryth
Ġar chÃ©
Ġar ctique
va dor
ouver t
Ġam ateurs
at oriale
Ġins en
Ġson ore
Ġad venu
ĠdÃ©c oncer
ĠdÃ©c rets
Ġnom me
ĠdÃ©p lais
ĠI z
ĠI AS
ĠI nitiative
Ġaccord era
Ġtravail lais
ĠT in
ĠT ay
ĠT chÃ©
ĠT adji
ĠT rakatellis
Ġvo tions
ĠdÃ©m enti
ĠO PC
Ġop Ã©rÃ©
Ġesp Ã©rais
ĠD aul
Ġdisp er
Ġpe indre
ph y
Ġmal tra
Ġci me
tro it
gue il
pi ques
ĠCh ur
Ġconstitu ant
ĠdÃ©f ends
Ġinform a
ĠK au
ĠK ouch
Au paravant
Ġarri vants
Ġindi quÃ©es
Ġindi visi
Ġsub ies
Ġas sid
Ġabs ti
Ġord onnÃ©e
Ġinvesti gation
Ġreconn a
Ġcour u
Ġz oo
ot tes
Ġavis Ã©
Ġdou che
ĠÃ©p uration
ing s
grÃ© gation
Ġsuc cesseurs
Ġcapit alistes
Ġaliment ent
Ġconfi ant
Ġexc itÃ©
Ġinv itant
Ġrepr ennent
Ġatta quÃ©s
ĠprÃª tent
Ġfi bre
ĠÃ©tudi ons
ĠÃ©tudi Ã©e
Ġtrouv a
Ġlaiss a
Ġobser vant
ĠÃ©n oncÃ©
Ġaimer ait
mon de
ĠÃ©valu Ã©e
Ġorient aux
Ġappar tiens
Ġapporter ait
ĠdÃ©ta chÃ©es
Ġsenti s
Ġ9 1
die use
Ġven deurs
Ġanti dumping
ĠdÃ©si gnÃ©s
Ġsol de
Ġrecommand ons
ĠdÃ©velopper a
ĠrÃ©a jus
ĠMa aten
pl oit
Ġimag inaire
Ġenvoy Ã©es
ĠthÃ© oriques
Ġpren iez
Ġbar be
ĠMar k
ĠMar kov
Ġaborder ai
Ġorgan ique
ĠprÃ©ser ve
ĠprÃ©ser vÃ©
Ġha mb
ĠrÃ©uss isse
Ġrele vÃ©s
Ġreti rÃ©es
Ġfal la
[...]
