{"<pad>":0,"<s>":1,"</s>":2,"<unk>":3,"<mask>":4,"!":5,"\"":6,"#":7,"$":8,"%":9,"&":10,"'":11,"(":12,")":13,"*":14,"+":15,",":16,"-":17,".":18,"/":19,"0":20,"1":21,"2":22,"3":23,"4":24,"5":25,"6":26,"7":27,"8":28,"9":29,":":30,";":31,"<":32,"=":33,">":34,"?":35,"@":36,"A":37,"B":38,"C":39,"D":40,"E":41,"F":42,"G":43,"H":44,"I":45,"J":46,"K":47,"L":48,"M":49,"N":50,"O":51,"P":52,"Q":53,"R":54,"S":55,"T":56,"U":57,"V":58,"W":59,"X":60,"Y":61,"Z":62,"[":63,"\\":64,"]":65,"^":66,"_":67,"`":68,"a":69,"b":70,"c":71,"d":72,"e":73,"f":74,"g":75,"h":76,"i":77,"j":78,"k":79,"l":80,"m":81,"n":82,"o":83,"p":84,"q":85,"r":86,"s":87,"t":88,"u":89,"v":90,"w":91,"x":92,"y":93,"z":94,"{":95,"|":96,"}":97,"~":98,"¡":99,"¢":100,"£":101,"¤":102,"¥":103,"¦":104,"§":105,"¨":106,"©":107,"ª":108,"«":109,"¬":110,"®":111,"¯":112,"°":113,"±":114,"²":115,"³":116,"´":117,"µ":118,"¶":119,"·":120,"¸":121,"¹":122,"º":123,"»":124,"¼":125,"½":126,"¾":127,"¿":128,"À":129,"Á":130,"Â":131,"Ã":132,"Ä":133,"Å":134,"Æ":135,"Ç":136,"È":137,"É":138,"Ê":139,"Ë":140,"Ì":141,"Í":142,"Î":143,"Ï":144,"Ð":145,"Ñ":146,"Ò":147,"Ó":148,"Ô":149,"Õ":150,"Ö":151,"×":152,"Ø":153,"Ù":154,"Ú":155,"Û":156,"Ü":157,"Ý":158,"Þ":159,"ß":160,"à":161,"á":162,"â":163,"ã":164,"ä":165,"å":166,"æ":167,"ç":168,"è":169,"é":170,"ê":171,"ë":172,"ì":173,"í":174,"î":175,"ï":176,"ð":177,"ñ":178,"ò":179,"ó":180,"ô":181,"õ":182,"ö":183,"÷":184,"ø":185,"ù":186,"ú":187,"û":188,"ü":189,"ý":190,"þ":191,"ÿ":192,"Ā":193,"ā":194,"Ă":195,"ă":196,"Ą":197,"ą":198,"Ć":199,"ć":200,"Ĉ":201,"ĉ":202,"Ċ":203,"ċ":204,"Č":205,"č":206,"Ď":207,"ď":208,"Đ":209,"đ":210,"Ē":211,"ē":212,"Ĕ":213,"ĕ":214,"Ė":215,"ė":216,"Ę":217,"ę":218,"Ě":219,"ě":220,"Ĝ":221,"ĝ":222,"Ğ":223,"ğ":224,"Ġ":225,"ġ":226,"Ģ":227,"ģ":228,"Ĥ":229,"ĥ":230,"Ħ":231,"ħ":232,"Ĩ":233,"ĩ":234,"Ī":235,"ī":236,"Ĭ":237,"ĭ":238,"Į":239,"į":240,"İ":241,"ı":242,"Ĳ":243,"ĳ":244,"Ĵ":245,"ĵ":246,"Ķ":247,"ķ":248,"ĸ":249,"Ĺ":250,"ĺ":251,"Ļ":252,"ļ":253,"Ľ":254,"ľ":255,"Ŀ":256,"ŀ":257,"Ł":258,"ł":259,"Ń":260,"Ġd":261,"es":262,"Ã©":263,"Ġl":264,"en":265,"on":266,"Ġp":267,"Ġa":268,"Ġc":269,"ou":270,"Ġde":271,"ti":272,"Ġs":273,"qu":274,"re":275,"Ġ.":276,"ent":277,"Ġ,":278,"er":279,"an":280,"is":281,"Ġe":282,"in":283,"it":284,"Ġqu":285,"Ġm":286,"Ġn":287,"ur":288,"Ġla":289,"le":290,"tion":291,"un":292,"ra":293,"ĠÃ":294,"ment":295,"Ġt":296,"Ġpa":297,"Ġle":298,"Ġun":299,"or":300,"om":301,"Ġet":302,"te":303,"Ġf":304,"si":305,"rÃ©":306,"Ġv":307,"ĠÃł":308,"Ġles":309,"il":310,"Ġen":311,"ous":312,"Ġdes":313,"ĠÃ©":314,"ro":315,"our":316,"Ġque":317,"Ã¨":318,"ons":319,"Ġes":320,"Ġau":321,"ont":322,"âĢ":323,"Ġce":324,"me":325,"Ġest":326,"âĢĻ":327,"ta":328,"us":329,"ant":330,"ce":331,"ri":332,"ve":333,"res":334,"li":335,"Ġin":336,"ans":337,"que":338,"ation":339,"ĠdÃ©":340,"ar":341,"Ġpar":342,"Ġune":343,"Ġpour":344,"Ġj":345,"ne":346,"Ġpro":347,"op":348,"tÃ©":349,"ire":350,"ci":351,"Ġb":352,"Ġcom":353,"tre":354,"Ġdu":355,"ĠrÃ©":356,"al":357,"Ġfa":358,"Ġ-":359,"Ġpas":360,"eu":361,"oi":362,"Ġnous":363,"Ġdans":364,"ch":365,"Ġg":366,"itÃ©":367,"Ġil":368,"Ġre":369,"se":370,"ais":371,"Ġqui":372,"mp":373,"Ġcon":374,"Ġpl":375,"au":376,"lle":377,"de":378,"pp":379,"ĠC":380,"Ġsur":381,"Ġpo":382,"Ġne":383,"la":384,"les":385,"lement":386,"Ġi":387,"ts":388,"urop":389,"Ġav":390,"Ġse":391,"ff":392,"Ġex":393,"tu":394,"Ġch":395,"ter":396,"di":397,"ĠP":398,"tte":399,"ge":400,"sion":401,"end":402,"Ġplus":403,"Ġac":404,"ni":405,"Ã¨re":406,"ol":407,"os":408,"Ġra":409,"ir":410,"Ãª":411,"ort":412,"ĠM":413,"Ġje":414,"ens":415,"Ã©e":416,"urs":417,"omm":418,"ouv":419,"Ġh":420,"ie":421,"Ġo":422,"ers":423,"Ġsu":424,"ĠprÃ©":425,"Ġtou":426,"uropÃ©":427,"ces":428,"Je":429,"ain":430,"Il":431,"ble":432,"ĠeuropÃ©":433,"Ġr":434,"tions":435,"ques":436,"Ġtr":437,"Ġme":438,"Ġvous":439,"ĠU":440,"Ã¨s":441,"ĠeuropÃ©en":442,"ait":443,"Ġsont":444,"sid":445,"pe":446,"ue":447,"Ġmo":448,"Ġpr":449,"ĠÃª":450,"Ġave":451,"Ã©s":452,"Ġsi":453,"Ġdev":454,"ys":455,"Ġcomm":456,"tique":457,"Ġimp":458,"Ġai":459,"mes":460,"Ġcons":461,"ux":462,"Ġcette":463,"Ġpeu":464,"ul":465,"Ġtra":466,"tes":467,"Ġca":468,"ai":469,"Ġapp":470,"ĠÃªtre":471,"Ġent":472,"mb":473,"Ġcomp":474,"and":475,"oir":476,"Ġdi":477,"ten":478,"Ġont":479,"Ġaux":480,"ĠE":481,"Ã©es":482,"ance":483,"el":484,"du":485,"Ġcont":486,"Ġan":487,"ission":488,"sie":489,"Ġavec":490,"ence":491,"Nous":492,"La":493,"fi":494,"onn":495,"aire":496,"ord":497,"oit":498,"ĠComm":499,"ale":500,"Ġmon":501,"Ġsou":502,"Ġfait":503,"Ġpoli":504,"ien":505,"Ġces":506,"ssi":507,"Le":508,"ĠÃ©c":509,"Ġ?":510,"Ġres":511,"aux":512,"Ġrapp":513,"ui":514,"ois":515,"ĠA":516,"Ce":517,"ations":518,"iss":519,"Ġli":520,"Ġy":521,"ga":522,"Ġaut":523,"Ġsa":524,"Ġmais":525,"ouve":526,"Ġma":527,"Ġprop":528,"je":529,"Ġser":530,"Ġou":531,"ĠÃ©ta":532,"Ġgr":533,"Ġpays":534,"Ġparti":535,"che":536,"ction":537,"sident":538,"Ã©r":539,"Ġacc":540,"gi":541,"Ġconc":542,"tr":543,"lÃ¨":544,"Ã©ra":545,"vi":546,"ĠCommission":547,"otre":548,"ĠÃ©tÃ©":549,"mi":550,"ments":551,"cu":552,"rer":553,"Ġte":554,"cti":555,"ĠeuropÃ©enne":556,"ins":557,"Ġdis":558,"ĠÃī":559,"Les":560,"onne":561,"ut":562,"Ã´":563,"Ãªme":564,"ite":565,"da":566,"lÃ©":567,"Ġtout":568,"tats":569,"pr":570,"Ġentre":571,"Ġar":572,"Ġcomme":573,"ĠUni":574,"Ã©ri":575,"Ġob":576,"va":577,"ors":578,"Ġfaire":579,"Ġpu":580,"oci":581,"ouver":582,"Ġam":583,"at":584,"ĠUnion":585,"for":586,"ab":587,"ille":588,"lles":589,"Ġeff":590,"sent":591,"ĠPrÃ©":592,"Ġdire":593,"Ġ\"":594,"Ġ1":595,"ise":596,"oy":597,"Ġ2":598,"Ãł":599,"oc":600,"ine":601,"sieur":602,"Ġfin":603,"ac":604,"onsieur":605,"ĠPrÃ©sident":606,"onc":607,"En":608,"ag":609,"Ġinter":610,"ants":611,"Ġpolitique":612,"Ġavons":613,"vent":614,"Ġques":615,"Ġag":616,"Ġins":617,"ĠmÃªme":618,"ĠB":619,"Ġelle":620,"ss":621,"Ġvi":622,"Ġco":623,"Ġon":624,"ĠnÃ©":625,"Ġbien":626,"aires":627,"00":628,"Ġimport":629,"onom":630,"ĠS":631,"Ġper":632,"Ġson":633,"Ġad":634,"Ġrapport":635,"ture":636,"jour":637,"ĠPar":638,"Ġaussi":639,"Ġ:":640,"Ġnouve":641,"ĠdÃ©c":642,"Ġpeut":643,"its":644,"eux":645,"ĠÃītats":646,"Ġmes":647,"Ġexp":648,"elle":649,"ĠtrÃ¨s":650,"titu":651,"Ġat":652,"Ġleur":653,"Ġal":654,"ven":655,"bre":656,"Ã©n":657,"ĠÃ©conom":658,"Ġils":659,"ves":660,"onse":661,"osi":662,"orte":663,"Ġvou":664,"Ġmemb":665,"endre":666,"ond":667,"ĠParlement":668,"ique":669,"ures":670,"galement":671,"Ġprob":672,"ĠÃ©galement":673,"mer":674,"ande":675,"ĠintÃ©":676,"Ġpers":677,"Ġdro":678,"Ġcer":679,"ĠrÃ©s":680,"Ġmar":681,"Ġtrava":682,"rai":683,"tiques":684,"co":685,"rait":686,"ist":687,"Ġnom":688,"ĠEurop":689,"ler":690,"ner":691,"Ġnotre":692,"min":693,"ĠdÃ©p":694,"isi":695,"Ġcommun":696,"able":697,"Ġter":698,"ĠEurope":699,"gra":700,"Ã¨me":701,"bli":702,"cte":703,"itÃ©s":704,"olu":705,"Et":706,"ure":707,"Ġab":708,"sse":709,"cess":710,"Ġdiff":711,"Ġtous":712,"Ġdeux":713,"Ġmembres":714,"Ġman":715,"Ġdoit":716,"Ġautres":717,"enti":718,"Ã§":719,"Ġann":720,"Ġquel":721,"ct":722,"fin":723,"ales":724,"Ġcerta":725,"lis":726,"oup":727,"Ġfor":728,"Ġdem":729,"onseil":730,"Ġsoci":731,"ĠConseil":732,"tru":733,"Ġpouv":734,"ĠproblÃ¨":735,"ĠI":736,"Ġcela":737,"as":738,"ard":739,"Ã¨res":740,"Ġ)":741,"Ġquestion":742,"ca":743,"Ġaccord":744,"Ġtravail":745,"alis":746,"aine":747,"ĠÃ©tait":748,"tin":749,"Ġconcer":750,"ĠT":751,"ĠÂ":752,"use":753,"dre":754,"Ġseu":755,"Ġdonc":756,"ĠR":757,"Ġenv":758,"vel":759,"mps":760,"ose":761,"met":762,"Ġtrans":763,"ĠrÃ©p":764,"ger":765,"ense":766,"velop":767,"rais":768,"ante":769,"gn":770,"Ġdevons":771,"cÃ©":772,"Ġpre":773,"Ġpoin":774,"ilitÃ©":775,"Ġpri":776,"Mais":777,"ĠdÃ©b":778,"Ġsuis":779,"Ġcro":780,"ĠdÃ©velop":781,"am":782,"Ġses":783,"ĠsÃ©":784,"uti":785,"Ġvo":786,"Ġnos":787,"ud":788,"Ġmil":789,"Ġor":790,"Ġjus":791,"Ġprodu":792,"vre":793,"tÃ©s":794,"Ġproposi":795,"ĠdÃ©m":796,"Ġmarch":797,"gie":798,"Ã»":799,"ĠO":800,"ĠÃ©v":801,"jet":802,"lu":803,"Ġop":804,"cation":805,"age":806,"tra":807,"core":808,"Ġnombre":809,"Ġni":810,"Ġemp":811,"Ġcontre":812,"ĠprÃ©sent":813,"fs":814,"um":815,"Ġencore":816,"jourd":817,"Ġtro":818,"tive":819,"gu":820,"ĠcrÃ©":821,"Ġass":822,"ĠMonsieur":823,"rie":824,"ĠmÃ©":825,"Ġti":826,"cip":827,"ĠrÃ©gi":828,"Ġmonde":829,"ser":830,"ommes":831,"Ġsans":832,"ver":833,"oin":834,"teurs":835,"cep":836,"gÃ©":837,"Ġuti":838,"Ġder":839,"Ġesp":840,"Ġnon":841,"Ġgouver":842,"cer":843,"Ã®":844,"nement":845,"ises":846,"Ġlors":847,"Ġdonn":848,"Ġrec":849,"Ġautre":850,"uer":851,"Ã¹":852,"ents":853,"Ġmani":854,"Ġren":855,"ours":856,"ĠF":857,"ĠD":858,"ĠnÃ©cess":859,"itu":860,"alitÃ©":861,"ĠG":862,"Ġvoud":863,"omme":864,"Ġmain":865,"dÃ©":866,"Ġleurs":867,"enir":868,"olution":869,"bles":870,"Ġfon":871,"Ġcla":872,"Ġpremi":873,"Ġderni":874,"aient":875,"rit":876,"Ã©li":877,"iter":878,"Ġmoi":879,"Ġrep":880,"Ġprin":881,"Ġdont":882,"Ġsoit":883,"hui":884,"Ġdit":885,"cher":886,"tant":887,"Ġtemps":888,"eure":889,"Ġaujourd":890,"ĠoÃ¹":891,"ĠUE":892,"Ġtoute":893,"Ġimportant":894,"Ġdisp":895,"Ġpense":896,"ĠN":897,"Ġcar":898,"ange":899,"form":900,"mble":901,"endant":902,"eau":903,"ĠÃ©le":904,"Ġvoudrais":905,"Ġaff":906,"Ġavoir":907,"iste":908,"Ġeffe":909,"ĠdÃ©veloppe":910,"Ġparticu":911,"Ġfaut":912,"Ġcompr":913,"Ã©ration":914,"mment":915,"Ġrais":916,"Ġaur":917,"Ġfinan":918,"Ġ200":919,"ong":920,"ora":921,"ient":922,"Ġpubli":923,"Ġparticuli":924,"ctive":925,"Monsieur":926,"Pour":927,"tiÃ¨re":928,"Ã¨g":929,"pu":930,"Ġess":931,"Ġsitu":932,"Ġpossi":933,"ĠL":934,"Ġsys":935,"cun":936,"sions":937,"cur":938,"insi":939,"Ġdroits":940,"Ġcas":941,"Ġpoint":942,"Ġdoi":943,"ĠlÃ©":944,"Ġobje":945,"ĠdÃ©veloppement":946,"Ġcol":947,"ota":948,"Ġ(":949,"Ġgrand":950,"out":951,"ocra":952,"rÃª":953,"mple":954,"onnes":955,"der":956,"nes":957,"ace":958,"ĠgÃ©n":959,"rib":960,"Ġbeau":961,"Ġsommes":962,"itoy":963,"gis":964,"ls":965,"Ġpe":966,"cul":967,"prÃ¨s":968,"coup":969,"Ġdom":970,"par":971,"Ã´le":972,"Ġutilis":973,"ĠdiffÃ©r":974,"ĠrÃ¨g":975,"Ġamen":976,"Ġdoivent":977,"ente":978,"Ġcet":979,"Ġmilli":980,"Ġsyst":981,"Ġim":982,"vers":983,"Ġactu":984,"Ġfois":985,"Ġconf":986,"Ġri":987,"Ġmin":988,"ĠproblÃ¨me":989,"curitÃ©":990,"Ã©qu":991,"bilitÃ©":992,"nis":993,"Ġobjecti":994,"Ġsituation":995,"olo":996,"tat":997,"ph":998,"Ġproposition":999,"Ġici":1000,"quoi":1001,"Ġconsid":1002,"Ġbeaucoup":1003,"ĠdÃ©mocra":1004,"jÃł":1005,"nation":1006,"Ġposi":1007,"anis":1008,"Ġmal":1009,"ĠdÃ©jÃł":1010,"ĠÃ©conomique":1011,"Ġcha":1012,"Ã¢":1013,"ig":1014,"ĠmarchÃ©":1015,"lo":1016,"Ġcr":1017,"Ġci":1018,"ences":1019,"Ġcitoy":1020,"quer":1021,"ĠmaniÃ¨re":1022,"Ġpolitiques":1023,"ĠsÃ©curitÃ©":1024,"gram":1025,"Ġnation":1026,"Ġmet":1027,"Ġaucun":1028,"Ġsav":1029,"Ġmont":1030,"oire":1031,"Ġfinanci":1032,"Ġbes":1033,"des":1034,"anti":1035,"Ġsera":1036,"oute":1037,"tro":1038,"ĠlÃł":1039,"Ġmoins":1040,"Ġprogram":1041,"Ġpermet":1042,"Ġvrai":1043,"Ġamende":1044,"Ġainsi":1045,"ision":1046,"Si":1047,"Ġcap":1048,"ez":1049,"gue":1050,"Ġenvir":1051,"ĠdÃ©bat":1052,"Dans":1053,"Ġadop":1054,"Elle":1055,"Ġmen":1056,"Ġlib":1057,"pi":1058,"Ġjour":1059,"Ġnive":1060,"Ġchose":1061,"ĠCh":1062,"Ġentrepr":1063,"Ġexe":1064,"Ġinternation":1065,"orts":1066,"Ġinc":1067,"issaire":1068,"oupe":1069,"ran":1070,"Ġbud":1071,"Ġpersonnes":1072,"Ġlui":1073,"Ġ%":1074,"Ġvie":1075,"Ġdemand":1076,"Ġsta":1077,"sieurs":1078,"Ġ19":1079,"Ġmesures":1080,"pÃ©":1081,"Ġelles":1082,"Ġappro":1083,"pons":1084,"Ġgouvernement":1085,"ĠannÃ©es":1086,"Ġid":1087,"fois":1088,"aines":1089,"jours":1090,"Ġconstitu":1091,"em":1092,"Ġempl":1093,"Ġpropos":1094,"Ġparce":1095,"Ġpart":1096,"Ġtoujours":1097,"illeurs":1098,"ĠH":1099,"taire":1100,"tage":1101,"Ġsouti":1102,"Ġagit":1103,"ront":1104,"ables":1105,"ĠÃ©ner":1106,"puis":1107,"Ġcitoyens":1108,"Ġgar":1109,"Ġvotre":1110,"Ġconcern":1111,"ĠÂ»":1112,"Ġmainten":1113,"mis":1114,"Ġva":1115,"Ġvis":1116,"onnement":1117,"ĠdÃ©f":1118,"Ġmondi":1119,"ĠmatiÃ¨re":1120,"ĠÃ©g":1121,"Ġfer":1122,"Ġense":1123,"tis":1124,"Ġans":1125,"ada":1126,"Ġappli":1127,"ĠJ":1128,"Ġprof":1129,"Ġlong":1130,"Ġsouh":1131,"ili":1132,"Ġavant":1133,"Ġgroupe":1134,"lig":1135,"ma":1136,"erci":1137,"ellement":1138,"teur":1139,"Ġoc":1140,"Ġtoutes":1141,"tif":1142,"hÃ©":1143,"Ġrespons":1144,"Ġorg":1145,"rÃ©sent":1146,"Ġcent":1147,"ang":1148,"Ġtant":1149,"Ġba":1150,"ĠsystÃ¨me":1151,"lons":1152,"Ġinform":1153,"Ġgrande":1154,"cteur":1155,"Ġcadre":1156,"qui":1157,"Ġind":1158,"Ġdroit":1159,"ĠâĢ":1160,"ĠÃ§":1161,"Ã¨rement":1162,"uses":1163,"Ġconn":1164,"Ġbesoin":1165,"Ġmoy":1166,"Vous":1167,"Cela":1168,"ĠreprÃ©sent":1169,"ĠK":1170,"ĠÃ§a":1171,"ĠaprÃ¨s":1172,"Ġplu":1173,"Ġniveau":1174,"ĠconsÃ©qu":1175,"Ġcontin":1176,"Au":1177,"Ġpouvoir":1178,"mÃ©":1179,"Ġna":1180,"Ġpourquoi":1181,"Ġsouhait":1182,"dent":1183,"Ġenf":1184,"ctions":1185,"Cette":1186,"iti":1187,"Ġexemple":1188,"Ġ!":1189,"ĠÂ«":1190,"Ġatt":1191,"Ġprincip":1192,"Ġrespe":1193,"Ġcommunau":1194,"tri":1195,"Ġ--":1196,"Ġpuis":1197,"adame":1198,"Ġdiffi":1199,"lent":1200,"ĠUnis":1201,"ĠproblÃ¨mes":1202,"Ġquestions":1203,"tives":1204,"Ġfond":1205,"Ġinf":1206,"Ġeffi":1207,"Ġavait":1208,"Ġseulement":1209,"Ġtu":1210,"Ġpartie":1211,"lar":1212,"elles":1213,"Ġsoi":1214,"Ġhomme":1215,"vÃ©":1216,"tement":1217,"ĠgÃ©nÃ©ra":1218,"Ġfem":1219,"ĠrÃ©du":1220,"Ġinstitu":1221,"ĠintÃ©rÃª":1222,"raient":1223,"Ġcommission":1224,"ara":1225,"th":1226,"els":1227,"gues":1228,"oris":1229,"Ġsous":1230,"Ġservi":1231,"Ġcertains":1232,"Ġconcerne":1233,"Ġ;":1234,"Ġpeuvent":1235,"ines":1236,"Ã§on":1237,"Ġpeti":1238,"Ġtech":1239,"Ġraison":1240,"lÃ©e":1241,"Ġhum":1242,"Ġcompte":1243,"Ġcontr":1244,"Ġpersonne":1245,"cle":1246,"ĠrÃ©gion":1247,"ĠrÃ©f":1248,"Ġcoop":1249,"Ġpass":1250,"Ġvoi":1251,"tie":1252,"Ã´t":1253,"Ġdevrait":1254,"Ġafin":1255,"ĠcollÃ¨":1256,"nent":1257,"Ils":1258,"ĠnÃ©g":1259,"Ġmi":1260,"Ġenvironnement":1261,"Ġplan":1262,"Ġabord":1263,"enne":1264,"issance":1265,"Ġcor":1266,"merci":1267,"Ġremerci":1268,"Åĵ":1269,"De":1270,"Par":1271,"tiv":1272,"iques":1273,"Ġsui":1274,"Ġavez":1275,"ĠamÃ©li":1276,"Ġdepuis":1277,"Ġarri":1278,"Ġindi":1279,"Ġcontrib":1280,"oritÃ©":1281,"Ġvoir":1282,"ances":1283,"Ġmettre":1284,"Ġpouvons":1285,"Ġceux":1286,"Ġorganis":1287,"ĠMes":1288,"Ġalors":1289,"Ġprendre":1290,"oli":1291,"Ġnouveau":1292,"Ġdemande":1293,"Ġenga":1294,"Ġserait":1295,"oses":1296,"ĠlÃ©gis":1297,"ĠrÃ©sul":1298,"Ġquelques":1299,"tention":1300,"Ġpens":1301,"ĠdÃ©s":1302,"Ġaide":1303,"Ġgens":1304,"ĠprocÃ©":1305,"ĠprÃ©sident":1306,"Ġsub":1307,"Ġdisc":1308,"ix":1309,"Ġagri":1310,"ÃĢ":1311,"Ġpres":1312,"Ġdirective":1313,"Ġpourrait":1314,"Ġuni":1315,"Ġvue":1316,"tionne":1317,"Ġquand":1318,"tenir":1319,"Ġchange":1320,"Ġph":1321,"Ġchoses":1322,"Ġvraiment":1323,"Ġeur":1324,"lon":1325,"rent":1326,"Ġdur":1327,"Ġeffet":1328,"tent":1329,"Ġessenti":1330,"Ġmaintenant":1331,"tratÃ©":1332,"Ġdomaine":1333,"Ġcrise":1334,"Ġpop":1335,"ions":1336,"Ġensemble":1337,"Ġ3":1338,"uvre":1339,"ĠannÃ©e":1340,"lation":1341,"omp":1342,"Ã©ric":1343,"gent":1344,"Ġopp":1345,"Ġcours":1346,"Ġgaranti":1347,"ĠstratÃ©":1348,"Ġsujet":1349,"Ġas":1350,"Ġnouvelle":1351,"Ġpossible":1352,"Ġjou":1353,"pendant":1354,"cessus":1355,"Ġquelque":1356,"Ġprocessus":1357,"endu":1358,"Ġsupp":1359,"Ġprogramme":1360,"Ġvers":1361,"Ġprote":1362,"Ġconsomm":1363,"Ġappr":1364,"On":1365,"Ġbon":1366,"ĠÃ©ch":1367,"gment":1368,"Ġsein":1369,"Ġ20":1370,"Ġeu":1371,"ges":1372,"Ġfonction":1373,"ĠcoopÃ©ration":1374,"Une":1375,"Ġsavoir":1376,"Ġris":1377,"ĠdÃ©cla":1378,"Ġcri":1379,"Ġcontra":1380,"ĠsÃ»":1381,"Ġaccep":1382,"sement":1383,"ĠfaÃ§on":1384,"ĠnÃ©goci":1385,"Ġtrop":1386,"Ġinves":1387,"gne":1388,"Ġentreprises":1389,"Ġprotection":1390,"Ġtrois":1391,"amais":1392,"per":1393,"ĠeuropÃ©ens":1394,"oritÃ©s":1395,"ouvent":1396,"Ġsecteur":1397,"Ġnu":1398,"rÃ©e":1399,"Ġlieu":1400,"ĠsociÃ©":1401,"vention":1402,"ires":1403,"Ġlu":1404,"Ġcomment":1405,"Ġabs":1406,"Ġprog":1407,"ali":1408,"Qu":1409,"usement":1410,"Ġjamais":1411,"ĠÃītat":1412,"ains":1413,"ĠrÃ´le":1414,"Ġreg":1415,"Ġcondi":1416,"Ġiniti":1417,"ĠrÃ©alis":1418,"Ġrapporte":1419,"Ġord":1420,"ĠprÃ©c":1421,"Ġinvesti":1422,"Ġaugment":1423,"tÃ©e":1424,"Ġress":1425,"Ġplace":1426,"Ġju":1427,"Ġconcernant":1428,"quelle":1429,"ĠspÃ©":1430,"Ġlaquelle":1431,"Ġsoutien":1432,"Ġrenfor":1433,"Ġoff":1434,"ĠV":1435,"llement":1436,"aiss":1437,"ssemb":1438,"ĠÃ©conomie":1439,"ĠpremiÃ¨re":1440,"Ġbase":1441,"ches":1442,"entes":1443,"Ġsimp":1444,"ĠcompÃ©":1445,"Ġsens":1446,"xte":1447,"ĠnÃ©cessaire":1448,"ĠprÃ©v":1449,"Ġhist":1450,"antÃ©":1451,"iÃ¨me":1452,"Ġda":1453,"Ġfonda":1454,"Ġcroissance":1455,"Ġpublic":1456,"ion":1457,"Ġavenir":1458,"Ġfais":1459,"Ġheure":1460,"uri":1461,"oins":1462,"cture":1463,"Ġbonne":1464,"Ġclaire":1465,"Que":1466,"Ġbi":1467,"Ġrela":1468,"Ġmoment":1469,"Ġmesure":1470,"Ġindus":1471,"Ġfemmes":1472,"ĠâĢĵ":1473,"enu":1474,"Ġmeille":1475,"Ġbudge":1476,"Ġprom":1477,"st":1478,"ĠrÃ©solution":1479,"Ġavan":1480,"Ġcel":1481,"cile":1482,"ateurs":1483,"ulation":1484,"Ġrecher":1485,"cteurs":1486,"tifs":1487,"man":1488,"Ġrapi":1489,"gique":1490,"ĠsantÃ©":1491,"sidence":1492,"Ã©rence":1493,"Ces":1494,"Un":1495,"Ġcommen":1496,"gni":1497,"omb":1498,"ĠrÃ©g":1499,"Ġposition":1500,"Ġfondament":1501,"antes":1502,"Ã©nÃ©":1503,"van":1504,"Ġpris":1505,"Ġveu":1506,"Ġenfants":1507,"Ãªte":1508,"veur":1509,"Ġnature":1510,"Ġenc":1511,"ĠÃ©tu":1512,"quÃ©":1513,"Ġcrois":1514,"Ġmillions":1515,"Ġreconn":1516,"Ġparticulier":1517,"agne":1518,"Ġreste":1519,"Ġvote":1520,"Ġpra":1521,"orter":1522,"ĠspÃ©ci":1523,"Ã©rer":1524,"Ġobjectif":1525,"orer":1526,"Ġcul":1527,"Ġatte":1528,"vez":1529,"nements":1530,"Ġterme":1531,"Ġnota":1532,"tation":1533,"ites":1534,"Ġtransp":1535,"ĠMme":1536,"ĠrÃ©for":1537,"Ġfaveur":1538,"Ġimportance":1539,"ru":1540,"ĠrÃ¨glement":1541,"ĠÃ©tr":1542,"Ġprix":1543,"abilitÃ©":1544,"Ġrien":1545,"Ġform":1546,"Ġchaque":1547,"acitÃ©":1548,"Ġeffica":1549,"fier":1550,"Ġamendements":1551,"rions":1552,"ĠtraitÃ©":1553,"venir":1554,"ari":1555,"ĠÃ©vi":1556,"Ġproch":1557,"ĠChine":1558,"Ġpropositions":1559,"lÃ©ment":1560,"ĠÃ©nergie":1561,"ov":1562,"Ã©ment":1563,"oura":1564,"im":1565,"Ġunique":1566,"Ġgra":1567,"Ġ5":1568,"Ġcour":1569,"Ġlim":1570,"Ġsoient":1571,"gement":1572,"Ġvol":1573,"Ġrapide":1574,"ĠamÃ©ric":1575,"Ġservices":1576,"Ġrapporteur":1577,"ĠcollÃ¨gues":1578,"Ġaction":1579,"Ġinitia":1580,"Ġz":1581,"Ġpara":1582,"ssemblÃ©e":1583,"Ġjuste":1584,"urer":1585,"Ġver":1586,"fication":1587,"ration":1588,"ay":1589,"rÃ©s":1590,"ress":1591,"Ġrel":1592,"Ġmois":1593,"ĠespÃ¨re":1594,"Ġesti":1595,"Ġconstru":1596,"ĠdÃ©pu":1597,"Ġlan":1598,"Ġnouvelles":1599,"ĠÃ©gard":1600,"Ġpremier":1601,"jou":1602,"Ġsuff":1603,"Ġobjectifs":1604,"Ġemploi":1605,"ources":1606,"Ġ199":1607,"Ġailleurs":1608,"ĠvÃ©r":1609,"ĠsÃ»r":1610,"ĠCommissaire":1611,"Ġsigni":1612,"Ġnombreux":1613,"Ġrem":1614,"Ġmis":1615,"Ã©rie":1616,"Ġviol":1617,"ĠdÃ©fin":1618,"ĠcoÃ»":1619,"one":1620,"Ġproduits":1621,"ĠmÃ©di":1622,"Ġmise":1623,"ĠÅĵ":1624,"su":1625,"lex":1626,"Ġsemble":1627,"Ġnotamment":1628,"ĠAm":1629,"lab":1630,"Ġprojet":1631,"Ġdonner":1632,"ression":1633,"Ġjusqu":1634,"issent":1635,"ĠdÃ©cision":1636,"quel":1637,"mbre":1638,"ot":1639,"Ġattein":1640,"ĠÃ©taient":1641,"nolo":1642,"ĠbÃ©nÃ©":1643,"Ġcommune":1644,"Ġsouvent":1645,"Ġbudget":1646,"ĠMadame":1647,"Ġsal":1648,"cipe":1649,"Ġinvestisse":1650,"Ġliber":1651,"uridi":1652,"Ġbas":1653,"hÃ©sion":1654,"Ġjuridi":1655,"Ġplusieurs":1656,"itaire":1657,"Ġmieux":1658,"Ġ4":1659,"Ġfut":1660,"ĠcontrÃ´le":1661,"Ġinstitutions":1662,"bil":1663,"Ġtota":1664,"ĠparticuliÃ¨rement":1665,"Ġali":1666,"ĠÃ©qu":1667,"ĠAssemblÃ©e":1668,"Ġcomb":1669,"Ġvale":1670,"ĠJe":1671,"Ġcli":1672,"ode":1673,"Ġexpri":1674,"Ġavis":1675,"Ġnor":1676,"Ġparler":1677,"Ġaucune":1678,"ablement":1679,"Ġsec":1680,"rons":1681,"ĠidÃ©e":1682,"uerre":1683,"ĠIn":1684,"Ġconditions":1685,"Ġcelui":1686,"Ġeux":1687,"Ġexiste":1688,"Ġdou":1689,"ĠstratÃ©gie":1690,"ole":1691,"ĠrÃ©c":1692,"rieur":1693,"Ġta":1694,"gration":1695,"Ġstru":1696,"ĠbÃ©nÃ©fi":1697,"alement":1698,"ĠRus":1699,"Ġamendement":1700,"Ġnouveaux":1701,"ies":1702,"Ġcelle":1703,"Ã®tre":1704,"ron":1705,"Ġcommissaire":1706,"Ġappel":1707,"Ġtechnolo":1708,"Ã©lic":1709,"oration":1710,"Ġparticip":1711,"Ġseront":1712,"Ġprincipe":1713,"rÃ¨s":1714,"Ġban":1715,"Ġimpli":1716,"ĠrÃ¨gles":1717,"aut":1718,"anger":1719,"vant":1720,"ĠdÃ©mocratie":1721,"ĠrÃ©ponse":1722,"ĠsociÃ©tÃ©":1723,"Ġfour":1724,"Ġref":1725,"Ġimpos":1726,"vantage":1727,"ĠdÃ©ci":1728,"Ġfonds":1729,"ĠintÃ©rÃªt":1730,"Ġcontribu":1731,"Ġattention":1732,"ĠfÃ©lic":1733,"ĠprÃ©sidence":1734,"ĠAf":1735,"Ġtrouver":1736,"Ġpeux":1737,"Ġmaj":1738,"ill":1739,"Ġrecherche":1740,"Ġsociale":1741,"Ãªche":1742,"Ġclairement":1743,"fic":1744,"Ġcan":1745,"Ġactiv":1746,"Ġjusti":1747,"Ġdavantage":1748,"Ġvoy":1749,"yp":1750,"illes":1751,"miner":1752,"Ġselon":1753,"Ġparten":1754,"Ġimportante":1755,"ĠtÃ©":1756,"Ġarti":1757,"Ã®t":1758,"Ġargent":1759,"ĠdÃ©cisi":1760,"ier":1761,"Ġsolution":1762,"cup":1763,"Ġpoints":1764,"Ġveux":1765,"Ġmondiale":1766,"Ġsais":1767,"ĠnÃ©gociations":1768,"Ġjeun":1769,"ctu":1770,"ĠW":1771,"ĠRussie":1772,"Ġefforts":1773,"aise":1774,"ĠrÃ©pond":1775,"Ġtour":1776,"Ġpendant":1777,"ĠÃ©p":1778,"osition":1779,"Comme":1780,"ouvez":1781,"vient":1782,"utÃ´t":1783,"Ġexpli":1784,"ĠpÃ©ri":1785,"Ġefficace":1786,"Ġdernier":1787,"Ġouver":1788,"Ġait":1789,"Ġsign":1790,"ĠderniÃ¨re":1791,"Ġno":1792,"ĠÃ©conomiques":1793,"ing":1794,"Ġguerre":1795,"ĠcÃ´":1796,"inement":1797,"Ġfav":1798,"Ġordre":1799,"Ġculture":1800,"Ġmoyen":1801,"Ġtaux":1802,"Ã¯":1803,"nÃ©":1804,"ĠPrÃ©sidente":1805,"Ġdifficile":1806,"Ġvu":1807,"matique":1808,"ĠdÃ©putÃ©s":1809,"jets":1810,"table":1811,"Ġcentra":1812,"suite":1813,"Ġple":1814,"Ġcertaines":1815,"grÃ©":1816,"ĠLa":1817,"Ġur":1818,"Ġlar":1819,"llem":1820,"Ġremercier":1821,"ĠplutÃ´t":1822,"ĠqualitÃ©":1823,"Ġsuc":1824,"ĠdÃ¨s":1825,"Ã¨ne":1826,"taires":1827,"Ġche":1828,"Ġsimplement":1829,"Ãªmes":1830,"Ġlorsque":1831,"ĠindÃ©":1832,"graph":1833,"et":1834,"Ġvoulons":1835,"Ġressources":1836,"cÃ¨s":1837,"Ġsem":1838,"ĠeuropÃ©ennes":1839,"Ġpopulation":1840,"Ġparlement":1841,"Ã©rÃ©":1842,"Ġsci":1843,"eil":1844,"ĠÃ©lar":1845,"Ġeuro":1846,"ĠÅĵuvre":1847,"Ġcapit":1848,"Ġface":1849,"Ġagricul":1850,"Ġinstru":1851,"ĠÃ©trang":1852,"fique":1853,"Ġmodi":1854,"Ġinternationale":1855,"dames":1856,"ĠcrÃ©er":1857,"Ġapproche":1858,"Ã©d":1859,"ĠpassÃ©":1860,"ĠMessieurs":1861,"Ġchar":1862,"Ġfont":1863,"ap":1864,"Ġcher":1865,"Tout":1866,"Ġsorte":1867,"Ġhistoire":1868,"ĠÃ©crit":1869,"Ġcommerci":1870,"Ġpropre":1871,"Ġremar":1872,"vis":1873,"Ġdo":1874,"ĠdonnÃ©":1875,"Ġocca":1876,"lus":1877,"Ġpaix":1878,"Ġforme":1879,"Ġseule":1880,"ĠrÃ©un":1881,"cont":1882,"ĠbudgÃ©":1883,"rÃ¨":1884,"ĠÃ©t":1885,"Ġaurait":1886,"ĠlÃ©gislation":1887,"ĠrÃ©gions":1888,"rique":1889,"Ġhab":1890,"Ġinsta":1891,"ĠlibertÃ©":1892,"Ġextr":1893,"ĠmarchÃ©s":1894,"ĠmÃªmes":1895,"ĠvotÃ©":1896,"Toute":1897,"cident":1898,"Ġrespect":1899,"ad":1900,"Ġencoura":1901,"Ġconsommateurs":1902,"Ġrelations":1903,"itable":1904,"quie":1905,"Ġlutte":1906,"Ġaspe":1907,"ĠÃ©val":1908,"urr":1909,"Ġaliment":1910,"Ġfra":1911,"Ġquoi":1912,"Ġsoulig":1913,"Ġchangement":1914,"isme":1915,"Donc":1916,"clÃ©":1917,"ĠpÃªche":1918,"Ġdevraient":1919,"ĠresponsabilitÃ©":1920,"ob":1921,"Ġaller":1922,"Ġconfi":1923,"Ġterr":1924,"trodu":1925,"trie":1926,"oupes":1927,"Ġdemander":1928,"Ġoutre":1929,"Ġconclu":1930,"Ġexc":1931,"Ġconcurr":1932,"Ġdiri":1933,"ĠconsÃ©quent":1934,"ancement":1935,"chÃ©":1936,"Ġpouvez":1937,"dure":1938,"Ġasse":1939,"tout":1940,"Ġfam":1941,"ĠdiffÃ©rents":1942,"Ġactuelle":1943,"Ġautant":1944,"Ġinformation":1945,"gence":1946,"ĠrÃ©sultats":1947,"Ġsoutenir":1948,"fie":1949,"Ġvoie":1950,"aritÃ©":1951,"lais":1952,"ĠprÃ©oc":1953,"tres":1954,"ĠprogrÃ¨s":1955,"Ġpos":1956,"Ġani":1957,"Ġtelle":1958,"pa":1959,"Ġinformations":1960,"Ġtermes":1961,"temps":1962,"ĠdÃ©pens":1963,"ĠextrÃªme":1964,"Ġcin":1965,"ĠautoritÃ©s":1966,"Ġcommuni":1967,"ĠLe":1968,"Ġsuffis":1969,"Ġcertain":1970,"Ġmod":1971,"Ġactuellement":1972,"Ġentendu":1973,"ĠnuclÃ©":1974,"Ġcir":1975,"Ġentra":1976,"heure":1977,"Ġintrodu":1978,"Ġvolont":1979,"ats":1980,"fait":1981,"ĠdonnÃ©es":1982,"Ġvais":1983,"ĠprÃ©cis":1984,"tations":1985,"Ġsy":1986,"ĠintÃ©rieur":1987,"Ġdoute":1988,"Ġtoutefois":1989,"lan":1990,"ĠprocÃ©dure":1991,"Ġconstitue":1992,"Des":1993,"Ġseul":1994,"ĠrÃ©us":1995,"tiÃ¨res":1996,"nique":1997,"tÃ©ri":1998,"Ġessay":1999,"ĠexpÃ©ri":2000,"Ġsoli":2001,"Ġinv":2002,"Ġges":2003,"mette":2004,"Ġjuridique":2005,"land":2006,"issant":2007,"Ġassurer":2008,"Ġaura":2009,"Ġqua":2010,"Ġrepr":2011,"Ġnombreuses":2012,"Ġgarantir":2013,"Ġaccomp":2014,"Ġpeup":2015,"000":2016,"Ġdiscus":2017,"Ġsurtout":2018,"lob":2019,"ĠrÃ©alitÃ©":2020,"Ġatta":2021,"Ġchi":2022,"Ġoccasion":2023,"Ġaider":2024,"Ġessentiel":2025,"Ġanim":2026,"Ġraisons":2027,"ĠintÃ©rÃªts":2028,"Ġtranspar":2029,"ĠpÃ©":2030,"Ġdispos":2031,"Ġterroris":2032,"Ġrisque":2033,"Ġrapidement":2034,"ras":2035,"ĠdeuxiÃ¨me":2036,"Ġdevrions":2037,"Ġcommunautaire":2038,"ĠamÃ©liorer":2039,"rir":2040,"ĠderniÃ¨res":2041,"Ġmilliard":2042,"Ġindustrie":2043,"Ġgouvernements":2044,"act":2045,"Ġveut":2046,"Ã©rique":2047,"ĠTur":2048,"ues":2049,"Ġtent":2050,"minist":2051,"Ġstructure":2052,"ĠarrÃª":2053,"Ġassez":2054,"Ġsus":2055,"Ġproduction":2056,"Ġconsta":2057,"ateur":2058,"vement":2059,"ĠnÃ©cessitÃ©":2060,"lors":2061,"Ġvois":2062,"ros":2063,"Ġcondu":2064,"vres":2065,"sible":2066,"Ġlibre":2067,"ĠprÃª":2068,"erce":2069,"ĠEtats":2070,"gies":2071,"ĠprotÃ©":2072,"Ã¨mes":2073,"Ġpreu":2074,"Ġtiens":2075,"erre":2076,"ĠaccÃ¨s":2077,"ctives":2078,"Ġaffaires":2079,"Ġpublique":2080,"Ġinitiative":2081,"ĠrÃ©glement":2082,"Ġconfl":2083,"Ġfran":2084,"endance":2085,"Ġreven":2086,"ĠsÃ©rie":2087,"isation":2088,"ĠconsidÃ©ra":2089,"Ġmoyens":2090,"Ġadminist":2091,"Ġfi":2092,"auv":2093,"lait":2094,"nie":2095,"Ġattend":2096,"dam":2097,"Ġremp":2098,"Ġpor":2099,"Ġ6":2100,"ĠÃ©che":2101,"Ġclair":2102,"Ġapplication":2103,"ĠpÃ©riode":2104,"tÃ©es":2105,"alo":2106,"Ġcontinuer":2107,"isse":2108,"part":2109,"Ġarticle":2110,"az":2111,"Ġplupart":2112,"ĠMesdames":2113,"Ġamb":2114,"ĠfinanciÃ¨re":2115,"Ġvoit":2116,"Madame":2117,"ĠmajoritÃ©":2118,"mÃ©di":2119,"Ġlequel":2120,"ris":2121,"Ġconv":2122,"Toutefois":2123,"ĠnÃ©cessaires":2124,"Ġjeunes":2125,"heureusement":2126,"ages":2127,"ĠrÃ©v":2128,"ĠdÃ©cisions":2129,"Ġcause":2130,"Ġis":2131,"Ġtrouve":2132,"Ġtravailleurs":2133,"cts":2134,"ĠdÃ©ter":2135,"Ġsau":2136,"Ġtraite":2137,"Ġty":2138,"itaires":2139,"ĠÃ©qui":2140,"Ġvisant":2141,"Ġlesque":2142,"Ġcependant":2143,"Ġcomprom":2144,"Ġten":2145,"ĠcrÃ©ation":2146,"Enfin":2147,"ĠÃ©tudi":2148,"fiques":2149,"sui":2150,"Ġret":2151,"Ġconcurrence":2152,"Ġgen":2153,"ĠÃ©quili":2154,"Ġporte":2155,"ĠgÃ©nÃ©ral":2156,"endra":2157,"Ġsatis":2158,"Ġmala":2159,"lin":2160,"Ġcompris":2161,"Ġinn":2162,"laire":2163,"Alors":2164,"ĠÃªtes":2165,"tons":2166,"Ã¨te":2167,"ĠÃ©tant":2168,"ilÃł":2169,"Ġtravers":2170,"Ġremercie":2171,"Ġtrouv":2172,"Ġtrain":2173,"Ġgestion":2174,"Ġagrico":2175,"Ġconfiance":2176,"ĠÃ©du":2177,"Ġrespec":2178,"Ġloin":2179,"Ġlaiss":2180,"istre":2181,"Ġdomaines":2182,"ĠstabilitÃ©":2183,"rez":2184,"Ġpoursui":2185,"Ġutiliser":2186,"Ġpermettre":2187,"Ġeau":2188,"Ġgroupes":2189,"Ġrendre":2190,"Ġir":2191,"Ġinqui":2192,"Ġsouhaite":2193,"Ġsc":2194,"Ġconte":2195,"aissance":2196,"ĠintÃ©ress":2197,"alisation":2198,"ĠtÃ©lÃ©":2199,"Ġcomprendre":2200,"Ġfai":2201,"ĠTurquie":2202,"Ã©cu":2203,"Ġorig":2204,"ĠdiffÃ©rentes":2205,"Bien":2206,"Ġespr":2207,"Ġobser":2208,"cel":2209,"Ġprogrammes":2210,"Ġ7":2211,"ĠprÃ©cÃ©":2212,"ĠÃ©viter":2213,"Ġinternational":2214,"Ġrenforcer":2215,"oque":2216,"ĠbÃ©nÃ©fici":2217,"mettez":2218,"Ġsouten":2219,"ĠÃ©tat":2220,"Ġmembre":2221,"Ã¢ce":2222,"rak":2223,"ollar":2224,"Ġutilisation":2225,"ĠEt":2226,"ĠdÃ©mocratique":2227,"Ġconsci":2228,"Ġcoup":2229,"Ġvos":2230,"ĠÃ©n":2231,"Ġglob":2232,"Ġ201":2233,"era":2234,"ĠIs":2235,"Ġtexte":2236,"ĠadhÃ©sion":2237,"ĠÃ©largis":2238,"isiÃ¨me":2239,"ĠpossibilitÃ©":2240,"Ġdollar":2241,"Ġmer":2242,"tient":2243,"Ġactions":2244,"Ġoblig":2245,"Ġeuros":2246,"Ġsavez":2247,"Ġfort":2248,"Ġloc":2249,"ĠÃ©lections":2250,"demment":2251,"Ġcommerce":2252,"ĠlÃ©gisla":2253,"Ġforte":2254,"Ġmauv":2255,"Ġsuite":2256,"Ġtype":2257,"Ġpratique":2258,"ĠextrÃªmement":2259,"Ġdestin":2260,"ĠAfrique":2261,"ctement":2262,"ĠrÃ©forme":2263,"ĠmodÃ¨":2264,"ommet":2265,"Ġaimer":2266,"ĠlibÃ©ra":2267,"Ġmeilleure":2268,"ils":2269,"isc":2270,"Ġrou":2271,"Ġappelle":2272,"Ġrencont":2273,"Ġconvain":2274,"Ġsignifie":2275,"na":2276,"ĠconsÃ©quences":2277,"ĠÃ©tabli":2278,"mon":2279,"Ġhommes":2280,"ennent":2281,"Ġprojets":2282,"oires":2283,"ses":2284,"Ġfron":2285,"Ġpi":2286,"vÃ©s":2287,"Ġhe":2288,"Ġpasse":2289,"Ġay":2290,"Ġimporte":2291,"ĠÃ©nergÃ©":2292,"Ġprofes":2293,"Ġsavons":2294,"ĠrÃ©duire":2295,"ĠprÃ©occup":2296,"Ġcontraire":2297,"Ġrappel":2298,"Ġsouligner":2299,"Ã¨rent":2300,"ĠÃ©largissement":2301,"Ġ10":2302,"Ġfinancement":2303,"Ġtel":2304,"Cer":2305,"para":2306,"ĠcontrÃ´":2307,"Ġpasser":2308,"ĠrÃ©pondre":2309,"titude":2310,"Ġaccepter":2311,"Ġdialo":2312,"mination":2313,"Cependant":2314,"remi":2315,"ric":2316,"vÃ©e":2317,"Ġmilliards":2318,"ĠÃ©valu":2319,"Ġexcel":2320,"Ġdevant":2321,"Ġlongtemps":2322,"Ġcompromis":2323,"Ġdocu":2324,"men":2325,"tir":2326,"Ġrend":2327,"Ġdisposi":2328,"Ġdirige":2329,"onde":2330,"quent":2331,"ha":2332,"ĠrÃ©ser":2333,"Ġesprit":2334,"ĠdÃ©but":2335,"be":2336,"Ġ8":2337,"ret":2338,"Ġsemb":2339,"lande":2340,"rain":2341,"Ġobjet":2342,"Ġrecomm":2343,"Ġjours":2344,"Ġperspe":2345,"Ġorient":2346,"Ġfix":2347,"olutions":2348,"Ġaccords":2349,"Ġtravailler":2350,"ĠIl":2351,"ĠprÃ¨s":2352,"Ġzone":2353,"ĠcÃ´tÃ©":2354,"Ġanci":2355,"ĠcompÃ©ti":2356,"ĠEN":2357,"apon":2358,"ister":2359,"moins":2360,"Ġdois":2361,"acun":2362,"lÃ©g":2363,"Ġexpl":2364,"Ġimportants":2365,"ĠLis":2366,"Ġestime":2367,"ass":2368,"bonne":2369,"ĠrÃ©gime":2370,"Ġappar":2371,"Ġdiscu":2372,"Ġjustice":2373,"Ġpauvre":2374,"Ġmul":2375,"ĠAmÃ©rique":2376,"ĠLisbonne":2377,"Ġopin":2378,"istan":2379,"Ġdifficul":2380,"Ġapporter":2381,"Ġtransport":2382,"ĠrÃ©sultat":2383,"usse":2384,"Ġdivers":2385,"Ġdialogue":2386,"cil":2387,"Ġcoord":2388,"Ġexa":2389,"Ġemplois":2390,"ĠÃ©lect":2391,"ĠreÃ§":2392,"niques":2393,"Ġsimple":2394,"iennent":2395,"Ġlorsqu":2396,"Ġgrandes":2397,"lure":2398,"tivement":2399,"tÃ©ra":2400,"Ġoubli":2401,"mettre":2402,"Ġassoci":2403,"Ġpreuve":2404,"sp":2405,"Ġvoter":2406,"Ġexerci":2407,"Ġcontexte":2408,"Ġgenre":2409,"omment":2410,"Ġscienti":2411,"Ġdess":2412,"Ġquatre":2413,"ĠdÃ©ta":2414,"Ġcara":2415,"ĠvolontÃ©":2416,"Ġvicti":2417,"Deux":2418,"Ġtard":2419,"orm":2420,"Ġvont":2421,"Ġdurable":2422,"Ġvenir":2423,"Ġsenti":2424,"Ġproduit":2425,"Ġpropres":2426,"Ġtitre":2427,"ĠindÃ©p":2428,"Ġsuiv":2429,"Ġavaient":2430,"ĠsuccÃ¨s":2431,"ination":2432,"Ġpourraient":2433,"Ġexist":2434,"cacitÃ©":2435,"Ġexig":2436,"ĠsystÃ¨mes":2437,"Ġadopter":2438,"fes":2439,"Ġquant":2440,"Ġpuisse":2441,"Ġagir":2442,"ĠreprÃ©sente":2443,"tim":2444,"ĠsupplÃ©ment":2445,"Ġ9":2446,"die":2447,"Ġcommencer":2448,"ds":2449,"anmoins":2450,"ĠdÃ»":2451,"ĠÃ©lab":2452,"Ġministre":2453,"Ġprincipes":2454,"Ġfisc":2455,"Ã«":2456,"Ġimmi":2457,"Ġindustri":2458,"Ġaffir":2459,"Ġnationaux":2460,"Ġexercice":2461,"Ġajou":2462,"ĠdÃ©fini":2463,"ĠdemandÃ©":2464,"Ġcinq":2465,"Ġnormes":2466,"Ġenvis":2467,"Ġoppos":2468,"ĠactivitÃ©s":2469,"oni":2470,"Ġregard":2471,"Ġsocial":2472,"Ġparties":2473,"arde":2474,"ement":2475,"Ġchez":2476,"Ġaugmentation":2477,"Ġanal":2478,"ĠbudgÃ©taire":2479,"Ġconvient":2480,"Ġsommet":2481,"ĠAllem":2482,"Ġmanque":2483,"Ġrester":2484,"ĠrÃ©sou":2485,"rance":2486,"ĠsiÃ¨":2487,"ĠcompÃ©ten":2488,"ĠrÃ©se":2489,"Ġsolid":2490,"Ġforce":2491,"Ġend":2492,"tar":2493,"Ġsep":2494,"Ġimportantes":2495,"Ġfinanciers":2496,"cÃ©e":2497,"ĠÃ©lÃ©":2498,"Ġrev":2499,"Ġ000":2500,"ĠintÃ©gration":2501,"Ġconcent":2502,"Ġassur":2503,"dida":2504,"ĠAn":2505,"Ġengagement":2506,"Ġjouer":2507,"Ġjourn":2508,"Ġcelles":2509,"Ġcandida":2510,"oix":2511,"Ġhau":2512,"art":2513,"Ġtransf":2514,"ĠgrÃ¢ce":2515,"ĠcommunautÃ©":2516,"ĠÃ©ducation":2517,"ĠÃ©nor":2518,"Ġgrands":2519,"ĠÃ¢":2520,"Ġsan":2521,"ĠmonÃ©":2522,"Ġdonne":2523,"Ġobtenir":2524,"Ġparo":2525,"Tu":2526,"Mal":2527,"ĠefficacitÃ©":2528,"istes":2529,"Ġvaleurs":2530,"onds":2531,"Ġtransparence":2532,"yer":2533,"Ġmanifes":2534,"Ġconcep":2535,"vid":2536,"Ġouv":2537,"Ġmort":2538,"ĠrÃ©ellement":2539,"ĠCon":2540,"hi":2541,"Ġfaud":2542,"ĠprÃ©f":2543,"Ã«l":2544,"Ġreli":2545,"ĠentraÃ®":2546,"ĠintÃ©g":2547,"ĠinquiÃ©":2548,"Ġfavora":2549,"Ġceci":2550,"toc":2551,"Ġven":2552,"tenti":2553,"Ġprochaine":2554,"ert":2555,"Ġtelles":2556,"Ġaimerais":2557,"Ġcal":2558,"uel":2559,"ĠmÃ©th":2560,"inois":2561,"Ġtels":2562,"ĠrÃ©jou":2563,"olument":2564,"Ġanti":2565,"Ġcommunication":2566,"vil":2567,"Ġmention":2568,"Ġlo":2569,"Ġcrit":2570,"Ġensuite":2571,"Ġhar":2572,"ĠcapacitÃ©":2573,"ĠvÃ©ritable":2574,"Ġmontre":2575,"ĠdÃ©claration":2576,"ends":2577,"tas":2578,"Ġchoix":2579,"Ġatteindre":2580,"Lors":2581,"Ġmu":2582,"Ġvient":2583,"Ġsor":2584,"ureau":2585,"Ġpetit":2586,"Ġvaleur":2587,"ĠdÃ©si":2588,"Ġprov":2589,"ienne":2590,"ĠÃ©tais":2591,"Ġnationales":2592,"Ġinflu":2593,"Ġerre":2594,"agn":2595,"Ġintervention":2596,"aisse":2597,"Ġcertainement":2598,"giques":2599,"ton":2600,"Ġrapports":2601,"Ġagriculture":2602,"ĠdÃ©penses":2603,"ĠrÃ©soudre":2604,"Ġpartis":2605,"Ġheures":2606,"rement":2607,"Ġyeux":2608,"ĠempÃª":2609,"ore":2610,"Ġhabit":2611,"Ġaspects":2612,"Ġhui":2613,"Ã©rons":2614,"Ġinnov":2615,"ĠIsra":2616,"Ġquelle":2617,"ĠNations":2618,"tine":2619,"Ġchacun":2620,"ĠpauvretÃ©":2621,"ĠÃ©lÃ©ments":2622,"ĠY":2623,"riÃ©":2624,"Ġbou":2625,"Ġtiers":2626,"dap":2627,"Ġenviron":2628,"Ġparle":2629,"Ġcontribuer":2630,"Ġprise":2631,"tionnel":2632,"ĠCour":2633,"ĠexpÃ©rience":2634,"ĠrÃ©formes":2635,"ĠPa":2636,"amment":2637,"Ġsemaine":2638,"ĠAllemagne":2639,"Ġimpact":2640,"Ġchois":2641,"Ġmondial":2642,"ĠfrontiÃ¨res":2643,"tini":2644,"ori":2645,"ĠtÃ¢":2646,"ĠfinanciÃ¨res":2647,"Ġterrorisme":2648,"ĠcomplÃ¨":2649,"Ġdemain":2650,"Ġanimaux":2651,"rÃ©es":2652,"ĠnuclÃ©aire":2653,"Mon":2654,"Ġhuman":2655,"Ġsouff":2656,"Ġexi":2657,"ĠmodÃ¨le":2658,"gÃ©s":2659,"Ġache":2660,"ritan":2661,"cri":2662,"ctures":2663,"Ġlarge":2664,"Notre":2665,"Ġidenti":2666,"ĠÃ©nergÃ©tique":2667,"ĠAl":2668,"Ġ15":2669,"Ġfu":2670,"ĠÃ©volution":2671,"ĠmÃ©c":2672,"Ġterrit":2673,"tel":2674,"ĠÃ©mis":2675,"ĠdÃ©fense":2676,"Ġsociaux":2677,"oma":2678,"Ġsol":2679,"Ġdispositions":2680,"Ġdix":2681,"Ġallons":2682,"Ġpotenti":2683,"Ġconfront":2684,"Ġadap":2685,"Ġvictimes":2686,"ĠÃ©vo":2687,"ĠÃ©galitÃ©":2688,"Ġrecommand":2689,"Ġfinancier":2690,"Ġpartage":2691,"Ġcollab":2692,"Ġuniquement":2693,"Comment":2694,"Ġth":2695,"Ġtenir":2696,"ĠchÃ´":2697,"ĠLi":2698,"Certa":2699,"Ne":2700,"Ġdist":2701,"Quand":2702,"Ġviolence":2703,"ograph":2704,"ĠIrak":2705,"cations":2706,"Ġbut":2707,"Ġrisques":2708,"ĠlÃ©g":2709,"Ġorigine":2710,"oilÃł":2711,"Ġfourni":2712,"mÃ©e":2713,"Ġdollars":2714,"Ġjeu":2715,"ĠsolidaritÃ©":2716,"Ġemb":2717,"Ġpartir":2718,"aÃ®t":2719,"cles":2720,"ĠrÃ©duction":2721,"Ġparvenir":2722,"Ã§ons":2723,"Ġespace":2724,"Ġtotalement":2725,"Ġcamp":2726,"cemment":2727,"ĠprotÃ©ger":2728,"aÃ®tre":2729,"ec":2730,"Ġinvestissements":2731,"ute":2732,"Ġclimatique":2733,"ormais":2734,"ĠNous":2735,"tivitÃ©":2736,"ones":2737,"han":2738,"ĠpÃ©tro":2739,"ĠadoptÃ©":2740,"uvres":2741,"Ġmontrer":2742,"eur":2743,"ĠmÃ©r":2744,"Ġfondamentaux":2745,"ĠÃ©valuation":2746,"dit":2747,"litÃ©":2748,"tier":2749,"Ġobs":2750,"ribu":2751,"Ġpresque":2752,"cev":2753,"Aujourd":2754,"Ġmeilleur":2755,"ĠprocÃ©d":2756,"ortun":2757,"Ġabsolument":2758,"ĠÃ©poque":2759,"ĠgÃ©":2760,"ĠFrance":2761,"Ġnational":2762,"Ġaccro":2763,"Elles":2764,"ĠcollÃ¨gue":2765,"Ġparmi":2766,"Ġloi":2767,"Ġchers":2768,"ĠprÃ©sente":2769,"ption":2770,"Ġprobablement":2771,"Pourquoi":2772,"lant":2773,"Ġstatu":2774,"ĠfÃ©liciter":2775,"Ġdos":2776,"erts":2777,"iser":2778,"Ġdirection":2779,"ĠDE":2780,"Ġferme":2781,"Ġharmon":2782,"prÃ©":2783,"Ġdevenir":2784,"ĠcommencÃ©":2785,"Ġcentrale":2786,"Ġradi":2787,"ĠEuropÃ©":2788,"Ġmulti":2789,"Ġorganisations":2790,"Ġunivers":2791,"Ġopinion":2792,"cent":2793,"Ġmoder":2794,"ĠcoÃ»ts":2795,"Ġdirigeants":2796,"ĠimmÃ©di":2797,"..":2798,"are":2799,"Ġenfin":2800,"Ġavais":2801,"Ġexploit":2802,"ĠFonds":2803,"Ġpermis":2804,"ĠdÃ©velopper":2805,"lÃ©s":2806,"lie":2807,"ventions":2808,"Ġaffaire":2809,"Ã¨de":2810,"Ġcorre":2811,"Ġpeuple":2812,"ĠentiÃ¨re":2813,"Ġprogres":2814,"Ġsix":2815,"ennes":2816,"ĠrÃ©a":2817,"Ġentreprise":2818,"Ã©v":2819,"Ġservice":2820,"ĠdÃ©sormais":2821,"Ġprises":2822,"dici":2823,"ĠMa":2824,"Ġcomplex":2825,"ĠprioritÃ©":2826,"Ġpeine":2827,"gueur":2828,"aie":2829,"ĠÃ©videmment":2830,"quÃ©e":2831,"Ġapprop":2832,"Ġpetites":2833,"Ġfemme":2834,"DeuxiÃ¨me":2835,"VoilÃł":2836,"ex":2837,"uis":2838,"Ġautoris":2839,"Ġcou":2840,"Ġtradi":2841,"oncer":2842,"ĠapprÃ©":2843,"Ġretour":2844,"Ġopportun":2845,"ĠÃ©tab":2846,"Ġresponsables":2847,"ĠCe":2848,"Ġsubst":2849,"Ġchanger":2850,"Ġmari":2851,"Ġfil":2852,"Ġoct":2853,"Ġexprimer":2854,"Ġsatisf":2855,"Ġformation":2856,"iez":2857,"fiÃ©":2858,"blement":2859,"Ġbritan":2860,"ĠÃ©change":2861,"Ġcomporte":2862,"Ġveulent":2863,"ĠfranÃ§":2864,"ĠdifficultÃ©s":2865,"pens":2866,"tait":2867,"Ġnationale":2868,"ĠÃ©vÃ©":2869,"eiller":2870,"gnÃ©":2871,"ĠrÃ©cemment":2872,"Ġhaut":2873,"Ġchangements":2874,"ĠmonÃ©taire":2875,"ttes":2876,"Ġconsul":2877,"Ġsen":2878,"Ġexpor":2879,"rations":2880,"ĠextÃ©":2881,"Ġconflit":2882,"Ġparfait":2883,"ĠmÃ©canis":2884,"Ġtenu":2885,"Ġadoption":2886,"Ġconser":2887,"ĠInde":2888,"Ġtes":2889,"Ġdevoir":2890,"ctivement":2891,"Ġimm":2892,"Ġappliquer":2893,"Ġ/":2894,"ager":2895,"Ġbanques":2896,"ĠIsraÃ«l":2897,"Ġpauvres":2898,"Ġriches":2899,"ĠcritÃ¨res":2900,"Ġcru":2901,"uelle":2902,"Ġus":2903,"ĠtroisiÃ¨me":2904,"Ġprofession":2905,"ĠvÃ©":2906,"ĠidÃ©es":2907,"ĠprÃ©senter":2908,"Ġindivid":2909,"Ġsait":2910,"autÃ©":2911,"uler":2912,"cap":2913,"cs":2914,"Ġtechnologie":2915,"mage":2916,"Ġatti":2917,"ĠJapon":2918,"ĠdÃ©cidÃ©":2919,"Ġbureau":2920,"Ġexac":2921,"rou":2922,"Ġintention":2923,"cement":2924,"elon":2925,"Ġchiff":2926,"Ġparfois":2927,"Ġrespecter":2928,"troph":2929,"ĠÃ©missions":2930,"Ġrefus":2931,"ĠSch":2932,"Ġpartenari":2933,"ĠchÃ´mage":2934,"Ġretar":2935,"ĠlÃ©gi":2936,"ĠprioritÃ©s":2937,"Ġ...":2938,"alistes":2939,"ĠTra":2940,"Ġchinois":2941,"ĠIr":2942,"istance":2943,"verse":2944,"tionnelle":2945,"Ã©ro":2946,"Ġpourra":2947,"abil":2948,"Ġpromouv":2949,"tastroph":2950,"reux":2951,"Ġmess":2952,"ĠdÃ©pos":2953,"Ġunies":2954,"ĠÃ©m":2955,"Ġpropose":2956,"iner":2957,"Ġcatastroph":2958,"Ainsi":2959,"AprÃ¨s":2960,"Ġchance":2961,"ĠÃ©conomies":2962,"pl":2963,"Ġsour":2964,"Ġimag":2965,"Ġtomb":2966,"ĠÃ©lÃ©ment":2967,"rier":2968,"Ġobten":2969,"Ġcolle":2970,"Ġcondam":2971,"Ceci":2972,"Ġsin":2973,"Ġmilitaire":2974,"Ġforces":2975,"ĠsociÃ©tÃ©s":2976,"jus":2977,"mique":2978,"ĠIran":2979,"onner":2980,"titution":2981,"ĠrÃ©ussi":2982,"Ġarmes":2983,"Ġagricole":2984,"Ġpenser":2985,"Ġign":2986,"Ġlivre":2987,"Ġrappeler":2988,"Ġengage":2989,"vie":2990,"roi":2991,"Ġindis":2992,"ĠdÃ©fi":2993,"Ġreje":2994,"Ġsouhaiter":2995,"Ġtraitement":2996,"lez":2997,"aliste":2998,"Ġdimin":2999,"net":3000,"xe":3001,"Ġinten":3002,"ĠCommun":3003,"ĠcohÃ©sion":3004,"Ġvoix":3005,"ĠprocÃ©dures":3006,"Ġdange":3007,"DeuxiÃ¨mement":3008,"Ã©pu":3009,"ĠSud":3010,"Ġenvoy":3011,"Ġcontinu":3012,"ĠamÃ©lioration":3013,"Ġarrive":3014,"lir":3015,"Ġ30":3016,"ĠÃ©cou":3017,"Ġ12":3018,"ĠthÃ©":3019,"roy":3020,"Ġora":3021,"Ġsug":3022,"Ġpartenaires":3023,"ĠapprÃ©ci":3024,"gÃ©e":3025,"Ġport":3026,"Ġminist":3027,"Ġhier":3028,"ĠamÃ©ricaine":3029,"ĠÃ©quilibre":3030,"Ġgaz":3031,"Ġligne":3032,"Ġpression":3033,"Ġpromouvoir":3034,"tenant":3035,"Ġespoir":3036,"Ġoccident":3037,"rient":3038,"Ġobli":3039,"Ġsuivre":3040,"Ġencourager":3041,"Ġretr":3042,"bilitÃ©s":3043,"ĠrÃ©union":3044,"ĠprÃ©cisÃ©ment":3045,"ĠBan":3046,"ĠNord":3047,"alitÃ©s":3048,"Ġpen":3049,"Ġinstruments":3050,"Ġconvainc":3051,"ub":3052,"Ġquelqu":3053,"Ġeffets":3054,"Ġjudici":3055,"Ġeffectu":3056,"Ġpublics":3057,"Quel":3058,"ĠprÃ©s":3059,"time":3060,"Ġparven":3061,"Ġlut":3062,"Ġcoh":3063,"ĠON":3064,"Ġveiller":3065,"Ġpourtant":3066,"Ġactuel":3067,"Ġinstrument":3068,"Ġang":3069,"ĠÃ©vent":3070,"Ġexcep":3071,"Ġvigueur":3072,"ĠconfÃ©rence":3073,"Ġprend":3074,"Ġbesoins":3075,"Ġsolutions":3076,"lÃ©ch":3077,"ate":3078,"Ġexcellent":3079,"Ġayant":3080,"ĠpÃ©n":3081,"ĠrÃ©fÃ©rence":3082,"ueil":3083,"Ġinvestissement":3084,"Ġparticipation":3085,"Ġhon":3086,"Ġ2000":3087,"Ġlumi":3088,"ĠÃ©levÃ©":3089,"ici":3090,"culation":3091,"Ġpren":3092,"Ġmouve":3093,"sive":3094,"Ġdiscussion":3095,"Ġquali":3096,"Ġextra":3097,"lissement":3098,"Ġorganisation":3099,"ieu":3100,"Ġdel":3101,"ĠIrlande":3102,"Ġdocument":3103,"Ġsecteurs":3104,"quÃ©s":3105,"Ġacqu":3106,"Ġheureux":3107,"orique":3108,"ĠBar":3109,"Ġparagraph":3110,"ĠsÃ©ri":3111,"ĠprÃ©sentÃ©":3112,"Ġderniers":3113,"Ġmaison":3114,"Ġ25":3115,"ĠgÃ©nÃ©rale":3116,"Ġparole":3117,"Ġsurve":3118,"Ġcontribution":3119,"Ġurgence":3120,"ĠÃ©chelle":3121,"ĠconcrÃ¨":3122,"Ġlongue":3123,"Ġdiscri":3124,"ign":3125,"ĠprÃ©pa":3126,"Ġcertaine":3127,"Ġarriver":3128,"ĠconsÃ©quence":3129,"Ġsignal":3130,"join":3131,"Ġfaites":3132,"Ġzones":3133,"Ġprofessionne":3134,"Ġsuper":3135,"Ġparta":3136,"Ġexclu":3137,"Ġmand":3138,"Ġdevra":3139,"Ġsociales":3140,"Ġcontinue":3141,"oles":3142,"Ġvit":3143,"Ġpetite":3144,"vaux":3145,"Ġk":3146,"ĠdÃ©li":3147,"Ġpoursuivre":3148,"Ġendro":3149,"Ġdossi":3150,"cons":3151,"Ġconsac":3152,"Ġindispens":3153,"app":3154,"Ġexis":3155,"Ġinitiatives":3156,"Ġsuffisamment":3157,"Ġdiscussions":3158,"ĠempÃªcher":3159,"ĠaÃ©ri":3160,"orie":3161,"ĠdÃ©clarÃ©":3162,"Ġnour":3163,"ontre":3164,"Ġsouli":3165,"indre":3166,"ĠexÃ©cu":3167,"dies":3168,"ĠdÃ©fis":3169,"Ġmot":3170,"ĠproposÃ©":3171,"Ġimmigration":3172,"Ġstatut":3173,"MÃªme":3174,"mat":3175,"Ġposs":3176,"Ġposer":3177,"lÃ¨ve":3178,"oyau":3179,"lisation":3180,"Ġtechnologies":3181,"Ġenqu":3182,"Ġavions":3183,"ĠÃ©vid":3184,"Per":3185,"Ġconfir":3186,"urent":3187,"ĠsÃ©rieux":3188,"Ġasi":3189,"ĠÃ©tro":3190,"Ġmauvais":3191,"ĠÃ©li":3192,"Ġentendre":3193,"Ġsoule":3194,"Ġattendre":3195,"Ġrelatives":3196,"ĠbÃ¢":3197,"Ġmenace":3198,"itent":3199,"Ġexam":3200,"ĠcompÃ©titivitÃ©":3201,"ĠdelÃł":3202,"rastru":3203,"Ġtradu":3204,"fica":3205,"ĠpossibilitÃ©s":3206,"ĠconsidÃ¨re":3207,"Ġpratiques":3208,"ĠdÃ©pend":3209,"Ġpol":3210,"Ġenvers":3211,"ĠOrient":3212,"ĠamÃ©ricain":3213,"Ġlaisser":3214,"Ġconsommation":3215,"Ġpleinement":3216,"ze":3217,"Ġmonn":3218,"Ġinfrastru":3219,"Ġcombat":3220,"oici":3221,"Ġaugmenter":3222,"vÃ©es":3223,"Ġpetits":3224,"Ġhumains":3225,"hen":3226,"ĠfÃ©licite":3227,"cta":3228,"Ġdipl":3229,"Ġordin":3230,"ĠÃ©trangÃ¨re":3231,"sique":3232,"20":3233,"nies":3234,"Ġfamille":3235,"ĠÃ©vident":3236,"ĠBanque":3237,"ani":3238,"lage":3239,"Ġexer":3240,"con":3241,"Ġ50":3242,"Ġcontenu":3243,"Ġcivi":3244,"Certains":3245,"Ġsp":3246,"ĠdÃ©fic":3247,"Ġexemp":3248,"ĠlumiÃ¨re":3249,"ĩa":3250,"issons":3251,"ĠrÃ©glementation":3252,"ĠÃ©tablir":3253,"Ġpartenariat":3254,"Ġbonnes":3255,"Ġinternationales":3256,"Ġexigences":3257,"Ġcandidats":3258,"Ġmots":3259,"Ġfaisons":3260,"Ġconstituent":3261,"diction":3262,"landais":3263,"ĠconsidÃ©ration":3264,"Ġdisponi":3265,"Ġmalheureusement":3266,"ĠCommunautÃ©":3267,"Permettez":3268,"ps":3269,"ologique":3270,"ĠLes":3271,"Ġbar":3272,"quÃ©es":3273,"ĠmalgrÃ©":3274,"ĠsiÃ¨cle":3275,"Ġinnovation":3276,"cÃ©es":3277,"val":3278,"ĠactivitÃ©":3279,"Ġliste":3280,"Ġauxque":3281,"Ġimpression":3282,"Ġaime":3283,"Åĵur":3284,"Ġpensons":3285,"Ġalimentaire":3286,"isent":3287,"Ġbre":3288,"alisme":3289,"Ġpersonnel":3290,"Ġbr":3291,"ĠMar":3292,"Ġ11":3293,"Ġoffici":3294,"Ġdessus":3295,"ila":3296,"Ġmora":3297,"Ġlesquels":3298,"Ġresponsabil":3299,"Ma":3300,"Ġpous":3301,"atri":3302,"Ġemploy":3303,"tages":3304,"ĠaccÃ©":3305,"orÃ©":3306,"riÃ¨re":3307,"Ġallem":3308,"Ġterre":3309,"Ġpopul":3310,"Or":3311,"orÃ©e":3312,"oph":3313,"Ġattitude":3314,"Ġaborder":3315,"Ġgag":3316,"Ġcruci":3317,"riez":3318,"Ġsemaines":3319,"Ġair":3320,"Ġautour":3321,"Ġorgan":3322,"uels":3323,"Ġdimen":3324,"ĠSu":3325,"ĠparlÃ©":3326,"ĠdÃ©ce":3327,"Ġsim":3328,"Ġconseil":3329,"Ġagriculteurs":3330,"Ġdurant":3331,"ĠÃ©quipe":3332,"Ġlesquelles":3333,"ĠrÃ©flÃ©ch":3334,"char":3335,"Ġcompa":3336,"Malheureusement":3337,"ĠtÃªte":3338,"Ġgard":3339,"forme":3340,"Sur":3341,"ĠCons":3342,"aintenant":3343,"fiÃ©e":3344,"Ġfacil":3345,"Ġopposition":3346,"Ġcircons":3347,"Selon":3348,"ĠadÃ©qu":3349,"Ġmessage":3350,"Ġtemp":3351,"Ġcoordination":3352,"Ġconstruction":3353,"ĠEuropÃ©ens":3354,"ctÃ©":3355,"Ġville":3356,"ĠEst":3357,"ĠreÃ§u":3358,"nant":3359,"ĠprÃ©ser":3360,"Ġsecond":3361,"Ġajouter":3362,"Ġfacile":3363,"Ġha":3364,"ĠRoyau":3365,"odes":3366,"Ġfaible":3367,"ĠRoyaume":3368,"ĠidÃ©":3369,"Ġpie":3370,"Ġargu":3371,"Ġrelative":3372,"ĠGr":3373,"toire":3374,"resse":3375,"Ġtravaux":3376,"Ġconclure":3377,"Ġmaintenir":3378,"Ġresponsable":3379,"Ġcondition":3380,"Ġsuivi":3381,"Ġcrimin":3382,"ĠcompÃ©tences":3383,"Ġphot":3384,"rant":3385,"Ġsort":3386,"Ġdirectement":3387,"Ġeffectivement":3388,"ĠpÃ©trole":3389,"tiÃ©":3390,"Ġval":3391,"rieures":3392,"Ġpubliques":3393,"ĠtÃ¢che":3394,"Ġsurpr":3395,"Ġpuissent":3396,"vision":3397,"Ġtoi":3398,"chent":3399,"Ġadministration":3400,"Ġabsence":3401,"ĠresponsabilitÃ©s":3402,"nÃ©e":3403,"Ġpouvait":3404,"Ġdette":3405,"ĠÃ©mer":3406,"former":3407,"itablement":3408,"Ġmatin":3409,"Ġjoue":3410,"Ġentend":3411,"Ġrenouve":3412,"Ġmandat":3413,"Ġpositif":3414,"Ġprofond":3415,"itation":3416,"ĠÃ©cole":3417,"Ġparagraphe":3418,"vec":3419,"Ġtran":3420,"Ġparlementaire":3421,"ĠÃ©vÃ©nements":3422,"Ġpose":3423,"Ġfaisant":3424,"Ġprochain":3425,"Ġestim":3426,"Ġeng":3427,"ctif":3428,"Ġambi":3429,"ĠnÃ©ga":3430,"ĠrÃ©uss":3431,"pit":3432,"Ġrevenus":3433,"ĠrÃ©jouis":3434,"yse":3435,"ĠOM":3436,"Ġrur":3437,"manie":3438,"gÃ©es":3439,"let":3440,"ĠgÃ©nÃ©":3441,"Ġenfant":3442,"Ġconnaiss":3443,"visi":3444,"Ġquanti":3445,"blique":3446,"Ġessayer":3447,"Ġaient":3448,"Ġaspect":3449,"ĠrÃ©aliser":3450,"Ġtransports":3451,"Ġtirer":3452,"Ġimpossible":3453,"Ġrati":3454,"Ġimpor":3455,"Ġami":3456,"cid":3457,"od":3458,"Ġmener":3459,"Ġtechnique":3460,"Ġfutur":3461,"ghan":3462,"ĠtrouvÃ©":3463,"Ġcivile":3464,"Est":3465,"Ġmission":3466,"Ġinac":3467,"ĠcoÃ»t":3468,"ox":3469,"fications":3470,"Ġmus":3471,"auche":3472,"Ġappor":3473,"Ġconclusion":3474,"Ġfab":3475,"Ġoffre":3476,"tien":3477,"Ġ18":3478,"Ġaband":3479,"Ġobligations":3480,"Ġvoyez":3481,"Ġperspectives":3482,"ĠAsie":3483,"Ġpaie":3484,"Ġalter":3485,"Ġsoir":3486,"Ġapprouv":3487,"Ġexaminer":3488,"Ġoccu":3489,"ĠmÃ©dica":3490,"Voici":3491,"Ġcy":3492,"Ġrempla":3493,"Ġinfluence":3494,"Ġadministra":3495,"ber":3496,"Cet":3497,"ĠBal":3498,"Ġdiscours":3499,"Ġmonnaie":3500,"vitÃ©":3501,"Ġaides":3502,"Ġhumaine":3503,"Qui":3504,"Ġrele":3505,"gnes":3506,"ĠprÃªts":3507,"Ġfavorable":3508,"ĠpiÃ¨":3509,"resp":3510,"Ġaccorder":3511,"Ġfavoris":3512,"Ġministres":3513,"Ġmilliers":3514,"ĠspÃ©cifique":3515,"Premi":3516,"ĠUk":3517,"ĠEn":3518,"cro":3519,"Ġlecture":3520,"truction":3521,"Ġniveaux":3522,"ĠspÃ©cifiques":3523,"lou":3524,"ĠhÃ©":3525,"Ġfonctionnement":3526,"Ġatteint":3527,"ĠsupplÃ©mentaires":3528,"Ġvite":3529,"ĠZ":3530,"Ġpermettant":3531,"Ġsyn":3532,"Ġappropri":3533,"Ġbritannique":3534,"ĠBr":3535,"Ġscientifiques":3536,"Ġconsiste":3537,"Ġcourt":3538,"ĠNe":3539,"ĠTraitÃ©":3540,"Maintenant":3541,"Ġgrave":3542,"Ġouverture":3543,"ĠprÃ©sence":3544,"Avec":3545,"Tro":3546,"Ġinaccep":3547,"ck":3548,"vir":3549,"Ġgros":3550,"raign":3551,"anges":3552,"lexi":3553,"Ġcollaboration":3554,"Ġreti":3555,"Ġconform":3556,"ĠmÃ©dias":3557,"Ġlet":3558,"Ġconnaissance":3559,"ĠplanÃ¨te":3560,"Ġfig":3561,"tence":3562,"ĠopÃ©ra":3563,"ĠrÃ©fu":3564,"Ġconscience":3565,"andis":3566,"Ġfournir":3567,"Ġperman":3568,"Ġtechniques":3569,"Ġmaje":3570,"vier":3571,"Ġinsu":3572,"Ãĩa":3573,"raine":3574,"Ġpermettra":3575,"ilatÃ©ra":3576,"Ġpron":3577,"Ġcirculation":3578,"anie":3579,"Ġdeven":3580,"Ġvivre":3581,"Ġlargement":3582,"Ġtable":3583,"Ġcommunautaires":3584,"Ġvoiture":3585,"Ġsouv":3586,"ĠindÃ©pend":3587,"Ġobsta":3588,"Ġexactement":3589,"Ġalterna":3590,"Ġfal":3591,"Ġprincipal":3592,"ĠdÃ©cembre":3593,"ĠtÃ´t":3594,"oyen":3595,"Ġminim":3596,"Ġsoutiens":3597,"ĠmontrÃ©":3598,"Ġexige":3599,"Ġconstater":3600,"ĠinquiÃ©tu":3601,"ĠdÃ©velopp":3602,"Ġsanctions":3603,"ĠConstitution":3604,"Ġaf":3605,"Ġpales":3606,"Ġtraiter":3607,"Ġutile":3608,"Ġsimpli":3609,"Ġperdu":3610,"ush":3611,"Ġinstant":3612,"Ġ2007":3613,"Ġengagements":3614,"euse":3615,"ĠprÃ©para":3616,"chets":3617,"cevoir":3618,"Ġpalestini":3619,"ĠPremi":3620,"cra":3621,"loc":3622,"andi":3623,"Ġbal":3624,"ĠÃ©tude":3625,"ĠdÃ©fendre":3626,"Depuis":3627,"Ġconclusions":3628,"Ġlutter":3629,"ĠMoyen":3630,"Ġcivil":3631,"Ġcentre":3632,"Ġfaibles":3633,"tock":3634,"ĠRÃ©pu":3635,"Ġpuisque":3636,"otion":3637,"Ġouti":3638,"Ġenseig":3639,"Ġstri":3640,"ĠGrÃ¨":3641,"Ġpoi":3642,"ĠGrÃ¨ce":3643,"ira":3644,"kistan":3645,"Ġtendance":3646,"ĠÃ©l":3647,"Ġexpliquer":3648,"utes":3649,"Ġton":3650,"Ġentier":3651,"Ġindispensable":3652,"aÃ¯":3653,"ĠConvention":3654,"Ġamis":3655,"Ġprincipaux":3656,"Ġseraient":3657,"ĠdÃ©termin":3658,"Ġexpos":3659,"ĠUkraine":3660,"vation":3661,"Ġ2008":3662,"PremiÃ¨rement":3663,"Ġcaract":3664,"ĠrÃ©seau":3665,"Ġvision":3666,"Ġalli":3667,"Ġpartout":3668,"Ġpopu":3669,"Ġsuppri":3670,"Ġanalyse":3671,"naires":3672,"ĠdÃ©pl":3673,"ĠdÃ©mar":3674,"Ġnorm":3675,"Ġconflits":3676,"ĠdÃ©bats":3677,"Ġerreur":3678,"ĠÃ©tape":3679,"ĠrÃ©fugi":3680,"sÃ©":3681,"Ġflexi":3682,"Ġfinalement":3683,"bes":3684,"Ġvas":3685,"Ġsensi":3686,"Ġcomptes":3687,"ĠfranÃ§ais":3688,"AN":3689,"Ġimage":3690,"ersonne":3691,"Ġimplique":3692,"ague":3693,"ruption":3694,"Ġtotal":3695,"Ġperspective":3696,"Ãī":3697,"ĠprÃ©cÃ©dent":3698,"Ã©anmoins":3699,"ĠcÃ©":3700,"Ġblan":3701,"ĠmoitiÃ©":3702,"ĠrÃ©gu":3703,"Ġfera":3704,"Ġfrapp":3705,"Ġdossier":3706,"cÃ©s":3707,"ĠEsp":3708,"Ġavantages":3709,"Ġgu":3710,"rontali":3711,"ĠInter":3712,"ĠdÃ©chets":3713,"ĠreprÃ©sentants":3714,"cin":3715,"lam":3716,"Ġso":3717,"Ġaccueil":3718,"Ġparticiper":3719,"quet":3720,"Ġtellement":3721,"ĠÃ©quilib":3722,"Ġprovo":3723,"Ġsignifica":3724,"Ġchemin":3725,"ĠcomplÃ¨tement":3726,"ĠIta":3727,"ĠcrÃ©di":3728,"Ġbru":3729,"ĠliÃ©s":3730,"Ġmondialisation":3731,"ĠKos":3732,"Ġrent":3733,"Ġresse":3734,"Ġ2009":3735,"Pourtant":3736,"Ġreligi":3737,"uni":3738,"Ġdistin":3739,"ĠdÃ©cen":3740,"ĠadoptÃ©e":3741,"ĠnuclÃ©aires":3742,"Lorsque":3743,"Ġdiploma":3744,"Ġenre":3745,"ĠPro":3746,"Ġfaits":3747,"ctes":3748,"Ġiss":3749,"Ġconven":3750,"Ġcroire":3751,"ĠdÃ©cider":3752,"tÃ©rieure":3753,"tembre":3754,"Ġoccup":3755,"gner":3756,"Ġrendu":3757,"Ġpourrons":3758,"Ġcompag":3759,"matiques":3760,"Ġapprendre":3761,"Ġfonctionne":3762,"Tous":3763,"Ġcarb":3764,"ĠÃ©norme":3765,"Ġparfaitement":3766,"rÃ©hen":3767,"Ġpermettez":3768,"ilier":3769,"Ġcorresp":3770,"Ġavancer":3771,"Ġro":3772,"ĠdÃ©clarations":3773,"ĠcaractÃ¨re":3774,"quant":3775,"Ġnouvel":3776,"ĠÃ©chec":3777,"ĠlibÃ©ralisation":3778,"lier":3779,"tug":3780,"Ġcompli":3781,"Ġcompos":3782,"Ġmai":3783,"illance":3784,"Ġsouhaiterais":3785,"Ġdate":3786,"ĠimmÃ©dia":3787,"dits":3788,"ĠPI":3789,"Ġsentiment":3790,"Ġauquel":3791,"ĠdÃ©pla":3792,"ĠprÃ©occupations":3793,"Ã©g":3794,"Ġintel":3795,"ĠentrÃ©e":3796,"Ġcritique":3797,"Ġ100":3798,"ĠespÃ©rons":3799,"vons":3800,"Ġsource":3801,"Ġdiver":3802,"Ġrenforcement":3803,"NÃ©anmoins":3804,"ĠreprÃ©sentent":3805,"Ġsouver":3806,"Ġdevenu":3807,"ĠÃ©trangÃ¨res":3808,"Ġmaladie":3809,"xim":3810,"Ġmilitaires":3811,"Ġregret":3812,"ĠbudgÃ©taires":3813,"Ġmauvaise":3814,"Ġneu":3815,"Ġproducteurs":3816,"ĠparticuliÃ¨re":3817,"ak":3818,"ĠpÃ¨re":3819,"Ġconsens":3820,"Ġambiti":3821,"ĠrÃ©vision":3822,"ĠKosov":3823,"Ġfru":3824,"Ġcommence":3825,"Ġphy":3826,"rÃ©ti":3827,"ĠMais":3828,"Ġexpression":3829,"Ġcapital":3830,"Ġcampagne":3831,"Ġ2004":3832,"Ġjuin":3833,"tances":3834,"tÃ©g":3835,"ĠRou":3836,"ĠespÃ¨":3837,"tionnelles":3838,"Ġabou":3839,"Mes":3840,"ĠnÃ©anmoins":3841,"Ġseptembre":3842,"ĠÃ¢ge":3843,"Ġcorrespond":3844,"CE":3845,"Ġexamen":3846,"ĠRÃ©publique":3847,"ĠPIB":3848,"iens":3849,"cession":3850,"Ġsup":3851,"Ġproduire":3852,"ĠvÃ©ritÃ©":3853,"ĠPremier":3854,"Ġappara":3855,"ĠmÃ©de":3856,"Ġfeu":3857,"Ġpositive":3858,"ĠAmÃ©ric":3859,"Ġcombien":3860,"Ġglobale":3861,"Ġcontinent":3862,"Ġpotentiel":3863,"Peu":3864,"ĠpropriÃ©":3865,"ĠAfghan":3866,"Ġpeuples":3867,"ĠÃ©troite":3868,"Ġcorps":3869,"Ġterritoire":3870,"nÃ©s":3871,"Ġpolice":3872,"ĠdÃ©tail":3873,"ĠcaractÃ©":3874,"trait":3875,"arti":3876,"chÃ¨":3877,"Ġroute":3878,"ĠreconnaÃ®tre":3879,"ĠmÃ¨re":3880,"Ġlignes":3881,"ĠrÃ©pÃ©":3882,"ĠdÃ©mocratiques":3883,"ĠrÃ©fÃ©r":3884,"oth":3885,"Ġpati":3886,"Ġfr":3887,"ĠdÃ©part":3888,"ĠdÃ©mont":3889,"Ġpeur":3890,"Ġfaudra":3891,"Ġconstruire":3892,"Ġagricoles":3893,"Ġrequ":3894,"Ġautom":3895,"Ġaccent":3896,"Ġdimension":3897,"ĠdÃ©n":3898,"Ġactes":3899,"Ġdevront":3900,"Ġvoisins":3901,"Ġefficaces":3902,"issante":3903,"Ġvoulez":3904,"Ġdispose":3905,"ĠKosovo":3906,"ĠAfghanistan":3907,"Ġplac":3908,"Ġdisposition":3909,"bal":3910,"Ġrelation":3911,"ĠmatÃ©ri":3912,"ama":3913,"ĠOMC":3914,"Ġpaquet":3915,"Ġ40":3916,"Ġscientifique":3917,"ĠentiÃ¨rement":3918,"Ġrevenir":3919,"Ġconvi":3920,"Ġsortir":3921,"ME":3922,"Ã¶":3923,"Ġst":3924,"Ġgraves":3925,"Ġretard":3926,"Ġoeu":3927,"uxelles":3928,"Ġinternationaux":3929,"Ġconnais":3930,"lise":3931,"Ġlaisse":3932,"Ġencontre":3933,"ĠintÃ©ressant":3934,"ĠItalie":3935,"Plus":3936,"Ġpayer":3937,"Ġsex":3938,"ĠdÃ©lÃ©g":3939,"Ġstructurels":3940,"ĠindÃ©pendance":3941,"we":3942,"oud":3943,"Ġraisonn":3944,"ĠOb":3945,"Ġintroduction":3946,"Ġdiscuter":3947,"ĠrÃ©fugiÃ©s":3948,"Ġlois":3949,"Ġ198":3950,"Ġinstitution":3951,"Ġnaturellement":3952,"Ġclimat":3953,"ĠÃ©vidence":3954,"ĠdÃ©rou":3955,"Ġappu":3956,"ĠinterprÃ©":3957,"Ġnuit":3958,"ĠÃ©lectora":3959,"ĠbÃ¢ti":3960,"ĠrÃ©flex":3961,"og":3962,"iller":3963,"Ġ2006":3964,"ĠrÃ©alisÃ©":3965,"Ġinstal":3966,"Ġmouvement":3967,"Ġconsensus":3968,"Ġpuissance":3969,"Ġmaladies":3970,"ourg":3971,"ĠBel":3972,"ologie":3973,"uration":3974,"Ġprison":3975,"Ġlimites":3976,"Ġfaudrait":3977,"Ġconnu":3978,"Ġprincipalement":3979,"Ġhumain":3980,"Ġ2010":3981,"ĠBruxelles":3982,"Ġintellig":3983,"isant":3984,"Ġbat":3985,"Ġinacceptable":3986,"Ġdeme":3987,"Ġvise":3988,"ĠOr":3989,"iterran":3990,"Ġpouvoirs":3991,"tables":3992,"Ġfondamental":3993,"ĠÃ©tudes":3994,"Ġcoura":3995,"ĠNi":3996,"Ġregarde":3997,"Ġara":3998,"ĠâĢĿ":3999,"ĠrÃ©gionale":4000,"Parce":4001,"Ġexamin":4002,"Ġtandis":4003,"llez":4004,"ĠBush":4005,"Ã©nom":4006,"Ġdiscrimination":4007,"Ġtrib":4008,"ĠautoritÃ©":4009,"tron":4010,"ĠmÃ©rite":4011,"ĠmÃ©dicaments":4012,"gen":4013,"ĠprocÃ¨s":4014,"Ġ0":4015,"ĠillÃ©g":4016,"Ġeffort":4017,"Ġcroy":4018,"ĠutilisÃ©":4019,"ĠcÅĵur":4020,"resser":4021,"Ġencourage":4022,"Personne":4023,"ĠÃ©cla":4024,"ĠopÃ©ration":4025,"sivement":4026,"Ġpourrions":4027,"chi":4028,"Ġnum":4029,"Ġperd":4030,"Ġgouvern":4031,"ĠphÃ©nom":4032,"Ġsoins":4033,"ĠdiffÃ©rence":4034,"ĠrÃ©seaux":4035,"Ġattirer":4036,"Ġsurveillance":4037,"Ġpollu":4038,"ĠmÃ©thode":4039,"ĠsoulignÃ©":4040,"Ġvaut":4041,"Ġpourront":4042,"ĠPrÃ©sidence":4043,"Ġjuridiques":4044,"Ġcherche":4045,"ĠimmÃ©diatement":4046,"cilement":4047,"Ġacteurs":4048,"ĠcatÃ©g":4049,"Ġimposer":4050,"tal":4051,"Ġcerve":4052,"Ġseuls":4053,"ĠprÃ©voit":4054,"ĠAr":4055,"Ġasile":4056,"Ġquo":4057,"orde":4058,"Ġ13":4059,"Ġchamp":4060,"ĠstratÃ©gique":4061,"Ġpied":4062,"Ġporter":4063,"laires":4064,"Ġservir":4065,"Ġhausse":4066,"Ch":4067,"Ġdanger":4068,"Ġcrain":4069,"ĠrÃ©vÃ©":4070,"Ġrepro":4071,"tures":4072,"Ãªtre":4073,"ĠRom":4074,"Ġmoindre":4075,"miques":4076,"cepti":4077,"aces":4078,"Ġral":4079,"Ġpresse":4080,"Ġpromotion":4081,"Ġchiffres":4082,"itÃ©e":4083,"Ġplais":4084,"Ġlangue":4085,"Ġbout":4086,"Ġdirect":4087,"Ġtax":4088,"Ġtaille":4089,"Ã©rÃ©e":4090,"Ġrac":4091,"Ġdevait":4092,"ĠâĢľ":4093,"Ġnavi":4094,"Ġengager":4095,"ĠarrÃªter":4096,"Ġconcept":4097,"auff":4098,"ĠprÃ©vention":4099,"Ġoui":4100,"Ġatten":4101,"Ġbiais":4102,"Ġrecours":4103,"Ġcharge":4104,"Ġexistence":4105,"Ġdy":4106,"Ġlit":4107,"Ġappare":4108,"Ġinsuff":4109,"SA":4110,"Ġfinal":4111,"Ġtient":4112,"Ġterroristes":4113,"Ġterrain":4114,"ĠdÃ©finition":4115,"ĠEspagne":4116,"ĠarmÃ©e":4117,"ĠdiffÃ©rences":4118,"ourir":4119,"Ġprosp":4120,"Ġpopulations":4121,"Ġlour":4122,"Ġauront":4123,"Ġfourn":4124,"ĠrÃ©el":4125,"ctifs":4126,"Ġquit":4127,"Ġchan":4128,"ĠprÃ©t":4129,"Ġcellu":4130,"Ġsatisfait":4131,"Ġpopulaire":4132,"issement":4133,"Ġhu":4134,"ĠBer":4135,"Ġstatis":4136,"Ġhumanitaire":4137,"Ġsimil":4138,"Tom":4139,"ĠclÃ©":4140,"Ġrestri":4141,"Ġassu":4142,"ĠsupplÃ©mentaire":4143,"Ġsoutenu":4144,"Ġvilles":4145,"ĠONU":4146,"ĠAmÃ©ricains":4147,"Ãªt":4148,"Ġcapable":4149,"Ġcritiques":4150,"Ġtenta":4151,"Ġsemblent":4152,"Son":4153,"Ã©c":4154,"ĠtÃ©lÃ©ph":4155,"ĠvÃ©ri":4156,"ĠcrÃ©Ã©":4157,"ĠpremiÃ¨res":4158,"Ġprochaines":4159,"Ġlimiter":4160,"ED":4161,"Ġpan":4162,"ĠrÃ©elle":4163,"ĠdÃ©couver":4164,"Ġformes":4165,"ĠprocÃ©der":4166,"Ġoublier":4167,"naire":4168,"inaire":4169,"chÃ©s":4170,"Ġproposer":4171,"Ġprofit":4172,"Ġharmonisation":4173,"Ġgauche":4174,"Ġgarantie":4175,"lations":4176,"Ġdevez":4177,"ĠamÃ©ricains":4178,"Ġlogique":4179,"Ġpoids":4180,"eurs":4181,"Ġdevient":4182,"Ġcorruption":4183,"Ġentrer":4184,"Ġauraient":4185,"ote":4186,"Ġparents":4187,"Ġparlons":4188,"Ġhyp":4189,"Ġmenac":4190,"Ġgouvernance":4191,"ki":4192,"Ġessentiellement":4193,"Ġsud":4194,"iliation":4195,"ĠÃ©changes":4196,"ĠaccroÃ®tre":4197,"Ġbureaucra":4198,"Ġsources":4199,"anvier":4200,"ĠauprÃ¨s":4201,"fiÃ©s":4202,"Ġinflation":4203,"Ġconvaincu":4204,"Ġconcentrer":4205,"ĠconformÃ©ment":4206,"aliser":4207,"Ġcontrain":4208,"Ġcommunes":4209,"Ġjeune":4210,"tici":4211,"Ã¨nes":4212,"uellement":4213,"Ġcapitaux":4214,"Sa":4215,"Ġtri":4216,"Ġcontient":4217,"ĠPales":4218,"ĠprÃ©sid":4219,"ĠdÃ©finir":4220,"ĠconsidÃ©rable":4221,"Ġobligation":4222,"ĠenquÃªte":4223,"urant":4224,"Ġminutes":4225,"Ġred":4226,"Ġsoumis":4227,"chement":4228,"Ġ14":4229,"Ġassistance":4230,"Ġvisite":4231,"Ġcommis":4232,"Ġapprof":4233,"citÃ©":4234,"Ġmassi":4235,"Ġdocuments":4236,"hors":4237,"ju":4238,"Ġrecons":4239,"ologiques":4240,"Ġmutu":4241,"Puis":4242,"Ġaccus":4243,"Ġisra":4244,"ĠcontrÃ´les":4245,"Ġstim":4246,"Ġbaisse":4247,"Ġvoici":4248,"ĠcaractÃ©ris":4249,"Ġpay":4250,"Ġjanvier":4251,"Ġplans":4252,"Ġessentielle":4253,"Ġreconnaissance":4254,"rog":4255,"Ġconvention":4256,"ĠÃ©cri":4257,"ĠprÃ©vu":4258,"ĠprÃ©cÃ©d":4259,"ĠrÃ©action":4260,"PE":4261,"Ġmoyenne":4262,"ĠrÃ©serves":4263,"Ġinfrastructures":4264,"Ġcouv":4265,"seur":4266,"lusion":4267,"Ġexperts":4268,"ciles":4269,"Ġanalys":4270,"Ġstock":4271,"ĠPL":4272,"Ġinterdiction":4273,"ĠÃ©lec":4274,"ĠcohÃ©r":4275,"vateurs":4276,"Ġinvite":4277,"Ġgarder":4278,"Ġ'":4279,"Ġtab":4280,"las":4281,"oncÃ©":4282,"Ġmars":4283,"Ġplein":4284,"Ġremarque":4285,"ĠÃ©tudiants":4286,"ussi":4287,"ĠOT":4288,"Ġlettre":4289,"chant":4290,"Ġterminer":4291,"ĠdiversitÃ©":4292,"Ġprofonde":4293,"Ġcomplexe":4294,"Ġendroit":4295,"erb":4296,"ĠPME":4297,"Ġfaite":4298,"Ġviens":4299,"Ġtransform":4300,"Ġhistorique":4301,"Ġsalue":4302,"Ġnourrit":4303,"aud":4304,"mÃ©s":4305,"Ã©ritÃ©":4306,"Ġtravaille":4307,"Ġappris":4308,"Ġdiminu":4309,"lÃ©es":4310,"Ensuite":4311,"Ġinsister":4312,"Ġexcell":4313,"Ġanglais":4314,"Ġafric":4315,"AC":4316,"Ġlire":4317,"Ġving":4318,"ĠhÃ´":4319,"issait":4320,"Ġaffec":4321,"Ġdifficiles":4322,"Ġrevenu":4323,"loir":4324,"ĠEur":4325,"Ġespagn":4326,"Ġchances":4327,"ĠcrÃ©dits":4328,"Ġvoyage":4329,"ade":4330,"Ġ2005":4331,"Ġhaute":4332,"ĠOTAN":4333,"Ġ17":4334,"Ġformul":4335,"Ġalimentaires":4336,"ĠvÃ©hi":4337,"Ġallemand":4338,"cite":4339,"oh":4340,"ĠcomitÃ©":4341,"Ġaurais":4342,"ĠbÃ©nÃ©ficier":4343,"ĠmÃ©canisme":4344,"ed":4345,"onses":4346,"lables":4347,"ĠAut":4348,"Ġtex":4349,"ĠrÃ©ponses":4350,"Ġsouhaitons":4351,"Ġsuffit":4352,"ĠlibertÃ©s":4353,"ombre":4354,"vembre":4355,"ĠcomprÃ©hen":4356,"Ġconstituer":4357,"conque":4358,"Ġdirectives":4359,"ĠdÃ©char":4360,"Ġtrafic":4361,"Ġrestent":4362,"ĠsÃ©ance":4363,"Ġempr":4364,"Ġmaintien":4365,"ĠconsidÃ©rer":4366,"Ġapprovisi":4367,"Ġdistribu":4368,"dez":4369,"Ġmains":4370,"ĠdÃ©mocrates":4371,"ĠconfrontÃ©s":4372,"Ġproven":4373,"Ãªtes":4374,"ĠcontrÃ´ler":4375,"Ã¨tres":4376,"Ġregarder":4377,"Ġcomportement":4378,"enda":4379,"Ġmultip":4380,"Ġbanc":4381,"Ġlocales":4382,"Ġobtenu":4383,"Ġpacte":4384,"Ġvac":4385,"ĠallÃ©":4386,"ĠdiffÃ©rente":4387,"ĠdÃ©ficit":4388,"ĠrÃ©flÃ©chir":4389,"Ġnovembre":4390,"Ġfilm":4391,"llÃ¨":4392,"tidi":4393,"Ġtur":4394,"ĠÃ©tranger":4395,"ĠX":4396,"Ġdra":4397,"Ġpaci":4398,"ĠrÃª":4399,"Ġmaxim":4400,"ĠGrande":4401,"Ġbons":4402,"Ġprud":4403,"ĠÃ©levÃ©s":4404,"ĠgÃ©nÃ©ralement":4405,"ĠirrÃ©":4406,"reuse":4407,"dem":4408,"endum":4409,"Ġ16":4410,"ĠrÃ©ussite":4411,"Ġdehors":4412,"Ġvenu":4413,"Ġgre":4414,"Ġcirconstances":4415,"ĠliÃ©es":4416,"Ġvivent":4417,"Ġpremiers":4418,"ologne":4419,"Ġancien":4420,"MI":4421,"Sans":4422,"ĠdÃ©tru":4423,"Ġcaus":4424,"Ġstructures":4425,"ĠrÃ©volution":4426,"Ġrelatif":4427,"ĠtÃ©m":4428,"Ġsuivante":4429,"ĠextÃ©rieur":4430,"ĠvÃ©hicu":4431,"ban":4432,"Ġdisent":4433,"Ġclasse":4434,"Ġstade":4435,"Ġerreurs":4436,"ic":4437,"Ġfl":4438,"Ã©rant":4439,"Quelle":4440,"Ġseconde":4441,"Merci":4442,"Ġsomme":4443,"niÃ¨re":4444,"ĠtraitÃ©s":4445,"Ġbudgets":4446,"fÃ©rence":4447,"Ġallez":4448,"Ġint":4449,"ĠdÃ©lÃ©gation":4450,"Ġcouver":4451,"Ġretra":4452,"Ġconver":4453,"ĠrÃ©alisation":4454,"ĠRoumanie":4455,"Ġcomprends":4456,"Ġ2003":4457,"TroisiÃ¨me":4458,"Ġconsoli":4459,"Ġrappro":4460,"Ġlimite":4461,"Ġchefs":4462,"Ġremarques":4463,"Ġpatients":4464,"Ġspe":4465,"Ġinuti":4466,"laient":4467,"Ġvoulais":4468,"Ġpromes":4469,"Ġviennent":4470,"Ġcommerciaux":4471,"ĠcompÃ©tence":4472,"ah":4473,"Ġâ":4474,"Ġpire":4475,"Ġtyp":4476,"itant":4477,"orce":4478,"ĠÃ©tique":4479,"Ġsujets":4480,"Ġquotidi":4481,"mÃ©es":4482,"Ġcentaines":4483,"Ġreprises":4484,"Ġsinc":4485,"ase":4486,"illet":4487,"Ġnote":4488,"Ġvoisin":4489,"Ġparlementaires":4490,"Ġtransfrontali":4491,"Ġobliga":4492,"Ġaurons":4493,"Ġfortement":4494,"Ġnord":4495,"ĠÃ®":4496,"Ġprim":4497,"ĠDe":4498,"Ġaccompli":4499,"Ġgagner":4500,"ĠfrÃ©":4501,"oie":4502,"Ġmobil":4503,"ientÃ´t":4504,"Ġincroy":4505,"Ġouvert":4506,"paravant":4507,"Ġrecommandations":4508,"Ġcatastrophe":4509,"Ou":4510,"Ġul":4511,"Ġquelles":4512,"Ġperdre":4513,"ĠprivÃ©":4514,"Ġscience":4515,"ĠmÃ©thodes":4516,"est":4517,"ĠsÃ©pa":4518,"tisation":4519,"Ġlancer":4520,"Ġhonn":4521,"Ġdroite":4522,"Ġenvisager":4523,"Ġfas":4524,"Ġcesse":4525,"ĠdÃ©terminer":4526,"Ġfiscale":4527,"ĠderriÃ¨re":4528,"Ġrepos":4529,"ĠvÃ©ritablement":4530,"Ġouverte":4531,"Ġcentrales":4532,"Ã©dÃ©ra":4533,"ĠrÃ©serve":4534,"ĠrÃ©fÃ©rendum":4535,"go":4536,"ĠcoÃ»te":4537,"ĠappelÃ©":4538,"Ġmusul":4539,"Ļ«":4540,"Ġfou":4541,"Ġmodifier":4542,"Ġtol":4543,"itoyens":4544,"Ġchercher":4545,"uelles":4546,"agers":4547,"Ġreconnaiss":4548,"Ġcorrectement":4549,"dement":4550,"Ġpropor":4551,"Ġvoire":4552,"ĠconcernÃ©s":4553,"ĠVous":4554,"enci":4555,"Ġfasse":4556,"Ġtrouvent":4557,"Ġlangues":4558,"Ġouvrir":4559,"Ġoeuvre":4560,"ĠplÃ©":4561,"Ġsoutient":4562,"ĠconcrÃ¨tes":4563,"Ġtransi":4564,"asse":4565,"Ġnations":4566,"Ġmeilleurs":4567,"Ġ1999":4568,"Ġintroduire":4569,"ĠNew":4570,"bres":4571,"Ã§ant":4572,"ĠarrivÃ©":4573,"Ġtribun":4574,"leur":4575,"Ġoffrir":4576,"Ġcommerciales":4577,"Ġ60":4578,"Ġrappelle":4579,"Ġdisant":4580,"Ġintervenir":4581,"ĠcrÃ©dit":4582,"Ġexportations":4583,"Ġquota":4584,"ĠminoritÃ©s":4585,"ĠÃ©lectron":4586,"ow":4587,"ĠsystÃ©":4588,"ĠÃ©laboration":4589,"Ġdisponibles":4590,"gistre":4591,"Ġnourriture":4592,"Ġemprun":4593,"ganis":4594,"olue":4595,"Ġmontrent":4596,"Ġunion":4597,"Ġfonctionner":4598,"Ġdangereux":4599,"Ġfabri":4600,"Ġefficacement":4601,"ĠmÃ©canismes":4602,"Aussi":4603,"enez":4604,"inÃ©":4605,"ĠnÃ©gociation":4606,"Ġacheter":4607,"endue":4608,"Ġconcitoyens":4609,"ĠsÃ»re":4610,"Ġmoyennes":4611,"Ġmodification":4612,"ĠbientÃ´t":4613,"ĠBre":4614,"ĠCorÃ©e":4615,"Ġsubstances":4616,"ĠÃ©par":4617,"actions":4618,"Ã§u":4619,"ĠrÃ©pu":4620,"ĠrÃ¨gle":4621,"ĠconsidÃ©rÃ©":4622,"ĠdurÃ©e":4623,"action":4624,"yth":4625,"Ġchef":4626,"ĠprÃªt":4627,"Ġcompens":4628,"ĠvoilÃł":4629,"Ġphase":4630,"Ġbiens":4631,"Ġfondamentale":4632,"Ġcancer":4633,"Ġsept":4634,"Ġextraord":4635,"Ġfaciliter":4636,"Ġauxquels":4637,"Ã©m":4638,"Ġpes":4639,"ĠÃ©volu":4640,"Ġdemandes":4641,"Ġdisposer":4642,"Ġradic":4643,"ril":4644,"Ġvul":4645,"ĠrÃ©ag":4646,"ĠPakistan":4647,"Ġvisi":4648,"Ġplaisir":4649,"ile":4650,"Ġauparavant":4651,"ĠcommunautÃ©s":4652,"ĠchangÃ©":4653,"Ġcra":4654,"Ġcerveau":4655,"ĠâĻ«":4656,"urÃ©":4657,"Ġhy":4658,"roso":4659,"Peut":4660,"Ġstatistiques":4661,"ature":4662,"Ġhors":4663,"Ã»t":4664,"Ġsubs":4665,"ĠmÃ©dic":4666,"Ġit":4667,"Ã©rÃ©s":4668,"Ġcens":4669,"Ġuns":4670,"Ã¨se":4671,"Ġtermin":4672,"Ġfinancer":4673,"Ġsituations":4674,"ĠthÃ¨me":4675,"Ġexemples":4676,"ko":4677,"ĠCan":4678,"Ġmarche":4679,"orable":4680,"Ġprincipale":4681,"Ġrapporteurs":4682,"ĠCa":4683,"cessi":4684,"Ġmach":4685,"Ġpertin":4686,"Ġcomprend":4687,"DÃ¨s":4688,"Ġsoy":4689,"Ġcontraign":4690,"Ġcourage":4691,"Ġagissant":4692,"Ġconsommateur":4693,"Ġfamilles":4694,"Ġassurance":4695,"Ġgro":4696,"Ġru":4697,"ĠdÃ©pass":4698,"Aucun":4699,"Ġjudiciaire":4700,"Ġitali":4701,"trÃ©":4702,"Ġfille":4703,"Ġincap":4704,"Ġaccident":4705,"olÃ©":4706,"acitÃ©s":4707,"Ġprennent":4708,"Ġremarqu":4709,"Ġsouligne":4710,"tan":4711,"oign":4712,"Ġresta":4713,"ath":4714,"Ġfondamentales":4715,"ich":4716,"nÃ©ra":4717,"ule":4718,"ĠgÃ©nÃ©ration":4719,"ĠdÃ©putÃ©":4720,"ĠÃ©quitable":4721,"Ġmoderne":4722,"TroisiÃ¨mement":4723,"Jus":4724,"Ġincer":4725,"Ġmilieu":4726,"Ġdemandons":4727,"Ġprofiter":4728,"ĠprÃ©server":4729,"ati":4730,"outes":4731,"itables":4732,"Ġfroi":4733,"Ġ2001":4734,"tionnels":4735,"ĠBalk":4736,"usion":4737,"Ġfacilement":4738,"ĠextÃ©rieure":4739,"Ġlivres":4740,"Ġagences":4741,"ĠdiffÃ©rent":4742,"Ġproche":4743,"ĠintÃ©ri":4744,"Ġassis":4745,"ĠbÃ©nÃ©fices":4746,"ĠentraÃ®ner":4747,"Ġrelever":4748,"Ġenseignement":4749,"itations":4750,"Ġprotoc":4751,"Ġhandi":4752,"ĠInternet":4753,"Ġsouveraine":4754,"Ġapprofon":4755,"lai":4756,"ulga":4757,"Ġmarchand":4758,"Ġsauve":4759,"ĠConfÃ©rence":4760,"ĠrÃ©guli":4761,"once":4762,"Ġesc":4763,"ĠcapacitÃ©s":4764,"ĠexprimÃ©":4765,"Ġsuscepti":4766,"ĠisraÃ©li":4767,"ĠÃ©th":4768,"ĠPologne":4769,"Ġmeilleures":4770,"ĠphÃ©nomÃ¨ne":4771,"rets":4772,"Ġaffai":4773,"ombe":4774,"Ġtotale":4775,"ographique":4776,"ĠrÃ©flexion":4777,"Ġinsc":4778,"Ġprincipales":4779,"Ġtourisme":4780,"Ġhabitu":4781,"Ġreprise":4782,"ĠsÃ©rieusement":4783,"ĠexÃ©cution":4784,"ĠflexibilitÃ©":4785,"ĠObama":4786,"ĠvulnÃ©ra":4787,"ster":4788,"ĠCO":4789,"Ġpuiss":4790,"Ġinterg":4791,"Ã©dois":4792,"Ġexploitation":4793,"rich":4794,"Ġinjus":4795,"ĠrÃ©di":4796,"Ġmontant":4797,"ĠHong":4798,"ĠreflÃ¨":4799,"landaise":4800,"Ġglobal":4801,"Ġhabitants":4802,"obre":4803,"Ġdemi":4804,"Ġactuelles":4805,"ĠÃ©trangers":4806,"Ġdisposons":4807,"dation":4808,"ĠinÃ©g":4809,"arte":4810,"Ġhor":4811,"ĠÃªtres":4812,"Ġvert":4813,"ĠÃ©valuer":4814,"Ġvingt":4815,"sil":4816,"Ġsouci":4817,"Ġcapables":4818,"ĠÃ©chou":4819,"ĠcontribuÃ©":4820,"ĠportÃ©e":4821,"Ġfrais":4822,"ĠbÃ©":4823,"ĠconnaÃ®t":4824,"Ġtransition":4825,"pes":4826,"Ġrevient":4827,"Ġconne":4828,"Ġeffond":4829,"ĠconnaÃ®tre":4830,"ĠdÃ©charge":4831,"ka":4832,"Ġdomm":4833,"Ġmode":4834,"Ġsession":4835,"Ġgarde":4836,"MalgrÃ©":4837,"Ġlien":4838,"Ġrece":4839,"ĠtravaillÃ©":4840,"ĠFMI":4841,"Ġpensent":4842,"Ġcommentaires":4843,"ĠBalkans":4844,"ĠcomplÃ©ment":4845,"Ġcrises":4846,"Ġrelativement":4847,"Ġinvestisseurs":4848,"Ġorganes":4849,"ĠfÃ©dÃ©ra":4850,"Ġvir":4851,"Ġfacteur":4852,"onnÃ©":4853,"Ġ80":4854,"ondu":4855,"tiennent":4856,"Ġfacteurs":4857,"ĠMal":4858,"enant":4859,"ane":4860,"Ġinternet":4861,"Ġvoyons":4862,"ĠscÃ¨ne":4863,"ĠopÃ©rations":4864,"af":4865,"Ġrusse":4866,"ĠacceptÃ©":4867,"atriÃ¨me":4868,"mar":4869,"teau":4870,"ĠlÃ©gislatif":4871,"Ġoctobre":4872,"atique":4873,"tt":4874,"Ġtend":4875,"illage":4876,"Ġprogresser":4877,"reuses":4878,"Ġparc":4879,"Ġrejoin":4880,"ouvernement":4881,"ĠFin":4882,"ĠidentitÃ©":4883,"Ġobstacles":4884,"Ġapprovisionnement":4885,"SE":4886,"Ġviande":4887,"Ġpossibles":4888,"Ġhandicap":4889,"do":4890,"ctoire":4891,"Ġmajeure":4892,"ĠprÃ©paration":4893,"Ġvaste":4894,"Ġaudi":4895,"ĠbilatÃ©ra":4896,"Ġpositions":4897,"Ġessentiels":4898,"Ġ2020":4899,"Ġambitieux":4900,"OÃ¹":4901,"ork":4902,"Ġmanger":4903,"Ġdouble":4904,"Ġfrau":4905,"int":4906,"usses":4907,"Ġacte":4908,"Ġmises":4909,"Ġtrou":4910,"ĠRe":4911,"Ġapplique":4912,"Ġavantage":4913,"len":4914,"iles":4915,"Ġvouloir":4916,"Ġlab":4917,"tagne":4918,"oyer":4919,"Ġinterd":4920,"Ġvoulu":4921,"ĠÃ©lecteurs":4922,"Ġdiverses":4923,"ĠplÃ©niÃ¨re":4924,"rette":4925,"Ġ2002":4926,"rop":4927,"ĠdÃ©lai":4928,"Ġhom":4929,"Ġcarte":4930,"Ġconstitution":4931,"Ã©rieur":4932,"ĠdÃ©t":4933,"Ġsubventions":4934,"Ġcommercial":4935,"ĠconsidÃ©rables":4936,"Ġcalend":4937,"Ġap":4938,"Ġconduite":4939,"Ġexercer":4940,"Car":4941,"bÃ©":4942,"erc":4943,"Ġperte":4944,"Ġusage":4945,"Ġquotas":4946,"ĠmatiÃ¨res":4947,"viend":4948,"Ġabus":4949,"Ġintensi":4950,"Ġcrucial":4951,"telle":4952,"ĠrÃ©ta":4953,"Ġsavent":4954,"toires":4955,"ua":4956,"ĠCE":4957,"fiÃ©es":4958,"sidi":4959,"Ġplain":4960,"ĠBas":4961,"Ġinvestir":4962,"Ġattendons":4963,"Ġfavoriser":4964,"Ã©rance":4965,"Ġprivil":4966,"ĠÃ©tablissement":4967,"Ġapprouver":4968,"ĠquantitÃ©":4969,"ĠcrÃ©dibilitÃ©":4970,"Ġassociation":4971,"ĠPays":4972,"Ġdyna":4973,"Ġbles":4974,"ĠgÃ©rer":4975,"tiquement":4976,"Ġconduit":4977,"ĠtÃ©lÃ©vision":4978,"sser":4979,"ĠOn":4980,"ĠconsidÃ©rablement":4981,"Ġimmig":4982,"Ġfermement":4983,"Ġcompagnies":4984,"ĠÃ©tions":4985,"ĠsuÃ©dois":4986,"Ġ21":4987,"Ġuniverse":4988,"Ġenvisage":4989,"Ġimaginer":4990,"ĠBretagne":4991,"ĠreprÃ©sentant":4992,"gyp":4993,"lit":4994,"Ã¡":4995,"Ġrejet":4996,"ĠPor":4997,"Ġcompter":4998,"ĠrÃ¨glements":4999,"Ġbreve":5000,"Ġraisonnable":5001,"bation":5002,"itons":5003,"Ġplai":5004,"Ġarme":5005,"ĠrÃ©duit":5006,"Ġinsuffis":5007,"ĠES":5008,"Ġchoisir":5009,"mont":5010,"Ġchale":5011,"osti":5012,"Ġartis":5013,"Ġsuivant":5014,"Ġfamili":5015,"ĠopportunitÃ©":5016,"Ġcellules":5017,"Ġample":5018,"Ġbri":5019,"ricitÃ©":5020,"Ġorientations":5021,"ĠcomplÃ¨te":5022,"ĠÃ©voquÃ©":5023,"ĠprÃ©parer":5024,"enh":5025,"ssement":5026,"Ġutilise":5027,"Ġaliments":5028,"ĠSuÃ¨de":5029,"rite":5030,"Ġvoitures":5031,"Ġfins":5032,"ĠUSA":5033,"Ġpermettent":5034,"ĠparaÃ®t":5035,"Ġargument":5036,"ritÃ©":5037,"Ġvra":5038,"Ġdispar":5039,"Ġtenter":5040,"ĠÃ©lectricitÃ©":5041,"Ġcalcul":5042,"Ġacquis":5043,"ĠprospÃ©ritÃ©":5044,"Ġintergouvernement":5045,"Ġeaux":5046,"Ġactuels":5047,"ĠjouÃ©":5048,"Ġcourant":5049,"ĠÃ©tudier":5050,"Ġblanc":5051,"viÃ©":5052,"sses":5053,"ĠutilisÃ©s":5054,"Ġsubsidi":5055,"Ġmodifications":5056,"Ġindividus":5057,"ĠCro":5058,"vage":5059,"Ġaggra":5060,"Ġjustement":5061,"une":5062,"ĠunitÃ©":5063,"Ġillus":5064,"Ġmodes":5065,"ĠSi":5066,"Ġprotocole":5067,"rants":5068,"isions":5069,"Ġexistent":5070,"sterdam":5071,"ĠPortug":5072,"Ġtravaillent":5073,"ĠOc":5074,"ĠÃ©normes":5075,"cidents":5076,"Ġexplo":5077,"ĠAmsterdam":5078,"Ġconsultation":5079,"enons":5080,"anim":5081,"nel":5082,"aissez":5083,"Ġadapter":5084,"ĠOccident":5085,"Cha":5086,"ditÃ©":5087,"Ġcrimes":5088,"Ġenvoyer":5089,"CP":5090,"oine":5091,"Ġflo":5092,"ĠrelÃ¨ve":5093,"Ġparlements":5094,"ĠBarroso":5095,"Ġajus":5096,"Ġsoum":5097,"ĠrÃ©gimes":5098,"Ġgaranties":5099,"ĠdÃ©tails":5100,"Ġhuit":5101,"ttement":5102,"ĠII":5103,"Ġcitoyen":5104,"Ġsymb":5105,"prÃ©sident":5106,"Ġsurf":5107,"Ġsusp":5108,"ĠdÃ©cennies":5109,"Ġampleur":5110,"ana":5111,"ĠrÃ©si":5112,"ĠAgence":5113,"Ġ27":5114,"Ġclari":5115,"Ġpositifs":5116,"Ġsatisfais":5117,"Ġrural":5118,"ĠmÃ©dec":5119,"mans":5120,"Ġimpose":5121,"Ã©quili":5122,"ĠdÃ©fa":5123,"ĠlancÃ©":5124,"ĠÃ©laborer":5125,"Ġestimons":5126,"Ġjapon":5127,"Ġposte":5128,"Ġisla":5129,"ganisation":5130,"Ġeth":5131,"Ġvites":5132,"rovi":5133,"ĠprÃ©ju":5134,"ctivitÃ©":5135,"Ġjuillet":5136,"ĠrÃ©cente":5137,"ĠintÃ©grer":5138,"Ġgrec":5139,"Chaque":5140,"Ġsang":5141,"ĠdÃ©lais":5142,"Ġcontent":5143,"ĠÃ©chapp":5144,"ĠmentionnÃ©":5145,"Ġissue":5146,"Ġralenti":5147,"ties":5148,"rage":5149,"Ġbel":5150,"Ġrecevoir":5151,"Ġinterven":5152,"ĠjournÃ©e":5153,"ĠQu":5154,"Ġenvisag":5155,"Ġcombattre":5156,"ĠvÃ©hicules":5157,"Ġach":5158,"Ġbois":5159,"ĠrÃ©cession":5160,"Ġconjoin":5161,"ĠplaÃ®t":5162,"Ġquels":5163,"Ġquasi":5164,"Ġchoisi":5165,"Ġphysique":5166,"Ġreprodu":5167,"Toutes":5168,"ĠPPE":5169,"phÃ¨re":5170,"Ġnaturelles":5171,"ĠsubsidiaritÃ©":5172,"animitÃ©":5173,"Nos":5174,"Ġdiss":5175,"ĠdÃ©g":5176,"arra":5177,"ĠTh":5178,"Ġvotes":5179,"ĠFran":5180,"Ġayons":5181,"Ġmaritime":5182,"Ġcalendrier":5183,"sy":5184,"Ġavril":5185,"Ġtru":5186,"Ġadress":5187,"Ġfuture":5188,"Ġassumer":5189,"Ceux":5190,"Ġmat":5191,"ĠdÃ©cou":5192,"ĠdÃ©faut":5193,"ĠindiquÃ©":5194,"Ġanciens":5195,"ĠcriminalitÃ©":5196,"Ġextraordinaire":5197,"rices":5198,"Ġenta":5199,"Ġaccr":5200,"Ġvieux":5201,"Ġcode":5202,"guer":5203,"ĠDieu":5204,"Ġmusique":5205,"ĠhumanitÃ©":5206,"ĠprofondÃ©ment":5207,"Ġterri":5208,"Ġterres":5209,"Ġfigure":5210,"roc":5211,"chauff":5212,"seurs":5213,"latÃ©ra":5214,"ĠmobilitÃ©":5215,"uxe":5216,"Ġfini":5217,"Ġvoulait":5218,"Ġ197":5219,"Ġferrovi":5220,"Ġscand":5221,"Ġoutils":5222,"Avant":5223,"Ġetc":5224,"Ġintelle":5225,"eaucoup":5226,"ĠaccÃ©lÃ©":5227,"Ġfraude":5228,"ĠPour":5229,"Ġdevrons":5230,"Ġsaur":5231,"ĠGu":5232,"mistes":5233,"ĠavancÃ©es":5234,"Ġparvenus":5235,"Ġtabac":5236,"veille":5237,"ĠCong":5238,"Ġautor":5239,"ĠDan":5240,"orations":5241,"ĠrÃ©gional":5242,"Ġregrette":5243,"Ġversion":5244,"ĠÃ©voquer":5245,"Ġcarbone":5246,"ĠCop":5247,"Ġeffor":5248,"Ġvies":5249,"Ġpersonn":5250,"Ġpassagers":5251,"ĠprÃ©occu":5252,"ĠÃ©couter":5253,"ĠPortugal":5254,"ĠprÃ©al":5255,"Ġappui":5256,"issaires":5257,"ĠchaÃ®":5258,"Ġcycle":5259,"tants":5260,"Ġtouche":5261,"Ġretrait":5262,"Ġmajeur":5263,"Ġtypes":5264,"ĠÃ©tendre":5265,"Ġsymp":5266,"Ġphoto":5267,"fe":5268,"Ġirlandais":5269,"Ġfavorables":5270,"Ġciter":5271,"Ġrassemb":5272,"Ã´ts":5273,"Ġattra":5274,"ĠarrÃªt":5275,"Ġconduire":5276,"Ġsoutenons":5277,"Ġdevenue":5278,"Ġmerci":5279,"ĠavÃ¨re":5280,"Ġautonom":5281,"Ġserons":5282,"Ġorganiser":5283,"Ġsugg":5284,"Ġintellectu":5285,"ry":5286,"Ġclaires":5287,"Ġpermettrait":5288,"ĠconcernÃ©es":5289,"Ġpuisqu":5290,"Ġurgent":5291,"ĠessayÃ©":5292,"ĠapportÃ©":5293,"Ġpollution":5294,"Ġvendre":5295,"ĠBrÃ©":5296,"ĠKy":5297,"Ġsent":5298,"Ġinclure":5299,"Ġorganismes":5300,"Ġfutures":5301,"Ġcommerciale":5302,"ĠrencontrÃ©":5303,"ohn":5304,"euses":5305,"Ġfos":5306,"ĠprÃªte":5307,"Ġannuel":5308,"Ġpuissions":5309,"Ġcrime":5310,"Ġfaisait":5311,"ĠexpÃ©riences":5312,"ĠthÃ©orie":5313,"Pendant":5314,"ĠunanimitÃ©":5315,"ĠchrÃ©ti":5316,"Ġlic":5317,"Ġattribu":5318,"ĠdÃ©sas":5319,"engen":5320,"isÃ©":5321,"Ġnomm":5322,"Ġstabil":5323,"Ġsouhaitent":5324,"Ġ500":5325,"Ġrenouvelables":5326,"gou":5327,"Ġtort":5328,"ĠÃ©lection":5329,"Ġpratiquement":5330,"Ġsport":5331,"Re":5332,"gle":5333,"Ġsigne":5334,"ĠsÃ©v":5335,"Ġaffe":5336,"Ġapprobation":5337,"ĠindÃ©pendant":5338,"Ġconception":5339,"enhague":5340,"Ġcriti":5341,"Ġexception":5342,"by":5343,"ĠÃ©pi":5344,"taient":5345,"Ġ24":5346,"ĠrÃ©cla":5347,"ĠlaissÃ©":5348,"Ġcontinuent":5349,"Ġimportations":5350,"Non":5351,"Ġrevan":5352,"ĠMon":5353,"Ġsocialiste":5354,"Ġaurions":5355,"Ġculturelle":5356,"ĠinquiÃ©tudes":5357,"Ġsupprimer":5358,"gypte":5359,"gage":5360,"ĠrÃ©parti":5361,"Ġ70":5362,"ĠSchengen":5363,"50":5364,"Seu":5365,"garde":5366,"Ġpou":5367,"Ġcl":5368,"Ġsil":5369,"Ġblo":5370,"Ġmodernis":5371,"ĠpiÃ¨ce":5372,"Ã©conom":5373,"Ġflux":5374,"ĠCopenhague":5375,"Ġ1998":5376,"oto":5377,"ĠrÃ©unions":5378,"Ġalternative":5379,"Ġminimum":5380,"odi":5381,"cieux":5382,"Ġliens":5383,"ĠrÃ©alisÃ©s":5384,"Ġtaxe":5385,"ĠYork":5386,"Ġlatine":5387,"Ġrenv":5388,"Ġacceptable":5389,"Quant":5390,"ĠdifficultÃ©":5391,"ĠlÃ©gitim":5392,"ĠpropriÃ©tÃ©":5393,"Jusqu":5394,"unis":5395,"Ġrepose":5396,"ĠproposÃ©s":5397,"ĠBrÃ©sil":5398,"Ġrevanche":5399,"comm":5400,"Ġactifs":5401,"Ġperform":5402,"Ġprobable":5403,"blir":5404,"Ġdites":5405,"Ġdispara":5406,"ĠHam":5407,"tisme":5408,"Ġurb":5409,"Ġ90":5410,"Ġpacifique":5411,"Beaucoup":5412,"ĠaÃ©ro":5413,"Ġdivis":5414,"Ġdicta":5415,"ĠÃ©coles":5416,"ĠprÃ©occupation":5417,"Ġretraite":5418,"mation":5419,"Ġsoup":5420,"ĠcrÃ©e":5421,"gents":5422,"Ġviv":5423,"ĠChyp":5424,"lantique":5425,"Ġfournit":5426,"orti":5427,"Ġadresse":5428,"ĠrÃ©gionales":5429,"ĠextÃ©rieures":5430,"ice":5431,"tiers":5432,"ann":5433,"Ġpersonnellement":5434,"Ġrelatifs":5435,"Ġchute":5436,"ĠBulga":5437,"Ġcertes":5438,"ĠrÃ©gler":5439,"Ġsolda":5440,"Ġcatastrophes":5441,"Ġoccidentaux":5442,"ĠapprouvÃ©":5443,"ĠinÃ©v":5444,"Ġhumaines":5445,"ĠprÃ©cise":5446,"Ġreligie":5447,"Ġpartager":5448,"Ġarguments":5449,"ĠPalestini":5450,"ĠBCE":5451,"ĠrÃ©pondu":5452,"Ġchapit":5453,"ĠpensÃ©":5454,"bourg":5455,"Ġprotes":5456,"ĠpublicitÃ©":5457,"Ġcapitale":5458,"Ġsauver":5459,"Ġbu":5460,"ĠdÃ©couv":5461,"ception":5462,"ĠmultilatÃ©ra":5463,"Ġreconstruction":5464,"ĠIls":5465,"Ġcommuns":5466,"ĠarriÃ¨re":5467,"ĠlimitÃ©":5468,"Ġpleine":5469,"Ġpreuves":5470,"ĠpossÃ¨de":5471,"ĠespÃ¨ces":5472,"Ã©re":5473,"Ġagi":5474,"ĠrÃ©chauff":5475,"Ġavance":5476,"Ġprie":5477,"ĠnÃ©cessite":5478,"Ġformuler":5479,"Ġrecommandation":5480,"Ġorateurs":5481,"hou":5482,"Ġnoir":5483,"ĠAra":5484,"Ġinterne":5485,"Ġbienven":5486,"ĠsecrÃ©":5487,"aders":5488,"Ġattaquer":5489,"Ġexiger":5490,"Ġauxquelles":5491,"Ġleaders":5492,"Ġenvironnementale":5493,"ĠamÃ©liorations":5494,"Ġrecherches":5495,"Ġnaturel":5496,"Ġprofessionnelle":5497,"Ġmarchandises":5498,"atiques":5499,"uss":5500,"Ġbo":5501,"Ġcauses":5502,"ĠTi":5503,"Ġordinateur":5504,"Ġarabe":5505,"gos":5506,"ĠproposÃ©e":5507,"Ġvari":5508,"Ġconstate":5509,"ĠONG":5510,"Ġfo":5511,"ĠocÃ©":5512,"ĠprÃ©venir":5513,"Ġapporte":5514,"Ġlocaux":5515,"Ġancienne":5516,"Ġaccrue":5517,"ony":5518,"Ġinterventions":5519,"Ġagissait":5520,"ĠdÃ©pit":5521,"Ġpensais":5522,"Ġviolations":5523,"Ġsurmont":5524,"Ġconciliation":5525,"entement":5526,"Ġchiffre":5527,"ĠinquiÃ©tude":5528,"Ġrestrictions":5529,"Ġdynamique":5530,"mbour":5531,"Ġtechnologique":5532,"Ġconscients":5533,"ĠmodÃ¨les":5534,"ĠOrganisation":5535,"ĠBulgarie":5536,"Ġmorts":5537,"ĠespÃ©rer":5538,"ĠDa":5539,"Ġpassage":5540,"Ġsalari":5541,"Ã©vrier":5542,"Ġdemeure":5543,"Ġaj":5544,"Ġpoursuite":5545,"chÃ©e":5546,"ĠGaz":5547,"ĠsystÃ©matique":5548,"ĠaÃ©rop":5549,"DE":5550,"nÃ©es":5551,"onnÃ©e":5552,"Ġappeler":5553,"Ġfournis":5554,"Ġenregistre":5555,"Ġactive":5556,"Ġliqui":5557,"Ġpensez":5558,"ĠÃ©nergies":5559,"ĠfranÃ§aise":5560,"Ġendroits":5561,"Ġhabitude":5562,"ĠCol":5563,"Ġarch":5564,"ĠproblÃ©":5565,"Ġapprouve":5566,"Ġfonctionnaires":5567,"ĠsoviÃ©":5568,"ly":5569,"illi":5570,"Ġdestruction":5571,"Ġart":5572,"Ġagenda":5573,"ĠSlo":5574,"truct":5575,"ombien":5576,"ĠamÃ©ricaines":5577,"Ġressemble":5578,"Ġdeviennent":5579,"Ġapport":5580,"Ġpertes":5581,"Ġenvironnementales":5582,"Ġexcellente":5583,"Ġspecta":5584,"ĠrÃ©agir":5585,"Ã¨ge":5586,"Ġbloc":5587,"Ġvertu":5588,"Ġnavires":5589,"ok":5590,"Ġenj":5591,"ĠvidÃ©":5592,"ĠSy":5593,"Ġmarque":5594,"tras":5595,"Ġpartenaire":5596,"ash":5597,"ĠarrivÃ©e":5598,"Ġsuppos":5599,"Ġreconnu":5600,"Ġaccompag":5601,"Ġconvaincre":5602,"ĠcomprÃ©hension":5603,"cy":5604,"tante":5605,"ĠIT":5606,"ĠcrÃ©a":5607,"Ġapplic":5608,"Ġattendent":5609,"Ġexportation":5610,"Ġfinir":5611,"gnitÃ©":5612,"ĠmÃ©m":5613,"ĠprÃ©sidents":5614,"Certes":5615,"ĠtÃ¢ches":5616,"este":5617,"ala":5618,"Ġremettre":5619,"tront":5620,"Ġassass":5621,"ĠGÃ©":5622,"Ġressort":5623,"Ġjuge":5624,"Ġmentionner":5625,"Ġpaiement":5626,"Ġoccuper":5627,"ĠappropriÃ©e":5628,"ĠdÃ©couvert":5629,"Ġremarquable":5630,"cord":5631,"Ġment":5632,"ĠfÃ©vrier":5633,"ĠSh":5634,"Ġprior":5635,"Ġautrement":5636,"ĠdÃ©battre":5637,"ĠaugmentÃ©":5638,"Ġcultures":5639,"Ġ1997":5640,"erbie":5641,"gist":5642,"arm":5643,"ĠprÃ©sents":5644,"Ġrencontre":5645,"Ġindustrielle":5646,"ĠdÃ©posÃ©":5647,"ĠsouverainetÃ©":5648,"ĠdignitÃ©":5649,"ĠAb":5650,"ĠintÃ©rieures":5651,"ĠVerts":5652,"Ġimpliquer":5653,"ĠdÃ©termination":5654,"Ġsyndi":5655,"Pr":5656,"Ġbord":5657,"Ġirak":5658,"Ġpouvaient":5659,"ĠlÃ©gislatives":5660,"ĠÃ©nergÃ©tiques":5661,"Ġsubstanti":5662,"ES":5663,"Ġpsy":5664,"Ġpapi":5665,"Ġfinances":5666,"Ġpressions":5667,"ĠpÃªcheurs":5668,"Ġressemb":5669,"llÃ¨lement":5670,"ĠPalestiniens":5671,"Ġden":5672,"iel":5673,"Ġcontact":5674,"cule":5675,"Ġallou":5676,"Ġindique":5677,"Ġbanque":5678,"Ġexclusion":5679,"Ġkil":5680,"tur":5681,"Ġfilles":5682,"Ġdesc":5683,"ĠprivÃ©e":5684,"Ġsuppose":5685,"Ġ1990":5686,"Ġaffirmer":5687,"cription":5688,"Ġpaiements":5689,"Ġreligion":5690,"Ġintergouvernementale":5691,"ĠdegrÃ©":5692,"ĠimpÃ©ra":5693,"ĠAL":5694,"ĠÃ©tats":5695,"Ġplani":5696,"Ġviolation":5697,"Ġsalaires":5698,"Ġfixer":5699,"Ġconnaissent":5700,"ĠdÃ©sastre":5701,"Ġdon":5702,"ĠclÃ©s":5703,"erti":5704,"Ã¨ve":5705,"chons":5706,"Ġdisait":5707,"versaire":5708,"ĠavancÃ©e":5709,"ĠhonnÃªte":5710,"ĠlÃ©gitimitÃ©":5711,"ordi":5712,"orgie":5713,"Ġfils":5714,"sif":5715,"Ġinformer":5716,"Ġgui":5717,"Ġmenaces":5718,"Ġincont":5719,"Ġattaque":5720,"Mesdames":5721,"ĠprÃ©sidenti":5722,"times":5723,"illÃ©":5724,"riche":5725,"isson":5726,"ĠSerbie":5727,"Ġallait":5728,"Ġsolide":5729,"ĠaÃ©rien":5730,"Ġvitesse":5731,"ĠmÃ©n":5732,"Ġadresser":5733,"ĠTerre":5734,"Ġexplique":5735,"Ġattaques":5736,"Ġhonte":5737,"Ġconnaissons":5738,"Ġneuf":5739,"oivent":5740,"ĠsÃ©le":5741,"ĠmÃ©d":5742,"ĠinterprÃ©tation":5743,"amb":5744,"sias":5745,"lable":5746,"ĠMÃ©d":5747,"ĠElle":5748,"ĠdÃ©clin":5749,"ĠutilisÃ©e":5750,"ĠfondÃ©e":5751,"ĠdÃ©sÃ©quili":5752,"Ġsimples":5753,"Ġremarquer":5754,"Ġmerveille":5755,"nier":5756,"Ġcommissaires":5757,"ĠprivÃ©s":5758,"Ġabouti":5759,"Ġarchite":5760,"Ã¨vement":5761,"ĠMac":5762,"ĠBos":5763,"ssant":5764,"Ġadmettre":5765,"Ġminute":5766,"ĠadoptÃ©es":5767,"ĠprÃ©ciser":5768,"ĠadÃ©quate":5769,"ĠhÃ´pit":5770,"ia":5771,"ĠÃ©lu":5772,"nelle":5773,"Ġsoud":5774,"Ġcroissante":5775,"ĠorganisÃ©":5776,"Ġremplacer":5777,"line":5778,"anter":5779,"ĠdÃ©bou":5780,"Ġconcernent":5781,"ĠgÃ©nÃ©rations":5782,"obile":5783,"ĠrÃ©pÃ©ter":5784,"Ġtentative":5785,"ĠÃ©tiquetage":5786,"Ġsurface":5787,"ĠrÃ©side":5788,"Ġmoteur":5789,"ĠrÃ©solu":5790,"ĠdestinÃ©es":5791,"ĠrevÃªt":5792,"Ġoutil":5793,"ba":5794,"urants":5795,"Ġenthou":5796,"Ġvictoire":5797,"Ġtransformer":5798,"ĠMÃ©diterran":5799,"Ġenthousias":5800,"Ġquin":5801,"Ġiran":5802,"ĠextrÃ©":5803,"alisÃ©s":5804,"Ġattentes":5805,"Ġinfra":5806,"ĠfrontiÃ¨re":5807,"Ġappartient":5808,"ĠcohÃ©rence":5809,"radi":5810,"ĠtchÃ¨":5811,"Ġmillion":5812,"ĠproposÃ©es":5813,"oleil":5814,"Ġalimentation":5815,"Ġtomber":5816,"Ġretrouver":5817,"ĠdÃ©marche":5818,"ĠcohÃ©rente":5819,"Ġmaximum":5820,"Ġinh":5821,"Ġpoursu":5822,"Ġfinance":5823,"ĠrÃ©perc":5824,"Ġcorri":5825,"Ġparoles":5826,"Ġobligatoire":5827,"ĠrÃ©percus":5828,"cter":5829,"Ġmondiaux":5830,"ĠlÃ©gislative":5831,"ĠLivre":5832,"ĠGÃ©orgie":5833,"nam":5834,"Ġavion":5835,"ĠliÃ©e":5836,"oraire":5837,"Ġphil":5838,"arition":5839,"ĠsincÃ¨rement":5840,"ĠHamas":5841,"ĠChypre":5842,"Ġexten":5843,"Ġapprenti":5844,"ĠrÃ©glementations":5845,"ĠbriÃ¨vement":5846,"inte":5847,"ĠleÃ§ons":5848,"Ġve":5849,"ĠrÃ©solutions":5850,"ĠdÃ©fend":5851,"Ġopinions":5852,"Ġexistantes":5853,"Ġratification":5854,"Ġfruits":5855,"europÃ©":5856,"Ġinvent":5857,"Ġagence":5858,"ĠdestinÃ©s":5859,"Ġhauteur":5860,"Ġsensible":5861,"Ġvoisinage":5862,"ĠMÃ©diterranÃ©e":5863,"200":5864,"pro":5865,"Ġcop":5866,"ortÃ©":5867,"Ġgri":5868,"Ġracont":5869,"Ġriche":5870,"Ġreprendre":5871,"Eh":5872,"ories":5873,"arb":5874,"Ġmotiv":5875,"Ġcompara":5876,"Ġcontro":5877,"fici":5878,"Ġimages":5879,"versitÃ©":5880,"ĠpÃ©ti":5881,"ĠÃ©mission":5882,"ĠdÃ©veloppÃ©s":5883,"ke":5884,"ĠÃ¨":5885,"tera":5886,"Ġutilisent":5887,"ĠreflÃ¨te":5888,"Ġsoldats":5889,"ĠGaza":5890,"Ġrequi":5891,"Ġvia":5892,"Ġconstitutionnel":5893,"ĠnÃ©gli":5894,"ĠposÃ©":5895,"Ġconserver":5896,"Ġregrettable":5897,"Ġstu":5898,"Ġsite":5899,"Ġbelle":5900,"Ġsurvi":5901,"Ġexter":5902,"Ġpolitici":5903,"Ġincombe":5904,"ĠdÃ©ses":5905,"Ġsuppression":5906,"ĠrÃ©chauffement":5907,"Ġenne":5908,"Ġamour":5909,"Ġinspe":5910,"ĠintÃ©grÃ©":5911,"Ġintroduit":5912,"Ġinfluen":5913,"Ġinfrastructure":5914,"Ġretirer":5915,"ĠintÃ©rieure":5916,"ĠKyoto":5917,"ei":5918,"ĠprÃ©sentation":5919,"Ġsalu":5920,"Ġsuffisant":5921,"Ġsignaler":5922,"tez":5923,"Ġaccidents":5924,"Ġdiz":5925,"Ġmettent":5926,"ĠreprÃ©senter":5927,"ĠÃ©liminer":5928,"pire":5929,"Ġos":5930,"ĠMex":5931,"ĠACP":5932,"Ġclassi":5933,"ĠmenÃ©":5934,"Ġchimiques":5935,"Ġsentir":5936,"ĠentraÃ®ne":5937,"Ġradio":5938,"Ġdiminuer":5939,"Ãītant":5940,"atie":5941,"oÃ»t":5942,"Ġpil":5943,"Ġdrogue":5944,"Ġdomin":5945,"Ġessentielles":5946,"ĠbasÃ©e":5947,"ĠbÃ¢timent":5948,"Ġinscrit":5949,"ĠrÃ©percussions":5950,"gation":5951,"outine":5952,"Ġfaute":5953,"Ġmeur":5954,"ĠimpÃ´ts":5955,"Ġanni":5956,"ĠLond":5957,"ĠmenÃ©e":5958,"Autre":5959,"ĠprÃ©vue":5960,"ĠWal":5961,"ĠcÃ´tÃ©s":5962,"Ġisol":5963,"Ġrevoir":5964,"ĠdÃ©ga":5965,"Ġdevi":5966,"ĠintermÃ©di":5967,"Ġoption":5968,"ĠCharte":5969,"ĠÃ©chÃ©":5970,"Ġhistoires":5971,"Ġnotion":5972,"Ġrouge":5973,"Ġsouvenir":5974,"Ġmur":5975,"user":5976,"Ġryth":5977,"Ġsoumettre":5978,"Ġmaga":5979,"Ġmarge":5980,"Ġprati":5981,"ĠsignÃ©":5982,"Ġtransfert":5983,"ĠopportunitÃ©s":5984,"ĠÃ©lectronique":5985,"ĠrÃ©partition":5986,"trasbourg":5987,"Oui":5988,"Ġfaux":5989,"Ġchoc":5990,"Ġsert":5991,"Ġinspi":5992,"ssage":5993,"Ġtransit":5994,"Ġincl":5995,"ĠÃ©tonn":5996,"Ġconnaissances":5997,"ĠÃ¨re":5998,"Bon":5999,"Ġavi":6000,"Ġcesser":6001,"Ġmasse":6002,"Ã©rable":6003,"ĠGe":6004,"Ġrelance":6005,"ĠenvoyÃ©":6006,"Ġregardez":6007,"Ġbancaire":6008,"romp":6009,"ĠliÃ©":6010,"ĠnÃ©er":6011,"ĠStrasbourg":6012,"ĠParti":6013,"Ġexprime":6014,"Ġjustifier":6015,"Ġcentral":6016,"ĠguÃ¨re":6017,"Ġchien":6018,"dÃ©m":6019,"Ġrespecte":6020,"Ġcontribue":6021,"Ġindustries":6022,"Ġincroyable":6023,"In":6024,"Ġtor":6025,"Ġbras":6026,"Ġravi":6027,"Ġauto":6028,"Ġinsiste":6029,"ĠutilisÃ©es":6030,"Ġaugmente":6031,"Ġorigin":6032,"Ġouvre":6033,"Ġignor":6034,"Ġadministratives":6035,"bit":6036,"ĠingÃ©":6037,"niers":6038,"ĠMc":6039,"inez":6040,"ĠprÃ©sentÃ©e":6041,"Ġincomp":6042,"Ġindica":6043,"Ġbases":6044,"ĠÃ©quival":6045,"Ġimmob":6046,"Ġsugges":6047,"Ġportant":6048,"Ġsortes":6049,"Ġvraie":6050,"Ġlacun":6051,"ĠÃ©pr":6052,"Ġliv":6053,"Ġchambre":6054,"Ġbritanniques":6055,"Ġautomobile":6056,"mun":6057,"riÃ¨res":6058,"Ġconstat":6059,"Ġautoma":6060,"Ġvoient":6061,"Ġproportion":6062,"heur":6063,"ĠEtat":6064,"Ġrestruct":6065,"Ã©rences":6066,"verbal":6067,"ĠappropriÃ©":6068,"ĠtÃ©lÃ©phone":6069,"lor":6070,"Ġbil":6071,"Ġvivant":6072,"Ġpalestinien":6073,"Ġprimordi":6074,"Ġagisse":6075,"dÃ©c":6076,"ĠpensÃ©e":6077,"Ġheureuse":6078,"Ġmouvements":6079,"Ġrob":6080,"ĠespÃ¨ce":6081,"Ġdiminution":6082,"ĠSa":6083,"Ġsalle":6084,"ĠajoutÃ©e":6085,"Ġnormal":6086,"ĠapparaÃ®t":6087,"Ġespagnol":6088,"cht":6089,"Ġdevrais":6090,"Ġcomplet":6091,"alisÃ©":6092,"ĠpubliÃ©":6093,"ĠmenÃ©es":6094,"Ġcontinuera":6095,"Ġentamer":6096,"gosla":6097,"ĠmÃ©diterran":6098,"ougosla":6099,"isÃ©e":6100,"Ġactivement":6101,"ĠÃ©cologique":6102,"Ġ23":6103,"Ġlibres":6104,"Ġenseign":6105,"ĠdÃ©cide":6106,"Ġmusulmans":6107,"mos":6108,"Ġwe":6109,"Ġlin":6110,"Ã¨le":6111,"Ġcontac":6112,"Ġinternes":6113,"Ġvice":6114,"ĠNL":6115,"misme":6116,"ĠstratÃ©gies":6117,"Ġsimilaires":6118,"ĠLondres":6119,"Ġax":6120,"urde":6121,"Ġpatri":6122,"Ġaccorde":6123,"onneur":6124,"Ġvivement":6125,"ĠrÃ©pand":6126,"ĠproductivitÃ©":6127,"Ġcib":6128,"Ġcombin":6129,"Ġcontribuables":6130,"Ġexplication":6131,"ĠintÃ©grÃ©e":6132,"Ġfallait":6133,"Ġenregist":6134,"ĠCroatie":6135,"ĠtchÃ¨que":6136,"ĠmÃ©diterranÃ©":6137,"Ġpourrais":6138,"ĠrÃ©pÃ¨te":6139,"Ġaffront":6140,"ĠdÃ©ficits":6141,"Ġengend":6142,"Ġsignificative":6143,"Ġscandale":6144,"Mme":6145,"ates":6146,"Ġpassion":6147,"Ġmotion":6148,"Ġattends":6149,"Ġtrouvons":6150,"Ġhonorable":6151,"Ġapprentissage":6152,"Ġrusses":6153,"ĠÃ©car":6154,"Ġamener":6155,"ĠrÃ©ductions":6156,"Ġjouent":6157,"Quoi":6158,"Ġvolontaire":6159,"ĠsoviÃ©tique":6160,"Rien":6161,"Ġdoc":6162,"Ġaccomplir":6163,"oriz":6164,"Ġdistribution":6165,"Ġpapier":6166,"Ġconten":6167,"agnes":6168,"Ġmini":6169,"Ġinstaurer":6170,"ographie":6171,"Ġtest":6172,"Ġallemande":6173,"Ġtaxes":6174,"ĠAutriche":6175,"lÃ¨vent":6176,"ĠgÃ©nÃ©rales":6177,"ĠcoopÃ©rer":6178,"Ġpostes":6179,"ĠlibÃ©raux":6180,"Ġcommissions":6181,"Ġmachine":6182,"Ġferroviaire":6183,"Ob":6184,"aison":6185,"ĠperÃ§":6186,"ĠGuerre":6187,"Ġincon":6188,"Ġ1996":6189,"Ġtourner":6190,"ĠsiÃ¨ge":6191,"ĠÃ©tablis":6192,"Ġrejeter":6193,"Ġobstacle":6194,"rom":6195,"Ġamp":6196,"Ġvente":6197,"Ġpoissons":6198,"Ġdiscip":6199,"Ġdirecteur":6200,"Ġalco":6201,"istant":6202,"lusieurs":6203,"ĠspÃ©cial":6204,"ĠÃ©trange":6205,"Ġorientation":6206,"Ġaffirme":6207,"Ġjaponais":6208,"Ġguer":6209,"Ġculturel":6210,"Ġconvergence":6211,"ĠrÃ©guliÃ¨rement":6212,"Ġrythme":6213,"ĠPT":6214,"osoph":6215,"ĠtragÃ©":6216,"Ġserais":6217,"ĠdÃ©veloppÃ©":6218,"Ġdemandent":6219,"ĠtentÃ©":6220,"Ġsauf":6221,"Ġrencontrer":6222,"Ġexistants":6223,"Ġintentions":6224,"Ġdiscrimin":6225,"don":6226,"mine":6227,"ĠcÃ©rÃ©":6228,"rase":6229,"Ġble":6230,"ĠCI":6231,"Ġpolon":6232,"Ġcommuniste":6233,"Certaines":6234,"ĠÃ©troitement":6235,"Ġcrains":6236,"ĠprÃ©alable":6237,"Ġpsych":6238,"Ġphilosoph":6239,"gh":6240,"ĠPoutine":6241,"Ãªts":6242,"Ġmonop":6243,"Ġdirecte":6244,"Ġciv":6245,"ĠamÃ©lior":6246,"ĠrÃ©ussir":6247,"Ġeffectuer":6248,"Ġbless":6249,"ek":6250,"Ġslo":6251,"talitÃ©":6252,"Ġhoriz":6253,"ĠadhÃ©":6254,"ĠTED":6255,"Ġattent":6256,"Ġressenti":6257,"ĠlÃ©gitime":6258,"ĠemployÃ©s":6259,"Ġabandonner":6260,"ĠCanada":6261,"Ġfonc":6262,"Ġoptim":6263,"ĠprÃ©voir":6264,"Ġtests":6265,"ĠprÃ©tend":6266,"ĠFinlande":6267,"Ġextension":6268,"Ġcivils":6269,"lue":6270,"Ġtox":6271,"Ġauteur":6272,"ĠcomplÃ©":6273,"ĠforcÃ©":6274,"ĠindÃ©pendants":6275,"ĠdÃ©tour":6276,"CA":6277,"Ġsti":6278,"raire":6279,"raires":6280,"Ġferont":6281,"ĠnÃ©cessairement":6282,"Ġclairs":6283,"Ġbref":6284,"ĠsupÃ©rieur":6285,"Ġpromesses":6286,"ĠproblÃ©matique":6287,"Ġjeux":6288,"ĠconÃ§":6289,"Ġpoisson":6290,"ĠMin":6291,"Ġrom":6292,"Ġrue":6293,"Ġenvironnementaux":6294,"ĠreconnaÃ®t":6295,"crire":6296,"Ġrichesse":6297,"Ġambition":6298,"mission":6299,"nitÃ©":6300,"uk":6301,"Ġvolu":6302,"Ġhi":6303,"Ġhonneur":6304,"iennes":6305,"ĠforÃªts":6306,"Ġsecret":6307,"ĠparticipÃ©":6308,"Ġ2011":6309,"ĠProdi":6310,"ĠvulnÃ©rables":6311,"Combien":6312,"ola":6313,"onie":6314,"Ġpier":6315,"ĠdÃ©pendance":6316,"Ġdonnent":6317,"ĠdonnÃ©e":6318,"Ġclause":6319,"ĠdiscutÃ©":6320,"Ġautorisation":6321,"Ġsatisfaire":6322,"ĠsoulevÃ©":6323,"Comp":6324,"usti":6325,"ĠdÃ©ri":6326,"Ġpolici":6327,"jeun":6328,"Ġadul":6329,"Ġstable":6330,"Quelles":6331,"Ġrendent":6332,"Ġsoulign":6333,"Ġsurmonter":6334,"Gr":6335,"quons":6336,"oriques":6337,"chÃ©es":6338,"ĠCor":6339,"Ġquelconque":6340,"asp":6341,"Ġmicro":6342,"ĠabordÃ©":6343,"Ġprofesseur":6344,"ĠindÃ©pendante":6345,"Ġbureaucratie":6346,"Ġtextes":6347,"Ġanniversaire":6348,"Concer":6349,"viennent":6350,"Ġpilier":6351,"Ġquar":6352,"Ġtre":6353,"Ġsocialistes":6354,"ĠempÃªche":6355,"ĠrÃ©gionaux":6356,"Ġlocal":6357,"ĠsuggÃ©":6358,"ĠdÃ©cennie":6359,"Ġprovenance":6360,"ĠunilatÃ©ra":6361,"Ġvin":6362,"lions":6363,"ĠprÃ©ven":6364,"fient":6365,"Ġvivons":6366,"ĠorganisÃ©e":6367,"Ġlangage":6368,"Ã©rÃ©es":6369,"Ġpartisans":6370,"Ġaboutir":6371,"Ġinutile":6372,"ĠÃ©thique":6373,"Plusieurs":6374,"leurs":6375,"ĠÃ©radi":6376,"Ã¨que":6377,"Ġpourcent":6378,"sements":6379,"ĠCar":6380,"yst":6381,"Ġaim":6382,"ĠdÃ©clen":6383,"Ġabat":6384,"ĠmÃ©ritent":6385,"Ġpencher":6386,"Ġdirectrices":6387,"ĠtÃ©moi":6388,"Ġalcool":6389,"bi":6390,"Ġhong":6391,"Ġoise":6392,"tration":6393,"rieurs":6394,"Ġferait":6395,"Ġgratu":6396,"Ġsaisir":6397,"chÃ©t":6398,"Ġcandidat":6399,"Ġembar":6400,"Ġprenons":6401,"amin":6402,"Â«":6403,"ĠCom":6404,"ĠMerci":6405,"ĠÃīgypte":6406,"Ġ22":6407,"ĠBro":6408,"ĠprÃ©con":6409,"ĠÃ©crire":6410,"Ġdizaines":6411,"Ġhongro":6412,"bon":6413,"Ġvent":6414,"ĠOu":6415,"Ġphrase":6416,"ĠfixÃ©":6417,"ĠdÃ©posÃ©s":6418,"ĠrejetÃ©":6419,"Ġsimplification":6420,"ĠdÃ©montrÃ©":6421,"Ġchaleure":6422,"ĠquatriÃ¨me":6423,"fiant":6424,"ĠconsidÃ©rons":6425,"Ġressorti":6426,"Ġ1995":6427,"Ġorientale":6428,"Ġexigence":6429,"Ġtradition":6430,"Ġrurales":6431,"ĠcatÃ©gorie":6432,"ĠÃ©pargne":6433,"ĠaccÃ©lÃ©rer":6434,"ĠSyrie":6435,"Ġfonctions":6436,"Ġsoin":6437,"ĠrÃ©els":6438,"Ġatmos":6439,"Ġsembler":6440,"Ġidentifier":6441,"Ġcomplexes":6442,"ĠÃ©lectorale":6443,"Ġsoyons":6444,"ĠdenrÃ©es":6445,"Concernant":6446,"ID":6447,"Ġdirais":6448,"Ġalternatives":6449,"ĠdÃ©ploy":6450,"ĠrÃªve":6451,"ĠprivilÃ©":6452,"Ġdesign":6453,"Ġaus":6454,"ĠrÃ©mun":6455,"ĠBi":6456,"Ġcentres":6457,"Ġbata":6458,"Ġremplir":6459,"ĠdÃ©sir":6460,"nu":6461,"range":6462,"Ġlou":6463,"tic":6464,"Ġfla":6465,"lif":6466,"ĠdÃ©l":6467,"Ġdisons":6468,"istent":6469,"Ġutilisant":6470,"ĠstratÃ©giques":6471,"Ġcontrats":6472,"ĠuniversitÃ©":6473,"ĠRoms":6474,"Ġmine":6475,"Ġexces":6476,"endront":6477,"tenu":6478,"Leur":6479,"institu":6480,"Ġconstructive":6481,"ĠÃ©larg":6482,"Ġopposer":6483,"Ġterritori":6484,"Ġsatisfaction":6485,"ĠapprÃ©cie":6486,"ĠÃ®le":6487,"ĠchrÃ©tiens":6488,"ĠMexique":6489,"ĠmÃ¨":6490,"Ġgla":6491,"ĠhÃ©s":6492,"Ġexpan":6493,"udes":6494,"Ġvieil":6495,"Ġindiquer":6496,"Ġpromis":6497,"Ġmissions":6498,"Ġdisposent":6499,"ĠintÃ©ressante":6500,"Ġjournalistes":6501,"Ġportent":6502,"Ġlon":6503,"ĠÃ©lus":6504,"Ġfaim":6505,"Ã®tr":6506,"ĠnÃ©gocier":6507,"ĠcaractÃ©ristiques":6508,"Ġsusceptibles":6509,"ĠchaÃ®ne":6510,"Ġtari":6511,"rÃ©ment":6512,"meurs":6513,"osse":6514,"Ġinterro":6515,"Ġobservateurs":6516,"Ġvital":6517,"Ġconfirmer":6518,"Ġconseils":6519,"Ġmutuelle":6520,"Ġchapitre":6521,"IS":6522,"ind":6523,"Ġproduisent":6524,"Ġprintemps":6525,"ĠscÃ©n":6526,"Ġignorer":6527,"Ġretrouv":6528,"Ġtemporaire":6529,"ĠcÃ©lÃ¨":6530,"ĠdÃ©fav":6531,"ĠdÃ©gÃ¢":6532,"dÃ©cision":6533,"Pas":6534,"tiez":6535,"ancer":6536,"Ġrecev":6537,"cure":6538,"ĠBir":6539,"ĠannoncÃ©":6540,"Ġsucre":6541,"Ġaccomplis":6542,"Ġfiscales":6543,"ĠopposÃ©":6544,"Ses":6545,"rante":6546,"arus":6547,"Ġavoc":6548,"Ġinterinstitu":6549,"ĠcodÃ©cision":6550,"ĠprivÃ©es":6551,"Ġarticles":6552,"Ġtensions":6553,"Ġterritoires":6554,"ĠscÃ©nari":6555,"Du":6556,"illa":6557,"ĠPAC":6558,"ĠrenforcÃ©e":6559,"Ġreconnais":6560,"Ġconstamment":6561,"Ġportug":6562,"ĠÃ©quilibrÃ©":6563,"ĠBelarus":6564,"Ġmassive":6565,"GrÃ¢ce":6566,"sh":6567,"ina":6568,"elui":6569,"Ġrestre":6570,"Ġconcrets":6571,"Ġseules":6572,"quiÃ¨me":6573,"ĠrÃ©aliste":6574,"ĠmÃ©diateur":6575,"ĠrÃ©centes":6576,"Ġhypoth":6577,"istÃ©":6578,"ĠvÃ©cu":6579,"Ġbus":6580,"Ġfinale":6581,"guis":6582,"Ġvisage":6583,"Ġinstar":6584,"ĠexpÃ©riment":6585,"Ġtransformation":6586,"ĠdÃ©gÃ¢ts":6587,"yc":6588,"Ã¼":6589,"Ġfier":6590,"Ġfurent":6591,"nisme":6592,"Ġdoutes":6593,"ĠÃ©vÃ©nement":6594,"Ġprofessionnels":6595,"ĠexposÃ©":6596,"Ġinstallations":6597,"Ġstocks":6598,"Ġnettement":6599,"Ġexister":6600,"Ġactif":6601,"ĠmodÃ©":6602,"Ġcaf":6603,"Ġpropag":6604,"midi":6605,"Ġpouvais":6606,"ĠGo":6607,"Ġcomprennent":6608,"Ġaccepte":6609,"Ġinitiale":6610,"ĠdestinÃ©":6611,"Ġmanifestations":6612,"Ġprisonniers":6613,"Ġvain":6614,"Ġproches":6615,"Ġanne":6616,"ĠSe":6617,"Ġaboli":6618,"Ġsaluer":6619,"Ã¯s":6620,"Ġ2013":6621,"Ġsensibles":6622,"ĠsuggÃ¨re":6623,"ĠQ":6624,"Ġcuis":6625,"ley":6626,"ĠleÃ§on":6627,"ark":6628,"Ġbour":6629,"Ġtroupes":6630,"Ġtransat":6631,"ĠdÃ©battu":6632,"Ġiden":6633,"ĠvÃ©ritables":6634,"ĠrÃ©cent":6635,"Ġanimal":6636,"Ġoctroi":6637,"ĠfrÃ©qu":6638,"Ġvirus":6639,"ĠBosnie":6640,"Ġvague":6641,"aisser":6642,"Ġplaf":6643,"Ġtransactions":6644,"Ġcitoyenne":6645,"Ġgouvernementales":6646,"Ġprogress":6647,"Ġorgane":6648,"Ġexpansion":6649,"wan":6650,"Ġsites":6651,"Ġsoleil":6652,"siles":6653,"Ġprot":6654,"ĠremÃ©di":6655,"Ġarbit":6656,"illez":6657,"Ġmondiales":6658,"Ġsuffisante":6659,"ĠdÃ©lib":6660,"Ġcompati":6661,"Ġoccupe":6662,"son":6663,"Ġciel":6664,"endrait":6665,"Ġimpu":6666,"Ġtrait":6667,"Ġseuil":6668,"Ġpositives":6669,"trice":6670,"ĠpassÃ©e":6671,"Ġappuyer":6672,"ĠbÃ¢timents":6673,"ĠpÃ©r":6674,"Ġpourriez":6675,"ĠrÃ©ex":6676,"Ġfaill":6677,"Ġpolitiquement":6678,"titudes":6679,"ĠrÃ©pression":6680,"Ġrevendi":6681,"Ġobservation":6682,"Ġexploiter":6683,"Ġconvenu":6684,"ĠvidÃ©o":6685,"Ã©di":6686,"ĠrÃ©vis":6687,"tenus":6688,"ĠperpÃ©":6689,"ĠconsidÃ©rÃ©e":6690,"Ġsouha":6691,"ĠÅĵu":6692,"ĠaÃ©riennes":6693,"Ġcompagnie":6694,"Ġinond":6695,"Ġinex":6696,"ĠexcÃ©":6697,"ĠDÃ©pu":6698,"ĠengagÃ©":6699,"Ġconstruit":6700,"Ġfortes":6701,"ĠlÃ©gale":6702,"Ġcruciale":6703,"ĠpiÃ¨ces":6704,"Ġbruit":6705,"Ġquotidien":6706,"Ġpoliticiens":6707,"Avez":6708,"eff":6709,"Ġmor":6710,"Ġfre":6711,"Ġjoin":6712,"Ġmotifs":6713,"Ġcad":6714,"Ġaccum":6715,"ĠdÃ©cri":6716,"ington":6717,"Ġrepris":6718,"Ġmanifestement":6719,"ĠÃ©quilibrÃ©e":6720,"Ġhyd":6721,"Ġguerres":6722,"Ġpros":6723,"enses":6724,"Ã©rir":6725,"Ġsalaire":6726,"Ġdangereuses":6727,"Ġmorale":6728,"ĠsÃ©lection":6729,"mant":6730,"Ġlait":6731,"org":6732,"Ġence":6733,"Ġindem":6734,"ĠCub":6735,"Ġcontes":6736,"ĠTV":6737,"Ġopti":6738,"Ġmanip":6739,"ĠcompÃ©tent":6740,"ĠconcrÃ¨te":6741,"ĠconsacrÃ©":6742,"Ġpermanent":6743,"Ġassassin":6744,"Ġquinze":6745,"Ġmorte":6746,"ĠdÃ©te":6747,"Ġhas":6748,"Ġserre":6749,"Ġutiles":6750,"Ġfallu":6751,"ĠmÃ©decin":6752,"iront":6753,"Ġfuturs":6754,"ĠbÃ©nÃ©ficient":6755,"Ġcontrairement":6756,"Ġadaptation":6757,"Ġeffondrement":6758,"Ġrecettes":6759,"Ġbilan":6760,"Con":6761,"Ġclar":6762,"mbourg":6763,"ĠaccordÃ©e":6764,"Ġexplicite":6765,"ĠfixÃ©s":6766,"Ġcontribuera":6767,"Ġprononcer":6768,"Ġstrictes":6769,"ĠfrÃ¨re":6770,"Ġsimilaire":6771,"Ġrejoindre":6772,"ica":6773,"otes":6774,"ĠachÃ¨":6775,"Ã¨dent":6776,"veux":6777,"Ã©rieure":6778,"Ġaffi":6779,"Ġrigou":6780,"Ġinclu":6781,"Ġatteinte":6782,"ĠpÃ©troli":6783,"ĠappropriÃ©es":6784,"Ġstimuler":6785,"ĠHongrie":6786,"Ġdommages":6787,"ĠprivilÃ©gi":6788,"Ġsurvie":6789,"Ġtrom":6790,"Ġpurement":6791,"ssÃ©":6792,"ĠconsidÃ¨rent":6793,"ĠreprÃ©sentation":6794,"Ġdouani":6795,"ĠconsidÃ©rations":6796,"Ġsorti":6797,"ĠlittÃ©ra":6798,"ĠvÃ©rifier":6799,"Ġinjusti":6800,"Ġmodernisation":6801,"ĠclartÃ©":6802,"vations":6803,"Ġfoi":6804,"Ã¨tes":6805,"Ġproc":6806,"Ġdevaient":6807,"ĠAu":6808,"ĠSec":6809,"Ġoptions":6810,"ĠprÃ©sentent":6811,"umÃ©":6812,"guÃ©":6813,"Ġindire":6814,"ovine":6815,"Ġcontributions":6816,"Ġobserver":6817,"Ġexclusivement":6818,"ĠprÃ©cÃ©dente":6819,"LA":6820,"geant":6821,"Ġrang":6822,"ĠNon":6823,"ĠadoptÃ©s":6824,"Ġinstitutionnel":6825,"Ġvoies":6826,"ĠVI":6827,"Ġclimatiques":6828,"ĠconstatÃ©":6829,"ĠrÃ©sistance":6830,"ĠTom":6831,"Ġvisas":6832,"ĠJohn":6833,"Ġremerciements":6834,"ĠuniversitÃ©s":6835,"Ġoccidentale":6836,"Ġquitter":6837,"RÃ©":6838,"yant":6839,"zy":6840,"Ġmorce":6841,"Ġnaissance":6842,"Ġinverse":6843,"ĠdÃ©gra":6844,"Ġchem":6845,"Ġpersua":6846,"Ġassure":6847,"Ġparticuliers":6848,"Ġvisent":6849,"Ġsouhaitable":6850,"Ġpersonnelle":6851,"ĠprÃ©vues":6852,"ĠentraÃ®nÃ©":6853,"ĠsecrÃ©taire":6854,"Ġkilom":6855,"dis":6856,"Ġpatient":6857,"Ġrares":6858,"ĠAg":6859,"Ġvide":6860,"ĠdÃ©crit":6861,"raison":6862,"tifie":6863,"Ġlinguis":6864,"jeuner":6865,"ĠRO":6866,"gnation":6867,"ĠdÃ©bu":6868,"ĠdÃ©veloppements":6869,"Ã¨ges":6870,"Ġ196":6871,"ĠrÃ©cents":6872,"Ġrefuse":6873,"ĠthÃ¨mes":6874,"Ġprogressivement":6875,"ĠbarriÃ¨res":6876,"Ġsilence":6877,"ĠUn":6878,"Ġentam":6879,"Ġbonheur":6880,"Ġabsolue":6881,"ĠprÃ©voy":6882,"ĠlimitÃ©e":6883,"ĠÃ©tend":6884,"Ġtenue":6885,"ĠprÃ©cÃ©demment":6886,"ĠaffirmÃ©":6887,"ĠnÃ©gatif":6888,"ĠprÃ©cÃ©dents":6889,"ĠCongrÃ¨s":6890,"dÃ©e":6891,"vait":6892,"anes":6893,"Ġprenne":6894,"Ġprendra":6895,"Ġcoeur":6896,"ĠDÃ©":6897,"ĠminoritÃ©":6898,"Ġentrepren":6899,"Ġanticip":6900,"ĠLiban":6901,"ĠcomplexitÃ©":6902,"ĠillÃ©gale":6903,"Ġracisme":6904,"Ġattentivement":6905,"Ġafricains":6906,"Ġpromesse":6907,"Ġincertitude":6908,"cycle":6909,"Ġrequiert":6910,"ĠremÃ©dier":6911,"LÃł":6912,"Ġmens":6913,"lets":6914,"Ġconfor":6915,"aul":6916,"accord":6917,"Ġrecourir":6918,"Ġdoig":6919,"ĠChinois":6920,"Ġsoutiennent":6921,"ĠsÃ©rieuse":6922,"Ġoublions":6923,"ĠÃ¢gÃ©es":6924,"ĠeffectuÃ©":6925,"Ġdisponible":6926,"ĠaccÃ©der":6927,"Ġsty":6928,"ĠBerlin":6929,"ĠocÃ©an":6930,"lifÃ©ration":6931,"Ġbomb":6932,"ĠmaÃ®tr":6933,"Ġfonde":6934,"ĠappliquÃ©es":6935,"ĠÃ©mo":6936,"ĠinÃ©galitÃ©s":6937,"laud":6938,"ĠMont":6939,"Ġdevriez":6940,"ĠEL":6941,"siez":6942,"Ġmacro":6943,"cats":6944,"ĠdÃ©mocraties":6945,"Ġinclusion":6946,"ĠengagÃ©s":6947,"Ġsubstance":6948,"Ġdistinction":6949,"Ġappareil":6950,"orge":6951,"Ġdure":6952,"Ġconforme":6953,"endrons":6954,"Ġinstitutionnelle":6955,"Ġconvaincue":6956,"Ġmauvaises":6957,"Ġpermanente":6958,"ĠXX":6959,"Ġlacunes":6960,"ĠtragÃ©die":6961,"Ġlun":6962,"onte":6963,"ĠrÃ©in":6964,"Ġsuit":6965,"ĠbasÃ©":6966,"Ġinviter":6967,"ĠinquiÃ¨te":6968,"ĠnumÃ©ro":6969,"Ġtentatives":6970,"Ġcontraintes":6971,"Ġprovenant":6972,"Ġlongues":6973,"Para":6974,"erait":6975,"unitÃ©":6976,"ĠhÃ©r":6977,"Ġconsenti":6978,"vaquie":6979,"Ġcroissant":6980,"Ġincor":6981,"ĠdÃ©saccord":6982,"ĠdÃ©clare":6983,"addam":6984,"Ġjeunesse":6985,"ĠtÃ©lÃ©comm":6986,"Ġconscient":6987,"ĠdestinÃ©e":6988,"Ġaccroissement":6989,"Ġapprofondi":6990,"GM":6991,"feu":6992,"ano":6993,"urie":6994,"sibles":6995,"cha":6996,"oss":6997,"Ġimpati":6998,"Ġmagni":6999,"Ã©riques":7000,"Ġmontagne":7001,"Ġcontradi":7002,"ĠcompÃ©t":7003,"ĠÃ©tendue":7004,"Ġcommuniquer":7005,"landes":7006,"Ġsuivantes":7007,"Ġphotos":7008,"Ġciviles":7009,"Ġconviction":7010,"ĠcatÃ©gories":7011,"ĠmathÃ©":7012,"ĠmÃ©moire":7013,"Celui":7014,"Ġer":7015,"Ã©min":7016,"Ġlever":7017,"riques":7018,"arme":7019,"dia":7020,"ulsion":7021,"Ġanc":7022,"Entre":7023,"ĠrÃ©sol":7024,"isible":7025,"ĠÃ©levÃ©es":7026,"Ġessaie":7027,"ĠcolÃ¨re":7028,"Ġformulation":7029,"ĠsÃ»rs":7030,"Ġpousser":7031,"Ġprovoquer":7032,"ĠrÃ©digÃ©":7033,"ashington":7034,"Ġhasard":7035,"Ici":7036,"ĠAt":7037,"Ġsac":7038,"ĠOGM":7039,"ĠmÃ©pr":7040,"ĠappliquÃ©e":7041,"Ġ31":7042,"Ġcommencent":7043,"Ġnaturelle":7044,"Ġestiment":7045,"Ġoccasions":7046,"ĠdÃ©finitive":7047,"ĠcafÃ©":7048,"30":7049,"AR":7050,"ette":7051,"rans":7052,"Ġclandes":7053,"Ġtente":7054,"ĠdÃ©tri":7055,"Ġaddi":7056,"ĠParis":7057,"ĠÃ©conomistes":7058,"Ġmange":7059,"alisÃ©e":7060,"Ġutilisateurs":7061,"ĠreÃ§oivent":7062,"Ġreligieux":7063,"Ġoccupation":7064,"ÃĬ":7065,"Ġrass":7066,"ĠprÃ©te":7067,"ĠOC":7068,"Ġ35":7069,"Ġoppose":7070,"ĠWashington":7071,"Ġsoulever":7072,"Ġreb":7073,"Ġposent":7074,"Ġprends":7075,"Ġaveu":7076,"Ġsages":7077,"ĠgarÃ§on":7078,"Ġsignes":7079,"ĠinvitÃ©":7080,"ĠmonÃ©taires":7081,"Ġsurpris":7082,"Ġpourcentage":7083,"ĠCuba":7084,"imb":7085,"Ġmol":7086,"Ã¨lement":7087,"Ġinforme":7088,"Ġincid":7089,"Ġconventions":7090,"lah":7091,"Ġtriste":7092,"ock":7093,"Ġjustifie":7094,"ĠdÃ©montre":7095,"ocrates":7096,"ĠlibÃ©ration":7097,"Ġprochains":7098,"Ġimplication":7099,"ĠpÃ©riodes":7100,"Ġdiplomatie":7101,"ball":7102,"Ġmultipli":7103,"ĠÃ©chouÃ©":7104,"DÃ©":7105,"ĠÃ©man":7106,"Ġprolon":7107,"vas":7108,"ĠdÃ©barra":7109,"ĠrenforcÃ©":7110,"ĠzÃ©ro":7111,"ĠrÃ©conc":7112,"Ġroutes":7113,"ĠrefusÃ©":7114,"ĠÃ®les":7115,"Ġreconnaissant":7116,"gil":7117,"Ġdevienne":7118,"andard":7119,"Ġ28":7120,"ĠamÃ©liore":7121,"Ġsouffrent":7122,"Ġchinoise":7123,"Ġarabes":7124,"Ġchercheurs":7125,"Ġfroide":7126,"ĠpÃ©titions":7127,"Ġbataille":7128,"ĠBirmanie":7129,"ĠdÃ©triment":7130,"ĠdÃ©rog":7131,"oient":7132,"irent":7133,"Ġ29":7134,"Ġ300":7135,"Ġexistant":7136,"Ġrestera":7137,"ophob":7138,"ĠgagnÃ©":7139,"Ġsurprise":7140,"Ġadministrative":7141,"Ġdevenus":7142,"ĠTVA":7143,"Ġmou":7144,"anda":7145,"ĠagrÃ©":7146,"orteur":7147,"Ġtransmettre":7148,"Ġincen":7149,"Ġappliquent":7150,"Parmi":7151,"ĠrÃ©comp":7152,"ĠimpliquÃ©s":7153,"Ġcraign":7154,"lic":7155,"Ġdissi":7156,"ĠBen":7157,"ĠintÃ©resse":7158,"ĠdÃ©clarer":7159,"ĠVer":7160,"Ġhistoriques":7161,"Ġcharges":7162,"Ġcharbon":7163,"Ġpalestinienne":7164,"Fin":7165,"gences":7166,"obil":7167,"ita":7168,"Ġpal":7169,"ĠÃ©cus":7170,"Ġpermettront":7171,"olique":7172,"ĠVan":7173,"Ġstructurelles":7174,"ĠÃ©quiv":7175,"Ġsoutenue":7176,"ĠachetÃ©":7177,"ographiques":7178,"Ġpensions":7179,"Ġambitions":7180,"ĠnumÃ©rique":7181,"athie":7182,"ĠrÃ©tablir":7183,"gin":7184,"Ġports":7185,"urÃ©e":7186,"Ġfront":7187,"ĠgÃ¢":7188,"Ġgasp":7189,"ĠdÃ©passe":7190,"Ġmarcher":7191,"Ġassister":7192,"Ġferai":7193,"ĠrÃ©gulation":7194,"ĠbÃ©nÃ©fice":7195,"ĠCela":7196,"ĠÃ©limination":7197,"Ġapparemment":7198,"Ġtexti":7199,"Ġfassent":7200,"Ġpuissances":7201,"Ġinterdire":7202,"rin":7203,"Ġfan":7204,"Ġrembour":7205,"Ġplantes":7206,"ulÃ©":7207,"ĠÃ©cart":7208,"ĠBla":7209,"ĠTa":7210,"Ġimposent":7211,"ĠalliÃ©s":7212,"Ġaffronter":7213,"gure":7214,"Ġdan":7215,"Ġchat":7216,"ommage":7217,"Ġmoments":7218,"ĠAD":7219,"ĠÃ©tapes":7220,"Ġ26":7221,"Ġcoali":7222,"Ġtravaillons":7223,"pule":7224,"Ġarrivent":7225,"ĠengagÃ©e":7226,"ĠreflÃ©":7227,"Ġobservations":7228,"ĠassemblÃ©e":7229,"ĠfÃªte":7230,"ardi":7231,"terre":7232,"Ġdrogues":7233,"ĠprÃ©sentÃ©s":7234,"ĠGen":7235,"Ġmettant":7236,"ĠlÃ©gislations":7237,"ĠopposÃ©s":7238,"Ġrefuser":7239,"ĠbrÃ»":7240,"Ġprononc":7241,"ĠcÃ©lÃ¨bre":7242,"isons":7243,"Ġauteurs":7244,"membre":7245,"ĠSar":7246,"tination":7247,"Ġentreprendre":7248,"ĠfondÃ©":7249,"Ġenvironnemental":7250,"Ġprag":7251,"Ġformule":7252,"Ġfranch":7253,"Ġscru":7254,"Ġcoordonner":7255,"ĠrÃ©aff":7256,"ĠpÃ©nale":7257,"ĠqualifiÃ©e":7258,"ĠconfirmÃ©":7259,"Ġcriminels":7260,"ĠmatÃ©riel":7261,"Chacun":7262,"ĠsalariÃ©s":7263,"ĠtÃ©lÃ©communi":7264,"Votre":7265,"Ã³":7266,"entra":7267,"ĠDi":7268,"Ġobjets":7269,"ĠIns":7270,"Ġvenons":7271,"Ġcraintes":7272,"Ġfoot":7273,"Ġcontacts":7274,"Ġdanois":7275,"Ġmille":7276,"Ġinva":7277,"Ġineff":7278,"Ġserai":7279,"culaire":7280,"ĠsÃ©para":7281,"ĠGol":7282,"Ġfermer":7283,"Ġnav":7284,"ĠVi":7285,"Ġfondamentalement":7286,"Ġsignature":7287,"Ġirlandaise":7288,"Ġvictime":7289,"ĠAlli":7290,"Ġchaleureusement":7291,"uve":7292,"ÃŃ":7293,"Ġplate":7294,"Ġramen":7295,"ĠBureau":7296,"Ġallant":7297,"Ġannonce":7298,"ĠRi":7299,"Ġrecyc":7300,"lore":7301,"emark":7302,"mÃ©ment":7303,"Ġrisquent":7304,"Ġdiscutons":7305,"Ġjeudi":7306,"ĠdÃ©pendent":7307,"Ġdictature":7308,"Objet":7309,"imbab":7310,"Tel":7311,"mets":7312,"ĠSaddam":7313,"Ġenver":7314,"ĠchargÃ©":7315,"Ġtenus":7316,"ĠbÃ©nÃ©ficiaires":7317,"ĠtempÃ©ra":7318,"ĠBelgique":7319,"Ġbienvenue":7320,"Ġpolonais":7321,"Ġem":7322,"ith":7323,"Ġpage":7324,"Ġlieux":7325,"Ġsacri":7326,"Ġenvie":7327,"Ġvieille":7328,"lone":7329,"Ġtransparente":7330,"ĠarrÃªtÃ©":7331,"ĠÃ©normÃ©ment":7332,"Ġsanction":7333,"Ġvenue":7334,"ĠcritÃ¨re":7335,"Ġpartageons":7336,"Ġsimplifier":7337,"Aucune":7338,"ĠDanemark":7339,"tiÃ¨me":7340,"Ġreviend":7341,"ĠAff":7342,"ĠconcrÃ©ti":7343,"ĠÃ©levÃ©e":7344,"ĠLuxe":7345,"Ġattente":7346,"ĠrÃ©col":7347,"ĠlibÃ©ral":7348,"Ġindustriels":7349,"Ġjournal":7350,"Ġstandard":7351,"Ġimmigrants":7352,"Ġcontrovers":7353,"Ġrestructuration":7354,"Ġenti":7355,"Ġduquel":7356,"ell":7357,"Ġmater":7358,"ĠÃ©gal":7359,"ĠgÃ©nÃ©raux":7360,"ĠexpliquÃ©":7361,"Ġmodernes":7362,"Ġimmense":7363,"Ġconsacrer":7364,"Ġmoral":7365,"ĠEuro":7366,"ĠhÃ´pital":7367,"ĠintermÃ©diaire":7368,"Ġina":7369,"ĠmaniÃ¨res":7370,"Ġcontribuent":7371,"Ġdistance":7372,"ĠBaltique":7373,"Ġfroid":7374,"Ġvolume":7375,"Ġpont":7376,"Ġdettes":7377,"Ġsain":7378,"ĠPe":7379,"Ġray":7380,"Ġtrente":7381,"Ġmette":7382,"Ġprouver":7383,"Ġdiv":7384,"Ġamend":7385,"ĠmÃ©l":7386,"ĠDo":7387,"mann":7388,"Ġconstructif":7389,"ĠÅĵil":7390,"ĠrappelÃ©":7391,"ĠterminÃ©":7392,"Ġdommage":7393,"Ġachat":7394,"ĠMacÃ©d":7395,"Ġenthousiasme":7396,"ĠComitÃ©":7397,"bet":7398,"quante":7399,"Ġvillage":7400,"Ġimposition":7401,"Ġgrandi":7402,"gici":7403,"ĠamÃ¨ne":7404,"lisÃ©e":7405,"ĠaccordÃ©":7406,"Ġconfusion":7407,"ĠÃ©duca":7408,"Ġdessous":7409,"Ġmusulman":7410,"Ġdisparu":7411,"Ġincontes":7412,"ĠLuxembourg":7413,"bie":7414,"Ġaci":7415,"Ġmourir":7416,"Ġvend":7417,"ĠMol":7418,"Ġdirai":7419,"vidu":7420,"Ġmanquer":7421,"Ġindividu":7422,"Ġabsor":7423,"Ġrechercher":7424,"Ġlibrement":7425,"ĠportÃ©":7426,"ĠLiby":7427,"Ġdossiers":7428,"ĠopÃ©rateurs":7429,"Ġcivilisation":7430,"Ġtribunal":7431,"ĠhandicapÃ©es":7432,"Ã©conomique":7433,"ader":7434,"oo":7435,"ĠdÃ©tÃ©ri":7436,"ĠrÃ©cip":7437,"Ġchans":7438,"Ġdiagn":7439,"lÃ©b":7440,"ssants":7441,"Ġforum":7442,"Ġmalade":7443,"ĠbÃ©nÃ©ficie":7444,"Ġsemblait":7445,"ĠconfrontÃ©e":7446,"Ġignore":7447,"Ġanalyser":7448,"Ġbrevets":7449,"Laissez":7450,"Tant":7451,"Ġcre":7452,"Ġamus":7453,"ĠSommet":7454,"Ġformer":7455,"Ġvoudrions":7456,"ĠNo":7457,"Ġinciter":7458,"Ġbateau":7459,"Ġgarantit":7460,"Ġcourse":7461,"ĠprÃ©fÃ¨re":7462,"Ġconvaincus":7463,"Ġpouss":7464,"Ġmajeurs":7465,"ĠNice":7466,"Ġplaintes":7467,"ParallÃ¨lement":7468,"ouff":7469,"Ġsit":7470,"Ġexcessi":7471,"fini":7472,"ĠdÃ©battons":7473,"Ġinstauration":7474,"Ġessayons":7475,"Ġmultination":7476,"Ġfiscaux":7477,"ĠAngle":7478,"Ġphysi":7479,"Ġprudence":7480,"Ġsoyez":7481,"Ġtendances":7482,"Ġsoumise":7483,"Ġcontenter":7484,"Ġautonomie":7485,"ĠSlovaquie":7486,"Compte":7487,"genti":7488,"voir":7489,"Ġremet":7490,"Ġsurven":7491,"Ġmilit":7492,"ĠDar":7493,"Ġessence":7494,"Ġdurables":7495,"ĠinstabilitÃ©":7496,"Ġinnoc":7497,"ĠoubliÃ©":7498,"Ġsentiments":7499,"Ġhautement":7500,"ĠenquÃªtes":7501,"Ġordinateurs":7502,"Ġfabric":7503,"Ġtableau":7504,"Ġdiplomatique":7505,"ĠformulÃ©es":7506,"Ġtribunaux":7507,"ĠAngleterre":7508,"oriste":7509,"Ġindu":7510,"Ġautrich":7511,"viendra":7512,"vateur":7513,"ĠattÃ©":7514,"ĠTunis":7515,"Ġcampagnes":7516,"Ġofficielle":7517,"ĠprovoquÃ©":7518,"ĠmÃ©decins":7519,"Ġcoalition":7520,"ĠAffaires":7521,"Telle":7522,"ĠrÃ©form":7523,"iliers":7524,"Ġaspi":7525,"ĠprÃ©cises":7526,"Ġjuger":7527,"Ġbiodi":7528,"Ġrapprocher":7529,"Ġethniques":7530,"ĠbiodiversitÃ©":7531,"Ġparlent":7532,"Ġfati":7533,"ĠÃ©crite":7534,"ĠrÃ©su":7535,"ĠprÃ©sentÃ©es":7536,"verser":7537,"Ġjugement":7538,"Ġviolences":7539,"Ġtenant":7540,"ĠÃ©laborÃ©":7541,"Ġmanifeste":7542,"ĠPalestine":7543,"Ġcouvrir":7544,"Ġmultiples":7545,"Ġconnex":7546,"Ġpatrim":7547,"ĠsouhaitÃ©":7548,"ey":7549,"ĠmÃ¨ne":7550,"Ġtonnes":7551,"ĠbrÃ¨":7552,"Ġremis":7553,"oser":7554,"Ġrarement":7555,"ĠMil":7556,"ĠsoulÃ¨ve":7557,"ack":7558,"Ġviable":7559,"curr":7560,"ribuer":7561,"culture":7562,"ĠinformÃ©s":7563,"Ġbiologique":7564,"Ġrecommande":7565,"Ġsortie":7566,"Ġsinon":7567,"Ġsurveiller":7568,"ĠnÃ©erlandais":7569,"IN":7570,"ieux":7571,"aritÃ©s":7572,"aution":7573,"ppe":7574,"Ġtromp":7575,"Ġconstante":7576,"Ġrecueil":7577,"Ġabsurde":7578,"pati":7579,"Ġcollective":7580,"Ġtraduit":7581,"Ġspor":7582,"ĠFranÃ§":7583,"Ġintellectuelle":7584,"Ġsyndicats":7585,"ER":7586,"ĠmÃ¨tres":7587,"Ġtuer":7588,"onnÃ©s":7589,"micycle":7590,"Ġagres":7591,"Ġadh":7592,"ĠdÃ©cÃ¨s":7593,"astri":7594,"ĠmÃ©ta":7595,"Ġ2012":7596,"Ġjournaux":7597,"Ġchacune":7598,"Ġtraditions":7599,"Ġtombe":7600,"Ġespoirs":7601,"ĠÃ©loi":7602,"ĠcÃ©lÃ©b":7603,"Ġsexuelle":7604,"Ġconsolidation":7605,"Ġajustement":7606,"Ġfaillite":7607,"ĠVIH":7608,"ĠtÃ©lÃ©communications":7609,"Cont":7610,"Ġenrich":7611,"ĠdÃ©vas":7612,"Ġgagn":7613,"Ġaverti":7614,"Ġentends":7615,"ĠOui":7616,"Ġculturelles":7617,"ĠrespectÃ©":7618,"ĠYougosla":7619,"Ġparvenu":7620,"Ġpieds":7621,"Ġprofondes":7622,"Ġplacer":7623,"Ġbattre":7624,"Ġislamique":7625,"ĠAlliance":7626,"blissement":7627,"esse":7628,"ĠsÅĵur":7629,"teaux":7630,"Ġhosti":7631,"ĠUne":7632,"Ġinterdit":7633,"Ġrespectent":7634,"Ġlocale":7635,"Ġindividuels":7636,"ĠsystÃ©matiquement":7637,"ĠimpÃ©ratif":7638,"Ġressortissants":7639,"Ġerron":7640,"ĠMacÃ©doine":7641,"Ġsco":7642,"Ġconcevoir":7643,"Ġtoucher":7644,"ĠÃ©coute":7645,"Ġconcret":7646,"Ġcoin":7647,"istons":7648,"Ġcroit":7649,"Ġadopte":7650,"Ġferons":7651,"ĠappliquÃ©":7652,"angers":7653,"Ġlogici":7654,"ĠpÃ©nal":7655,"Ġvacances":7656,"Ġreligieuses":7657,"Ġinterinstitutionnel":7658,"Ġpatrimoine":7659,"ĠpÃª":7660,"Ġaper":7661,"tification":7662,"Ġsois":7663,"ĠdÃ©jeuner":7664,"Ġsupr":7665,"Ġcompas":7666,"oyez":7667,"ĠBu":7668,"ĠSol":7669,"ĠintÃ©gra":7670,"liser":7671,"veloppe":7672,"ĠKh":7673,"ĠrÃ©duite":7674,"Ġmigra":7675,"endues":7676,"Ġjudiciaires":7677,"Ġaccueillir":7678,"Ġfeuille":7679,"ĠÃ©clair":7680,"Ġitalien":7681,"Ġajoute":7682,"Ġoiseaux":7683,"ĠLibye":7684,"cat":7685,"Ġfen":7686,"tale":7687,"Ġplur":7688,"ĠprÃ©cieux":7689,"Ġcommand":7690,"ĠEuropol":7691,"ĠutilitÃ©":7692,"ĠavancÃ©s":7693,"ĠdÃ©cisionne":7694,"ĠposÃ©e":7695,"ĠdÃ©penser":7696,"Ġcommunications":7697,"Ġconfirme":7698,"Ġalliance":7699,"Ġespagnole":7700,"demain":7701,"ĠÃ©voluer":7702,"ĠsuÃ©doise":7703,"ĠcitoyennetÃ©":7704,"atis":7705,"Ġ[":7706,"ĠfaÃ§ons":7707,"Ġgenti":7708,"ĠAh":7709,"liste":7710,"gnÃ©e":7711,"ĠdÃ©mographique":7712,"ĠactualitÃ©":7713,"ĠparallÃ¨":7714,"Ġsusc":7715,"ĠintÃ©gritÃ©":7716,"ĠgÃ©ographique":7717,"ĠMaastri":7718,"Ġtraduire":7719,"ĠhÃ©micycle":7720,"ĠZimbab":7721,"ĠfossÃ©":7722,"Ġexcessive":7723,"ĠprÃ©texte":7724,"ĠYougoslavie":7725,"As":7726,"gente":7727,"ension":7728,"ouer":7729,"quait":7730,"Ġpare":7731,"Ã´tre":7732,"Ġcommet":7733,"isez":7734,"Ġagents":7735,"Ġempire":7736,"ĠLitu":7737,"Ġpassant":7738,"Ġ1994":7739,"Ġdoub":7740,"ĠTraitÃ©s":7741,"Ġsensibil":7742,"Ġsusceptible":7743,"Ġterrible":7744,"Ġlicenci":7745,"ĠaÃ©roports":7746,"ĠMaastricht":7747,"Ġ]":7748,"anci":7749,"Ġpair":7750,"Ġpassent":7751,"ĠMe":7752,"ĠAus":7753,"Ġaccru":7754,"ĠUnies":7755,"ĠOues":7756,"ĠtotalitÃ©":7757,"Ġambass":7758,"Ġdestination":7759,"Ġconcentration":7760,"ĠEuropÃ©enne":7761,"Ġautoriser":7762,"Ġambigu":7763,"Ġprofondeur":7764,"ĠtolÃ©rance":7765,"Ġescla":7766,"ĠimmigrÃ©s":7767,"ĠdÃ©couvrir":7768,"ĠadhÃ©rer":7769,"ĠÃ©largir":7770,"LAF":7771,"ĠOuest":7772,"Afin":7773,"Ġom":7774,"Ã©sie":7775,"Ġabsent":7776,"ĠgravitÃ©":7777,"Ġclients":7778,"ĠfiscalitÃ©":7779,"tell":7780,"ĠAutoritÃ©":7781,"Ġcompensation":7782,"Ġhorri":7783,"ĠatmosphÃ¨re":7784,"Ġcompassion":7785,"Aux":7786,"ĠrÃ©da":7787,"Celle":7788,"Ġsatell":7789,"Ġpuissant":7790,"Ġpriva":7791,"ĠarrivÃ©s":7792,"Ġcontradiction":7793,"Ġrempli":7794,"ĠÃ©quipements":7795,"ĠboÃ®":7796,"Ġpoursuit":7797,"ĠdÃ©sespÃ©":7798,"Ġpierre":7799,"ÃĬtes":7800,"ĠrÃ©affir":7801,"AS":7802,"Ġlentement":7803,"tiens":7804,"Ġunes":7805,"ĠrÃ©sid":7806,"Ġrecti":7807,"ĠCS":7808,"ĠTchÃ©t":7809,"Ġtiennent":7810,"Ġoffrent":7811,"Ġartifici":7812,"ĠcinquiÃ¨me":7813,"ĠgÃ©nÃ©tique":7814,"Ġarchitecture":7815,"Ġtrompe":7816,"Ar":7817,"Ġrat":7818,"peau":7819,"Ġimpasse":7820,"Ġridi":7821,"Ġappelons":7822,"Ġdangereuse":7823,"Ġfaiblesse":7824,"Ġdiversi":7825,"ĠkilomÃ¨tres":7826,"Ġlen":7827,"Ã¨tre":7828,"ĠComment":7829,"Ġjeter":7830,"Ġvola":7831,"Ġempris":7832,"Ġrecul":7833,"ĠdurabilitÃ©":7834,"ĠsÃ»rement":7835,"Ġbibli":7836,"Ġsciences":7837,"ĠÃ©largie":7838,"Ġinstamment":7839,"ĠÃ©coutÃ©":7840,"Ġorateur":7841,"ĠexaminÃ©":7842,"ĠRome":7843,"ĠbÃ©bÃ©":7844,"Ġuniversel":7845,"Ġclarifier":7846,"isÃ©s":7847,"Ġtal":7848,"Ġchauff":7849,"ĠtouchÃ©s":7850,"ĠimprÃ©":7851,"Ġimparti":7852,"vages":7853,"blic":7854,"Ġfondement":7855,"lot":7856,"tionnellement":7857,"Ġcombusti":7858,"Ġirres":7859,"Ġsignificatif":7860,"Ġtroubles":7861,"Autrement":7862,"ĠdÃ©favoris":7863,"cre":7864,"dra":7865,"Ġdangers":7866,"alu":7867,"Ġrense":7868,"Ġmeurent":7869,"ĠSV":7870,"Ġpertur":7871,"Ġtire":7872,"Ġvisa":7873,"ĠprocÃ©dÃ©":7874,"illant":7875,"ĠprÃ©fÃ©rÃ©":7876,"ĠAlb":7877,"Ġretrouve":7878,"Ġfrus":7879,"ĠmÃ©decine":7880,"Ġquasiment":7881,"Ġimmobilier":7882,"Ġpost":7883,"Ġdivision":7884,"lisme":7885,"Ġcartes":7886,"Ġrenforce":7887,"Ġcapitalisme":7888,"Ġindispensables":7889,"Ġpanne":7890,"ĠincapacitÃ©":7891,"Ġstabilisation":7892,"Ġprimordial":7893,"ĠMinistre":7894,"Ġcadres":7895,"long":7896,"Ġx":7897,"Ġmig":7898,"omÃ©":7899,"ĠfÃ©min":7900,"ĠdÃ©v":7901,"Ġaid":7902,"mestre":7903,"Ġforts":7904,"Ġrenoncer":7905,"Ġutilisons":7906,"Ġsupporter":7907,"Ġimplications":7908,"ĠprÃªter":7909,"Ġdirigeant":7910,"ĠsiÃ¨cles":7911,"ĠimmÃ©diate":7912,"Ġsurprenant":7913,"Ġautomne":7914,"oudan":7915,"Ġindicateurs":7916,"ĠhÃ©rit":7917,"Ġmagnifique":7918,"Ã©curitÃ©":7919,"Ġtas":7920,"tag":7921,"ĠCas":7922,"Ġacteur":7923,"Ġmass":7924,"Ġdiffusion":7925,"amÃ©ric":7926,"ologues":7927,"Ġproposons":7928,"ĠrevÃª":7929,"Ġcollaborer":7930,"Ġharmoniser":7931,"Ġoctroy":7932,"Ġcondamner":7933,"Ġpension":7934,"ĠdiplÃ´":7935,"Ġhypoc":7936,"Ġapprofondie":7937,"Ġsatisfaisante":7938,"ĠprÃ©occupe":7939,"Ġmagas":7940,"Ġattentats":7941,"rairement":7942,"Ġdiagnosti":7943,"ĠTunisie":7944,"Heure":7945,"ĠQue":7946,"esti":7947,"Ġunani":7948,"Ġbaisser":7949,"Ġfac":7950,"Ġnett":7951,"ĠÃ©levage":7952,"ĠinformÃ©":7953,"Ġcourte":7954,"ĠÃ©ventuelle":7955,"Ġdimensions":7956,"Ġcomparaison":7957,"ĠgÃ©nÃ©tiquement":7958,"Ġcroyons":7959,"ĠdÃ©truire":7960,"Ġadultes":7961,"ĠInstitu":7962,"zar":7963,"Ġlancement":7964,"taine":7965,"Ġrej":7966,"Ġinterromp":7967,"ĠSer":7968,"ĠconstituÃ©":7969,"Ġnulle":7970,"Ġpromet":7971,"Ġcombler":7972,"ĠimposÃ©es":7973,"Ġvues":7974,"Ġ75":7975,"Ġhumanitaires":7976,"ĠÃ©tabl":7977,"Ġordinaires":7978,"Ġconsolider":7979,"Ġaviation":7980,"Ġinondations":7981,"ĠrÃ©cipro":7982,"OR":7983,"rits":7984,"Ġloy":7985,"Ġluxe":7986,"Ġmuni":7987,"Ġprouv":7988,"Ġappels":7989,"Ġaborde":7990,"ĠÃ©pre":7991,"ĠAnd":7992,"Lorsqu":7993,"ĠapprÃ©cier":7994,"Quelqu":7995,"ĠassistÃ©":7996,"Ġlabora":7997,"Ġillustre":7998,"Ġefforcer":7999,"Ġplanification":8000,"Ġraconter":8001,"ĠscÃ©nario":8002,"ĠLituanie":8003,"arer":8004,"id":8005,"Ġner":8006,"omin":8007,"meur":8008,"Ġjamb":8009,"ĠrÃ©actions":8010,"Ġgel":8011,"att":8012,"ĠSoudan":8013,"ureaux":8014,"Ġrivi":8015,"ĠconsidÃ©rÃ©s":8016,"ĠmontÃ©e":8017,"ĠHer":8018,"Ġcommentaire":8019,"Ġrapides":8020,"ĠdÃ©cisif":8021,"Ġexplications":8022,"ĠÃ©to":8023,"Ġexigent":8024,"ĠÃ©ventuellement":8025,"ĠSuisse":8026,"Ġestimations":8027,"ĠspÃ©cifiquement":8028,"ĠnommÃ©":8029,"ĠColomb":8030,"ĠALE":8031,"ĠBlair":8032,"IT":8033,"cis":8034,"ots":8035,"intes":8036,"ĠÃ©va":8037,"Ġrub":8038,"trons":8039,"Ġgrandement":8040,"Ġsubvention":8041,"Ġfonctionnent":8042,"ĠÃ©gards":8043,"Ġcharte":8044,"Ġfermeture":8045,"ĠcondamnÃ©":8046,"Ġoral":8047,"Ġfructu":8048,"Ġcouvre":8049,"Ġenceinte":8050,"ĠDoha":8051,"Ġirrespons":8052,"ĠhÃ©ritage":8053,"mons":8054,"vrer":8055,"Ġfrontali":8056,"Ġintitu":8057,"Ġbureaux":8058,"ĠconÃ§u":8059,"Ġsexe":8060,"ortent":8061,"Ġressent":8062,"Ġmas":8063,"Ġmaintes":8064,"ĠnÃ©glig":8065,"Ġsignifier":8066,"haus":8067,"ĠimmÃ©diat":8068,"Ġretourner":8069,"Ġemployeurs":8070,"ĠnÃ©gative":8071,"Ġstimul":8072,"ĠsÃ»retÃ©":8073,"Ġaffaibli":8074,"Ġinfraction":8075,"Ġinfluencer":8076,"dÃ©mie":8077,"Ġcos":8078,"oul":8079,"ĠÃ©lÃ¨":8080,"Ġproje":8081,"mpe":8082,"ultan":8083,"Ã©rations":8084,"cupÃ©":8085,"Ġvoulaient":8086,"ĠDÃ©m":8087,"ĠcarriÃ¨re":8088,"Ġpublication":8089,"Ġrespectu":8090,"ĠexprimÃ©es":8091,"Ġdouleur":8092,"ĠRusses":8093,"Ġparticipants":8094,"ĠpÃ©riph":8095,"Ġpoursuiv":8096,"Ġ150":8097,"Ġcouleur":8098,"ĠÃ©loign":8099,"Ġlaissez":8100,"App":8101,"ami":8102,"erte":8103,"Ġnul":8104,"ome":8105,"ĠÃ©lÃ¨ve":8106,"Ġparviend":8107,"ĠprÃ©cip":8108,"Ġdevions":8109,"ĠÃ©cologiques":8110,"Ġentretenir":8111,"Ġtiendra":8112,"Ġorganisme":8113,"ĠrÃ©sulte":8114,"Ġcontrat":8115,"ĠrÃ©former":8116,"Ġnorma":8117,"Ġculturels":8118,"ĠmodifiÃ©":8119,"ĠsÃ©rieuses":8120,"ĠMaroc":8121,"Ġconservateurs":8122,"Ġsurvivre":8123,"ĠAgenda":8124,".-":8125,"ail":8126,"ach":8127,"tus":8128,"Ã¤":8129,"celone":8130,"osc":8131,"Ġmesurer":8132,"Ġformi":8133,"Ġtransmis":8134,"Ġchasse":8135,"ĠcÃ´te":8136,"ĠsuscitÃ©":8137,"hip":8138,"Ġcomportements":8139,"ĠdÃ©lica":8140,"ĠcrÃ©dible":8141,"ĠÃ©lectroniques":8142,"kozy":8143,"ĠESB":8144,"ĠZimbabwe":8145,"Ex":8146,"ON":8147,"angi":8148,"Ġdesque":8149,"tÃ©ritÃ©":8150,"Ġquiconque":8151,"lÃ¨vement":8152,"Ġalloc":8153,"ĠmarquÃ©":8154,"Ġtiss":8155,"ĠrÃ¨gne":8156,"Ġ194":8157,"Ġpersonnelles":8158,"ĠdÃ©solÃ©":8159,"Ġsubir":8160,"ĠspÃ©ciale":8161,"Ġtechnologiques":8162,"Ã¯n":8163,"ĠÃ©vidente":8164,"ĠÃ©mergence":8165,"ĠnÃ©gatives":8166,"ĠdÃ©taillÃ©e":8167,"ĠmatÃ©riaux":8168,"Ġbancaires":8169,"Ġapplicables":8170,"ĠdÃ©sÃ©quilibres":8171,"Ġdiscipline":8172,"ĠADN":8173,"Ġlendemain":8174,"Ġrenseig":8175,"Ġmassac":8176,"ski":8177,"ya":8178,"reusement":8179,"ini":8180,"lem":8181,"tements":8182,"ĠrÃ©cupÃ©":8183,"aisons":8184,"ĠPÃ©":8185,"ĠPSE":8186,"Ġaiment":8187,"vions":8188,"ĠTu":8189,"Ġoptique":8190,"Ã®ner":8191,"Ġrecon":8192,"culer":8193,"ĠCha":8194,"ĠprÃ©visions":8195,"ĠÃ©tudiant":8196,"Ġcorrecte":8197,"ĠdisparaÃ®tre":8198,"Ġincorp":8199,"tail":8200,"ĠCo":8201,"Ġchu":8202,"Ġaccessi":8203,"Ġappe":8204,"Ġinsur":8205,"ĠBe":8206,"Ġcolon":8207,"Ġmonter":8208,"ĠHu":8209,"Ġassociations":8210,"Ġfiscal":8211,"ĠdÃ©sire":8212,"Ġcollecte":8213,"ĠquantitÃ©s":8214,"Ġtremb":8215,"Ġtransatlantique":8216,"Finalement":8217,"Ġprovis":8218,"Ġdue":8219,"Ġconvers":8220,"lateurs":8221,"pect":8222,"Ġarrange":8223,"Ã©nophob":8224,"ensez":8225,"lub":8226,"Ġinclus":8227,"Ġinformatique":8228,"ĠdÃ©sa":8229,"Ġrelancer":8230,"Ġ400":8231,"ĠfÃ©licitations":8232,"Ġnoter":8233,"Ġtraitements":8234,"Ġanciennes":8235,"Ġbelge":8236,"Ġprioritaires":8237,"ĠingÃ©nie":8238,"ĠmolÃ©cu":8239,"ĠconcrÃ©tiser":8240,"ĠxÃ©nophob":8241,"Ġformida":8242,"onge":8243,"ĠaoÃ»t":8244,"Ġende":8245,"itÃ©es":8246,"ĠPN":8247,"ĠMad":8248,"ordanie":8249,"Ġmaisons":8250,"Ġadmis":8251,"Ġpouvant":8252,"ĠDans":8253,"QuatriÃ¨me":8254,"chÃ©nie":8255,"Ġvenez":8256,"Ġrejette":8257,"ĠBarcelone":8258,"ĠÃ©mergents":8259,"Ġbulle":8260,"Ġphilosophie":8261,"ĠmortalitÃ©":8262,"Ġjoindre":8263,"currence":8264,"Ġbiblioth":8265,"Nombre":8266,"mag":8267,"ste":8268,"Ġassi":8269,"diens":8270,"cessions":8271,"Ġservent":8272,"gile":8273,"Ġmargin":8274,"ĠTout":8275,"ĠsÃ©jour":8276,"Ġores":8277,"ĠHa":8278,"Ġprotectionnisme":8279,"Ġparticipent":8280,"issements":8281,"Ġdistor":8282,"Ġobtenus":8283,"ĠaccÃ©l":8284,"ĠprÃ©judi":8285,"ĠTchÃ©tchÃ©nie":8286,"dans":8287,"ino":8288,"Ġflu":8289,"rice":8290,"chie":8291,"ĠimpÃ´t":8292,"Ġobti":8293,"ĠSte":8294,"ĠtirÃ©":8295,"Ġchauss":8296,"Ġsavais":8297,"Ġincar":8298,"Ġgars":8299,"Ġconnue":8300,"ĠKo":8301,"Ġprovin":8302,"Ġdevoirs":8303,"Ġprenant":8304,"ĠaÃ©rienne":8305,"ĠpossÃ¨dent":8306,"Ġtraduction":8307,"Ġvalable":8308,"ĠdÃ©montrer":8309,"Ġcrainte":8310,"Ġsatisfaits":8311,"ĠÃ©criv":8312,"Ġquotidienne":8313,"Ġmobiliser":8314,"ĠcomplÃ©mentaires":8315,"ĠbilatÃ©raux":8316,"Ġrassembler":8317,"Ġconstatons":8318,"ĠexcÃ©dent":8319,"ĠrÃ©solus":8320,"Ġfootball":8321,"Ġbran":8322,"Ġaviez":8323,"ĠMu":8324,"Ġdigne":8325,"ocation":8326,"Ġpointe":8327,"ĠdÃ©mission":8328,"ĠdÃ©mocratisation":8329,"Ġmontants":8330,"Ġentrepris":8331,"Ġuniforme":8332,"Ġregr":8333,"ĠspÃ©cialement":8334,"ĠappelÃ©e":8335,"ctuellement":8336,"Ġfixe":8337,"Ġfusion":8338,"ĠadÃ©quat":8339,"Ġennemi":8340,"Ġimpatience":8341,"Pouvez":8342,"Ã©lor":8343,"rid":8344,"Ġjui":8345,"cieuse":8346,"Ġrare":8347,"ĠÃīc":8348,"ĠinsistÃ©":8349,"Ġvigil":8350,"Ġsonda":8351,"ĠforÃªt":8352,"Ġcroient":8353,"Ġessais":8354,"Ġprofits":8355,"olie":8356,"Ġexclure":8357,"ĠdÃ©taill":8358,"Ġretards":8359,"ĠratifiÃ©":8360,"ĠcompliquÃ©":8361,"Ġintelligence":8362,"ĠtÃ©moign":8363,"Ġsauvetage":8364,"Ġflotte":8365,"Ġenregistrement":8366,"Ġterritoriale":8367,"Se":8368,"lers":8369,"ling":8370,"oub":8371,"isÃ©es":8372,"omali":8373,"ĠÃ©mettre":8374,"ĠavÃ©rer":8375,"Ġcho":8376,"orables":8377,"Ġdomes":8378,"Ġdonnera":8379,"Ġislam":8380,"ĠprÃ©fÃ©rable":8381,"ĠlÃ©gÃ¨rement":8382,"ĠCette":8383,"Ġoctro":8384,"Quelques":8385,"ĠnÃ©gatifs":8386,"Ġ1980":8387,"ĠrÃ©vÃ©lÃ©":8388,"Ġcouverture":8389,"Ġethnique":8390,"ĠinÃ©vitable":8391,"Ġprioritaire":8392,"ĠmÃ©nages":8393,"Ġdeviendra":8394,"Heureusement":8395,"irait":8396,"Ġspati":8397,"aises":8398,"ĠMan":8399,"Ġcamps":8400,"ands":8401,"atures":8402,"nera":8403,"ĠOS":8404,"Ġtitres":8405,"ĠDes":8406,"ĠGre":8407,"ĠLu":8408,"Ġoccurrence":8409,"Ġbateaux":8410,"Ġfaisaient":8411,"ĠestimÃ©":8412,"ĠrÃ©glementaire":8413,"ĠintÃ©ressantes":8414,"ĠassociÃ©s":8415,"Ġportes":8416,"ĠconcrÃ¨tement":8417,"Ġpartagent":8418,"ĠidÃ©al":8419,"ĠhÃ©las":8420,"ĠapparaÃ®tre":8421,"Ġintol":8422,"Outre":8423,"Ġveille":8424,"EI":8425,"Veu":8426,"sifs":8427,"Ġpluri":8428,"Ġexag":8429,"Ġore":8430,"Ġsigner":8431,"ĠimpÃ©ri":8432,"Ġeffra":8433,"Encore":8434,"ĠBon":8435,"Ġcercle":8436,"ĠrÃ©sumÃ©":8437,"Ġdonnant":8438,"Ã©liens":8439,"Ġcible":8440,"gentes":8441,"Ġsolides":8442,"Ġayez":8443,"Ġsouffre":8444,"Ġmessages":8445,"ĠsignalÃ©":8446,"ĠidÃ©ologie":8447,"ĠprÃ©cÃ©dentes":8448,"ĠtransfrontaliÃ¨re":8449,"Ġaffecte":8450,"Ġsagesse":8451,"ĠrÃ©conciliation":8452,"ĠrelÃ¨vent":8453,"dev":8454,"ĠPh":8455,"ĠMo":8456,"Ã§a":8457,"ĠDub":8458,"ĠamenÃ©":8459,"Ġgarantis":8460,"Ġassocier":8461,"ĠfrappÃ©":8462,"ogle":8463,"Ġreligieuse":8464,"Ġleadership":8465,"ĠMolda":8466,"hu":8467,"ji":8468,"Ġfit":8469,"Ġbande":8470,"ĠcessÃ©":8471,"viens":8472,"Ġarres":8473,"Ġdirects":8474,"Ġnomination":8475,"Ġdisparition":8476,"ĠconsidÃ©rant":8477,"Ġindiquent":8478,"ĠÃ©valuations":8479,"ĠassurÃ©ment":8480,"ĠintÃ©grante":8481,"Ġchinoises":8482,"Ġbrut":8483,"Ġsecondes":8484,"ĠNiger":8485,"Ġfabrication":8486,"Ġsaurait":8487,"Ġplafond":8488,"ĠFranÃ§ais":8489,"fas":8490,"gard":8491,"Ġpain":8492,"ĠÃ©di":8493,"tain":8494,"ĠMM":8495,"Ġcami":8496,"Ġnomin":8497,"lisÃ©":8498,"Ġrecru":8499,"Ġvoudrait":8500,"Ġatteints":8501,"Ġnorme":8502,"Ġtourne":8503,"Ġterroriste":8504,"Ġaccompagn":8505,"Ġanimale":8506,"Ġtenons":8507,"Ġconcentre":8508,"Ġinnovations":8509,"Ġexploitations":8510,"Ġprogressive":8511,"Ġangle":8512,"Ġintensifier":8513,"Ġtorture":8514,"Ġweb":8515,"Ġmultinationales":8516,"Ġsaine":8517,"rapp":8518,"Ġleader":8519,"ĠÃ©te":8520,"Ġintr":8521,"Ġparviennent":8522,"Ġsida":8523,"Ġsocio":8524,"Ġtravaillant":8525,"ĠrelÃ¢":8526,"Ġdouce":8527,"Ġouvertement":8528,"Ġcherchent":8529,"ĠcinÃ©":8530,"Ġsuivants":8531,"aturellement":8532,"Ġrestaurer":8533,"ĠÃ©chapper":8534,"Ġralentissement":8535,"Ġmerveilleux":8536,"Ġentrepreneurs":8537,"ĠSarkozy":8538,"jac":8539,"urg":8540,"Ġenle":8541,"Ġauda":8542,"tateurs":8543,"mping":8544,"ĠavÃ©rÃ©":8545,"ĠMich":8546,"ensitÃ©":8547,"ĠtouchÃ©":8548,"Ġdevise":8549,"Ġexposition":8550,"Ġpouvions":8551,"ĠsÃ©cur":8552,"ĠDonc":8553,"dÃ©p":8554,"Ġeffective":8555,"ĠtuÃ©":8556,"Ġheureusement":8557,"Ġremise":8558,"Ġindustriel":8559,"Ġconcepts":8560,"Ġconservation":8561,"Ġexistait":8562,"Ġsolaire":8563,"Ġdivergences":8564,"Ġgrosse":8565,"Ġenjeu":8566,"ĠcomplÃ©ter":8567,"illages":8568,"ĠDÃ©putÃ©s":8569,"ĠsÃ©paration":8570,"Actuellement":8571,"lut":8572,"Ġlaiti":8573,"rob":8574,"Ġbac":8575,"Ġchanti":8576,"osÃ©":8577,"Ġcab":8578,"Ġallusion":8579,"Ġmarquer":8580,"Ġempre":8581,"Ġdemandeurs":8582,"Ġsubi":8583,"ĠdÃ©finis":8584,"ĠWe":8585,"Ġstructurelle":8586,"Ġheur":8587,"Ġtransferts":8588,"Ġpotentiellement":8589,"Ġembal":8590,"Ġcorrect":8591,"ĠÃ©tablit":8592,"Ġattire":8593,"Ġjudicieux":8594,"Ġprenez":8595,"Ġimportation":8596,"Ġrentrer":8597,"Ġcorriger":8598,"ĠforcÃ©ment":8599,"ĠVerh":8600,"Ġineffica":8601,"ĠrÃ©daction":8602,"Hier":8603,"Naturellement":8604,"dt":8605,"Ġprolong":8606,"Ġsurp":8607,"ĠMer":8608,"ĠrhÃ©":8609,"Ġdevises":8610,"Ġentou":8611,"Ġdiox":8612,"ĠFis":8613,"aceu":8614,"Ġsavait":8615,"ĠHusse":8616,"Ġvoterons":8617,"Ġsouffrance":8618,"ĠministÃ¨re":8619,"Ġsouviens":8620,"Ġtransfrontaliers":8621,"ĠrÃ©putation":8622,"Ġpuissants":8623,"Ġinjuste":8624,"ĠfÃ©dÃ©rale":8625,"Regarde":8626,"armaceu":8627,"Ġchanson":8628,"ĠMoldavie":8629,"ĠrhÃ©t":8630,"ditÃ©s":8631,"lau":8632,"yn":8633,"Ġventes":8634,"Ġprocure":8635,"deau":8636,"Ġchau":8637,"ĠprÃ©d":8638,"ĠEC":8639,"oyons":8640,"ĠgÃ©noci":8641,"Ġmines":8642,"Ġprofite":8643,"ĠprÃ©sidente":8644,"Ġdouze":8645,"Ã©dÃ©ration":8646,"ĠrÃ©uni":8647,"Ġfiables":8648,"ĠcompÃ©titive":8649,"Ġusine":8650,"Ġfigurent":8651,"Ġappuy":8652,"Ġlourde":8653,"Ġobligatoires":8654,"ĠdÃ©passer":8655,"ĠisraÃ©lien":8656,"Ġgrecque":8657,"ĠPourquoi":8658,"Ġvendredi":8659,"Ġenjeux":8660,"Ġsuggestions":8661,"ĠdÃ©barrasser":8662,"ĠGenÃ¨ve":8663,"Ġrecyclage":8664,"Ġenvergure":8665,"Contrairement":8666,"ĠfacilitÃ©":8667,"rapporteur":8668,"ĠHussein":8669,"NE":8670,"kin":8671,"ĠlevÃ©e":8672,"Ġbelles":8673,"all":8674,"Ġplas":8675,"Ġannoncer":8676,"Ġconcert":8677,"ĠRob":8678,"Ġautrefois":8679,"Ġconstitutionnelle":8680,"ĠKong":8681,"Ġverre":8682,"Ġsuffisantes":8683,"Ġglobalement":8684,"Ġpotentiels":8685,"ĠindÃ©pendamment":8686,"Ġencourageant":8687,"ĠArgenti":8688,"Ġvacc":8689,"Ġturc":8690,"Ġsoumises":8691,"pirer":8692,"Ġsitue":8693,"Ġunanime":8694,"Ġombre":8695,"rÃ©g":8696,"ĠÃ©puis":8697,"ĠÃ©tiez":8698,"tabil":8699,"ĠrÃ©tic":8700,"Ġchaud":8701,"cesseur":8702,"Ġimpri":8703,"ĠAsh":8704,"ĠStock":8705,"ĠdÃ©centra":8706,"ĠcrÃ©ant":8707,"ĠHol":8708,"ĠavancÃ©":8709,"Ġouverts":8710,"ĠcherchÃ©":8711,"ĠÃ©tudiÃ©":8712,"ĠprÃ©pare":8713,"Ġitalienne":8714,"Ġsauvegarde":8715,"ĠcomplÃ©mentaire":8716,"Ã©remment":8717,"Ġfournisseurs":8718,"ĠextrÃ©mistes":8719,"ĠXXI":8720,"four":8721,"Ġpages":8722,"Ġperception":8723,"Ġannuelle":8724,"ĠprÃ©sentes":8725,"ĠparticuliÃ¨res":8726,"olitique":8727,"ĠremarquÃ©":8728,"Ġgenres":8729,"ĠÃ©tablies":8730,"ĠautorisÃ©":8731,"Ġtrucs":8732,"ĠÃ©pidÃ©mie":8733,"ĠcrÃ©ativitÃ©":8734,"Ġembargo":8735,"ĠaustÃ©ritÃ©":8736,"Ġcuisine":8737,"ctique":8738,"niste":8739,"ty":8740,"xi":8741,"Ġlob":8742,"Ġnoire":8743,"ĠrÃ©ve":8744,"Ġhommage":8745,"Ġprouve":8746,"Ġtragique":8747,"onnÃ©es":8748,"ĠÃ©cos":8749,"vable":8750,"Ġcofin":8751,"Ġnoms":8752,"ĠFI":8753,"ĠFra":8754,"nistes":8755,"Ġvali":8756,"ĠinfÃ©rieur":8757,"ĠprÃ©vus":8758,"manche":8759,"Ġverte":8760,"Ġurgente":8761,"ĠprononcÃ©":8762,"Ġambitieuse":8763,"Ġclassique":8764,"ĠÃ©tonnant":8765,"ĠGeorge":8766,"Ġvieillissement":8767,"ĠGoogle":8768,"Ġexplicitement":8769,"Ġstyle":8770,"QuatriÃ¨mement":8771,"UE":8772,"nalitÃ©":8773,"oraires":8774,"Ġlance":8775,"inn":8776,"sives":8777,"ĠdÃ©Ã§":8778,"opie":8779,"ĠPo":8780,"ĠPer":8781,"Ġconclus":8782,"Ġrenf":8783,"Ġprogrammation":8784,"Ġbioc":8785,"ĠposÃ©es":8786,"Ġpoursuivi":8787,"ĠIslam":8788,"Ġopposants":8789,"ĠIsraÃ©liens":8790,"Ġtraditionnelle":8791,"Ġpartenariats":8792,"ĠlÃ©gitimes":8793,"ĠprÃ©parÃ©":8794,"Ġpermanence":8795,"Ġflexible":8796,"ĠdÃ©passÃ©":8797,"Ġajout":8798,"Ġapplicable":8799,"ukrain":8800,"ĠdÃ©ployÃ©s":8801,"ĠhypothÃ¨se":8802,"Ġfabricants":8803,"kh":8804,"Ġukrain":8805,"ores":8806,"Ġplait":8807,"ĠaidÃ©":8808,"ĠAz":8809,"onnements":8810,"ĠSan":8811,"Ġadmet":8812,"ĠpersÃ©cu":8813,"ĠÃ©vÃ¨":8814,"ĠconcernÃ©":8815,"Ġattendant":8816,"Ġgarantissant":8817,"ĠdÃ©pensÃ©":8818,"Ġfranchement":8819,"ĠÃ©lectrique":8820,"Ġhauts":8821,"ĠinquiÃ©tant":8822,"Ġmariage":8823,"Ġjouets":8824,"ĠsupÃ©rie":8825,"Ġreposer":8826,"Ġbrevet":8827,"Ġtruc":8828,"Ã©conomiques":8829,"ĠdÃ©gager":8830,"Ġlundi":8831,"bra":8832,"ĠpÃ¢":8833,"Ġennu":8834,"ĠdÃ©tes":8835,"Ġpartant":8836,"Ġserez":8837,"ĠrestÃ©":8838,"lera":8839,"amen":8840,"ĠÃ©volutions":8841,"Ġrepous":8842,"Ġaugmentent":8843,"Ġbizar":8844,"Ġlimitation":8845,"ĠexprimÃ©s":8846,"ĠWi":8847,"ĠrÃ©pondent":8848,"crip":8849,"ĠpossÃ©d":8850,"Ġasiatiques":8851,"Ġnormale":8852,"Ġappuie":8853,"ĠÃ©quivalent":8854,"Veuillez":8855,"Imag":8856,"bo":8857,"hol":8858,"entre":8859,"Ġcomposition":8860,"chez":8861,"ĠParce":8862,"Ġannonc":8863,"ĠGali":8864,"ĠlibÃ©rer":8865,"Ġdemandant":8866,"Ġapproches":8867,"Ġsoigne":8868,"Ġconsciente":8869,"ĠlÃ©gislatifs":8870,"Ġsuivie":8871,"Ġoccidental":8872,"Ġexceptions":8873,"ĠqualifiÃ©s":8874,"Ġnourrir":8875,"Ġenglob":8876,"Ġlettres":8877,"ĠsupÃ©rieure":8878,"ĠplacÃ©":8879,"Ġemprunter":8880,"Ġartistes":8881,"ĠAustra":8882,"Ġpluriann":8883,"Ġbiocarb":8884,"Pensez":8885,"car":8886,"gul":8887,"prÃ©sent":8888,"Ġpeau":8889,"Ġdedans":8890,"auca":8891,"ĠaimÃ©":8892,"tenue":8893,"Ġpartiellement":8894,"Ãªtements":8895,"Ġgravement":8896,"Ġimpliquant":8897,"ĠrespectÃ©s":8898,"Ġlogement":8899,"Ġsupervision":8900,"Ġdiplomatiques":8901,"ĠdÃ©placer":8902,"Ġintelligent":8903,"Ġrejoint":8904,"ĠArabie":8905,"ĠentamÃ©":8906,"ĠboÃ®te":8907,"Ġclub":8908,"rables":8909,"Ġpure":8910,"ĠdiffÃ©remment":8911,"Quels":8912,"Ã©nÃ©g":8913,"Ġ1992":8914,"Ġrendue":8915,"Ġconsultations":8916,"Ġminimales":8917,"Ġfruit":8918,"Ġfilms":8919,"Ġvisible":8920,"Ġintervenants":8921,"Ġirakien":8922,"Ġautomatiquement":8923,"ĠOSCE":8924,"fÃ©rer":8925,"ualitÃ©":8926,"ĠÃ©met":8927,"Ġinquie":8928,"Ġjoie":8929,"ĠrÃ©ac":8930,"ĠallÃ©s":8931,"Ġessai":8932,"Ġmalheure":8933,"ĠHaÃ¯":8934,"ĠpassÃ©s":8935,"ĠamÃ©liorÃ©":8936,"Ġbiologiques":8937,"Ġcommercialisation":8938,"ĠmodalitÃ©s":8939,"ĠassurÃ©":8940,"ĠrÃ©jouir":8941,"Ġsimultan":8942,"Ġautomobil":8943,"Ġtaxation":8944,"ĠultÃ©rieure":8945,"Ġdonateurs":8946,"ĠnÃ©glige":8947,"ĠAlbanie":8948,"ĠArgentine":8949,"IC":8950,"bol":8951,"Ġcite":8952,"Ġclon":8953,"Ġunie":8954,"ĠdÃ©ser":8955,"chnolo":8956,"Ġconsister":8957,"Ã©rap":8958,"videmment":8959,"ctent":8960,"ĠTim":8961,"ĠHU":8962,"Ġattendu":8963,"Ġmigration":8964,"ĠdÃ©finit":8965,"Ġdoulou":8966,"ĠÃ©lectriques":8967,"ĠinquiÃ©ter":8968,"Ġcalme":8969,"Ġboule":8970,"ĠÃ©ventail":8971,"Ġpousse":8972,"ĠquittÃ©":8973,"Ġstockage":8974,"Ġafricaine":8975,"Ġambassade":8976,"ĠÃ©lÃ¨ves":8977,"fa":8978,"ige":8979,"tige":8980,"Ġsombre":8981,"tari":8982,"ressent":8983,"Ġbille":8984,"ĠrÃ©elles":8985,"enser":8986,"ĠEl":8987,"Ġsoula":8988,"Ã©rents":8989,"Ġcertitude":8990,"ĠbeautÃ©":8991,"ĠJo":8992,"trices":8993,"ĠpassÃ©es":8994,"Ġindiff":8995,"ĠprÃ©caution":8996,"ĠdÃ©cid":8997,"Ġcheveux":8998,"Ġdoter":8999,"Ġfrag":9000,"ĠdÃ©fenseurs":9001,"Ġrichesses":9002,"Ġqualifications":9003,"Ġofficiellement":9004,"ĠirrÃ©gul":9005,"ĠmÃ©dicaux":9006,"Ġcensure":9007,"europÃ©ens":9008,"ĠmÃ©pris":9009,"Ġformidable":9010,"tance":9011,"inÃ©e":9012,"ĠmÃ¨res":9013,"ĠÃ©b":9014,"Ã¨vre":9015,"Ġpourpar":9016,"Ġpla":9017,"Ġexhaus":9018,"ĠPol":9019,"Ġrues":9020,"Ġcomptent":9021,"atoire":9022,"ago":9023,"alisÃ©es":9024,"anisme":9025,"vÃ©ni":9026,"ĠexprimÃ©e":9027,"Ġcompromet":9028,"ĠbÃ©nÃ©ficiÃ©":9029,"Ġroum":9030,"ĠrÃ©agi":9031,"ĠadÃ©quates":9032,"Ġstricte":9033,"Ġanalyses":9034,"ĠdiminuÃ©":9035,"ĠcomprÃ©hensible":9036,"Ġspec":9037,"Ġincapable":9038,"Ġchaleur":9039,"ĠCongo":9040,"Ġperformance":9041,"Ġfinancements":9042,"Ġdiscriminations":9043,"IDA":9044,"Ġpourparlers":9045,"Rapp":9046,"cisme":9047,"coni":9048,"den":9049,"ky":9050,"nons":9051,"Ġroi":9052,"Ġlente":9053,"Ġcuri":9054,"Ġclin":9055,"tais":9056,"Ġinad":9057,"ĠdÃ©loc":9058,"Ġbris":9059,"ĠPE":9060,"Ġration":9061,"orth":9062,"Ġanalo":9063,"Ġsoumet":9064,"ĠBara":9065,"ĠgarÃ§ons":9066,"angent":9067,"ĠamÃ©liorÃ©e":9068,"alib":9069,"ĠprÃ©cision":9070,"Ġvoler":9071,"ĠIndon":9072,"ĠcoordonnÃ©e":9073,"ĠprÃ©fÃ©rence":9074,"Ġprochainement":9075,"ĠconfrontÃ©":9076,"ĠapprÃ©ciation":9077,"Ġobliger":9078,"ĠobligÃ©":9079,"Ġpalestiniens":9080,"Ġpestici":9081,"ĠdÃ©crire":9082,"ĠÃ©cosyst":9083,"Ġbiocarburants":9084,"otiques":9085,"Ġpun":9086,"Ġlaissent":9087,"ĠrÃ©or":9088,"alise":9089,"Ġapparition":9090,"Ġdimanche":9091,"Ġserions":9092,"trÃ¶":9093,"Ġinconn":9094,"Ġinstitutionnelles":9095,"ĠdÃ©finies":9096,"Ġsecours":9097,"ĠimposÃ©":9098,"Ġvitale":9099,"ĠÃ©limin":9100,"ĠinÃ©vitablement":9101,"ĠCIG":9102,"ĠpÃ©ril":9103,"ĠcompÃ©tentes":9104,"trÃ¶m":9105,"ĠÃ©lan":9106,"riers":9107,"quemment":9108,"ĠfaÃ§":9109,"Ġmob":9110,"Ġmotif":9111,"ĠarmÃ©es":9112,"Ġarbres":9113,"Ġamie":9114,"ĠamÃ©n":9115,"ardin":9116,"ĠFa":9117,"ĠUEM":9118,"Ġconnaissez":9119,"Ġmira":9120,"Ġpensait":9121,"ĠrÃ©unir":9122,"Ġconcurrenti":9123,"ĠdisposÃ©s":9124,"ĠrÃ©vÃ¨le":9125,"ĠAnge":9126,"ĠmentionnÃ©s":9127,"Ġprofessionnel":9128,"Ġcontenues":9129,"ĠoccupÃ©":9130,"oudite":9131,"ĠtÃ©lÃ©phon":9132,"Ġinutiles":9133,"ĠÃ©voluÃ©":9134,"Ġcontraignant":9135,"Ġgrosses":9136,"Ġsaluons":9137,"Ġchemins":9138,"Ġchaussures":9139,"ĠDublin":9140,"Ġspectre":9141,"Ġscep":9142,"anou":9143,"ĠgÃ¨nes":9144,"ĠPat":9145,"Ġimpulsion":9146,"Ġconta":9147,"ĠBEI":9148,"ĠdÃ©plore":9149,"Ġabond":9150,"ĠOLAF":9151,"ĠÃ©voque":9152,"ĠcrÃ©Ã©e":9153,"locu":9154,"ĠÃ©chelon":9155,"ĠimpliquÃ©es":9156,"Ġdiriger":9157,"Ġaidera":9158,"ĠextÃ©rieurs":9159,"ĠapportÃ©es":9160,"Ġmajeures":9161,"Ġissus":9162,"Ġmachines":9163,"ĠintÃ©rim":9164,"Ġinclut":9165,"Ġhongroise":9166,"vienne":9167,"Ġpiliers":9168,"Ġpakistan":9169,"ĠvÃªtements":9170,"Ġaurez":9171,"veurs":9172,"Ġparvient":9173,"ĠredÃ©":9174,"Ġchir":9175,"utri":9176,"Ġvoulions":9177,"ĠdÃ©pense":9178,"Ġconnus":9179,"ĠtraitÃ©e":9180,"Ġfragile":9181,"Ġcinquante":9182,"Ġapportera":9183,"ĠautorisÃ©s":9184,"Ġcondamnation":9185,"Ġfaiblesses":9186,"Ġcarburant":9187,"Ġaggraver":9188,"Ġstupi":9189,"Ġmonopole":9190,"ĠtÃ©moigne":9191,"Ġflag":9192,"Ġdoigt":9193,"Ġmigrants":9194,"ĠrhÃ©torique":9195,"gÃ¨ne":9196,"ende":9197,"Ġtangi":9198,"Ġboire":9199,"auts":9200,"Ġexh":9201,"ĠprÃ´":9202,"ĠÃ©cran":9203,"ĠmanÅĵ":9204,"national":9205,"ĠHar":9206,"tisÃ©":9207,"ĠKen":9208,"Ġasc":9209,"ĠdÃ©cisive":9210,"ĠÃ©pous":9211,"ĠinvitÃ©s":9212,"ĠlÃ©gislature":9213,"ĠÃ©tablie":9214,"Ġrendus":9215,"Ġdispositif":9216,"Ġengendre":9217,"Ġmutuellement":9218,"Ġglace":9219,"ĠtempÃ©rature":9220,"Ġemmen":9221,"ĠprÃ©judice":9222,"holm":9223,"alibans":9224,"onction":9225,"ĠschÃ©":9226,"Ġfarde":9227,"ĠrÃ©alitÃ©s":9228,"Ġgagne":9229,"ĠCauca":9230,"ĠMi":9231,"ĠElles":9232,"sidents":9233,"vic":9234,"oca":9235,"ĠcoÃ¯n":9236,"Ġmettons":9237,"rances":9238,"Ġinfe":9239,"Ġsousc":9240,"ĠVal":9241,"Ġbio":9242,"ĠÃ©pau":9243,"Ġfavor":9244,"Ġexcuses":9245,"Ġinvitation":9246,"ĠarrÃªte":9247,"ĠprotÃ©ines":9248,"issez":9249,"Ġvenus":9250,"Ġhabitant":9251,"Ġ1989":9252,"Ġsatisfaisant":9253,"Ġperformances":9254,"Ġspectaculaire":9255,"Ġgrippe":9256,"ĠunilatÃ©rale":9257,"Ġsemblerait":9258,"Ġmineurs":9259,"Ġincidence":9260,"ĠÃ©preuve":9261,"Ġprovisoire":9262,"Ġbillets":9263,"urÃ©s":9264,"ope":9265,"Ġdurement":9266,"Ġfausse":9267,"Ġilli":9268,"Ġneur":9269,"ato":9270,"Ġinscrire":9271,"Ġalarm":9272,"ĠmillÃ©":9273,"Ġdifficilement":9274,"Ġcourir":9275,"Ġvols":9276,"Ġ45":9277,"Ġfragment":9278,"ĠchÃ´meurs":9279,"Ġkm":9280,"Ġexamine":9281,"ĠmÃ©dicament":9282,"ĠconformitÃ©":9283,"Ġdemeurent":9284,"Ġexaminons":9285,"Ġmobilisation":9286,"Ġincroyablement":9287,"Ġsentent":9288,"ĠrÃ©clame":9289,"ĠprÃ©sidentielles":9290,"Ġenseignants":9291,"ĠinconvÃ©ni":9292,"Ġabolition":9293,"ĠOCDE":9294,"Ġfantas":9295,"ĠNoÃ«l":9296,"ĠparallÃ¨le":9297,"ĠprouvÃ©":9298,"oscou":9299,"Ġinadmis":9300,"ĠCaucase":9301,"dite":9302,"mil":9303,"sen":9304,"ĠdÃ©tention":9305,"ĠgÃª":9306,"Ġavent":9307,"terr":9308,"ĠÃ©cras":9309,"Ġarra":9310,"Ġviendra":9311,"ĠrÃ©sister":9312,"ĠOh":9313,"Ġrendement":9314,"ĠgÃ©nÃ©rer":9315,"ĠconfÃ©rences":9316,"ĠÃ©gyp":9317,"Ġenfre":9318,"Ġ37":9319,"ĠspÃ©cu":9320,"Ġtransposition":9321,"Ġtentent":9322,"Ġtraverser":9323,"ĠroutiÃ¨re":9324,"Ġapparten":9325,"ĠreÃ§oit":9326,"Ġmaritimes":9327,"Ġimagination":9328,"ĠacquÃ©rir":9329,"Ġprofessionnelles":9330,"Ġtoile":9331,"Ġraisonnables":9332,"Ġintelligente":9333,"Ġdynam":9334,"Ġturque":9335,"Ġdramatique":9336,"ĠmÃ©dicale":9337,"Ġdissua":9338,"Ġaccompagner":9339,"Ġsuggestion":9340,"Ġoptimiste":9341,"Ġportugaise":9342,"ĠmathÃ©matiques":9343,"ĠÃ©toiles":9344,"ĠAustralie":9345,"ĠIndonÃ©sie":9346,"nels":9347,"cessible":9348,"pel":9349,"Ġconsistant":9350,"ĠEU":9351,"ĠnÃ©fas":9352,"Ġatom":9353,"agement":9354,"Ġcomprenons":9355,"ĠrÃ©duits":9356,"Ġ32":9357,"Ġsignification":9358,"Ġvoyager":9359,"Ġsuscite":9360,"ĠprotÃ©gÃ©s":9361,"Ġtraditionnelles":9362,"ignent":9363,"ĠaÃ©riens":9364,"ĠexposÃ©s":9365,"ĠCamb":9366,"Ġiranien":9367,"ĠrÃ©munÃ©ration":9368,"Ġannexe":9369,"ĠcompÃ©tente":9370,"Ġtextile":9371,"Ġtremblement":9372,"yde":9373,"anz":9374,"Ġenra":9375,"ĠdÃ©rÃ©g":9376,"terie":9377,"ĠprÃ©mat":9378,"ĠsiÃ¨ges":9379,"Ġcam":9380,"ĠSIDA":9381,"ĠdÃ©coura":9382,"Ġcommunisme":9383,"Ġtransmission":9384,"Ġgouverne":9385,"ĠNouve":9386,"Ġmentionne":9387,"tissent":9388,"ĠdiscrÃ©":9389,"Ġnaturels":9390,"ĠtraitÃ©es":9391,"Ġstruct":9392,"Ġmajor":9393,"Ġobserve":9394,"Ġaffirmation":9395,"ĠPaci":9396,"ĠSchul":9397,"ĠprÃ©servation":9398,"Trois":9399,"Ġbalance":9400,"Ġradicale":9401,"ĠlimitÃ©es":9402,"Ġhiver":9403,"ĠlittÃ©ralement":9404,"armement":9405,"ĠColombie":9406,"Ã©taire":9407,"illent":9408,"ĠÃ©ter":9409,"Ã¨tent":9410,"tatif":9411,"Ġconcessions":9412,"oly":9413,"ĠSal":9414,"ctorie":9415,"gurer":9416,"ĠcrÃ©ent":9417,"Ġchaos":9418,"Ã¢tre":9419,"Ġsuici":9420,"Ġnotation":9421,"Ġexcuse":9422,"Ġfid":9423,"ĠÃ©quip":9424,"Ġcontemp":9425,"ĠÃ©labor":9426,"Ġassurances":9427,"ĠlÃ©gal":9428,"ĠimmunitÃ©":9429,"ĠÃ©quipement":9430,"ĠfrÃ©quemment":9431,"ĠÃ©chÃ©ant":9432,"Ġnormalement":9433,"ĠgÃ©nocide":9434,"ĠStockholm":9435,"Ġfar":9436,"Ġvag":9437,"tabilitÃ©":9438,"Ġbaiss":9439,"ĠPas":9440,"Ġtouchent":9441,"oise":9442,"itement":9443,"Ġexpress":9444,"ĠFR":9445,"ĠpremiÃ¨rement":9446,"Ġconstitutionnelles":9447,"Ġindustrielles":9448,"Ġtraditionnels":9449,"Ġconsulter":9450,"ĠvÃ©tÃ©":9451,"Ġtranqu":9452,"berg":9453,"ĠdÃ©terminÃ©e":9454,"Ġaffecter":9455,"ĠAtlantique":9456,"ĠfenÃªtre":9457,"Ġpesticides":9458,"Vu":9459,"sun":9460,"Ġdin":9461,"Ġlistes":9462,"tablement":9463,"lique":9464,"Ġinti":9465,"ĠcomitÃ©s":9466,"Ġexact":9467,"ĠMoscou":9468,"ĠEx":9469,"Ã§ait":9470,"ĠrÃ©parer":9471,"ĠNÃ©":9472,"ĠfondÃ©es":9473,"ĠdÃ©sin":9474,"Ġpharmaceu":9475,"Ġverts":9476,"ĠimpliquÃ©":9477,"Ġvenait":9478,"ĠrÃ©jouissons":9479,"Ġsouffrances":9480,"ĠcontinuitÃ©":9481,"ĠdÃ©licat":9482,"Ġcirconscription":9483,"Ġvaloir":9484,"ĠapportÃ©e":9485,"ĠdÃ©terminant":9486,"Ġappareils":9487,"ĠcoÃ»teux":9488,"Ġincapables":9489,"ĠsÃ©vÃ¨res":9490,"Ġfourniture":9491,"onyme":9492,"ĠdÃ©cideurs":9493,"Ġcombinaison":9494,"Ġbleu":9495,"ĠbrÃ¨ve":9496,"ĠriviÃ¨re":9497,"ĠHaÃ¯ti":9498,"ĠÅ":9499,"ĠsphÃ¨re":9500,"ura":9501,"Ġfoc":9502,"endrai":9503,"Ġcommises":9504,"Ġcomporter":9505,"Ġallu":9506,"isibles":9507,"osevic":9508,"Ġclasses":9509,"Ġincitations":9510,"Ġconstituera":9511,"miser":9512,"ĠlancÃ©e":9513,"ĠJean":9514,"Ġappellent":9515,"Ġcoupables":9516,"haÃ¯":9517,"Ġentendons":9518,"ĠappropriÃ©s":9519,"ĠdÃ©couverte":9520,"ĠpayÃ©":9521,"ĠcohÃ©rent":9522,"ĠconsidÃ©rÃ©es":9523,"Ġapportent":9524,"olat":9525,"Ġdissim":9526,"ld":9527,"yl":9528,"ĠÃ©lo":9529,"Ġboute":9530,"ĠPaul":9531,"Ġarbre":9532,"Ġallais":9533,"ĠLT":9534,"ĠdiffÃ©renci":9535,"ĠChili":9536,"stan":9537,"ovis":9538,"Ġ1993":9539,"Ġjuridiquement":9540,"ĠdisposÃ©e":9541,"Ġfiable":9542,"Ġmalades":9543,"Ġparfaite":9544,"ĠcontinuÃ©":9545,"Ġ250":9546,"Ġratifier":9547,"ĠillÃ©gal":9548,"Ġcellule":9549,"Ġvirtu":9550,"ĠMalte":9551,"Ġaudiovis":9552,"Ġmodeste":9553,"ĠdÃ©boucher":9554,"Ġsoigneusement":9555,"bÃ©ra":9556,"Ġcu":9557,"quants":9558,"uste":9559,"Ġing":9560,"Ġprovient":9561,"Ġnette":9562,"dien":9563,"ĠMÃ©di":9564,"Ġconcours":9565,"ĠSin":9566,"ĠOK":9567,"guÃ©s":9568,"ĠFer":9569,"Ġrigi":9570,"Ġenfance":9571,"Ġmidi":9572,"ĠbÃ©nÃ©fique":9573,"Ġimpliquent":9574,"Ġinvo":9575,"ĠdisposÃ©":9576,"ĠrÃ©glementer":9577,"Ġadministrations":9578,"Ġcontinuerons":9579,"Ġmusi":9580,"ĠtombÃ©":9581,"Ġexposer":9582,"Ġapparaissent":9583,"ĠrequÃªte":9584,"Ġfossiles":9585,"ĠBiÃ©lor":9586,"Ġmorceau":9587,"ĠSchulz":9588,"ja":9589,"tiver":9590,"ĠvÅĵ":9591,"Ġregistre":9592,"Ġavorte":9593,"Ġadore":9594,"Ġjusque":9595,"ĠFor":9596,"ĠNor":9597,"Ġsoutiendra":9598,"ĠKre":9599,"Ġgraph":9600,"ĠÃ©quitables":9601,"Ġpubliquement":9602,"ĠÃ©checs":9603,"Ġpira":9604,"Ġfrappe":9605,"ĠpropriÃ©taires":9606,"Ġhorizont":9607,"Ġmunicip":9608,"Ġfardeau":9609,"Ġintimi":9610,"eusement":9611,"Ġdor":9612,"ource":9613,"ĠgoÃ»t":9614,"Ġmoteurs":9615,"Ġconse":9616,"ĠBang":9617,"ĠSw":9618,"Ġcommunistes":9619,"ĠRo":9620,"Ġtransmet":9621,"Ġjustes":9622,"Ġrecouv":9623,"Ġrecord":9624,"Ġrendez":9625,"ĠGar":9626,"Ġremont":9627,"Ġgeste":9628,"Ġtransparent":9629,"Ġconfrontation":9630,"Ġintense":9631,"ĠpoussÃ©":9632,"ĠdÃ©roule":9633,"Ġinsuffisant":9634,"ĠinÃ©galitÃ©":9635,"Ġclos":9636,"ĠNigeria":9637,"ĠXXIe":9638,"criptions":9639,"ĠirrÃ©gularitÃ©s":9640,"gan":9641,"ĠlaÃ¯":9642,"ĠflÃ©":9643,"taux":9644,"Ġparent":9645,"ĠCali":9646,"Ġdic":9647,"Ġpermette":9648,"Ġadoles":9649,"ctoires":9650,"ĠdÃ©mant":9651,"Ġtienne":9652,"ĠNob":9653,"ĠLan":9654,"ĠreprÃ©sentÃ©":9655,"Ġpluie":9656,"ĠÃ©cho":9657,"ĠnÃ©gociÃ©":9658,"ĠprÃ©val":9659,"ĠÃ©touff":9660,"Ġoriental":9661,"Ġapparu":9662,"Ġcomparer":9663,"Ġdistinguer":9664,"ĠreflÃ¨tent":9665,"Ġuniverselle":9666,"Ġweek":9667,"Ġavocats":9668,"Ġindemnis":9669,"Ġlinguistique":9670,"ĠPacifique":9671,"Al":9672,"mise":9673,"Ġinje":9674,"ars":9675,"Ġproxim":9676,"Ġdumping":9677,"Ġfaille":9678,"dions":9679,"ĠprÃ©dÃ©":9680,"Ġparticipe":9681,"Ġparticules":9682,"Ġnationalisme":9683,"Ġ195":9684,"ĠdÃ©sarmement":9685,"ĠparallÃ¨lement":9686,"aye":9687,"ĠrÃ©clam":9688,"Ġouvertes":9689,"ĠmodifiÃ©s":9690,"Ġentraver":9691,"Ġfiers":9692,"linton":9693,"Ġroutier":9694,"ĠgÃ©op":9695,"ĠrÃ©flexions":9696,"ĠprÃ©tendre":9697,"otechnolo":9698,"Ġdescend":9699,"Ġinfractions":9700,"Ġpoursuites":9701,"Ġexternes":9702,"ĠenregistrÃ©":9703,"ĠdÃ©rivÃ©s":9704,"Ġramener":9705,"ĠmÃ©lange":9706,"ĠDarfour":9707,"ĠInstitut":9708,"TrÃ¨s":9709,"nan":9710,"zi":9711,"zÃ©g":9712,"Ġdorm":9713,"ontiers":9714,"Ġtardi":9715,"ĠprolifÃ©ration":9716,"Ġox":9717,"Ġcacher":9718,"ĠentrÃ©":9719,"Ġouest":9720,"abit":9721,"Ġinstances":9722,"ĠviabilitÃ©":9723,"Ġdiffus":9724,"ĠTe":9725,"Ġrigueur":9726,"ĠdÃ©fait":9727,"ĠdÃ©fauts":9728,"ĠacceptÃ©e":9729,"Ġprogression":9730,"Ġressource":9731,"Ġvolontiers":9732,"Ġfuite":9733,"ĠdÃ©terminÃ©":9734,"ĠtolÃ©rer":9735,"ĠterminÃ©e":9736,"ĠThe":9737,"produ":9738,"ĠcÃ©rÃ©ales":9739,"Ġidentique":9740,"ĠambiguÃ¯":9741,"Ġrubrique":9742,"ĠproximitÃ©":9743,"zÃ©govine":9744,"ensive":9745,"onale":9746,"itch":9747,"Ġparlait":9748,"Ġjardin":9749,"ciens":9750,"Ġcommande":9751,"isses":9752,"ĠSK":9753,"ĠallÃ©e":9754,"ĠrÃ©solue":9755,"ĠmanquÃ©":9756,"assent":9757,"calement":9758,"ĠrÃ©para":9759,"Ġincitation":9760,"Ġinfir":9761,"thÃ¨se":9762,"ĠdÃ©stabil":9763,"ĠfonctionnÃ©":9764,"ĠchargÃ©e":9765,"Ġcontinueront":9766,"Ġretomb":9767,"ĠobligÃ©s":9768,"ĠassociÃ©":9769,"Ġopposent":9770,"Ġbouche":9771,"ĠpÃ©nurie":9772,"Ġstrictement":9773,"ĠÃ©lite":9774,"Ġallemands":9775,"ĠcausÃ©":9776,"Ġaudition":9777,"Ġstipule":9778,"ĠMilosevic":9779,"ArrÃª":9780,"Ġoctroyer":9781,"Durant":9782,"cal":9783,"kov":9784,"pour":9785,"thÃ©":9786,"uf":9787,"Ġdents":9788,"Ġeut":9789,"ĠnÃ´tre":9790,"leo":9791,"Ġillusion":9792,"Ġretenir":9793,"lateur":9794,"ĠAss":9795,"Ġadmi":9796,"Ġmanquent":9797,"ĠmÃ©cont":9798,"Ġpublier":9799,"Ġmaintenu":9800,"ĠÃ©quipes":9801,"ĠintÃ©ressÃ©s":9802,"Ġ95":9803,"ĠdÃ©finitif":9804,"Ġvenant":9805,"ĠMarie":9806,"Ġusines":9807,"ĠapprÃ©ciÃ©":9808,"visions":9809,"Ġsexes":9810,"ĠformulÃ©":9811,"ĠrÃ©tablissement":9812,"Ġarmement":9813,"Ġexplosion":9814,"Ġsouples":9815,"ĠÃ©radiquer":9816,"Ġincendies":9817,"ĠattÃ©n":9818,"NEW":9819,"ĠexpressÃ©ment":9820,"ĠCalifor":9821,"ĠdÃ©mantÃ¨lement":9822,"Dem":9823,"ks":9824,"wa":9825,"oux":9826,"Ġquart":9827,"ĠÃĢ":9828,"ĠdÃ©tenus":9829,"Ġneige":9830,"Ġaccessible":9831,"Ġhaine":9832,"Ã¨ses":9833,"ĠantÃ©":9834,"ĠAlors":9835,"Ġpuissante":9836,"agÃ©":9837,"Ġinsul":9838,"ĠBo":9839,"ĠallÃ©g":9840,"ĠdÃ©pression":9841,"Ġdisprop":9842,"ĠlÃ©gu":9843,"Ġconnues":9844,"Ġpersonnels":9845,"Ġabsolu":9846,"Ġportable":9847,"ĠcompÃ©tition":9848,"Ġsanitaires":9849,"Ġoccidentales":9850,"Ġoblige":9851,"ĠÃ©ventuelles":9852,"ĠdÃ©marches":9853,"Ġlourds":9854,"Ġcouvert":9855,"Ġfabriquer":9856,"ĠpersonnalitÃ©":9857,"Ġvivants":9858,"ĠTibet":9859,"ĠdÃ©loy":9860,"Ġvolati":9861,"ĠNobel":9862,"Ġdispropor":9863,"Face":9864,"Ã©le":9865,"Ġpires":9866,"ĠstÃ©":9867,"urdes":9868,"Ġtun":9869,"Ġjur":9870,"Ġcong":9871,"ĠClinton":9872,"ĠexcÃ¨s":9873,"Ãªtres":9874,"iet":9875,"ĠtraÃ®":9876,"Ġassoup":9877,"ĠDu":9878,"Ġbiotechnolo":9879,"Ġsignaux":9880,"Ġfamine":9881,"Ġcoups":9882,"ĠregardÃ©":9883,"ĠattirÃ©":9884,"Ġacquisi":9885,"Ġparagraphes":9886,"Ġremplacement":9887,"ĠcÃ©der":9888,"ĠfÃ©dÃ©ral":9889,"Ġsubstantielle":9890,"ĠstupÃ©":9891,"Ġphysiques":9892,"10":9893,"lys":9894,"ussie":9895,"ressions":9896,"nelles":9897,"Ġexerce":9898,"ĠprÃ©par":9899,"Ġtraverse":9900,"Ġcontenir":9901,"ĠApp":9902,"Ġvolet":9903,"Ġnier":9904,"Ġraisonnement":9905,"ĠmisÃ¨re":9906,"ronique":9907,"Ġinno":9908,"ĠlÃ©gÃ¨re":9909,"Ġordinaire":9910,"ĠMartin":9911,"Ġofficiel":9912,"Ġofficielles":9913,"ĠdÃ©veloppÃ©e":9914,"Ġoccupent":9915,"Ġinstaller":9916,"Ġrapprochement":9917,"ĠisraÃ©lienne":9918,"Ġinsuffisante":9919,"ĠdisparitÃ©s":9920,"Ġsympathie":9921,"ĠDavid":9922,"Ġsoudaine":9923,"Ġidentiques":9924,"Ġautrichienne":9925,"ĠDÃ©mocrates":9926,"ĠrÃ©cupÃ©rer":9927,"ĠPÃ©kin":9928,"Su":9929,"ĠâĢĻ":9930,"tein":9931,"Ġaudit":9932,"ney":9933,"Ġchangent":9934,"mide":9935,"tins":9936,"ĠopÃ©rer":9937,"Ġclauses":9938,"ĠKara":9939,"Ġenfer":9940,"Ã©rÃ©ment":9941,"ĠindustrialisÃ©s":9942,"Ġbouger":9943,"Ġboulot":9944,"Ġparlez":9945,"Ġindividuelle":9946,"Ġsecondaire":9947,"Ġlourd":9948,"ĠALDE":9949,"ĠprÃ©sidentielle":9950,"Ġoptimisme":9951,"ĠagrÃ©able":9952,"Ġaspirations":9953,"ĠrÃ©sumer":9954,"ĠdÃ©cisionnel":9955,"Ġrattra":9956,"Ġmagasin":9957,"ĠAshton":9958,"ĠBiÃ©lorussie":9959,"pture":9960,"za":9961,"Ġpur":9962,"chen":9963,"Ġgl":9964,"Ġgare":9965,"ĠComme":9966,"Ġira":9967,"Ġminuti":9968,"Ġmalent":9969,"Ġvieilles":9970,"ĠfermÃ©":9971,"ĠreprÃ©senta":9972,"Parfois":9973,"Ġsuivent":9974,"ĠspÃ©culation":9975,"ĠmodifiÃ©e":9976,"Ġproprement":9977,"Ġportefeu":9978,"ĠtrouvÃ©e":9979,"Ġpoursuivent":9980,"ĠprÃ©occupÃ©s":9981,"Ġproviennent":9982,"ĠabandonnÃ©":9983,"ĠapprouvÃ©e":9984,"ĠphÃ©nomÃ¨nes":9985,"Ġbureaucratique":9986,"Ġultime":9987,"Ġfascin":9988,"ĠdÃ©coule":9989,"Ġmagaz":9990,"ĠprogressÃ©":9991,"Ġridicule":9992,"ĠxÃ©nophobie":9993,"Imaginez":9994,"Ca":9995,"traient":9996,"ertes":9997,"Ġmyth":9998,"Ġfili":9999,"Ġenva":10000,"tales":10001,"tains":10002,"ĠdÃ©lÃ©":10003,"eugen":10004,"ĠinsÃ©curitÃ©":10005,"Ġcoex":10006,"ĠSE":10007,"ĠdÃ©clar":10008,"Ġannuels":10009,"ting":10010,"ĠChar":10011,"Ġferais":10012,"Ġabstenir":10013,"ronte":10014,"ĠAfric":10015,"ĠencouragÃ©":10016,"Ġrevue":10017,"Ġidentification":10018,"ĠqualifiÃ©":10019,"ĠsoulevÃ©es":10020,"Ġinacceptables":10021,"ĠdÃ©veloppÃ©es":10022,"Ġafghan":10023,"Ġescomp":10024,"Ġretraites":10025,"ĠaÃ©roport":10026,"Ġennemis":10027,"ĠdÃ©rogation":10028,"ĠVerheugen":10029,"Ġautomobiles":10030,"ĠMÃ©diateur":10031,"Bre":10032,"IE":10033,"jan":10034,"kel":10035,"yo":10036,"ĠcitÃ©":10037,"Ġinse":10038,"Ġparlant":10039,"Ġfacul":10040,"Ġcontenant":10041,"Leurs":10042,"Ġsache":10043,"atoires":10044,"Ġallaient":10045,"osex":10046,"ĠOs":10047,"ĠGal":10048,"ĠjugÃ©":10049,"rÃ©sor":10050,"ĠbasÃ©es":10051,"ĠfÃ©licitons":10052,"ĠÃ©tendu":10053,"ĠLet":10054,"Ġpassera":10055,"ĠrÃ©servÃ©":10056,"Ġdessin":10057,"Ġsanitaire":10058,"Ġfumer":10059,"ĠvÃ©lo":10060,"Ġexemption":10061,"Ġrenouvelable":10062,"Ġstrict":10063,"Ãīvidemment":10064,"ĠvÃ©rification":10065,"ĠÃ©thiques":10066,"Ġsymbole":10067,"ĠchaÃ®nes":10068,"Ġsympt":10069,"Ġhorizon":10070,"Ġprivatisation":10071,"ĠCalifornie":10072,"Ġalig":10073,"Ġnager":10074,"Ġlaissant":10075,"ĠÃĩa":10076,"Ġfe":10077,"Ġincident":10078,"Ġfame":10079,"Ġsemestre":10080,"dir":10081,"ĠtouchÃ©es":10082,"ĠBritan":10083,"Ġforment":10084,"Ġreport":10085,"Ġadoptant":10086,"ĠvariÃ©":10087,"Ġinstitutionnels":10088,"ĠrÃ©alisÃ©e":10089,"Ġpromette":10090,"Ġprisons":10091,"Ġactionnaires":10092,"ĠÃ©quitÃ©":10093,"Ġvoyages":10094,"Ġrespectant":10095,"Ġvolontaires":10096,"Ġorale":10097,"ĠdÃ©liv":10098,"Ġterreur":10099,"Ġjoueurs":10100,"Ġpopulaires":10101,"ĠdÃ©place":10102,"Chers":10103,"ĠrÃ©vÃ©ler":10104,"Ġaccusations":10105,"Ġcompenser":10106,"Ġflot":10107,"Prenons":10108,"ĠÃ©tablissements":10109,"Ġreconnaissent":10110,"Ġassassinat":10111,"finiment":10112,"ĠcamÃ©ra":10113,"ms":10114,"ession":10115,"Ġbor":10116,"Ġgala":10117,"ĠcongÃ©":10118,"Ġcontiennent":10119,"deur":10120,"ĠPD":10121,"ĠPES":10122,"ĠMus":10123,"Ġpaysage":10124,"Ġdirectes":10125,"Ġagissent":10126,"ĠsÃ©qu":10127,"ĠprÃ©sentant":10128,"ĠDel":10129,"ĠnÃ©cessiter":10130,"Ġrepas":10131,"Ġaucuns":10132,"ĠJa":10133,"ĠJour":10134,"Ġdemandez":10135,"Ġacceptables":10136,"ĠrÃ©alisÃ©es":10137,"ĠprÃ©voient":10138,"ypri":10139,"ĠÃ¢me":10140,"ĠintÃ©grÃ©s":10141,"Ġembry":10142,"Ġharmonie":10143,"Ġparvenue":10144,"Ġsuperfici":10145,"ĠhÃ©ros":10146,"Ġcraindre":10147,"Ġ1970":10148,"Seule":10149,"ĠliquiditÃ©s":10150,"ĠdÃ©sesp":10151,"Ġcontenus":10152,"rompu":10153,"Ġquartier":10154,"ĠSolana":10155,"Ġennuy":10156,"Ġoxy":10157,"Ġdisproportion":10158,"Sous":10159,"eaux":10160,"ĠdÃ®ner":10161,"tienne":10162,"ortÃ©s":10163,"Ġcath":10164,"andes":10165,"Ġcontour":10166,"ĠdÃ©pendra":10167,"ĠRoth":10168,"Ġchamps":10169,"Ġbiologie":10170,"ĠdÃ©finie":10171,"Ġjustification":10172,"Ġfictifs":10173,"ĠÃ©tudie":10174,"monie":10175,"Ġfavorablement":10176,"ĠMary":10177,"Ġfournissent":10178,"ĠdÃ©truit":10179,"ĠvÃ©hicule":10180,"ĠrÃ©fÃ©rendums":10181,"Ġaffaiblir":10182,"ĠenvisagÃ©":10183,"Ġautonome":10184,"ĠocÃ©ans":10185,"Ġfondements":10186,"Ã³n":10187,"ĠGolfe":10188,"ĠBarack":10189,"ĠattÃ©nuer":10190,"Cin":10191,"atre":10192,"mo":10193,"Ġoly":10194,"Ġsomb":10195,"ourant":10196,"olf":10197,"Ãªtement":10198,"Ġconstant":10199,"Ġentrent":10200,"ĠprobabilitÃ©":10201,"umÃ©e":10202,"Ġespaces":10203,"ĠGUE":10204,"Ġaffich":10205,"ĠÃ©conomiquement":10206,"Ġacceptent":10207,"Ġacceptation":10208,"Ġnordi":10209,"Ġfigurer":10210,"Ġ65":10211,"Ġesprits":10212,"Ġoublie":10213,"Ġexistante":10214,"Ġarrivera":10215,"ĠsoulevÃ©e":10216,"Ġofficiels":10217,"ĠÃ©lectoral":10218,"ĠaccusÃ©":10219,"ĠhÃ´tel":10220,"ĠaffectÃ©s":10221,"ĠmÃ©dical":10222,"ĠrÃ©diger":10223,"Ġhomosex":10224,"Ġconjointement":10225,"Ġcritiquer":10226,"dÃ©mocra":10227,"Ġavocat":10228,"ĠperpÃ©tu":10229,"Ġinadmissible":10230,"Ġolymp":10231,"oÃ¯s":10232,"rise":10233,"ulaire":10234,"ĠlÃ¢":10235,"isti":10236,"Ġmous":10237,"rira":10238,"Ġbra":10239,"chait":10240,"Ġvigou":10241,"Ġperdent":10242,"ĠintÃ©resser":10243,"Ġaccordent":10244,"Ġimmin":10245,"Ġciga":10246,"ezbol":10247,"ĠHezbol":10248,"Ġapprend":10249,"Ġjuges":10250,"ĠcommenÃ§ons":10251,"Ġchiens":10252,"Ġcoupable":10253,"Ġprofesseurs":10254,"Ġcandidature":10255,"Ġmanifestation":10256,"Ġprovoque":10257,"ĠlÃ©gales":10258,"Ġasiatique":10259,"ĠidÃ©ologique":10260,"ĠillÃ©gaux":10261,"Ġredist":10262,"Ġvaccin":10263,"ĠhÃ´pitaux":10264,"ĠmÃ©diterranÃ©enne":10265,"ĠÃīcosse":10266,"omalie":10267,"Ġdioxyde":10268,"Ġbizarre":10269,"Ġgalax":10270,"ĠHezbollah":10271,"ev":10272,"grÃ©s":10273,"mÃ¨tres":10274,"encer":10275,"ourv":10276,"ĠingrÃ©":10277,"Ġnet":10278,"ander":10279,"Ġdirait":10280,"vatoire":10281,"ĠSta":10282,"ĠSanter":10283,"ĠdÃ©pourv":10284,"ĠFed":10285,"Ġcardia":10286,"Pourriez":10287,"Ġfondations":10288,"Ġrisquer":10289,"Ġnullement":10290,"Ġoffres":10291,"Ġ1991":10292,"Ġattache":10293,"ĠthÃ©rap":10294,"ĠeffectuÃ©s":10295,"atrice":10296,"ĠÃ©merge":10297,"Ġcarburants":10298,"Ġmaximale":10299,"ĠMonti":10300,"ĠdÃ©lits":10301,"ĠprotÃ¨ge":10302,"Ġlaboratoire":10303,"ĠbibliothÃ¨que":10304,"ĠGalileo":10305,"ĠingrÃ©di":10306,"ide":10307,"olement":10308,"Ġtac":10309,"Ġenveloppe":10310,"Ġbai":10311,"Ġbombe":10312,"oiement":10313,"Ġsectorie":10314,"Ġaccue":10315,"acte":10316,"Ġinterpr":10317,"ĠSain":10318,"ĠÂ°":10319,"Ã®tra":10320,"ĠNa":10321,"ĠdÃ©fendu":10322,"ĠrÃ©duisant":10323,"Ġpassait":10324,"Ġinitialement":10325,"othÃ©":10326,"ĠindÃ©ni":10327,"Ġexclus":10328,"ĠrespectÃ©es":10329,"ĠopposÃ©e":10330,"Ġjournaliste":10331,"Ġsols":10332,"ĠMah":10333,"ĠmusÃ©e":10334,"Ġrelevant":10335,"ĠProche":10336,"Ġcerveaux":10337,"ĠrÃªves":10338,"Ġjaponaise":10339,"Ġpropagande":10340,"Ġlogiciels":10341,"ĠÃ©tablissant":10342,"Ġparviendrons":10343,"ĠFisch":10344,"Ġfavorise":10345,"endez":10346,"inture":10347,"ĠdÃ©du":10348,"ĠgrÃ©":10349,"ĠPap":10350,"Ġrestant":10351,"Ã´les":10352,"ĠBol":10353,"listes":10354,"ĠrÃ©par":10355,"ĠprÃ©sentera":10356,"formÃ©ment":10357,"ĠHist":10358,"ĠÃ©nergique":10359,"Ġprofil":10360,"vÃ©nie":10361,"Ġtap":10362,"ĠextrÃªmes":10363,"ĠdÃ©finitivement":10364,"Ġmanifester":10365,"ĠAlg":10366,"ĠsixiÃ¨me":10367,"Ġdiminue":10368,"Ġexceptionnelle":10369,"ĠpartagÃ©":10370,"ĠprÃ©paratifs":10371,"Ġvastes":10372,"ĠInternational":10373,"ĠoccupÃ©s":10374,"ĠprospÃ¨re":10375,"Ġcontraignante":10376,"ĠSlovÃ©nie":10377,"Ġgrimp":10378,"ĠsuggÃ©rÃ©":10379,"Ġhongrois":10380,"Ġplastique":10381,"Ġavortement":10382,"ĠlÃ©gumes":10383,"Ac":10384,"CO":10385,"cence":10386,"lante":10387,"wn":10388,"Ġais":10389,"Ġaxe":10390,"Ġcub":10391,"Ġtsun":10392,"illement":10393,"Ġconformer":10394,"Ġravie":10395,"ĠprÃ©co":10396,"aites":10397,"aiwan":10398,"ĠBien":10399,"ĠrÃ©solument":10400,"Ġtransnation":10401,"gnÃ©s":10402,"Ġproduite":10403,"ĠmÃ©fi":10404,"ĠnÃ©cessitent":10405,"ĠÃ©lever":10406,"Ġminor":10407,"Ġcommenter":10408,"Ġinitial":10409,"ĠspÃ©cific":10410,"Ġverrez":10411,"ĠcÃ´tes":10412,"Ġlarges":10413,"Ġcheval":10414,"Ġexcuser":10415,"ĠdirigÃ©":10416,"Ġmercre":10417,"ĠrencontrÃ©s":10418,"ĠgÃ©ni":10419,"Ã©valu":10420,"ĠrejetÃ©e":10421,"ĠEstonie":10422,"Ġreligions":10423,"ĠfrÃ¨res":10424,"Ġtypique":10425,"Ġfoule":10426,"Ã¡n":10427,"Ġbloquer":10428,"ĠpÃªcher":10429,"Ġsatellite":10430,"ĠdÃ©licate":10431,"ĠingÃ©nieurs":10432,"Regardez":10433,"Ġmercredi":10434,"ctÃ©s":10435,"inaires":10436,"rad":10437,"liers":10438,"Ġbovine":10439,"Ġaigu":10440,"ĠmangÃ©":10441,"Ġriv":10442,"Ġnuire":10443,"ĠspÃ©ciaux":10444,"Ġremonte":10445,"ĠjustifiÃ©e":10446,"Ġchimique":10447,"Ġfranc":10448,"ĠfiÃ¨vre":10449,"ĠintÃ©ressÃ©":10450,"ĠlibÃ©rale":10451,"ĠvÃ©gÃ©":10452,"Ġemployer":10453,"Ġrequis":10454,"ĠdÃ©lÃ©gations":10455,"Ġnavigation":10456,"Ġcontraints":10457,"Ġislamistes":10458,"Ġressembler":10459,"Ġexterne":10460,"Ġrobot":10461,"Ġroman":10462,"ĠÃ©radication":10463,"ĠpersuadÃ©":10464,"ĠÃ©quivoque":10465,"Ġnavire":10466,"Ġcofinancement":10467,"ĠPatten":10468,"ĠmillÃ©naire":10469,"GL":10470,"ataires":10471,"denti":10472,"dox":10473,"gre":10474,"Ġ$":10475,"Ġroy":10476,"rov":10477,"ĠdÃ©Ã§u":10478,"ĠrÃ©itÃ©":10479,"Ġgam":10480,"tume":10481,"olÃ©e":10482,"Ġsouches":10483,"Ġcerti":10484,"ĠRE":10485,"Ġassistons":10486,"ĠGro":10487,"Ġmontrant":10488,"Ġsouhaits":10489,"Ġattribuer":10490,"ĠacceptÃ©s":10491,"ĠrÃ©alistes":10492,"ĠjustifiÃ©":10493,"Ġtrouvait":10494,"ĠdÃ©mocratiquement":10495,"Ġrencontrent":10496,"Ġhuile":10497,"Ġindividuelles":10498,"Ġlongueur":10499,"Ġabandon":10500,"Ġrestriction":10501,"ĠmenacÃ©s":10502,"ĠcausÃ©s":10503,"ĠintÃ¨g":10504,"Ġpertinentes":10505,"ĠÃ©chouer":10506,"Ġattribution":10507,"okyo":10508,"Ġtransitoire":10509,"Ġclandestine":10510,"Ġaccessibles":10511,"Ġsondages":10512,"innock":10513,"ĠdÃ©faite":10514,"Ġinfirmi":10515,"DR":10516,"Es":10517,"ford":10518,"lins":10519,"Â´":10520,"ĠpÃ©nÃ©":10521,"ison":10522,"istÃ©ri":10523,"ĠdÃ©val":10524,"tering":10525,"ulture":10526,"Ġdiction":10527,"Ġexpul":10528,"Ġexperti":10529,"Ġfores":10530,"ĠTrans":10531,"ĠsÃ©cher":10532,"ĠNGL":10533,"ĠHels":10534,"ĠKinnock":10535,"Ġpensaient":10536,"Ġaccompagne":10537,"Ġsuspens":10538,"Ġvoterai":10539,"Ġaffirment":10540,"ĠajoutÃ©":10541,"Ġantibi":10542,"ĠtempÃªte":10543,"Ġsensiblement":10544,"Ġafricain":10545,"Ġpertinente":10546,"Ġagira":10547,"Ġtoxiques":10548,"Ġcraignent":10549,"chenko":10550,"Ġexpertise":10551,"DÃ©s":10552,"conne":10553,"ker":10554,"ren":10555,"oun":10556,"issions":10557,"inki":10558,"Ġvet":10559,"ĠEh":10560,"issants":10561,"ĠconcrÃ©":10562,"ĠtranseuropÃ©ens":10563,"gnent":10564,"Ġstation":10565,"ĠJac":10566,"Ġindien":10567,"Ġpress":10568,"Ġ42":10569,"ĠobservÃ©":10570,"Ġpassep":10571,"Ġhabituellement":10572,"Ġrecommander":10573,"Ġcontinuons":10574,"Ġbrefs":10575,"ĠdÃ©placement":10576,"Ġcontraint":10577,"ĠbilatÃ©rales":10578,"Ġconjointe":10579,"Ġradioa":10580,"ĠdouaniÃ¨re":10581,"ĠÃ©motions":10582,"Ġfluctu":10583,"ĠÃ©vÃ¨nements":10584,"ĠFischler":10585,"bÃ©s":10586,"otique":10587,"vo":10588,"onf":10589,"ĠCentre":10590,"ĠhÃ¢":10591,"Ġapplaud":10592,"Ġsachant":10593,"Ã´mes":10594,"vabilitÃ©":10595,"atom":10596,"oyers":10597,"Ġauriez":10598,"ĠJu":10599,"Ġverrons":10600,"ĠWh":10601,"Ġconcurrents":10602,"ĠLeh":10603,"Ġsoutenus":10604,"ĠconsacrÃ©e":10605,"ĠÃ©mergentes":10606,"Ġexcellence":10607,"Ġsauvegard":10608,"Ġsuspension":10609,"ĠindÃ©pendantes":10610,"Ġtarif":10611,"ĠreflÃ©ter":10612,"ĠfatiguÃ©":10613,"Ġtromper":10614,"Ġirresponsable":10615,"Ġendettement":10616,"tariat":10617,"ĠHistoire":10618,"can":10619,"ements":10620,"ft":10621,"geux":10622,"Ġorth":10623,"Ġaille":10624,"Ġvrais":10625,"Ġvillages":10626,"Ãªter":10627,"ĠMed":10628,"aies":10629,"ĠAd":10630,"Ġpaysans":10631,"Ġalg":10632,"Ġconcertation":10633,"Ġmettra":10634,"Ġ36":10635,"Ġacceptons":10636,"Ġtournant":10637,"obo":10638,"Ġessaye":10639,"ĠrÃ©vol":10640,"Ġsoutenant":10641,"Ġ2015":10642,"Ġaimerions":10643,"ĠtransfÃ©rer":10644,"ĠprÃ©fÃ©rences":10645,"ĠcomparÃ©":10646,"ĠretirÃ©":10647,"ĠrÃ©fÃ©rences":10648,"Ġrequises":10649,"Ġcroyez":10650,"Ġcouverts":10651,"Ġradicaux":10652,"ĠbÃ©tail":10653,"Ġsymbolique":10654,"Ġterribles":10655,"mbourge":10656,"ĠallouÃ©s":10657,"ĠhonnÃªtetÃ©":10658,"ĠÃ©chÃ©ance":10659,"ĠincomprÃ©hen":10660,"Ġcompatible":10661,"Ġfrein":10662,"Ġapprofondir":10663,"Ġpluralisme":10664,"ĠintitulÃ©":10665,"ĠMadrid":10666,"ĠbactÃ©ri":10667,"Ġmalheureux":10668,"Bref":10669,"ĠLetton":10670,"ĠHelsinki":10671,"cales":10672,"tiser":10673,"Ġfleurs":10674,"Ã¨ques":10675,"ĠCes":10676,"dition":10677,"ĠPla":10678,"ouvons":10679,"Ġdevais":10680,"Ġtrah":10681,"ĠBÃ¶":10682,"istants":10683,"ĠTokyo":10684,"ĠcrÃ©Ã©s":10685,"ĠespÃ©rance":10686,"ĠministÃ©ri":10687,"ĠtuÃ©s":10688,"ĠengagÃ©es":10689,"Ġunification":10690,"Ġoffert":10691,"aria":10692,"Ġparadis":10693,"Ġsecrets":10694,"Ġdouter":10695,"Ġradicalement":10696,"ĠlÃ©gifÃ©rer":10697,"Ġbarre":10698,"ĠsensibilitÃ©":10699,"ĠdÃ©montrent":10700,"ĠopÃ©rationnel":10701,"Ġsatisfaite":10702,"Ġmassif":10703,"rogÃ¨ne":10704,"Ġcessez":10705,"Ġlabel":10706,"ĠrÃ©clamer":10707,"Ġacier":10708,"Ġsusciter":10709,"ĠdÃ©favorisÃ©es":10710,"Ġcabine":10711,"ĠflÃ©au":10712,"Ġveto":10713,"ĠLettonie":10714,"nait":10715,"Ġnoci":10716,"Ġtue":10717,"roir":10718,"Ġinapp":10719,"Ġja":10720,"cieuses":10721,"Ġbeaux":10722,"Ġactives":10723,"ĠanÃ©":10724,"formes":10725,"Ġinterf":10726,"Ġinterconne":10727,"cole":10728,"Ġenvoie":10729,"ĠLou":10730,"Ġconfond":10731,"antil":10732,"Ġproposent":10733,"ĠâĢ¦":10734,"ĠKal":10735,"Ġsaison":10736,"ettes":10737,"ĠrÃ©unis":10738,"Ġsuffisants":10739,"ĠintÃ©ressants":10740,"asser":10741,"ĠdisponibilitÃ©":10742,"Ġguise":10743,"Ġcorrespondent":10744,"Ġpatience":10745,"Ġracines":10746,"Ġlourdes":10747,"ĠsuggÃ©rer":10748,"ĠdÃ©gradation":10749,"Ġlinguistiques":10750,"Ġinvasion":10751,"ĠentitÃ©":10752,"Ġsensibilisation":10753,"Ġhorrible":10754,"ĠdÃ©taillÃ©es":10755,"Ġvagues":10756,"BR":10757,"LE":10758,"bul":10759,"com":10760,"odu":10761,"Ġdus":10762,"Ġaqu":10763,"ĠnÃ©e":10764,"ĠunitÃ©s":10765,"Ġboit":10766,"Ġconj":10767,"ĠCD":10768,"ffe":10769,"Ġdivisions":10770,"Ã´me":10771,"cofin":10772,"dÃ©qu":10773,"Ġreporter":10774,"Ġobjections":10775,"ĠChris":10776,"ĠHe":10777,"thi":10778,"ĠabordÃ©s":10779,"ĠsÃ»res":10780,"ĠspÃ©cialistes":10781,"ĠlimitÃ©s":10782,"Ġconstructeurs":10783,"Ġclient":10784,"Ġconfidenti":10785,"Ġ600":10786,"Ġisolement":10787,"ĠpiÃ©":10788,"ĠcompÃ©titifs":10789,"ĠadaptÃ©e":10790,"ĠgÃ©ographiques":10791,"Ġcouche":10792,"Ġretarder":10793,"ĠdÃ©poser":10794,"Ġcollectif":10795,"Ġretrouvent":10796,"Ġparvenons":10797,"Ġrequise":10798,"Ġreconstru":10799,"Ġplaide":10800,"Ġfamiliale":10801,"Ġexplorer":10802,"Ġautorise":10803,"Ġstabiliser":10804,"ĠdÃ©sÃ©quilibre":10805,"Ġmotivation":10806,"Ġdoctr":10807,"ĠBrok":10808,"ĠrÃ©viser":10809,"ĠSecrÃ©":10810,"ĠÃ©manant":10811,"ĠinadÃ©qu":10812,"Ġdiagnostic":10813,"Ġclonage":10814,"Sin":10815,"fu":10816,"to":10817,"Ġly":10818,"arisation":10819,"gabe":10820,"chet":10821,"ĠsÃ©du":10822,"ĠdÃ©mons":10823,"Ġcoloni":10824,"Ġapplications":10825,"Ġindications":10826,"risie":10827,"Ġtennis":10828,"Ġexplosi":10829,"ĠAllemands":10830,"Ġsouffert":10831,"ĠÃ©ventuels":10832,"ĠconsacrÃ©s":10833,"ĠexÃ©cutif":10834,"Ġspir":10835,"ĠrÃ©pÃ©tÃ©":10836,"Ġintelligents":10837,"Ġreconnaissons":10838,"ĠrÃ©publique":10839,"Ġradical":10840,"Ġcontraignantes":10841,"Ġrestaurant":10842,"ĠentraÃ®nera":10843,"ĠdÃ©coulent":10844,"ĠsÃ©vÃ¨re":10845,"Ġsilenci":10846,"ĠmultilatÃ©ral":10847,"ĠpoliciÃ¨re":10848,"Ġtarifs":10849,"Ġarrestation":10850,"Ã©nÃ©gro":10851,"ĠCambod":10852,"Ġcontempora":10853,"ĠambiguÃ¯tÃ©":10854,"Esp":10855,"cale":10856,"mlin":10857,"Ġcents":10858,"ĠdegrÃ©s":10859,"Ġfoyers":10860,"quement":10861,"eutiques":10862,"Ġaident":10863,"Ġconseiller":10864,"Ġconcilier":10865,"onnez":10866,"Ġobtient":10867,"Ġamou":10868,"isemb":10869,"Ġvotons":10870,"pira":10871,"mÃ©tri":10872,"Ġcorromp":10873,"Ġsubissent":10874,"Ġprestations":10875,"Ġphras":10876,"ĠÃ©chantil":10877,"Ġcourants":10878,"Ġ48":10879,"faits":10880,"Ġtransparentes":10881,"Ġsuspe":10882,"Ġconducteurs":10883,"Ġsauvages":10884,"ĠempÃªchÃ©":10885,"ĠpÃ©nales":10886,"cker":10887,"ĠdÃ©taillÃ©":10888,"ĠdÃ©noncer":10889,"ĠinterprÃ©ter":10890,"Ġcourageux":10891,"Personnellement":10892,"Ġcontrainte":10893,"Ġferroviaires":10894,"Ġrenvoy":10895,"Ġinspections":10896,"ĠintÃ©grÃ©es":10897,"Ġmeurtre":10898,"ĠrevÃªtent":10899,"Ġluxembourge":10900,"Ġrenseignements":10901,"ĠcinÃ©ma":10902,"Ġcurieux":10903,"eront":10904,"ĠqualitÃ©s":10905,"Ġmenti":10906,"Ġpath":10907,"orent":10908,"ational":10909,"Ġpourrez":10910,"Ġdurer":10911,"Ġpotable":10912,"Ġaval":10913,"Ġavancement":10914,"Ġdilem":10915,"ĠEgypte":10916,"Ġefforce":10917,"Ġfinlandaise":10918,"ĠBur":10919,"Ġcontrefa":10920,"igne":10921,"Ġfermes":10922,"Ġoffrant":10923,"ĠViet":10924,"ĠspÃ©ciales":10925,"ĠimposÃ©e":10926,"lusconi":10927,"Ġsuffisent":10928,"Ġsemblable":10929,"ĠassurÃ©e":10930,"Ġpotentielle":10931,"ĠdÃ©posÃ©es":10932,"Quelque":10933,"Ġfaciles":10934,"Ġsecondaires":10935,"Ġconviendrait":10936,"ĠhypothÃ©":10937,"Ġconstituerait":10938,"Ġparcour":10939,"Ġajustements":10940,"ĠprÃ©occuper":10941,"prolifÃ©ration":10942,"Ġincompati":10943,"ĠSeconde":10944,"ĠgÃ¢teau":10945,"Ġpragmatique":10946,"Ġesclavage":10947,"Ġhypocrisie":10948,"ĠRobert":10949,"ĠsimultanÃ©ment":10950,"ĠKremlin":10951,"Me":10952,"PI":10953,"Vou":10954,"tend":10955,"Ġw":10956,"Ġtoit":10957,"liez":10958,"arisme":10959,"Ġbain":10960,"ĠrÃ©tro":10961,"Ġappauv":10962,"Ġrende":10963,"mad":10964,"Ġjouissent":10965,"Ġabstenu":10966,"ĠVenez":10967,"Ġparalys":10968,"Ġvaisse":10969,"ĠprÃ©cisÃ©":10970,"Ġsemblables":10971,"ĠcompÃ©titif":10972,"Ġ99":10973,"ĠdÃ»ment":10974,"ĠAnnÃ©e":10975,"Ġsouris":10976,"Ġimagine":10977,"ĠthÃ©Ã¢tre":10978,"ĠpartagÃ©e":10979,"ĠbÃ¢tir":10980,"Ġmonnaies":10981,"Ġstress":10982,"Ġassume":10983,"ĠtransfrontaliÃ¨res":10984,"Ġpeser":10985,"Ġparcourir":10986,"ĠprÃ©judici":10987,"Ġinspiration":10988,"ĠentitÃ©s":10989,"Ġcombustibles":10990,"Ġchantiers":10991,"Ġredistribu":10992,"ĠAlgÃ©rie":10993,"Ġantibiotiques":10994,"Di":10995,"vants":10996,"cir":10997,"Ġgig":10998,"Ġchypri":10999,"Ġcontente":11000,"Ġresser":11001,"Ã©rants":11002,"Ġdise":11003,"Ġobtention":11004,"ĠdÃ©coup":11005,"ĠTAC":11006,"ĠGi":11007,"Ġgouvernementale":11008,"Ġfermi":11009,"ĠplanÃ©taire":11010,"ĠVoici":11011,"ĠprÃ©visible":11012,"Ġtransporte":11013,"ĠinquiÃ¨tent":11014,"Ġapparence":11015,"Ġindividuellement":11016,"Ġbalay":11017,"Ġprudent":11018,"Ġprimaire":11019,"ĠisraÃ©liens":11020,"Ġcomparable":11021,"ĠnÃ©erlandaise":11022,"Ġcontradictoires":11023,"Ġlobby":11024,"Ġdynamisme":11025,"PA":11026,"lissent":11027,"ĠpÃ¨se":11028,"orons":11029,"ĠdÃ©ception":11030,"ĠrÃ©ins":11031,"Ġaver":11032,"tui":11033,"ĠIN":11034,"ĠTrib":11035,"ĠFE":11036,"outons":11037,"ĠHaye":11038,"ĠÃ©gale":11039,"Ġpassons":11040,"Ġcorp":11041,"ĠrÃ©sultant":11042,"ĠdÃ©sord":11043,"Ġoffertes":11044,"Ġreconnue":11045,"Ġbaser":11046,"Ġuniversitaire":11047,"Ġhonorables":11048,"ĠadÃ©quats":11049,"ĠÃ©lectorat":11050,"ĠcaractÃ©ristique":11051,"Ġpacifiques":11052,"ĠultÃ©":11053,"Ġreproduire":11054,"ĠadressÃ©":11055,"ĠclÃ´":11056,"Prenez":11057,"Ġpilote":11058,"ĠdÃ©libÃ©rÃ©ment":11059,"ĠpÃ©troliers":11060,"Ġaveug":11061,"Ġscrutin":11062,"Ġmilitants":11063,"Ġconversation":11064,"Ġprovince":11065,"ĠNouvelle":11066,"Ġdictat":11067,"ĠBritanniques":11068,"GE":11069,"lÃ¢":11070,"sons":11071,"Ġpand":11072,"Ġsoph":11073,"anais":11074,"unn":11075,"Ġunir":11076,"liÃ¨re":11077,"Ġjal":11078,"ĠPacte":11079,"ositÃ©":11080,"ĠMED":11081,"ensÃ©":11082,"ĠSm":11083,"Ġallon":11084,"ĠÃ©conomiser":11085,"Ġmarins":11086,"ĠnationalitÃ©":11087,"Ġmena":11088,"ĠHau":11089,"Ġvache":11090,"Ġferaient":11091,"Ġbasse":11092,"ĠabordÃ©e":11093,"Ġbananes":11094,"Ġsyner":11095,"Ġcouper":11096,"Ġappartenant":11097,"ĠÃ¢gÃ©s":11098,"Ġrefusent":11099,"ĠsoulevÃ©s":11100,"Ġsynonyme":11101,"Ġneutra":11102,"ĠpayÃ©s":11103,"Ġpessi":11104,"Ġplainte":11105,"ĠprivilÃ¨ge":11106,"Ġfamiliales":11107,"Ġchocolat":11108,"ĠautodÃ©":11109,"ĠdÃ©rogations":11110,"ĠPhili":11111,"Ġchirur":11112,"ĠmanÅĵuvre":11113,"ĠCambodge":11114,"Ġphrases":11115,"NA":11116,"PrÃ©":11117,"fat":11118,"gme":11119,"he":11120,"no":11121,"trai":11122,"ules":11123,"Ġdil":11124,"Ġpommes":11125,"isations":11126,"urÃ©es":11127,"illÃ©e":11128,"illon":11129,"ĠdÃ©d":11130,"aron":11131,"ĠchÃ¨re":11132,"osa":11133,"Ġrendra":11134,"Ġcadeau":11135,"vice":11136,"Ġdisaient":11137,"ĠSak":11138,"Ġforcer":11139,"versement":11140,"Ġmaintient":11141,"lson":11142,"Ġpeines":11143,"ĠconcernÃ©e":11144,"ĠÃ©gaux":11145,"ĠrenforÃ§ant":11146,"Ġtourn":11147,"Ġfraudes":11148,"ĠremportÃ©":11149,"ĠseptiÃ¨me":11150,"Ġmanifestants":11151,"ĠYOR":11152,"Ġbouc":11153,"Ġsouffle":11154,"ĠadaptÃ©":11155,"ĠÃ©motion":11156,"Ġacquise":11157,"oriquement":11158,"ĠÃ©troit":11159,"ĠÃ©videntes":11160,"Ġretire":11161,"aÃ¯d":11162,"ĠdÃ©terminÃ©s":11163,"ĠBerlusconi":11164,"Ġapprofond":11165,"Ġaffectent":11166,"ĠcritiquÃ©":11167,"Ġchapitres":11168,"Ġspectacle":11169,"europÃ©en":11170,"Ġcomparables":11171,"ĠMcC":11172,"Ġengendrer":11173,"Ġconformes":11174,"Ġprolonger":11175,"ĠdÃ©tÃ©rioration":11176,"ĠsuprÃªme":11177,"Ġjambes":11178,"ĠMugabe":11179,"Ġeffray":11180,"ĠMerkel":11181,"ĠamÃ©nagement":11182,"Ġaventure":11183,"ĠYORK":11184,"Der":11185,"Ni":11186,"Tandis":11187,"aminer":11188,"ctÃ©es":11189,"dy":11190,"hÃ©r":11191,"lux":11192,"Ã©tÃ©":11193,"reur":11194,"isait":11195,"Ġnot":11196,"Ġnutri":11197,"omph":11198,"Ġvienne":11199,"Ġincidents":11200,"cio":11201,"cien":11202,"ciation":11203,"Ġbulga":11204,"Ġgal":11205,"Ġchim":11206,"Ġrendant":11207,"ĠUS":11208,"elons":11209,"alem":11210,"issaient":11211,"Ġinscri":11212,"ĠSp":11213,"ĠRa":11214,"Ġemporter":11215,"ĠcrÃ©anci":11216,"ĠFond":11217,"Ġobjection":11218,"Ġrire":11219,"ĠdÃ©mocrate":11220,"ĠappliquÃ©s":11221,"Ġ33":11222,"Ġ55":11223,"Ġverra":11224,"oton":11225,"Ġsignale":11226,"Ġintroduite":11227,"ĠdÃ©signÃ©":11228,"ĠemblÃ©e":11229,"Ġqualifier":11230,"Ġpossession":11231,"ĠÃ©ligi":11232,"Ġpollue":11233,"Ġadministratifs":11234,"ĠdÃ©ploiement":11235,"Ġconvictions":11236,"ĠmenacÃ©":11237,"Ġtriomph":11238,"Ġpertinent":11239,"Ġsoudain":11240,"Ġinhabit":11241,"ĠprÃ©conise":11242,"ĠmÃ¨nent":11243,"ĠperpÃ©t":11244,"Ġaveugle":11245,"Ġperturb":11246,"ĠKenya":11247,"ĠgÃ©opolitique":11248,"rontex":11249,"ĠdÃ©sespoir":11250,"ĠaisÃ©ment":11251,"ĠprÃ©coce":11252,"EspÃ©rons":11253,"rÃ´":11254,"Ã©ros":11255,"Ġaie":11256,"Ġassemb":11257,"Ġcenti":11258,"til":11259,"ung":11260,"respect":11261,"Ġbla":11262,"ĠCis":11263,"Ġsurcro":11264,"Ġidi":11265,"ĠMande":11266,"ĠprÃ©cieuse":11267,"Ġcache":11268,"onnent":11269,"ĠStre":11270,"Ġannon":11271,"ĠÃ©leveurs":11272,"ĠÃ©changer":11273,"Ġfaisais":11274,"ĠrapiditÃ©":11275,"Ġvotera":11276,"Ġcondamne":11277,"Ġnourr":11278,"Ġmoratoire":11279,"ĠamitiÃ©":11280,"ĠrÃ©gulateurs":11281,"ĠhonnÃªtes":11282,"owski":11283,"Ġsubstitu":11284,"Ġapais":11285,"ĠGuant":11286,"ĠÃ©carts":11287,"Ġconnexion":11288,"mpere":11289,"ĠchutÃ©":11290,"ĠallÃ©gations":11291,"Ġtsunami":11292,"Ġdictionnaire":11293,"thiopie":11294,"ĠVietnam":11295,"Ġsophisti":11296,"bout":11297,"vÃ¨ge":11298,"tivÃ©":11299,"rimination":11300,"Ġbale":11301,"eut":11302,"Ġtouchant":11303,"fice":11304,"Ġyougosla":11305,"Ġarchi":11306,"ĠBill":11307,"Ġmarin":11308,"ĠTaiwan":11309,"Ġdoive":11310,"ĠgÃ©nÃ¨re":11311,"riblement":11312,"Ġnationalistes":11313,"ĠfinanciÃ¨rement":11314,"Ġviser":11315,"Ġnaval":11316,"Ġengagent":11317,"Ġasp":11318,"ĠVienne":11319,"ĠparaÃ®tre":11320,"Ġatteintes":11321,"Ġcanc":11322,"ĠdotÃ©":11323,"Ġintroduites":11324,"Ġreprend":11325,"Ġregardons":11326,"ĠempÃªchent":11327,"Ġdistances":11328,"Ġobsol":11329,"Ġcouleurs":11330,"Ġtraditionnel":11331,"Ġimaginez":11332,"view":11333,"Ġsuperf":11334,"Ġballe":11335,"Ġmatch":11336,"Ġressemblent":11337,"Ġcontroverse":11338,"ĠblessÃ©s":11339,"Ġrevendications":11340,"Ġindirectement":11341,"ĠTampere":11342,"Ġavertissement":11343,"ĠaperÃ§u":11344,"Ġcommettre":11345,"Ġcolonies":11346,"Ġpluriannuel":11347,"ĠTimor":11348,"ĠNorvÃ¨ge":11349,"Ġgigantes":11350,"'\"":11351,"Faites":11352,"Pro":11353,"Reste":11354,"Soyez":11355,"Ġdite":11356,"Ã©der":11357,"Ã©lo":11358,"Ġfus":11359,"rois":11360,"usalem":11361,"auf":11362,"uela":11363,"ssions":11364,"ĠASE":11365,"Ã©rar":11366,"Ġintervient":11367,"ĠOff":11368,"ĠÃ©glise":11369,"ĠrÃ©fÃ¨re":11370,"ĠbÃ©nÃ©v":11371,"Ġcontribuable":11372,"Ġformelle":11373,"Ġasseoir":11374,"lantation":11375,"Ġtension":11376,"Ġdispositifs":11377,"Ġsollic":11378,"Ġthon":11379,"Ġuniversitaires":11380,"Ġexemplaire":11381,"Ġimpressionn":11382,"ĠGroupe":11383,"ĠÃ©lites":11384,"aÃ¯wan":11385,"Ġaccueilli":11386,"Ġsignificatifs":11387,"ĠexaminÃ©e":11388,"Ġtrip":11389,"Ġdrame":11390,"ĠcensÃ©":11391,"Ġincertitudes":11392,"Seul":11393,"ĠinventÃ©":11394,"Ġpsychologique":11395,"Ġinterroger":11396,"ĠrÃ©examen":11397,"Ġremboursement":11398,"Ġscolaire":11399,"ĠintÃ©rimaire":11400,"ĠingrÃ©dients":11401,"ĠmÃ©fiance":11402,"Ess":11403,"gÃ¨nes":11404,"mus":11405,"ood":11406,"yan":11407,"ĠQui":11408,"istence":11409,"Ġmour":11410,"Ġmers":11411,"ĠmÃ¢":11412,"Ġpatron":11413,"Ġplomb":11414,"lages":11415,"tue":11416,"dictions":11417,"Ġmonsieur":11418,"ĠAlex":11419,"ĠBour":11420,"Ġviole":11421,"ĠcotÃ©":11422,"ĠSomalie":11423,"ĠmarquÃ©e":11424,"Ġtransforme":11425,"ĠcroÃ®tre":11426,"Ġmilieux":11427,"ĠÃ©volue":11428,"ĠDG":11429,"ĠNoire":11430,"Ġnaz":11431,"ĠinfÃ©rie":11432,"ĠbiÃ¨re":11433,"Ġnotes":11434,"ĠchargÃ©s":11435,"Ġsyri":11436,"Ġ800":11437,"ĠfixÃ©es":11438,"ĠcondamnÃ©s":11439,"Ġexigeant":11440,"ĠisraÃ©lo":11441,"Ġterminerai":11442,"erbaÃ¯d":11443,"ACH":11444,"ĠEuros":11445,"ĠsÃ©parÃ©":11446,"Ġaffaib":11447,"Ġfolle":11448,"Ġannex":11449,"Ġdesquels":11450,"Ġdistorsions":11451,"ĠspÃ©cula":11452,"erbaÃ¯djan":11453,"bas":11454,"uad":11455,"Ġdebout":11456,"erme":11457,"Ġlament":11458,"unal":11459,"Ġenca":11460,"tateur":11461,"Ġrejets":11462,"Ġcond":11463,"Ġchanter":11464,"terait":11465,"Ġher":11466,"Ġtraitons":11467,"issantes":11468,"Ġauthen":11469,"Ġsage":11470,"Ã©rusalem":11471,"Ġamor":11472,"raisse":11473,"ĠdÃ©blo":11474,"ĠfinancÃ©":11475,"Ġlongs":11476,"Ġparaissent":11477,"Ġmissiles":11478,"Ġtouris":11479,"Ġcapitales":11480,"Ġdemanderai":11481,"ĠÃ©num":11482,"Ġsolidaire":11483,"ĠmanifestÃ©":11484,"ĠadaptÃ©es":11485,"ĠguÃ©r":11486,"Ġcomposants":11487,"ĠdÃ©placÃ©es":11488,"Ġinstallation":11489,"Ġattentifs":11490,"Ġmenacent":11491,"Puisque":11492,"Ã©mie":11493,"Ġcontraignants":11494,"Ġsuspendre":11495,"ĠGuinÃ©e":11496,"ĠTimes":11497,"ĠextrÃ©misme":11498,"Ġpilotes":11499,"Ġlivrer":11500,"ĠmÃ©diterranÃ©en":11501,"Ġressentir":11502,"ĠconÃ§ue":11503,"ĠhiÃ©rar":11504,"Ġmensonge":11505,"Ġmettez":11506,"Ġtissu":11507,"Ġappelait":11508,"Ġacquisition":11509,"ĠSecrÃ©taire":11510,"99":11511,"HO":11512,"gs":11513,"git":11514,"jordanie":11515,"sch":11516,"Ġpond":11517,"ĠmÃª":11518,"chose":11519,"Ġillu":11520,"ĠMor":11521,"Ġoeil":11522,"mbres":11523,"Ġautoc":11524,"Ġsaoudite":11525,"Ġdirecteurs":11526,"ĠÃ©conomiste":11527,"ĠdÃ©pendre":11528,"Ġtermine":11529,"ĠRich":11530,"ĠdÃ©mante":11531,"Ġempi":11532,"ĠfinancÃ©s":11533,"Ġchapeau":11534,"Ġvieill":11535,"ĠreprÃ©sentante":11536,"Ġinfli":11537,"Ã´tres":11538,"Ġbanqui":11539,"ĠtÃ©moins":11540,"Ġstructurel":11541,"Ġembra":11542,"Ġconservateur":11543,"Ġprenantes":11544,"ĠdÃ©roulement":11545,"ĠillÃ©gales":11546,"Ġrupture":11547,"Ġartiste":11548,"ĠdÃ©coulant":11549,"Ġmoderniser":11550,"ĠArafat":11551,"nierie":11552,"Ġmotivations":11553,"Ġattentat":11554,"Ġportugais":11555,"ĠrÃ©examiner":11556,"ĠPeter":11557,"Ġappartenance":11558,"ĠVenezuela":11559,"ĠTribunal":11560,"ĠCisjordanie":11561,"OK":11562,"Ã©men":11563,"iler":11564,"Ġinco":11565,"Ġintui":11566,"cient":11567,"Ġbro":11568,"Ġchante":11569,"irons":11570,"ĠMart":11571,"ĠhÃ©ro":11572,"ĠimpunitÃ©":11573,"ĠSL":11574,"Ġmessieurs":11575,"ĠmÃ©tal":11576,"Ġdonnons":11577,"ĠFED":11578,"ĠLin":11579,"Ġstables":11580,"ĠKi":11581,"Ġsoix":11582,"ĠcollÃ¨ge":11583,"Ġ34":11584,"Ġoppression":11585,"Ġapprennent":11586,"ĠrÃ©alisations":11587,"ĠarrÃªtÃ©s":11588,"ĠIslande":11589,"Ġcommencerai":11590,"ĠYÃ©men":11591,"ĠÃ©ventuel":11592,"Ġvaloris":11593,"Ġapprouvons":11594,"ĠdÃ©marrer":11595,"Ġsouverains":11596,"Ã©cla":11597,"ĠintensitÃ©":11598,"ĠretraitÃ©s":11599,"ĠsincÃ¨res":11600,"ĠenvisagÃ©e":11601,"Ġlicence":11602,"ĠsecrÃ©tariat":11603,"Ġguider":11604,"ĠnÃ©gliger":11605,"Ġoriginal":11606,"ĠÃ©carter":11607,"Ġslova":11608,"Ġamusant":11609,"Ġinefficace":11610,"Ġfantastique":11611,"Ġconseill":11612,"ĠrÃ©paration":11613,"ĠAfricains":11614,"Ġaccueille":11615,"ĠsurcroÃ®t":11616,"ices":11617,"ĠlÃ¨":11618,"itz":11619,"ĠquÃªte":11620,"ĠÃ©ri":11621,"cience":11622,"Ġgou":11623,"ĠgÃ©rÃ©":11624,"ĠCal":11625,"Ġnez":11626,"Ġsection":11627,"Ġmets":11628,"Ġtraitent":11629,"ĠAc":11630,"culaires":11631,"Ġdirections":11632,"Ġabe":11633,"Ġabri":11634,"lisÃ©es":11635,"ĠRÃ©s":11636,"ĠrÃ©pres":11637,"Ġprimes":11638,"Ġriz":11639,"igue":11640,"Ġpermettraient":11641,"ĠvisitÃ©":11642,"Ġdouane":11643,"ĠnotÃ©":11644,"Ġportait":11645,"Ġaffirm":11646,"Ġresteront":11647,"Ġpartisan":11648,"Ġfournies":11649,"ĠdÃ©posÃ©e":11650,"anium":11651,"Ġmorales":11652,"ĠsynthÃ¨se":11653,"ĠdÃ©veloppent":11654,"ĠcomposÃ©e":11655,"ĠplacÃ©s":11656,"ĠtransformÃ©":11657,"Ġvraisemb":11658,"Ġautoritaire":11659,"Ġenregistrer":11660,"Ġmerveilleuse":11661,"Ġinhum":11662,"Ġinspection":11663,"Ġrassurer":11664,"Ġnettoy":11665,"Ġdomestique":11666,"ĠultÃ©rieurement":11667,"Ġmobile":11668,"ĠschÃ©ma":11669,"Ġmajoritaire":11670,"Ġmagazine":11671,"ĠJacques":11672,"Sinon":11673,"elez":11674,"pt":11675,"pal":11676,"yr":11677,"onal":11678,"onique":11679,"Ġcoupes":11680,"itt":11681,"itter":11682,"Ġmurs":11683,"Ġnage":11684,"Ġlatin":11685,"Ġfoyer":11686,"sibilitÃ©":11687,"roga":11688,"Ġparts":11689,"ĠillÃ©":11690,"Ġconqu":11691,"tuaires":11692,"ulent":11693,"ĠEr":11694,"Ġangu":11695,"Ġarrog":11696,"ĠUniversitÃ©":11697,"ĠSah":11698,"Ġperfe":11699,"Ġexporter":11700,"Ġalban":11701,"gnant":11702,"Ġorches":11703,"Ġrenverser":11704,"Ġbass":11705,"ĠKar":11706,"ĠinfÃ©rieure":11707,"Ġaugmentations":11708,"Ġcourrier":11709,"ĠÃ©pouv":11710,"Ġuranium":11711,"Ġencouragement":11712,"Ġassurant":11713,"ĠentraÃ®nent":11714,"ĠfermetÃ©":11715,"ĠÃ©ventualitÃ©":11716,"ĠpiÃ¨ge":11717,"akh":11718,"ĠtÃ©lÃ©phones":11719,"Ġexcellents":11720,"Ġvoyageurs":11721,"ĠformulÃ©e":11722,"Ġmobiles":11723,"Ġfamilial":11724,"Ġmodestes":11725,"Ġnommer":11726,"ĠdivisÃ©":11727,"ĠmultilatÃ©rale":11728,"Ġblocage":11729,"Ġcopie":11730,"Ġpratiquer":11731,"Ġampli":11732,"ĠcompÃ©tents":11733,"Ġmaternelle":11734,"Ġincontestablement":11735,"ĠpoussÃ©e":11736,"Ġinnocents":11737,"Ġfructueuse":11738,"Ġnominal":11739,"ĠMichel":11740,"ĠoxygÃ¨ne":11741,"nal":11742,"Ġonc":11743,"ĠQuand":11744,"Ġpom":11745,"Ġponc":11746,"Ġcoute":11747,"erve":11748,"Ġlac":11749,"Ġbir":11750,"ĠrÃ©alise":11751,"Ġfact":11752,"cesseurs":11753,"Ġromp":11754,"ĠcommÃ©m":11755,"Ġcata":11756,"Ġconteste":11757,"Ġcontamin":11758,"ĠrestÃ©s":11759,"ĠarmÃ©":11760,"vables":11761,"ociation":11762,"ĠTaÃ¯wan":11763,"Ġproduites":11764,"Ġtropi":11765,"gistes":11766,"ĠJÃ©rusalem":11767,"ĠnaÃ®tre":11768,"Ġinfec":11769,"iness":11770,"Ġanimales":11771,"Ġ700":11772,"Ġappartiennent":11773,"ĠmÃ©can":11774,"Ġcollectives":11775,"Ġconsacre":11776,"ĠMars":11777,"ĠrelevÃ©":11778,"ĠcomposÃ©":11779,"cepticisme":11780,"ĠdÃ©tente":11781,"Ġrenvoyer":11782,"Ġinspecteurs":11783,"Ġdocteur":11784,"Ġpropagation":11785,"ConformÃ©ment":11786,"ĠdÃ©butÃ©":11787,"Ġindub":11788,"Ġallocations":11789,"Ġstupide":11790,"ĠnÃ©fastes":11791,"Ġdormir":11792,"Ġsouplesse":11793,"Ġinapprop":11794,"corÃ©":11795,"dÃ©s":11796,"disc":11797,"lutÃ´t":11798,"nob":11799,"tor":11800,"win":11801,"oue":11802,"meu":11803,"ressement":11804,"ĠdÃ©range":11805,"trer":11806,"ĠEs":11807,"ĠrestÃ©e":11808,"ĠmaÃ¯s":11809,"ĠarmÃ©s":11810,"Ġfinit":11811,"ĠonÃ©":11812,"udisme":11813,"version":11814,"ĠFrontex":11815,"ĠcoopÃ©ra":11816,"ĠcorÃ©":11817,"ĠdÃ©sapp":11818,"Ġformations":11819,"Ġcourante":11820,"Ġviolent":11821,"Ġdonnerait":11822,"Ġjuridiction":11823,"lantiques":11824,"ĠpÃ©ni":11825,"Ġteneur":11826,"Ġrouges":11827,"Ġorienter":11828,"ĠprÃ©fÃ¨rent":11829,"Ġsouffrir":11830,"Ġcorrection":11831,"Ġimmenses":11832,"Ġkurde":11833,"Ġbrill":11834,"ĠpopularitÃ©":11835,"Ġtemporaires":11836,"Ġfrapper":11837,"Ġcorrespondant":11838,"ĠdÃ©nu":11839,"Ġstatistique":11840,"Ġsubsiste":11841,"ĠbÃ©bÃ©s":11842,"Ġhomologues":11843,"ĠIII":11844,"Ġclarification":11845,"Ġdictateur":11846,"Ġboom":11847,"Ġirakienne":11848,"ĠdÃ©bouchÃ©":11849,"Ġblessures":11850,"Ġstip":11851,"ĠtÃ©moigner":11852,"ĠmaÃ®triser":11853,"ĠMontÃ©nÃ©gro":11854,"Ġconsentis":11855,"ĠmÃ©taph":11856,"Ġsceptiques":11857,"ĠingÃ©rence":11858,"ĠSaint":11859,"ĠanÃ©anti":11860,"TA":11861,"dents":11862,"ĠpÃ¨s":11863,"Ġtendre":11864,"ĠÃ©ro":11865,"Ã¨lent":11866,"Ġinatt":11867,"Ġretenu":11868,"dio":11869,"Ġrab":11870,"ĠMillÃ©":11871,"Ġhol":11872,"ĠprÃ©le":11873,"Ġcomportent":11874,"Ġrestitu":11875,"istante":11876,"ĠformÃ©":11877,"ĠDeux":11878,"orateurs":11879,"Ġobjective":11880,"ĠÃ©goÃ¯s":11881,"ĠJeux":11882,"Ġatteler":11883,"Ġviolents":11884,"ĠmÃ©dioc":11885,"ĠÃ©pis":11886,"ettering":11887,"ĠdotÃ©e":11888,"ĠassociÃ©e":11889,"ĠgÃ©nie":11890,"Ġtester":11891,"Ġblanche":11892,"Ġmutuel":11893,"Ġprudents":11894,"ĠrÃ©volutionnaire":11895,"Ġsommets":11896,"ĠÃ©tiquette":11897,"ĠrÃ©public":11898,"Ġextraordinaires":11899,"ĠSharon":11900,"Ġdominante":11901,"Ġignorance":11902,"ĠrÃ©pandue":11903,"ĠÅĵuvrer":11904,"ĠhydrogÃ¨ne":11905,"Ġmorceaux":11906,"Ġdoigts":11907,"Ġpaludisme":11908,"Ġtalent":11909,"Ġrejoins":11910,"ĠAzerbaÃ¯djan":11911,"Ġpakistanais":11912,"Ġgraphique":11913,"Ġindemnisation":11914,"ĠOffice":11915,"ĠÃ©pouvan":11916,"ĠMillÃ©naire":11917,"Moi":11918,"Peux":11919,"fense":11920,"ĠpÃ©d":11921,"Ġfur":11922,"Ġvocation":11923,"Ġench":11924,"ĠrÃ©h":11925,"Ġretenue":11926,"endus":11927,"Ġliti":11928,"gapour":11929,"Ġpartiel":11930,"Ġinterview":11931,"Ġexpert":11932,"ĠdÃ©passent":11933,"ĠIra":11934,"ards":11935,"Ġproducteur":11936,"Ġrenvers":11937,"gramme":11938,"antile":11939,"ĠrÃ©duites":11940,"ĠrÃ©glÃ©":11941,"ĠrÃ©gissant":11942,"ariat":11943,"Ġsucc":11944,"ĠdirigÃ©e":11945,"Ġpostaux":11946,"Ġtentation":11947,"ĠcontrÃ´lÃ©e":11948,"ĠmentionnÃ©e":11949,"Ġchoisie":11950,"Ġprogresse":11951,"Ġimagin":11952,"Ġexergue":11953,"ĠexercÃ©e":11954,"ĠemployÃ©":11955,"Ġenseigner":11956,"Ġbrutale":11957,"ĠrentabilitÃ©":11958,"Ġdevenues":11959,"Ġcraint":11960,"Ġdrapeau":11961,"Ġcalculs":11962,"ĠadressÃ©es":11963,"Ġurbaines":11964,"ĠsoupÃ§":11965,"Ġliquide":11966,"ĠpÃ©tition":11967,"Ġrobots":11968,"Ġscandaleux":11969,"ĠfrÃ©quence":11970,"Ġrigoureux":11971,"Ġinjustice":11972,"Ġbombarde":11973,"ĠÃ©ducatif":11974,"ĠChambre":11975,"ĠaccÃ©lÃ©ration":11976,"Ġcontamination":11977,"ĠvÅĵux":11978,"Ġinsectes":11979,"ĠREACH":11980,"oboda":11981,"Ġredistribution":11982,"Ġyougoslave":11983,"Ġponctu":11984,"Ai":11985,"Celles":11986,"Ġunis":11987,"ortÃ©e":11988,"rol":11989,"ourent":11990,"ĠPra":11991,"ĠapprÃª":11992,"Ġdiam":11993,"trent":11994,"Ġinterag":11995,"Ġagissons":11996,"ĠSt":11997,"ĠSIS":11998,"minaire":11999,"ĠrÃ©pri":12000,"Ġprime":12001,"culose":12002,"Ġdemandait":12003,"Ġsoutiendrons":12004,"Ġprofitent":12005,"Ġtuber":12006,"Ġfondateurs":12007,"ĠcÃ´tiÃ¨res":12008,"ĠdÃ©signation":12009,"ĠtombÃ©e":12010,"Ġ120":12011,"Ġadministratif":12012,"ĠdÃ©ployer":12013,"Ġblanchi":12014,"Ġregretter":12015,"ĠObser":12016,"ĠÃ©lectorales":12017,"ĠdÃ©couvertes":12018,"ĠmenacÃ©e":12019,"Ġredoub":12020,"Ġturcs":12021,"Ġreposent":12022,"Ġreproduction":12023,"Ġintellectuels":12024,"Ġurbain":12025,"Ġtoxic":12026,"Ġpierres":12027,"ĠprÃ©ventive":12028,"ĠretrouvÃ©":12029,"ĠprÃ©voyant":12030,"ĠrÃ©introdu":12031,"Ġfrustration":12032,"Ġpoursuivra":12033,"ĠPNB":12034,"Ġregroup":12035,"ĠprÃ©dire":12036,"ĠPoettering":12037,"Ġmiracle":12038,"Ġillim":12039,"ĠSwoboda":12040,"ĠcontrefaÃ§on":12041,"--":12042,"Soyons":12043,"ades":12044,"lur":12045,"mÃ¨re":12046,"rist":12047,"Ġachar":12048,"ertion":12049,"Ġtalibans":12050,"ĠlevÃ©":12051,"ĠÃ©mi":12052,"rot":12053,"ries":12054,"liens":12055,"ĠrÃ©sidence":12056,"Ġredev":12057,"ladi":12058,"Ġdisais":12059,"Ġatout":12060,"Ġpersuad":12061,"Ġmardi":12062,"ĠThaÃ¯":12063,"ĠRÃ©":12064,"ĠprofitÃ©":12065,"Ġrespectifs":12066,"Ġsaisi":12067,"ĠprÃ©cÃ©dÃ©":12068,"ĠfixÃ©e":12069,"Ġregardant":12070,"ĠignorÃ©":12071,"Ġexceptionnel":12072,"Ġflexibles":12073,"ĠvulnÃ©rabilitÃ©":12074,"Seuls":12075,"Ġurbaine":12076,"Ġrestreindre":12077,"Ġanticiper":12078,"Ġrembourser":12079,"ĠdoublÃ©":12080,"Ġnerveux":12081,"Ġinquiets":12082,"ĠEUR":12083,"ĠBolk":12084,"Ġdoctrine":12085,"Ġdilemme":12086,"discrimination":12087,"po":12088,"pos":12089,"Ã©rez":12090,"ĠpÃ¨res":12091,"tit":12092,"Ġfant":12093,"Ġfri":12094,"Ġdues":12095,"ĠamÃ¨":12096,"Ġinspirer":12097,"ĠSo":12098,"endrez":12099,"istres":12100,"ĠTrÃ©sor":12101,"Ġproduise":12102,"ĠFlor":12103,"Ġafflux":12104,"Ġaurai":12105,"lstrÃ¶m":12106,"Ġimmeu":12107,"Ġcibles":12108,"Ġconstituait":12109,"Ġprofonds":12110,"ĠgÃ©nÃ©ralisÃ©e":12111,"Ġ43":12112,"ĠsecrÃ¨":12113,"ĠtournÃ©":12114,"Ġinnovantes":12115,"hana":12116,"ĠÃ©merger":12117,"Trop":12118,"Ġrentre":12119,"ĠcompliquÃ©e":12120,"ĠplacÃ©e":12121,"ĠopÃ©rationnelle":12122,"Ġescal":12123,"Ġsymboles":12124,"Ġlicences":12125,"ĠMondi":12126,"estein":12127,"ĠenregistrÃ©s":12128,"ĠachÃ¨tent":12129,"Ġgaspillage":12130,"ĠmaternitÃ©":12131,"Ġassimil":12132,"Ġcamions":12133,"Ġrecrutement":12134,"Ġlaitiers":12135,"Ġbouteille":12136,"ĠbactÃ©ries":12137,"otonou":12138,"Ġtuberculose":12139,"ĠBolkestein":12140,"Faisons":12141,"cours":12142,"ham":12143,"xtes":12144,"Ġcoupe":12145,"ity":12146,"Ġmien":12147,"ĠnÃ©s":12148,"Ġlevier":12149,"Ġveil":12150,"Ġenn":12151,"Ġinau":12152,"ĠblÃ¢":12153,"ĠCotonou":12154,"turer":12155,"termination":12156,"Ġhali":12157,"ĠprÃ©li":12158,"ĠAli":12159,"gions":12160,"ĠBend":12161,"Ġcodi":12162,"Ġonze":12163,"ĠRw":12164,"ĠRed":12165,"ĠDr":12166,"ĠDro":12167,"Ġcompren":12168,"ĠlÃ©galement":12169,"desh":12170,"Ġincomb":12171,"Ġbaf":12172,"Ġconnait":12173,"ĠKir":12174,"Åĵurs":12175,"ĠorganisÃ©es":12176,"Ġ38":12177,"Ġreconnus":12178,"rup":12179,"Ġinstructions":12180,"Ġcherchons":12181,"ĠcommuniquÃ©":12182,"ĠlÃ©gislateurs":12183,"Ġhabitudes":12184,"ĠBarnier":12185,"Ġnormalisation":12186,"Ġsignificatives":12187,"Ġrentable":12188,"ĠArmÃ©":12189,"ĠdistribuÃ©":12190,"Ġcauser":12191,"ĠhandicapÃ©s":12192,"Ġprotestations":12193,"ĠintermÃ©diaires":12194,"ĠÃ©prouv":12195,"ĠproportionnalitÃ©":12196,"ĠperÃ§ue":12197,"Ġslov":12198,"Ġboursi":12199,"Ġsupran":12200,"Ġmigratoires":12201,"Ġintrins":12202,"Ġfragiles":12203,"ĠÃ©bran":12204,"ĠinconvÃ©nients":12205,"HÃ©":12206,"Is":12207,"PlutÃ´t":12208,"dul":12209,"ize":12210,"jad":12211,"my":12212,"nographie":12213,"ube":12214,"vaient":12215,"Ġours":12216,"Ġpne":12217,"Ġmuti":12218,"Ġrationnelle":12219,"ĠBri":12220,"Ġath":12221,"Ġpersiste":12222,"Ġmarqu":12223,"ĠdÃ©prÃ©":12224,"ĠdÃ©pendant":12225,"Ġterriblement":12226,"ctant":12227,"ĠdÃ©mographiques":12228,"ĠGÃ¶":12229,"Ã¨gent":12230,"ocratie":12231,"parcours":12232,"Ġvisiter":12233,"Ġinformatiques":12234,"Ġfondation":12235,"Ġindiquant":12236,"Ġparadox":12237,"Ġlarmes":12238,"ĠmodifiÃ©es":12239,"Ġrends":12240,"ĠinquiÃ©tante":12241,"Ġlogis":12242,"ĠidentifiÃ©":12243,"Ġsolenne":12244,"ĠÃ©voquÃ©e":12245,"Ġhonorer":12246,"Ġphotograph":12247,"Ġcyc":12248,"Quiconque":12249,"Ġcomposante":12250,"ĠcaractÃ©rise":12251,"Ġperdue":12252,"ĠsÃ©parÃ©ment":12253,"Ġsubsistent":12254,"ĠvulnÃ©rable":12255,"Ġtendent":12256,"ĠblessÃ©":12257,"Ġralentir":12258,"Ġrenvoi":12259,"Ġdescendre":12260,"ĠinspirÃ©":12261,"ĠingÃ©nierie":12262,"Ġincondi":12263,"ĠdÃ©tourner":12264,"Ġarbitraire":12265,"ĠÅĵufs":12266,"ĠmaÃ®trise":12267,"ĠrÃ©compense":12268,"ĠÃ©clairc":12269,"ĠdÃ©sespÃ©rÃ©ment":12270,"Ġcombustible":12271,"Ġallocation":12272,"ĠSingapour":12273,"ĠvolatilitÃ©":12274,"Ġtransporteurs":12275,"ĠEurostat":12276,"ĠThaÃ¯lande":12277,"Dis":12278,"cour":12279,"fel":12280,"ho":12281,"lt":12282,"tora":12283,"zz":12284,"Ġdr":12285,"Ġconfier":12286,"Ġplon":12287,"Ġrap":12288,"Ġracon":12289,"Ġcommer":12290,"Ġsouter":12291,"Ġliaison":12292,"ĠobÃ©":12293,"ositions":12294,"Ġtravailliste":12295,"ĠTit":12296,"ĠTony":12297,"Ġdomination":12298,"Ġcris":12299,"ĠsoirÃ©e":12300,"Ġindication":12301,"Ġurgents":12302,"Ġsuccessi":12303,"Ġformellement":12304,"Ġalimenter":12305,"Ġessayant":12306,"Ġglobaux":12307,"Ġprofessions":12308,"Ġapparente":12309,"ĠAnnan":12310,"Ġsangu":12311,"Ġtenues":12312,"Ġexacte":12313,"Ġrurale":12314,"ĠremplacÃ©":12315,"ĠXI":12316,"Ġultra":12317,"Ġattraper":12318,"Ġdiviser":12319,"ĠaccompagnÃ©":12320,"Ġmentale":12321,"CAM":12322,"Ġadulte":12323,"Ġpersuader":12324,"Ġincidences":12325,"atisf":12326,"Ġdiversification":12327,"ĠbaissÃ©":12328,"Ġtunnel":12329,"ĠtraÃ®ne":12330,"Ġrattraper":12331,"Ġcoexistence":12332,"ĠautodÃ©termination":12333,"ĠcrÃ©anciers":12334,"Comm":12335,"TE":12336,"burg":12337,"sa":12338,"vard":12339,"ĠaÃ©r":12340,"ĠaisÃ©":12341,"outs":12342,"urations":12343,"ĠCara":12344,"erson":12345,"Ġsaper":12346,"Ġinteraction":12347,"Ġatroc":12348,"Ġpouviez":12349,"alisations":12350,"ĠdÃ©brou":12351,"ĠNat":12352,"ĠgÃ©nome":12353,"ĠdiffÃ©rends":12354,"ologue":12355,"Ġstagnation":12356,"Ġproposant":12357,"Ġarrivons":12358,"Ġsubord":12359,"ĠdurÃ©":12360,"Ġasy":12361,"ĠrÃ©gul":12362,"otyp":12363,"Ġdouz":12364,"ĠdÃ©cidÃ©e":12365,"ĠposÃ©s":12366,"Ġroutiers":12367,"Ġpenche":12368,"ĠeffectuÃ©es":12369,"Ġrenouvellement":12370,"Ġquantita":12371,"Ġenseignements":12372,"aÃ¯da":12373,"Ġrobe":12374,"Ġneutre":12375,"Ã¶der":12376,"Ġsexuel":12377,"Ġmenacer":12378,"Ġsommeil":12379,"Ġtransfrontalier":12380,"ĠsÃ©parer":12381,"Ġhygi":12382,"ĠcensÃ©s":12383,"ĠbilatÃ©ral":12384,"ĠdÃ©faill":12385,"ĠadressÃ©e":12386,"Ġespagnols":12387,"Ġdiscriminatoire":12388,"Ġbleue":12389,"Ġmanipulation":12390,"ĠachÃ¨vement":12391,"Ġbombes":12392,"ĠmacroÃ©conomique":12393,"Ġrecueillir":12394,"Ġmassacre":12395,"Ġregroupe":12396,"Ġgarantissent":12397,"ĠrÃ©acteurs":12398,"ĠJohan":12399,"Ġsouscris":12400,"ĠdÃ©rÃ©glement":12401,"ĠPESC":12402,"Ġoncle":12403,"ĠatrocitÃ©s":12404,"Fais":12405,"IF":12406,"borg":12407,"lants":12408,"mir":12409,"mises":12410,"Ã©dÃ©":12411,"Ġlis":12412,"Ġaph":12413,"Ġsh":12414,"Ġmit":12415,"ompÃ©":12416,"ĠÃ©ve":12417,"tataires":12418,"Ġpard":12419,"autÃ©s":12420,"ĠprÃ©roga":12421,"Ġtragiques":12422,"Ġcatal":12423,"Ġcomptons":12424,"ĠEc":12425,"Ġaccou":12426,"inejad":12427,"Ġinsistance":12428,"Ġattitudes":12429,"ĠintÃ©ressent":12430,"Ġmarques":12431,"Ġproductions":12432,"ĠOtan":12433,"Ġassise":12434,"ĠFÃ©dÃ©ration":12435,"ĠDim":12436,"ranger":12437,"Ġ193":12438,"arienne":12439,"Ġgrad":12440,"Ġcourbe":12441,"Ġestimer":12442,"ĠdÃ©putÃ©e":12443,"Ġcombiner":12444,"Ġexpriment":12445,"Ġattar":12446,"ĠmentionnÃ©es":12447,"ĠexigÃ©":12448,"ĠconfrontÃ©es":12449,"ĠEuropÃ©en":12450,"Ġproportions":12451,"prÃ©sidente":12452,"ĠÃ©pidÃ©":12453,"commun":12454,"Ġguide":12455,"Ġmeurtri":12456,"Ġprimordiale":12457,"Ġquarante":12458,"ĠBrown":12459,"Ġrecevront":12460,"Ġtransatlantiques":12461,"ĠdouaniÃ¨res":12462,"Ġrebelles":12463,"ĠÃ©crivain":12464,"Ġportefeuille":12465,"Ġorthod":12466,"ĠRichard":12467,"Ġsoixante":12468,"Ġperfection":12469,"ĠIraq":12470,"Ġtoxicom":12471,"ĠRwanda":12472,"hard":12473,"mais":12474,"pol":12475,"rui":12476,"zu":12477,"ess":12478,"Ġpomme":12479,"Ġfleur":12480,"Ġfolie":12481,"Ġinvention":12482,"dienne":12483,"ĠPala":12484,"Ġhoc":12485,"ĠprÃ©su":12486,"Ġimprob":12487,"Ġtraum":12488,"Ġautrui":12489,"cules":12490,"Ġobtiennent":12491,"Ġeffac":12492,"oncture":12493,"ĠSri":12494,"Ġmarine":12495,"lerai":12496,"ĠaccordÃ©s":12497,"ĠcrÃ©ons":12498,"ĠespÃ©rant":12499,"ĠDal":12500,"ĠGA":12501,"Ġeffectif":12502,"phab":12503,"Ġpositivement":12504,"ĠChira":12505,"Ġ191":12506,"ĠreprÃ©sentÃ©s":12507,"Ġpromen":12508,"ĠÃ©largi":12509,"ĠmodÃ©ration":12510,"Ġcirculer":12511,"Ġinvitons":12512,"ĠprotÃ©gÃ©es":12513,"ĠrespectÃ©e":12514,"Ġrenforcera":12515,"Ġdonnez":12516,"hima":12517,"ĠprÃ©fÃ©re":12518,"Ġachever":12519,"ĠautorisÃ©e":12520,"Ġexportateurs":12521,"Ġusagers":12522,"ĠJaponais":12523,"ficatif":12524,"ĠoccupÃ©e":12525,"Ġconviens":12526,"ĠprÃ©tendu":12527,"Ġmassives":12528,"Ġinscrits":12529,"Ġpersonnage":12530,"ĠpersonnalitÃ©s":12531,"ĠprÃ©occupÃ©":12532,"ĠdivisÃ©e":12533,"Ġprotestation":12534,"Ġnoirs":12535,"ĠprÃ©tendent":12536,"Ġ1960":12537,"ĠÃ©quivaut":12538,"Ġtextiles":12539,"estimer":12540,"dÃ©pendance":12541,"ĠsupÃ©rieurs":12542,"ĠÃ©cosystÃ¨mes":12543,"Ġadolesc":12544,"Ġchypriote":12545,"nobyl":12546,"ĠObservatoire":12547,"ĠChirac":12548,"Vi":12549,"mire":12550,"yra":12551,"Ġpuni":12552,"ouÃ©":12553,"Ġmeu":12554,"Ġqueue":12555,"Ġincul":12556,"ĠdÃ©lit":12557,"Ġbul":12558,"oile":12559,"ĠPri":12560,"ortant":12561,"Ġose":12562,"Ġtrouvez":12563,"fiants":12564,"Ã©rait":12565,"Ġalerte":12566,"Ã©nÃ©ra":12567,"ĠdÃ©pri":12568,"ĠdÃ©pÃ´t":12569,"entielle":12570,"Ġsocialement":12571,"ases":12572,"ĠTcher":12573,"Ġessaient":12574,"Ġmontagnes":12575,"ĠreprÃ©sentait":12576,"Ġfonder":12577,"Ġservira":12578,"ĠcorrÃ©":12579,"Ġordres":12580,"ĠVice":12581,"Ġpleurer":12582,"ĠrÃ©glementaires":12583,"Ġinnomb":12584,"Ġlaissons":12585,"ĠtÃ©lÃ©vis":12586,"Ġglobales":12587,"Ġ85":12588,"rettes":12589,"Ġcontribuerait":12590,"Ġcollaborateurs":12591,"ĠlÃ©galitÃ©":12592,"ĠaccroÃ®t":12593,"charge":12594,"Ġvalables":12595,"ĠdÃ©non":12596,"Ġperdants":12597,"Ġreposant":12598,"ĠvisibilitÃ©":12599,"Ġhomog":12600,"ĠDanube":12601,"Ġciterai":12602,"Ġmonopoles":12603,"Ġrestreint":12604,"Ġfranchir":12605,"Ġreviendrait":12606,"ĠadhÃ¨re":12607,"Ġlogiciel":12608,"Ġlicenciements":12609,"Ġdesquelles":12610,"Ġarrangements":12611,"Ġspatiale":12612,"Ġoreille":12613,"Ġprocureur":12614,"ĠECHO":12615,"ĠnÃ©gligeable":12616,"Ġexhaustive":12617,"Ġcompromettre":12618,"Ġatomique":12619,"Ġminoritaires":12620,"Ġspirit":12621,"Ġconseillers":12622,"Ġblanchiment":12623,"Ġescalade":12624,"ĠMondiale":12625,"Ġdons":12626,"Ġnaiss":12627,"Ġpaient":12628,"omas":12629,"nez":12630,"auteur":12631,"Ġapplau":12632,"Ġcomplais":12633,"Ġdiab":12634,"onnage":12635,"ĠAir":12636,"mies":12637,"ĠÃīg":12638,"ĠBus":12639,"Ġcertification":12640,"ĠdÃ©pis":12641,"ssements":12642,"ĠRÃ©v":12643,"ĠcrÃ©Ã©es":12644,"ĠFerre":12645,"itude":12646,"Ġminus":12647,"Ġincin":12648,"Ġindienne":12649,"Ġoffensive":12650,"ĠremÃ¨de":12651,"Ġviolente":12652,"Ġexpliquent":12653,"ĠLama":12654,"Ġattendais":12655,"Ġorigines":12656,"Ġfixation":12657,"Ġcouches":12658,"ĠconsultÃ©":12659,"ĠCommunautÃ©s":12660,"Ġangl":12661,"Ġlonguement":12662,"ĠapprouvÃ©s":12663,"ĠexposÃ©es":12664,"ĠdÃ©roulent":12665,"Ġbureaucratiques":12666,"Ġvisiteurs":12667,"ĠsÃ©pare":12668,"Ġemprunts":12669,"olÃ©ances":12670,"Ġtroub":12671,"Ġsuspendue":12672,"ĠachÃ¨te":12673,"Ġterrestres":12674,"Ġsouple":12675,"Ġamendes":12676,"Ġmusulmane":12677,"ĠdÃ©Ã§us":12678,"Ġenvah":12679,"ĠgÃ©nial":12680,"Isra":12681,"ĠJohannes":12682,"ĠPalacio":12683,"RS":12684,"caux":12685,"hr":12686,"icile":12687,"Ġdresser":12688,"Ġaise":12689,"rages":12690,"Ġpavil":12691,"Ġuniques":12692,"ouse":12693,"Ġparviendra":12694,"Ġbillet":12695,"ĠrÃ©Ã©":12696,"ĠCos":12697,"Ġimporter":12698,"ĠtraÃ§":12699,"Ġcasse":12700,"Ġagent":12701,"Ġagression":12702,"lisÃ©s":12703,"ĠNational":12704,"ologistes":12705,"Ġferti":12706,"ĠJordanie":12707,"ĠKim":12708,"arak":12709,"Ġprestation":12710,"Quatre":12711,"ĠrÃ©alisable":12712,"Ġaucunement":12713,"Ġtrouvera":12714,"Ġcharger":12715,"Ġcircu":12716,"Ġentrave":12717,"ĠrÃ©ussie":12718,"Ġattacher":12719,"ĠfiÃ¨re":12720,"ĠisolÃ©":12721,"ĠdÃ©termine":12722,"ĠintÃ©ressÃ©es":12723,"Ġhecta":12724,"ĠassociÃ©es":12725,"Ġsinges":12726,"Ġextradition":12727,"Ġsupermar":12728,"Ġcriminel":12729,"Ġestimation":12730,"ĠalliÃ©":12731,"ĠfrÃ©quent":12732,"ĠcensÃ©e":12733,"ĠMalais":12734,"ĠprÃ©jugÃ©s":12735,"keting":12736,"Ġoriginale":12737,"ĠamÃ©liorent":12738,"Ġpoliciers":12739,"Ġatmosph":12740,"ĠQaÃ¯da":12741,"ĠdÃ©tecter":12742,"RÃ©cemment":12743,"Ġexcessif":12744,"Ġvaccins":12745,"ĠmÃ©contentement":12746,"Ġtapis":12747,"ĠrÃ©habil":12748,"ĠslovÃ¨ne":12749,"Ġinnombrables":12750,"Mar":12751,"cope":12752,"nitÃ©s":12753,"Â·":12754,"Ġ&":12755,"estim":12756,"ouement":12757,"teuse":12758,"ĠfumÃ©e":12759,"Ġjun":12760,"ĠchÃ¢":12761,"teront":12762,"Ġram":12763,"Ġrail":12764,"Ġcomptables":12765,"ĠEri":12766,"onnaires":12767,"Ġmonte":12768,"ĠdÃ©cro":12769,"Ã©nat":12770,"Ġmarketing":12771,"Ġassain":12772,"ĠmÃ©tro":12773,"ĠNap":12774,"Ġnationaliste":12775,"ĠpensÃ©es":12776,"Ġrenforcent":12777,"ĠsensÃ©e":12778,"ĠvolÃ©":12779,"Ġversions":12780,"ĠbasÃ©s":12781,"Ġcombats":12782,"Ġtacti":12783,"illÃ©s":12784,"Ġencouragent":12785,"Ġessayez":12786,"Ġmercure":12787,"Ġmultitude":12788,"Ġassocie":12789,"Ġtarder":12790,"ĠassurÃ©s":12791,"ĠÃ©voquÃ©s":12792,"Ġigno":12793,"Ġexceptionnelles":12794,"Ġgagnent":12795,"Ġentendent":12796,"ĠgÃ©nÃ©tiques":12797,"Ġbaltes":12798,"Ġcivilisations":12799,"ĠsupprimÃ©":12800,"ĠfranÃ§aises":12801,"ĠrÃ©gulier":12802,"ĠcrÃ©dibles":12803,"Ġsouverain":12804,"ĠdÃ©rouler":12805,"Ġaccusation":12806,"Ġprudente":12807,"ĠsÃ©parÃ©s":12808,"ĠÃ©pargner":12809,"Ġpertinence":12810,"ĠentraÃ®nerait":12811,"Ġoiseau":12812,"IDGE":12813,"Ġcompatibles":12814,"ĠViÃªt":12815,"omÃ©tri":12816,"Ġinterrompue":12817,"ĠrÃ©ciprocitÃ©":12818,"ĠpÃ©riphÃ©rie":12819,"ĠpÃ©riphÃ©riques":12820,"ĠmolÃ©cules":12821,"Ġtangible":12822,"Ġmalentendu":12823,"Ġcatholique":12824,"ĠincomprÃ©hensible":12825,"BRIDGE":12826,"ĠRÃ©serve":12827,"Ġredoubler":12828,"CAMBRIDGE":12829,"dor":12830,"ganda":12831,"lines":12832,"ttini":12833,"xic":12834,"Ġlent":12835,"oule":12836,"omen":12837,"ĠfÃ¢":12838,"Ġdescription":12839,"ĠÃ©min":12840,"ĠinÃ©":12841,"Ġintime":12842,"Ġdanse":12843,"ĠCohn":12844,"ĠavÃ©rÃ©e":12845,"ĠMerc":12846,"Ġtristes":12847,"Ġmexic":12848,"ĠUN":12849,"Ġconsentement":12850,"Ġcabil":12851,"Ġlier":12852,"Ġserbe":12853,"ĠBa":12854,"ĠBlan":12855,"ĠSP":12856,"ĠperÃ§u":12857,"Ġpermets":12858,"ĠdÃ©col":12859,"Ġalarme":12860,"Ġannulation":12861,"Ġpriver":12862,"Ġassor":12863,"otage":12864,"ĠJack":12865,"Ġinflig":12866,"Ġmiroir":12867,"Ġremercions":12868,"Ġphases":12869,"Ġjouit":12870,"Ġaugmentant":12871,"Ġaugmentera":12872,"Ġgratitude":12873,"Ġdemanderais":12874,"atson":12875,"Ġremporter":12876,"ĠprÃ©occupent":12877,"Ġdessiner":12878,"Ġluttent":12879,"Ġprendront":12880,"Ġexercent":12881,"Ġtechniquement":12882,"Ġfalsi":12883,"ĠrÃ©pÃ©ti":12884,"ĠNico":12885,"Ġcroyance":12886,"Ġrallier":12887,"Ġvisibles":12888,"Ġgrossi":12889,"ĠisraÃ©liennes":12890,"Ġinsuffisantes":12891,"ĠAbbas":12892,"ĠWallstrÃ¶m":12893,"ĠengendrÃ©":12894,"ĠconÃ§us":12895,"ĠCorbet":12896,"Ġgratuitement":12897,"ĠscÃ©narios":12898,"ĠmodÃ©rÃ©s":12899,"Ġscolaires":12900,"veloppement":12901,"ĠimprÃ©visi":12902,"Ġsignifierait":12903,"Ġrespectueux":12904,"ĠdÃ©savan":12905,"ĠFrattini":12906,"Ġambassadeur":12907,"ĠForum":12908,"Ġsoudainement":12909,"Ġluxembourgeoise":12910,"Ġslovaque":12911,"ĠTchernobyl":12912,"ĠCorbett":12913,"Her":12914,"mie":12915,"pli":12916,"zone":12917,"Ġdota":12918,"istait":12919,"itants":12920,"itarisme":12921,"teborg":12922,"sivitÃ©":12923,"Ġvan":12924,"Ġvendu":12925,"Ġinsi":12926,"cions":12927,"Ġbrou":12928,"Ġavouer":12929,"geance":12930,"gements":12931,"olis":12932,"Ġravis":12933,"ĠMay":12934,"onnaire":12935,"Ġrestait":12936,"Ġaccises":12937,"tronom":12938,"Ġinsistons":12939,"Ġcoins":12940,"ĠdiffÃ¨re":12941,"udence":12942,"ĠdÃ©mÃ©n":12943,"guÃ©e":12944,"Ġvoudraient":12945,"ĠLigue":12946,"ĠmenÃ©s":12947,"ĠChi":12948,"Ġcentaine":12949,"ĠnaÃ¯":12950,"Ġinfantile":12951,"Ġconsommer":12952,"ĠVoilÃł":12953,"Ġtransposer":12954,"ĠappelÃ©s":12955,"Ġparticipant":12956,"ĠWatson":12957,"Ġpiano":12958,"Ġcoordin":12959,"ĠlÃ©gaux":12960,"ĠÃ©mises":12961,"Ġobtenez":12962,"just":12963,"ĠpossÃ©der":12964,"ĠimportÃ©s":12965,"Ġminimal":12966,"Ġperdus":12967,"ĠprÃ©sidences":12968,"Ġtribune":12969,"Ġpertinents":12970,"Ġparcours":12971,"ĠÃ©prouve":12972,"Ġlouable":12973,"ĠDÃ©putÃ©":12974,"Ġprostitution":12975,"Ġincluent":12976,"Ġincendie":12977,"Ġreviendrai":12978,"ĠattÃ©nu":12979,"tagon":12980,"Ġmascul":12981,"ĠtÃ©moignent":12982,"Ġdomestiques":12983,"ĠdÃ©sert":12984,"ĠLanka":12985,"ĠretombÃ©es":12986,"Ġconjoncture":12987,"Ġreconstruire":12988,"Ġpollueur":12989,"Ġabeilles":12990,"Ġbirman":12991,"Ġhalieutiques":12992,"ĠBendit":12993,"IsraÃ«l":12994,"gma":12995,"ĠalÃ©":12996,"Ġsonne":12997,"Ġmos":12998,"ĠmÃ©ri":12999,"orld":13000,"ĠÃ©oli":13001,"tÃ©rie":13002,"Ġconvenir":13003,"Ġextin":13004,"ĠPH":13005,"ĠPosse":13006,"ost":13007,"Ġand":13008,"ĠAri":13009,"isser":13010,"ĠmaÃ®t":13011,"Ġentretien":13012,"cott":13013,"ĠdÃ©par":13014,"Ġdiffuser":13015,"ĠTÃ©":13016,"ĠrÃ©ponde":13017,"ĠconfÃ¨re":13018,"Ġincite":13019,"Ġgouvernementaux":13020,"ĠJusti":13021,"Ġsouhaitez":13022,"Ġindice":13023,"ĠdÃ©solÃ©e":13024,"ĠrenforcÃ©es":13025,"ĠmÃ©diatique":13026,"Ġimplicite":13027,"Ġrefu":13028,"Ġrefonte":13029,"Ġnotions":13030,"Ġsuccesseur":13031,"ĠindÃ©si":13032,"ĠindÃ©finiment":13033,"rasmus":13034,"ĠrÃ©vÃ¨lent":13035,"ĠprÃ©occupant":13036,"ĠprÃ©occupante":13037,"Ġregardent":13038,"Ġreviennent":13039,"ĠAng":13040,"Ġgazodu":13041,"Ġamies":13042,"Ġremplace":13043,"Ġfavorisent":13044,"Ġminimale":13045,"Ġenseigne":13046,"ĠÃ©clai":13047,"Ġpanique":13048,"ĠmenacÃ©es":13049,"Ġdynamiques":13050,"Ġintervenus":13051,"Ġachats":13052,"Ġbienvenu":13053,"ĠsupposÃ©":13054,"Ġautomatique":13055,"ĠamÃ©liorÃ©es":13056,"ĠindemnitÃ©s":13057,"Ġincluant":13058,"Ġincontestable":13059,"Ġsurvenus":13060,"ĠCharles":13061,"Ġcigarettes":13062,"Ġgamme":13063,"ĠhypothÃ©c":13064,"madinejad":13065,"Ġnavals":13066,"Ġindubitablement":13067,"Ġaphteuse":13068,"ĠRÃ©volution":13069,"HerzÃ©govine":13070,"ĠJustice":13071,"ctÃ©e":13072,"cÃ¨lement":13073,"hend":13074,"ik":13075,"Ãº":13076,"Ġdys":13077,"Ġdras":13078,"ĠlÃ¨ve":13079,"Ġcord":13080,"urit":13081,"unes":13082,"Ġpourv":13083,"ĠrÃ©cup":13084,"alita":13085,"ĠPC":13086,"ĠPCP":13087,"Ġraci":13088,"Ġentente":13089,"Ġcessent":13090,"Ġ1000":13091,"ĠnÃ©oli":13092,"Ġproduira":13093,"Ġcontrepar":13094,"Ġmalh":13095,"Ġvraies":13096,"Ġdemanda":13097,"ĠHaut":13098,"Ġmaintenue":13099,"tentri":13100,"Ġjoueur":13101,"Ġverser":13102,"Ġabstra":13103,"ĠparamÃ¨tres":13104,"Ġ47":13105,"Ġfournie":13106,"ĠjustifiÃ©es":13107,"ingt":13108,"Ġcapitaliste":13109,"Ġexclut":13110,"rositÃ©":13111,"ĠÃ©nonc":13112,"ĠdÃ©finitions":13113,"Ġseptentri":13114,"ĠharcÃ¨lement":13115,"ĠdÃ©fenseur":13116,"ĠrecommandÃ©":13117,"ĠIrlandais":13118,"ĠconseillÃ©":13119,"ĠgÃ©nÃ©reux":13120,"ĠgÃ©nÃ©rositÃ©":13121,"Ġsouvenez":13122,"ĠpropriÃ©taire":13123,"ĠmatÃ©riels":13124,"Ġsexuels":13125,"ĠtÃ©moin":13126,"ĠhonnÃªtement":13127,"Ġreconnaissante":13128,"Ġremarquables":13129,"Ġrecette":13130,"ĠFinances":13131,"Ġinsuffisants":13132,"ĠsuggÃ¨rent":13133,"Ġprotester":13134,"Ġabattage":13135,"ĠOuganda":13136,"Ġmanipul":13137,"Ġafficher":13138,"Ġrigoureuse":13139,"Ġprocla":13140,"Ġmensong":13141,"ĠprononcÃ©e":13142,"Ġscrupule":13143,
[...]
