#version: 0.2 - Trained by `huggingface/tokenizers`
Ġ t
Ġt h
Ġ a
i n
r e
Ġth e
o n
a t
Ġ w
i s
e r
Ġ s
e n
Ġ c
Ġ o
i t
Ġ p
a n
Ġ b
o r
Ġ m
Ġt o
e s
Ġ f
o u
i on
Ġ in
Ġo f
a l
Ġa n
e d
Ġ h
in g
a r
Ġ d
r o
i c
Ġ e
Ġan d
en t
l e
t h
Ġ n
Ġ re
a s
Ġ is
v e
o m
Ġb e
Ġth at
s t
l y
i l
Ġ i
c t
Ġ g
Ġ l
Ġ u
Ġw h
at ion
Ġ on
u t
o t
Ġw e
Ġf or
s e
p e
m ent
i d
Ġ it
u r
l d
Ġc om
Ġs t
v er
c e
Ġp ro
o w
Ġh a
o l
Ġ y
Ġc on
Ġa l
Ġth is
r a
Ġd e
r i
Ġa re
or t
th e
c h
Ġa s
it h
u l
k e
Ġe u
re s
a y
il l
g h
ou ld
Ġha ve
Ġw ith
Ġn ot
i r
m p
Ġy ou
Ġn e
Ġm e
at e
Ġu n
Ġs u
t er
ou n
a d
Ġeu ro
i m
g e
Ġcom m
p p
o p
Ġeuro pe
o re
Ġs h
b le
it y
Ġs e
an d
Ġe x
i ve
u st
s ion
l i
o s
Ġw ill
an t
e re
er s
Ġp ar
u n
Ġ v
a in
es s
c i
es t
ic h
Ġh as
w e
q u
Ġa t
' s
Ġd o
Ġb y
Ġ en
i f
gh t
Ġwh ich
i es
s o
Ġeurope an
Ġ le
m b
Ġw or
Ġg o
Ġc h
Ġc an
Ġc oun
e t
â Ģ
th er
is t
Ġp res
a m
Ġal l
Ġa g
u s
Ġs o
Ġw as
Ġ r
al ly
o d
u re
ro m
om e
Ġi mp
i v
is sion
e ct
Ġ j
Ġo r
Ġh e
Ġre s
Ġthe re
ver y
en d
Ġa b
Ġw ould
ion s
Ġcomm ission
Ġl i
ou t
Ġp ol
Ġ k
Ġin t
ou r
a c
Ġf rom
Ġa m
ar d
a k
al l
f f
Ġpres id
c on
Ġal so
Ġo ur
Ġb ut
Ġu s
Ġsh ould
i g
Ġre p
Ġ -
d e
a ke
Ġpar t
l l
u m
mb er
Ġthe y
Ġm ust
Ġbe en
d er
Ġa d
ou s
Ġm ore
at es
u e
Ġcon t
an s
Ġpresid ent
Ġcoun t
Ġli ke
ation s
Ġre g
re e
a b
Ġp e
o c
re at
as t
is h
ul t
Ġa c
on e
a ment
Ġf a
Ġab out
s i
pp ort
u d
Ġwh at
ic al
o st
th is
Ġm r
Ġthe ir
Ġon e
ar y
Ġ qu
Ġne ed
Ġn o
ve l
re n
Ġt r
a ble
l o
i re
ment s
on g
e ar
Ġp l
a p
Ġit s
Ġm y
Ġ very
Ġd is
âĢ Ļ
Ġ 1
Ġo ut
i e
Ġs ome
an ce
ci al
a u
f or
Ġwh o
Ġ ri
d u
m s
Ġthe se
Ġa ct
Ġcom p
Ġbe c
Ġf in
Ġwor k
n ow
Ġin c
c ess
Ġt im
op le
li ament
Ġ 2
Ġth an
0 0
Ġm an
Ġun ion
Ġpe ople
Ġri ght
r ou
Ġrep ort
Ġu p
Ġpar liament
Ġst ates
Ġpro p
w h
t e
Ġy ear
Ġimp ort
b ut
a g
r y
r u
en ce
Ġex p
i z
Ġa pp
Ġc o
con om
a re
ter n
f ore
Ġcon s
m e
Ġs a
o se
it ion
ri es
ic e
t s
au se
Ġt e
Ġp re
Ġne w
Ġe conom
in k
ation al
en s
Ġo ther
o in
c es
Ġp os
Ġi f
at ed
Ġtim e
e l
Ġa r
i a
o k
c y
l ic
Ġme mber
o g
Ġe v
h e
a ge
Ġm ar
Ġse e
Ġthe m
p t
Ġcount ries
Ġpol ic
Ġcon c
a ch
ac k
Ġn ow
is e
Ġbe t
Ġj ust
ig n
am e
Ġon ly
Ġh ow
in e
Ġ ra
i al
Ġk now
Ġde c
as e
j ect
c il
Ġan y
pe ct
Ġun der
id e
Ġprop os
i ous
Ġimport ant
' t
Ġcoun cil
Ġs pe
Ġ âĢ
oun d
t ed
Ġw ant
Ġt ra
vel op
Ġwe re
Ġde m
it ies
ut ion
Ġs p
res s
Ġf e
Ġe ff
Ġsu pport
Ġde velop
Ġbec ause
c ed
ir st
Ġag ain
th ing
if f
Ġth ink
Ġo b
ere n
e ver
r ic
Ġwh en
Ġw ay
in d
Ġpol it
Ġre c
ct ion
Ġp er
Ġwor ld
il ity
Ġin d
i p
Ġint o
Ġm ake
u b
Ġd iff
Ġs ay
Ġpolic y
Ġs er
a ce
le ar
m r
Ġyou r
un d
Ġin v
for m
Ġb o
Ġo ver
se l
Ġm ad
ver n
Ġha d
ing s
Ġo p
Ġis s
er n
Ġpro ble
t ain
Ġl o
st e
Ġ ro
Ġag ree
ul ar
u ch
Ġt ake
Ġs y
Ġle g
i ght
r it
Ġ- -
Ġp oin
Ġpart ic
v ed
k s
Ġh is
Ġc l
Ġcomm it
Ġeconom ic
d ay
Ġt w
i gh
Ġgo vern
ro w
at ive
the re
Ġtr ans
Ġv ot
Ġin tern
Ġsu ch
th at
Ġf irst
li e
Ġman y
Ġyear s
ent ion
Ġpro g
an g
Ġth ose
a ct
Ġmar ke
u res
Ġc ould
t ing
g y
Ġqu est
Ġh ere
Ġa f
si ble
f ul
or s
Ġst r
Ġd ire
it e
Ġpropos al
Ġsu b
Ġbe lie
Ġgo od
Ġt er
Ġfa ct
Ġe very
st it
Ġpolit ical
we en
i an
or d
Ġbet ween
p on
Ġf und
Ġg reat
Ġpro v
m m
at h
Ġtw o
Ġpro du
Ġmad e
Ġof f
Ġh um
iv es
e p
Ġbe ing
Ġm o
Ġac c
u es
x t
at ing
r is
or y
Ġt ak
v ing
Ġev en
Ġcomm un
Ġm uch
Ġc our
Ġdo es
Ġm ost
Ġde b
Ġconc ern
il d
Ġg et
Ġl ong
Ġc lear
Ġthere fore
ar ge
an ge
Ġre l
le ct
Ġwh ere
re d
Ġh o
Ġm at
Ġre m
Ġhum an
h ow
Ġb as
Ġpartic ular
ce pt
Ġg en
Ġcon f
w ard
rou p
ĠâĢ ĵ
Ġres pon
Ġsy ste
Ġ2 00
Ġright s
Ġg roup
Ġdire ct
Ġbelie ve
u al
ur al
ou gh
Ġwe ll
ub lic
w n
r at
Ġp ri
Ġapp ro
Ġsa id
Ġso cial
Ġfin an
Ġs it
er ation
Ġst ate
a mp
is m
n ot
Ġh igh
as s
Ġre f
Ġm ay
Ġn u
Ġdis c
Ġm on
er al
Ġpro t
ol l
Ġcount ry
Ġm in
Ġto o
Ġad d
Ġlo ok
re ad
Ġex t
w ay
m in
it ed
ie w
Ġf ar
Ġam end
Ġthe n
Ġp ut
Ġl a
v es
Ġagain st
en cy
Ġdem oc
ere st
l u
Ġse c
m an
Ġs ame
Ġc ur
Ġgo ing
rou gh
Ġmarke t
Ġquest ion
Ġto day
y ou
Ġp r
Ġinc re
ol ution
ar t
Ġd id
Ġu se
is ion
Ġc all
Ġde f
Ġpoin t
Ġre qu
Ġre al
Ġdiff eren
i le
Ġen d
Ġf ut
Ġint erest
ow n
Ġ ent
Ġm a
Ġcan not
wh at
ren t
Ġat t
Ġfut ure
Ġcont in
ge t
Ġe mp
Ġeff ect
Ġt reat
Ġdevelop ment
Ġp ublic
u ation
Ġst ill
Ġth rough
er tain
l es
Ġd es
if ic
Ġs i
Ġ (
it iz
Ġ1 9
Ġcommit te
Ġl ast
Ġt ur
Ġn ational
Ġfinan cial
Ġha pp
mb ers
al th
Ġhe l
k ing
Ġ "
Ġas s
o b
Ġiss ue
Ġo wn
Ġre ally
Ġreg ard
u ally
Ġh er
Ġc itiz
Ġme as
Ġg u
Ġgovern ment
Ġprot ect
Ġprog ra
Ġsyste m
Ġg row
ent s
Ġle ad
the y
Ġb ud
Ġintern ational
Ġc ar
Ġhel p
l ed
as on
Ġwh y
ow er
pe t
' re
ol og
lo y
Ġ '
Ġs m
Ġin form
t y
Ġres ult
iv en
es e
le ment
Ġcommitte e
Ġmat ter
Ġproble m
con d
Ġt al
is ed
n ing
Ġcour se
Ġ ke
Ġen v
ru ct
Ġcommission er
Ġcons id
Ġb r
b ility
read y
Ġb ack
Ġle vel
a il
Ġcitiz ens
Ġal ready
Ġv iew
Ġsit uation
o od
Ġin ter
Ġpos sible
Ġre ason
Ġp ers
Ġho pe
Ġs c
w or
sel f
g an
in ce
ir on
Ġdeb ate
i ed
ill ion
ul ation
Ġme mbers
Ġbo th
et y
Ġex amp
s ure
Ġpro cess
ou se
ic t
Ġc ertain
u th
Ġs ign
er gy
Ġcom e
Ġor der
b al
Ġagree ment
ra ct
ur ing
Ġd ra
iron ment
h ip
ic i
Ġse t
Ġb an
Ġb u
Ġw ar
ch ie
Ġbe fore
Ġas k
Ġenv ironment
how ever
ch n
er ic
ak ing
l ud
Ġa chie
Ġco op
ci p
or ity
n e
Ġh im
t le
Ġad op
Ġg lo
Ġen ergy
Ġdifferen t
Ġc ent
Ġa ble
Ġf ul
o ther
Ġsome thing
Ġne g
ic es
f t
Ġbud get
l ish
ic ally
Ġa ff
Ġin stit
Ġtrans p
ut ions
t o
Ġth ings
Ġcomm on
ur ther
r ation
Ġd ay
Ġc ase
Ġcom pet
Ġcommun ity
g in
Ġc ap
Ġcur rent
Ġla w
Ġh ouse
in a
Ġinv est
om en
Ġc ol
Ġfor m
t en
Ġexamp le
Ġwith in
Ġst and
b e
Ġpre v
Ġdisc us
Ġc ris
it s
ri but
Ġch ange
ur ity
Ġma j
ate ly
Ġi de
Ġpres ent
Ġg ive
Ġmeas ures
Ġser v
Ġm ain
Ġsu c
e ur
m en
Ġglo bal
Ġm ed
Ġwith out
Ġvot e
Ġd on
Ġhow ever
Ġf ore
Ġd own
Ġbe h
oun t
Ġme ans
Ġpl ace
Ġl it
e f
Ġte chn
c ome
o ver
Ġpr in
Ġs ol
v en
is l
Ġtak en
Ġl if
Ġproble ms
Ġimp ro
Ġin f
Ġam eric
Ġsi mp
Ġres pect
st and
Ġsec urity
Ġhe alth
Ġaf ter
Ġstr ate
Ġnu mber
Ġm od
ath er
Ġbet ter
Ġde al
Ġa uth
a ir
Ġf ra
ere d
ver s
Ġcoop eration
Ġinform ation
Ġun ited
Ġb us
Ġfin d
Ġth ree
Ġleg isl
Ġp ower
Ġdirect ive
Ġreg ion
re ed
i ly
Ġg r
Ġcris is
it al
Ġr ul
Ġor gan
Ġse ct
Ġs ch
Ġpl ay
Ġact ion
Ġob ject
Ġne cess
ent ly
it ions
l ess
Ġall ow
Ġare a
Ġprin cip
ab ility
Ġfe w
it ive
pport eur
Ġind ust
oll ow
c om
Ġ2 0
at er
l and
Ġc re
p h
Ġde p
Ġch ild
ist s
Ġp h
Ġr is
Ġn or
Ġn at
Ġpro m
Ġe lect
Ġh and
Ġwe l
Ġd one
wor k
Ġb l
n o
Ġe m
Ġa p
pport un
Ġme et
ut e
ent ial
Ġact ually
Ġrep res
Ġ est
Ġe ar
Ġo pportun
Ġv al
ic ult
al ity
Ġra pporteur
Ġsh e
u c
Ġre du
Ġinc lud
ort s
al f
d s
Ġ 3
is ation
Ġop en
Ġsa f
Ġs ince
Ġw omen
Ġre st
Ġlit tle
Ġne xt
ar ch
Ġdiff icult
ot i
Ġt a
Ġtra de
Ġsh ow
' m
Ġs ur
Ġimp lement
Ġk ind
Ġa v
Ġw ish
or ities
Ġfa v
e g
Ġin de
Ġincre as
Ġrem ain
Ġthan k
Ġf ollow
Ġc or
Ġexp er
Ġl ess
Ġen sure
Ġpl an
way s
Ġe qu
Ġdemoc rat
us si
Ġac cept
Ġad v
Ġf urther
ic k
Ġinv ol
Ġin s
m y
Ġneg oti
Ġcont ro
s he
al s
it i
Ġcomp le
Ġprogra m
Ġtreat y
Ġspe ci
ou ra
Ġlif e
Ġwh e
y ing
Ġiss ues
c ing
Ġj ob
Ġf r
Ġser ious
ic s
ro s
Ġmr s
loy ment
one y
Ġth ing
Ġin st
Ġunder stand
Ġv i
Ġse cond
Ġc ost
Ġgrow th
Ġrul es
li g
id ed
Ġle t
Ġconsid er
Ġg ent
od y
are d
Ġi r
Ġgent le
Ġpers on
Ġan other
Ġprodu ct
Ġnecess ary
Ġb en
Ġsm all
Ġg iven
Ġrequ ire
Ġhapp en
Ġneed s
in ess
Ġleg al
Ġro le
Ġbec ome
Ġwhe ther
ir d
ad ies
Ġamend ments
sel ves
Ġm oney
Ġgentle men
Ġal ways
p er
Ġwho le
c u
Ġprotect ion
Ġre ad
Ġpro ced
Ġr ussi
Ġpos ition
Ġl arge
a ve
Ġi mm
is ter
p ar
Ġsuc cess
a v
si bility
Ġeconom y
Ġare as
Ġmo ve
ra cy
Ġcon v
ge ther
Ġso ci
g g
. "
Ġch ina
th ese
Ġc rit
Ġappro ach
Ġparticular ly
Ġcons um
sion s
Ġne ver
n ess
Ġus ed
our ces
e m
Ġpro ject
Ġm illion
ros s
âĢ Ŀ
Ġre v
Ġprog ress
Ġa id
Ġprogram me
Ġres olution
in es
Ġcon d
Ġdec ision
Ġin iti
le t
Ġm il
en se
Ġcont ribut
en g
Ġb al
Ġfe el
Ġp ay
y s
Ġsect or
Ġst ep
Ġta x
Ġf ish
Ġre se
ĠâĢ ľ
im ate
Ġeffect ive
Ġpresid ency
ab lish
r al
ab ly
Ġp ract
Ġcontin ue
Ġop in
' ve
ult ural
Ġe as
ward s
Ġto gether
Ġ19 9
Ġcomp an
Ġp ur
Ġstr ong
is ions
Ġl ot
Ġdo ing
m ore
Ġben ef
ou ght
Ġ es
Ġu r
Ġspeci f
Ġserv ices
Ġ ed
n ed
Ġwork ing
Ġrepres ent
Ġf ree
Ġag ric
re t
Ġter ms
ro du
Ġfra me
Ġfa il
r or
Ġp o
Ġe l
Ġcon stit
Ġfav our
Ġest ablish
Ġfor ward
Ġinstit utions
Ġrese arch
Ġme an
Ġm ight
m ost
Ġd ist
Ġ 5
Ġproposal s
Ġst ud
Ġst ar
Ġstrate gy
n er
s w
Ġpe ace
Ġch ang
Ġcontro l
iv ing
Ġw rit
Ġf ood
Ġsu pp
Ġbas is
eren ce
Ġj oin
Ġl adies
Ġp op
Ġrel ations
Ġexper i
Ġspe ak
Ġe ach
Ġar ound
Ġtechn olog
Ġf ound
Ġa im
Ġb ro
Ġbus iness
os ed
Ġfund ament
Ġc reat
Ġamend ment
Ġsub ject
Ġy et
ap s
Ġit self
Ġqu ite
Ġgen eral
Ġte ll
Ġframe work
Ġon ce
Ġf ac
Ġwel come
Ġs ing
Ġ ess
Ġc are
Ġbr ing
Ġachie ve
Ġbu ild
i ble
Ġo pp
Ġre ach
Ġg ot
Ġsh ort
Ġdemoc racy
Ġchild ren
Ġf am
Ġm ention
Ġof ten
Ġex pect
Ġtal k
Ġan sw
ar m
Ġb est
Ġch all
th en
Ġd uring
li ght
p ri
Ġc ri
Ġ 4
Ġopportun ity
Ġr ather
Ġopin ion
Ġa w
ag es
ak es
Ġli b
Ġar t
Ġmon th
Ġdem and
Ġlegisl ation
ult ure
le g
Ġst ruct
Ġb ig
Ġimpro ve
an ces
Ġab s
Ġp le
Ġprom ot
Ġc lo
Ġincre ase
Ġag o
Ġex ist
Ġext re
Ġwh ile
iv id
Ġbe gin
Ġmin ister
f ort
Ġsu ff
mp t
f in
Ġfore ign
Ġc a
man y
Ġint eg
og n
c lear
Ġs w
reed om
Ġmaj or
Ġt ri
Ġst art
Ġl im
Ġen ough
st ain
Ġi m
ant s
oc k
id es
Ġvi ol
as es
Ġindust ry
Ġl ab
th ers
Ġto wards
Ġconcern ed
l ing
Ġh ard
Ġm aking
Ġwe e
if ied
Ġfundament al
Ġadop ted
Ġacc ount
Ġle ast
Ġen g
Ġrec ogn
e u
Ġv ar
Ġide a
Ġb ar
Ġdemocrat ic
ci ally
Ġres ources
Ġprov ide
at ives
Ġh ist
en ces
Ġf reedom
se qu
Ġvot ed
Ġre t
i vers
Ġreg ulation
Ġpolic ies
Ġact iv
Ġg er
ard s
Ġre form
Ġsh all
Ġsu mm
Ġp at
Ġo c
w ith
Ġap pe
Ġc iv
end ing
Ġsoci ety
Ġcon g
iz e
Ġaf ric
n ers
Ġrussi a
wh en
g ed
Ġdiscus s
Ġprincip le
Ġcon st
b on
a ren
Ġed uc
m it
Ġreg ul
ith er
Ġclear ly
Ġac cess
Ġinclud ing
ar ant
im e
Ġsign ific
Ġf l
Ġimport ance
Ġpropos ed
Ġcol le
Ġth ird
Ġcond itions
ie ld
Ġciv il
in ed
Ġconc lu
Ġadd ress
i b
as ed
Ġtransp ort
o f
Ġexp ress
arant e
d o
Ġa ir
ren g
Ġo ld
Ġrespon sibility
is ing
Ġint rodu
o ve
a f
Ġpro f
Ġsing le
ar ity
Ġgu arante
Ġind ivid
Ġnegoti ations
Ġter ror
Ġclo se
ou b
Ġh ome
Ġwor ds
Ġris k
pe cially
Ġst reng
ra ph
ar s
ord in
Ġexp l
Ġm om
Ġsu re
id ence
Ġgreat er
Ġextre me
Ġs ci
Ġm or
Ġatt ention
Ġen c
end s
e c
wh ere
Ġemp loyment
Ġtak ing
Ġcre ate
Ġrec ent
p l
Ġadd ition
fort un
00 0
Ġl ist
i od
m ad
Ġke ep
Ġam ong
Ġes pecially
Ġno thing
g er
Ġpoin ts
Ġindivid ual
Ġpos itive
p end
Ġf ight
Ġful l
ke y
Ġlead ers
Ġl oc
o v
Ġp ass
Ġauth orities
u ge
Ġmil it
o ol
Ġsu stain
Ġcom b
Ġcent ral
Ġprev ent
Ġsaf ety
Ġenvironment al
Ġsimp ly
Ġv is
on s
Ġp ast
Ġeff orts
id ent
Ġfund s
Ġre ce
Ġop er
Ġha ving
b y
Ġproced ure
o ld
Ġbas ed
t il
' ll
Ġpart ners
Ġf our
h aps
Ġcall ed
Ġfor ce
Ġbeh alf
Ġess ential
Ġle ar
Ġch ar
Ġr u
Ġtr ue
Ġbe l
Ġhe ad
al e
Ġintern al
Ġan n
Ġspecif ic
f irst
Ġth ought
Ġquest ions
Ġinterest s
Ġle ft
us ed
Ġneed ed
Ġnu clear
Ġo thers
iz ed
Ġw ater
Ġke y
Ġproduct s
at a
eu ro
n g
Ġameric a
Ġs ou
ce ed
Ġde t
i um
Ġban k
ic ial
Ġdec l
Ġincreas ing
Ġmarke ts
er ing
Ġcomple te
Ġtim es
Ġf oc
Ġm ind
ar k
b ody
Ġlong er
Ġs olution
Ġcertain ly
Ġcl imate
on d
Ġsignific ant
Ġm is
iz ation
Ġconcern s
Ġcompan ies
Ġs l
g o
e mp
Ġtur n
Ġst at
c o
Ġgovern ments
Ġpri v
Ġf ri
Ġper iod
ens ive
Ġinst ru
Ġpart y
Ġse en
Ġman age
Ġis ra
Ġmom ent
in ing
Ġc e
Ġl ive
Ġg re
ir m
Ġm akes
Ġr un
Ġappro pri
Ġe ver
Ġn ame
fortun ately
h as
ul ate
Ġm id
euro pe
mad am
Ġdevelop ing
er v
Ġconstit ution
Ġansw er
Ġmilit ary
Ġprop er
u g
min ist
ter m
Ġthem selves
Ġm ot
Ġwork ers
Ġinvol ved
Ġch o
Ġaff ect
Ġth reat
Ġc red
Ġcompet ition
ici ent
Ġte xt
air s
Ġb ur
Ġp en
Ġeduc ation
Ġ z
an k
ne w
Ġimp act
Ġfar m
Ġyou ng
v ious
Ġn on
Ġw on
Ġ1 0
Ġsee ms
Ġf ield
Ġl ack
Ġenc oura
Ġcom es
c ise
ter s
Ġd ata
Ġtur key
Ġconf lic
Ġcour t
s id
Ġf all
Ġa way
ci es
Ġar g
Ġres ol
Ġcolle ag
Ġs ense
Ġto t
Ġad minist
Ġregion al
Ġas pect
Ġextreme ly
Ġb or
Ġan im
Ġacc ord
Ġen l
Ġi d
Ġmaj ority
Ġmonth s
Ġcong rat
Ġful ly
Ġav ail
Ġne t
Ġadop t
Ġe le
Ġsch ool
ra q
iv ed
Ġtra d
Ġvar ious
Ġgroup s
ic ation
Ġent ire
e ch
Ġspe cial
Ġt y
ra in
Ġ 6
Ġinvest ment
Ġsh are
c ent
Ġcap ital
Ġth ough
og ue
gg est
Ġsu ggest
Ġf un
Ġd ial
er g
i ans
Ġoc c
Ġevery thing
Ġso on
Ġfa ce
Ġru le
Ġreg ions
s ide
at ic
Ġask ed
Ġdec isions
Ġi raq
Ġmeet ing
Ġcon sequ
il ities
Ġjob s
Ġag end
Ġco h
Ġstreng then
ic le
fin ally
Ġcomp rom
ces sion
ar ian
Ġl ang
Ġ er
Ġh on
om m
Ġp ot
Ġd ri
Ġcont e
a z
li es
Ġresult s
Ġcost s
Ġo pt
Ġaff airs
Ġp al
st r
er t
end ed
Ġemp has
Ġinde pend
Ġd ang
ap an
ver al
ce ll
me mber
ste ad
at ors
Ġstand ards
Ġl is
ific ation
Ġprogra mm
Ġb re
Ġho ld
Ġagend a
Ġqu ality
it ing
ist an
Ġal most
Ġpartic ip
Ġrequ est
Ġagric ultural
Ġtr y
Ġsub st
d en
Ġf ive
as h
Ġsyste ms
Ġobject ive
Ġe ur
Ġb illion
Ġdial ogue
Ġiniti ative
Ġinde ed
Ġd oub
no v
Ġreason s
u p
Ġlis bon
Ġqu ick
Ġ20 1
n ect
le v
Ġmod el
Ġc ir
Ġlang u
Ġc ame
Ġst ability
Ġdra w
j ust
ful ly
Ġpop ulation
Ġco ordin
Ġun til
Ġgen er
Ġac ross
. .
on t
Ġt as
it or
Ġwrit ing
Ġc ut
Ġavail able
Ġaw are
if y
Ġprodu ction
Ġafric a
ri ed
Ġto ok
i er
s ome
Ġinc lu
Ġdes ign
Ġsol id
Ġid ent
Ġwee k
Ġb rit
Ġ rom
Ġw r
Ġhe ar
Ġo ri
Ġloc al
Ġli ght
arge ment
Ġw ent
Ġg ra
Ġw a
Ġv ict
Ġpart ies
Ġdo cu
Ġapp lic
m or
Ġass ist
p le
Ġel se
Ġcom ing
Ġh arm
Ġex c
d le
Ġameric an
Ġagree ments
Ġfoc us
Ġconte xt
c ri
Ġa mb
Ġp ric
Ġf le
Ġtal king
Ġcir c
Ġg e
im s
Ġj ud
Ġmention ed
in de
ed i
Ġe ast
Ġcurrent ly
Ġd om
Ġref er
Ġobject ives
ag ed
l ine
Ġp a
Ġin nov
Ġsumm it
Ġm ult
ric t
Ġan t
se cond
Ġtechnolog y
Ġc ases
Ġfollow ing
Ġl ine
Ġper haps
Ġt en
Ġdem on
Ġob s
Ġass ess
c k
Ġl at
ur n
Ġse veral
ur y
Ġbo ok
Ġabs ol
or m
ut es
im es
Ġur g
Ġjoin t
Ġevery one
Ġir an
the less
Ġlib eral
Ġapp ly
Ġex cell
Ġjust ice
r ing
Ġj apan
Ġob vious
Ġp ost
Ġwr ong
i res
an ced
Ġbro ad
Ġenl argement
i bility
Ġconv ention
Ġwant ed
us h
Ġfin al
Ġhist ory
Ġabsol ute
Ġt arge
er ia
iven ess
at ory
Ġto p
Ġu k
Ġcont ain
at ch
Ġdang er
i o
u ed
ap er
Ġmatter s
Ġ 7
Ġrespon sible
Ġo il
Ġn ations
ren ch
Ġ 8
om et
Ġconsum ers
Ġh alf
im il
Ġprogramm es
Ġro ad
Ġmain tain
ist ic
o ff
r ast
Ġd est
si b
Ġimplement ation
an e
Ġsay ing
p ris
h ere
' d
Ġany thing
Ġconsum er
Ġb ad
l f
Ġmad am
Ġchang es
Ġappropri ate
Ġl ow
inde ed
Ġre ject
Ġconf erence
Ġcomprom ise
is es
Ġtr ying
es sion
Ġfa ir
Ġsi x
Ġhe ard
Ġde ep
Ġs at
Ġc ru
Ġday s
led ge
Ġme t
Ġ ve
Ġlook ing
Ġexperi ence
Ġs ide
Ġd ut
Ġl iving
Ġmid dle
o id
Ġinstit ution
Ġpric es
Ġpre p
imil ar
Ġp ack
Ġrec omm
Ġpo or
Ġsci ent
a pp
Ġsee m
b our
Ġs k
Ġ ver
Ġt est
Ġcon nect
Ġrespon se
p s
Ġpro b
we ll
over ty
Ġst op
Ġchall eng
re g
Ġisra el
Ġent er
ad e
Ġachie ved
Ġnat ure
rou ght
Ġexcell ent
Ġpal est
p r
Ġde ath
Ġr ate
Ġm ess
Ġval ues
Ġmanage ment
Ġy es
2 0
Ġguarante e
Ġori gin
res sion
Ġelect ions
s h
Ġprincip les
Ġfish er
Ġ 9
b an
Ġstar ted
Ġopp os
ab led
Ġcommit ment
Ġe ither
Ġproject s
ue l
en ing
Ġremain s
Ġm ass
Ġg ree
Ġne igh
min ation
Ġval ue
Ġf ig
Ġour selves
y es
Ġter m
Ġl ink
re ct
Ġinteg ration
Ġsustain able
Ġp overty
Ġpr ice
p ite
Ġimm ig
Ġsub sid
Ġf rench
Ġus ing
Ġsu per
Ġviol ence
wh y
Ġart icle
Ġde v
is f
Ġactiv ities
Ġsolid arity
Ġcongrat ulate
Ġl and
Ġl os
li ed
Ġh uge
Ġl ives
Ġc amp
Ġwe ak
ac y
Ġdis e
Ġstrate g
Ġpriv ate
li ke
s p
Ġquick ly
Ġm us
Ġde ter
Ġreport s
Ġdid n
ch an
us es
Ġserv ice
Ġpro s
Ġse lf
l er
Ġe c
Ġmon itor
Ġpri ority
Ġal ong
Ġbenef it
Ġger many
Ġsou th
Ġdec ided
th od
f er
Ġme chan
Ġup on
Ġst ress
Ġ1 5
Ġhappen ed
Ġconcern ing
Ġfe ll
Ġatt ack
Ġconflic t
Ġin e
Ġun emp
Ġdet ail
Ġex ch
Ġm en
Ġs ent
Ġp ort
Ġrec ently
Ġredu ce
aren cy
there fore
Ġref lect
Ġdemon str
Ġfund ing
Ġto mor
de m
ru pt
Ġprob ably
as ter
Ġtomor row
Ġg l
et ary
Ġpl ac
Ġgr ound
Ġan al
ac c
Ġd am
Ġab ove
Ġconsequ ences
Ġgo es
Ġdra ft
Ġpur p
Ġde l
Ġs ort
tern al
Ġoff icial
Ġd ue
Ġwor d
Ġbec om
Ġprov ided
Ġinf lu
Ġb i
so ci
ure d
un ch
Ġto ld
ve re
er ial
h old
b o
Ġimm edi
Ġfam ily
Ġdis p
Ġincreas ed
Ġit al
Ġdef in
Ġpot ential
i ation
Ġd i
Ġtransp arency
Ġbas ic
Ġbeh ind
Ġre d
Ġemp loy
Ġbal ance
Ġgre en
Ġat te
Ġnat ural
Ġob lig
Ġthink ing
og raph
en ge
ru ction
second ly
Ġb rought
Ġmod ern
Ġre lig
Ġal one
li f
Ġrequire d
Ġc ause
Ġfr ance
Ġinclu de
Ġc y
more over
Ġway s
Ġdiscus sion
Ġcomplete ly
c al
Ġle ave
Ġpract ice
Ġagric ulture
Ġspe ech
Ġme thod
Ġstruct ural
Ġcl os
Ġprev ious
in ation
u ff
ire d
Ġper cent
a h
af ter
Ġchall enge
Ġreal ity
th ough
Ġre pe
Ġout side
be c
Ġpromot e
Ġcru cial
Ġc ulture
omet imes
com m
u se
id ing
Ġem erg
Ġl ater
Ġterror ism
Ġmon etary
Ġth us
Ġev ent
Ġa ut
Ġdoub t
ow ers
ive ly
Ġav oid
Ġchalleng es
m ar
for ms
Ġear ly
Ġd oll
u ly
in s
Ġl ar
Ġmove ment
Ġc ross
Ġexpl ain
bec ause
t od
Ġind ic
Ġsay s
Ġ il
tod ay
Ġh un
Ġex ternal
Ġag reed
Ġb ri
ivers ity
at eral
Ġbuild ing
Ġb it
Ġhapp y
Ġhigh er
en sion
it arian
Ġas soci
Ġimp os
Ġf ear
ission s
ru g
Ġind ia
Ġtas k
Ġ ill
Ġst age
Ġcontribut ion
Ġcl a
Ġpur s
Ġc ultural
or ies
Ġst e
Ġeff ort
Ġcar ry
Ġget ting
Ġact ions
Ġro om
Ġregard ing
t om
er ve
Ġrecomm end
Ġhe ld
im um
Ġcommun ication
Ġpalest in
Ġs ound
Ġd en
Ġtak es
Ġcolleag ues
g est
r on
Ġrev iew
it er
Ġret urn
re am
ll ing
Ġcri min
Ġlegisl ative
Ġpre cise
Ġdire ction
w ise
Ġex act
Ġpartners hip
Ġfarm ers
Ġdeb t
Ġv ol
Ġvot ing
Ġra p
ri al
e ven
Ġc and
Ġh our
Ġple ased
Ġbegin ning
ct ions
Ġpres sure
Ġra d
Ġsat isf
Ġex cept
Ġtechn ical
Ġcor rect
Ġlangu age
Ġst ory
Ġexist ing
Ġe mb
Ġfor ces
wh ile
Ġte ach
Ġassist ance
Ġp aper
Ġre member
Ġlike ly
Ġa ud
in ese
Ġabsolute ly
a rent
b or
ous and
Ġreg ime
e x
Ġnor th
Ġregul ations
ous ly
ter day
il ateral
Ġopportun ities
i or
Ġcons ult
Ġlo ve
Ġlab our
Ġk ill
Ġas se
Ġal though
Ġac cession
Ġorgan is
t on
Ġs an
Ġstate ment
Ġdevelop ed
Ġl ost
Ġra ised
ra d
Ġban ks
Ġide as
Ġc oll
Ġj un
Ġs imilar
en cies
Ġtot al
Ġcreat ed
Ġne ar
Ġcap ac
Ġc le
Ġcre ation
Ġam ount
Ġequ al
en ed
Ġr at
Ġthrough out
Ġv ital
ition al
Ġr ise
Ġcur ren
Ġcoh es
l ation
Ġfin ally
Ġregard s
Ġaspect s
Ġsimp le
Ġpres s
Ġoff er
g es
Ġil leg
Ġf is
Ġse a
c an
Ġf lo
Ġwas te
off ice
Ġtra ff
Ġre forms
Ġr ates
Ġwon der
Ġth ousand
Ġconf idence
es tern
e very
Ġeffect s
Ġa ge
y ond
Ġm ist
Ġread ing
Ġch inese
Ġcand id
Ġd rug
Ġal tern
r ist
Ġlevel s
Ġmed ia
ver se
Ġknow ledge
Ġunemp loyment
Ġin stead
Ġgrow ing
Ġfle x
Ġi g
Ġr ich
g ing
mit ted
l t
Ġsuccess ful
r ated
Ġch e
Ġreach ed
Ġcar ried
u ing
Ġcrit ic
Ġlear n
p or
at or
pp ed
Ġ3 0
Ġprep ared
i ally
Ġde li
ish ed
Ġcrit eria
Ġstud y
Ġinter v
Ġg ain
o ot
Ġeff ici
Ġinterest ing
Ġd iv
Ġauth ority
Ġcohes ion
Ġcomple x
Ġim ag
ro p
Ġindust rial
ar ing
Ġmy self
Ġpers pect
Ġp owers
Ġpresent ed
l am
Ġbrit ish
p re
Ġdoes n
Ġharm on
Ġcirc um
Ġproced ures
Ġd im
Ġv o
Ġrequ ires
Ġdocu ment
Ġc al
Ġex am
Ġmat erial
sel s
Ġsw ed
Ġrel ation
olog ical
Ġbenef its
Ġpack age
Ġbudget ary
Ġ200 0
Ġe th
Ġch ance
Ġtr ust
ord ers
Ġrap id
r ate
est ic
re ly
Ġb ody
Ġwor th
Ġwant s
Ġoff ice
Ġallow ed
r ary
j o
Ġperson al
Ġexch ange
h a
Ġtraff ic
Ġs ometimes
Ġeconom ies
Ġeas y
an ia
Ġcompet it
Ġaccord ing
Ġrelations hip
Ġa ra
Ġrespon d
Ġpri orities
Ġst ri
Ġc od
Ġwho se
d om
Ġpat i
d on
Ġ1 2
Ġtra ining
k now
at s
mpt ion
Ġw est
du ct
Ġintern et
Ġm ill
Ġmess age
i x
Ġbe yond
Ġencoura ge
Ġcapac ity
ore d
Ġknow n
Ġinstru ment
Ġw al
? "
Ġ 000
Ġ5 0
Ġbre ak
l a
Ġde ad
f urther
Ġev ents
Ġa ust
Ġr ural
Ġsupport ed
Ġg iving
Ġw estern
op h
Ġsec ret
Ġcol lect
a ff
Ġcompan y
Ġparliament ary
Ġfisher ies
Ġl ed
Ġear th
g en
Ġsa w
ĠâĢ ĺ
c er
Ġscient ific
Ġthan ks
Ġcl ass
Ġhigh light
Ġdep end
Ġem issions
Ġfun ction
Ġinnov ation
our ce
Ġvict ims
Ġprov isions
Ġext ra
Ġrequire ments
a ction
Ġnot e
Ġrep ublic
Ġ2 5
Ġgr ant
Ġanim als
ther n
Ġfell ow
Ġre con
Ġprodu ce
Ġrem ind
Ġs al
Ġg ave
Ġexact ly
Ġpol ice
oura ble
Ġter rit
Ġtreat ment
Ġfam il
Ġrece ived
Ġf ed
Ġsp ace
y et
Ġt abled
Ġp ie
Ġreg ret
Ġg as
Ġmin utes
Ġform er
a ut
europe an
Ġde ce
Ġint el
Ġpol l
Ġre new
sib ilities
o pe
Ġadv ant
f ect
r ound
Ġl ate
ris on
Ġcri me
Ġhe art
Ġsol utions
Ġinstru ments
' .
o ke
Ġb orders
he ad
k ed
Ġ1 1
Ġte mp
Ġfr ont
un fortunately
b er
Ġi re
Ġpolit ics
Ġyes terday
Ġpri me
p res
Ġcomp ut
Ġcent ury
Ġiniti atives
Ġwe ap
re ci
Ġire land
Ġcreat ing
Ġp ict
Ġhist or
Ġsubst ant
ot e
li er
Ġshow s
Ġmonitor ing
ici ans
Ġsh own
a ign
Ġpre par
Ġcircum st
n am
v al
gh an
Ġv ir
Ġneigh bour
Ġc op
Ġre lev
Ġdisc ri
Ġadminist ration
. âĢĿ
Ġger man
Ġaddition al
Ġexp ort
Ġocc ur
i et
Ġcamp aign
Ġleg it
Ġsupp ly
Ġmor ning
c a
y l
se c
ad es
Ġunder t
Ġconclu sion
Ġindepend ent
f r
Ġcon duct
Ġwill ing
Ġsuc ceed
Ġs ens
Ġpart s
Ġis lam
li ance
Ġexpress ed
th ank
Ġen s
Ġsp ir
rast ruct
Ġcons ist
Ġcrimin al
Ġilleg al
Ġsl ow
Ġd r
Ġmed ium
g ar
Ġanal ys
Ġmeas ure
Ġw in
Ġse par
Ġinf rastruct
Ġarg u
Ġestablish ed
Ġdec ide
first ly
u ine
Ġstrateg ic
Ġinflu ence
ac cept
Ġconv in
Ġpurp ose
ver age
Ġfish ing
Ġrec ord
Ġgood s
Ġgu id
Ġnor m
Ġserious ly
Ġbusiness es
Ġdel ay
Ġcurren cy
Ġara b
Ġt ack
il it
Ġas ia
Ġcircumst ances
Ġf irm
Ġn ight
ot s
Ġde g
und red
Ġris ks
u de
Ġcompetit iveness
Ġm and
Ġto ol
Ġcoun ter
oun ts
Ġinvol ve
Ġinclud ed
s es
Ġk ing
Ġsp ending
Ġorganis ations
Ġw atch
Ġun accept
l ast
qu e
Ġinc ome
Ġext ent
Ġpract ical
Ġun d
Ġgen uine
Ġfri ends
p ol
Ġre in
Ġfis cal
Ġdef ic
ag raph
Ġaf ghan
Ġwork ed
Ġlim ited
Ġon es
Ġincreasing ly
Ġp ain
am a
ort ion
an ish
il t
Ġdes cri
Ġwee ks
Ġm al
re h
ure au
Ġfri end
Ġview s
l in
Ġdanger ous
) .
os ov
Ġapp reci
Ġimplement ed
Ġeffective ly
Ġact ive
Ġapplic ation
p ro
Ġlim it
further more
Ġb ul
Ġm er
Ġele ction
Ġant i
b ed
Ġhigh ly
r ative
Ġimmig ration
Ġcred it
Ġunaccept able
Ġm ig
Ġag ency
Ġprov ides
Ġcont ent
Ġredu ction
Ġminister s
Ġst ay
Ġconsid ered
it ude
ke t
ent ions
n a
s ince
Ġwar m
Ġchang ed
Ġmot ion
Ġoppos ition
u mption
all ed
Ġapp lied
olog y
Ġdise ase
d p
n ever
Ġb ureau
Ġev idence
Ġinvest ig
Ġrest rict
Ġconst ruct
Ġbri ef
on es
Ġs en
st er
Ġpos sibility
Ġimpos sible
Ġout come
m a
Ġdes pite
Ġper form
Ġc at
Ġk osov
for ce
Ġdiscus sions
s uch
z e
im ately
Ġrel ating
is s
Ġc ou
Ġg ives
Ġany one
Ġpa id
Ġk id
Ġk ore
Ġfail ure
Ġcommit ted
Ġinstitution al
Ġex er
Ġra ise
Ġname ly
h ood
Ġw ide
Ġh undred
Ġfor get
Ġeffici ency
Ġb rain
Ġprecise ly
qu ate
Ġch a
Ġde leg
Ġocc as
Ġperspect ive
Ġdece mber
Ġper fect
Ġassess ment
om p
Ġfail ed
Ġty pe
Ġcho ice
Ġc ity
Ġuse ful
Ġce ll
Ġeas tern
u mp
Ġsect ors
par liament
ri a
Ġen orm
iv ity
land s
Ġdom estic
Ġple ase
an y
Ġstep s
Ġ %
Ġen able
re st
Ġaccept ed
Ġcoordin ation
Ġun fortunately
ict ion
Ġdiscuss ed
Ġrelev ant
Ġstat us
c l
Ġm ut
Ġ200 7
Ġbu y
Ġfor ms
Ġch ec
Ġch rist
Ġaffect ed
Ġhapp ens
Ġactiv ity
Ġmis s
at ure
Ġcom ments
ra ine
pris es
Ġeuropean s
it able
an n
Ġpar agraph
Ġann ual
Ã ©
Ġpro ceed
Ġtr uth
Ġpl ans
m ed
Ġh y
ment al
Ġg ir
Ġspe aking
Ġdirect ly
Ġcom ment
Ġcomp reh
Ġhappen ing
se t
Ġcall s
c ertain
Ġhuman itarian
Ġsc ope
Ġear lier
i ra
Ġmed ic
Ġdist ribut
l om
ou ble
Ġclose ly
Ġgree ce
Ġnew s
ens us
Ġchar act
an u
ust om
Ġj e
c ul
Ġ1 8
Ġdeal ing
Ġanim al
Ġkosov o
Ġto ur
Ġsee k
Ġcontribut e
Ġig n
ag ing
Ġinfrastruct ure
Ġu lt
Ġread y
Ġrepresent atives
Ġl ower
Ġca used
Ġconnect ion
ll ed
l s
Ġfin ance
Ġdecl ar
Ġaltern ative
Ġall oc
c le
um e
Ġcl ar
go vern
Ġt able
Ġcomm er
Ġover all
Ġpalestin ian
oin t
Ġconsider able
Ġrece ive
Ġcon dem
Ġhour s
ow s
Ġs ad
Ġconc ent
ly ing
pp ing
Ġar ri
Ġh or
Ġcon cept
Ġwork s
Ġweap ons
Ġd ate
end it
Ġref uge
Ġaim ed
Ġtri ed
Ġcrit ical
ate ver
Ġqu al
Ġrel ative
Ġobvious ly
w ill
Ġw ind
Ġgo al
Ġch air
us sels
Ġexp lo
Ġpre t
Ġunderstand ing
th ird
om b
Ġty p
o very
Ġspir it
Ġdifferen ce
Ġorgan isation
Ġrussi an
Ġdemand s
d ra
Ġd ip
Ġjun e
Ġun ivers
Ġbec ame
Ġguid el
Ġbe aut
Ġla unch
Ġ19 8
Ġbl ack
Ġab ility
i k
Ġen jo
Ġbor der
Ġbecom ing
m aking
Ġb od
ur ally
Ġev al
Ġclos er
Ġco ver
Ġ200 8
Ġlead ing
Ġsur v
o h
it ious
Ġst ru
Ġra il
Ġlook s
wor ks
Ġconstitution al
Ġb ra
Ġsu d
if t
Ġmar ch
Ġthousand s
Ġit em
Ġrep l
.. .
Ġconvin ced
Ġsu n
Ġwor se
Ġconf irm
Ġpen al
Ġun i
Ġref eren
Ġstand ard
Ġauth or
Ġimpro ved
Ġsci ence
ac ed
Ġcons ensus
Ġbeh av
cu p
Ġas king
Ġspe ed
Ġs end
Ġdam age
Ġf oot
Ġref erence
Ġfac ing
th ose
Ġknow s
Ġdifficult ies
Ġadminist rative
d am
l ant
ar ily
Ġg one
ag n
Ġpolit icians
f act
Ġp ath
Ġp rison
Ġob tain
Ġtra vel
Ġlaw s
Ġeng lish
Ġdip lom
r ane
Ġdef ence
pres ident
r ants
Ġf re
ol id
Ġsp ent
Ġ $
Ġs il
Ġad ap
Ġtechnolog ies
Ġh op
ok ing
Ġdifferen ces
Ġprof ession
Ġhun g
Ġcharact er
Ġsh ip
ord ing
e v
Ġcomp l
Ġuk raine
Ġenter prises
Ġs lo
Ġmo ther
ple ase
Ġappro ved
Ġ1 00
Ġneg ative
er ves
anu ary
Ġa head
Ġappe ar
Ġdiscri mination
on ly
Ġdevelop ments
Ġgovern ance
Ġ200 9
Ġenorm ous
is ms
un der
Ġafghan istan
h is
Ġright ly
Ġb lo
Ġf uel
Ġj anuary
ak istan
Ġprodu ced
Ġsit ting
Ġbus h
Ġwh ite
Ġcont rary
Ġfinan cing
Ġleaders hip
Ġrelig ious
Ġcont ract
Ġconst ant
Ġport ug
Ġse x
Ġredu ced
Ġsaf e
acc ording
never theless
ur ance
Ġmo ving
Ġdut y
Ġl u
alth ough
Ġconclu de
Ġh ar
Ġprov iding
Ġph ys
Ġsuper v
Ġdoll ars
Ġl og
im in
Ġar r
Ġbr ussels
Ġguidel ines
Ġann oun
Ġj our
Ġbo ard
Ġful f
Ġrev olution
z ed
Ġeff icient
Ġput ting
Ġrepres ents
Ġpict ure
yl um
u fact
Ġb at
Ġa de
ver t
Ġurg ent
Ġplac es
Ġens uring
Ġprov ision
y a
Ġw to
Ġmin imum
Ġconclu sions
Ġbod ies
Ġw all
Ġamb itious
Ġr ound
Ġconsid eration
Ġ4 0
Ġhon ourable
t a
Ġentire ly
Ġro b
Ġadopt ion
y e
Ġf il
Ġe at
Ġimpro ving
Ġnet work
Ġexpect ed
Ġc ustom
Ġ1 4
Ġsuff icient
Ġcla im
c ers
am es
Ġcompreh ensive
Ġob st
ar ies
Ġas ylum
vere ign
iter rane
re et
eg u
iterrane an
Ġexp endit
Ġsp read
Ġtur ned
Ġstruct ure
Ġafric an
Ġpre d
Ġbe gan
Ġsh a
Ġp ush
Ġf ather
Ġse p
te mber
Ġinterest ed
Ġbud ge
Ġcompet itive
m es
w ide
Ġman ufact
Ġvo ice
Ġanalys is
Ġsp ain
ist ics
d es
Ġbu ilt
Ġequ ality
Ġtot ally
Ġparticip ation
Ġhe av
Ġ1 3
eren t
Ġt on
Ġhand s
Ġpros pect
Ġsome one
Ġsaf egu
Ġcolleag ue
Ġso vereign
Ġir ish
Ġindepend ence
Ġimmedi ately
Ġital y
el t
Ġdec ades
Ġp akistan
iz ing
Ġcor rupt
Ġcomb at
Ġproper ly
Ġt re
Ġcoop er
om an
Ġcommit ments
Ġ201 0
Ġcandid ate
Ġtal ks
com ing
Ġt un
Ġdemocrat s
Ġst aff
end er
Ġprop ose
Ġfore st
Ġatte mpt
Ġn ice
Ġsc ale
an im
Ġst ated
Ġgo als
Ġinf lation
Ġbe ar
Ġsep tember
2 00
Ġur ge
Ġinterv ention
Ġadvant age
Ġac know
ic les
Ġg dp
iv al
Ġ200 4
Ġfig ure
Ã ¶
Ġa verage
Ġp act
ur d
Ġl ay
, "
Ġs ources
Ġte am
Ġn one
Ġapp lies
Ġacc omp
Ġc ra
oc ol
Ġsp end
Ġst reet
Ġlook ed
Ġsimp lif
Ġplan et
Ġve h
Ġl ose
lud ed
Ġsupp osed
u ght
Ġm ach
ent ially
Ġcons erv
Ġdis aster
Ġsol ve
Ġoc cup
Ġbur den
Ġele ments
Ġstar ting
Ġcompl ain
y ed
ent ed
Ġwh om
Ġstrong ly
Ġge or
Ġrefer red
f rom
Ġh it
Ġexcept ion
Ġimag ine
Ġn ation
Ġre act
Ġsu s
Ġrec overy
s c
Ġdo ct
Ġadd ed
uc k
Ġpie ce
en e
Ġun f
Ġqu ot
Ġcomp ens
e conom
Ġex cess
Ġle a
Ġevery body
x ic
Ġp ra
Ġin h
Ġmay be
Ġme rely
Ġint ended
Ġfe ed
ir ms
âĢ ĵ
Ġbal anced
Ġdiscuss ing
un t
Ġcall ing
Ġtur k
Ġappe ars
Ġe ight
ill s
Ġman aged
Ġsupport ing
Ġdra wn
Ġking dom
p ut
Ġs ource
Ġfac ilit
Ġintrodu ced
Ġmechan ism
Ġcommer cial
Ġwe alth
Ġredu cing
Ġstud ents
at ically
Ġen h
Ġelect ed
or k
el s
aren ts
c alled
Ġaccept able
re te
Ġb ir
Ġwith dra
Ġreferen d
id ents
au ght
Ġflo or
s y
Ġst ock
au gh
Ġinc ent
Ġlar gest
Ġf ast
Ġintrodu ction
Ġd ict
Ġfor ced
Ġmembers hip
Ġtarge ts
in stead
if ul
Ġopen ing
oc ks
Ġappe al
Ġtr uly
Ġexpl an
Ġarr ange
Ġbudge ts
e li
Ġh ost
Ġtrans fer
bor der
Ġvis it
Ġc ro
us ing
Ġac qu
pe ople
Ġaim s
Ġo ught
Ġso ld
Ġset ting
Ġpower ful
l ines
Ġc r
Ġfollow ed
Ġsan ctions
Ġ200 5
Ġs ides
it ation
ul ated
Ġsur pris
Ġp et
Ġnorm al
b ased
Ġun able
in t
en ced
Ġsuff ering
Ġaccord ance
Ġdim ension
o on
Ġconc rete
Ġprodu cers
Ġcontin ues
Ġp ub
Ġtransp arent
Ġaddress ed
Ġinc or
Ġgreat est
Ġcle an
Ġme ant
Ġintrodu ce
l us
Ġd a
Ġdo or
Ġrespon sibilities
Ġbureau c
y ear
Ġcons umption
Ġachie ving
Ġmain ly
Ġnat o
Ġexpendit ure
Ã ¡
Ġw oman
Ġnet works
Ġfamil ies
u ations
Ġch em
Ġwh atever
Ġspecif ically
Ġdeter min
ri ght
Ġor d
Ġdest ro
re p
Ġse ven
Ġv ul
Ġag encies
Ġl ines
Ġrep ly
Ġpre fer
gy pt
comm ission
Ġcomput er
Ġkore a
res pon
Ġun anim
Ġman ner
Ġins ide
Ġemphas ise
Ġdrug s
Ġdeg ree
b s
Ġad just
Ġfra ud
Ġofficial s
i j
Ġst ra
Ġwor ry
Ġcommun ic
Ġopp osed
Ġflex ibility
Ġe yes
e es
Ġv ision
Ġdo g
Ġne ither
m as
Ġspeci es
Ġgra du
Ġf if
Ġg ame
Ġl ies
Ġmo b
Ġobs er
Ġpub lish
Ġf elt
Ġrepresent ative
Ġsh ared
Ġcont act
Ġpromot ing
Ġo ct
Ġb ot
Ġlet ter
Ġd ream
Ġper man
Ġrom ania
Ġvul ner
Ġcomp ar
Ġcomp lic
Ġcare fully
Ġpret ty
Ġp un
ve mber
Ġplay ing
Ġact ual
Ġother wise
Ġhim self
Ġca uses
Ġdeclar ation
Ġcontin ent
Ġbeaut iful
or ry
Ġ200 6
Ġwa it
Ġfor th
Ġsec ure
) ,
z y
Ġre le
Ġco ld
Ġtrans form
Ġcontain s
Ġmethod s
f e
Ġd y
Ġfact or
Ġmill ions
Ġmed iterranean
Ġfig ures
ab il
Ġno vember
Ġimmedi ate
Ġdeleg ation
5 0
ent y
Ġ1 6
Ġs ize
si zed
wh o
Ġatte mp
ro so
Ġdis app
Ġconstruct ive
lant ic
econom ic
Ġp arents
Ġreg ular
Ġmean ing
Ġdesign ed
Ġinform ed
Ġameric ans
Ġcan cer
oura ge
Ġrun ning
Ġreject ed
Ġpros per
Ġsubstant ial
Ġexer cise
a w
Ġt end
Ġe lement
Ġinteg rated
Ġbel g
Ġdocu ments
op s
Ġdef end
Ġi i
Ġwel com
ate ful
Ġlead er
Ġaff ord
Ġst rict
ul ations
Ġelect ric
Ġinst ance
Ġrecogn ition
Ġst im
Ġprev ention
per haps
Ġb er
ur s
Ġte le
Ġgo d
Ġsp anish
Ġrepe at
m ay
n es
Ġchar ter
Ġd er
re l
an other
ate g
Ġex ec
mr s
Ġcommun ities
Ġimprove ment
Ġaud it
t ic
v iet
Ġsupport s
Ġser ve
Ġvir t
Ġreferend um
er y
Ġparliament s
Ġdes ire
Ġmor al
Ġsens itive
Ġt ren
Ġw id
st ood
ob er
Ġke pt
Ġins ist
Ġfac ed
Ġlim its
Ġresol ve
Ġtrad itional
Ġlarge ly
Ġto uch
Ġh om
Ġdis ch
Ġ1 7
Ġsubsid ies
Ġdeli ver
Ġcou ple
commission er
Ġdeal t
Ġmechan isms
Ġint ention
Ġsa v
Ġ200 3
Ġcar s
Ġcomb ating
Ġstru gg
Ġturk ish
Ġy ork
Ġinvest ments
Ġstruct ures
govern mental
Ġres ist
Ġrel ated
Ġ200 1
rat ic
Ġeng ine
Ġrecogn ise
Ġgl ad
Ġoct ober
m ark
Ġst uff
ag en
Ġwish es
Ġh ot
Ġar ms
Ġimplement ing
z one
Ġe gypt
Ġpoin ted
Ġpri m
go ing
Ġtarge t
Ġobst ac
m atic
Ġpol and
Ġexp orts
Ġsee ing
Ġcontin uing
Ġattack s
Ġe p
Ġfact ors
Ġlear ned
Ġwa iting
Ġcha mber
Ġob ama
Ġrefuge es
en h
Ġd iversity
Ġexamp les
Ġsafegu ard
Ġyour self
Ġcontin ued
Ġsign ed
Ġindividual s
Ġisra eli
Ġplay ed
ro ad
Ġprot ocol
Ġlab or
Ġpass eng
ill ed
Ġeas ier
Ġp an
Ġst ake
Ġpos itions
Ġpract ices
Ġ199 9
Ġital ian
Ġtour ism
or ary
Ġrapporteur s
Ġcred ibility
Ġco al
Ġgr ateful
Ġaut om
m os
Ġar rest
Ġbring ing
Ġintel lig
Ġdefic it
Ġcorrupt ion
Ġdy nam
Ġc ateg
Ġla id
Ġatt ract
Ġgree k
Ġemerg ing
in ary
Ġser ies
Ġbas ically
Ġstreng th
Ġhon est
Ġdefin ition
l adies
sib ly
n ic
Ġb on
ted ly
Ġ200 2
Ġext end
Ġset t
it ch
ab les
Ġspeak ers
Ġmut ual
f are
in y
Ġp ill
Ġsy mb
Ġfed eral
r s
Ġt ro
con t
Ġsa ve
Ġfeel ing
Ġmus l
Ġswed en
Ġc ities
an a
Ġcon ver
Ġ2 1
stand ing
Ġpay ments
Ġsubsid i
ak en
Ġop eration
Ġwrit ten
ind ing
Ġnor thern
Ġkind s
Ġadv oc
Ġeng age
Ġbar ri
Ġorigin al
Ġinclud es
Ġpop ular
Ġresol utions
Ġrecommend ations
Ġasse mb
Ġdr ink
Ġmand ate
Ġter ri
Ġma x
Ġstrengthen ing
ar ks
Ġatt itude
Ġmass ive
Ġmus ic
t w
Ġpart ner
Ġstate ments
Ġhelp ed
Ġpass ed
b it
Ġel imin
Ġopt ion
Ġbecom es
Ġfin e
Ġr ange
Ġk y
Ġconsult ation
Ġkid s
i ers
Ġme ps
Ġunder stood
sequ ently
% .
Ġb ase
Ġh ous
Ġtax es
third ly
Ġade quate
th us
Ġ20 20
Ġm ission
le ction
Ġso viet
Ġgen eration
Ġmin ority
Ġlos s
Ġsymb ol
Ġvot es
ve red
pr ise
Ġcod e
g round
z il
Ġth or
Ġb ill
Ġimp lic
Ġtreat ies
Ġfight ing
des pite
Ġh ur
Ġprop ortion
Ġchang ing
m on
r ich
Ġc ourage
os es
r ant
it es
Ġb ound
Ġrenew able
Ġc ub
Ġdeb ates
Ġbar roso
Ġdom in
Ġwithdra w
Ġst o
et ic
Ġexp ression
Ġph il
Ġregul atory
Ġgener ally
enh agen
Ġact s
Ġbrit ain
Ġj uly
Ġinc red
Ġrem ark
Ġeas ily
Ġlangu ages
b u
Ġ .
Ġcom pe
im b
con s
Ġsub mitted
ap pe
Ġget s
Ġph ot
Ġlat in
Ġfor g
ra id
Ġdirect ives
Ġgr and
Ġpo ore
as sion
il ing
Ġab ol
Ġcl osed
Ġcond ition
Ġdisch arge
p ret
Ġaf raid
Ġterror ist
Ġadap t
Ġ ...
Ġs orry
Ġf ix
Ġun s
Ġnu mbers
Ġequ ally
Ġestablish ment
Ġlist en
Ġlink ed
as ters
Ġu t
Ġeven ing
Ġf ire
Ġre ven
Ġco vered
Ġdra f
Ġplan ning
Ġcho ose
Ġpati ents
Ġincor por
Ġpres ence
Ġhead s
Ġmist ake
y our
c ast
Ġcontrol s
Ġun certain
Ġk new
Ġser b
k en
ar us
Ġ2 7
Ġacc ident
Ġsign al
Ġobs erv
bo th
ron ic
Ġpro ve
ru it
Ġsp ok
Ġemploy ees
lo ok
Ġprot est
Ġris ing
Ġdri ve
Ġtack le
p art
Ġlear ning
Ġconflic ts
Ġrepe ated
p ir
Ġd ie
Ġun like
Ġmed ical
Ġconst ruction
Ġcondem n
Ġfre qu
Ġchem ical
op les
Ġso ft
Ġr id
Ġident ity
Ġc ult
Ġins urance
Ġbal k
Ġguarante es
lev ision
Ġbook s
Ġlar ger
h ib
in c
Ġpe oples
Ġbig gest
Ġbel ong
Ġkill ed
ing ly
Ġsp oke
Ġdise ases
Ġoblig ations
Ġoccas ion
Ġtra in
Ġinvest ors
Ġelect or
Ġcor por
Ġappreci ate
Ġperman ent
r id
Ġb omb
Ġglobal isation
Ġnat urally
Ġ6 0
or se
Ġmeet ings
Ġexper ts
Ġrelative ly
Ġvulner able
and on
Ġcritic ism
stit ution
Ġcar bon
Ġem er
Ġb ilateral
um er
Ġqu ant
Ġdec is
Ġreason able
r il
Ġv ast
Ġso le
Ġim f
Ġprofession al
Ġcons olid
Ġestablish ing
Ġcare ful
Ġgrant ed
d i
Ġo ce
Ġse vere
et ies
Ġbo y
Ġsm es
Ġwel fare
Ġur ban
Ġlu x
i ence
Ġab andon
Ġpen sion
Ġsepar ate
p ort
Ġf irms
Ġg ender
Ġex ists
Ġsit uations
Ġ19 7
Ġlegit im
an cing
Ġprotect ing
loy ed
Ġtechnolog ical
Ġcop enhagen
Ġgeor g
Ġhelp ing
Ġbr ings
Ġis n
ne y
Ġliberal isation
Ġd ig
Ġexpect ations
Ġtrad ing
Ġe ye
Ġcomp ared
Ġinc om
Ġte levision
Ġsocial ist
Ġsubsidi arity
g ra
k es
Ġinvolve ment
Ġo k
Ġy e
Ġblo od
Ġam az
Ġpl ant
Ġph en
Ġstrong er
Ġbel arus
Ġstud ies
Ġparticip ate
Ġswed ish
on ce
Ġr out
ab or
Ġdis appe
Ġsee king
Ġst able
Ġal liance
Ġdec ade
Ġpeace ful
Ġpoll ution
Ġphen omen
Ġto wn
Ġus ually
Ġar my
Ġend orse
Ġbl ock
Ġdefin ite
Ġult imately
Ġwor st
Ġco ast
Ġ199 0
Ġjapan ese
Ġthor ough
Ġexp and
Ġar ch
Ġmin orities
Ġtraffic king
s k
Ġdis pl
Ġsp ort
Ġallow s
Ġansw ers
p ay
t ies
Ġb os
Ġde light
if ying
Ġsumm er
Ġassemb ly
en ary
Ġapp arent
Ġple as
Ġsud den
Ġun less
Ġint end
Ġelse where
ster dam
it ial
Ġpl ants
Ġap ril
Ġassoci ated
Ġmo bility
Ġ ice
ress ive
Ġinter pret
Ġins pect
Ġsignificant ly
Ġresol ved
Ġine v
Ġnear ly
Ġperform ance
Ġin itial
os p
Ġcont rad
Ġsp ring
Ġdoll ar
Ġterrit ory
g iven
ch ina
Ġne ther
Ġimp osed
Ġexp ensive
Ġent it
Ġsoci eties
Ġwrit e
Ġcri mes
Ġimprove ments
Ġconsist ent
Ġcell s
Ġcomplic ated
Ġrem arks
gar ia
Ġcent re
Ġschool s
Ġbra zil
g ment
h ol
Ġto ler
qu ality
Ġstat istics
Ġbir th
Ġnether lands
Ġcap able
Ġdri ving
m ission
is on
Ġis ol
i ar
n ia
the ir
Ġelectric ity
b ur
h ave
Ġan g
Ġpl enary
n or
Ġatt ach
Ġdep ends
Ġest im
with out
Ġhundred s
Ġarrange ments
d id
d uring
pr us
Ġvol unt
Ġenjo y
Ġsome what
Ġpolit ically
Ġappro val
Ġcitiz en
Ġtalk ed
Ġexc lu
Ġassoci ation
Ġcollect ive
ul ating
Ġam sterdam
Ġcommitte es
com p
eng en
Ġec b
Ġplac ed
Ġs qu
Ġd ign
ci ous
Ġemphas is
Ġargu ment
Ġ x
Ġto b
Ġsch e
Ġimmig rants
mar ily
Ġrad ical
, âĢĿ
Ġd ied
Ġrem o
Ġcompet ence
i ent
s pe
do es
Ġunivers al
u sion
Ġsmall er
Ġpromot ion
Ġsh ar
Ġban king
Ġrest ruct
Ġtas ks
m at
n al
Ġpri marily
Ġeval uation
ent h
Ġse ll
Ġoff ers
Ġacc ounts
t ra
le ep
Ġbelie f
Ġim age
Ġen force
Ġam ounts
Ġad vert
Ġfact s
Ġfind ing
Ġsav ings
it ness
Ġcon ce
Ġlead s
Ġsur ve
Ġencoura ging
Ġdemonstr ated
Ġmaterial s
h er
o x
Ġb ab
am eric
Ġworld wide
Ġcould n
Ġperson ally
Ġabs ence
Ġoper ations
Ġbor n
Ġprosper ity
Ġorgan ised
Ġcontribut ions
Ġdetail ed
Ġrelig ion
Ġargu ments
w ing
Ġpro ved
ul l
Ġpar al
Ġjust ified
Ġprotect ed
Ġvar i
Ġcy prus
Ġislam ic
Ġc ast
act ory
Ġorgan ization
Ġd ark
Ġg al
Ġwe ight
ak ers
ish ing
Ġhigh est
Ġopt im
Ġ8 0
Ġextra ordin
Ġdetermin ed
d own
Ġs light
Ġre tain
ap se
Ġpropos ing
Ġoper ate
Ġsou thern
Ġlegit imate
Ġbul garia
Ġsche me
Ġc ard
Ġeuro zone
oin ted
Ġge ograph
Ġdemonstr ate
Ġg az
ress ed
Ġshow ed
Ġdut ch
Ġportug al
Ġaudit ors
w ould
Ġc ore
Ġre n
Ġent ry
Ġsch engen
Ġadv ance
comm un
Ġrestrict ions
Ġveh icles
Ġstra ight
Ġspok en
Ġm ic
Ġre li
Ġpropos es
Ġinter governmental
Ġdep art
Ġfav or
Ġexist ence
Ġpat tern
Ġemerg ency
Ġtool s
Ġdistribut ion
- -
Ġbe ings
Ġperson s
Ġrecogn ised
Ġc am
Ġm oun
Ġinvol ving
Ġtax ation
Ġoppos ite
Ġprim ary
Ġc z
Ġb inding
Ġmig ration
t ime
u able
le y
Ġfa ith
Ġtrans ition
Ġdef ined
ove red
Ġver sion
Ġevent ually
3 0
f ic
o o
Ġre ve
as ing
Ġbarri ers
il st
ag ree
Ġstand s
Ġap art
Ġsha pe
b ru
on ia
Ġm ag
Ġac ce
Ġtyp es
Ġc atch
Ġsh o
Ġv ig
Ġext ended
Ġamong st
Ġproper ty
Ġdescri bed
f ace
Ġb all
Ġun iversity
Ġflex ible
Ġannoun ced
re es
Ġsome body
Ġpre m
Ġlab e
Ġchec k
Ġcompens ation
u gh
Ġtreat ed
Ġnegoti ating
Ġlat ter
Ġrapid ly
Ġn os
Ġprom ise
Ġtemp orary
sy ch
Ġp sych
le b
ac co
ond on
Ġpurs ue
Ġheav y
Ġlegitim acy
Ġdelight ed
c are
Ġfor t
Ġbo ost
Ġpri or
Ġequ ip
Ġadv anced
Ġhold ing
Ġwonder ful
bru ary
Ġh osp
Ġlat est
Ġwal k
Ġintel lect
c ould
Ġp ure
Ġimp ose
Ġimport s
Ġmo ved
Ġrespect ed
Ġfoc used
Ġfunction ing
e e
Ġp ick
ar i
Ġhealth y
Ġopt ions
Ġf at
Ġpro c
ud s
Ġdis asters
Ġcomp ly
Ġopin ions
Ġguarante ed
Ġcz ech
Ġm ac
ang ing
Ġlit er
Ġindust ries
Ġfreedom s
Ġsubst ances
Ġbehav ior
Ġconstant ly
Ġs on
Ġfe bruary
Ġover come
Ġmax imum
c ar
Ġs ession
Ġoff ered
Ġjud icial
Ġrecommend ation
if e
Ġform al
Ġdist in
Ġhistor ical
Ġjour nal
ut ed
Ġconc luded
Ġadop ting
Ġpublish ed
Ġhosp ital
e mb
u ous
Ġme at
ad v
Ġor al
Ġfirst ly
Ġdign ity
rou d
Ġtrad ition
b ack
Ġw itness
Ġp i
Ġre cession
Ġass ume
Ġallow ing
Ġadv ice
Ġbal tic
Ġkeep ing
Ġsk ills
Ġmanufact ure
g u
Ġth row
it ime
il iation
Ġst ories
Ġplay ers
aren ess
Ġtob acco
Ġto ward
th rough
Ġmar k
Ġce leb
Ġmult ilateral
t r
on om
Ġcommission ers
Ġcomp on
Ġsc and
Ġmil k
Ġoblig ation
Ġsecret ary
Ġp pe
Ġst abil
Ġph ase
Ġprom ised
Ġincreas es
Ġinvol ves
oub tedly
Ġpalestin ians
tw o
Ġri g
Ġpre ced
Ġgu y
Ġcent er
Ġsur round
Ġd ouble
ay s
Ġme xic
Ġv ill
Ġli e
Ġmar gin
Ġhistor ic
Ġincent ives
Ġevery where
Ġstrateg ies
l ined
Ġs ac
ing u
Ġn ar
Ġj oh
Ġmar itime
Ġbl ue
Ġdiplom atic
' ,
g ence
s ub
v ak
Ġw ine
Ġstand ing
Ġtax pay
d ing
er o
ab ilities
Ġeffect iveness
Ġelect ronic
Ġfirm ly
Ġperfect ly
Ġfacilit ate
ot o
res h
Ġv ice
Ġcont rast
Ġdecl ine
Ġdeep ly
Ġdetail s
Ġcustom s
Ġexplan ation
Ġdecis ive
Ġvolunt ary
a i
on y
Ġf aster
iz ations
Ġpos sibly
e qu
ro te
Ġnot ed
Ġput in
Ġaw areness
Ġexcess ive
Ġtra ged
Ġexper t
a x
Ġthe ory
Ġbe g
ri an
and a
am ed
Ġwas h
Ġthere by
Ġaf tern
Ġhear ing
Ġbrief ly
Ġfulf il
Ġentit led
Ġp roud
Ġpur ch
Ġinclu sion
Ġcooper ate
umer ous
u mb
Ġs we
Ġm c
ad a
Ġv ia
Ġass ure
Ġcris es
Ġrom a
Ġdest ruction
Ġrepl ace
Ġphys ical
Ġintellect ual
n one
ch es
Ġas ian
Ġag g
Ġqu ar
Ġsy n
Ġf it
cept ion
Ġsustain ability
Ġdraw ing
Ġ âĢĻ
Ġo mb
Ġopen ed
Ġgir l
Ġalloc ated
Ġomb uds
Ġw rote
Ġin ade
Ġre action
Ġse arch
Ġ2 4
Ġtrans l
Ġ5 00
bour g
Ġcoll apse
Ġforth coming
as bourg
our g
Ġz one
Ġcut s
Ġb ed
Ġgo ld
Ġbelie ves
Ġret ur
Ġaftern oon
wh ich
Ġcho ices
Ġground s
Ġeth nic
last ly
Ġgeorg ia
Ġwas n
Ġrel ates
Ġbl ame
term ine
Ġsuggest ed
Ġlaunch ed
emb ourg
Ġra c
ific ations
Ġspeak er
Ġsuff er
Ġund oubtedly
i mp
Ġon going
Ġle ban
Ġmo v
Ġsatisf ied
bu ild
Ġf light
Ġde termine
Ġno body
Ġstr asbourg
Ġcre ates
Ġshow ing
Ġrad io
Ġchair man
Ġimplic ations
Ġf ruit
Ġpro sec
os en
Ġab stain
Ġdis agree
Ġaust ria
Ġobstac les
a mb
in i
at o
st ate
ne cess
Ġ199 7
Ġ199 8
m ing
Ġto ugh
Ġab use
ire ct
Ġsc en
Ġval uable
Ġbel ow
Ġdisp os
Ġpati ent
Ġord inary
Ġoce an
Ġsub mit
Ġnecess arily
Ġequip ment
b all
Ġt it
Ġnot ice
Ġv ide
ren eur
Ġcommun ist
Ġprocess es
Ġem ot
Ġfarm ing
Ġjud ge
Ġsex ual
rep reneur
Ġbot tom
Ġs pect
Ġunder min
Ġback ground
Ġplan ned
eng th
Ġterri ble
d is
Ġh us
Ġus a
Ġhard ly
Ġdict ators
il es
Ġsh ift
Ġr an
Ġreal istic
Ġurg ently
Ġwide ly
Ġchrist ian
Ġsovereign ty
Ġserb ia
Ġlux embourg
se e
Ġess entially
Ġstrengthen ed
Ġbalk ans
Ġrestruct uring
Ġlabe lling
b es
Ġe cu
Ġtr ouble
Ġdis m
Ġpre f
Ġwar s
Ġsignific ance
Ġarg ue
Ġtro ops
Ġdefinite ly
Ġg ap
Ġact ing
Ġrepresent ed
Ġsupp lement
Ġlea ving
y le
Ġn umerous
Ġsh ad
Ġres erve
Ġab road
Ġexperi enced
Ġrecogn ize
Ġrecon st
Ġoper ating
Ġturn s
Ġwelcom ed
a id
t ur
Ġis land
Ġpart ly
Ġev olution
Ġappro ve
Ġteach er
Ġombuds man
is ory
Ġpro hib
Ġyou th
Ġsu gar
act ive
Ġent repreneur
Ġrest ric
Ġfollow s
Ġda ily
Ġal i
Ġimp ression
Ġmon op
Ġsen sible
ou th
Ġun necess
Ġgreat ly
Ġinter ven
Ġwid er
or ial
ld er
Ġvot ers
Ġrem ove
Ġless on
Ġcontain ed
Ġprep are
Ġpurp oses
Ġpred ict
Ġm ent
Ġprospect s
augh ter
at ures
ic ed
Ġch osen
Ġpresident ial
Ġless ons
Ġinnov ative
Ġreflect s
Ġmist akes
an cy
Ġany body
Ġbo x
Ġfound ation
Ġsubst ance
Ġcoordin ated
reg ard
dem oc
Ġharmon isation
Ġexam ine
Ġuni que
Ġaccomp an
sc ale
Ġky oto
g os
Ġs leep
Ġnever theless
Ġconstit u
Ġsure ly
Ġv es
Ġch ann
Ġad mit
Ġac p
ic ip
ast ic
Ġrequire ment
Ġrequest ed
Ġscient ists
Ġoccas ions
Ġbehav i
Ġsuperv ision
n el
s on
Ġpri ze
ail s
Ġbuild ings
Ġsuff ered
Ġacknow ledge
Ġpoore st
m o
Ġt ed
Ġst ocks
Ġres erv
te en
Ġvis a
Ġcoll abor
Ġdepend ent
Ġsurpris ed
Ġtren d
Ġstrugg le
Ġforg ot
Ġt ight
at lantic
Ġw at
ot ed
ul a
Ġprodu cing
Ġbr id
Ġpat ent
Ġpenal ty
Ġuni verse
Ġhop es
r ating
Ġo s
om s
Ġr ational
Ġmin ute
Ġsucceed ed
Ġdefic its
Ġgaz a
l av
Ġ 0
Ġi mb
Ġv an
Ġend ed
Ġinf ect
Ġident ified
Ġasse ts
re w
Ġm os
Ġl ic
Ġl ived
Ġch ap
Ġcor respon
Ġbat tle
g ic
Ġl ondon
et s
Ġconc iliation
Ġ19 6
Ġpay ing
Ġpay ment
Ġfl ow
Ġphenomen on
Ġc ry
Ġl ength
Ġun if
Ġr h
Ġra in
Ġsy mp
Ġrev ision
Ġviol ations
Ġurg ency
hold ers
Ġunf air
Ġadvert ising
Ġm ap
ou d
Ġrec all
Ġfamil iar
s imilar
Ġf al
Ġpol ish
Ġdes erves
f our
h ouse
p rodu
rel ated
Ġha mas
ph ere
Ġlos ses
en cing
Ġar med
Ġoper ational
Ġfield s
Ġclar ify
Ġslo vak
Ġdynam ic
Ġre lie
Ġdef ine
Ġdifficult y
Ġmoun tain
it ect
Ġal ban
si ght
Ġdec ent
Ġsp l
Ġpers u
Ġthreat s
Ġmach ine
Ġextraordin ary
Ġcam er
n l
Ġb ought
or ing
ab ling
Ġfr ank
ib et
Ġprepar ing
er b
Ġre iter
ir ing
Ġsu sp
Ġimportant ly
Ġtri al
Ġtest s
Ġsent ence
Ġdoct or
Ġcro at
adv ant
w are
Ġs ister
Ġn ig
Ġfor um
Ġprevent ing
gen eral
Ġn gos
Ġpro di
ul s
Ġdis advant
Ġext ension
Ġer a
Ġident ify
Ġreflect ed
ca pe
w ar
ers on
Ġch arge
Ġpos sibilities
lic it
Ġsuccess fully
Ġexc lus
Ġal leg
Ġhouse hold
Ġlot s
vious ly
Ġarch itect
Ġn ine
Ġas h
Ġprof it
Ġcoh erent
Ġmodel s
Ġ7 0
Ġarri ved
Ġmusl im
Ġc aught
Ġcomp liance
Ġbor row
oint ment
Ġpill ar
Ġshar p
Ġreli able
ul f
Ġfe et
Ġaddress ing
Ġacknow led
stitution al
f ree
p read
os oph
os lav
con sequently
Ġmat ch
Ġdeal s
ides pread
Ġgir ls
ib ly
Ġcla ims
Ġche ap
Ġin j
Ġch ur
Ġpresident s
Ġsy ria
Ġacc ur
ug oslav
Ġcandid ates
Ġmedic ine
Ġprison ers
Ġf resh
Ġimp er
Ġwarm ing
Ġsett lement
r ussi
v est
Ġo l
Ġm ine
Ġin n
un g
Ġ2 3
Ġexp an
Ġprom ises
Ġexec ut
as m
Ġse at
Ġext ensive
Ġold er
Ġdecl ared
Ġtop ic
Ġtraged y
Ġreconst ruction
b ing
Ġw idespread
Ġe t
Ġre ass
um ed
Ġconsider ing
Ġchar ges
Ġoccur red
Ġconcent rate
Ġmob il
Ġsymp ath
w an
Ġb reat
Ġf lu
Ġre cip
id ity
Ġun ity
Ġex ceed
ici ently
Ġsur prise
Ġ9 0
Ġwilling ness
Ġphil osoph
Ġelector al
Ġre ly
Ġha ven
Ġtell ing
Ġaffect s
Ġmedic ines
Ġhous ing
Ġamaz ing
Ġpleas ure
Ġdispos al
% ,
Ġt ibet
Ġo d
Ġm ix
th ly
Ġst ation
Ġse ts
Ġtw enty
be fore
Ġterrit orial
Ġmiss ing
Ġhung arian
Ġw ife
ke ts
Ġexp licit
Ġtra ck
Ġacc idents
Ġdeb ating
Ġdisc overed
Ġinf ring
Ġopen ness
Ġbro ther
Ġappropri ations
Ġfair ly
Ġflo od
Ġreve al
p ts
os ition
Ġtim et
Ġnew sp
Ġconfirm ed
Ġunif orm
a ult
Ġf er
ce l
Ġy ugoslav
Ġar m
Ġorgan izations
Ġph one
Ġ201 1
Ġconduct ed
Ġfil m
Ġattemp ts
Ġen de
ap ers
ag ain
Ġiss ued
Ġcl in
Ġbl ind
Ġdeter mination
Ġdeli ber
Ġcal cul
Ġuncertain ty
Ġmexic o
Ġexpan sion
Ġg ames
Ġus ers
Ġmaintain ing
uff icient
Ġill ust
ha ving
Ġshad ow
Ġres erves
Ġtra gic
Ġmot or
Ġmaintain ed
Ġcontract s
Ġdig ital
Ġinter f
Ġav iation
Ġproduct ivity
Ġdemand ing
Ġfl ag
Ġrecon cil
Ġquot as
Ġpun ish
Ġbehavi our
b el
Ġc row
Ġreg ist
ag ue
Ġprof ound
Ġstat ute
Ġencoura ged
Ġlink s
Ġaut onom
Ġsatisf actory
Ġrele ase
Ġber lin
Ġtaxpay ers
n ational
Ġ â
Ġt v
Ġhum ans
Ġapply ing
Ġregret t
e th
r ont
Ġm ort
ad ing
ues e
Ġdirect or
Ġprof its
Ġrat ification
Ġpasseng ers
t ake
Ã ¼
as c
Ġst ick
Ġal arm
Ġse lect
ang es
Ġstr ange
ob viously
Ġrest ore
Ġoper ators
Ġvict ory
ograph ic
Ġneighbour s
Ġundert aken
Ġcub a
Ġjoh n
Ġwat ers
x ts
z z
Ġstud ent
Ġeng aged
Ġcolle ge
Ġfisher men
Ġhighlight ed
Ġinvestig ation
Ġende av
er ved
it ical
Ġd in
Ġsur pl
Ġcomb ined
Ġlos ing
Ġemb ar
Ġdiv ided
Ġimb al
qu es
um an
Ġtw ice
Ġide al
ock ed
Ġfour th
Ġsuggest s
Ġdut ies
Ġcarry ing
Ġhy p
Ġexclu sion
Ġvide o
h and
Ġt ort
ke ep
Ġat mos
Ġfin ish
Ġcour ts
Ġsto pped
Ġremo ved
Ġinade quate
Ġleban on
Ġs ought
ing ton
Ġdis cip
Ġbelie ved
Ġent ered
Ġtur ning
Ġresult ing
Ġmot iv
ira ble
Ġworry ing
c ount
at t
Ġs ake
en n
ic y
Ġli qu
Ġfin land
Ġdra matic
Ġreach ing
Ġterror ists
Ġz ero
Ġsurv ive
Ġportug uese
Ġenh ance
p orts
Ġt ar
Ġwh ilst
Ġact ively
Ġhuman ity
Ġown ers
Ġsc ot
Ġsupp lies
Ġexplain ed
Ġbeg un
Ġa ug
it z
Ġl uck
Ġex e
wh el
Ġput s
Ġreal ise
Ġsur face
Ġaid s
Ġfall s
Ġseem ed
Ġsus pend
h us
r ates
Ġintrodu cing
Ġine ff
i ant
Ġv acc
ud i
Ġfin ished
Ġbig ger
Ġconsequ ence
Ġgener ations
Ġdisp ute
Ġfort un
c s
Ġf ly
th es
Ġres ource
Ġk il
Ġover whel
Ġfam ous
Ġlist ening
c ra
in o
in stitutional
Ġpro of
Ġad m
Ġthan king
Ġfew er
Ġcomple ted
Ġgre ens
Ġresist ance
Ġunlike ly
Ġs ight
Ġr ough
Ġco ff
Ġev ol
ign ed
Ġlaw y
Ġcontribut ed
Ġcreat ive
Ġwatch ing
Ġign ore
Ġb ol
Ġm agn
Ġdef ense
Ġdes erve
Ġremain ing
Ġ199 6
Ġachieve ment
Ġsuff iciently
Ġcred ible
k y
ra cies
âĢĻ .
Ġra ising
Ġeconomic ally
Ġgovern ing
Ġsch ed
every one
Ġinterpret ation
Ġ ,
Ġs ick
Ġd rop
os s
ci ent
Ġcl ause
Ġatt end
Ġfac ilities
Ġopp ose
app ro
Ġweak ness
Ġpurs u
Ġstri ke
Ġproceed ings
Ġtun is
Ġd ed
Ġv at
Ġra ce
Ġfl ows
Ġfall ing
ash ion
Ġmult ip
Ġh iv
Ġd ro
Ġad ult
Ġtrans itional
Ġnegoti ation
Ġbroad er
Ġsus pect
Ġunnecess ary
Ġw ise
Ġd ub
ad d
Ġreal ize
Ġprogra ms
Ġconver gence
t i
Ġch ain
for ced
Ġtrans atlantic
Ġdef e
Ġadvant ages
Ġdictators hip
Ġm ur
ion al
ri end
oun ting
all ow
Ġleg ally
Ġconstit ute
Ġhead ing
Ġgu ard
Ġaw a
clear ly
Ġcroat ia
r ust
u k
w s
Ġin qu
ro g
th ink
Ġremain ed
Ġviol ent
Ġiraq i
Ġlea ves
Ġh al
ur ies
Ġsu m
Ġpar ad
Ġreg imes
Ġpop ulations
Ġextre m
mar ket
Ġcorrect ly
Ġprepar ation
Ġ198 0
Ġeval u
w ater
ab we
Ġ2 2
Ġconf ront
Ġeduc ational
Ġgenuine ly
Ġqual ified
imb abwe
Ġreven ue
uls ory
i wan
Ġs im
Ġp il
ter ing
Ġint ens
Ġco ol
Ġamend ed
Ġgu ys
Ġenvironment ally
ph one
Ġexperi ment
similar ly
om in
de b
de velop
Ġind irect
Ġiran ian
Ġprevious ly
Ġsud an
us al
Ġint entions
Ġno ise
Ġeconomic s
Ġdeb ated
Ġsc re
Ġear n
Ġcivil ian
Ġbab y
Ã ³
er ate
or ous
Ġg ar
Ġwe b
un ity
Ġwor ried
Ġcan ada
Ġri ver
Ġvi able
Ġpriv ile
Ġton ight
Ġsold iers
Ġcorpor ate
Ġpure ly
Ġe ch
Ġlo ans
Ġsk y
Ġconnect ed
Ġmac ro
Ġinn oc
g a
Ġwe ather
se ct
Ġsee ks
Ġra w
act ions
Ġprev ail
Ġca using
Ġtarge ted
Ġneighbour hood
h ar
m akers
Ġh ol
Ġas ide
Ġjust ify
Ġappro x
Ġref used
Ġins p
sh ould
Ġrat ified
Ġbureauc racy
Ġbos nia
b re
b and
c ap
at ible
Ġw ood
Ġus ual
Ġregard ed
Ġsw im
Ġhon our
urs day
s en
Ġd ump
Ġfore most
Ġsol ved
Ġhealth care
Ġbur ma
Ġamb ition
Ġacce ler
Ġ [
ie f
Ġgl ass
Ġgradu ally
Ġelimin ate
Ġincred ible
Ġparal le
s u
oc king
Ġexp ense
ach ing
Ġsign s
Ġcap t
Ġfr an
Ġexplo itation
Ġenforce ment
Ġis lands
ir ty
Ġint ends
Ġmore over
Ġreport ed
Ġ199 5
Ġdet ect
sid er
Ġcut ting
Ġstress ed
Ġslight ly
b ar
m ine
Ġp ace
Ġf ing
Ġsh ame
am end
Ġpers ist
Ġ3 00
Ġneigh bor
Ġindic ated
Ġadjust ment
Ġhom es
Ġintellig ence
Ġcateg ory
ir y
Ġwar ning
Ġcor ner
Ġequ ival
Ġmove ments
Ġexperi ences
Ġcong ress
Ġanal y
Ġtre m
n y
r ors
ic ted
Ġg ri
we l
pt ion
Ġenv is
ov a
co hol
Ġz imbabwe
Ġpercent age
Ġrepeated ly
Ġb se
Ġv ac
Ġwould n
Ġinv ited
Ġconsid ers
Ġins ufficient
Ġcontro lled
pl ace
Ġremark able
Ġsole ly
Ġth ursday
Ġd anish
Ġ2 6
Ġmost ly
Ġcertain ty
Ġaltern atives
res hold
Ġk n
Ġar ise
Ġdec re
Ġper pet
Ġreal ized
Ġfac es
Ġmor oc
Ġoblig ed
j ud
r ations
as ion
ri f
Ġany where
Ġsm oking
ribut e
Ġrefer ring
Ġsal es
Ġcommunic ations
Ġphot ograph
Ġemer ged
s v
Ġth reshold
Ġsa ving
n at
Ġw age
Ġg ulf
Ġwe bs
Ġqu ote
Ġher it
Ġtri p
Ġgain ed
Ġcat ast
Ġsurv ival
russi a
Ġto m
Ġf ost
Ġcomm od
Ġhelp s
Ġjoin ed
Ġign ored
Ġconserv ative
Ġsudden ly
sub ject
Ġmov ie
Ġatmos phere
y al
Ġc li
ro c
Ġn ut
ct ive
Ġon to
Ġup d
Ġsp ite
Ġind ones
Ġmo ld
Ġend ors
Ġemp ty
Ġcompet ent
be ing
Ġconv ince
Ġsubject s
Ġannoun ce
b l
p oint
on a
Ġp orts
Ġal ive
Ġinter institutional
cu se
Ġmind s
Ġapplic ations
Ġemb ra
Ġslow ly
Ġforgot ten
Ġherit age
Ġw ake
ol er
Ġsh aring
Ġcomp lement
iz es
Ġunder mine
Ġfe m
Ġind ian
Ġrespect s
Ġdoub ts
Ġbelg ium
Ġfrequ ently
Ġcult ures
k i
Ġw ages
er c
ly mp
Ġal cohol
Ġoff ering
ec ision
Ġsuggest ions
Ġpra g
Ġmob ile
build ing
b et
e ff
r ut
s ession
Ġper mit
Ġent hus
Ġresult ed
Ġsch em
Ġconsider ably
Ġdeath s
Ġhung ary
Ġnone theless
Ġfix ed
Ġves sels
Ġenthus i
h u
Ġw ed
an ks
al ities
Ġan x
Ġst ream
Ġso il
um n
Ġgen etic
Ġsocial ists
Ġref ers
Ġdisc over
Ġinter pre
Ġinstit ute
Ġplay s
Ġta iwan
Ġnegoti ated
Ġspeech es
Ġdead line
Ġentrepreneur s
Ġtimet able
cra ft
h am
Ġt ired
it ably
Ġcomp ulsory
me an
Ġsc ar
Ġdep ri
Ġpurs ued
Ġtemp er
Ġstim ul
Ġfal se
Ġtrem end
g n
Ġas pir
Ġun re
Ġcomm and
Ġ2 8
ag er
Ġdist ort
Ġlist ened
Ġpen sions
Ġharm ful
Ġbad ly
Ġet c
Ġli ked
Ġpl at
Ġfore cast
Ġlib ya
Ġfriend ly
Ġdestro yed
Ġs ong
Ġd ar
Ġreg ister
Ġdemoc racies
Ġsc rut
Ġconsider ations
Ġrepresent ation
Ġbre ach
Ġcod ecision
Ġpet itions
Ġvirt ually
Ļ «
Ġse ction
Ġdem ographic
Ġfound ations
Ġaffect ing
Ġroad s
know n
Ġbureauc ratic
Ġinterven e
Ġregrett able
e ms
l ong
id den
ch e
ate ll
Ġfa ult
Ġmin im
Ġfree ly
Ġer ror
Ġrom e
Ġdemon st
Ġeth ical
Ġrein force
Ġship s
Ġbelg ian
Ġscand al
Ġexecut ive
Ġcoff ee
Ġschem es
n ob
Ġp assion
ra p
ill ing
op ard
Ġk en
Ġmar ked
Ġper ce
Ġcl arity
to gether
Ġir re
Ġwind ow
Ġdisapp ointed
Ġretur ned
Ġreserv ations
Ġbrid ge
b b
m ory
Ġo lymp
Ġh at
Ġl ith
Ġun pre
other wise
Ġconstit utes
Ġthreat ened
Ġpalest ine
Ġfear s
oph ob
Ġbon ds
Ġquar ter
Ġaccompan ied
Ġinfring e
os is
ci fic
Ġdis s
Ġsp here
Ġmarke ting
Ġrem ed
Ġcol on
Ġnegoti ate
Ġjour ney
Ġrac ism
Ġn av
Ġme re
Ġme mory
Ġro ot
Ġlast ing
Ġglobal ization
Ġim ages
Ġann ivers
Ġcontrad ict
Ġnar row
Ġendeav our
h ear
k o
Ã Ń
Ġc ash
ant ly
Ġus es
Ġinc ident
Ġthink s
Ġwhere as
Ġdispl ay
Ġgeograph ical
Ġf ashion
Ġun fortun
Ġpres erve
Ġout standing
are r
Ġmill enn
Ġsha res
bur g
Ġc ert
Ġm it
ul ous
Ġdis abled
Ġref use
lud ing
Ġrequest s
Ġcomput ers
Ġchur ch
Ġaug ust
Ġannivers ary
Ġunfortun ate
Ġmillenn ium
e ach
f ollow
in ational
Ġw ild
Ġnot ion
Ġte xts
Ġgen et
Ġsm art
Ġair port
Ġdev ast
Ġdeter ior
Ġcoal ition
Ġsqu are
Ġmanufacture rs
Ġc as
Ġun ions
Ġsu itable
Ġse v
Ġfail s
Ġfall en
Ġunemp loyed
Ġemploy ers
Ġteach ers
Ġveh icle
Ġpasseng er
Ġvill age
re qu
ed s
ar io
Ġha z
ad ed
em ic
Ġexperi encing
Ġrom an
Ġden mark
Ġchap ter
. '
m ic
w a
Ġs ending
Ġf ate
al so
Ġst ance
Ġcitizens hip
Ġce ase
Ġcop y
v i
Ġw is
Ġm aced
Ġat lantic
eren ces
Ġcl ub
Ġdes p
Ġapproach es
Ġbro ke
Ġbro ken
Ġsw ift
Ġjud gment
Ġexception al
Ġcompar ison
Ġequival ent
o ly
Ġn ames
ra y
Ġsh ut
Ġbo om
Ġprov id
Ġrul ing
Ġmult inational
Ġcy cle
Ġsound s
Ġasse t
Ġs ite
Ġon line
Ġy ield
Ġcon vers
Ġsh i
Ġsh ap
Ġev ident
Ġind is
Ġap olog
Ġbenef icial
Ġconst rain
Ġrepl aced
Ġfuel s
Ġlog ic
Ġfif th
Ġcompon ent
9 9
it ative
le vel
Ġg ross
Ġare n
ect ive
Ġunder lying
Ġtrans actions
ne x
Ġneg lect
Ġph arm
Ġexc luded
Ġneighbour ing
Ġincent ive
Ġwash ington
Ġbreat h
Ġparalle l
f all
Ġe ating
Ġst or
Ġch ief
et or
Ġrel ate
Ġhelp ful
Ġer ad
lif eration
Ġindic ate
Ġearth qu
Ġslo ven
Ġchemical s
Ġdisappe ar
Ġinev itable
r ity
or n
ch ild
os ing
Ġmod ified
bo ard
Ġdiv ision
Ġliter ally
Ġsurround ing
Ġlith u
Ġt aught
Ġd an
pp er
lo oking
Ġnecess ity
Ġ3 5
Ġdist ance
Ġvis ible
Ġdecl are
Ġemphas ised
reg ular
Ġdemonstr ates
Ġincred ibly
Ġm urd
Ġe lder
Ġsm oo
Ġpresent ing
Ġpresent ation
Ġmod est
Ġgre w
Ġcapital ism
Ġpot entially
Ġobtain ed
Ġlog ical
Ġmic ro
Ġrestric ted
ou red
Ġg h
Ġun p
Ġra ises
Ġprov en
Ġke en
Ġcomb ination
Ġarg ent
Ġgener ate
Ġmult i
Ġchec ks
Ġstreet s
Ġregular ly
Ġintellig ent
Ġreconcil iation
Ġfem ale
1 0
Ġb ub
Ġg un
Ġsome where
Ġlib er
Ġperiod s
ex ist
Ġscen ario
Ġâ Ļ«
c ol
i ents
t urn
in der
Ġact ors
ang ible
Ġbus y
Ġfr id
Ġdelay s
Ġcomplain ts
Ġobser vers
Ġmur der
c ulation
Ġa st
ast rich
Ġmar t
Ġfinan ced
Ġfeel s
Ġret ire
Ġvis ited
ark o
Ġje opard
astrich t
k a
ic ian
il s
wh e
Ġbr ut
Ġdist ingu
Ġviol ation
Ġant icip
Ġunivers ities
Ġestim ated
Ġvari ety
Ġrh etor
g row
o y
Ġ ic
Ġp se
ation ally
ver si
Ġmar ried
Ġra re
ced ented
Ġdirect ed
Ġma astricht
Ġgrow n
Ġdi agn
Ġsatisf action
Ġheav ily
Ġunanim ously
Ġsoft ware
Ġproc ure
nob ody
arko zy
Ġt ree
Ġa ward
Ġb iod
Ġhe at
Ġset tle
chn ya
Ġvi et
Ġabs or
Ġregul ated
Ġvol ume
Ġacqu is
Ġrelie f
Ġinnoc ent
Ġunpre cedented
p al
z en
is ra
Ġd av
un til
com ings
Ġfail ing
Ġabs urd
Ġprevent ed
Ġsuggest ion
Ġfun ctions
Ġvict im
Ġamb itions
Ġec ological
Ġgreen house
Ġult imate
Ġarri ve
Ġsuperv isory
Ġrout e
Ġviet nam
n s
r um
r ous
Ġf ab
ic ations
Ġl augh
res pect
Ġex cuse
Ġk ar
Ġsa udi
Ġref lection
Ġext ending
Ġhapp iness
Ġdep ression
Ġshort comings
Ġindic ators
Ġaccording ly
Ġaccomp lish
Ġenh anced
Ġapprox imately
Ġtremend ous
versi al
d ro
o ided
s m
u ity
Ġs atell
Ġo x
ro om
ic king
Ġman aging
Ġunder line
Ġregard less
Ġgu ess
Ġsol ar
Ġval id
Ġav oided
Ġart icles
Ġine quality
Ġkill ing
p erson
u ct
Ġs and
Ġe co
Ġfinan ces
Ġfra g
Ġopen ly
Ġ201 3
Ġcoordin ate
Ġdi ver
ev a
Ġrele ased
none theless
Ġtar iff
Ġstimul us
m al
st ream
Ġcomm end
Ġpl ural
Ġrev ised
Ġshort ly
Ġaccess ible
Ġtrad itions
Ġche chnya
Ġpie ces
Ġtack ling
Ġfoot ball
Ġhop ed
Ġinh ab
Ġfif teen
cont ro
le x
Ġl end
Ġst ore
Ġpar is
un ction
Ġint ensive
all ing
Ġconf ron
Ġdifferent ly
Ġ3 1
Ġfr ust
Ġproduct ive
Ġtransform ation
Ġcollabor ation
Ġnig eria
Ġtort ure
b as
at isf
Ġp ul
Ġha ir
Ġal lies
Ġme mor
Ġpar k
de p
Ġrec over
Ġro ll
Ġacc ounting
Ġlack ing
Ġenl ar
Ġpict ures
Ġhor iz
Ġcompe te
Ġapparent ly
cel ona
a ur
Ġ q
Ġb ang
Ġh ong
Ġh ence
Ġre cy
Ġl ad
Ġun it
Ġeuro pol
Ġag rees
ap h
Ġeconom ists
Ġaud ience
Ġaust rian
Ġsil ence
Ġwelcom es
Ġemer ge
Ġsupplement ary
h uman
re c
Ġm ary
ct ic
Ġne ut
Ġsh if
Ġres ort
Ġli kes
Ġqu iet
Ġcomp assion
Ġbl air
Ġrecogn ized
Ġappe ared
ib an
Ġdet ri
Ġsad dam
Ġmanufact uring
Ġdistin ction
Ġech o
follow ing
f i
Ġd ur
Ġha bit
Ġun equ
ad ays
ci ence
Ġch amp
Ġr and
Ġk h
Ġno vel
Ġro c
Ġdist ur
Ġve get
Ġaust ral
Ġdistribut ed
Ġsimplif ication
Ġprocure ment
in ated
en sible
Ġan nex
Ġeuro s
Ġen abling
Ġout put
Ġtra ve
Ġper mitted
Ġstr ing
Ġsign als
Ġreject ion
Ġdeep er
Ġpenal ties
Ġtren ds
mean while
Ġmaced onia
om al
Ġst em
Ġv oc
Ġk ong
Ġpl ed
Ġfe ature
Ġmo le
Ġhope fully
Ġbu ying
Ġcontro versial
Ġir regular
Ġjoin ing
Ġspeak s
Ġregul ate
Ġair ports
Ġden ied
Ġperspect ives
Ġoccup ation
may be
deb ate
Ġbiod iversity
c ow
s ometimes
or gan
as p
con nect
Ġ2 9
Ġco vers
ces sions
Ġpo et
Ġgra ve
Ġbi ological
Ġdoct ors
Ġjournal ists
Ã ¤
if ies
ab e
ound ed
Ġacc used
Ġmat he
man n
Ġ199 4
Ġstar ts
Ġachieve ments
Ġopp on
Ġdri vers
Ġfocus ing
Ġton nes
Ġment al
m uch
Ġf ought
ic ated
so ever
Ġac ad
Ġwhat soever
Ġper sec
ang ed
Ġconf ident
Ġdes irable
Ġem u
Ġmil es
Ġbar celona
Ġjoint ly
Ġhun ger
Ġexam ined
ha ust
Ġabstain ed
Ġinqu iry
t ical
Ġc f
Ġf asc
Ġh es
Ġst ood
ac es
Ġman ip
Ġpre ca
Ġtal iban
Ġcol omb
Ġart ific
Ġsw itch
Ġapplic ant
lif e
Ġeffici ently
Ġcomplex ity
Ġdescri be
Ġwarm ly
Ġtele phone
Ġattract ive
Ġsurpl us
h ence
ill ance
li hood
Ġman if
Ġexp osed
Ġsp orts
Ġcent res
Ġansw ered
Ġhard er
Ġprepar ations
Ġdiplom acy
Ġdestro y
Ġautom atically
Ġdraf ting
Ġrough ly
Ġp ull
ch ed
Ġres c
ak ings
Ġsit es
Ġdes per
Ġinform al
Ġban ned
Ġconv entions
Ġinteg rity
Ġrun s
Ġundert ake
Ġmer c
Ġcro ps
Ġpi pe
Ġmoroc co
Ġal ger
Ġnot iced
Ġj ur
Ġli ability
Ġwhere by
Ġher o
Ġcompet ences
Ġorgan ic
Ġcreat ivity
Ġcolle ction
Ġdri ven
Ġhold s
Ġland s
Ġste ad
Ġcou p
Ġcondem ned
Ġobser ved
Ġmusl ims
Ġslovak ia
Ġsusp ic
Ġaccur ate
Ġelder ly
Ġt ribute
Ġbe at
il ed
Ġnot ably
Ġimp lies
Ġcons ent
with in
Ġcoh erence
Ġapplic able
Ġexc iting
bo ok
Ġdi verse
Ġden y
Ġdiscri min
Ġalloc ation
appro pri
b ors
i ate
s a
Ġs n
Ġs me
Ġf ant
Ġf ool
Ġcon ven
Ġmar ine
Ġinv ite
Ġoff ic
Ġcol or
Ġorgan ized
Ġplay er
Ġfav ourable
Ġeng land
Ġmot ions
Ġ201 2
io x
Ġsk in
Ġword ing
Ġill ness
Ġundert akings
Ġmig rants
Ġforest s
Ġacknowled ged
Ġsuspend ed
d a
e lect
in al
ut ical
ot ic
Ġab uses
ag ers
Ġbro k
Ġrece iving
Ġteach ing
Ġconserv ation
Ġep ide
Ġinev itably
Ġsurve illance
Ġgenet ically
b a
i able
v ia
it a
ou l
Ġd os
Ġn amed
ter ror
ab ove
Ġdis par
Ġmar ks
ace utical
Ġevery day
Ġfund ed
Ġmo ves
Ġend s
Ġinvest ing
Ġem ission
Ġiniti ally
Ġfound ed
Ġtell s
Ġaccount ability
Ġair craft
Ġcirc le
Ġundert aking
Ġwithdraw al
Ġut most
Ġalban ia
Ġyugoslav ia
Ġtunis ia
Ġrhetor ic
Ġmanif est
Ġt iny
Ġcon ve
ch rist
ll a
Ġad verse
Ġtrans it
Ġfundament ally
ec d
Ġste el
Ġcampaign s
Ġrail way
Ġcommunic ate
Ġhur t
Ġincorpor ated
Ġobserv ation
Ġtit le
Ġs arkozy
Ġc ot
Ġl ag
Ġimport ed
ens es
Ġrespon ses
rat ors
Ġsoon er
Ġten sions
la w
Ġdrink ing
commun ications
Ġreiter ate
Ġimper ative
Ġol af
Ġsympath y
itz er
Ġindones ia
Ġpharm aceutical
b r
d ed
Ġt angible
re m
Ġm outh
Ġbe ef
Ġg rat
Ġcont emp
Ġcons cious
Ġdef ault
Ġprocess ing
Ġta pe
Ġinst ability
sequ ent
Ġcongrat ulations
Ġfle et
Ġdisp utes
Ġterrit ories
Ġsubstant ially
Ġdefe at
Ġmold ova
g ans
m atically
w omen
Ġan ge
Ġpro te
Ġv ent
Ġj ump
Ġout set
Ġent ering
Ġide ological
Ġaccept ance
Ġpriv at
Ġexam ination
Ġsurpris ing
Ġhus band
Ġinhab it
c ur
g ood
p ass
on ing
or ation
Ġin g
Ġcom fort
Ġoff ices
Ġgen oc
Ġfar ms
Ġcrimin als
Ġgrant ing
Ġmiss ed
Ġbill ions
Ġdin ner
nat urally
re aching
en ophob
Ġb are
Ġd ivers
Ġit ems
Ġint oler
Ġinv ent
Ġdef ending
Ġinter im
Ġsince rely
Ġlib ert
Ġprof ess
Ġassoci ations
Ġpurs uing
Ġconsult ed
Ġcle arer
Ġstru ck
Ġunanim ous
Ġcateg ories
Ġdraf ted
americ an
itzer land
e my
Ġb read
Ġd na
th ree
Ġen emy
Ġar bit
Ġmon it
Ġtest ing
Ġrelationship s
Ġhy dro
Ġ197 0
Ġpil ot
Ġwis dom
m ans
r ather
en na
Ġc ens
Ġre verse
Ġl ending
Ġpro mpt
Ġpres cri
am ong
Ġimp rison
Ġapp ointment
Ġany way
Ġro t
Ġdang ers
Ġobs erve
Ġguarantee ing
Ġrecord ed
bre ak
Ġresc ue
c les
m is
Ġc up
Ġb ail
Ġun ilateral
os y
ist ical
lic ate
Ġsp ot
Ġ19 4
no thing
Ġenter prise
Ġappreci ation
Ġtoler ance
Ġfrid ay
w in
Ġt all
Ġw ave
Ġp age
Ġm ich
Ġn ic
Ġact ed
Ġmon day
ne ither
Ġcent uries
Ġes cape
Ġer rors
Ġemploy ed
Ġcurren cies
Ġpain ful
Ġqual ifications
Ġengage ment
Ġestim ates
Ġenlar ged
. ,
m er
s ch
st uff
Ġex haust
ive red
Ġfe atures
Ġback ing
Ġ15 0
Ġwal king
pol itical
Ġder og
Ġhous es
tr ans
Ġmonop oly
Ġspl it
Ġmacro economic
Ġscrut iny
p ower
Ġd iox
Ġsu ic
Ġco ok
Ġsub sequent
Ġwar rant
Ġcongrat ulating
Ġtele communications
Ġhaz ard
Ġearthqu ake
c ut
p a
Ġa z
is ite
Ġp ig
Ġf oss
Ġh ide
Ġre ward
Ġg all
Ġg ather
oun ce
op eration
te g
Ġintern ationally
Ġbr and
Ġph r
Ġaccept ing
Ġir on
Ġel ite
Ġess ence
Ġtext ile
reg ulation
Ġdel ivered
ij ing
Ġx enophob
Ġimbal ances
Ġoverwhel ming
n ish
Ġf an
so cial
Ġab st
Ġpromot ed
Ġair lines
Ġmess ages
Ġisol ation
democ ratic
Ġwebs ite
Ġm use
Ġst ations
ter y
Ġse ats
Ġsome how
Ġreport ing
ound s
mm et
Ġmeet s
Ġresearch ers
Ġstar s
Ġcivil ians
Ġarg ued
Ġred und
Ġgain s
Ġworth y
Ġund erest
Ġcra zy
Ġunanim ity
Ġowners hip
g ue
h n
u gg
Ġo wing
Ġn ur
Ġse es
Ġv ary
ud es
Ġmar ri
Ġjust ification
Ġro ots
Ġgen eva
Ġass ured
Ġdon ors
Ġbl ow
Ġpost al
yes terday
Ġcr ash
Ġjur is
Ġgenoc ide
b ly
f riend
Ġt ast
Ġa h
Ġb ow
Ġh all
Ġd up
ke l
ak ed
ub e
Ġgr ass
Ġ4 5
Ġmis under
Ġneigh bors
Ġdeclar ations
Ġscot land
Ġlithu ania
Ġdos si
i os
n is
v is
z uel
Ġt am
in n
en sions
Ġb ag
Ġun h
ust ain
Ġnational s
Ġfore ver
Ġprotection ism
Ġcontribut ing
Ġsustain ed
Ġalong side
Ġcounter fe
Ġquot a
Ġobstac le
tur key
Ġautonom y
Ġdiscip line
Ġargent ina
whe ther
Ġrecy c
Ġsa ved
ip h
Ġrel oc
Ġmod erate
Ġins pir
Ġ4 00
Ġbank rupt
Ġrenew ed
Ġabandon ed
tra de
Ġmargin al
Ġcamer a
Ġplat form
Ġmuse um
Ġh olid
Ġha iti
Ġsu pre
os ure
ist ry
Ġad mitted
Ġcont am
Ġass ert
Ġfac ility
Ġnorm ally
Ġkore an
Ġchrist ians
Ġenjo yed
Ġclaim ed
Ġisol ated
Ġexplicit ly
u zz
Ġc ab
Ġdo ha
Ġprop ag
Ġimm ense
Ġbenef ici
Ġexcept ions
Ġstrict ly
Ġconsolid ation
Ġnewsp aper
l imin
Ġt ies
Ġs orts
Ġc ow
Ġb row
th anks
ul ed
op ol
Ġse qu
con f
Ġser ves
Ġsub s
Ġconf usion
Ġwar n
Ġrepres sion
Ġ199 2
Ġori ent
Ġassess ments
Ġimpos ing
Ġsen ior
Ġmeant ime
Ġcontact s
Ġarrest ed
Ġchann el
Ġmos cow
Ġexclus ively
Ġhousehold s
child ren
c as
v ent
Ġin put
ar ia
Ġl unch
ol f
Ġpre requ
Ġser ved
Ġir respon
Ġstud ying
Ġpost pon
Ġbroad cast
Ġclos ing
Ġcat al
Ġalleg ed
Ġlibert ies
j apan
v ote
Ġt ic
Ġc ere
Ġan cient
Ġd aughter
Ġrep ut
Ġev il
Ġfe as
Ġdiff er
Ġsub sequently
Ġdep th
Ġadv is
Ġfr on
Ġcong o
Ġresol ving
Ġfis ch
sec urity
Ġsimplif y
Ġincom es
Ġhyp oc
Ġfoss il
er ity
er ving
Ġs now
Ġat tain
Ġdis ast
Ġtime ly
Ġtechn i
Ġredu ctions
Ġ3 7
Ġinst all
Ġsw itzerland
Ġloc ation
Ġtre es
Ġobserv ations
Ġdump ing
stuff s
a res
f ur
Ġst ip
Ġst ages
Ġsu it
im ag
Ġsh ot
Ġv ene
Ġr ush
Ġint ense
Ġqu e
Ġknow ing
Ġbegin s
Ġcomprom ises
Ġbre ast
Ġdiv ide
Ġchrist mas
Ġtyp ical
Ġconserv atives
Ġinsp ired
Ġsatell ite
n i
p one
r ical
Ġf ires
Ġst al
Ġfin nish
Ġwhen ever
Ġrel uct
pet us
Ġpop ul
Ġce iling
Ġparticip ants
sh r
Ġaut umn
Ġig c
Ġclar ification
Ġauthor itarian
Ġye ah
Ġconstrain ts
appropri ate
m od
in ter
it udes
Ġb es
or i
th y
ra pporteur
Ġun just
Ġv it
Ġen shr
Ġunder p
Ġacc um
Ġsec ular
Ġorgan ise
Ġim petus
Ġvis ual
Ġparticip ating
Ġpost pone
Ġwal ked
Ġwin ter
Ġexer c
Ġade qu
Ġstim ulate
Ġstake holders
Ġattach ed
Ġstor age
le te
Ġn ord
st op
Ġte a
Ġpre jud
Ġpre limin
Ġmin or
Ġmeas ured
Ġsystem atic
be it
Ġadv ised
Ġlow est
Ġine qu
Ġpartnership s
Ġcoll aps
every thing
Ġvo ices
Ġhighlight s
Ġvir us
Ġbir ds
Ġadvoc ate
Ġut ter
amend ment
Ġaustral ia
i ro
Ġ vers
Ġm s
Ġf lying
ed a
Ġbe ijing
Ġse lling
Ġse lection
Ġhe ll
Ġpl ain
Ġbo ld
Ġinterv entions
Ġdepend ence
Ġcharacter istics
Ġgeor ge
Ġexpert ise
Ġphilosoph y
count ry
Ġjuris d
al ing
Ġch ick
us sions
Ġcomp atible
oin ting
ress ing
Ġdeb ts
Ġwhere ver
Ġdef ining
Ġinvest ed
Ġobject ions
Ġplan e
Ġlet ters
Ġca mb
Ġuk rain
Ġconsist ently
Ġconcent ration
Ġcompar able
Ġdepart ment
isra el
Ġinhabit ants
m i
p ublic
Ġt act
Ġa ld
Ġs ale
Ġo ecd
Ġnot es
Ġdo ors
Ġtr ick
Ġup hold
Ġgu ide
Ġcar ri
Ġview ed
Ġabs ent
Ġliberal s
Ġconvention al
Ġ7 5
Ġweap on
Ġarab ia
Ġrefuge e
nes day
Ġcoast al
Ġmathe mat
Ġprelimin ary
Ġc os
Ġp ose
Ġd ivid
il ty
Ġimp erial
Ġpl enty
Ġco pe
Ġtrans f
Ġpublic ly
Ġinst ruct
Ġsoci o
Ġamb ig
Ġdev oted
Ġexch anges
Ġrat ify
Ġprosec ut
Ġspect rum
Ġdism iss
Ġprovid ers
Ġoppon ents
Ġdisast rous
f ast
Ġto xic
Ġin con
Ġex ac
Ġdis rupt
Ġout break
Ġyour s
Ġacc omm
Ġrem ote
Ġform ula
Ġsaf er
Ġfeel ings
Ġcare er
Ġexpress ing
Ġgener ous
Ġdam aging
la im
Ġsil ent
Ġprotest s
Ġrid ic
Ġpattern s
Ġwed nesday
Ġpreca ution
Ġvene zuel
Ġexac erb
Ġaccomm od
h ist
p o
Ġt ens
Ġp ity
Ġb ath
Ġre un
Ġre aff
Ġlo ved
Ġro ck
Ġcommun ism
Ġ199 3
Ġinterv iew
Ġhor se
Ġbeaut y
Ġmach ines
Ġvig il
Ġchann els
Ġash ton
b erg
t ered
Ã ¨
Ġm aster
il i
Ġdis arm
are t
min ent
ile o
Ġdon or
Ġhand le
Ġpract ically
Ġrepresent ing
Ġexperi ments
Ġbroad ly
Ġsent ences
Ġorganis ms
Ġrestrict ive
Ġ198 9
Ġang ry
regard ing
Ġpersu ade
Ġarchitect ure
Ġreveal ed
Ġretire ment
christ ian
b ul
c all
m id
in et
Ġst up
Ġal beit
Ġde tain
Ġen ables
Ġhe ight
Ġtr illion
Ġpre cond
Ġleg acy
Ġgener ated
Ġpress ing
Ġpoll ut
Ġengine ering
Ġabol ition
americ a
Ġflight s
Ġendors ed
Ġolymp ic
Ġing red
l im
r un
t es
u le
er ted
Ġp apers
Ġd ying
ul z
ad or
Ġsh el
Ġrep rodu
ll or
Ġpos ed
og le
Ġtra ce
Ġsec ur
ne g
Ġsol ving
Ġconv iction
Ġpay s
Ġfl at
Ġpass ing
Ġpush ed
Ġpra ise
Ġmonop ol
Ġliber ty
b i
g lo
h i
o res
Ġp estic
Ġm ir
Ġf ill
Ġh idden
Ġd at
Ġun us
Ġsh op
ult ane
Ġtr oub
Ġmo on
Ġadd ing
Ġsch ulz
Ġcost ly
Ġwhole hear
Ġinteg rate
ograph y
Ġcult iv
Ġthorough ly
Ġcommod ity
b ally
d ens
in iti
Ġc ul
al es
ar a
Ġbe ars
ir ds
Ġse ason
Ġpres ents
au th
Ġind ication
Ġgu ilty
Ġdra matically
Ġaff air
to o
Ġsecond ly
Ġlab el
Ġfl aw
Ġmand atory
Ġos ce
Ġpunish ment
Ġliqu idity
Ġfrag ile
n ight
s ess
v ity
al d
Ġwh ol
id ential
ra ge
Ġsub stit
Ġreal ities
Ġrespect ive
Ġequ ity
Ġfood s
Ġkeep s
Ġstri kes
Ġaust erity
Ġinvestig ate
any one
Ġconce pts
dis cri
Ġtemper ature
x ual
Ġt s
Ġt ear
Ġm ale
Ġn az
Ġl ists
est ablish
Ġj er
Ġra rely
Ġany more
Ġover look
Ġtrans lation
Ġgr asp
Ġprincip al
Ġadv ances
Ġunderstand able
mpt ions
Ġcomb ine
Ġorigin ally
Ġdelay ed
Ġcover ing
Ġdomin ant
Ġreven ues
Ġoptim istic
Ġsac rif
Ġdism ant
four thly
Ġcolomb ia
. )
m edi
Ġd rast
Ġe gg
Ġre vers
st an
Ġg ard
Ġso c
Ġco inc
Ġfra gment
Ġfind s
Ġprogress ive
Ġstud ied
20 1
Ġrespond ed
Ġremind ed
Ġtre as
Ġcompon ents
Ġirregular ities
s ad
v iew
Ġb ond
Ġm ira
Ġg est
Ġu til
Ġen rich
ious ly
Ġsm oke
Ġfind ings
Ġrev ol
of uel
Ġthought s
Ġsun day
Ġrob ust
Ã³ n
Ġfing er
Ġaspir ations
Ġconvers ation
Ġsmoo th
osy ste
ustain able
s hip
an i
Ġb reed
Ġe lig
ct ure
Ġg aps
id s
am i
Ġor gans
oc al
Ġwork er
Ġpolicy makers
oll ah
Ġrul ed
Ġdep os
Ġproced ural
Ġ199 1
Ġisrael is
Ġvol at
Ġconsult ations
Ġharmon ised
Ġconsist ency
Ġartific ial
Ġmonit ored
Ġdat ab
f ire
w ish
is en
Ġb and
st one
se in
se veral
Ġat om
Ġno bel
wh atever
Ġnational ism
some thing
Ġpa ul
Ġec osyste
Ġdefin itive
Ġche aper
Ġmeaning ful
Ġpoore r
Ġfavor ite
Ġ196 0
Ġadult s
Ġsuic ide
Ġsupre me
b un
v ic
in ent
Ġm un
Ġl am
if or
ren ce
Ġher self
Ġback ed
less ly
Ġdemocrat ically
Ġmom ents
Ġdev ice
Ġdim ensions
Ġinvestig ations
Ġgradu al
Ġgal ileo
Ġald e
f if
h ard
r ass
an cies
Ġl ingu
Ġde ar
qu ar
Ġgo ogle
ag ger
Ġbo ys
Ġbr an
Ġsoci ally
Ġcrit er
Ġes cal
Ġhome work
Ġcal m
pro f
certain ly
Ġhop ing
Ġoccup ied
Ġdisappe ared
Ġparad ox
Ġsim ultane
Ġdemonst ration
Ġperce ived
h ad
Ġs ke
Ġc ath
es sions
Ġin appropriate
Ġn omin
Ġcon cessions
Ġr ub
Ġspe cul
Ġbo at
Ġass urance
Ġform ally
Ġteam s
Ġemot ional
Ġhus sein
Ġcriter ion
c or
f ive
g s
en ko
Ġc art
Ġbe aring
Ġu g
Ġch ances
Ġr ice
out s
ig ation
Ġapp la
Ġcons ists
Ġar ctic
Ġsc ore
Ġed ge
Ġexist ed
Ġprevent ive
Ġstat istical
Ġthreat ening
Ġz ones
Ġve to
Ġbi ofuel
Ġrob ot
Ġdream s
Ġcontrad iction
Ġmort g
Ġlawy er
f und
t aking
Ġc ards
Ġb ird
Ġd ish
Ġimp ressive
Ġres ign
Ġnow here
Ġinv ented
Ġhand ling
Ġtri bun
Ġadap ted
Ġsymbol ic
Ġincorpor ate
Ġregist ration
Ġadequ ately
is c
ic ks
ol ic
Ġen abled
Ġdis abilities
Ġout lined
Ġpos es
Ġmo thers
Ġgen es
Ġend ing
ici ally
Ġcap abilities
Ġide ology
Ġbar ack
Ġmoment um
ug en
Ġbur dens
Ġprogramm ing
Ġver he
Ġchance llor
Ġconvin cing
Ġexplo it
ik a
Ġcustom ers
Ġsimplif ied
Ġexplan ations
Ġdecent ral
Ġevalu ate
Ġenthusi asm
Ġxenophob ia
glo bal
h r
Ġp oc
Ġf illed
Ġre me
st at
ir t
Ġsh oot
od e
our se
con i
um ing
Ġcomp li
Ġcomp osition
Ġapp ointed
Ġar ising
ok ed
Ġper iph
Ġ19 5
Ġinter act
Ġsc ene
Ġregul ators
Ġcy pri
Ġdim in
int erest
lus ive
Ġtend ency
Ġsurve y
Ġphr ase
Ġtransf ers
Ġprecaution ary
Ġverhe ugen
g ive
m ind
u ously
Ġp it
Ġho le
Ġwish ed
Ġsecond s
Ġperson nel
Ġbor ne
Ġdri ver
every body
Ġimag ination
Ġrein forced
Ġparagraph s
Ġcr uel
Ġelector ate
Ġpursu ant
Ġscar ce
Ġreput ation
Ġappla ud
f ar
m et
Ġt ac
Ġt ail
Ġthe me
Ġm ath
mp le
Ġch ile
ap art
Ġcomp are
Ġpos sess
ind ia
chn ology
Ġmain stream
Ġprom ising
Ġfail ures
Ġbro thers
Ġinnov ations
Ġdest abil
Ġrecomm ended
Ġinh erent
Ġhot el
inc re
Ġbelong s
Ġembra ce
Ġpropag anda
h ab
p ens
z a
Ġt or
Ġst ric
Ġex emp
Ġk urd
Ġpl us
Ġcouncil s
Ġinv itation
ste in
ian n
Ġpr ide
Ġsystem atically
Ġbr ill
Ġinter rupt
Ġform ed
ten ance
Ġdep l
Ġshe ep
Ġrest aur
Ġrussi ans
Ġrecogn ises
Ġliberal ization
Ġtop ics
like wise
Ġrespond ing
Ġpain t
Ġmal ta
Ġfulf illed
Ġpsych ological
Ġundermin ed
keep ing
ky o
Ġrand om
Ġhes it
Ġbare ly
Ġrecyc ling
Ġprerequ isite
Ġreaff irm
b by
i ov
Ġto kyo
Ġd ress
Ġd rought
Ġe ib
ur g
un te
Ġres idence
de f
Ġar men
Ġtra ined
Ġpolit ician
Ġprodu cer
Ġcontin uation
ne xt
ov ina
Ġthreat en
Ġve ter
Ġspread ing
hol m
Ġdub lin
2 5
g reat
h igh
Ġt iss
Ġa se
st ill
ot y
se en
Ġr um
con sider
Ġshould n
Ġmy th
te xt
Ġcons cience
Ġnew ly
Ġbas es
Ġpr ud
Ġdes ired
Ġass umed
Ġmain tenance
com es
Ġfri ght
Ġcamp s
Ġrail ways
Ġpill ars
Ġsevere ly
Ġpreced ent
Ġalarm ing
Ġmultip le
Ġdro pped
Ġfost er
Ġinequ alities
Ġjurisd iction
e k
t al
w ood
Ġc ake
Ġb act
Ġsu ms
op ia
and er
Ġrep air
âĢĻ ,
for ward
Ġpre de
Ġrec ital
olog ists
Ġsign ing
Ġadv ent
Ġimm unity
Ġdemand ed
Ġjud ges
Ġbreak through
Ġfed eration
Ġdeg rees
Ġbound aries
Ġmc c
Ġmix ed
sect or
Ġprofess or
Ġirrespon sible
s s
Ġs omal
Ġre b
Ġl iv
Ġu pper
ol ved
Ġun its
Ġun ex
Ġr ing
Ġad h
Ġpre gn
Ġnow adays
Ġper ception
Ġacc us
Ġiniti ated
Ġca ut
Ġmis le
ug abe
Ġten sion
Ġage ing
rop he
Ġsepar ation
Ġtack led
Ġmal aria
Ġsho es
Ġinj ured
Ġindis pens
Ġbrut al
Ġdav id
Ġhazard ous
k ind
w rit
in vest
Ġc au
Ġo we
Ġh ate
Ġv ague
Ġres umed
ak er
Ġour s
Ġspe culation
ang er
Ġprodu ces
Ġref usal
Ġatt itudes
Ġdes ert
Ġglo bally
Ġsix th
Ġbi ology
Ġcha os
Ġpush ing
Ġtouch ed
Ġok ay
Ġgal ax
Ġali ke
Ġremed y
Ġdiox ide
i pped
Ġa th
Ġb le
ro ph
Ġwe ar
Ġst agn
op en
Ġse as
ak h
Ġrep erc
for d
fore st
Ġte eth
Ġdec iding
Ġgovern ed
Ġamend ing
wor king
Ġrespect ing
Ġgr ants
Ġcontro lling
Ġapproach ing
Ġcontribut es
Ġloc ated
Ġencoura ges
Ġconsequ ently
Ġweek end
Ġdam aged
Ġvol unte
Ġtotal itarian
Ġauthor isation
Ġfre ight
Ġphys ics
Ġfrank ly
Ġsched uled
Ġindispens able
v ation
in tern
Ġme l
if iable
ren d
Ġmy ster
Ġinc idents
te ll
ok ay
Ġsy mpt
Ġobject s
com pet
Ġsince re
gg ed
Ġpa cific
Ġdi am
Ġcooper ative
cons ist
Ġexpand ing
Ġbirth day
Ġagg ressive
Ġconfron ted
Ġvenezuel a
Ġstup id
Ġsecur ities
Ġreperc ussions
a ire
Ġst uck
ll s
Ġsec uring
Ġcap ita
em ed
Ġaccount able
Ġpat ten
Ġweak en
Ġexam ining
Ġcatast rophe
Ġdar fur
Ġox y
dep th
Ġpipe line
Ġalger ia
Ġepide mic
t ion
v able
Ġs li
Ġs oph
en ess
Ġh ars
ic ate
Ġwe igh
Ġst orm
li b
Ġop ens
Ġro se
Ġsol ana
arch y
Ġensure d
Ġvi enna
Ġur ged
Ġtransport ation
Ġexpl ore
cent ury
Ġbre aking
Ġ201 5
Ġfocus es
Ġdev ices
Ġbri ght
rop ortion
Ġcomplain t
Ġprefer red
Ġtown s
Ġexe mption
Ġlawy ers
Ġsloven ia
Ġhoriz ont
auth or
Ġlingu istic
Ġbrill iant
e ll
n ger
in form
ed ed
pe l
ow ered
ol a
Ġr ating
um es
ose vic
Ġinv asion
Ġemp ire
ng l
Ġsl a
erg ies
Ġsent i
Ġstri ve
Ġsafegu ards
Ġabol ished
Ġadapt ation
Ġexclus ive
Ġflood s
Ġembar rass
Ġannounce ment
terror ism
Ġmarri age
z eg
Ġo h
Ġn erv
om ed
Ġl oud
Ġfor b
Ġyou nger
Ġun res
est ed
ac ing
ie th
Ġman agers
ici ency
Ġtri als
Ġaddress es
Ġdet ention
Ġje wish
Ġclar ified
Ġtransfer red
Ġdispl aced
wel ve
Ġdevast ating
Ġfisch ler
Ġpestic ides
e as
f l
t ail
Ġto ys
Ġh u
Ġsh ock
ll ow
Ġapp alling
Ġent ail
Ġlif t
Ġcor re
Ġunderstand s
ov al
Ġemerg ence
Ġindic ates
Ġreturn s
Ġdeleg ations
cl ass
Ġconcent rated
Ġattemp ted
Ġwitness ed
Ġrig orous
Ġbub ble
Ġacad emic
rem lin
iann ual
1 1
b us
m other
Ġp ap
Ġi v
Ġg mos
Ġde licate
un k
Ġac ute
Ġinc ur
te x
Ġsupport ers
Ġrel ax
Ġsubject ed
Ġart ists
Ġavail ability
str Ã¶
Ġpack aging
Ġsan ter
pro t
Ġdistin ct
Ġpursu it
Ġcolon ial
Ġshi pping
zeg ovina
strÃ¶ m
c ase
i ge
i pp
Ġt one
Ġn a
Ġg ue
ri fic
qu ite
Ġres idents
Ġk remlin
Ġint im
Ġdis se
Ġout comes
Ġrem it
Ġgen e
rat s
Ġtri gg
Ġvis as
Ġweak er
Ġclos ure
Ġarrange ment
Ġattemp ting
Ġsafeguard ing
Ġadvoc ates
Ġconstitu ency
Ġembar go
Ġded icated
Ġinfringe ment
Ġstring ent
Ġcamb od
Ġstric ter
Ġnerv ous
Ã ł
Ġc ig
or ously
Ġm ugabe
ur a
Ġst one
op er
Ġle ague
mb ered
con c
Ġext ract
Ġproblem atic
Ġdep ending
Ġben ch
Ġ4 8
Ġlim iting
Ġret ail
Ġfl our
Ġdecl ining
Ġver ts
Ġdisp roportion
Ġbit ter
Ġpress ures
will ing
Ġpun ished
Ġvirt ual
tr ue
Ġscre en
Ġsev enth
Ġast on
Ġneut ral
Ġconve y
Ġdossi er
Ġenshr ined
Ġingred ients
m ail
r ition
Ġa u
in ct
at om
Ġd are
il le
ri g
Ġun ified
am ount
Ġj ac
ose xual
sel ess
Ġro th
Ġpoin ting
Ġshort age
Ġchar ged
Ġtest ed
Ġconnect ions
Ġlimit ations
Ġacqu ire
Ġabol ish
Ġnewsp apers
Ġclin ton
Ġhal t
Ġneighbor hood
Ġenvis aged
Ġprag matic
Ġdistingu ish
friend ly
Ġbrow n
y n
Ġs in
en ergy
or der
al ed
ic ious
est y
Ġdis regard
Ġtim or
Ġar ises
ub er
Ġrem oval
Ġent ails
Ġgu ine
Ġsupp ose
Ġlib rary
af ric
Ġfun ny
Ġmult iannual
Ġstress es
Ġbi ote
Ġeth i
Ġsens it
rid ge
Ġpurch asing
icy cle
Ġdepri ved
Ġhydro gen
mind ed
Ġcau cas
a ci
b ollah
l ock
Ġw ond
Ġp and
an es
Ġm issions
Ġin consist
Ġst er
Ġun rest
Ġj u
for cing
ag on
Ġtrans mission
Ġfact ory
lud es
Ġest onia
Ġ3 6
Ġexpect ing
fin ancing
Ġca ution
Ġrisk y
Ġchalleng ing
Ġmass ac
Ġavoid ing
Ġsatisf y
Ġcritic ised
Ġcollect ed
Ġmedic inal
Ġseek ers
Ġwithdra wn
Ġuns atisf
Ġquant ities
Ġmag ic
Ġpurch ase
Ġtransl ate
Ġpostpon ed
Ġunus ual
i est
w as
Ġb id
Ġm i
Ġd ual
Ġun known
Ġun willing
un less
ist ribut
Ġr ide
de c
lo ad
ord an
Ġinf l
Ġhand ed
Ġ3 2
Ġclo thes
Ġ6 5
Ġident ical
Ġexc ited
Ġcontain ing
Ġstri king
Ġrevolution ary
Ġacqu ired
Ġregist ered
Ġdecre ase
Ġwholehear tedly
Ġgard en
! "
1 5
1 99
Ġh ind
Ġd ile
Ġbe ach
Ġg iant
Ġst yle
ore n
Ġex ert
de pend
age ment
Ġconf used
Ġgu ant
Ġinter action
Ġinter connect
Ġsl aughter
Ġassess ing
Ġrecord s
Ġmer kel
Ġtun a
Ġconsolid ate
Ġexpand ed
Ġceleb rate
Ġstabil isation
democ racy
Ġdisadvant age
Ġod d
Ġevol ved
vi ol
Ġfab ric
a ust
m its
Ġa x
Ġb unch
or al
Ġm u
Ġf ro
Ġd iction
Ġal ter
qu est
Ġus d
Ġinc ap
Ġunder way
Ġent ertain
ten eg
Ġcivil ization
Ġtop ical
Ġweak ened
Ġworth while
gen er
Ġoccur s
Ġstay ed
Ġfeed ing
Ġstock holm
Ġoptim ism
Ġdisadvant aged
Ġindirect ly
Ġinterpre ted
Ġunequ iv
Ġlands cape
Ġholid ay
imag ine
Ġkurd ish
Ġprede cess
c ks
Ġth irty
in ations
Ġthe rap
Ġan ger
Ġg raph
oun ter
un like
est ock
Ġexp enses
Ġapp le
Ġwant ing
Ġconf irms
Ġsec re
Ġdist ant
Ġpriv acy
Ġthreat ens
Ġlat via
Ġguid ance
Ġcat tle
Ġdestro ying
Ġstrugg ling
Ġdomin ated
Ġinspect ion
Ġexclu de
Ġcorrespon d
Ġweakness es
Ġeco fin
Ġfant astic
Ġdisarm ament
Ġliv estock
Ġhars h
a eda
b les
d ue
o le
u um
v ens
Ġb ay
ar ians
ic ism
Ġwe aring
Ġst ret
ra ined
un e
Ġen act
Ġab und
ink i
Ġcountry side
Ġass umption
Ġmil osevic
Ġfood stuffs
Ġpromot es
Ġactiv ists
Ġbur ning
Ġreview ed
Ġemb ry
Ġemb ark
Ġdeli very
pol icy
Ã¡ n
Ġundermin ing
Ġcopy right
Ġvoc ational
Ġtechni ques
ori ented
Ġhorizont al
Ġdile mm
b ig
c ultural
l ad
Ġc oc
Ġp ages
Ġd ry
Ġcon j
Ġas ks
Ġun st
Ġle v
Ġch ose
Ġr w
Ġoff icially
Ġrequ iring
Ġma h
ruct ive
less ness
Ġhand led
Ġins ult
Ġsuccess es
Ġ6 00
Ġemphas ize
Ġdom ain
Ġpost s
Ġeth ics
Ġje ws
Ġtyp ically
Ġadjust ments
Ġsett led
Ġblock ed
Ġice land
Ġconfront ation
Ġplural ism
Ġdesper ate
Ġsuspic ion
Ġfeas ible
Ġunderp in
discri mination
Ġbiofuel s
o thers
Ġb Ã¶
ar an
ic a
Ġst amp
ci le
âĢ ľ
Ġwas ted
Ġj ar
Ġpre text
Ġdirect ions
Ġaff irm
Ġmodern isation
Ġharmon ise
Ġsubstant ive
Ġsupposed ly
Ġdeliver ing
Ġsymbol s
gra ce
Ġrout es
Ġmag az
Ġretur ning
aid s
Ġcorrespon ding
Ġsched ule
Ġroman ian
respect ive
Ġutter ly
Ġatom ic
Ġsimultane ously
f ather
l ades
s inki
ion e
Ġin ject
Ġe ager
Ġg ases
Ġha gue
Ġun clear
Ġsh r
he alth
Ġleg s
Ġpr on
Ġdef lation
Ġhel sinki
Ġsc an
Ġlif el
Ġafter wards
Ġperson ality
Ġart ist
Ġinteg ral
Ġpat ents
Ġsou l
Ġlack s
Ġ9 5
Ġplac ing
Ġrat io
Ġilleg ally
Ġdiv isions
Ġhar vest
Ġdisapp ointing
Ġadvoc ated
Ġquant ity
Ġstraight forward
Ġthrow n
Ġmotiv ated
Ġoffic ers
Ġorient ation
Ġridic ulous
c end
z ing
Ġt ill
Ġthe ore
en ous
an as
Ġh ed
Ġpro long
Ġpro minent
Ġcan cell
Ġj ail
Ġus er
Ġwork force
Ġprov es
Ġmin es
Ġatt ribut
Ġauth ors
Ġrest ored
fr ont
Ġexplo ited
Ġhung ry
Ġdepart ure
ari at
Ġinfect ed
Ġawa it
Ġfran c
Ġdispar ities
Ġukrain ian
neg oti
Ġmonopol ies
ifor nia
Ġcig aret
e ast
g ain
n et
s l
v ention
al istic
Ġshould er
si x
si le
Ġte mpt
Ġmon ti
Ġ19 30
Ġear mark
Ġsur ger
Ġsecond ary
Ġprof itable
Ġscient ist
Ġine x
Ġdead lines
Ġfront iers
Ġmer it
ta x
Ġforest ry
Ġfacilit ating
Ġcatast roph
pal est
quar ters
Ġcaucas us
b ra
d r
Ġm as
Ġd rew
Ġal together
Ġme p
Ġun t
est e
est s
Ġen forced
Ġj ordan
Ġpe ak
Ġlo an
Ġtw ent
ath ers
Ġfinan cially
Ġass ass
Ġfl owers
Ġresol ute
Ġamb ass
acc ount
Ġdi et
Ġdiv or
Ġpoll s
Ġbra ve
Ġdict ator
Ġdisapp ointment
Ġelimin ating
Ġinspect ions
Ġali en
Ġcry ing
Ġineff ective
Ġbenefici aries
Ġbact eria
lib eral
prot ect
Ġguine a
s ah
t op
y an
on ess
Ġp uzz
Ġm ush
Ġd ance
le ted
Ġcont ra
Ġdis in
Ġper mission
Ġtrans national
art icle
Ġtreat ing
Ġinter medi
Ġglo be
Ġbenef ited
Ġair pl
Ġlist ed
Ġge opol
Ġattack ed
Ġwonder ing
Ġcritic isms
Ġappreci ated
pro liferation
Ġspect ac
Ġpersec ution
Ġtribun al
teneg ro
i us
r anging
Ġt ab
Ġt welve
Ġp y
Ġp ump
Ġb a
Ġd il
ro t
Ġl ap
ra f
the tic
Ġun ch
Ġex hib
Ġpart ial
Ġpl astic
Ġdis grace
Ġco ins
Ġco exist
Ġpre st
Ġmin ing
Ġcontin ually
Ġfore see
ger many
Ġpati ence
Ġmer its
Ġprofession als
lus coni
Ġexec ution
Ġcorpor ations
sight ed
Ġken ya
Ġhat red
Ġunsatisf actory
f ra
m ary
w er
Å ¡
in ating
in ery
Ġe g
li ers
Ġab ortion
ap ore
Ġwork place
ag o
Ġind iff
Ġcur ious
ict ions
Ġwar ned
be lie
Ġdown turn
Ġsimp ler
Ġadv isory
Ġpo ison
ib i
Ġcoordin ating
Ġcla uses
Ġprepar atory
Ġrob ert
Ġpred icted
Ġtransform ed
Ġafford able
Ġegypt ian
Ġpan el
Ġbalk an
Ġremo ving
Ġgrat itude
Ġmisle ading
sah aran
4 0
g ments
y er
Ġt ong
Ġt ries
at ri
Ġp in
Ġp up
an ium
ro l
ul ates
Ġsh ocked
Ġle ap
ome ters
Ġk inn
Ġinc lusive
wh ilst
Ġlo yal
Ġcl ash
Ġconf ined
Ġnational ist
Ġchild hood
Ġdemocrat isation
Ġaim ing
Ġclo thing
Ġsumm ar
Ġsl ide
Ġcho osing
Ġjud ged
Ġfair ness
Ġmist aken
Ġclass es
Ġord ers
Ġelimin ated
Ġtoler ate
ony m
Ġinterf ere
Ġmort ality
Ġawa iting
Ġbang lades
Ġsubs cri
Ġfron tex
Ġts un
Ġkinn ock
c c
f old
Ġt um
an o
Ġg ang
Ġsh ocks
Ġlike wise
Ġreg ain
Ġinc omp
Ġcl imb
ord s
Ġest imate
Ġsur ge
Ġcomple tion
Ġfound ing
pri v
mad e
emp loyed
Ġgra vity
Ġjud ici
Ġsk ill
reg ional
Ġsecret ariat
Ġsal ary
Ġens ures
Ġbrain s
ump h
Ġign or
Ġcommer ce
according ly
Ġwall s
Ġreact ions
Ġincor rect
Ġautom atic
Ġye men
Ġye llow
Ġprem ature
produ ctive
again st
Ġselect ed
Ġliqu id
Ġmart in
cur rent
Ġtam pe
Ġsubstit ute
l ist
p rom
v ar
Ġs cept
Ġs ends
Ġc ure
Ġd read
Ġn ative
ve z
Ġwe ren
id el
Ġst rain
Ġpro liferation
ir an
oun ted
Ġch ern
Ġiss uing
Ġro les
Ġcl im
Ġpublic ation
Ġdes k
Ġ19 50
Ġform ulated
air y
Ġrul ers
Ġsect ions
Ġger mans
Ġparticip ated
Ġassess ed
Ġpoor ly
Ġsuper f
Ġgain ing
pre h
Ġcompetit ors
Ġrelev ance
Ġdeg rad
Ġfulf illing
Ġcompens ate
Ġdog s
Ġhom osexual
part y
Ġbomb s
Ġsho pping
Ġprem ium
Ġinterf erence
Ġanx ious
Ġminim al
Ġcontradict ory
Ġtrave lling
Ġchick en
Ġdiction ary
c ot
g ent
w est
Ġt ag
Ġt ied
Ġp ian
Ġb icycle
Ġin sight
al a
Ġg ift
id er
Ġal ly
Ġal lev
Ġme al
ant ic
Ġk ick
Ġ1 20
Ġout rage
Ġup he
Ġind ig
Ġlo bb
Ġobject ion
Ġpo ol
Ġfl oren
Ġz e
just ice
Ġmet aph
Ġcal ifornia
Ġwin ning
med iterranean
Ġsad ly
Ġreferen ces
Ġcharacter ised
Ġber lusconi
Ġengine ers
Ġfrequ ent
Ġconstitu ents
Ġsharp ly
Ġluck y
Ġcapt ure
Ġvac uum
Ġtariff s
Ġvent ure
Ġarbit rary
Ġmich el
initi ative
Ġrestaur ant
Ġcaut ious
intern ational
Ġoxy gen
Ġintim id
k er
p an
z bollah
Ġ ly
in f
re al
Ġf ur
ed uc
Ġd al
Ġun amb
Ġle h
Ġj oy
ip ed
Ġdisc overy
Ġsm ugg
Ġbeh ave
Ġsector al
co pe
Ġred istribut
Ġje an
Ġfoot ing
Ġpref erence
Ġreass ure
Ġautonom ous
Ġdup lic
Ġvigil ant
conc ern
Ġincap able
Ġtwent ieth
Ġjudici ary
g i
i ety
j a
l ause
v a
Ġb io
Ġin ability
Ġd ad
Ġd airy
Ġne o
ci f
Ġen ergies
de fin
Ġapp oint
Ġrec ruit
Ġro of
Ġnational ity
ob yl
sure ly
Ġcrit ics
em ies
Ġgot ten
Ġminister ial
Ġbar n
Ġmor ator
Ġpositive ly
Ġrece ives
erv ation
Ġcirc ulation
Ġobs c
Ġcapac ities
Ġharmon ization
Ġ25 0
Ġinfrastruct ures
Ġwealth y
Ġautom ob
Ġbarri er
Ġinspect ors
Ġhospital s
back s
Ġod ds
Ġprivile ge
rec ently
Ġprote in
Ġtic ket
Ġstal in
Ġcompli ment
Ġtampe re
Ġchern obyl
h alf
on ed
Ġf rat
ou p
ic ing
le ts
Ġg rain
Ġu mb
im a
am s
Ġag es
Ġj oke
Ġk itch
Ġint r
ab out
Ġcomp lied
Ġmad rid
Ġfact o
Ġreal ised
Ġatt ended
Ġdep loyed
uc lear
Ġspecif ied
Ġtri umph
Ġair line
Ġbank ers
Ġpa rent
Ġfront ier
ilit ary
ira c
Ġarri val
Ġton y
200 6
Ġpet ition
Ġradio active
Ġpref erences
Ġlic ence
su pport
Ġforecast s
Ġreluct ant
Ġtreas ury
Ġveter inary
b ear
f ol
k h
t les
is ible
Ġp orn
Ġf ue
Ġh ect
Ġh ang
il ater
ch ange
ter mination
Ġwor ries
Ġch ocol
Ġj ack
Ġint ent
Ġac ced
Ġri val
Ġpre cious
Ġter min
Ġbl ocks
Ġserious ness
fin an
Ġsumm ary
Ġemphas ises
Ġdemonstr ations
Ġsal aries
Ġcra ck
Ġdoct r
Ġcourage ous
Ġbab ies
erb a
Ġdeliber ately
count ries
Ġsettle ments
Ġlad y
Ġdetri ment
Ġinspir ation
ilater ally
c king
Ã §
ter ies
od ed
Ġup set
Ġco verage
ind ust
ern ity
Ġlo bby
Ġcl ock
Ġmon t
Ġcar ries
Ġreform ed
Ġann ually
ash ed
Ġident ification
pr int
Ġweak ening
bor n
Ġlearn t
Ġrenew al
Ġexplo sion
Ġhar ass
Ġobser ver
Ġcub an
Ġcondemn ation
Ġoce ans
Ġpick ed
Ġcalcul ations
Ġanx iety
Ġmurd ered
Ġcf sp
Ġintoler able
Ġprompt ly
Ġbankrupt cy
Ġcollaps ed
201 3
Ġmorator ium
is ual
Ġp ris
Ġd ates
Ġg amb
se arch
ch er
li est
Ġmar s
pect ed
Ġunder lined
ues day
Ġconf erences
Ġmon tenegro
Ġent ity
Ġcontin uity
ail and
Ġtransp lant
Ġdep ut
Ġris en
Ġnor ms
Ġelect rical
Ġeduc ated
Ġindic ations
Ġcle ver
Ġrecon cile
Ġmut ually
Ġeat en
Ġmach inery
Ġprosper ous
Ġmax im
Ġquant itative
spe aking
Ġbelief s
commun ity
usal em
Ġelig ible
Ġreme mbered
Ġcambod ia
Ġbiote chnology
e enth
g re
i i
Ġth in
in come
it ives
Ġbe er
Ġl ou
ol es
Ġde emed
Ġex agger
our s
Ġcomp ris
Ġtim ing
Ġgrow s
Ġban ana
Ġcap ability
Ġbl oc
Ġear s
Ġbar gain
Ġhead ed
Ġele ph
Ġlight s
Ġ8 00
istic ated
Ġreject ing
Ġdev ote
Ġdefin itions
Ġaud iov
Ġrich er
ats on
Ġbreak fast
Ġremind s
cl ock
Ġchec ked
govern ments
under ing
Ġdetermin ing
mon y
Ġrout ine
Ġacce pts
Ġproc laim
car bon
Ġswe et
Ġmov ies
Ġborrow ing
Ġacceler ate
roc ity
Ġmultinational s
teg ration
Ġcounterfe iting
Ġase an
Ġearmark ed
Ġunamb ig
finan cial
Ġaudiov isual
d ri
f ish
Â ·
Ġb one
Ġf old
ion ed
Ġse ize
ain t
Ġhas n
am ing
Ġk im
Ġlike lihood
si mp
Ġdis order
Ġoff ences
ris y
Ġmin eral
Ġext rad
Ġvi b
Ġwrit er
Ġsw iss
Ġwa ves
Ġfle e
Ġdev al
Ġdemonstr ating
Ġencourage ment
fr ance
ows ki
Ġfil ms
Ġtransl ated
Ġprohib ited
Ġnig er
Ġimbal ance
Ġdeterior ation
Ġdetri mental
Ġunex pected
Ġdilemm a
Ġsurger y
Ġbanglades h
Ġtsun ami
6 0
i ated
or row
Ġl uc
ot ing
pe ace
Ġha b
Ġun ification
so on
Ġle on
oc ation
Ġeconom ist
Ġmar ry
Ġsp in
ip s
Ġcontin uous
Ġ8 5
Ġrad iation
Ġwatch ed
Ġpakistan i
iling ual
Ġuns ustainable
Ġspl end
Ġupd ate
bet ter
Ġcert ific
Ġapolog ise
Ġprosecut or
c itiz
l ers
o e
o es
Ġt ank
Ġt uesday
Ġw atson
Ġs ant
al most
le ments
Ġn ap
ra de
Ġde regulation
Ġen emies
Ġch irac
Ġimp unity
Ġk az
Ġad j
Ġad here
Ġout look
me mbers
Ġconc luding
Ġrec ur
Ġconf idential
Ġref und
wor ld
Ġnor way
Ġval ley
Ġ3 4
Ġfurther more
Ġprotection ist
Ġur anium
Ġsupp liers
Ġcreat ures
Ġreform ing
Ġappropri ately
Ġdeep ening
Ġanal og
Ġill usion
Ġcollect ing
pol it
Ġcredit ors
Ġstay ing
Ġinvestig ated
Ġhost ile
Ġcr ush
Ġinsist ed
Ġrig id
Ġemot ions
Ġfer re
Ġmagn itude
Ġveget ables
Ġhypoc risy
Ġsoph isticated
Ġethi opia
Ġgeopol itical
Ġkitch en
Ġchocol ate
w ash
Ġt ig
Ġa qu
Ġa lex
on ic
at ories
Ġp ed
Ġf ol
Ġin sect
Ġan c
st yle
Ġl in
Ġl ake
Ġfor cing
Ġha m
oun ced
im ination
Ġle verage
Ġag ents
Ġk ne
Ġpresid encies
ig ate
si a
Ġra pe
Ġsp are
wor thy
Ġtransp osition
Ġbeh a
uc cess
Ġ3 8
Ġcontro vers
Ġir respective
Ġbar bar
ither to
emp loyment
Ġshare holders
Ġcapital ist
app y
Ġsubsid y
Ġobtain ing
Ġexception ally
Ġinh er
Ġperman ently
Ġcompar ative
Ġhur ry
Ġserb ian
asm us
Ġextrem ism
Ġcontemp orary
Ġsequ ence
Ġnord ic
Ġvers us
Ġreun ification
Ġprecond ition
Ġsacrif ice
Ġdatab ase
Ġsensit ivity
a unch
f ood
Ġa ver
Ġm akers
ic ts
Ġre ct
Ġg a
Ġl ank
li ances
we ight
Ġhe zbollah
Ġres id
ll er
Ġdiff ering
Ġser ving
Ġro yal
Ġma o
Ġma il
Ġsimp l
Ġrest rain
Ġcivil isation
Ġarg uing
Ġpric ing
Ġperform ed
Ġrob ots
Ġtun nel
Ġfif ty
Ġvirt ue
Ġcompe ting
Ġgold en
Ġextrem ists
develop ed
Ġdistort ions
Ġneglect ed
Ġaccomplish ed
Ġdrast ic
Ġmagaz ine
Ġsplend id
b ert
o il
v ice
Ġa er
Ġn ons
st ers
Ġun w
Ġun ite
iv able
Ġpart ially
Ġcount s
te l
Ġpre c
ink ing
ound ing
Ġemp h
Ġsystem ic
Ġsm ile
Ġban ning
Ġcent ers
Ġlive lihood
Ġbur n
Ġfarm er
Ġhon or
Ġmodern ization
Ġexplain s
ye ah
Ġphot o
Ġincom preh
Ġemot ion
Ġdeliber ations
Ġcalcul ated
Ġwhol ly
Ġprest ige
erba ij
k ov
m ath
Ġs ir
Ġun cle
Ġsh ed
Ġse eds
Ġk iss
Ġno on
Ġrec k
Ġcl oning
ath ered
olog ist
Ġback wards
bal anced
Ġform ing
Ġform ation
Ġtechn ically
Ġlif ted
Ġ3 3
Ġinst ances
Ġel imination
Ġsing apore
Ġ4 2
Ġpat ri
Ġtext iles
Ġfle ets
Ġoccur ring
Ġsepar ated
200 1
car ious
Ġtradition ally
Ġdisagree ment
Ġmountain s
Ġvacc ine
Ġaward ed
Ġabst ract
sad ly
Ġvolat ility
Ġsomal ia
Ġrw anda
Ġtong ue
citiz ens
e lection
p at
Ġth ailand
es ity
Ġh oc
Ġd irty
ic ular
Ġbe e
Ġst ating
Ġpro active
Ġeuro stat
od a
Ġk ur
ak is
Ġparliament arians
Ġar isen
Ġprov ince
Ġadd iction
olog ically
Ġinter depend
Ġrev ise
Ġframe works
Ġ5 5
Ġinteg rating
Ġregul ating
ple te
ck er
app ing
Ġport fol
Ġinflu enced
Ġclos est
bes ides
Ġswim ming
Ġmerc ury
Ġgather ing
Ġmir ror
Ġjer usalem
Ġbarn ier
Ġpris ons
Ġincompreh ensible
e y
Ã º
Ġt abling
Ġin security
Ġd ies
Ġe ve
Ġe ase
th al
Ġl ocked
Ġne ur
Ġsh ocking
ess im
Ġor ch
Ġres ume
Ġout line
Ġdec ides
Ġsp ons
Ġro w
Ġgood will
Ġoff set
Ġconf ine
Ġmin istry
Ġinde x
Ġwhe el
Ġstrong est
Ġes cap
Ġstruct ured
Ġviol ated
Ġeng aging
Ġgra b
Ġexcell ence
Ġcy n
ex per
Ġcritic ise
Ġcollect ively
Ġconduct ing
Ġauthor ised
Ġhar bour
Ġplanet s
Ġder iv
Ġreferendum s
mon th
Ġconsolid ated
Ġprevail ing
Ġanaly se
person ally
contro lled
Ġgall ery
Ġvit ally
Ġtear s
Ġske pt
Ġpian o
b en
j ad
n uclear
re b
re cent
Ġs ri
Ġin land
al i
al ong
Ġh ill
Ġh ier
Ġn it
Ġre build
Ġg or
Ġimp art
Ġpol ar
Ġco oking
Ġpre carious
Ġar ts
Ġro oted
Ġpartic les
Ġgen ome
Ġmay or
Ġsm ith
Ġsc ared
Ġprev ents
Ġear liest
Ġredu ces
ret ion
Ġmention ing
Ġfundamental ism
Ġoper ates
Ġstri p
Ġfunction al
Ġfriends hip
Ġgir lf
Ġexcess ively
Ġvulner ability
Ġii i
Ġretain ed
Ġpersist ent
Ġunre alistic
Ġfrust ration
Ġdistur bing
Ġunderest imate
Ġcarri ers
Ġgest ure
Ġaccus ations
bus iness
Ġunst able
b rit
u a
Ġs ak
or ate
Ġm entions
Ġl ung
ort ed
ch ing
Ġv en
Ġpres erving
Ġpres ervation
Ġexp osure
Ġref using
own ed
ob ama
Ġreason ably
Ġsc ra
Ġmed i
Ġorgan ising
Ġel ites
Ġpass port
Ġadminist rations
Ġbreak s
Ã© s
Ġappear ance
Ġjournal ist
Ġwitness ing
Ġlength y
Ġcrow d
Ġhyp o
Ġkil omet
Ġperpet rators
Ġdesp air
Ġdiagn osis
sm all
Ġdur ation
Ġinstruct ions
Ġcath olic
Ġmortg age
Ġtiss ue
Ġlifel ong
palest in
a e
y mmet
Ġp ir
ed e
as ive
im ension
os ur
Ġres il
Ġrep lied
ous es
Ġcont ents
are st
Ġper mits
Ġlo ves
Ġref rain
Ġdef ended
Ġpoint less
Ġmeas uring
Ġlif ting
Ġinf in
Ġinf lic
Ġdep loy
Ġforeign ers
Ġprof ile
Ġmilit ar
Ġiraq is
Ġident ifying
pr an
Ġfisher y
Ġsimilar ly
Ġharmon y
Ġbreak down
Ġrecon sider
Ġslow down
Ġdescri ption
Ġlay ing
Ġexplan atory
Ġbot tle
Ġpan ic
Ġhonest y
Ġhonest ly
Ġlux ury
Ġphenomen a
comp ass
Ġsurpl uses
develop ment
Ġscre ening
amend ments
Ġshif ting
Ġaz erbaij
Ġbroadcast ing
Ġinstall ations
Ġmathemat ics
Ġegg s
akh stan
Ġincomp atible
Ġanc est
m un
r ance
v o
w estern
z ens
Ġt ons
re search
Ġs que
Ġp essim
Ġb less
Ġh inder
Ġn om
Ġre organ
res sions
Ġint u
ste p
ors hip
Ġadd s
be an
Ġsch ol
Ġvi ability
Ġsuccess ive
gg ing
Ġconsum e
Ġafric ans
Ġdest ructive
Ġste pped
Ġrad ically
Ġreact ors
Ġord ered
Ġdraf ts
gra de
Ġextraordin arily
Ġdepart ments
Ġprior it
Ġprivile ged
mis sible
Ġredund ant
Ġpopul ist
Ġprejud ice
Ġtrace ability
Ġsla very
Ġindig enous
Ġumb re
e xt
f oot
g rad
i ver
k ash
t ini
Ġa k
Ġa str
en v
or ious
Ġf athers
Ġd well
as ant
il ation
Ġu seless
id ently
Ġcon form
Ġme ters
Ġsu pran
ci pe
Ġen gin
Ġpres erved
Ġconc ludes
ine jad
Ġbas el
Ġent ities
Ġass ault
Ġbud d
Ġsuccess or
Ġiniti ate
Ġele v
Ġer u
Ġdraw s
Ġsat ur
Ġexplain ing
Ġperform ing
Ã¶ der
Ġlay s
Ġreve als
Ġvig orously
Ġrestric ting
Ġdin os
Ġfortun ately
Ġcas ual
Ġimprison ed
Ġderog ation
Ġfrat tini
Ġsupran ational
Ġengin es
b at
m ap
Ġ lying
Ġt ap
Ġt ends
Ġc rop
Ġo t
Ġb ans
Ġan ch
ro ots
Ġn ie
Ġg n
Ġg athered
ur ances
ow ed
Ġimp ly
Ġqu art
Ġdis ability
me as
Ġar rog
Ġtra ins
Ġsp aces
Ġreason ing
af i
Ġten nis
Ġrich est
nam o
Ġalloc ate
Ġrepl acing
Ã¡ namo
Ġlabor atory
Ġfruit ful
Ġundermin es
Ġevolution ary
Ġdeliber ate
Ġexe mptions
Ġcommod ities
Ġcomplement ary
Ġchamp ions
Ġstead ily
Ġdismant ling
incre asing
Ġtrigg er
imension al
env ironment
0 2
c op
f at
i que
n orm
r an
v ian
Ġt ie
Ġth ri
Ġw ire
Ġp ione
Ġre hab
im ated
Ġch ris
Ġcan c
Ġor ange
um ers
Ġact or
ath y
Ġemp ower
Ġbl ocking
Ġrest oration
Ġread iness
av oid
Ġbal ances
Ġel abor
Ġexpress ly
Ġvis its
Ġsl ower
cri min
Ġrelig ions
Ġislam ist
Ġmal ay
Ġship y
Ġgrand mother
Ġparal ys
Ġves sel
Ġscot t
Ġfortun e
har ov
Ġdisproportion ate
Ġtempt ation
Ġgirlf riend
f ts
p es
s ol
Ġh orm
Ġh itherto
Ġre imb
ch et
Ġwor s
Ġab d
lic ity
Ġconc ert
Ġunder ground
Ġtra p
Ġob esity
Ġworld s
Ġbo ats
ite ly
Ġhuman e
Ġdisc rep
Ġsec ured
Ġcar ib
Ġgr id
Ġdep loyment
Ġadv ise
Ġexpect ation
Ġbar oness
Ġindivid ually
Ġmis sile
Ġmid st
Ġsuggest ing
Ġcirc les
Ġant ibi
Ġcross ing
Ġcooper ating
cont in
Ġpreced ence
Ġfortun ate
thes is
Ġevol ve
Ġsuspect ed
Ġunh appy
concern ing
Ġsak harov
Ġumbre lla
" .
o eu
s ing
t rad
v ard
Ä į
an en
or ically
Ġd u
Ġg ear
ort ions
Ġas ymmet
Ġne ts
im er
ge red
Ġse min
Ġcount ing
Ġexp on
ign ment
ang le
Ġoff ensive
Ġdirect ors
Ġ19 3
ract ed
Ġimpro ves
Ġwel coming
Ġequ ation
Ġsing ing
Ġ4 3
Ġ4 4
Ġkey nes
Ġgener ating
some one
Ġjud gments
Ġsk illed
Ġver sions
Ġlink ing
sp ace
Ġbi om
comm er
Ġcorrect ed
Ġimag ined
Ġtour ists
Ġblo ody
erent ial
Ġenh ancing
Ã¡ vez
Ġdynam ics
Ġsto pping
cons umers
Ġforg ive
part icular
Ġbomb ing
Ġbos s
Ġren der
Ġliter ature
Ġrac ist
tur ning
Ġcry st
Ġclin ical
Ġintens ify
Ġpoet tering
Ġtast e
Ġmira cle
Ġguant Ã¡namo
Ġconj unction
Ġcatastroph ic
Ġambass ador
Ġrehab ilit
oeu v
s outh
u ated
Ġw il
en l
it ting
Ġm ud
Ġn as
Ġst ol
Ġcon vert
Ġen light
ist ically
Ġcount less
ab ul
Ġfa ire
Ġpl ot
au er
Ġman oeuv
ign ific
Ġtra um
Ġsp ur
Ġinv isible
Ġprov in
Ġcour ses
Ġgu ided
Ġke ys
ici encies
Ġban anas
be h
Ġallow ances
Ġaw ful
Ġlib eration
Ġsuff ers
Ġold est
Ġdecl ined
co operation
Ġbor ing
Ġhear ings
app ed
dom in
Ġanalys es
Ġrestrict ion
cul osis
Ġsimplif ying
Ġhost age
Ġpension ers
Ġvill ages
Ġcorrespon ds
Ġsusp ension
Ġrecip rocity
Ġdirector ate
Ġineff icient
Ġerad icate
grow th
Ġcot ton
Ġsympt oms
uber culosis
Ġfro zen
Ġtheore tical
Ġazerbaij an
Ġcarib bean
j e
m ese
s ur
v in
Ġd g
ut s
Ġun cond
Ġpar ame
Ġab ide
Ġk al
oc cup
Ġthem es
Ġdec omm
Ġsupport ive
Ġover se
Ġcl ust
Ġintern ally
ount ered
Ġph ones
Ġwish ing
Ġcor rid
Ġenc ountered
Ġhead quarters
Ġbur st
Ġbur mese
Ġconte mpt
Ġ7 00
Ġrecomm ends
Ġindic ator
Ġcod es
Ġexport ing
cul es
Ġdynam ism
Ġhur ric
Ġaccompan ying
produ ct
Ġprofound ly
Ġfing ers
Ġswift ly
Ġpregn ant
Ġcoexist ence
Ġgamb ling
Ġhab its
Ġdecomm ission
c ost
k este
r ational
t ar
Ġt uberculosis
Ġth rust
Ġa mp
Ġw olf
Ġo w
Ġp air
Ġf ib
Ġh i
ro se
Ġre cipe
Ġl amp
Ġare na
Ġas p
Ġpar amount
Ġdo zen
ac ity
ak s
ig ration
Ġqu o
Ġpre domin
he res
Ġfe es
Ġover l
Ġsy rian
act ually
Ġoff ence
Ġmo od
Ġdisc red
Ġdisc oura
min ister
Ġatt ending
Ġass igned
Ġneg lig
Ġlif et
Ġrest oring
Ġcond itional
Ġopp ression
Ġexpect ancy
Ġrecogn ising
Ġsumm its
Ġappe als
Ġenc ounter
Ġentire ty
Ġpot ato
Ġwa ited
Ġmult ilingual
Ġ9 9
ex p
Ġhistor ically
Ġspirit ual
Ġlaunch ing
Ġbat tery
Ġlay er
Ġunf old
int ensive
Ġclean er
Ġstrength ens
spe ed
Ġfat al
Ġparad ig
Ġenvis age
Ġshap ed
Ġfasc inating
Ġimprison ment
Ġderog ations
Ġque en
Ġincon ven
Ġperiph eral
Ġexemp l
keste in
1 2
e ken
h o
h ope
m n
m us
v ial
Ġc ats
Ġm erg
Ġf ru
ar raf
Ġg ro
Ġu en
ess ed
Ġen compass
Ġch ronic
ome ter
Ġrep ro
Ġno se
Ġco financing
thing s
Ġser bs
tain ing
Ġlo oph
Ġsy mmet
Ġsub ordin
Ġdisc retion
Ġher zegovina
Ġsc ul
Ġem ail
Ġdist ortion
Ġshort er
Ġimpact s
Ġred ress
Ġrepublic an
Ġenorm ously
ann es
Ġspeed y
Ġphot os
Ġswe ep
Ġreplace ment
Ġchap ters
hand ed
Ġkil ometers
eff ective
Ġscandal ous
Ġcontemp l
Ġmun icip
Ġairpl ane
priv ate
Ġignor ance
Ġze al
Ġdoctr ine
Ġkur ds
Ġimpart ial
enl argement
Ġstol en
8 0
d in
d imensional
m ilitary
z be
is ations
Ġb in
ic able
ut ing
ol as
Ġme lt
op oul
Ġse ed
Ġat e
Ġimp ressed
Ġfe ared
Ġinv ention
rit ical
Ġrem inder
Ġdef er
ob oda
Ġown ed
Ġlegisl ators
Ġris es
Ġbl at
Ġcor n
Ġequ ipped
Ġlet ting
pl ay
Ġann an
Ġdesign ers
Ġhear ts
Ġreject s
Ġpack ages
Ġstop s
Ġreflect ing
Ġhun ting
Ġsan ction
Ġwin ner
Ġconstruct ed
Ġ% .
govern ment
Ġqual itative
Ġobst ruct
Ġreact ed
Ġphil ipp
Ġsleep ing
Ġlic ences
Ġinj ury
Ġmotiv ation
Ġcorner stone
Ġunre ason
Ġanticip ated
Ġmisunder standing
Ġcontam ination
Ġcos m
Ġpoc kets
Ġentertain ment
Ġdread ful
Ġdeput y
Ġkaz akhstan
Ġquart et
1 9
f arm
g le
n on
t t
v y
v it
Ġp ending
or able
Ġin justice
Ġne pal
Ġun ilaterally
Ġab bas
Ġman kind
Ġfact ories
Ġsign atures
Ġ20 50
Ġequ itable
Ġimm une
par ts
Ġsw oboda
Ġtri g
af e
where as
sh aring
Ġoppos ing
thod ox
Ġrepe ating
Ġemb od
Ġrich ard
ca mb
Ġspir al
Ġpain ting
Ġlower ing
Ġcondem ning
Ġsurv ived
Ġlu kash
Ġdrink s
Ġbelong ing
Ġagg reg
Ġquar ters
Ġreiter ated
Ġtibet an
Ġpassion ate
Ġirre lev
Ġdisplay ed
Ġclub s
Ġdan ube
Ġmole cules
Ġsme ll
Ġcomfort able
Ġdivers ification
Ġtact ics
Ġecosyste ms
Ġcontrovers y
Ġlank a
e ither
t reat
re pres
Ġto y
Ġf ier
Ġh iding
Ġd ust
Ġe ld
th irds
Ġre ception
Ġbe es
ly wood
id al
ur ate
Ġde eds
Ġcomm em
Ġab used
Ġtr uck
ru p
Ġte en
ĠâĢ Ŀ
Ġover night
Ġadd itives
Ġla eken
Ġpr ince
Ġma ur
Ġsc ri
Ġafter math
Ġinde fin
cu le
Ġapproach ed
Ġsupp lied
Ġpop ulated
Ġtri vial
Ġprof essions
Ġemphas ized
Ġdest ination
Ġdest iny
Ġmass es
Ġsal t
Ġign oring
ls on
Ġsurpris ingly
Ġball ot
Ġpredict able
Ġpersu aded
Ġvacc ines
Ġbol iv
add afi
Ġguard ian
bet ween
grow ing
Ġmerc osur
Ġconscious ness
Ġoverlook ed
oper ability
afric a
Ġfranc is
Ġspectac ular
Ġnons ense
7 0
f aced
f unction
h el
i at
m ake
Ġt an
er a
Ġs is
Ġin ner
th rop
Ġre lying
ot al
Ġha w
Ġex cise
Ġv icious
Ġag ing
Ġimp over
Ġk u
ac cess
de z
Ġpl a
Ġri vers
Ġtim ber
Ġsa har
Ġpos sel
og en
Ġra b
ub ar
Ġinv al
Ġagree ing
Ġref uses
oll ar
Ġcur tain
own ers
Ġelect ron
Ġintrodu ces
ata h
Ġmis ery
Ġspecial ist
Ġemb ass
Ġsepar ately
Ġfrequ ency
equ ally
Ġprosec ution
Ġbreat he
Ġillust rates
Ġchamp ion
Ġnur t
lim ited
Ġdepos it
Ġcypri ot
Ġscarce ly
Ġwond ered
Ġdivor ce
Ġporn ography
Ġexempl ary
Ġtrig gered
Ġpossel t
b ted
c ular
m ill
w al
re z
Ġs ar
Ġh oney
ar ound
Ġpro x
Ġy en
ra ction
Ġne u
qu it
us ive
Ġr Ã¼
Ġor te
Ġbut ter
de termination
Ġad mission
ab et
oc ratic
ult imately
Ġco in
Ġco gn
Ġcons p
Ġmar king
Ġspe ll
Ġsp ends
Ġrec ourse
Ġprov ing
ange red
Ġla undering
Ġass urances
Ġtal ent
Ġbr ink
Ġsc our
Ġfore front
Ġins ol
let ion
Ġca iro
ger man
Ġchar les
europe ans
Ġindepend ently
Ġdoub led
Ġcoordin ator
Ġsen ate
Ġqual ities
Ġsafe ly
Ġphys ically
Ġexpendit ures
Ġquot ed
Ġprefer able
Ġoccasion ally
Ġpleas ant
Ġren d
Ġpi racy
Ġsurround ed
Ġtaxpay er
Ġpref erential
Ġalban ian
Ġcamer as
Ġacknowled ges
Ġbol kestein
Ġinsp ire
Ġcli ents
Ġshap ing
Ġsloven ian
bas ically
Ġmanip ulation
Ġdesper ately
Ġstead y
Ġcens ure
Ġbes ides
Ġspecul ative
Ġtac is
aci o
Ġrecruit ment
Ġautomob ile
gre en
palestin ian
Ġfaire r
Ġoverse as
Ġscul pt
zbe k
ubar ak
d ict
s um
t an
t ry
u mber
u sions
re ck
Ġs am
Ġp as
or a
Ġf ile
Ġd row
pe red
Ġha ul
Ġal ert
the ast
Ġv ain
Ġint ra
Ġad vers
Ġover t
Ġover coming
Ġend angered
Ġass uming
Ġserv ants
Ġnegoti ators
Ġ4 6
Ġpass es
Ġpass ive
Ġenl arge
Ġele ven
Ġroad map
Ġmet al
Ġseem ingly
Ġtrust ed
Ġwin ners
Ġbul k
Ġtour ist
Ġadap ting
Ġhar vard
Ġwid ening
Ġep is
Ġproportion ality
Ġcast ro
Ġboost ing
Ġscand als
Ġagg ression
Ġprohib it
Ġalleg ations
Ġexceed ed
Ġdub ious
Ġabsor b
Ġveget able
Ġoffic er
Ġreprodu ctive
inform ation
Ġjac ques
current ly
Ġlukash enko
Ġorte ga
b g
g ree
m ir
p os
r as
Ġt rop
Ġm ism
Ġbe ll
Ġg m
Ġfor ge
Ġst ro
ad s
Ġdo zens
Ġch Ã¡vez
am ble
oc aust
Ġqu it
Ġfin es
ens ity
lic k
Ġthem atic
Ġper cept
Ġlo ose
Ġcl oud
Ġrel atives
Ġmin ors
Ġcontin uously
Ġprocess ed
Ġide als
Ġshe et
Ġimm inent
Ġbenef iting
with standing
pl an
Ġopt ed
Ġpal acio
pr in
Ġsent enced
Ġpret end
Ġwall strÃ¶m
fe w
Ġder ived
Ġgrand father
Ġincom plete
Ġmargin s
Ġsyn thetic
Ġdar win
wa it
Ġbub bles
Ġpul led
Ġunequ al
Ġprote ins
Ġdismiss ed
Ġstagn ation
forest ation
Ġunres olved
1 8
5 00
b est
c ris
g arian
i ably
m ble
r ality
u y
Ġ `
Ġs ab
it an
Ġf ert
Ġin du
Ġn inet
om as
ver sible
ge or
Ġk ash
Ġman n
ag an
Ġunder lines
igh ter
Ġcur tail
Ġgu iding
Ġinform ing
Ġdra g
Ġbu ff
Ġdeal ings
Ġest ate
Ġconv ictions
Ġreach es
pri me
Ġhard est
Ġfl ower
Ġexpress es
Ġred ing
jo hn
Ġclass ic
Ġclass room
Ġexport ers
Ġarab s
Ġkid n
Ġwind ows
Ġbat teries
Ġfast est
Ġappeal ing
Ġstim ulating
Ġattach es
Ġvig orous
Ġash amed
Ġfran co
Ġnav igation
Ġcert ification
Ġpled ged
elect ed
Ġnaz i
Ġfragment ed
Ġforb idden
Ġinconsist ent
Ġlobb ying
Ġsque e
Ġphilipp ines
1 4
b ank
d ated
d iff
f reedom
g l
g ress
Ġa us
in stein
Ġs le
Ġb ones
Ġto ll
Ġf its
ed ing
ar ab
Ġn aked
as se
Ġg on
Ġg reed
ot ive
Ġfor d
ra m
ul sion
op ing
us s
Ġad am
Ġcont est
Ġout right
for ces
Ġinc in
te mp
Ġdec oup
Ġsp r
Ġtrans action
ang u
red ict
Ġext ends
Ġla ure
Ġcontin ents
be yond
Ġdep ressed
Ġrest s
Ġmil est
ret t
Ġestablish es
Ġmean while
Ġshort ages
leg al
Ġret reat
Ġgre et
Ġcred its
Ġcoh n
Ġdesign ated
reg ulated
Ġimpos ition
Ġroom s
Ġharmon ising
pro v
Ġbul garian
Ġcharacter istic
Ġcompl ac
Ġoccup ying
Ġsac rific
Ġinade qu
Ġillust rate
Ġselect ive
Ġcontradict ions
Ġendeavour s
Ġcease fire
Ġanticip ate
Ġexhaust ed
Ġaccommod ate
Ġbreed ing
Ġarmen ia
great er
Ġforesee able
Ġmetaph or
Ġparame ters
camb ridge
1 00
h y
o a
Ġb ric
Ġf atah
Ġre wards
Ġl ama
Ġwe t
Ġst ir
Ġst ere
Ġpro stitution
ri um
ill a
Ġex it
Ġdo omed
am in
ag ric
ris k
Ġend less
Ġinter ior
Ġtransp osed
Ġform ulate
Ġnat ura
Ġbl an
Ġinde bted
Ġrese mb
Ġhighlight ing
Ġexport ed
Ġcounter parts
Ġprison er
200 9
els on
Ġadvoc ating
Ġdecis ively
ari os
Ġjoh annes
Ġscen arios
Ġbox es
Ġflu ct
roc ities
Ġah mad
Ġcultiv ation
Ġrevers ed
Ġdepl ore
Ġgalax y
Ġunequiv ocal
Ġtherap y
Ġsecre cy
d ad
d rop
e en
f ail
n esty
p ers
v ol
Ġa rose
re a
Ġm ouse
Ġm aps
Ġan onym
Ġh its
Ġg y
ot ics
Ġpro mp
Ġun c
Ġun com
Ġun democratic
ere rs
we g
Ġle cture
od es
Ġor thodox
Ġres erved
ard o
ie l
Ġev asion
Ġind ul
und i
Ġleg ality
Ġmat ernity
oll and
min ute
Ġcur b
Ġdef iciencies
Ġatt ent
Ġtur bul
Ġcar l
Ġbr ush
Ġinter operability
Ġdra in
Ġmod e
Ġauth ent
Ġear ned
Ġta j
Ġless er
Ġread ily
par agraph
Ġdist ress
Ġfam ine
Ġexpect s
Ġviol ate
Ġvar ied
Ġciv ic
Ġchalleng ed
Ġdam ages
Ġden ial
Ġvo iced
Ġdepend ency
Ġmig rant
Ġhor ror
ik i
Ġenjo ying
des ign
Ġtun e
Ġoccup y
Ġreferend a
Ġattract ed
Ġsac red
Ġran ks
Ġinfect ion
Ġvacc ination
uk raine
Ġextrem ist
Ġhol ocaust
Ġcapt ured
Ġdistingu ished
Ġpled ge
Ġambig uity
Ġdetain ed
Ġpredecess or
Ġhed ge
Ġallev iate
Ġdal ai
Ġextrad ition
Ġgn p
? '
a o
a el
a ven
a ired
n r
n ar
o ft
on ou
Ġp itch
Ġf led
Ġn ab
as y
ment ioned
Ġst un
Ġas leep
est yle
Ġag gra
Ġj os
Ġac id
Ġdis gu
Ġro s
Ġcommit ting
Ġrel aunch
rat ory
Ġext in
Ġquestion ed
Ġprotect ive
Ġback s
Ġlif estyle
Ġpass age
az z
Ġmaintain s
comm on
Ġevent ual
Ġil o
Ġden ying
Ġemb ed
Ġvir gin
Ġtravel ing
Ġimplic it
Ġjudge ment
Ġshame ful
Ġdemonst rators
Ġinfringe ments
ios ity
Ġreloc ation
Ġecosyste m
Ġug anda
Ġau ction
Ġredistribut ion
Ãº n
Ġrehabilit ation
Ġlifet ime
Ġirrelev ant
c ulate
i as
l ining
o ons
r and
s ided
v ency
Ġthe ories
on i
Ġo zone
Ġb und
Ġb ern
Ġd ol
Ġre think
Ġwh ist
Ġcon du
Ġeuro just
Ġat rocities
Ġch ad
rom e
Ġk at
Ġrep ressive
ear ly
te ch
oin ts
he imer
Ġconc erted
Ġsp a
Ġbo ther
ite ment
Ġreal ism
Ġtur mo
Ġinter l
Ġlegisl ate
Ġorgan ize
Ġir rational
eng u
Ġpeace keeping
Ġbar rel
Ġret ention
Ġhome land
Ġmor ality
Ġhead lines
Ġcir cu
Ġemploy ee
Ġdescri bes
Ġhor ri
Ġdiplom ats
Ġ14 0
Ġmanufacture r
Ġsyn ergy
Ġacceler ated
Ġolymp ics
Ġdiss atisf
Ġincident ally
Ġmemor ies
Ġq aeda
Ġcot onou
Ġprivat isation
Ġcontam inated
Ġcab inet
Ġwarn ings
Ġmush arraf
Ġorch est
Ġderiv atives
Ġscott ish
Ġturmo il
b ro
e ba
f ield
g or
l it
p oll
t rodu
Ġa ri
Ġthe ater
er ies
Ġc ited
an mar
Ġf urn
ar at
Ġre ef
as ide
st s
Ġg ay
ra yed
ir ation
Ġun avoid
Ġsh y
Ġpar king
Ġv lad
Ġch an
Ġj i
ll ers
Ġout dated
Ġcomp osed
Ġwork able
Ġte les
Ġar ray
ok es
Ġob li
Ġhum ili
Ġconf using
Ġdef ect
Ġsc ream
Ġstand point
Ġph are
Ġconv icted
Ġ4 7
Ġloc ally
Ġvis iting
Ġproper ties
Ġbur ned
Ġeur atom
Ġself ish
Ġinflu ential
tom orrow
Ġdead lock
Ġtemp or
Ġrein trodu
cl imate
Ġstandard isation
Ġsuperv is
Ġhit ler
Ġtend encies
Ġengine er
Ġconver sion
Ġreserv ation
Ġtight en
Ġdisadvant ages
Ġrecip ient
Ġprivile ges
Ġnut s
ÃŃ n
Ġroc ket
Ġdistur b
Ġexerc ised
Ġpand emic
Ġax is
var ious
Ġemph atically
Ġmalay sia
Ġunreason able
zbek istan
Ġauthent ic
0 3
b endit
g one
l at
r ne
s how
u pp
Ġth rew
Ġs lu
Ġb ills
Ġm ubarak
Ġf iction
Ġh in
Ġh ub
ic ago
Ġl ion
Ġha mp
Ġal tered
Ġun le
Ġse ized
Ġj ames
Ġk la
Ġinc lined
Ġinc umb
iz ar
fore ign
Ġra mp
ved ev
Ġtoo th
Ġcur ric
Ġent rust
Ġass ent
Ġdown ward
Ġmod es
Ġbl amed
Ġ3 9
Ġcomple ting
Ġdist ances
Ġ5 2
Ġrecogn izing
nov ation
ush ch
reg rett
Ġdev ised
Ġhuge ly
Ġemerg es
Ġstri ving
Ġclass ified
Ġclass ification
Ġrenew ables
iet ies
Ġmand elson
Ġinvestig ating
Ġarri ving
Ġder ive
Ġdomin ate
Ġang le
Ġleban ese
mo ving
Ġmobil ise
Ġattend ance
Ġvac ation
Ġphotograph s
Ġentrepreneurs hip
Ġfool ish
Ġcounterfe it
Ġbran ch
Ġsuperf lu
Ġantibi otics
Ġmanoeuv re
ignific ant
hope fully
cris is
Ġninet eenth
Ġaggra v
regrett ably
a way
g as
m are
v an
z heimer
Ĥ ¬
re f
at ibility
Ġc ite
Ġo lig
Ġm am
Ġf ox
Ġin ad
Ġd ressed
Ġe f
st ud
il ib
Ġg ates
Ġl ul
Ġl ud
Ġst ub
ow ing
Ġde lete
Ġun den
im m
im ir
Ġby rne
Ġcan ad
end ers
Ġpl un
now adays
Ġmar sh
Ġra cial
Ġsp ill
Ġconf ed
Ġappro ving
Ġdisc l
Ġhope ful
Ġins ists
Ġcond ol
Ġpo ly
Ġpo em
then burg
Ġexpl os
Ġmot ives
Ġarg ues
Ġer asmus
Ġassist ing
Ġge ared
Ġfig ured
Ġcross ed
Ġindic ating
Ġtraff ick
Ġig no
Ġdr unk
Ġcounter productive
ann ual
Ġblack mail
Ġclaim ing
Ġmanufact ured
Ġfeed back
sk y
bur gh
comp liance
Ġshar on
ato eba
Ġchur ches
Ġaccur ately
Ġimper fect
Ġmobil isation
Ġâ Ĥ¬
Ġintens ified
cap ital
Ġnut rition
Ġupd ated
Ġconvers ations
Ġerad ication
Ġdiscrimin atory
mod ern
Ġrevol utions
Ġhesit ate
Ġassass ination
educ ation
indust rial
Ġharass ment
Ġadj our
Ġkilomet res
environment al
Ġsahar a
Ġ` `
Ġjohannes burg
Ġsuperflu ous
a urs
c ity
c reat
l ondon
p ing
s cient
y oun
Ġc res
Ġc ia
Ġb ible
Ġan no
st ar
st ay
Ġg olf
Ġl en
Ġl one
Ġal t
Ġde af
Ġun think
Ġse ver
Ġj im
Ġhe ed
ac ulture
ag og
Ġco ach
ition ally
Ġpre rog
he y
Ġra ins
Ġunder going
Ġsp ots
act or
Ġrespon ds
olog ies
Ġenv iron
Ġprev al
Ġfra ction
Ġpower less
Ġshe ets
Ġinst inct
Ġrev ive
Ġpo pe
Ġfl ash
Ġcomb ining
Ġvis ibility
Ġmind set
cent ral
Ġwa iver
omet ric
Ġcru de
Ġver ification
Ġdev ise
Ġmodern ise
Ġden omin
Ġden ounce
Ġcle ared
Ġund ers
pro gress
Ġchec king
Ġhy gi
ustom ed
Ġslo gan
Ġ13 0
Ġcomplain ed
Ġvisit ors
Ġchem istry
Ġgradu ate
Ġterri bly
Ġspok es
Ġconce al
americ ans
Ġgeograph y
imp ro
Ġol ive
Ġadm ire
Ġdefe ated
develop ing
Ġhol es
Ġdecre ased
Ġbreach es
Ġmurd ers
Ġunp redict
Ġcf p
Ġredund ancies
Ġcatal y
hist ory
Ġflaw ed
Ġsoc rates
prof it
Ġcypri ots
Ġincur red
Ġna ive
Ġmassac re
Ġinfl ows
viol ence
Ġsmugg ling
Ġunambig uous
Ġdecommission ing
Ġparadig m
Ġfier ce
Ġtrop ical
Ġuncom fort
c red
Ġb izar
Ġf o
ou re
Ġh anging
Ġe man
Ġfor ty
Ġha mm
ir s
so far
Ġgo thenburg
Ġj am
Ġor ph
Ġhe ge
Ġab ilities
Ġli ik
Ġpe ters
ast e
ren der
Ġpre occup
ach e
Ġover sight
Ġmon u
Ġmin i
Ġquestion able
Ġdef ines
Ġcol umn
Ġprev ails
Ġmed a
Ġmed ina
Ġread s
Ġbur ied
Ġdri ves
Ġdeep en
Ġste pping
Ġara fat
Ġtemp ted
fr ank
Ġanalys ed
Ġund es
Ã¶ r
Ġterri f
Ġcompe lling
Ġcorpor ation
ull ah
Ġslight est
Ġceleb rated
Ġfer til
Ġwebs ites
Ġirre versible
Ġshap es
Ġsmoo thly
Ġgh ost
Ġic c
contro l
Ġacad em
Ġmisunder stand
Ġadvis ers
Ġshel ter
Ġlam y
Ġmyster y
Ġflour ish
Ġeleph ant
Ġrefund s
Ġneur ons
Ġbiom ass
Ġfrancis co
Ġahmad inejad
Ġenviron ments
Ġliik anen
b rid
h our
m oud
w ind
Ã ±
Ġth r
re du
Ġs ink
Ġc ents
Ġo omen
it ual
Ġb our
Ġm ild
Ġe instein
Ġre hn
Ġl ord
Ġha vens
ri ans
Ġun limited
Ġsu ited
ad mitted
Ġv ested
so lete
Ġr ank
Ġhe ated
Ġhe ating
Ġpol es
Ġint act
Ġsa mp
Ġgovern or
mm ing
rat or
Ġass u
Ġback ward
Ġsign ature
ne ys
Ġinvest or
isl am
Ġmod ification
Ġsch r
Ġhand ic
Ġval idity
Ġconflic ting
Ġrequest ing
Ġsk i
Ġprob ability
Ġorigin s
Ġcy cles
Ġindic ative
Ġassoci ate
lin ary
ann y
Ġsun ni
Ġconfirm ation
Ġhit ting
Ġbureauc rats
Ġtransform ing
roso ft
tw enty
Ġboy cot
Ġabandon ing
Ġparal y
Ġscand ina
Ġpurch ases
Ġunnecess arily
Ġlic ens
Ġflag s
Ġoverwhel m
Ġdictatorship s
Ġevalu ating
Ġintens ity
Ġsudan ese
Ġhero es
Ġintoler ance
Ġunjust ified
Ġdivid ing
Ġgalax ies
Ġsenti ment
Ġcorre ction
Ġdisse min
ĠbÃ¶ ge
Ġeru pt
Ġkash mir
Ġvlad imir
Ġtempor arily
Ġigno res
admitted ly
g roup
l or
s er
Ġt ender
Ġa ven
ro at
ro oms
Ġre na
st ruct
Ġl an
Ġl ament
se ment
Ġde leted
ul um
Ġun law
oun der
li p
ich et
Ġch arity
Ġhe aven
Ġk or
Ġrep ay
Ġtr ichet
Ġri o
Ġapp les
Ġtra pped
Ġfe e
Ġpolit e
Ġind ians
Ġmo z
Ġho ly
Ġlast ed
over all
Ġsimp licity
com mit
Ġes p
Ġpo le
Ġstar k
leg isl
Ġrecogn izes
Ġfl av
ib eral
Ġmis er
Ġz o
str ong
Ġmethod ology
Ġreview ing
ex am
Ġmal n
Ġproceed ing
Ġexplo iting
ij ten
Ġinsist ing
Ġautom otive
Ġdomin ance
Ġabol ishing
Ġgeorg ian
Ġsport ing
Ġinterpret ations
Ġgeograph ic
Ġreli ability
Ġinj uries
att ered
Ġexe mpt
eff icient
Ġshif ted
Ġillness es
Ġcens orship
Ġtall er
Ġvary ing
Ġimperial ist
Ġbran ches
Ġresign ation
Ġpuzz le
Ġportfol io
Ġsatur day
Ġdinos aurs
Ġfru its
Ġboliv ia
Ġcogn itive
Ġstere oty
e z
g od
i h
m outh
Ġt ide
Ġth omas
re form
Ġw ines
it ter
it ure
Ġp iv
Ġp engu
Ġh olland
Ġre ap
Ġl as
Ġl ock
Ġwh is
ot ted
pe lled
ld om
Ġst y
ch i
ul es
ant ed
Ġv itor
mb owski
Ġr itual
Ġli able
Ġk ir
Ġam nesty
Ġcont ag
Ġpe cul
ire land
te chn
Ġco at
Ġsa mple
Ġpre cip
Ġob solete
Ġper u
Ġover view
Ġtw in
Ġacc ustomed
Ġbas que
Ġ19 2
Ġprotect s
ne ed
Ġsuc cession
Ġprin t
Ġhealth ier
Ġsur render
Ġcor al
Ġins urg
Ġcontribut ors
Ġbal i
Ġshort fall
Ġvar ies
Ġappe aring
Ġtransport ed
Ġpen cil
Ġcongrat ulated
Ġsuper power
Ġmus cle
Ġexch anging
Ġbi as
Ġoblig atory
Ġcy cl
Ġill iter
Ġislam ists
Ġanalys ing
Ġrein forces
Ġdescri bing
ze mbowski
Ġult ra
ik h
Ġtele com
road s
Ġpsych ology
Ġthrow ing
Ġrig our
Ġtraged ies
Ġtough er
Ġprohib ition
Ġtight ening
Ġbrid ges
Ġearn ings
Ġacceler ating
Ġthreshold s
Ġfost ering
Ġperce ive
Ġyield s
Ġlaugh ing
Ġpostpone ment
Ġfragment ation
Ġnomin al
Ġaston ishing
Ġmah moud
Ġjar zembowski
Ġpup ils
Ġduplic ation
Ġalex ander
Ġastr onom
Ġcanc Ãºn
Ġparalys is
Ġhurric ane
Ġaggreg ate
Ġscour ge
ilib rium
Ġunthink able
d og
i ries
s ud
s erv
t ings
Ã ´
re member
Ġw ik
is ons
Ġs ket
Ġc ine
Ġc ock
Ġp ounds
Ġan k
Ġd ent
om ing
ot ion
ot ism
Ġwe ird
Ġst if
Ġst akes
ra mid
Ġnot ification
op ular
Ġsh ore
Ġres ent
um ably
Ġman ager
ru ijten
Ġra ining
Ġover r
Ġgen eric
Ġgen ius
Ġconf er
Ġsocial ism
Ġprot oty
Ġtreat ments
Ġrespect ively
Ġmod ifications
Ġdep reci
Ġcrit ically
Ġfree ze
Ġple a
Ġair space
Ġspecial ists
Ġurg ing
Ġland ing
Ġlos es
Ġlos ers
Ġec r
Ġinflu x
Ġbi ke
mar ks
ins on
Ġcritic ized
Ġcal culation
Ġclass ical
gar ians
Ġpain ted
200 4
Ġcomplain ing
Ġcontinent al
Ġsafeguard ed
Ġarrest s
Ġcatch es
Ġment ality
Ġinfect ious
Ġarchitect s
su pp
Ġdetect ion
Ġkn ife
Ġdistort ed
Ġbreath ing
Ġgh ana
Ġjeopard ise
Ġlad en
Ġpersec uted
Ġlag ging
Ġtroub les
Ġtroub led
Ġperiph ery
Ġath let
Ġpy ramid
Ġcyn ical
gree ce
Ġembed ded
Ġbizar re
Ġvitor ino
2 000
c ard
l ow
p ost
r gy
u ate
Ġt ables
Ġt enth
re y
is an
er ts
Ġb h
Ġd ense
Ġd uly
le z
Ġre lies
Ġre bel
Ġre building
Ġg ate
Ġg sp
Ġl akes
Ġst ig
Ġnot able
Ġse ldom
Ġle an
Ġgo e
Ġli p
ree vy
Ġwho ever
cy cl
Ġrec overed
Ġover due
Ġstr and
ris ing
Ġmarket place
Ġent ers
Ġass umes
Ġgu ilt
Ġcar c
Ġcol ors
Ġcol umb
Ġform at
Ġglobal ised
Ġinf er
Ġsur f
Ġed f
Ġdist rict
sw ed
Ġcivil ised
Ġloc ations
Ġmot to
Ġdri ft
Ġiran ians
Ġmet als
Ġver dict
Ġland f
ah u
Ġteach es
Ġnight mare
Ġrein forcing
Ġsun light
200 2
Ġda wn
Ġbelg rade
Ġdefend ers
Ġpopular ity
Ġky i
Ġcondition ality
Ġconsolid ating
Ġang ola
Ġmic rosoft
through out
Ġsister s
Ġprofit ability
Ġrecip ients
Ġprag ue
Ġenthusi astic
Ġambig uous
Ġprecond itions
Ġsoc cer
Ġcoinc idence
Ġescal ation
compet itive
Ġembry os
Ġcigaret te
protect ion
Ġrestrain t
Ġhier archy
Ġcryst al
Ġunavoid able
Ġuncomfort able
rgy z
w ere
w age
er ra
Ġp ou
Ġm ile
Ġin sofar
ic it
ul ent
Ġun belie
Ġsu u
op ening
Ġse mi
os ity
Ġv isions
Ġbut t
ast y
lo se
Ġimport ing
ag g
Ġexp ressions
Ġyour selves
ern al
Ġro lling
Ġtake over
Ġbelie ving
Ġclear ing
Ġrespon sibly
lu de
Ġmed vedev
Ġsch mid
land er
Ġcre w
Ġshe ll
Ġdemocrat ization
Ġgentle man
Ġconsum ed
Ġproject ed
Ġtax i
Ġcreat ure
Ġlab els
Ġbar Ã³n
do ing
Ġexpl oration
Ġsci ences
Ġru in
off s
20 10
Ġimmig rant
Ġstress ing
Ġattack ing
Ġdoubt ful
Ġvol can
Ġcal end
Ġmig ratory
Ã© n
Ġcontract ual
Ġphys ic
Ġmeaning less
aw are
Ġbase ball
Ġproportion ate
Ġamaz ed
tra ck
Ġren t
Ġprem ise
Ġmatch ed
Ġprevail ed
wel come
Ġupd ating
Ġnav al
Ġprovid er
Ġindis crimin
aph ne
Ġneut rality
Ġange l
Ġgrass roots
Ġfron ts
Ã¨ s
Ġpollut ants
Ġug ly
Ġmcc reevy
bra zil
Ġresolute ly
Ġexhib ition
Ġoutrage ous
Ġuphe ld
Ġly n
Ġexagger ated
Ġniger ian
Ġferre ro
Ġinsect s
meas ures
Ġmultilingual ism
Ġmism an
Ġmilest one
Ġhorri ble
Ġcanad ian
Ġcondol ences
youn g
0 4
b one
g b
h es
h undred
k ward
n ato
z ero
Ġ Å¡
Ġs essions
Ġs idel
or ia
ar ctic
om es
Ġbe ating
se ction
se mit
ur t
Ġcon qu
Ġal liances
Ġal zheimer
ch ar
ir ts
Ġle ve
Ġle af
Ġch arm
Ġag ent
us ible
Ġk o
ak i
con sid
Ġshould ers
Ġpe er
ren e
Ġtr u
Ġdis orders
Ġman ual
Ġprop ortions
ag ues
ru le
Ġapp lause
Ġapp arat
Ġconc ur
Ġsp ark
Ġsp ont
Ġrem un
Ġconf use
Ġinter face
Ġinter cultural
Ġallow ance
Ġbl ank
Ġval ued
Ġ3 50
Ġpeace fully
Ġfundament als
Ġbar s
Ġpass ports
Ġcentral ised
Ġtext book
Ġpen et
Ġer o
Ġ201 4
Ġdesign ing
Ġexc luding
Ġland ed
Ġill usions
Ġjun cture
Ġexport er
Ġslow ing
any way
Ġenjo ys
Ġfulf ill
Ġpra y
Ġsold ier
Ġclean ing
Ġglad ly
Ġtro ika
Ġky rgyz
Ġwithdraw ing
Ġcompe lled
Ġpreced ed
Ġmexic an
dis c
Ġentrepreneur ial
Ġmagn ific
Ġwood s
Ġapolog ize
Ġgun s
Ġpul ling
Ġhoriz on
Ġbeat en
sch ool
conf lic
Ġflaw s
Ġpoc ket
rend t
Ġprolong ed
defin ed
wash ington
Ġescap ed
Ġuncond itional
Ġmerg ers
Ġindefin itely
Ġnab uc
actor ily
Ġassu mptions
Ġschr Ã¶der
Ġspont ane
1 7
e ight
f am
f ia
h or
i ri
i ance
s uff
s uccess
w ald
Ġ Â
Ġt ip
Ġw i
Ġw ing
Ġc ows
Ġp ave
Ġp light
Ġp nr
Ġf les
Ġf usion
Ġan ts
Ġan omal
Ġh ans
ro ed
Ġe pp
Ġe rect
Ġn ich
Ġn go
as k
st ad
Ġg ut
Ġu zbekistan
Ġst icking
Ġy ard
ate mal
qu al
Ġat oms
Ġby pass
Ġch imp
us a
Ġres on
ak a
Ġexp ed
Ġar sen
Ġfe at
Ġrec re
ors es
Ġcur iosity
Ġquestion ing
Ġdef ensive
Ġreal m
Ġemp owered
Ġachie vable
com b
Ġest e
eg al
Ġequ als
Ġbal ancing
Ġspecif y
Ġwrit ers
Ġexperi mental
Ġmis use
Ġsl im
Ġfri ed
Ġtarge ting
Ġhalf way
Ġdeep est
Ġweak est
Ġemploy er
Ġste ms
Ġlove ly
Ġhy per
Ġtravel ed
Ġsil ver
ev ident
Ġinh uman
Ġpublish ing
spe cific
Ġceleb rating
imp lement
Ġsubmit ting
Ġexceed s
Ġillust rated
Ġtunis ian
Ġmole cule
Ġbenefici ary
hard t
Ġscore board
Ġinterrupt ed
Ġfright ening
invest ment
Ġembarrass ing
Ġlap top
Ġindiff erent
Ġbargain ing
simp ly
Ġtig er
Ġaqu aculture
Ġlivelihood s
Ġcasual ties
Ġincumb ent
Ġlul ling
Ġcres po
Ġhygi ene
Ġpecul iar
Ġero sion
Ġnabuc co
b ish
b ach
d ist
d irect
f ishing
m oney
r in
t un
Ġth ick
Ġw ary
Ġw ound
Ġw ins
Ġm es
Ġm ol
Ġf lies
Ġin sure
Ġh en
Ġd ensity
Ġd aphne
ct ors
Ġg i
Ġwh ale
Ġde forestation
ch inese
im ity
Ġen qu
Ġen forcing
Ġch ech
ig ence
um s
Ġpl ate
au g
te enth
Ġte x
Ġover ly
Ġacc ounted
Ġcommun ists
Ġhapp ily
Ġgu er
Ġcar ing
Ġadop ts
Ġform ulation
Ġmod eration
Ġsch roed
Ġhand ful
uc ks
Ġequ ilibrium
Ġwhe at
Ġrev ising
Ġeas ing
Ġ5 4
Ġtri bes
Ġoper ator
Ġid i
Ġemphas ising
Ġant arctic
Ġobs essed
Ġurg es
Ġver ify
Ġconsult ing
Ġjun cker
Ġrat ings
Ġpress ed
lt ry
Ġindustrial ised
Ġcounter part
Ġlimit ation
any ahu
Ġdistribut e
Ġcharact ers
Ġhar ness
200 8
Ġadjust ed
Ġexec uted
Ġobserv atory
Ġcondemn s
Ġadvert ise
four th
keep ers
Ġadm iration
Ġglass es
Ġinterpre ters
Ġsong s
Ġmole cular
Ġpig s
Ġunderest imated
Ġcere als
Ġexacerb ated
po or
Ġdetain ees
Ġprud ent
Ġsenti ments
Ġleh ne
Ġkne es
Ġschol ars
particular ly
Ġprovin ces
Ġadjour ned
h en
en za
Ġc ord
it t
Ġp ound
es pecially
ing e
Ġd c
Ġl or
Ġas certain
gh dad
Ġun ple
Ġwill i
ain ted
Ġch airs
Ġimp lied
Ġbut ton
Ġrep atri
um ane
Ġreg en
Ġout er
Ġcomp lying
Ġind ign
Ġtrans mitted
Ġmat ure
Ġbas ket
Ġsit tings
Ġsi erra
Ġhapp ier
Ġgu atemal
Ġsc are
bal ance
hip s
Ġbefore hand
to ok
Ġdon ations
Ġorgan ism
Ġir rit
per form
Ġprogress ively
Ġ5 1
Ġgeneral s
Ġcare ers
Ġ4 9
Ġaw kward
fin anced
Ġtri bal
Ġvar iation
Ġmis con
Ġgre y
Ġhon oured
up s
Ġapplic ants
Ġassist ants
Ġsuper ior
sp ain
Ġport ion
Ġsatisf actorily
Ġcoll ateral
sec ure
Ġconstruct ively
Ġship building
Ġarr anged
Ġoccup ational
augh ters
Ġobser ving
fe ld
Ġinsist ence
Ġdisch ar
Ġfix ing
Ġuns afe
Ġincorpor ation
Ġmic ros
gu ided
Ġmultilateral ism
Ġchristian ity
Ġ196 7
Ġexecut ives
Ġflood ing
Ġevol ving
Ġembra ced
Ġdeterior ating
Ġabsor bed
Ġbail out
Ġstip ulated
Ġsacrif ices
Ġdrast ically
Ġdepos its
Ġdisse mination
quest ion
Ġembark ed
Ġattribut ed
Ġcigaret tes
Ġba ghdad
Ġproclaim ed
dri ven
ben ef
Ġreimb ur
Ġdecoup ling
Ġextin ction
Ġunpredict able
Ġundes irable
Ġpou ltry
wald ner
c ive
c od
m ain
v oc
Ġa y
Ġa vert
on ian
Ġw iped
is a
Ġc ave
Ġb its
Ġm ast
Ġf ake
Ġf ence
om y
ot ti
Ġal gor
ch air
mp ing
Ġsu its
op ian
ere r
un ting
est ion
Ġch er
Ġr anging
Ġhe lic
Ġno ble
Ġev idently
Ġinv iting
Ġover ha
Ġhad n
Ġsy ner
ight ing
Ġcl ou
Ġsub mission
xt y
Ġend uring
Ġgrow ers
Ġinter active
Ġcap tain
Ġdon ation
Ġlegisl ature
Ġrev ital
Ġspecific ations
Ġcred ential
Ġer ika
Ġgener ates
Ġfinal ised
Ġimpos es
Ġflo ating
Ġche ese
Ġ11 0
Ġmiss iles
Ġconcent rating
Ġsurv iv
Ġcustom er
Ġpred ic
Ġtransfer ring
rel ations
Ġbrazil ian
Ġtoler ated
Ġsurve ys
Ġagg ress
Ġlic ense
Ġregrett ably
Ġevalu ated
Ġendors es
Ġscrut in
Ġconfron ting
Ġcoup led
Ġnur se
Ġtic kets
Ġfright ened
Ġunres erved
fra me
Ġfloren ce
inf lation
bear ing
Ġinfin ite
Ġwors ening
beh rendt
farm ers
Ġprox imity
oft en
Ġcondu cive
Ġunlaw ful
Ġapparat us
stad t
Ġunple asant
Ġalgor ith
Ġhelic op
3 5
b c
b ow
g ia
i ating
j i
p overty
v il
w ord
Ġa mple
re ts
Ġs au
it ated
Ġf ract
Ġh ut
Ġn erve
Ġg if
Ġl od
Ġme th
Ġeuro bon
Ġsh ake
Ġsh ark
Ġsh ops
Ġle ver
Ġch rom
Ġch icago
Ġr ang
iv o
de cl
um i
Ġpe ter
Ġup coming
Ġexp ose
me xic
Ġdem ise
Ġper t
Ġinv entions
ative ly
Ġstr ang
Ġprov oc
Ġacc ent
Ġdes erved
wor se
Ġcol our
Ġmed iation
Ġmod er
Ġshe er
Ġadv ancing
Ġben e
em erg
Ġrev ival
Ġprogress ing
Ġlot tery
Ġed itor
Ġart istic
Ġmor ally
Ġspecial ised
Ġdev il
Ġjun ta
Ġscientific ally
Ġoccur rence
Ġproceed s
Ġunf ounded
Ġdict ate
Ġtele ph
Ġtouch es
Ġattract ing
Ġremark ably
Ġreven ge
Ġvari ations
Ġsearch ing
Ġrh y
Ġreveal ing
Ġperpet rated
bet t
Ġwed ding
Ġtemper atures
Ġdiss ent
Ġmit igate
Ġdisappear ance
Ġconven ience
Ġ194 5
conf idence
Ġalleged ly
Ġhypoc ritical
Ġexacerb ate
Ġvolat ile
fif th
Ġreb els
Ġath ens
Ġvolunte ers
Ġcorre lation
Ġmu lder
gener ally
Ġunch anged
Ġindiff erence
Ġsubscri be
Ġtum or
Ġobsc ure
Ġjack son
Ġsimpl istic
Ġresil ience
Ġancest ors
Ġshipy ards
Ġoverwhelm ingly
hundred s
Ġcredential s
2 7
d y
l en
l arge
m issions
s olid
u ay
Ġt anks
Ġa ster
Ġthe ss
Ġw ounded
Ġw reck
Ġc u
Ġc ad
Ġc ous
Ġf als
Ġf ond
al on
Ġh ired
Ġe ats
Ġn ass
Ġi p
Ġfor wards
Ġv ag
so ft
Ġcan ary
Ġpres umably
od ing
Ġres cu
Ġab u
Ġli ver
Ġpol io
Ġk er
ac cession
con st
Ġrep lies
ost on
Ġup grad
ts in
el tsin
Ġmar x
Ġpolic ing
Ġpropos ition
Ġrec ru
Ġlo ad
Ġho ok
Ġent rench
Ġdes ires
Ġgovernment al
Ġview point
Ġsc rap
Ġfore seen
Ġprin ted
Ġph ased
Ġbl unt
Ġcor bett
Ġrepresent ations
Ġfavour s
Ġ5 3
Ġfundamental ist
Ġpen ins
Ġty r
Ġ6 2
Ġcomprom ised
Ġer it
Ġident ities
Ġgra de
Ġconnect ing
Ġdel hi
Ġinflu enza
mar kets
Ġorganis ational
Ġsens es
any thing
Ġhor rific
Ġpath s
Ġinflation ary
200 3
Ġaccomp any
Ġstrength s
commun ist
Ġswe pt
Ġrational e
Ġcli ent
Ġdiscover ies
Ġpoet ry
Ġhes itation
Ġalger ian
Ġange la
Ġinspir ing
Ġadmitted ly
establish ed
fund ed
Ġdepl orable
Ġadh ered
Ġintr ins
Ġunw anted
exper ience
Ġelabor ate
Ġdol ph
Ġexplos ive
Ġtraffick ers
frank ly
sud den
Ġcalend ar
Ġmagnific ent
b ring
i pping
j er
l ab
s af
s ustainable
t ically
Ã £
Ġ ?
Ġth irds
is ive
er get
Ġc ute
it ate
an gh
Ġb ange
Ġb oston
Ġm d
Ġto ile
es ter
es ters
Ġin ert
al us
Ġh orses
Ġd aughters
ro cal
Ġre jo
st ates
Ġg b
ut rition
ur ation
Ġst a
ke ys
Ġne at
Ġse af
Ġv ivid
Ġle e
Ġle is
Ġag ed
Ġres umption
ll o
ous ed
oc ally
ens en
ach ed
Ġunder took
Ġsp heres
Ġind o
Ġmat ches
Ġgu ards
Ġenv oy
ne eded
Ġprin ting
Ġsmall est
Ġ5 9
Ġbuild s
Ġ4 50
Ġsuff ice
Ġtri ps
ident ally
Ġmis guided
Ġsl ave
Ġturn over
Ġnet anyahu
Ġface book
Ġbroad band
Ġbi ometric
hold er
Ġjun ior
Ġmist rust
Ġsal mon
Ġvir uses
Ġsepar at
parliament ary
Ġqual ify
Ġspeed ing
Ġsil k
Ġreact or
Ġinh umane
Ġhost ility
Ġacqu iring
Ġprotocol s
Ġfulfil ment
Ġos set
Ġphilosoph er
Ġtort ured
Ġdro ve
Ġindones ian
Ġremed ies
Ġdevast ated
Ġeuros cept
Ġholid ays
Ġexerc ising
Ġsli p
Ġfloren z
Ġintimid ation
Ġleon ardo
Ġnie lson
Ġlooph oles
Ġscri pt
Ġimpover ished
Ġmisunderstand ings
Ã´ te
Ġsyner g
Ġclou ds
Ġthess alon
Ġbange mann
a cies
d ate
d iv
d ac
d ollar
e gypt
h arm
i qu
l is
m ass
n n
p ract
s mes
s orry
w oman
Ġt ent
Ġth umb
Ġa the
Ġa ung
in os
Ġw ings
Ġo st
Ġb og
Ġh ire
Ġd ots
Ġre ar
Ġre pet
Ġl ula
ment ed
Ġpro ver
ol ine
ra ms
ch ris
Ġnot withstanding
ad minist
Ġsh arks
Ġse al
Ġen erget
Ġwor sen
Ġch at
Ġall otted
Ġimp l
Ġj an
Ġj ul
Ġcont ing
oc racy
Ġra m
Ġfe ver
Ġdevelop s
Ġtrans cend
cept ive
Ġdra ma
Ġmod ulation
Ġap pet
Ġes dp
Ġstar vation
Ġ4 1
Ġhead way
Ġsou theast
Ġtrad ers
Ġlang en
Ġhold ers
Ġrom antic
Ġfle w
sh ore
Ġpolice man
Ġmer ger
Ġpenal ised
Ġround s
Ġspread s
Ġcompens atory
Ġturk men
Ġquant um
Ġincom pet
spe cif
Ġvari able
Ġmoun ting
Ġpsych iat
Ġnar rative
Ġscen es
Ġpredict ions
produ cing
Ġtimet ables
Ġchain s
Ġgri p
Ġmoroc can
Ġcli p
Ġunp opular
exist ent
Ġcommend able
Ġmemor and
Ġshif ts
Ġroc ard
Ġnic olas
trans p
Ġfan at
Ġpopul ism
Ġmathemat ical
Ġwhol es
Ġenrich ment
Ġarmen ian
negoti ations
Ġtab oo
Ġscept ical
Ġinterdepend ence
brit ish
Ġnom ination
Ġanch or
ĠrÃ¼ big
Ġchan ne
Ġlicens ing
need less
Ġcine ma
Ġank ara
swed en
ivo ire
Ġleis ure
' '
b ers
i raq
k land
o is
q aeda
t our
v als
w ords
in ate
en a
al ready
ic ating
Ġand erson
Ġn est
Ġre lied
ur able
Ġst ored
Ġde lic
Ġun fore
Ġun even
Ġsh out
Ġsh ower
Ġsh ield
Ġex ile
un ted
we igh
Ġle one
Ġch ess
Ġr ally
Ġres ur
Ġres igned
ll es
Ġcomp atibility
Ġup ward
iz oph
ack s
Ġper se
Ġbo ast
igh ters
Ġstr anger
Ġacc use
Ġdisc ard
Ġla x
Ġfut ures
Ġma fia
Ġcar te
be ll
ital y
Ġsch izoph
Ġdep leted
Ġ5 7
Ġ5 8
Ġansw ering
Ġconst rained
of i
ec k
Ġbel t
Ġhead ings
Ġcoordin ators
off icial
Ġgree ks
Ġsuper market
Ġste er
Ġdocument ation
Ġsal v
Ġmal m
ma j
Ġcompreh ensible
Ġalloc ating
Ġsil ic
Ġsil ly
Ġprovision al
200 5
sc ar
Ġfeed s
Ġpet rol
right s
Ġfraud ulent
Ġstrugg les
cons cious
Ġvolunt arily
spe cial
Ġcatch ing
Ġball oon
Ġsupplement ed
Ġinterven ing
Ġconstitu ent
Ġrelie ved
Ġanaly sts
Ġscar city
Ġkar as
Ġdiscrimin ated
Ġconven ient
br ussels
Ġbow is
Ġfeas ibility
Ġstip ulates
Ġaccum ulation
Ġchick ens
Ġcul p
Ġsympt om
Ġmi xt
Ġpredecess ors
Ġcancell ed
Ġintermedi ate
Ġdisgrace ful
Ġeg f
Ġhect ares
Ġcertific ates
Ġinflic ted
Ġdrafts man
Ġclust er
Ġzeal and
repres ent
prin ts
Ġincin eration
Ġfluct uations
Ġcircu it
Ġcurric ulum
Ġlor ries
Ġeurobon ds
Ġaster oid
Ġschizoph ren
d est
f elt
h ed
m il
n ings
o ch
p id
z es
Ġt b
Ġt atoeba
in en
in ity
Ġthe r
Ġc Ã´te
Ġp our
Ġp ile
or ient
Ġf ats
ent er
th row
Ġg ore
Ġl om
Ġl ately
ot a
Ġst an
Ġal ign
ra ising
ch anging
Ġeuro dac
un employment
Ġle thal
mb ling
Ġimp at
Ġinc idence
og ene
ial s
Ġbo ards
Ġprot esters
Ġtur ks
Ġback drop
Ġsc rat
Ġbu ck
Ġpresent ly
Ġinf ant
Ġbus es
Ġcre am
Ġdep ort
Ġcost a
av al
Ġrese tt
Ġpract ise
Ġconstit utions
Ġlib r
Ġart ic
Ġmonth ly
when ever
Ġchar ging
Ġtrad ed
Ġcapital s
some body
inde pend
Ġlow ered
Ġcru cially
Ġver ge
sh ort
Ġkill s
Ġpoll en
Ġmer ch
Ġclar ifying
Ġconcent rations
Ġcharacter ized
Ġjour neys
Ġcra ft
Ġsus cept
aught ered
Ġpun ct
Ġbon ino
Ġsto res
Ġcard iff
Ġintellectual s
Ġsyn d
amb ique
see ing
russi an
Ġcrow ded
Ġdetect ed
Ġfrust rated
Ġprivat ization
Ġprescri bed
Ġmich ael
Ġdossi ers
Ġtechni que
Ġvers a
Ġspecul ators
Ġdecentral ised
Ġdimin ished
Ġmainstream ing
Ġmassac res
Ġunequiv ocally
Ġenact ed
Ġconfidential ity
Ġanalog y
Ġinher ited
Ġexpon ential
commer ce
Ġmelt down
Ġpercept ions
best os
Ġaus p
Ġpromp ted
Ġobli ge
Ġmaln utrition
mexic o
angh ai
Ġthessalon iki
d led
h of
l iness
l angu
o pp
p oints
s r
u er
z io
Ġt ire
in qu
in novation
Ġs ul
Ġs ie
Ġc un
an ke
Ġb ind
Ġm itch
Ġto wer
Ġf u
ro b
Ġand ers
th ousand
Ġn ag
Ġn pt
Ġre ign
Ġre agan
as i
st ed
st art
st ick
Ġg and
Ġg ig
Ġg ros
Ġfor a
se y
ver sion
Ġy eltsin
ra pe
Ġas bestos
Ġun controlled
ci vil
if iably
Ġle ct
Ġwas ting
Ġqu a
Ġtr an
Ġmy anmar
Ġdis g
Ġout weigh
Ġco erc
me al
Ġsa il
Ġpre amble
ens itive
Ġtra cks
Ġdiff ers
Ġdisc ourse
Ġla ud
Ġend anger
Ġown er
Ġher man
Ġcar pet
Ġmaj orities
ph eric
Ġins ert
Ġir ony
Ġdist rust
Ġ5 6
Ġlib yan
Ġbar rot
Ġcong estion
Ġdecl aring
Ġsl aughtered
Ġgener osity
Ġdesign s
Ġdesign er
ck x
Ġwrong ly
omet ime
Ġtest im
Ġgreen land
Ġcohes ive
Ġcomput ing
Ġcontent ious
Ġstay s
Ġsen egal
Ġcha otic
Ġdeleg ated
anu kov
Ġ198 6
Ġfil es
Ġfacilit ation
Ġlabor atories
cont ract
Ġconver ted
Ġincorpor ating
sk i
Ġconce ived
Ġapart ment
Ġlabe lled
Ġseat tle
Ġreass uring
Ġneighbor ing
Ġgri ps
Ġminim ise
Ġcolon ies
Ġacquis ition
isra eli
Ġdiver gence
Ġjump ed
Ġincon ce
Ġgest ures
Ġelig ibility
Ġdatab ases
Ġshoot ing
Ġdesert ification
compet ition
Ġster ckx
viol ent
Ġstret ch
Ġpron ounce
Ġflee ing
Ġcertific ate
Ġeld r
abet es
lit tle
Ġorph an
Ġkyrgyz stan
Ġchech en
solid arity
Ġpenins ula
sudden ly
specif ically
Ġmemorand um
9 6
d ig
e ec
f ly
f air
h ur
n ik
p ie
p arents
z Ã¡
Ġ vel
re lig
Ġw ounds
Ġs ore
Ġc um
Ġp icking
Ġb ust
Ġf on
Ġf ta
Ġin secure
ar ter
Ġd ot
Ġd ys
Ġthat cher
il er
Ġg au
Ġg oll
Ġu cl
pe ter
gh ter
ate red
Ġun int
Ġun regulated
Ġun aware
ad ers
Ġsh it
Ġsh am
li ever
est a
Ġimp ul
Ġk abul
um a
ament s
lo vak
Ġpl ug
Ġcomp aring
Ġco el
el a
Ġev ans
Ġtra cking
Ġsupport er
ind ivid
Ġper il
Ġover sh
Ġtw itter
there d
Ġtrans mit
Ġfact ual
lu ck
Ġdes cend
Ġsm arter
Ġdra gged
ne z
ne ath
Ġimpro v
Ġmod ify
Ġlegisl ator
Ġph ases
Ġsupp ression
Ġret ired
Ġaccess ibility
Ġcomb ust
Ġbur undi
Ġer r
Ġdoub ling
Ġant agon
Ġliberal ism
Ġ7 7
app lause
Ġground water
Ġdel ors
Ġill icit
Ġkill ings
Ġcal culate
Ġwal es
Ġrepublic ans
Ġheart felt
Ġunivers ally
Ġcontract ing
Ġbat tles
Ġpet ro
Ġfederal ist
Ġuncertain ties
inc luding
Ġsole mn
her zegovina
Ġren ational
imp ort
Ġvide os
Ġconstitu encies
Ġforum s
Ġtibet ans
Ġillust ration
Ġded ication
Ġdepri ve
ÃŃ a
Ġabsor ption
Ġhabit at
Ġukrain ians
Ġreaffirm ed
tal k
Ġsecre ts
Ġshr inking
Ġinex p
polit icians
Ġped est
Ġdies el
Ġcorrid or
Ġdiscred ited
Ġblat ant
Ġstro ke
Ġjos Ã©
Ġhumili ating
Ġhamm er
Ġboycot t
Ġbh ut
Ġlandf ill
Ġmisman agement
Ġsurviv ors
Ġpert inent
Ġucl af
Ġcoel ho
3 00
c r
l eration
m d
p ed
w atch
Ġt ant
Ġs ars
Ġs ons
an ol
Ġb ite
Ġf iring
Ġf illing
Ġin action
al ous
om ach
il ings
ut ory
Ġst omach
ol iberal
Ġcon cession
Ġnot ions
pp ro
ant i
Ġdo yle
Ġch est
Ġcoun sel
Ġj et
Ġj ose
Ġk au
Ġam ounting
Ġreg rets
Ġri ots
Ġprop h
Ġjust ifies
Ġunder go
ĠâĢ Ķ
Ġdem agog
Ġeff ic
Ġlo oming
Ġro pe
Ġcommun aut
Ġdisc ourage
Ġcur ve
Ġass ad
Ġsm ok
wor th
Ġglobal ized
Ġrul ings
icult ural
Ġsur pass
Ġinst ant
Ġfree zing
arm ed
Ġaw ak
Ġsw allow
by e
co al
Ġce ilings
sid ers
Ġhold ings
Ġobjective ly
Ġgra ce
Ġmult if
ps y
pr ice
Ġ9 6
Ġweak ens
bo x
Ġdi abetes
Ġcircum vent
Ġpoll uted
pol and
Ġforget ting
Ġ% ,
Ġmut ilation
Ġbuy ers
Ġwind s
Ġ198 5
Ġ198 7
Ġlog istics
Ġlay ers
Ġcompar isons
Ġelement ary
Ġvast ly
Ġ197 9
Ġblock ade
Ġprem ises
Ġstabil ize
Ġwars aw
Ġos lo
Ġflow ing
Ġalban ians
Ġborrow ed
Ġrecip rocal
Ġdump ed
Ġkn ock
eff ect
Ġdiagn osed
Ġquiet ly
Ġartific ially
sa ving
Ġdivers ify
Ġtast es
nis ch
Ġcere mony
Ġplain ly
fif thly
Ġcart oon
Ġmortg ages
Ġtiss ues
writ ten
Ġbench mark
Ġabund ant
Ġdegrad ation
Ġfue led
Ġacced e
Ġvib rant
Ġbarbar ic
ae a
Ġdiscrep ancies
Ġsemin ar
Ġasp ire
Ġpredomin antly
opoul os
Ġpla usible
Ġepis ode
cred it
Ġchrom os
Ã£ o
Ġosset ia
Ġsynerg ies
Ġgoll nisch
Ġcommunaut aire
b ill
b ad
b ud
b ush
e mpt
h on
i racy
l ar
l anges
s al
u it
Ġs ed
Ġs aint
it ted
Ġp lo
Ġm ck
Ġf est
Ġf ern
Ġf uk
Ġin aug
Ġn in
Ġi aea
Ġwh ales
Ġst arch
Ġal as
the m
Ġne p
Ġme g
Ġun in
Ġun ites
Ġsh ia
Ġsh irt
os er
Ġv on
Ġle ak
Ġor bit
Ġad minister
ish ment
si ze
lo g
Ġout lines
Ġwork sh
Ġpre y
Ġpos session
he m
pt ions
Ġra ppro
Ġunder neath
Ġsp ar
Ġsp ider
Ġrec ast
tain e
ste ps
ful ness
Ġcommun al
Ġlong est
Ġconf isc
Ġmon key
man agement
Ġend ured
Ġcar go
olog ne
bal ancing
Ġwar fare
Ġph asing
Ġplan es
Ġinst alled
cu mb
Ġstar ing
Ġret ro
Ġeduc ate
Ġthird ly
Ġoper ated
old s
Ġforce fully
Ġstat utory
sid ents
Ġaccord ed
Ġdial og
Ġagend as
Ġconte xts
Ġ9 2
Ġmus cles
Ġrap ed
Ġcle ans
Ġkore ans
set ting
Ġhor n
Ġguidel ine
200 7
Ġinh ib
Ġdetermin es
Ġcommunic ated
Ġresist ed
Ġoption al
Ġgrand children
Ġboy friend
Ġincom ing
Ġdisappe aring
Ġisol ate
tra ff
Ġfit ting
regard less
Ġinfect ions
Ġmobil ised
Ġsympath etic
Ġexceed ing
Ġadm is
nat ural
che ment
Ġsev ille
Ġstor ms
Ġhabit ats
Ġrand zio
Ġmanip ulate
mans hip
Ġreward ed
Ġreloc ations
Ġimmense ly
Ġpostpon ing
Ġreluct ance
Ġexerc ises
Ġvigil ance
Ġshel f
Ġpregn ancy
Ġinterconnect ed
Ġshr ink
Ġclash es
Ġpremium s
Ġcrush ed
Ġlin ear
Ġpriorit ise
Ġsacrific ed
Ġteles cope
Ġdiscl osure
Ġbour langes
Ġcarc in
Ġtex as
Ġrhy th
Ġturkmen istan
Ġmalm strÃ¶m
Ġlom Ã©
Ġinconce ivable
individ ual
Ġrappro chement
9 0
a pe
c ore
c asters
i ority
k ers
m ult
s cience
t ling
w ed
Ġt ay
Ġa pt
in able
Ġw yn
Ġc ort
Ġc ust
Ġo vere
it en
it ar
Ġp v
Ġb ert
Ġm ount
ed usa
ar ms
Ġg ord
Ġu c
se a
id ers
Ġha ut
ch em
Ġnot ing
Ġne oliberal
Ġsh ining
Ġpres upp
am o
Ġab kh
Ġli abilities
ig ated
um ble
Ġout s
Ġfin ishing
Ġinc ar
Ġimport ers
Ġconc ise
Ġunder water
Ġob ey
Ġrec ap
Ġrec alled
Ġper v
Ġper verse
igh th
Ġsub t
Ġsub ur
Ġprov oke
Ġmin ist
ft a
Ġinf lex
Ġorgan iz
Ġelect ro
Ġsur prises
Ġfav oured
Ġfollow ers
Ġins ignificant
Ġstud io
Ġsupp ress
Ġtri be
Ġtri angle
Ġhard ware
Ġvar ieties
Ġprevent ative
Ġsou p
Ġmot ors
Ġ6 6
Ġopt imum
Ġgra din
Ġassist ed
Ġdom ination
Ġobs ession
Ġliberal ised
Ġliberal ising
Ġ7 2
Ġ7 8
Ġver tical
Ġterm ed
Ġmechan ical
bo y
Ġste ep
Ġjun gle
ses sions
Ġmal t
Ġbul l
Ġdistribut ing
Ġhar ms
put in
Ġhost ages
Ġprefer ably
Ġgradu ated
Ġdisapp oint
Ġresist ant
cont rary
Ġsqu and
Ġwash ing
Ġtransl ations
Ġdisagree ments
Ġtit ley
Ġaccur acy
Ġcalcul ating
Ġinterf ering
Ġinqu iries
Ġaspir ation
Ġlithu an
Ã¤ n
cut ting
Ġmarri ages
Ġstal em
Ġoutbreak s
Ġescal ating
Ġdimin ish
Ġdrought s
writ e
Ġble w
Ġmyster ious
Ġdiam ond
inform ed
dec ision
Ġloyal ty
Ġlou der
Ġrect ify
norm al
Ġsymmet ry
Ġtan z
lat in
Ġsamp les
Ġkor an
Ġmoz ambique
commit te
Ġpiv otal
Ġathlet es
Ġunreserved ly
sted t
Ġeffic acy
Ġabkh az
c re
j an
n umber
r ise
s ay
t ube
Ã ¸
Ġt ube
re yer
at ar
Ġc ologne
Ġo ost
it ary
Ġp ow
Ġp ink
or ig
Ġto pp
Ġf ounder
Ġin acc
Ġre open
st ated
st ones
ct ory
Ġal ph
ke ley
Ġne ck
Ġsh anghai
Ġse am
li x
Ġgo ds
Ġso aring
rom ania
Ġj ong
ak y
Ġdis connect
ack ed
Ġsp at
ric ts
Ġpolit ic
Ġover throw
Ġsub tle
Ġdisc ern
Ġcontin ual
Ġbr on
Ġsc ales
Ġbu iten
Ġcommon ly
Ġcol leg
Ġsuc cumb
Ġsch reyer
Ġdep ressing
Ġkind ness
ros pect
Ġimm oral
Ġrev is
Ġsupp lier
Ġsupp lements
Ġopp ressed
Ġhard ship
pl ath
ov sky
co hes
Ġexc itement
Ġrefer ral
Ġbroad en
Ġdeter rent
Ġemploy ing
Ġhun t
Ġste am
Ġvol umes
ator ial
gen eration
Ġextra ction
Ġrepublic s
Ġspir its
Ġcounter act
Ġsad ness
Ġconcept ion
Ġ198 8
Ġfoot print
Ġblo kland
Ġda ul
Ġbon n
comp an
Ġoptim al
Ġsho res
Ġprem ier
Ġceleb ration
Ġstabil ise
Ġprosec uted
Ġphilosoph ical
eth nic
Ġwise ly
deb t
Ġdecre asing
Ġplat forms
Ġboom ing
col le
Ġdur able
Ġsuspic ious
Ġange les
Ġprescri ption
Ġspot light
Ġnur ses
Ã¨ re
Ġcul min
Ġdefinitive ly
met ics
Ġroth ley
ĠbÃ¶ sch
health y
Ġsummar ise
Ġsurge on
Ġmineral s
Ġinher it
Ġcontempl ate
Ġinval uable
Ġembass y
pos itive
Ġcomplac ency
Ġfurn iture
Ġji had
Ġunden iable
Ġacadem ics
Ġremun eration
qual ified
Ġbene ath
Ġresett lement
Ġsynd rome
thousand s
Ġhaut ala
Ġoost lander
cohes ion
0 1
2 2
c rit
f inding
m ut
s it
t im
Å Ł
Ġt ended
Ġa fore
Ġthe at
Ġthe rape
Ġw oke
it ania
Ġp oured
an ing
Ġm ant
Ġm ock
Ġf ired
Ġin ch
Ġan atom
ed oph
Ġd un
ro gen
Ġre vel
Ġg ill
Ġfor ged
Ġst umb
Ġde letion
Ġun used
Ġun wise
Ġun sc
Ġsh ri
ant o
Ġdo se
Ġch art
Ġimp asse
Ġj es
ie v
du mping
Ġman ages
ag a
Ġco x
me l
Ġmar g
Ġra y
Ġfact ions
Ġoff shore
read ing
Ġfar c
art ney
Ġemp athy
Ġass ign
Ġtal ents
Ġke l
Ġsign atories
Ġap ar
par able
Ġrev ived
Ġdist ricts
Ġsw ing
Ġpat ch
Ġappe ase
ining rad
Ġlive ly
Ġcho oses
Ġquick er
Ġpost ed
Ġpost ing
Ġver hof
sp ring
Ġmus ical
Ġec ology
Ġexch anged
Ġport ra
rupt ion
Ġinflu ences
Ġaud iting
ex change
Ġsan itation
head s
Ġsucceed s
Ġrecord ing
Ġbul let
Ġalloc ations
sy ste
Ġstra w
Ġber Ã¨s
Ġhom ophob
Ġep ic
Ġbon uses
Ġimplic ation
Ġproportion al
bu ilt
Ġcult urally
inc identally
Ġbomb ings
Ġendorse ment
Ġfort ress
Ġarchitect ural
Ġhol lywood
Ġprag mat
Ġdiscover ing
Ġwild life
Ġtrave llers
Ġdispar ity
Ġcos metics
isen berg
Ġrub ber
Ġinherent ly
199 9
Ġabund ance
Ġcancell ation
Ġscept icism
Ġcompris es
Ġluc as
Ġbeha ving
Ġsimpl est
Ġmilitar isation
Ġow es
Ġlamp edusa
Ġsweep ing
Ġmunicip al
ogen ic
Ġelectron ics
Ġrend ered
Ġsculpt ure
Ġstub born
Ġpengu ins
Ġunbelie vable
conflic t
Ġfles h
Ġreimbur sement
Ġnass auer
Ġprover b
Ġmitch ell
Ġminist ries
Ġmalt ese
Ġstalem ate
Ġafore mentioned
Ġverhof stadt
b ot
l ater
p y
s an
t own
y rom
Ġ Î
Ġthe or
Ġthe ato
Ġs ometime
Ġc ree
Ġp on
Ġp ause
Ġp ale
an ch
Ġb ou
Ġf reed
Ġh eral
Ġh ollow
ro ach
Ġn urs
Ġre liance
Ġis tan
st ri
Ġl es
se ven
id a
Ġpro min
Ġal mun
Ġas ians
ill on
Ġyou tube
Ġme als
oun cing
ad o
Ġcomm ence
Ġcomm ens
Ġse gment
os h
Ġle ts
Ġch ip
Ġimp ede
Ġj o
Ġres ident
Ġli ar
Ġk ofi
Ġam id
con g
Ġcount ed
lo aded
Ġdis sidents
Ġout going
Ġman uel
Ġcons ci
el f
ric ted
ub a
Ġgovern ors
ath an
Ġhum iliation
Ġmon keys
Ġfar ther
Ġreal isation
Ġma ize
Ġpublic ity
Ġtransp ose
Ġlaw making
Ġorgan izing
Ġ20 30
ph ur
Ġph y
Ġfail ings
Ġlim b
Ġru g
Ġru ined
Ġhead line
co ordin
Ġmid night
Ġmot ive
Ġ6 8
ush ima
Ġ8 6
ade my
sh ed
Ġcy ber
Ġste al
Ġremember ing
Ġconsult ative
Ġdocument ed
Ġwal let
Ġslow ed
Ġdr ill
Ġdelay ing
Ġcha ired
Ġuseful ness
Ġhor rif
Ġeval uations
Ġwall is
Ġcustom ary
Ġpra ised
Ġfacilit ated
Ġdict ates
comp ared
Ġretain s
ari ably
Ġceleb rations
Ġpref ers
Ġinterven ed
produ ction
Ġclin ic
add ed
Ġinterpre ting
Ġlaugh ed
Ġsatell ites
Ġcow ard
Ġrush ed
Ġcarri er
Ġske let
cor rect
hr an
Ġcoc oa
iped ia
Ġparent al
Ġintu itive
Ġwire less
Ġdu isenberg
Ġpotato es
Ġresemb les
Ġolig arch
Ġsever ity
Ġhege mony
Ġmiser able
Ġmixt ure
Ġlibr aries
Ġtant amount
Ġwyn n
colle agues
Ġtherape ut
Ġistan bul
Ġalmun ia
9 8
d f
f ashion
h un
i ol
i ke
k op
p ric
p akistan
s is
w art
y p
y ard
Ä ĥ
Ġt ick
Ġt ighter
Ġs izes
Ġo mission
it ating
Ġp ic
or um
Ġf lip
ed ia
Ġh ond
ing er
Ġd Ã¼
ro es
Ġe h
Ġe ighth
ct or
Ġg il
Ġg ru
Ġg ps
Ġl ent
Ġl aps
Ġl ump
pe c
Ġst icks
ol ar
Ġde lu
Ġun con
ter min
pp y
ci an
Ġcan cel
Ġr on
od ork
Ġimp ot
iv ities
Ġj on
Ġhe mis
Ġcount y
Ġdis may
Ġdis cont
Ġcomp lies
Ġcomp ounds
Ġunder gone
Ġcl out
Ġprov ocation
Ġmade ira
Ġla mb
Ġla zy
Ġfut ile
Ġsc ores
Ġaff lic
Ġmain land
Ġchild care
work ers
Ġear ning
Ġwrit es
Ġfam ously
fin ance
Ġca res
Ġcivil izations
Ġintrodu ctory
af ghan
Ġsustain ing
emp loy
Ġaccord s
Ġ6 4
Ġlight ly
Ġpa edoph
Ġinnov ate
Ġliberal ise
Ġdest ined
Ġmet res
Ġ9 00
Ġdam n
Ġdisp uted
Ġaut o
Ġnear by
Ġdim as
Ġvo y
Ġgas oline
val ued
Ġmer cy
Ġhy brid
Ġpenal ise
Ġspeed s
Ġbudge ting
Ġappeal ed
Ġdog ma
Ġbot tles
aw i
Ġtoler ant
Ġretain ing
Ġgeograph ically
Ġfavor able
Ġpreced ing
Ġprosec ute
Ġtit an
Ġtight ened
Ġcroat ian
Ġdiscip linary
Ġpersist ence
Ġearthqu akes
sm oking
Ġrecover ing
Ġcoup les
terror ist
Ġfan atic
Ġdivid es
Ġdisrupt ion
Ġpollut ing
Ġdish on
Ġdecentral isation
hr kop
Ġdimin ishing
eas tern
afric an
Ġinterconnect ion
Ġdisin tegration
Ġcompris ing
Ġarrog ance
Ġenlight ened
product s
Ġembod ied
hel p
Ġfert ility
Ġmarsh all
Ġlone ly
Ġprototy pe
Ġoverha ul
decl ared
Ġerit rea
Ġrepet ition
Ġappet ite
Ġsilic on
Ġausp ices
Ġdisg ust
Ġfon taine
Ġgord on
committe e
Ġcommens urate
ĠdÃ¼ hrkop
2 1
a ise
b lo
b age
c z
c ÃŃa
f a
f ed
g age
h im
l v
n ist
p ra
p ress
r us
Ġw atered
er ated
er ting
Ġs ne
Ġc ric
an ze
Ġm asters
Ġin ward
Ġin gen
Ġan throp
le ave
Ġn ost
Ġbe liever
st ock
Ġg am
Ġl ange
ot age
id able
Ġy anukov
Ġun balanced
op l
Ġex pelled
un ished
we ar
Ġwor n
Ġch ron
Ġr ings
Ġr uth
Ġor b
Ġam ate
ard er
ast ically
Ġno is
for th
du ly
Ġtim id
Ġup rising
ice f
el ess
Ġdem ol
Ġsp o
Ġinv ariably
Ġpartic le
ful l
Ġsub stitution
Ġrel ent
Ġgen ital
Ġsit s
Ġback bone
Ġinter reg
Ġsc ant
Ġcol ony
Ġprincip ally
Ġav ian
Ġcor ps
oura bly
Ġconsum ing
Ġproject ions
Ġsing er
Ġlib eria
Ġactiv ist
Ġregul ator
Ġfl ames
Ġcivil ized
Ġtransport ing
Ġhome less
Ġturn out
Ġstat ic
Ġlack ed
Ġ6 3
Ġ9 8
Ġgl aring
Ġemerg encies
Ġaud its
Ġcritic ize
Ġcal am
head ed
Ġsupply ing
Ġexer ted
Ġcomment ators
Ġunf av
Ġexcess es
Ġexec utions
Ġcateg orically
Ġuns uccess
gra du
Ġblood shed
Ġang lo
Ġx ia
Ġfaith ful
Ġsho e
Ġvig o
Ġstabil ising
sub sid
Ġrain fall
Ġcamer on
Ġreass ured
Ġenvis ages
ham as
Ġcommand er
Ġdevast ation
Ġunp unished
Ġox ford
Ġlend ers
Ġfant asy
Ġbrok er
Ġmanifest ation
Ġblow ing
Ġaccum ulate
Ġtact ical
Ġbath ing
Ġseason al
Ġ195 6
Ġrecital s
Ġvolunte er
Ġforb id
Ġembry onic
Ġhomosexual s
Ġkick ed
Ġhypo thesis
Ġhorm ones
Ġkal iningrad
Ġmaur itania
agric ulture
Ġanonym ous
Ġsupervis or
Ġhamp er
Ġstereoty pes
Ġchimp anze
Ġindign ation
benef it
Ġentrench ed
tour ism
Ġdelic ious
langu age
Ġanders son
Ġmck enna
Ġabkhaz ia
9 7
? âĢĿ
g iving
g reg
h ung
h ouses
j im
l ocal
m art
m ob
m iss
m aker
Ġt at
Ġt ann
Ġt orn
Ġa in
re ally
Ġw w
Ġw ra
Ġw ij
is se
Ġc ater
Ġc ush
Ġo re
Ġp c
Ġp owered
Ġm ate
Ġm all
es ome
es co
Ġf rict
Ġd ancing
Ġd uma
Ġn ail
as ian
Ġha arder
ol ation
ra is
ir teen
Ġsh ine
Ġpar ity
Ġv ic
Ġk m
Ġint rig
ans w
Ġac ademy
Ġtr ucks
lo ve
Ġpl ut
Ġcomp ound
ag ua
Ġexp edi
Ġapp end
ink ed
Ġar ist
Ġsp an
mm ed
Ġrespon s
Ġdisc ount
Ġreal izing
Ġatt raction
ty pe
Ġinter rog
Ġrul er
Ġbl ur
Ġpur se
Ġviol ates
Ġforce ful
Ġsl ice
Ġsl ides
Ġcred itor
Ġadminist ered
Ġid le
az e
Ġge omet
Ġve in
Ġsubsid ised
Ġstrateg ically
Ġmechan ics
Ġcross roads
Ġste aling
Ġsound ed
Ġsatisf ying
ex port
Ġrat ios
verse ly
Ġindustrial ized
Ġdead ly
Ġsucceed ing
Ġconsist ing
Ġappreci ates
Ġkid ding
Ġstandard ised
Ġauthor ising
Ġauthor ized
Ġfil ter
ene i
Ġcompens ated
Ġtransparent ly
Ġcommunic ating
Ġbot t
Ġcomplic ations
Ġafford ed
Ġvirt ues
Ġengine ered
Ġbon us
part ite
Ġarm ies
Ġreconcil ed
Ġmagn et
ham enei
Ġregister s
Ġkar l
Ġintensive ly
Ġkh odork
Ġpled ges
Ġfasc ism
Ġbail outs
Ġbes ide
Ġaccum ulated
Ġuphold ing
Ġprosecut ors
Ġaccommod ation
fund ament
Ġcruel ty
Ġadvent ure
Ġbench marks
Ġwond ers
Ġprec ision
Ġskept ical
reb ren
along side
Ġpessim istic
Ġbless ing
Ġhorm one
Ġdiscrep ancy
Ġnas a
diff erent
Ġsle pt
Ġgon zÃ¡
fail ure
Ġturbul ence
design ate
Ġcataly st
Ġdepreci ation
Ã©n dez
ĠÅ¡ pid
Ġmicros cope
Ġinert ia
Ġunfore seen
Ġculp rit
Ġlaud able
Ġcombust ion
Ġdialog ues
Ġtann ock
ĠÅ¡pid la
0 5
7 5
a ic
e ve
e val
f led
h ot
p ared
s erb
u x
v io
y o
Ġt ense
re ls
Ġc d
Ġp ier
Ġm und
Ġto mat
ou ch
Ġh ugh
ro ll
Ġre negoti
Ġg att
pe z
the id
ul ously
Ġeu ph
res ist
Ġnot ified
Ġnot orious
mp uy
Ġun imag
ad op
ge ts
Ġsh aking
Ġv il
est ically
Ġso ya
Ġimp ending
Ġj av
Ġab duct
ig ating
Ġrep aired
ost ic
Ġtheir s
Ġqu ad
vel ope
Ġtr icks
lo qu
Ġev ade
Ġsp ouses
Ġmad ness
Ġro mpuy
Ġcl ing
Ġtw ist
Ġappro ves
Ġprot racted
min es
Ġma at
Ġatt ribute
Ġdes c
Ġgu est
Ġtal ented
iron ically
Ġcommon s
Ġform idable
Ġstand still
Ġfra med
Ġph ant
Ġelect rom
iti as
Ġben ign
Ġpract ition
Ġpo ised
Ġestablish ments
Ġbusiness men
Ġtri ple
Ġviol ating
Ġfl or
Ġexpl ored
Ġexpl oring
Ġmor gan
ec ks
Ġdet ract
Ġz ap
Ġ6 7
Ġident ifies
Ġexc uses
Ġ8 2
Ġinflu encing
soci ety
Ġhun garians
Ġcrimin ality
Ġsimilar ities
Ġpersonal ities
Ġwal ks
Ġremind ing
ber y
Ġcop ies
Ġmeasure ment
Ġones elf
iss ance
Ġchair men
Ġ198 1
Ġsex es
Ġadvantage ous
Ġcra w
Ġreact ing
Ġdream ed
Ġ16 0
Ġdisapp ro
Ġtend ers
cons erv
Ġbos n
nor th
Ġconce ivable
gu in
Ġblue fin
Ġreconst ruct
Ġrelie ve
Ġfer ber
Ġgar age
Ġgar cÃŃa
oler a
Ġdiver gent
Ġoppon ent
Ġcolomb ian
Ġabst ention
Ġbag s
Ġassert ion
japan ese
Ġrevers al
def ense
Ġsla ves
Ġunrest ricted
Ġju ven
quest ions
Ġlev y
Ġunderpin ning
Ġgang s
Ġappoint ments
Ġhect are
Ġdeval uation
Ġsant a
Ġnit rogen
Ġak in
Ġbudd hist
Ġinconven ience
Ġinconven ient
Ġcosm etic
Ġneu ro
Ġwhist le
Ġramp ant
Ġdenomin ator
Ġterrif ying
Ġparaly zed
Ġwik ipedia
semit ism
Ġleve lled
Ġguatemal a
Ġmeth ane
Ġtoile t
Ġrejo ice
Ġlect ures
lovak ia
Ġtanz ania
Ġtherapeut ic
rebren ica
ĠgonzÃ¡ lez
a ud
b ol
c us
c ulture
c ounter
f uel
f ighting
k t
m ist
m ates
n ame
p op
r ange
s f
s ed
u ish
Ã Ł
Ä ĩ
in burgh
on aut
is n
Ġp ent
Ġp od
Ġto ken
Ġf et
Ġd eng
Ġe leg
Ġre def
Ġbe et
Ġbe lder
st reng
Ġg mo
Ġl ind
Ġu rug
ver ted
ay a
gh reb
Ġun duly
Ġsh attered
os phere
Ġdo d
Ġgo at
et te
Ġj ane
Ġres idential
ab ol
vel t
Ġout law
Ġcomp atri
Ġman eu
Ġapp ointing
ose velt
Ġte hran
Ġev ac
Ġtra mp
Ġtra ject
Ġtra ps
ace a
ful f
Ġgroup ings
ass es
Ġref in
Ġass imil
ail ing
Ġsc ary
no ye
ick ed
Ġmil itias
Ġpract ised
Ġed inburgh
Ġcomb ated
Ġmind ful
Ġce o
Ġlight ing
Ġpa cif
Ġmult icultural
Ġdanger ously
Ġ7 3
sh ot
Ġ9 7
Ġdeter rence
Ġport ray
Ġgl ance
Ġcy nic
Ġste mming
Ġvital ity
Ġargu ably
Ġmand ela
Ġrein tegration
Ġproceed ed
Ġtruth s
Ġje alous
Ġsurv iving
Ġuni mp
Ġlog o
Ġcra fts
aw a
Ġpan els
Ġbound s
Ġphil ip
Ġcompe l
Ġobserv ance
Ġdispl ace
Ġice berg
Ġattach ment
Ġstabil ization
Ġrig orously
Ġwash ed
Ġfulfil s
Ġswe at
Ġprohib iting
Ġbehavi ors
Ġacknowledge ment
Ġborrow ers
Ġreass ess
Ġflu id
Ġmix ing
Ġcrow ley
Ġmotiv ate
Ġgreens pan
Ġcool ing
Ġscre ens
Ġcorner stones
Ġpermit ting
Ġbreach ed
Ġerad icating
Ġdistur bed
Ġtrave lled
Ġpreca utions
Ġpipe lines
Ġhero ic
Ġbag gage
Ġheight s
isc ard
Ġster ling
Ġguant an
Ġfeeding stuffs
Ġtherap ies
Ġpron ounced
Ġaer opl
brit ain
Ġabd ullah
rup ulous
function ing
Ġconsp iracy
Ġentrust ed
Ġinad missible
Ġprerog atives
Ġerupt ed
Ġlan noye
Ġresent ment
Ġphysic ist
ĠÂ £
Ġrepatri ation
Ġsau ce
harm on
transp arency
ogene ous
Ġgand hi
Ġfuk ushima
Ġpresupp oses
cong rat
) :
c atch
d h
d ling
f ear
f ty
i ac
m ust
n age
p ack
r itional
v ig
v ille
y ama
Ġth read
Ġw ield
Ġw aged
is ers
en able
Ġc able
Ġc ass
Ġp ino
an jo
an throp
Ġb ah
Ġb ored
or ated
Ġto w
Ġf di
Ġin ches
Ġe ta
le um
as anjo
Ġbe gg
il iar
Ġwe ber
Ġst agger
ul ative
Ġwith stand
Ġne arest
Ġun eas
li ved
Ġpar am
un a
un ited
Ġv in
Ġen p
Ġen velope
Ġwor ship
Ġres pir
Ġab du
Ġk ok
Ġk gb
Ġk hamenei
Ġneed le
Ġtr ump
lo ading
ear lier
Ġdis contin
au de
Ġwork ings
Ġup side
Ġexp ired
tern ally
Ġar oused
Ġbet rayed
Ġjust ifiably
Ġtra its
Ġper me
Ġper missible
Ġind ict
Ġop ium
Ġlo op
Ġcl oned
Ġtrans c
Ġbas in
Ġconf ig
led o
Ġpers ists
Ġday ton
Ġform ulating
be at
Ġchange over
Ġrespect able
com put
Ġsuccess ors
ned y
Ġbegin nings
Ġtri partite
Ġeduc ating
Ġlist ing
Ġwater ways
Ġ10 3
Ġfun eral
Ġpal ace
Ġemphas izes
Ġassist ant
Ġge b
Ġsk ull
Ġmus icians
Ġsort ed
Ġbi ased
Ġdisp osed
Ġreview s
Ġrad i
Ġaud io
Ġrat ifying
Ġdeli vers
Ġsal af
Ġhistor ians
Ġ18 0
Ġarri ves
Ġqual ification
oh l
Ġauthor ise
Ġpet ty
Ġlies e
Ġprim acy
Ġaccident al
Ġ197 3
Ġdign ified
Ġrestruct ure
Ġfat uzz
gu ard
equ al
Ġineff iciency
Ġpil ots
Ġwood en
bar ometer
Ġcli ff
Ġnut ritional
Ġfault s
Ġnav y
Ġgenet ics
Ġchief ly
Ġbrut ally
Ġmanip ulated
pa cific
Ġadvis able
Ġinstall ation
initi ally
Ġdismant le
Ġcoinc ide
Ġutil isation
Ġparadox ical
Ġrub bish
Ġprud ence
Ġtotalitarian ism
Ġaston ished
Ġhind ered
Ġleh man
Ġeleph ants
Ġgor bach
Ġresil ient
Ġpessim ism
Ġneglig ence
Ġteen agers
Ġdrow ned
Ġspr ings
Ġgreet ed
Ġdisgu ised
Ġpreval ence
Ġscandina vian
Ġcontag ion
Ġwilli am
Ġprovoc ative
Ġfals ified
Ġtyr anny
Ġwholes ale
Ġsuscept ible
hur ry
esta ing
traff icking
Ġspat ial
Ġapar theid
Ġhond ur
Ġgeomet ry
Ġkhodork ovsky
fled ged
Ġelectrom agn
Ġurug uay
Ġguantan amo
Ġfatuzz o
] .
a j
b ably
g on
g iv
h an
i pt
l ings
o th
Ġs ang
Ġs rebrenica
Ġp ad
Ġp ac
Ġm im
Ġf og
Ġf ighters
Ġf yrom
Ġh iring
ing es
Ġd j
Ġe loqu
th irty
Ġn ik
Ġre all
Ġre leg
as ia
st ant
ly n
Ġg iscard
Ġcom ed
Ġst ad
Ġst ones
ver ing
Ġal b
Ġal igned
ra k
ra ining
Ġde ll
Ġde ception
ch ron
ill es
gh ans
Ġun declared
pp i
Ġse als
ant e
Ġpar ks
Ġhas te
Ġle inen
Ġso ared
Ġr ou
Ġj azz
Ġhe ter
Ġam ounted
ig er
Ġpe as
Ġout ward
Ġout siders
Ġri vals
Ġapp liances
Ġnew com
Ġeconom ical
el on
he llo
Ġdec ree
Ġunder developed
Ġinv oked
form er
Ġlo ving
Ġtrans nist
Ġvot er
act ivity
Ġaf ghans
Ġgood ness
ian a
Ġprov oked
Ġoff enders
Ġmat urity
ass oure
Ġnu cle
Ġmin sk
Ġext inct
min atory
Ġla os
Ġcur se
Ġend ang
Ġent rance
Ġma ghreb
Ġsi xty
Ġlast ly
Ġwar ri
Ġdifferent iated
Ġbl own
Ġem ig
Ġap ology
Ġfav ourably
Ġsupp ressed
Ġaw ake
Ġret al
Ġfl out
Ġmis giv
Ġstat ue
Ġpriv ately
Ġz aire
Ġschool ing
Ġrom ney
Ġjud ging
Ġcontain ment
Ġrecomm ending
app arent
Ġmodern ising
Ġste ering
Ġden ounced
Ġilleg it
Ġche er
Ġcritic ising
ix on
Ġformer ly
Ġmeasure ments
Ġmand ates
last ing
Ġund ue
Ġexer ting
Ġborder ing
Ġbra kes
Ġtravel s
Ġslo gans
Ġlog ically
Ġstock p
Ġda unting
Ġadjust ing
Ġstim ulated
Ġhot els
Ġprim itive
Ġsubsidi ary
cons umer
Ġfrequ encies
Ġacce leration
Ġliter acy
tr ust
Ġsyn onym
Ġecu ador
Ġcollabor ate
Ġtight ly
Ġfal con
Ġextensive ly
Ġjohn son
Ġoverwhel med
Ġdro pping
Ġsuspect s
Ġearn est
Ġinnoc ence
bre aking
su per
Ġanaly tical
Ġgri m
Ġdepri vation
Ġmarked ly
Ġcash man
Ġmit igation
Ġchurch ill
Ġdeterior ate
Ġyield ed
Ġconstrain t
Ġunp aid
Ġjeopard ising
Ġbrut ality
Ġmemor ial
rec ogn
Ġannex es
Ġswitch ing
Ġnic ar
Ġadvis er
Ġcollaps ing
Ġtrick y
discri minatory
Ġlam assoure
Ġtac it
Ġpossess es
Ġpaint ings
Ġble ak
Ġcolonial ism
Ġdisproportion ately
Ġdisregard ed
Ġeager ly
vention al
Ġstrain s
Ġdegrad ing
Ġunambig uously
Ġfol ks
Ġga ul
commer cial
Ġcorrid ors
Ġsubordin ate
Ġhaw ai
mill ions
Ġbric k
Ġattent ive
Ġstun ning
Ġorchest ra
Ġdefect s
Ġplun ged
redu cing
Ġconfer red
Ġwi pe
Ġmes h
Ġip cc
Ġupgrad ing
Ġsta es
Ġtestim ony
pie ce
Ġdys function
Ġjose ph
Ġsmok ers
Ġpv c
Ġjes us
fashion ed
Ġdiscont ent
Ġmisgiv ings
0 6
c f
f ted
f rench
h ome
i ences
j ob
k ins
m ight
p age
p ine
p rop
r ons
s ufficient
t ight
v ide
Ġ :
Ġth ys
Ġa es
in is
re v
on ge
Ġc ron
Ġb ent
Ġto x
ro oted
as car
Ġg ib
Ġl ens
Ġon wards
Ġha ug
ol it
ri m
ch anges
Ġun healthy
Ġun icef
Ġun esco
Ġsh akes
li mp
est ate
Ġch olera
et ting
am ous
Ġag ri
Ġhe al
Ġab ys
Ġk it
Ġrep lic
Ġcont end
oc ut
ap est
ag ascar
he ment
ach ie
Ġjust ifiable
Ġsp ared
Ġfe min
Ġover he
Ġsub way
pon s
Ġhum or
Ġhum ility
Ġwell being
Ġdisc ards
Ġmon ster
Ġmeas urable
Ġgu itar
Ġenv y
Ġorder ly
Ġbu mp
chn er
Ġrespect ful
land ers
Ġnor weg
Ġfav a
Ġread ers
par is
Ġed ges
Ġfundamental ists
Ġoper a
Ġhead ache
Ġce ment
Ġbur y
Ġnet working
Ġspecial ized
Ġer oded
az a
Ġbroad ening
Ġbroad casters
Ġ7 4
Ġve hement
ban ks
Ġsubsid ized
Ġsuper state
Ġbi ologists
ins urance
Ġcorrect ions
can ada
Ġche ating
Ġdiv ine
Ġcal der
Ġtemp le
Ġarab ic
pro of
Ġwarm er
ze k
Ġ198 4
ik es
Ġdict ated
respon sibility
who ever
Ġsett ling
Ġremark ed
Ġincorpor ates
Ġplant ing
Ġcoast s
Ġdark ness
Ġsurround ings
Ġshad ows
Ġrain forest
Ġinfring ed
asc ular
Ġded u
Ġguard ians
Ġgar bage
cap acity
Ġreported ly
Ġdan iel
Ġaward ing
person nel
Ġhence forth
abe lling
Ġmonit ors
among st
Ġrot ating
Ġ194 0
Ġcart oons
Ġdish es
Ġrum ours
Ġweigh ed
Ġclim bed
Ġhomosexual ity
Ġintr ans
Ġkne e
Ġresid ual
Ġthri ve
Ġasymmet ric
Ġenlight en
abul ary
Ġtraum a
Ġinsol vency
Ġadvers aries
Ġovert aken
Ġindu ce
Ġbern anke
Ġinterl ocut
Ġdissatisf ied
Ġdissatisf action
ushch ev
Ġconfed eral
Ġoverr iding
Ġtextbook s
suff iciency
implement ation
Ġhen ry
Ġalgorith ms
Ġsul phur
Ġspar se
Ġcust ody
orig in
Ġbuiten weg
compan ies
Ġpragmat ism
Ġbott len
Ġhugh es
Ġredef ine
Ġpino chet
Ġgeb hardt
Ġgorbach ev
vide o
c lose
e an
e ing
f av
f alus
l ance
m ish
n early
p ox
u is
Ã ª
Å Ħ
Ġ /
Ġ Å
Ġth irst
Ġw ard
Ġs way
Ġs Ã¡n
Ġm umb
Ġm Ã©ndez
ic ia
Ġe lles
le aders
Ġl est
pe are
ol ia
Ġal bert
ra c
Ġhave l
Ġwith hold
Ġun question
im ates
Ġdo ck
Ġle w
Ġall erg
Ġj el
Ġj ones
Ġj okes
Ġcommission ed
Ġli a
Ġli u
all ah
Ġcont ention
ab a
ap ed
ie val
cess ing
iz er
Ġco ven
are rs
me at
Ġinv aded
Ġmad agascar
Ġro osevelt
Ġrel inqu
Ġsit uated
ass oni
Ġmon net
Ġla h
Ġla mber
Ġend ure
Ġlast s
mbers ome
Ġpers ian
Ġsc rew
Ġachie ves
Ġinstit utes
Ġide ally
Ġdown load
Ġsol vit
Ġsect arian
Ġem igration
Ġval en
Ġremain der
Ġcor ners
Ġins ane
Ġfr assoni
Ġspecif ies
ret ched
Ġforward ed
Ġdist racted
Ġshort coming
Ġcri ed
Ġaw esome
ime ter
pl aced
Ġcomb ines
Ġchar ism
Ġru ins
Ġsl ack
Ġinstru ction
Ġce ased
Ġ6 1
Ġdesign ation
Ġamb ival
Ġdom estically
Ġpost er
Ġbroad ened
Ġ8 1
pr ince
Ġdev oid
Ġland mines
Ġec sc
Ġital ians
Ġred isc
Ġmodern ity
lif ied
Ġclos ures
Ġpercent ages
Ġavoid s
Ġbri g
Ġste vens
tom an
Ġcorrect ing
Ġcorrect ive
ex cuse
rop ol
Ġharmon ious
Ġ12 5
know ledge
Ġextra pol
ber lin
Ġcampaign ing
Ġwilling ly
Ġpain s
Ġcomment ed
Ġje wel
Ġhor rors
Ġpret ending
ta wa
Ġstaff ing
Ġhost ilities
int rodu
rep ort
ij i
Ġvirt uous
Ġep as
Ġpan acea
Ġconver ting
Ġprotest ing
Ġbomb ers
Ġamaz on
Ġcontrad icts
Ġradical s
Ġgal icia
Ġadvance ment
Ġbehavior al
car thy
Ġdistin ctive
Ġblue print
Ġmc carthy
Ġabstain ing
tur k
Ġmos que
Ġacknowled ging
Ġineff ect
Ġbol ster
Ġded icate
Ġnut ri
Ġendors ing
bl ack
che z
Ġken nedy
bb els
Ġdeterior ated
Ġerad icated
Ġvoc abulary
Ġadverse ly
br d
Ġgrat ifying
Ġinvent ory
Ġcrash ed
Ġrecyc led
Ġmarginal ised
Ġcere al
Ġfisch er
Ġattain ed
Ġstip ulate
hist orically
Ġpollut er
Ġtroub ling
Ġenrich ed
Ġnomin ated
Ġtail ored
Ġprud ential
Ġaccus ation
yn man
prom oting
Ġacced ing
Ġtermin ology
Ġlou is
Ġroutine ly
Ġtig ers
Ġconform ity
Ġoverl ap
Ġdiscoura ged
opoul ou
Ġembass ies
Ġconsp ic
Ġenlarge ments
geor ge
Ġtaj ani
scient ific
struct ural
Ġilliter acy
ikh ail
Ġgoe bbels
Ġindiscrimin ate
Ġspontane ous
Ġarsen al
Ġrecre ational
Ġguer r
Ġantarctic a
main taining
Ġgif ts
saf ety
Ġgb p
administ ration
Ġenerget ic
Ġmarg aret
Ġhomophob ia
afghan istan
Ġfanatic ism
Ġnois y
rais al
Ġpractition ers
Ġstad ium
apparent ly
Ġthys sen
falus sy
) )
7 1
a cious
b road
c p
c ence
d t
d rew
f it
h al
h ne
i ently
i Äĩ
l abelling
m om
m ics
m ium
r b
v ict
w on
Ġth irteen
on do
at i
Ġw and
is er
is ites
Ġc age
Ġc ites
Ġc lick
Ġo missions
or ating
Ġm end
Ġm ong
Ġd ive
Ġd ared
Ġd oping
Ġn asty
Ġre bell
Ġre balancing
Ġi z
Ġg limp
Ġl ur
Ġu mp
Ġfor ci
Ġal ignment
ri ad
Ġwith drew
ir l
Ġun b
Ġun he
Ġun ten
pp ers
op in
Ġse iz
Ġse greg
Ġpar as
ain e
we lf
qu in
Ġch ips
od ka
Ġres ounding
Ġli ghter
Ġk an
Ġk ib
con ian
Ġfa o
Ġqu orum
ie u
Ġman h
Ġexp ulsion
Ġsa ch
Ġpre ach
Ġconc lusive
Ġbo thered
Ġover weight
Ġho bby
Ġconf ess
Ġpri est
Ġpr one
Ġemp ir
Ġnational istic
Ġobject ed
Ġrev iving
eng lish
Ġresearch er
fin land
Ġret rospect
Ġactiv ism
Ġpat ron
Ġmor illon
Ġenc l
Ġmilit ant
Ġmilit arily
Ġtrad es
Ġpot ent
Ġdraw ings
atch ed
Ġ7 6
Ġcru x
Ġdisp ers
mar king
Ġaud itor
ex cept
Ġkill er
Ġmill en
Ġinstrument al
Ġconstruct ing
Ġje ans
ik istan
Ġspeed ily
Ġsex ually
Ġphys ician
Ġpred ators
anim al
Ã¶ ner
urs ed
Ġsav ary
Ġstrugg led
Ġhur ts
Ġsto le
Ġdispl ays
Ġpurch ased
ato yama
Ġatmos pheric
Ġdiscip lines
Ġkil og
appro val
Ġparad ise
Ġanaly ze
Ġphotograph er
bl ock
Ġcert ified
Ġsev ent
Ġdesp icable
Ġgross ly
Ġargent ine
Ġdav ies
Ġdiscrimin ate
Ġconve yed
Ġprofess ors
Ġxenophob ic
Ġhall uc
Ġdup uis
Ġcatal ogue
Ġinterview s
Ġwholehear ted
Ġcultiv ated
Ġmun ich
Ġlam falussy
cor ruption
Ġdecentral ized
Ġinteract ing
Ġmcc ain
Ġadh erence
Ġmel ting
Ġembarrass ed
Ġloud ly
Ġiv ory
Ġflour ishing
Ġdictator ial
Ġcontra ven
Ġclimb ing
Ġsuperf icial
Ġuphe aval
indust ry
Ġrecur ring
Ġinterdepend ent
Ġintu ition
norm ally
ran ca
Ġshipy ard
Ġoverl apping
Ġku wait
Ġpas sions
Ġfert ile
Ġinadequ acy
Ġunle ashed
ushch enko
Ġspokes man
Ġpeters burg
Ġrena ult
Ġinsurg ency
rene w
Ġcu mbersome
Ġchanne lled
Ġscrat ch
Ġoversh ad
Ġfrict ion
Ġphant om
streng then
congrat ulations
Ġunten able
! '
4 5
e a
e yed
e zz
f s
j ac
j ev
l an
l ay
l ash
m t
m etic
r g
r ally
s pons
t est
t ier
u ities
u ating
Ġ ict
Ġt ut
Ġt ub
on ial
Ġw o
Ġw ore
Ġw urt
Ġs ara
Ġo pec
an ou
Ġb il
Ġb end
Ġb ast
Ġm ice
Ġm lad
es ar
Ġf landers
Ġan ten
Ġan them
Ġh urd
Ġd ating
Ġd ough
Ġe it
Ġe brd
Ġand re
le ft
Ġn od
Ġn erves
Ġn ixon
as il
Ġbe ans
Ġg ol
Ġg ul
id is
Ġal lied
Ġun answ
ad ors
Ġv all
ci a
so viet
Ġch al
Ġcan cers
et ric
âĢ Ķ
âĢ ĺ
Ġpres ume
am ins
Ġhe aling
Ġk all
Ġk inder
ac le
Ġus sr
ab ad
oc rats
Ġfa re
ap y
Ġmy riad
Ġout lets
te chnology
Ġcons ens
Ġtime frame
ok en
cy cle
he ld
pt ic
Ġob asanjo
act ic
Ġgood bye
Ġhum ble
Ġmo ham
Ġtreat s
Ġnational ists
Ġass ignment
Ġher oin
Ġgu ests
Ġbud apest
Ġcar rot
Ġdra conian
Ġdifferent iate
Ġide ologies
Ġsuc k
Ġmed ication
Ġmed ieval
Ġinst antly
Ġcost ing
Ġir rig
per anto
Ġdist ract
Ġsw ord
Ġreform ers
Ġfoc al
Ġmis used
Ġperiod ic
Ġmoment ous
Ġappropri ation
ash ing
Ġcontain ers
Ġ8 7
Ġ8 9
Ġsat urn
Ġsk il
Ġver bal
Ġsubsid ise
Ġgl am
Ġgl ory
Ġdi ag
Ġemploy s
Ġoblig es
ah n
Ġdoubt less
Ġden ies
Ġjun k
Ġdocument ary
Ġsens ors
Ġnight s
Ġwarm est
Ġsen ator
Ġsen sibly
Ġcomment ing
Ġconcept ual
ik o
Ġconfirm ing
ev ent
Ġblo om
Ġwhite head
Ġboard ing
Ġfil mm
Ġburden ed
unt ary
Ġfacilit ates
Ġenh ances
sy ria
Ġdog matic
Ġgradu ates
Ġcateg or
Ġurban ization
Ġ197 4
Ġgaz prom
Ġren ounce
Ġball s
Ġbed room
Ġprohib its
Ġrestric ts
Ġmobil ize
att an
Ġmultip ly
Ġdro ps
Ġsim ulation
Ġgri ev
Ġembra cing
Ġminim ize
Ġhaz ards
Ġjeopard y
Ġanticip ation
grow n
Ġfrust rating
Ġprescri be
Ġaz nar
Ġimperial ism
Ġinterview ed
Ġnaz is
establish ing
Ġapplaud ed
Ġrestaur ants
Ġcoc a
Ġairpl anes
Ġclim atic
Ġinsight s
Ġmaxim ise
Ġburn t
Ġhypo the
Ġarrog ant
Ġwil der
Ġunfold ing
Ġblat antly
Ġrab bit
Ġnurt ure
Ġkidn apped
Ġsquee ze
agric ultural
Ġhin du
Ġmam m
Ġalt ru
serv ice
Ġinfer ior
Ġsidel ines
Ġtru ce
Ġpredic ting
Ġlod ged
Ġstrang ers
Ġcous in
Ġsie ge
Ġcun ha
Ġunint ended
Ġerr one
Ġpetro leum
Ġouts our
Ġcric ket
Ġunfav ourable
Ġrespons ive
fundament al
serb ia
Ġabduct ed
Ġtraject ory
Ġstagger ing
Ġsalaf ranca
Ġnicar agua
Ġgaul le
Ãª te
Ġmanh attan
Ġwurt z
Ġunansw ered
b row
c row
c ross
c ale
e le
f is
f oc
g ences
g dp
g rand
h um
j amin
p aid
r d
s ame
t led
Ã ¥
Ġ +
Ġt in
Ġt ian
re ll
re ach
Ġthe ft
on ds
Ġw ool
er ous
Ġs our
Ġs ap
Ġc ant
Ġo mitted
Ġp ond
an men
Ġb bc
Ġm our
Ġf ancy
Ġin k
Ġh ip
Ġh ills
Ġd or
Ġe pl
Ġe ternal
Ġe minent
Ġn am
Ġre now
Ġre vert
as por
Ġl orry
Ġon set
Ġst ain
ol ese
ch o
ill usion
Ġun ve
Ġun comp
Ġeuro barometer
im ation
im mer
un ci
un clear
qu ier
Ġwhich ever
âĢ ¦
ist ence
Ġr iding
Ġimp ress
Ġimp air
Ġk iev
Ġam mun
Ġus h
ig s
Ġpart isan
Ġad oles
Ġpl ag
ap es
og as
Ġra bb
Ġtra il
Ġpolicy making
rit orial
Ġpr ist
Ġreal ising
Ġreal istically
Ġhope less
Ġsc ape
Ġdra gging
Ġbu zek
Ġwar rants
Ġtransp osing
Ġdown side
Ġdown town
Ġgr Ã¶ner
Ġhand ing
Ġap athy
Ġrest art
Ġfav ors
Ġeas iest
Ġstar ving
Ġgot ta
Ġextre mes
mit t
Ġann um
emp has
Ġstat ure
Ġstat istic
Ġmanage able
Ġ10 8
Ġbre yer
den ed
Ġgra y
Ġvict or
Ġexc ludes
Ġpa ved
Ġlat vian
Ġconnect s
Ġprob able
Ġsuper markets
sp ort
Ġgl aci
Ġground work
Ġword ed
Ġdi aspor
Ġbri an
Ġinteresting ly
Ġ12 9
Ġsal ute
Ġ11 5
Ġdr um
pro bably
Ġclar ifies
Ġhor rend
dra fts
Ġhar bor
Ġpred iction
Ġpun itive
Ġwid en
Ġattract iveness
Ġmusic ian
Ġuns u
Ġ197 5
gra m
Ġentit lement
Ġtob in
Ġcast ing
Ġcast le
Ġmoun ted
agree ment
Ġfat ig
Ġwitness es
ches ter
Ġsyn chron
Ġtransl ating
Ġ196 8
Ġarm aments
Ġflag ship
Ġparalle ls
Ġgri ef
Ġenthusi astically
Ġtaiwan ese
Ġdiss olved
Ġroman o
Ġdesp eration
Ġapolog ies
Ġic on
Ġvietnam ese
Ġlad der
Ġroc ks
Ġsuspic ions
Ġconven ed
Ġexhaust ive
Ġbrand s
Ġphr ases
Ġah med
Ġmisunder stood
Ġtam il
Ġvit amins
Ġunderp ins
Ġingred ient
Ġreprodu ce
Ġmir rors
Ġnaz ism
Ġrevers ing
cor por
fund ing
Ġrelax ed
Ġju ice
dec isions
Ġbeach es
Ġgraph ic
Ġstret ched
Ġunderpin ned
Ġintermedi aries
Ġluc rative
Ġbeha ved
Ġreck less
Ġportfol ios
Ġpir ker
Ġreorgan isation
Ġot tawa
Ġthri ving
Ġempower ment
Ġdefer red
quit ous
geor gia
Ġbuff er
Ġlaure ate
Ġkla us
Ġaggrav ated
Ġlud ic
scient ists
impro ving
Ġsket ch
agg eration
Ġschroed ter
Ġrescu ed
Ġimpat ient
relig ious
Ġfern and
Ġcleans ing
Ġinflex ible
Ġlithuan ian
Ġnost al
Ġunsuccess ful
Ġeuph oria
Ġjav ier
Ġelectromagn etic
Ġnewcom ers
Ġtransnist ria
Ġhawai i
Ġlia ison
Ġiz quier
renew able
Ġconsens ual
Ġmamm als
Ġscape go
' ?
3 7
a que
b ound
b ob
b inding
c oun
c roat
d or
d ial
d ip
d rug
f its
f lies
f ounded
g al
h ill
m ot
m ert
n in
n ature
o ise
p in
s ensitive
t b
Ã ¯
Ä Ł
Ġt read
Ġth war
Ġa unt
on ium
Ġs ank
Ġs orrow
it ors
ou ched
Ġan te
Ġh an
ar c
ar r
Ġd p
Ġd amp
Ġd uff
Ġd war
Ġi b
Ġg el
Ġl al
ut er
ut ive
Ġst airs
Ġha mb
Ġal tering
Ġal pine
Ġde ment
ri ga
the t
ill er
ir th
Ġun e
Ġun set
Ġun worthy
ad ap
Ġeuro control
Ġex aggeration
Ġv are
Ġhas ty
am iliar
ect ed
Ġab rupt
Ġli ed
Ġpol ling
ac ross
ud ge
Ġqu asi
Ġright ful
Ġcons ular
Ġpos ing
og ens
ack ing
Ġra ge
Ġsp ra
Ġper taining
Ġinv o
act s
Ġrem inis
rat er
Ġref ine
Ġmay ors
Ġmon et
Ġmin us
Ġfar ce
you th
Ġdef ender
get ting
Ġemp ires
Ġpublic ations
itiz ed
Ġset backs
Ġglo omy
Ġdifferent ial
Ġsol vency
Ġlif es
Ġcre ws
Ġval le
Ġplan k
Ġins erted
Ġsmall pox
Ġimm un
eng ine
Ġdist ill
Ġdist ressing
Ġbro ok
Ġgeneral ised
Ġshort est
Ġple ad
Ġexist ential
Ġbar b
Ġactiv ated
Ġreform ist
Ġaccess ing
Ġexpl oded
Ġenc oun
ov Ã¡
Ġru de
Ġbel ated
Ġwater way
Ġdecl ines
Ġcomprom ising
Ġcut backs
Ġ7 1
Ġpack ed
app lic
Ġsk ies
Ġorigin ated
Ġ9 3
Ġmen u
Ġdel ta
Ġavoid ance
Ġbri bes
Ġcorrect ness
Ġcoll ision
Ġwal ter
Ġdece ived
pro ble
Ġsen seless
Ġkid ney
Ġcompreh end
Ġje ff
cle an
Ġsuperv ise
Ġfil ed
Ġcomprehensive ly
mes ter
Ġnation ally
Ġunf amiliar
Ġeight een
Ġcr unch
Ġrele ases
Ġmoral es
Ġegypt ians
Ġhur ried
Ġbound ary
cons uming
Ġoccasion al
port ug
Ġbos ses
Ġcam el
Ġmag ical
Ġczech os
Ġformal ities
Ġpi ge
gu arante
Ġpreced ents
Ġmc don
state ment
Ġnotice able
Ġuniform ly
Ġflag rant
Ġpunish able
Ġfly nn
Ġadm irable
Ġexperiment ation
Ġech elon
Ġalcohol ic
Ġtremend ously
Ġforecast ing
Ġreinforce ment
Ġnav igate
col lect
Ġq addafi
Ġnovel s
Ġroc kets
Ġannex ed
Ġswitch ed
Ġepide mi
cur ren
Ġarbit r
Ġdiox in
Ġcook ed
Ġaz ores
Ġcab in
Ġprerequ isites
Ġprejud ices
Ġdisrupt ive
laim ed
Ġrevol t
fif ty
Ġdestabil izing
incre ased
Ġase m
Ġreb ate
omed ay
199 8
Ġcoc aine
Ġstamp s
Ġcatastroph es
Ġmas k
belie ve
list en
Ġrival ry
Ġtank ers
Ġham pered
Ġpione ering
Ġfib er
Ġdiscoura ging
Ġneu ros
Ġinsol vent
Ġindebted ness
Ġturbul ent
creat ing
Ġpreoccup ied
Ġrena issance
Ġlas er
Ġcycl ical
Ġtelecom s
Ġdense ly
Ġschmid t
Ġconqu er
Ġexped ition
comb ating
Ġdischar ges
Ġsalv ador
Ġgig antic
Ġimpul se
Ġdescend ants
Ġrenational isation
empt ive
chem ical
Ġrecap ital
Ġsquand ered
Ġinacc urate
Ġbosn ian
Ġcompatri ots
Ġcynic ism
Ġrespir atory
Ġhondur as
Ġsynonym ous
Ġshakes peare
Ġcalder Ã³n
ĠsÃ¡n chez
Ġjel ly
Ġlamber t
Ġrebell ion
fis cal
Ġtian anmen
Ġizquier do
Ġreminis cent
4 8
b bing
d ut
f ound
f ting
k ar
l ocked
p owered
r ina
s il
s im
s ound
s feld
t ops
Ġth ors
Ġa ce
on ents
at able
at ism
Ġw ives
is ance
Ġs or
Ġs lic
Ġc ensus
Ġp ip
Ġp unch
an ide
Ġb om
Ġb ret
Ġb rad
Ġm t
Ġm ikhail
Ġf erv
al an
al le
Ġan archy
Ġh ated
ro v
Ġe ag
Ġe eas
st airs
il legal
Ġl inc
Ġu bi
ot es
se x
Ġha bs
ol n
Ġy ushchenko
ch a
ill as
Ġun to
Ġsh red
Ġse m
Ġex ternally
un ion
ess entially
Ġen dem
Ġcan v
Ġimp lying
Ġab ound
Ġk ac
Ġk not
de ath
de ep
um in
ab s
Ġpe an
si p
Ġpl um
Ġdis illusion
Ġcomp os
Ġcomp ounded
Ġcomp rise
Ġinc ite
Ġreport ers
Ġexp ires
ts burgh
pt ive
Ġbet ra
Ġra ck
Ġdec ay
Ġdec rees
Ġsp en
Ġfe ynman
Ġper ry
Ġinv oke
Ġiss u
Ġcl ue
Ġgovern s
Ġcommun iqu
Ġhuman kind
Ġmon ies
Ġdef y
Ġdef ends
Ġreal ization
Ġ19 20
Ġinform ative
Ġsign atory
other apy
Ġlaw ful
Ġinf amous
ph al
Ġdep letion
Ġopportun e
Ġplan etary
Ġprogress ed
Ġcond oms
Ġiniti ating
Ġcontribut or
eng agement
Ġfavour ing
Ġjoin s
Ġopp ress
Ġcivil isations
Ġcentral ized
Ġmis led
Ġmis fortun
Ġz oo
cise ly
Ġdri ed
Ġweek ly
Ġge o
Ġpost ure
pris ingly
Ġmet ic
Ġdev ising
Ġreflect ions
Ġdisp ens
Ġbri be
Ġpurs ues
Ġste ve
Ġaud iences
lam ation
Ġharmon ize
Ġswed es
know ing
Ġmill er
Ġregret ted
ber keley
Ġsens ation
Ġconsist ed
Ġdr ank
Ġsepar ating
Ġmal aise
Ġdeleg ates
set Ãªte
Ġ18 6
Ġunivers ality
Ġdiplom at
Ġobst ruction
Ġcooper ated
Ġcompar ability
Ġcomplic ate
Ġwid ened
Ġtouch ing
Ġsav age
Ġfederal ism
Ġphil anthrop
Ġut opian
bur ton
Ġsyn thes
Ġsyn thesis
Ġfit ted
see kers
Ġdirector ates
Ġembar king
appro x
Ġgar riga
Ġfost ered
Ġcomplement arity
Ġdistort ing
Ġdiss ol
Ġendeavour ing
Ġfashion able
Ġfrag ility
Ġunit ary
Ġaustral ian
Ġfasc inated
Ġsme lls
Ġepide mics
Ġdispar ate
Ġpharmaceutical s
Ġhydro carbon
Ġrot ation
trans port
Ġiron ic
Ġcatal og
Ġdepth s
Ġintense ly
Ġdivid end
Ġcultiv ate
sad dam
Ġsimultane ous
Ġpit tsburgh
Ġhu go
Ġextract ed
Ġabund antly
Ġambass adors
Ġdil igence
Ġautomob iles
Ã§ ois
Ġtransplant ation
business es
Ġscra pping
Ġmedi ator
Ġot toman
Ġchampions hip
Ġpione er
Ġwors ened
Ġexpon entially
Ġrepro ach
Ġlooph ole
Ġinval id
wal k
Ġhaul age
prov iding
Ġtaj ikistan
Ġreef s
Ġslu mp
Ġghost s
Ġrepay ment
Ġlyn ne
Ġanomal y
Ġyard stick
Ġhelicop ter
emerg ing
Ġintrins ic
Ġseaf arers
Ġincompet ence
Ġgros setÃªte
Ġcoerc ion
Ġsore ly
Ġcum ulative
Ġpedest rians
Ġtay lor
Ġrevis it
Ġshri mp
Ġappease ment
Ġdishon est
Ġyanukov ich
Ġchimpanze es
Ġunimag inable
Ġuneas y
Ġpeas ants
Ġillegit imate
Ġgib ral
Ġmumb ai
turk ish
jev o
event ually
Ġhypothe tical
Ġdiaspor a
drafts man
Ġfatig ue
croat ia
Ġdp j
Ġvare la
Ġlinc oln
9 5
g un
l ate
n ine
s ign
u ble
z id
Ġ &
Ġ ..
Ġw ired
Ġs ine
Ġs inking
Ġc er
it ations
Ġp ere
Ġp ills
Ġb ip
Ġb uch
or ative
Ġm ired
Ġf rog
Ġf idel
ou st
Ġin se
Ġin ception
Ġh end
ar gent
Ġd ated
Ġd ick
Ġd umb
Ġd irt
th reat
Ġre de
Ġre use
Ġre cessions
Ġre defin
om a
Ġl Ã³
Ġu ri
se v
Ġst iff
Ġst alled
Ġcon sec
ra ham
ul sions
ill i
Ġnot ify
ad just
Ġsh un
Ġsh aken
Ġse cession
Ġse wage
Ġex ting
ust er
Ġv ind
Ġv odka
Ġch en
Ġcan ce
Ġj aw
Ġj oe
Ġhe y
Ġk ings
ak ash
ig an
ab eth
Ġac ids
Ġfa x
ud o
ud ron
Ġneed ing
Ġtr ash
au b
Ġinc oh
Ġsa iling
Ġte ch
Ġmar vel
Ġmar ath
Ġmar ÃŃn
Ġra v
Ġtra ctors
Ġfe ira
Ġthink ers
Ġinv ites
Ġbo il
Ġover fishing
Ġcl er
Ġtrans itions
Ġmarke ted
Ġstr ings
Ġsub mar
Ġter rain
ath ic
Ġoff spring
Ġrel at
Ġprot agon
Ġadd itions
Ġma i
Ġhel ms
Ġgu ise
Ġgu arant
Ġsm iling
Ġback lash
Ġinter actions
Ġinter parliamentary
Ġcent rally
Ġcompet itions
Ġcol om
be ek
Ġserv ant
stand ard
Ġdeal ers
ater o
Ġhand some
Ġbl ast
Ġbl aming
Ġkind ly
Ġconstit uted
light s
Ġcri pp
Ġca udron
Ġim o
Ġlab s
Ġdiscuss es
do or
pl ain
pl aces
Ġfull est
Ġfour teen
Ġsl ots
Ġfall out
Ġwr ist
Ġgra pp
Ġfle mish
edi ment
Ġmult itude
Ġmet ropol
Ġve il
Ġver itable
Ġmess y
Ġorigin ating
Ġsuper iority
Ġland mark
Ġec ologically
Ġbi ogas
Ġdisp ose
Ġaut ocratic
Ġfear ful
Ġrich ness
Ġinterv als
Ġdiv isive
Ġimag ery
pre cisely
Ġharmon ized
Ġeth n
Ġeth anol
Ġspace craft
Ġcircumst ance
Ġvir al
Ġcop ying
Ġens uing
Ġfirm ness
Ġund is
Ġdistribut ors
Ġclar ifications
Ġconcent rates
Ġsun nis
Ġheav ier
sc ot
Ġacqu ainted
Ġvision ary
Ġpun ishing
Ġder ives
Ġsett lers
Ġhur dle
Ġprofessional ism
Ġabandon ment
Ġdisappe ars
tra ined
Ġstabil izing
Ġsac coni
Ġmc n
Ġreaction ary
Ġmos quit
Ġpersu asion
Ġalleg iance
Ġol mert
Ġphilosoph ers
Ġuniform ity
Ġcrow n
Ġcrow ds
Ġselect ing
Ġded uct
add itionally
sen beek
Ġkn ocked
Ġ28 0
whe el
Ġq atar
Ġcompassion ate
Ġfool ed
Ġbread th
Ġarbit ration
Ġabst entions
Ġdup licate
Ġunjust ifiable
Ġambig uities
Ġunus ually
Ġdismant led
Ġenrich ing
Ġbreed ers
Ġhesit ant
Ġvolunte ering
Ġdiam onds
Ġinconsist encies
Ġscan ners
Ġunt ouched
Ġdivor ced
Ġspectac le
Ġignor ant
Ġincorrect ly
Ġneur on
Ġlung s
trad itional
Ġow ed
Ġmunicip alities
Ġcommem orate
Ġepis odes
Ġcomplac ent
Ġattent ively
Ġbund es
Ġsupervis ors
Ġdisturb ances
Ġauthentic ity
stud ies
Ġlud ford
Ġprerog ative
Ġpreval ent
Ġinstinct s
Ġzo om
Ġstig mat
cycl ical
dist ance
Ġgi ants
perform ing
Ġmoder ates
Ġrecru ited
Ġcarte ls
independ ent
Ġqua est
import ant
worth iness
Ġawak ening
Ġmock ery
Ġron ald
Ġruth less
Ġamate ur
Ġflor ida
Ġzap atero
Ġpent agon
Ġnorweg ian
Ġenlighten ment
prince ton
Ġredisc over
Ġglimp se
strengthen ing
spons ored
Ġhurd les
Ġammun ition
Ġludic rous
Ġdement ia
Ġhabs burg
Ġendem ic
Ġspen cer
ĠlÃ³ pez
" ,
, '
1 6
9 2
a gh
c ir
c our
e at
e quality
g ically
h ima
j our
l ical
n els
r Ã©
r ushchev
u an
v ania
v ili
w o
w ow
w ich
Ġa ires
re ction
Ġs j
Ġs ulf
en os
Ġp ants
Ġp Ã©
Ġb inary
or g
Ġm aker
Ġto ss
Ġf od
Ġf ills
Ġf ores
al tern
Ġh ij
Ġh atoyama
Ġand rew
th ought
Ġn ick
Ġbe ware
st ore
il ar
ce ived
Ġal ia
Ġun related
Ġun bear
Ġcomm ended
Ġse mester
and an
li um
ant ing
Ġpar ach
Ġv atic
we ek
qu iet
Ġdo om
Ġpres umption
Ġr al
Ġimp ract
Ġj ury
Ġk roes
Ġk ohl
Ġint ract
con versely
Ġ- ,
um en
Ġmy st
Ġdis ag
Ġfin ite
Ġwork load
Ġman chester
wh ite
Ġapp rent
Ġcons igned
Ġpre aching
og ical
Ġmar ty
Ġmar io
Ġconc ede
Ġhow itt
ine es
Ġtra ces
Ġinv iol
Ġop aque
uch ma
Ġstr at
Ġsub contract
Ġmo ore
Ġacc red
Ġbas ics
wn ing
not e
Ġref resh
Ġfar age
Ġla v
Ġcur ves
Ġend ow
Ġent rop
Ġma pping
Ġass erted
Ġhelp less
Ġtal e
Ġback yard
Ġsc aff
Ġsc aled
Ġbu c
Ġbu ys
uc ked
Ġthank ed
Ġequ atorial
Ġins ur
Ġnegoti ator
Ġben jamin
Ġread ings
par alle
Ġmil an
Ġes peranto
Ġel usive
Ġopp ressive
pri or
Ġsuff erers
Ġca pp
pl us
Ġloc ate
Ġrece ipt
Ġmis inter
has a
Ġyoung est
az i
Ġopt ing
Ġparticip atory
Ġdoub ly
Ġgra ms
cri bed
Ġcontain er
Ġ7 9
Ġmet ric
Ġgl ut
Ġdi vert
Ġcoll ins
Ġche at
pre par
pre vent
pre vention
Ġeth ic
Ġstri pped
Ġdece ive
val ue
Ġlegit imately
Ġrein teg
Ġrein vent
iss au
any body
cl aude
Ã© t
Ġspeed ed
Ġsil va
Ġnegative ly
Ġlog istical
Ġ13 7
Ġtun nels
Ġdestro ys
Ġbeautiful ly
Ġstim ulation
Ġconver ge
Ġassemb led
rant ed
Ġut ility
Ġbelong ed
Ġ197 6
Ġplant ed
Ġang les
did n
Ġsell s
Ġment ally
Ġunfair ly
Ġmatch ing
Ġcheap ly
Ġreconcil ing
Ġideal ism
add y
Ġpassion ately
Ġcas p
Ġwis er
Ġjeopard ised
Ġdiagn ostic
Ġkh rushchev
organ ised
Ġstead fast
Ġexhaust ion
Ġsubs istence
Ġsuit case
Ġsecular ism
Ġcamb ridge
Ġtact ic
Ġdivid ends
Ġexacerb ating
Ġmun itions
interest ed
Ġrum sfeld
Ġbreakthrough s
Ġring ing
Ġcaut iously
Ġweigh ing
Ġretail ers
Ġbitter ly
Ġinject ion
Ġcontra ction
Ġdisin teg
var o
educ ated
Ġtermin al
pat ients
Ġmedi oc
Ġtraum atic
mus lim
Ġimpartial ity
Ġnurt uring
Ġsquee zed
Ġsacrific ing
Ġdisgu ise
star ting
legisl ation
legisl ative
Ġnich ol
Ġfried man
pract ice
Ġsymptom atic
luck ily
Ġkau ppi
Ġchromos ome
Ġrhyth m
Ġorganiz ational
Ġstumb ling
yp ical
Ġhemis phere
Ġore ja
Ġplut onium
Ġmaneu ver
Ġvin ci
Ġdysfunction al
Ġmong olia
welf are
Ġsach s
Ġmillen nia
Ġsara jevo
Ġepl p
Ġhorrend ous
Ġczechos lovakia
Ġuri be
akash vili
Ġvatic an
) ;
3 3
4 6
d an
d ar
f ig
f lex
h ire
i arity
j on
j oint
m illion
p urs
t ri
t age
w all
w ab
w itz
z ai
Ġt and
Ġt ink
Ġth ief
Ġth roat
in sp
it is
Ġp aren
Ġb ru
Ġb aker
Ġto lls
es y
Ġf ren
Ġin just
Ġh Ã¤
ar ted
Ġd ull
Ġe go
Ġre opening
ve ll
Ġbe lls
st age
st ability
Ġg ently
Ġg addafi
Ġg amble
Ġl dp
Ġl aughter
ot le
Ġfor ging
ur i
Ġst aunch
Ġy uk
Ġal an
ch eck
Ġas th
ul as
ul atory
res olution
Ġme ter
Ġme ag
Ġme mo
Ġun ra
Ġun ifying
Ġun contro
Ġun true
op ened
Ġex od
Ġpar don
Ġv ine
Ġv anish
est ine
Ġat ypical
et ta
Ġhe el
Ġab hor
Ġli k
Ġk am
Ġk uchma
Ġint ending
Ġpart ition
ish a
Ġneed less
Ġpl ast
Ġdis en
Ġout ra
Ġri pe
Ġbec k
Ġup s
Ġup grade
ag ne
Ġapp raisal
are l
Ġcons ort
Ġsa ud
Ġnew ton
el ing
el li
Ġev ap
Ġjust ifying
Ġra ging
Ġtra w
ric k
Ġworld view
Ġbo b
tain s
Ġleg end
xt ric
Ġconf u
lu c
itiz e
Ġreason ed
Ġdifferent iation
Ġcap it
over s
Ġsimp son
Ġdep ended
Ġbl ows
Ġta h
Ġav iv
Ġfav ored
av an
Ġbal d
Ġpur vis
Ġes f
Ġshall ow
Ġcong ression
Ġregul ates
Ġprof iling
Ġprof iles
Ġexpl ode
ec ked
ov an
Ġmilit ia
Ġann ih
Ġthought ful
Ġsl ums
Ġaffect ion
Ġz ana
Ġcourt esy
Ġbor rell
Ġanim ation
den mark
Ġbrit tan
Ġgra mm
Ġharm less
Ġcirc ular
Ġver ifiable
Ġoppos es
Ġine xtric
Ġground ed
Ġcy anide
Ġcle arest
Ġexam ines
Ġeth ically
yl vania
Ġsens ory
Ġrein stated
Ġmal administration
ls son
Ġchair manship
Ġrail road
Ġfre er
ev ol
Ġblo gg
Ġannoun cing
Ã¶ stedt
Ġpiece meal
Ġhost ed
int ention
Ġclean ed
Ġdoor step
Ġcoal itions
Ġthor ny
Ġcub ic
bu y
Ġdig ging
Ġamaz ingly
Ġtoler able
comp ulsory
Ġconce ive
Ġvari ant
Ġgal van
Ġcard iov
Ġsho ok
Ġpsych ologists
Ġboost ed
Ġmark ov
Ġprosec utions
Ġtit les
Ġbackground s
tur ned
Ġunique ly
Ġmos ques
Ġlength s
Ġrecall s
Ġrecip es
Ġcalcul us
Ġendeav oured
Ġenhance ment
bar oness
Ġzimbabwe an
Ġcomplement ed
Ġstream lined
Ġstream lining
mean ing
Ġroman ians
Ġmurd erers
Ġfab ulous
Ġplural ist
Ġplural istic
Ġkh an
Ġmathe matic
Ġdiscrimin ating
Ġmanifest ations
Ġmuseum s
Ġinput s
Ġcollaps es
Ġreprodu ction
Ġfinger prints
global isation
Ġcompli ments
Ġexemp ted
Ġrandom ly
Ġmyth s
fl ow
Ġunwilling ness
Ġhind rance
Ġcorrespond ence
Ġaffirm ed
Ġattribut es
protect ed
fra ud
Ġtum ors
Ġfue ling
Ġcrack down
Ġmont real
Ġmaxim ize
ran king
trad ing
Ġkeynes ian
Ġprovin cial
Ġneglig ible
Ġgon na
Ġgreed y
Ġblan ket
Ġconfed eration
Ġfierce ly
islam ic
Ġdissemin ate
Ġflav or
Ġstif le
Ġcolumb ia
Ġvolcan ic
Ġfeat ured
Ġidi ot
Ġregen eration
Ġteleph ones
Ġdolph ins
Ġschizophren ia
Ġpour ing
Ġstan ford
Ġinexp ensive
Ġfest ival
Ġnin th
Ġovere st
Ã¤n en
Ġunsc rupulous
Ġphy si
blo od
Ġwij senbeek
Ġabdu ction
Ġendang ering
Ġsparse ly
Ġbottlen ecks
Ġstevens on
Ġirrig ation
Ġdiag ram
coun cil
dial ogue
Ġlal umi
Ġune ase
Ġubi quitous
Ġgibral tar
Ġquaest ors
Ġsj Ã¶stedt
Ġintract able
Ġcapp ato
Ġtand em
Ġinjust ices
Ġexod us
Ġcardiov ascular
2 4
4 4
a ard
a ving
b od
d ent
k b
l inson
m ers
m ails
p m
t isa
u pon
y on
z og
Ġw en
Ġs omeday
en sibly
Ġc ess
Ġc ough
Ġo li
Ġp ree
Ġp iz
Ġb ib
Ġf t
Ġf uss
Ġf ias
ou m
Ġan es
Ġd iving
ro ts
ro pri
ro bi
Ġand ean
Ġre built
il ly
il ia
il let
Ġwe iler
se lling
pe ts
ri ger
ith metic
res py
ir ut
Ġun qualified
Ġeuro med
Ġsh ots
Ġse aled
Ġex h
os ures
un ivers
Ġv end
Ġen ron
Ġen zy
Ġso ber
Ġj ugg
Ġor den
Ġhe b
Ġhe m
Ġab using
Ġli ps
con cil
Ġrep reh
Ġpe l
oc ating
Ġpl ates
Ġdis like
Ġdis bur
Ġup wards
wh ose
te ach
te lling
Ġexp iry
Ġexp osing
Ġexp ropri
Ġapp alled
Ġcons erve
Ġsa akashvili
Ġte l
Ġar row
ia h
Ġra f
ĠâĢ ¦
Ġsp ani
ric ate
Ġbo oms
Ġlo ading
Ġro lled
Ġacc using
Ġmat ernal
Ġgen om
Ġdirect ing
amp ed
not es
Ġhigh way
Ġref riger
Ġnu mb
Ġadd icts
Ġend lessly
Ġsi b
Ġown s
Ġher zog
Ġtal es
Ġban ner
Ġbu g
Ġaff lu
Ġtechn ocratic
Ġimpro per
Ġbus quin
Ġobject ivity
Ġsaf est
arch ing
Ġspeci ally
Ġunderstand ably
em u
Ġrese mble
Ġes c
Ġspecif ying
aps ed
Ġsing ular
Ġart if
Ġclo th
fin ished
Ġviol in
Ġpat ently
Ġpat ernity
Ġcong olese
Ġfl ame
Ġann a
euro pol
Ġmis placed
Ġce os
Ġbur gl
Ġer oding
Ġer df
Ġhon ored
Ġgra vit
Ġoil s
Ġver bat
Ġ9 1
Ġmus card
Ġ15 2
Ġdam asc
bo ards
Ġdi ary
Ġdi ame
Ġpaper work
Ġsan ct
Ġcandid acy
Ġrich es
Ġcritic izing
Ġara ble
aff ected
Ġrecon sid
Ġtemp ting
ber ger
pres idents
pro ject
Ġfoot steps
Ġsuperv ising
Ġrob bed
Ġoccup ies
sc apes
Ġquot es
put ting
Ġhost ing
Ġcr us
rep orted
Ġstra it
Ġpublish ers
Ġdream t
Ġforg iveness
Ġgrand parents
Ġinspect ed
Ġentit lements
Ġliter ary
Ġquar rel
see king
Ġpersu ading
Ġbrother hood
Ã¼ r
Ġstrange ly
Ġintens ification
Ġtom linson
Ġstream s
Ġcommand s
Ġken yan
Ġhat zid
col onial
Ġjeopard ize
Ġic ao
Ġpse udo
Ġdav os
Ġfab re
Ġkar zai
Ġdiver ted
Ġpul ls
elect ions
Ġvent ures
Ġdivers ified
Ġcrash es
Ġbow l
Ġunh cr
Ġauthoritarian ism
Ġvit amin
Ġjurisd ictions
Ġpestic ide
Ġcul mination
Ġmira cles
ifor is
Ġdestabil isation
Ġpap ua
Ġacute ly
Ġsensit ivities
Ġmi ke
Ã¡n dez
Ġintermedi ary
Ġtag s
Ġfur ious
Ġsmugg led
Ġbio eth
Ġobsc ene
Ġsant ini
Ġfol ly
Ġskept icism
Ġelev ated
Ġdinos aur
Ġhi ros
treat ment
Ġkat rina
Ġkat iforis
Ġreintrodu ce
imm igration
Ġscandina via
Ġdissemin ating
Ġcontag ious
Ġilliter ate
dog an
Ġsurf aces
Ġindiscrimin ately
Ġenqu iry
Ġschroed er
chair man
Ġhelicop ters
Ġcad mium
Ġvag ina
Ġdolph in
Ġfanat ical
Ġfanat ics
Ġperse ver
Ġdiscard ed
bud get
Ġadmis sible
Ġcarcin ogenic
Ġuc its
Ġperv asive
Ġinherit ance
Ġtheat re
Ġanatom y
Ġimpot ence
Ġmund us
Ġjuven ile
Ġindict ment
prop os
Ġintrans igence
fav oured
Ġconspic uous
Ġforci bly
Ġglam orous
Ġwilder ness
Ġrenow ned
Ġmcdon ald
curren cy
approx imately
argent ina
Ġconsec utive
Ġunbear able
Ġscaff old
Ġnichol son
Ġmeag re
Ġcongression al
tisa ari
Ġfias co
Ġrepreh ensible
Ġverbat im
Ġmuscard ini
Ġhatzid akis
3 8
b ri
b ner
c ry
d ie
g ender
h ir
h uber
k in
l ack
l ants
n ice
n ord
p ace
t u
t z
t te
y ans
z i
Ġ Ã¶
Ġ Ã¥
Ġa pe
in ternal
in tel
at to
at ollah
Ġw ag
Ġw oe
er or
Ġs id
Ġs chn
Ġs ins
Ġc ared
Ġo pel
it isation
Ġb ore
Ġb ak
or ms
Ġm oura
Ġm ps
Ġto es
Ġto go
ed ge
Ġh int
Ġh ipp
ar ting
ar gu
Ġd aring
Ġd ÃŃ
Ġd wind
ic an
th est
Ġn ai
Ġn aming
st eria
il der
il isation
Ġg ale
Ġg Ã¶
Ġst oring
ow itz
Ġha ck
ol ics
Ġy a
Ġal ps
Ġun iting
ad ding
im ating
op y
Ġse ated
Ġse oul
Ġex otic
li ving
Ġv angu
we ak
Ġch ef
Ġall ergies
us ually
Ġr asmus
Ġr oure
Ġimp lant
Ġres ide
Ġk a
Ġk on
Ġk ad
ak able
ll able
Ġad ul
Ġcont ested
Ġpe ers
Ġfa ction
ren ces
Ġout lining
du ced
Ġman power
iz ers
Ġapp reh
Ġco pper
Ġcons olation
og enous
Ġmar in
Ġmar ia
ine v
Ġra ft
Ġtra ced
Ġdem ograph
Ġsp ike
ip ts
Ġcl ay
Ġtw ins
Ġsub committee
Ġconf ines
Ġstate hood
ass ad
Ġnu isance
Ġmon arch
Ġadd icted
Ġquestion na
Ġdef iciency
itiz ation
Ġhel m
Ġher b
Ġgu ides
Ġprotect ions
Ġview points
bal gs
Ġset back
Ġban otti
chie f
Ġtransp lants
Ġcol oss
Ġform ulas
Ġdown s
ef a
Ġsch Ã¶r
Ġem ails
uc king
Ġcor p
Ġir rad
Ġproduct ions
Ġread just
Ġed ition
Ġfound ers
Ġbusiness man
Ġcreat or
Ġca pe
Ġca fe
Ġbar rels
Ġret ic
Ġenc roach
Ġrece ipts
Ġkey board
Ġtimes cale
Ġbur ns
Ġty ph
Ġemphas izing
Ġhold er
Ġparticip ant
Ġlight ning
ple x
Ġharm ing
Ġcirc ulating
Ġge ological
Ġpost war
Ġ8 3
Ġfair y
Ġver b
Ġtest ify
reg ions
Ġorigin ate
Ġland scapes
Ġlos er
Ġport al
Ġred ouble
Ġcross es
Ġill s
Ġill um
ex ternal
ex plan
Ġprepared ness
Ġtrust ing
Ġpie balgs
Ġsubstant iated
sec ret
Ġunaccept ably
Ġrein vig
Ġsen ators
Ġcat ania
Ġcha mbers
cl oser
Ġsun set
Ġcontract ors
Ġrob otic
Ġ14 5
Ġprospect ive
sc re
Ġpra ying
Ġcommunic able
Ġrele asing
mon etary
cons umption
Ġprotest ant
part icip
Ġbomb ard
Ġ197 8
Ġx x
Ġradical ism
Ġsell ers
Ġfavor ites
Ġmc guin
Ġgold stone
Ġali ens
Ġpredict ability
Ġpatent ing
Ġbattle field
Ġrh ine
Ġimper atives
Ġreass urance
Ġfer ry
Ġclin ics
Ġexpansion ary
Ġadm its
Ġadm ired
Ġmagn etic
Ġawa its
Ġhal ted
Ġkn ocking
Ġdepri ving
rap id
Ġmit igating
Ġchief s
Ġdan es
exist ence
Ġmart ens
Ġdiver gences
Ġplural ity
Ġresort ing
Ġconven e
Ġreward ing
Ġmarginal ized
Ġassert ive
Ġattain ing
Ġcarri age
Ġbath room
bul garia
Ġheight ened
Ġnomin ate
Ġtail or
Ġchile an
Ġtor res
urg ent
Ġadh ering
Ġstagn ant
Ġsli pped
Ġentail ed
Ġextract ive
Ġjac ket
Ġinterconnect ions
Ġlap tops
simp lif
Ġtank er
Ġnap olit
Ġrecur rence
Ġaver ted
Ġresid ues
Ġpatri otism
Ġspons ored
Ġkilomet re
Ġbless ed
Ġschol ar
Ġak p
Ġbasel ine
Ġbudd h
Ġelev enth
Ġeru ption
Ġcanc un
Ġuncond itionally
tar iff
aks in
repres ented
Ġdrow ning
Ġunc overed
Ġthr illed
Ġaven ue
Ġaven ues
techn ical
Ġ192 9
Ġdent ist
supp ose
disc ussions
fam ily
Ġay atollah
lis bon
maj or
enter prises
Ġbhut an
Ġsed u
Ġworksh ops
syste m
Ġpon der
Ġvoy age
Ġbeliever s
Ġcush ion
Ġappend ix
Ġtomat oes
Ġdisplace ment
Ġbah rain
Ġtow ers
Ġcomed y
Ġrou ge
onge vity
Ġvehement ly
Ġsegreg ation
Ġempir ical
asil in
Ġchal k
Ġkall as
ÄŁ an
Ġthwar ted
Ġplum met
Ġcommuniqu Ã©
aub respy
Ġethn ically
Ġmcn ally
Ġentrop y
Ġsib eria
Ġpersever ance
Ġrasmus sen
ĠschÃ¶r ling
Ġnapolit ano
8 00
b ag
c d
c at
e ye
f erence
g ling
g old
k k
m ile
m erc
n c
n d
r ural
s sel
s arkozy
t oc
t arge
w aste
z abeth
Ġt icking
Ġt ips
Ġa ch
Ġa ig
Ġw itch
Ġw rap
er ations
Ġs ain
Ġs Ã¶der
en ough
Ġc ed
Ġc ds
Ġp m
Ġp airs
Ġp omp
Ġb ach
Ġb olog
or us
Ġm ous
Ġm au
al it
al ay
ed es
Ġh umb
ar ist
Ġe li
le m
th ood
il and
Ġi ra
Ġi bra
Ġl ender
Ġl ongevity
id y
Ġst en
Ġst all
Ġst ern
Ġha voc
Ġal ten
Ġal ga
Ġde ceptive
ri r
ri min
ch witz
Ġne ander
Ġun competitive
Ġun conscious
Ġeuro pa
im medi
op athic
Ġsh ir
Ġpar ked
Ġv iv
we alth
Ġen cycl
so ld
Ġle ather
Ġcan al
Ġr ic
Ġr ust
Ġor anges
Ġint imate
our ished
ac on
ig l
Ġrep udi
Ġrep licate
Ġpe at
one l
Ġfa cial
ud ed
Ġdis respect
Ġdis pel
Ġdis quiet
Ġout stri
Ġri p
Ġri ft
Ġact a
Ġcomp iled
Ġinc itement
ru th
Ġar ithmetic
Ġra iny
Ġsp y
Ġper f
row ing
Ġtrans ist
Ġmat ri
Ġgroup ing
rat ives
not withstanding
Ġhigh lands
Ġmon archy
Ġdef ective
Ġma id
Ġ19 0
Ġcar p
Ġsc o
Ġsc old
Ġaff ront
Ġcommon place
Ġdon ald
Ġbeh old
Ġplace ment
Ġsol bes
Ġfra ught
Ġem ble
Ġem itted
Ġap ocal
Ġthank fully
Ġwhe els
Ġfish ed
Ġpract icing
Ġcare less
Ġstruct urally
Ġsw ine
Ġret ina
Ġger hard
Ġfl own
do ÄŁan
af ield
Ġclose t
ordin ary
Ġmor ph
Ġmilit ants
Ġvis ibly
Ġsou ls
Ġ6 9
Ġer ode
Ġer dogan
Ġpal li
Ġprogramm ed
Ġdesign ate
Ġvict ories
Ġten ure
Ġve al
Ġ9 4
sp ot
sp ending
Ġec j
Ġgl orious
Ġbi oc
Ġbi osphere
Ġgreen er
Ġmodern izing
Ġrepe al
Ġimpos sibility
Ġdebt or
Ġdebt ors
Ġcand y
Ġcand le
ex amp
Ġnorth west
Ġflo at
Ġflex ibly
Ġimag ing
Ġcal ib
Ġcal ories
Ġexam s
Ġpoll ute
pres ent
Ġmal es
Ġbul b
Ġbul lets
Ġmer ge
Ġmig uel
Ġwarm th
Ġinvestig ative
Ġdeleg ate
rest rial
Ġhy steria
Ġauthor ization
Ġcontract ed
ta iwan
Ġcra dle
Ġcra cks
Ġoccup ations
Ġquot ing
year s
respon sible
ij k
Ġdream ing
Ġcomplic ity
Ġ17 5
Ġintellig ently
Ġtro op
Ġforg iven
Ġadapt ability
part ners
Ġ197 1
Ġinspect or
Ġisol ating
comp are
Ġcast e
Ġoptim ise
Ġfat alities
Ġnar ratives
Ġtransl ates
Ġbrid ging
Ġcamer oon
Ġfrank lin
Ġreiter ating
Ġmobil ising
Ġmobil ization
Ġflood ed
Ġmotor way
Ġmotor ways
Ġalarm ed
Ġwaters hed
Ġbol st
think ing
Ġpil g
Ġapprox imation
bl own
eff orts
Ġremed ied
hear ted
.' "
Ġneglect ing
Ġmurd erer
Ġliber ated
Ġaccomplish ments
person al
Ġhair cut
human itarian
Ġdefault s
Ġtast ed
Ġah tisaari
Ġsupre m
Ġassert ions
Ġcab otage
opol itan
Ġsequ ences
Ġhell o
Ġdisrupt ions
Ġshel ves
Ġsubstit utes
Ġgrasp ed
Ġtreas ure
Ġcalm ly
Ġinterrupt ion
high er
Ġadvent ures
writ ing
invest ors
Ġembarrass ment
Ġdeflation ary
Ġattribut able
palest ine
Ġassass inated
Ġalien ated
Ġunch ecked
Ġintimid ated
polit ics
Ġbeha ves
Ġrect ified
Ġresid ue
Ġpatri arch
Ġspons or
Ġgrab bed
Ġderiv ative
Ġven ice
Ġpir ates
Ġhinder ing
Ġanch ored
Ġencompass es
Ġsymmet rical
Ġdiscretion ary
Ġembod ies
Ġhaul iers
Ġkidn apping
hy d
Ġbric ks
Ġcarl os
Ġstun ned
Ġros sa
Ġunle ash
ser ious
exam ine
Ġvolcan o
Ġangel illi
Ġinsure d
Ġintrins ically
Ġmd gs
Ġost ensibly
lar gest
Ġcort ex
Ġalph abet
Ġcolleg es
Ġoligarch s
Ġdelu sion
aze era
Ġeleg ant
Ġparam ilitary
stant ial
Ġabys s
Ġkilog rams
Ġgriev ances
Ġerrone ous
Ġoutsour cing
nin ety
portug al
Ġmisfortun e
Ġbuch arest
Ġmarath on
jour nal
Ġfod der
Ġplast ics
Ġinextric ably
intention ed
Ġlalumi Ã¨re
Ġpiz za
Ġdamasc us
Ġgale ote
Ġvangu ard
Ġencycl op
. âĢĻ
4 00
a ak
a ires
b os
b irds
d av
d oub
d ata
d rs
f ut
f ired
h app
j am
k osov
l ost
m ount
p ur
r ice
v s
v acc
Ġth ai
in ative
in tegration
re me
Ġw rest
Ġw aging
is o
Ġs igh
Ġs ino
en ic
Ġc mo
an ct
Ġm Ã¼
Ġf id
Ġf ay
Ġf iji
Ġin ali
al cul
Ġan a
ar ial
Ġd v
Ġe ts
th ur
Ġre ced
Ġre app
Ġre dep
Ġbe lo
st on
Ġg ah
Ġl ure
Ġl apse
Ġwe u
Ġwe ars
ur b
Ġcom ic
Ġst air
Ġst oning
Ġha y
Ġy ards
Ġde le
ul ators
Ġne lson
Ġun war
Ġcomm enced
pp Ã¤nen
Ġse ppÃ¤nen
and re
Ġpar ish
Ġgo ats
Ġch lor
et ti
us c
Ġso ap
Ġr ans
Ġr udi
Ġr yan
Ġj ams
Ġhe ars
Ġhe ck
Ġab er
Ġab atto
out i
Ġus age
Ġmust er
Ġad s
ous ing
ab y
ab el
Ġpe asant
oc u
vel ing
Ġri ot
Ġact ress
Ġwork places
Ġreport er
Ġyear ning
ag erial
Ġcons ign
Ġsa ves
Ġar k
Ġev ils
Ġmar row
Ġdec ency
Ġunder valued
Ġob ese
Ġind iv
Ġover arching
Ġlo vers
Ġlo aded
ang led
Ġstr ides
Ġlong standing
Ġmon ks
Ġla z
Ġuse fully
Ġdef icient
Ġma es
Ġemp eror
Ġcar ic
Ġsm et
Ġsm iles
Ġbr un
ail able
Ġview ing
Ġsc aling
Ġsign alled
Ġbu zz
Ġbu enos
cip linary
Ġhim alay
Ġcent ered
Ġcompet itor
Ġcap s
ten ing
Ġmed al
Ġdon ated
isl av
Ġinf lam
Ġfra mes
Ġlegisl ating
Ġgr ind
Ġsch um
Ġsch wab
ater ial
ph y
Ġdep rez
Ġthank ful
iti us
ros anct
Ġvi kt
par ad
eng er
Ġtax ed
Ġel apsed
Ġpeace keepers
fort y
Ġactiv ate
Ġsumm ed
Ġair bus
Ġfight s
Ġbel li
Ġbel ts
Ġperiod ically
Ġz ed
cent ric
az ir
Ġopt ical
Ġindepend ents
ash a
Ġgener ator
Ġori ented
Ġgra ves
cri pt
Ġpa asilin
Ġ8 8
Ġdest it
Ġmet abol
sh ame
Ġfig uring
dem and
Ġdisp ense
Ġdi arr
Ġred irect
Ġred wood
Ġhun ter
Ġrad ar
Ġrat s
every where
Ġche ated
Ġche que
oph er
Ġsecret ly
cer ity
ber ian
Ġcomput ation
Ġhistor ian
Ġislam ism
Ġdr illing
Ġtack les
pro c
Ġanti qu
Ġpenal ising
Ġpath etic
Ġship ment
Ġship ments
Ġship owners
Ġhar ry
fe eding
Ġdy n
Ġsize able
Ġexec ute
Ġ17 0
Ġresist ing
mos cow
Ġassemb lies
Ġcub ans
Ġaccident ally
Ġbelarus ian
Ġphenomen al
comp ens
Ġrestruct ured
Ġsell afield
tra ining
Ġenforce able
Ġcore per
Ġvig our
Ġmac artney
Ġmark er
Ġsac rosanct
Ġadmit ting
Ġted talk
Ġreserv o
Ġcollabor ating
Ġvan ished
Ġrecall ing
Ġreiter ates
Ġpunish ments
Ġcrow s
Ġmultip lied
Ġdub ai
Ġfran Ã§ois
Ġdetect or
jud icial
jud ging
Ġfem ales
Ġanx ieties
Ġstream line
vi able
Ġindis put
fall s
Ġdiagn ose
ns ch
Ġsand wich
connect ed
Ġmanip ulating
book s
elect ric
Ġlag s
br ush
Ġmouth s
Ġhusband s
american ism
Ġrot ten
Ġnic kel
Ġredund ancy
Ġmarginal isation
fur t
Ġvenezuel an
Ġmaster y
Ġstup idity
Ġutil ities
prof ile
Ġparadox ically
Ġshoot s
Ġmisle ad
Ġdiam etric
Ġsli pp
esty les
Ġbiote chn
Ġpand ora
Ġmi ert
Ġgraph ics
Ġlev ies
Ġlev ied
Ġjar gon
Ġaffirm ative
Ġmush rooms
sighted ness
Ġpremature ly
Ġdegrad ed
Ġacced ed
Ã§ a
Ġharass ed
Ġnap les
Ġprec urs
Ġescap ing
exper ts
Ġskept ics
Ġdeploy ing
Ġassault s
Ġrender ing
beh ind
Ġhi ke
Ġdiscred it
Ġmaur itius
Ġdeposit ors
Ġvirgin ia
Ġ140 8
Ġari as
Ġscream ing
Ġinad vert
Ġunden iably
Ġeman cip
Ġhandic ap
Ġastronom ical
serv ices
Ġstig ma
Ġcharm ing
Ġanomal ies
Ġeste emed
Ġlee way
Ġbog ged
Ġimpl ants
Ġdeport ation
Ġbhut to
Ġpow der
ĠÎ µ
pric es
Ġdismay ed
Ġrelent less
Ġassimil ation
Ġconfig uration
Ġlah ti
Ġseiz ure
Ġimpract ical
ĠhÃ¤ nsch
Ġasth ma
Ġdiame ter
Ġhiros hima
Ġnai robi
Ġmcguin ness
toc in
ĠsÃ¶der man
Ġbolog na
Ġibra him
Ġalten er
Ġalga e
dav id
Ġinali enable
Ġpaasilin na
2 3
4 1
6 5
a is
c ats
e w
e ge
f il
g art
h c
j oin
k atell
l od
l ords
n umerous
n ets
o pportun
r h
r ank
s ignificant
t otal
w id
w arm
Â °
Å Ĥ
Ġt res
Ġt ach
in ch
re forms
at temp
er d
Ġc ress
Ġc ured
Ġo mn
Ġo etting
Ġp es
Ġp und
Ġp ork
an na
Ġb ren
or iously
Ġm p
ou ri
Ġin mates
Ġan ach
Ġh ates
Ġd orm
Ġd azz
le ans
le ban
Ġre cept
Ġre defined
Ġre ceptive
Ġre opened
ve t
om fort
Ġbe ast
st al
st rict
Ġg ni
Ġl ing
Ġl un
Ġl ining
se ated
Ġit er
Ġst ing
ol s
ol ves
Ġal varo
ra h
ra il
ul in
ay ann
ill ions
Ġme te
Ġun not
Ġun mist
Ġun fulf
ter rey
Ġsh ah
Ġsh aky
Ġse gments
Ġex or
Ġch i
Ġcan yon
et t
ist ed
Ġwas tes
Ġr ation
Ġr ash
Ġimp aired
Ġj in
Ġj oking
Ġj ensen
Ġj azeera
Ġor ally
Ġor leans
Ġres h
Ġthere after
end a
out side
Ġpol ledo
Ġk abil
Ġint angible
con ventional
de l
ll ari
um ines
Ġcount ies
Ġpe ar
Ġdis ney
Ġcomp art
Ġman agerial
Ġunion ists
te lla
Ġyear ly
ag os
Ġcons cient
he w
Ġmar ie
Ġhow ard
Ġra cing
Ġany time
Ġspe ar
Ġsp ade
Ġinv itations
Ġover turn
Ġleg o
ath ed
Ġho ol
Ġrem ot
Ġref ined
Ġdisc ord
Ġdisc omfort
art in
Ġma ij
Ġtur b
Ġtur mes
ob o
Ġher ring
olog ues
ty p
cond itions
Ġinter mod
Ġinter regional
wor n
ne igh
Ġcol onel
Ġtechn icians
Ġprin ter
Ġlif estyles
Ġsch Ã¼
Ġ20 25
Ġris king
Ġnor theast
Ġbl ak
Ġbl asp
Ġap es
Ġsur rend
Ġwish ful
Ġequ ations
Ġins uff
she ll
gg en
gg ish
gg age
Ġproject ion
let t
Ġpo ems
Ġtechnolog ically
Ġfac ult
Ġsing led
ib ia
do ctors
Ġhome owners
Ġbank er
Ġsl am
Ġpal m
Ġeur lings
Ġident ifiable
Ġlight weight
Ġamb ul
Ġcirc ulated
edi ence
Ġfinal ise
Ġve ld
Ġver ified
20 20
sh all
Ġmass ively
Ġcamp us
Ġbi ologist
Ġmodern ised
Ġmodern ize
Ġhun ters
Ġill ogical
Ġste ak
ton y
Ġsea water
Ġmist reat
Ġvo j
Ġstri fe
Ġcop ing
Ġsens ing
Ġsepar ates
pol ar
Ġcou ps
med ia
Ġ198 2
Ġauthor itative
Ġdiplom as
Ġdefence less
Ġlu ggage
Ġlog ging
Ġfil ip
Ġ14 9
Ġton ne
Ġpakistan is
Ġnice ly
ene y
Ġstra its
Ġfif a
Ġattract s
Ġbon de
Ġfederal ists
cont inent
Ġsubsidi aries
Ġadvoc acy
Ġterri fic
Ġcourage ously
Ġcondition ing
Ġprotest ed
Ġconce aled
Ġvari ables
commun ication
Ġjournal ism
Ġhospital ity
back ed
Ġvill agers
Ġtransl ator
Ġbed s
Ġgold man
Ġod ys
bel arus
Ġdiscip lined
Ġsake llari
Ġsight s
Ġdub bed
Ġphotograph ed
Ġmold ovan
Ġmicro phone
Ġkeen ly
Ġkh mer
Ġvoc ation
Ġfasc ist
Ġinvent or
Ġah ern
Ġbroadcast s
Ġrush ing
Ġenshr ine
Ġprosecut ing
Ġdismiss al
Ġsoc ks
Ġbreed s
Ġband s
Ġcath ed
Ġburdens ome
global ization
Ġ195 7
Ġpit tella
tal ks
Ġmcc artin
invest ing
Ġoxy tocin
ell hardt
Ġpap ayann
Ġtrigg ering
Ġsin ister
Ġethi opian
Ġinfl ated
gener ational
gener ated
Ġstret ches
Ġinsult s
anas ia
protect ing
Ġpoison ed
Ġpoison ing
Ġpoison ous
Ġregain ed
cot ics
Ġhang s
Ġrival ries
Ġrecur rent
Ġferre ira
Ġaqu atic
Ġspons ors
Ġinfin itely
Ġgro cer
Ġcosm opolitan
Ġteen ager
Ġadvers ity
Ġdrag on
Ġorthodox y
Ġimplicit ly
Ġteles cop
Ġhub ris
ref erence
Ġanno ying
Ġlen in
Ġpeters berg
Ġmonu ments
Ġmonu mental
Ġfertil izer
brid led
Ġflav our
Ġritual s
Ġphysic ists
Ġko z
Ġspontane ously
Ġadvertise ments
Ġmast ered
Ġaggress ively
Ġblunt ly
Ġeuroscept ics
mass ive
Ġconting ency
maj ority
Ġther mal
Ġartic ulate
dig it
Ġmultif unction
psy ch
effect s
hon ourable
Ġmeg aw
Ã¸ rg
Ġpromin ence
coordin ated
Ġlaps es
Ġvic inity
conserv ative
aud ience
Ġtramp led
Ġreleg ated
rev olution
Ġunb und
Ġtub es
Ġanten na
unci ation
Ġarbitr arily
Ġjelly fish
Ġpean uts
Ġinse parable
Ġguarant or
Ġsaud is
Ġtah rir
Ġcess ation
nord ic
Ġschn ellhardt
Ġcoloss al
Ġsuprem acy
kosov o
Ġunwar ranted
Ġvikt or
Ġdiarr he
Ġdiametric ally
katell is
Ġtres pass
Ġoetting er
Ġanach ron
ĠschÃ¼ ssel
Ġsakellari ou
Ġpapayann akis
Ã¸rg ensen
) (
1 3
2 6
6 00
8 9
] ,
b irth
c ling
c ov
d ain
d et
e ks
g ers
g am
g ical
h m
h it
h uge
h enko
l ower
m w
m oon
m igration
n ard
o z
p ern
r c
r ules
t ts
t ok
t ances
u ant
u Ã©
y ield
z h
Ï Ħ
Ġt se
Ġt ud
Ġa ar
in v
in ke
re la
at ter
at tering
Ġc av
Ġo ust
Ġp icks
Ġb lix
Ġm um
Ġm acc
Ġf li
Ġf aint
al ban
Ġan emic
Ġh ig
Ġre ver
as er
Ġbe ver
Ġbe irut
Ġl d
Ġu f
Ġu m
se ts
ur ban
Ġpro be
Ġpro state
Ġha ke
Ġcon n
ra ble
Ġde em
the ws
Ġeu th
Ġnot oriously
Ġne arer
Ġun welcome
Ġun finished
Ġun reported
Ġun bridled
Ġsu pers
Ġsu pern
ter ritorial
op tim
Ġsh alit
Ġse ism
li fer
Ġpar cel
Ġv ase
Ġv idal
ich ester
we ap
we ggen
Ġle aked
Ġgo ose
Ġch op
Ġch unk
Ġch ichester
Ġcan e
Ġpres erves
Ġr ut
Ġj ou
Ġj eg
end ijk
Ġab ortions
Ġcommission s
Ġk i
Ġk r
Ġk lam
Ġk ovÃ¡
ac a
all o
Ġpresid ing
Ġac res
Ġno x
lo gy
ear th
Ġpl ague
Ġdis sip
Ġdis engagement
Ġdis dain
for get
Ġcomp act
Ġinc alcul
Ġstates man
Ġexp ulsions
Ġco financed
are z
Ġsa vers
Ġte leg
he my
ach use
Ġra ined
Ġra mos
ase an
Ġunder foot
Ġtra gically
Ġtra katellis
Ġsp er
Ġsp oil
ind ones
Ġbo iling
Ġover st
Ġover see
Ġover capacity
Ġcommit s
Ġeven ly
Ġclear ance
Ġmat er
Ġstate less
ass uming
Ġmay nard
Ġmon str
Ġcountry men
ves o
rough ly
art a
Ġma pped
Ġdes erving
Ġass erts
Ġprotect or
Ġcar ol
Ġcar ved
Ġcar tel
Ġsm iled
cond ition
Ġbr unt
Ġview ers
Ġinter tw
Ġwar heads
Ġcol ored
Ġcol ours
ten stein
Ġlit igation
Ġtechn ocrats
Ġinf ancy
Ġmod us
Ġmod alities
Ġgr ids
ph ones
Ġbl ink
Ġsur gical
Ġinde c
Ġins iders
ys ical
Ġfree ing
Ġmight y
Ġdist orts
Ġstar ve
Ġbro ch
Ġess ay
Ġviol ently
Ġhist ories
Ġret ard
Ġreform ists
Ġfl ush
where ver
Ġcentral isation
Ġprevent able
Ġann ul
Ġstat utes
Ġid ly
Ġty mos
Ġconsequ ent
Ġer doÄŁan
az ard
Ġpal p
den omin
Ġwa x
Ġmult im
Ġobs erves
orm ick
Ġ8 4
Ġdeep ened
Ġve t
sh ar
sh aped
Ġmass achuse
Ġsuper b
sp oken
Ġclos es
bor g
Ġasse mble
rad es
Ġwaste ful
Ġcomplex ities
pre viously
Ġeth os
ix ed
Ġclass rooms
Ġpolice men
Ġrenew ing
Ġcop ied
pro per
Ġmig rate
Ġcell phone
Ġbuy er
ann i
Ġ18 5
Ġcommer cially
Ġsun k
Ġslo pe
Ġbush ill
Ġarr anging
Ġfil ters
Ġton nage
Ġtre ason
Ġcooper atives
Ã¶ t
Ġcomplain ant
Ġpra yer
Ġcro cod
Ġchem otherapy
Ġstra ined
Ġder ail
Ġhom age
Ġintention ally
Ġautom ated
Ġadapt ations
Ġut opia
Ġ197 7
Ġcoast line
Ġarch ives
Ġpleas ing
osp ace
Ġremo ves
Ġcast s
Ġdark er
Ġgaz e
Ġpsych o
Ġswe ater
Ġsearch ed
Ġspect er
Ġment or
Ġrational ity
Ġmountain ous
Ġblind ed
Ġcoff ers
Ġperpet uate
Ġupd ates
Ġfault y
Ġshi pped
col a
Ġic ty
Ġkar am
Ġenlar ging
Ġrecy cle
Ġecho es
Ġecho ed
Ġdur ban
organ ized
Ġconven iently
Ġmanifest ly
Ġlag endijk
Ġcomfort ing
Ġinvent ing
Ġinvent ors
Ġprescri ptions
Ġ194 7
Ġ194 8
Ġbow e
Ġreloc ate
Ġcab rol
Ġcatal an
Ġattain able
inter rupt
Ġmathemat icians
Ġinstruct ive
Ġexacerb ates
Ġcoinc ides
Ġmira cul
Ġcath olics
Ġtribun als
Ġreme mbers
Ġmel ted
Ġremit tances
Ġsin cerity
Ġmagaz ines
list ening
Ġtag ged
kh ope
Ġlobby ists
soon er
Ġcomparative ly
Ġaver sion
Ġaer ospace
Ġemotion ally
Ġnit rates
Ġpriorit ised
Ġsatur ated
cop enhagen
Ġ193 3
Ġhurric anes
Ġcontempl ating
Ġobstruct ed
Ġelectron ically
Ġaus chwitz
Ġinadequ acies
Ġanonym ity
Ġindul gence
nar rator
poll uter
Ġselfish ness
Ġslu ggish
Ġef d
Ġmonu ment
Ġterrif ied
Ġlament able
exam ined
Ġsty les
Ġkir khope
Ġcolumb us
Ġconqu ered
Ġerect ed
Ġmiscon duct
Ġcher ry
Ġscrutin ise
Ġcous ins
const ruction
lab our
Ġathe ist
Ġincompet ent
Ġpsychiat ric
Ġshout ing
Ġpunct ual
Ġimprov ise
Ġinexp lic
Ġinaug uration
Ġleak age
Ġworksh op
Ġconsci ences
Ġconsci ously
Ġeh ud
Ġafflic ted
fed eral
Ġingen ious
Ġorb Ã¡n
Ġcalam ity
hung ary
Ġwra pped
Ġarist otle
Ġblur red
counter fe
Ġaeropl anes
Ġoverhe ating
Ġineffect ual
Ġnutri ents
Ġkib aki
Ġglaci ers
corpor ate
Ġscapego at
thet ics
proble ms
Ġepidemi ological
Ġbret ton
Ġdissol ve
Ġmetropol itan
scot t
Ġbundes bank
purs uant
inev itably
examp les
Ġtach ograph
Ġcress on
Ġunnot iced
Ġunfulf illed
Ġkabil a
Ġklam t
ĠkovÃ¡ cs
Ġincalcul able
Ġmonstr ous
Ġtymos henko
Ġmassachuse tts
" ?
7 7
a ves
b ak
b issau
c ustom
c inct
c ritical
e ous
f ine
f aire
j ah
k ore
l os
m ah
n ation
o ys
o Äį
p ot
s b
s qu
s us
s ource
s ax
t ens
y ang
z hen
Ã ¦
Î ±
â Ļ«
Ġth under
Ġth aksin
Ġa eg
Ġa ided
Ġa wards
in teg
Ġthe sis
is i
Ġs ow
Ġc is
Ġc ries
Ġo min
Ġo ven
it iveness
Ġp om
an al
Ġb light
Ġf p
Ġf red
Ġf ences
Ġf ateful
al ba
Ġan ecd
Ġh ers
Ġh ug
Ġh ats
Ġd as
Ġd iana
Ġd dt
ro it
ro ck
ent e
le an
Ġn an
Ġn un
Ġn umer
Ġre hear
Ġbe gging
st ra
il a
Ġg ur
Ġl id
Ġl loy
ment ation
Ġst aged
Ġpro pe
Ġpro stit
Ġpro lifer
Ġha iled
Ġal umin
ri e
ul ing
ke ting
ay ev
ill o
gh i
Ġnot icing
ir respective
Ġme ga
oun tain
Ġeuro c
op us
Ġse veso
li able
un ks
Ġv oid
Ġle aks
mb led
Ġch au
Ġch uck
âĢ ¢
Ġall ay
us ers
Ġr ud
Ġimp lements
Ġimp ediment
Ġj Ã¶
Ġhe els
Ġthere of
Ġab raham
Ġli king
Ġk g
ac ent
con stitutional
ig ent
Ġpe res
Ġac oust
Ġfa res
Ġdis ob
Ġri fe
du ous
now here
Ġup stream
Ġprop he
ens uring
Ġar duous
ok o
Ġmar vell
Ġbet ray
Ġjust ifications
ine e
Ġdec k
Ġspe lled
Ġspe lls
Ġdem arc
Ġsp ills
Ġper nic
Ġind us
und oubtedly
Ġbo ots
Ġbo oth
Ġover seeing
Ġro the
act ing
act iv
Ġprov oking
Ġbas ing
Ġgen oa
Ġwell s
Ġfinan ci
Ġnu anced
Ġmon ol
Ġmon terrey
Ġla und
man ufact
ile aks
Ġ19 00
Ġbu gs
ne ut
Ġcent red
Ġinstit uted
Ġcompet encies
Ġsuc cinct
Ġdon ate
Ġfore cl
Ġdown right
Ġdown stream
Ġdown grad
Ġprin ts
Ġameric as
Ġfra ga
Ġsch uman
Ġdep orted
Ġest onian
Ġta pping
Ġcor als
my anmar
Ġvi i
Ġben evol
Ġposition ing
âĢĿ .
Ġstep hen
Ġpract icable
Ġeas ter
Ġpur ple
Ġpo ppy
Ġdist ressed
Ġcreat ors
Ġca usal
Ġsw ap
Ġsw ings
Ġstart ling
Ġsumm ers
Ġfl ax
af o
Ġcomb inations
Ġessential s
Ġchar ities
Ġbel ly
Ġz ip
Ġ10 5
Ġer ratic
Ġpot oÄį
Ġ201 8
Ġdraw backs
Ġgener ously
Ġgra des
cri be
Ġcirc us
Ġjud icious
Ġeast ward
Ġpa ving
Ġinnov ators
Ġprep ares
Ġseem ing
Ġsk irt
pr ud
Ġlink oh
Ġport rayed
Ġgl ue
Ġrepe aled
Ġaut ism
Ġteach ings
Ġlearn s
Ġ30 8
Ġimag ining
Ġimag inary
Ġcod ification
dom estic
Ġclass ify
Ġsal vation
Ġtemp oral
Ġneighbour ly
Ġconduct or
pol i
ureau c
Ġmig uÃ©
Ġmut ations
Ġchair ing
Ġexplo sions
Ġblack list
Ġcover t
Ġbra ke
Ġrepl aces
Ġauthor isations
Ġship w
Ġsex y
Ġpred ator
Ġpush es
urd y
Ġconserv atism
Ġcompens ating
Ġwealth ier
Ã¡ r
Ġfraud sters
Ġoct opus
Ġwid est
Ġhom o
Ġhom ogeneous
Ġbon temp
Ġhur ting
Ġcub e
Ġfire works
Ġquant ified
sk illed
Ġsqu ab
Ġradical isation
spe ak
Ġcard board
Ġfaith s
Ġmag ist
Ġmag ician
Ġfort night
Ġproc lamation
Ġos ama
Ġsusp ending
Ġcheap est
Ġsympath ise
Ġluck ily
ky oto
Ġintens ifying
Ġearn s
Ġequival ence
Ġvac ant
Ġtrip led
bl ue
Ġsoil s
Ġaspir ing
Ġnarrow ly
Ġdisplay ing
Ġshut ting
Ġgun shot
exist ing
col m
Ġmart ÃŃ
Ġrhetor ical
Ġacquis itions
Ġdiver ge
Ġfrust rations
Ġq e
Ġresort ed
Ġsn akes
ba o
Ġmanifest o
Ġconve ying
Ġjump ing
Ġrot ate
pa ul
vis ual
Ġreloc ating
Ġadequ acy
Ġaccommod ating
hist or
run ning
Ġseason s
Ġutil ised
Ġpit iful
Ġhesit ated
Ġreaffirm ing
Ġcambod ian
aust ria
Ġrw andan
Ġinsult ing
Ġinject ions
Ġtheore tically
Ġjail ed
Ġalien ation
Ġexhib it
Ġstalin ism
Ġfue lled
Ġdeval uations
Ġspin elli
Ġsant os
Ġadj acent
Ġanalog ous
Ġcrush ing
Ġfol k
Ġrestrain ts
Ġprec lude
Ġbee keepers
Ġcyn ically
Ġhill ary
Ġinflic t
Ġastr onaut
Ġempower ing
sing le
Ġasymmet rical
Ġclust ers
Ġamp lif
Ġwolf owitz
Ġfib res
Ġencompass ing
play ing
Ġsanction ed
Ġcurtail ed
Ġcurtail ing
temp orary
Ġinterl inked
Ġhumili ated
Ġstub b
Ġcoach es
impro ve
redu ction
Ġski ing
Ġstrand s
consid ering
Ġspark ed
Ġpenet rate
Ġreson ance
Ġeditor ial
Ġker ry
bring ing
Ġseparat ist
bers pace
Ġschizophren ic
mil k
independ ence
Ġgau ge
Ġproph et
Ġnep ad
Ġconfisc ated
Ġadmis sibility
sit uation
Ġmant ra
Ġrevel ations
Ġportra it
Ġheral d
Ġpromin ently
Ġhorrif ied
Ġhorrif ying
Ġskelet on
Äĥ u
Ġxia obo
isse z
Ġintrig uing
Ġculprit s
Ġmaat en
Ġdesc ended
Ġdisappro val
Ġtransc ends
comput er
Ġtox ins
Ġump teenth
Ġmoham med
Ġaltru ism
Ġuncomp rom
Ġplag ued
Ġprist ina
Ġlifes pan
Ġdistill ation
Ġpige on
ĠpÃ© rez
paralle led
Ġoutra ged
Ġconsort ium
Ġtyph oon
igl ione
mount able
parad ox
attemp ts
Ġpund its
Ġblasp hemy
Ġmultifunction al
Ġunbund ling
Ġdiarrhe a
tok yo
Ġeuth anasia
Ġjeg gle
indones ia
Ġaeg is
ĠjÃ¶ ns
ĠpotoÄį nik
Ġlinkoh r
ĠmiguÃ© lez
Ġbontemp i
7 00
8 5
? !
a qu
b in
b able
b ling
b ler
b ilateral
c ke
d ers
f irm
g ant
h le
h ang
k ay
k os
l ass
n om
n ig
o en
o ij
p ros
s un
s ave
s ounding
t ob
t enth
t oler
v ir
w ent
x on
Å ĳ
Ġ ion
Ġt u
Ġt es
Ġt il
Ġt ending
Ġt ipping
Ġth ro
Ġa i
Ġa pport
in duced
re view
at ical
Ġw oes
Ġw retched
Ġs r
en so
Ġc ep
Ġo u
Ġo un
Ġp Ã¶t
Ġb p
Ġb av
Ġb amb
Ġb mw
Ġm alf
Ġm ullah
Ġf ame
Ġf ade
Ġf bi
ion age
al as
al ina
al igned
Ġan ne
Ġan ew
Ġh ul
Ġh ens
Ġh inges
ar ray
Ġd m
Ġd ou
Ġd oses
Ġand or
th an
Ġre appe
Ġre novation
Ġre orient
om atic
st aff
Ġg ad
Ġg os
Ġg ns
Ġl ords
Ġwe ep
ol umines
Ġcon not
Ġal ibi
Ġne ural
Ġme mb
Ġun ify
Ġun paralleled
ter dam
ad z
ad ic
ad ras
Ġse l
and estine
li a
os ki
ant opoulou
ere y
un cture
qu et
qu adras
Ġle mon
Ġle opard
mb rance
Ġch ase
Ġch eney
et tered
us z
us er
Ġr ationally
Ġj ill
Ġhe in
end um
Ġab usive
Ġli ech
Ġk ou
Ġint ru
Ġint imately
ac p
Ġam eli
ard e
con ceived
Ġus able
Ġrep ar
mber g
Ġac cessions
one lla
Ġfa it
si xty
Ġtr illions
Ġdis array
ag all
me ier
ens ical
Ġar c
cy cles
Ġra ces
Ġunder lies
Ġunder development
Ġspe culate
Ġtra inees
Ġsp ouse
Ġway side
ace ted
lear ning
Ġover load
Ġover turned
Ġlo oms
Ġlo fty
Ġro d
Ġro ses
Ġro sy
ks w
Ġcl an
Ġcl andestine
Ġtwo fold
Ġhum our
Ġlong ing
Ġho od
Ġbas har
cept ions
Ġconf ers
Ġdisc lose
Ġla wn
Ġquestion er
art oum
Ġdevelopment al
Ġhapp iest
Ġass erting
Ġprocess ors
Ġbu cks
lud ge
other mal
ina i
Ġprin cess
Ġmod ifying
Ġbus k
Ġregion ally
com plete
Ġdep icted
Ġap ol
em a
Ġcond one
Ġmil o
Ġtax ing
Ġel it
Ġdist raction
Ġstar ved
Ġpop ulous
Ġsing h
Ġca f
Ġtri ang
Ġair ways
Ġpass ages
Ġvis ually
Ġhead scar
Ġpen ns
Ġyoung sters
Ġadminist rators
Ġtrad able
Ġty res
Ġ6 50
str ateg
some how
Ġdesign ations
mor al
Ġharm ed
Ġfocus sed
Ġge othermal
ims y
Ġant on
Ġant ide
Ġbook store
Ġ7 50
omet own
Ġlink age
Ġsubsid ising
Ġdev otion
Ġdev otes
Ġec st
Ġec ol
Ġport o
Ġsort ing
Ġbi omed
Ġbi ologically
Ġbi olumines
Ġred es
Ġbri bery
Ġassoci ates
Ġden ouncing
Ġstory telling
Ġemb ro
bor ne
ex cess
ior i
Ġconsult ants
Ġcandid ature
Ġimag inative
pre pared
Ġdim it
Ġworth less
dom inated
la ws
Ġsal ad
Ġdece it
Ġvir rank
Ġoccur rences
fr an
Ġislam abad
Ġdr c
Ġpain fully
Ġmal awi
pro gra
Ġbul lying
Ġbul garians
Ġperfect ion
Ã© r
Ġcomment ary
Ġfoot age
Ġfoot wear
Ġsil vio
Ġprovision ally
Ġsep a
des igned
Ġunf ettered
Ġcr ank
Ġord in
ij s
Ġtransform ations
Ġrid ge
Ġ197 2
Ġinev it
Ġang uish
mat thews
Ġcard iac
gu y
Ġproud ly
Ġombuds men
Ġsearch es
Ġdism al
Ġrational ise
Ġmos cov
Ġsympath ies
Ġarm strong
Ġendeav or
Ġvacc inated
thes ia
add itional
Ġawa ited
Ġconfront ations
Ġsim on
Ġanaly zed
Ġirre voc
Ġunpre pared
Ġwild ly
Ġcas ini
Ġmaced onian
Ġmodest y
Ġmicro bes
Ġanticip ating
Ġsand s
Ġpul se
Ġchamp agne
Ġkh artoum
Ã¤ r
Ã¤ ki
Ġsn ake
Ġmanifest ed
Ġrot terdam
Ġirrespon sibility
Ġnord en
Ġbold ly
Ġsale h
Ġtrick ed
Ġcos mic
Ġridic ule
Ġtear ing
Ġsunday s
Ġreme mbrance
Ġdestabil ising
Ġmyth ology
Ġmcc artney
Ġsomal i
Ġble eding
compet itiveness
Ġrelax ing
Ġneighborhood s
Ġbid ding
Ġaffirm ation
Ġtill ich
liberal s
Ġpump ing
Ġallev iating
Ġexagger ate
Ġbloc s
Ġemph atic
Ġkiss ed
Ġreimb ursed
treat ed
ĠrÃ¼ hle
Ġindu ced
Ġlaure ates
vol untary
Ġcircu its
Ġkla ÃŁ
Ġeman ating
Ġmild ly
Ġpolite ly
Ġesp ionage
Ġpengu in
techn ological
Ġinsurg ents
Ġbutt ons
Ġpenet ration
Ġinsure rs
Ġmiscon ception
Ġpredic ament
ji ang
Ġgif ted
Ġneat ly
Ġpsychiat ry
represent ation
Ġfu ji
Ġcoerc ive
Ġpronounce ments
Ġswallow ed
Ġmultif aceted
Ġchromos omes
Ġalas ka
Ġalph a
Ġdisconnect ed
Ġbron ze
Ġkel ly
bot tom
Ġtheor ists
adop ting
Ġunimp ort
Ġmim ic
Ġwarri or
Ġretal iation
Ġcron ies
achie ving
rac ism
Ġallerg ic
Ġcoven ant
Ġvalen cia
Ġcharism atic
Ġjewel ry
Ġguerr illas
Ġbil bao
Ġunve iled
Ġunsu itable
dip lom
oise ach
Ġhamb urg
Ġace h
Ġbom bed
Ġredefin ing
Ġcance led
Ġundis put
cour t
flex ibility
insp ired
Ġconfu cian
Ġmathematic ian
Ġbib lical
Ġheb rew
Ġdisbur sement
Ġartif acts
Ġeli zabeth
immedi ately
Ġpalli ative
Ġindiv isible
Ġzed ong
Ġinadvert ently
ĠÎµ u
Ġambul ance
Ġtelescop es
Ġmacc ormick
Ġintertw ined
ĠmartÃŃ nez
oen ix
enso hn
ĠpÃ¶t tering
Ġgns s
Ġliech tenstein
Ġpenns ylvania
Ġvirrank oski
Ġmoscov ici
) ).
3 6
6 4
9 3
b eration
b ird
c os
c oll
c ases
g irl
h om
i ment
i ks
i ors
j u
k man
l as
l ive
l iter
m ach
m old
m ond
m onella
n as
o os
o let
p ound
p hem
r ue
s ustain
s afe
t c
t able
t welve
u ates
u ary
y ad
z k
z o
Ä Ĺ
Ġ Ã¡
Ġt ires
Ġa erial
re cip
Ġw ow
Ġw art
Ġw ires
Ġw right
is ia
en i
en et
en force
en stedt
Ġc c
Ġc us
Ġc ages
Ġo y
it ates
it ian
Ġp or
Ġp upp
Ġb ish
Ġb ounce
Ġb jer
Ġm ri
Ġto e
Ġf ist
Ġf Ã¼
Ġf oul
al ism
Ġh ikes
Ġd ru
ic ine
ic ide
Ġe min
th and
Ġn afo
Ġre ne
as is
as ingly
Ġbe acon
il ated
il ton
Ġi q
Ġi as
Ġg Ã¼
Ġg room
Ġl ends
Ġwh ip
se us
Ġcom ics
Ġst ren
Ġha unted
Ġy ass
ri ends
Ġeu phem
gh etti
Ġne oc
Ġun do
Ġun ison
Ġun seen
Ġun elected
Ġun interrupt
Ġsu e
Ġsu g
ad el
ad vert
Ġeuro group
pp enstedt
li an
li ble
os ph
Ġpar an
Ġv enge
Ġv owed
ci ously
est imates
Ġdo ve
Ġwor ms
Ġch ast
Ġch ave
Ġcan opy
et e
et al
ist a
am mar
Ġso y
od ies
Ġimp eded
Ġimp eding
Ġj ol
Ġj ails
Ġhe ap
Ġhe ath
Ġres ale
Ġthere in
Ġab normal
Ġk re
Ġk iv
Ġint ake
Ġam use
all eng
Ġrep ressed
de aling
ue ire
ans k
ans wer
Ġpe aked
ish es
Ġfa una
ap ol
Ġdis b
Ġ1 000
Ġout do
Ġri be
Ġcomp iling
Ġinc ub
Ġman ners
Ġimport er
are a
Ġpre ts
Ġnew est
Ġar dent
Ġmar ines
ach es
ide ally
Ġsp inal
Ġinv ade
Ġbo lder
Ġlo ver
Ġlo ads
Ġro gue
Ġsy l
Ġcl ut
ang ling
Ġstr angle
ween ey
ord ered
Ġdeb acle
Ġho over
rat sa
Ġpri zes
Ġref ere
Ġref ute
Ġext ensions
lu x
Ġrequ isite
Ġreal ises
own ess
Ġsi ren
Ġhel mut
Ġass uring
ob ject
Ġher bal
Ġsc rup
Ġwar ring
be y
Ġrespect fully
ather ine
ph il
Ġph oenix
Ġph osph
Ġval ent
Ġrest ing
Ġless en
Ġimm ort
em er
Ġpract iced
Ġspecif ics
Ġed it
sw ana
Ġsupp er
Ġpop s
Ġshort cut
Ġsuff rage
mpt on
Ġtri poli
Ġaccount ants
Ġeng ulf
Ġret ali
Ġfl ock
Ġprof lig
Ġmor als
Ġenc ry
Ġloc om
Ġpass ively
Ġvis itor
Ġchar coal
Ġdecl ares
co res
Ġbur ial
Ġfarm land
Ġadopt ions
Ġcapital ists
Ġdoub ted
Ġrom ans
Ġgra Ã§a
Ġwa h
Ġvict orious
Ġant ib
Ġten acity
Ġbroad est
Ġorigin ates
Ġfig ueire
Ġsubsid ize
Ġdev iate
sp ent
Ġdecided ly
Ġmen ace
Ġgl oss
bo ys
Ġcy berspace
Ġemb ody
Ġkill ers
Ġcircum s
Ġcollect ions
Ġrecon nect
Ġsal monella
nam ed
Ġcampaign ed
Ġmand ated
Ġmal colm
lin der
Ġmer cil
Ġbrief ing
Ġperform ers
Ġkosov ars
Ġcou ch
Ġ18 00
Ġult ras
Ġwind ing
Ġsurv ives
lant a
Ġphys icians
Ġaccomp li
Ġcra p
Ġpra ising
Ġcommercial isation
int osh
Ġstra uss
Ġdeliver ies
Ġep a
Ġtro jan
Ġsymbol ism
Ġimplic ated
rich ard
cons olid
Ġuns pe
rid den
umer able
Ġquant ify
ney ra
Ġinspect orate
Ġenjoy able
Ġsurve yed
oo th
Ġpsych ologist
Ġpsych ologically
Ġczech s
Ġmac ao
Ġstabil ized
Ġnar cotics
Ġjudge ments
Ġprohib itive
mo th
Ġcollabor ators
Ġpatent ability
Ġvan ity
Ġ196 2
Ġpersu asive
Ġfrank furt
Ġsharp en
asm uch
Ġinfring ing
Ġblind ness
Ġfortun es
Ġdetect ing
Ġvac ancies
Ġphotograph y
Ġyield ing
Ġmurder ing
Ġic onic
Ġfab ra
Ġconfron ts
Ġroll er
aph r
Ġvoc al
Ġgrave ly
Ġsn aps
Ġfool s
Ġskin ner
elect ronic
Ġ194 9
sch engen
Ġsuic idal
Ġcook ies
Ġwarrant ed
Ġcrash ing
Ġsubs erv
Ġaccum ulating
Ġinstruct ed
Ġaccommod ated
Ġreaff irms
Ġlabel ed
establish ment
Ġjer sey
Ġoverlook s
201 1
Ġutil ise
quar ter
prof ess
Ġpit falls
Ġpossess ed
Ġdestabil ise
tal king
Ġreb ound
Ġmyster ies
Ġdiam and
Ġdiam antopoulou
Ġtrigg ers
Ġdistinguish es
minded ness
Ġinconsist ency
Ġfro st
Ġstret ching
Ġdilemm as
Ġscan ning
Ġscan ner
Ġharvest ing
Ġtempt ations
Ġpeak s
Ġpuzz led
Ġcontra ception
Ġyemen i
Ġlobb ies
Ġpool ing
Ġduplic ated
Ġstalin ist
Ġcrack ed
Ġniger ians
Ġunexpected ly
Ġcontrovers ies
Ġaver aged
Ġkiss inger
Ġoffset ting
Ġgor ge
research ers
ext reme
Ġchampions hips
Ġantibi otic
contin uation
Ġnas cent
Ġkeys er
sur prisingly
Ġamp ly
Ġdiscoura ges
Ġneglig ent
Ġmerg ing
Ġfru ition
Ġsubordin ation
Ġindefin ite
Ġinadequ ately
Ġauction ing
Ġspa ghetti
Ġef sf
Ġanno yed
Ġhandic aps
Ġhandic apped
Ġlan cker
Ġastronom y
Ġcock tail
Ġoverr ide
Ġeste em
Ġouter most
Ġalgorith m
Ġeuroscept ic
Ġathe ists
Ġconting ent
Ġram ifications
Ġchanne lling
Ġperse vere
Ġther m
Ġgros ch
Ġsham eless
Ġantagon ism
Ġunin hab
log ical
Ġles b
Ġamid st
coordin ation
Ġcoward ly
Ġdisgust ing
press ure
Ġxia oping
miss ive
Ġtat too
Ġcater ing
Ġbegg ar
Ġpac kets
Ġnucle us
Ġfalcon er
job s
Ġrainforest s
Ġinterlocut ors
Ġwithhold ing
Ġambival ence
broad ly
Ġunhe ard
Ġhalluc inations
Ġovershad owed
Ġandre as
Ġgol an
Ġvall Ã©s
Ġskil ful
Ġnam ibia
Ġnostal gia
Ġib m
Ġgel at
Ġencoun tering
Ġneuros cience
Ġpip es
Ġcanv as
Ġbip olar
Ġincoh erent
Ġsubmar ine
Ġprotagon ists
Ġparach ute
Ġmedioc re
Ġyuk os
Ġabhor rent
Ġspani ards
Ġscaffold ing
journal ists
ĠmÃ¼ ller
Ġrans om
Ġabatto irs
Ġantiqu ated
Ġemancip ation
Ġbren ner
Ġmete or
Ġinsuff iciently
Ġcathed ral
Ġgrocer y
Ġaar hus
Ġjou yet
counterfe iting
neut ral
Ġuncomprom ising
paradox ically
nig eria
ksw agen
Ġunimport ant
Ġundisput ed
Ġwart ime
ĠfÃ¼ le
Ġuninterrupt ed
Ġchave z
Ġribe iro
Ġfigueire do
' ;
5 5
6 2
b ureauc
c ents
d b
d Ã¶r
f re
f al
f ler
g ro
g ot
h art
k j
k Ã¡
k illed
k ids
l ag
l Ã©
l abor
m and
m ich
m ac
m ong
m ove
p ill
q addafi
r ud
s am
t ow
t atoeba
v ot
v od
v ine
v ably
w w
w itness
Ã ²
Ġ Ã©
Ġ Ãł
Ġt us
Ġt ect
Ġt ying
Ġt iles
Ġa we
in ants
at he
at ma
Ġw are
en c
Ġc s
Ġo v
Ġp est
Ġp iss
an uel
Ġb out
Ġb red
Ġb Ã©
Ġb ilaterally
or no
Ġm ould
Ġm be
Ġto d
Ġf ans
Ġf use
Ġf uck
Ġf da
Ġf lick
Ġf Ã¤r
Ġan ast
Ġan war
ed o
Ġh os
Ġh iz
Ġd iz
Ġd anced
Ġd uck
Ġe mm
Ġand alus
Ġbe ts
Ġbe fall
st ars
st icks
Ġg ab
Ġg omes
Ġl Ã¤n
Ġwh ipped
Ġfor k
id ious
Ġst am
Ġha il
Ġy ale
Ġde er
Ġde gen
ch t
res ol
Ġun productive
Ġun born
Ġsu ed
im f
Ġsh ep
Ġex termination
Ġv and
ci o
est ag
ich er
Ġwor ris
Ġpres umed
Ġj ia
Ġk ins
Ġk ratsa
ak arta
Ġrep ris
Ġmust ard
ans as
ab olic
oc ity
oc ated
vel ength
lo th
Ġpl umber
Ġdis soci
Ġout p
Ġout cry
Ġri is
Ġri gged
Ġcomp ute
Ġinc l
Ġup right
Ġco zy
tern ess
me mor
Ġpos itives
ok s
lic es
Ġmar co
pt ure
Ġdec reed
Ġunder lie
Ġunder cut
Ġsp am
Ġdevelop ers
Ġper plex
Ġdiff ered
Ġdiff usion
form ed
Ġbo og
Ġover bur
Ġover time
Ġlo oting
Ġter restrial
ath ir
Ġoff ense
Ġho ppenstedt
Ġhuman ist
Ġref oc
Ġref rained
Ġdisc reet
Ġext rater
min ster
Ġla issez
Ġcur bing
Ġdef use
Ġdef enses
Ġreal izes
Ġatt or
alth us
Ġass y
Ġher ds
Ġcar rots
Ġinter cept
Ġinter section
Ġhope lessness
Ġsc attered
Ġprocess or
Ġorder ing
Ġform ations
Ġpresent ations
Ġmed iate
Ġdon nel
Ġfore ns
Ġdown fall
ven e
Ġpower fully
Ġplay ground
Ġprincip led
Ġdep op
Ġchild ish
Ġhand outs
Ġem it
Ġem as
Ġem ir
Ġem ulate
Ġest rela
Ġrest ate
eg f
Ġcor nel
Ġcor related
Ġcor bey
Ġcomple ments
Ġread able
av i
em ission
Ġfavour ite
sw itzerland
Ġsubject ive
Ġshort en
Ġca us
Ġim itate
Ġhard working
Ġger ms
Ġpat ro
ime ters
Ġfl ora
Ġfl imsy
Ġmor gant
key nes
Ġoper ative
Ġchar itable
Ġspecific ity
Ġwater ing
Ġwater tight
Ġmis ses
Ġsl ot
erv ice
Ġpen ny
Ġz en
Ġbor is
Ġty rant
Ġshare holder
Ġer ase
itor ing
Ġgra pe
Ġgra ham
Ġwa velength
Ġbook sh
Ġdest inations
Ġsix teenth
Ġsk ip
Ġconnect ivity
reg ist
Ġmess enger
sh ut
sh od
sh irt
Ġcamp ania
vere st
Ġcy linder
Ġaut oc
Ġcross ings
Ġbit terness
Ġfear ing
Ġste wart
Ġsound ness
Ġrap kay
Ġsan ity
Ġpress ur
Ġindustrial ization
Ġexam inations
Ġ12 8
Ġnote worthy
Ġsal ient
Ġdece ased
Ġheart ily
Ġ11 2
Ġ11 9
Ġfront al
ber ries
Ġens la
Ġslow s
Ġpurpose ful
Ġcounter ing
Ġwatch es
pol ish
Ġbul bs
Ġkosov ar
iss l
iss ues
Ġign alina
Ġsad c
Ġsad dened
Ġbod e
Ġsil enced
ev idently
Ġappear ances
Ġlu ther
Ġhar iri
Ġsuperv ised
Ġbat tling
Ġround ly
ta o
Ġpred atory
Ġheav ens
Ġ13 8
Ġprospect us
Ġpact s
Ġaccomp lices
Ġquot ation
Ġdetermin ant
Ġcontact ed
Ġbot swana
Ġtransform ative
Ġber th
Ġstake holder
bit ant
Ġcondition ed
pret ation
Ġuns killed
Ġut tered
Ġfire men
Ġsoft ly
Ġeye brow
sk aya
Ġsqu id
Ġshar per
Ġrig idity
Ġmexic ans
sub sequently
Ġcontrast s
Ġswe ar
imp osed
amb ia
Ġtough est
Ġsexual ity
Ġran king
Ġwat ts
Ġsymp h
Ġspl its
Ġmobil izing
Ġexceed ingly
Ġod ious
Ġmort al
Ġideal istic
Ġsick ness
Ġmultip licity
allow ing
Ġsim ulate
har ris
Ġapprox imate
Ġcapt ive
Ġpersist ently
Ġdecre ases
Ġfost ers
Ġannounce ments
eff iciency
Ġinterpre ter
Ġcommand ers
bb led
Ġquarter ly
Ġdiss ervice
Ġnarrow er
Ġmit ter
Ġgh ent
Ġdistingu ishing
rec ital
Ġnovel ty
Ġveget arian
organ ic
Ġprivat ised
Ġprescri ptive
Ġhall mark
Ġreloc ated
Ġcere mon
Ġhypoc rit
Ġreun ited
call s
Ġpraise worthy
Ġbond holders
hard ly
Ġescal ate
Ġmath ieu
Ġrum or
Ġath lete
Ġweigh s
oper ative
Ġpand em
depend ent
[...]
