#version: 0.2 - Trained by `huggingface/tokenizers`
Ġ t
Ġt h
Ġ a
i n
r e
Ġth e
o n
a t
Ġ w
i s
e r
Ġ s
e n
Ġ c
Ġ o
i t
Ġ p
a n
Ġ b
o r
Ġ m
Ġt o
e s
Ġ f
o u
i on
Ġ in
Ġo f
a l
Ġa n
e d
Ġ h
in g
a r
Ġ d
r o
i c
Ġ e
Ġan d
en t
l e
t h
Ġ n
Ġ re
a s
Ġ is
v e
o m
Ġb e
Ġth at
s t
l y
i l
Ġ i
c t
Ġ g
Ġ l
Ġ u
Ġw h
at ion
Ġ on
u t
o t
Ġw e
Ġf or
s e
p e
m ent
i d
Ġ it
u r
l d
Ġc om
Ġs t
v er
c e
Ġp ro
o w
Ġh a
o l
Ġ y
Ġc on
Ġa l
Ġth is
r a
Ġd e
r i
Ġa re
or t
th e
c h
Ġa s
it h
u l
k e
Ġe u
re s
a y
il l
g h
ou ld
Ġha ve
Ġw ith
Ġn ot
i r
m p
Ġy ou
Ġn e
Ġm e
at e
Ġu n
Ġs u
t er
ou n
a d
Ġeu ro
i m
g e
Ġcom m
p p
o p
Ġeuro pe
o re
Ġs h
b le
it y
Ġs e
an d
Ġe x
i ve
u st
s ion
l i
o s
Ġw ill
an t
e re
er s
Ġp ar
u n
Ġ v
a in
es s
c i
es t
ic h
Ġh as
w e
q u
' s
Ġa t
Ġd o
Ġb y
Ġ en
i f
gh t
Ġwh ich
i es
s o
Ġeurope an
Ġ le
m b
Ġw or
Ġg o
Ġc h
Ġc an
Ġc oun
e t
â Ģ
th er
is t
Ġp res
a m
Ġal l
Ġa g
u s
Ġs o
Ġw as
Ġ r
al ly
o d
u re
ro m
om e
Ġi mp
i v
is sion
e ct
Ġ j
Ġo r
Ġh e
Ġre s
Ġthe re
ver y
en d
Ġa b
Ġw ould
ion s
Ġcomm ission
Ġl i
ou t
Ġp ol
Ġ k
Ġin t
ou r
a c
Ġf rom
Ġa m
ar d
a k
al l
f f
Ġpres id
c on
Ġal so
Ġo ur
Ġb ut
Ġsh ould
Ġu s
i g
Ġre p
Ġ -
d e
a ke
Ġpar t
l l
u m
mb er
Ġthe y
Ġm ust
Ġbe en
d er
Ġa d
ou s
Ġm ore
at es
u e
Ġcon t
an s
Ġpresid ent
Ġcoun t
Ġli ke
ation s
Ġre g
re e
a b
Ġp e
o c
re at
as t
is h
ul t
Ġa c
on e
a ment
Ġf a
Ġab out
s i
pp ort
u d
Ġwh at
ic al
o st
th is
Ġm r
Ġthe ir
Ġon e
ar y
Ġne ed
Ġ qu
Ġn o
ve l
re n
Ġt r
a ble
l o
i re
ment s
on g
e ar
Ġp l
a p
Ġit s
Ġm y
Ġ very
Ġd is
âĢ Ļ
Ġ 1
i e
Ġo ut
Ġs ome
ci al
an ce
f or
a u
Ġwh o
Ġ ri
d u
m s
Ġthe se
Ġa ct
Ġcom p
Ġbe c
Ġf in
Ġwor k
n ow
Ġin c
c ess
Ġt im
op le
li ament
Ġ 2
Ġth an
0 0
Ġm an
Ġun ion
Ġpe ople
r ou
Ġri ght
Ġrep ort
Ġu p
Ġpar liament
Ġst ates
Ġpro p
w h
t e
Ġy ear
Ġimp ort
b ut
r y
a g
r u
en ce
Ġex p
Ġa pp
i z
Ġc o
con om
a re
ter n
f ore
Ġcon s
m e
Ġs a
o se
it ion
ri es
ic e
t s
au se
Ġt e
Ġp re
Ġne w
in k
Ġe conom
ation al
en s
Ġo ther
o in
c es
Ġp os
Ġi f
at ed
e l
Ġtim e
Ġa r
i a
o k
Ġme mber
l ic
c y
o g
Ġe v
a ge
h e
Ġm ar
Ġse e
Ġthe m
Ġcount ries
p t
Ġpol ic
Ġcon c
a ch
ac k
Ġn ow
is e
Ġbe t
Ġj ust
ig n
am e
Ġon ly
Ġh ow
in e
Ġ ra
i al
Ġk now
Ġde c
as e
j ect
c il
pe ct
Ġan y
Ġun der
id e
Ġprop os
i ous
Ġimport ant
' t
Ġcoun cil
Ġs pe
oun d
Ġ âĢ
t ed
Ġw ant
Ġt ra
vel op
Ġwe re
Ġde m
it ies
ut ion
Ġs p
res s
Ġf e
Ġe ff
Ġsu pport
Ġde velop
Ġbec ause
c ed
ir st
Ġag ain
th ing
if f
Ġth ink
Ġo b
ere n
r ic
e ver
Ġwh en
Ġw ay
in d
Ġpol it
ct ion
Ġre c
Ġp er
Ġwor ld
il ity
Ġin d
i p
Ġint o
Ġm ake
Ġd iff
u b
Ġs ay
Ġpolic y
Ġs er
a ce
le ar
m r
Ġyou r
un d
Ġin v
for m
Ġb o
Ġo ver
se l
Ġm ad
ver n
ing s
Ġha d
Ġo p
Ġis s
er n
Ġpro ble
t ain
Ġl o
st e
Ġ ro
Ġag ree
ul ar
u ch
Ġt ake
Ġs y
Ġle g
i ght
r it
Ġ- -
Ġpart ic
v ed
Ġp oin
k s
Ġh is
Ġcomm it
Ġc l
Ġeconom ic
d ay
Ġt w
i gh
Ġgo vern
ro w
at ive
the re
Ġtr ans
Ġv ot
Ġin tern
th at
Ġsu ch
Ġf irst
li e
Ġman y
ent ion
Ġpro g
Ġyear s
an g
Ġth ose
a ct
Ġmar ke
u res
Ġc ould
t ing
g y
Ġqu est
Ġh ere
si ble
Ġa f
f ul
or s
Ġst r
Ġd ire
Ġpropos al
it e
Ġsu b
Ġbe lie
Ġgo od
Ġt er
Ġfa ct
Ġe very
Ġpolit ical
st it
we en
i an
or d
Ġbet ween
Ġg reat
Ġf und
p on
Ġpro v
m m
at h
Ġtw o
Ġmad e
Ġpro du
Ġof f
Ġh um
iv es
Ġbe ing
e p
Ġm o
Ġac c
u es
x t
r is
at ing
or y
v ing
Ġt ak
Ġev en
Ġcomm un
Ġc our
Ġm uch
Ġm ost
Ġdo es
Ġde b
Ġconc ern
il d
Ġg et
Ġl ong
Ġc lear
Ġthere fore
ar ge
an ge
Ġre l
le ct
Ġwh ere
re d
Ġm at
Ġh o
Ġre m
h ow
Ġhum an
Ġpartic ular
Ġb as
ce pt
Ġg en
Ġcon f
w ard
rou p
ĠâĢ ĵ
Ġres pon
Ġsy ste
Ġ2 00
Ġright s
Ġg roup
Ġdire ct
Ġbelie ve
u al
ur al
ou gh
Ġwe ll
ub lic
w n
r at
Ġp ri
Ġapp ro
Ġsa id
Ġso cial
Ġs it
Ġfin an
n ot
Ġst ate
er ation
a mp
is m
Ġh igh
as s
Ġre f
Ġm ay
Ġn u
Ġdis c
Ġm on
er al
Ġpro t
ol l
Ġcount ry
Ġm in
Ġto o
Ġad d
Ġlo ok
Ġex t
re ad
w ay
m in
it ed
ie w
Ġam end
Ġf ar
Ġthe n
Ġp ut
v es
Ġl a
Ġagain st
en cy
Ġdem oc
l u
ere st
Ġse c
m an
Ġs ame
Ġgo ing
Ġc ur
rou gh
Ġmarke t
Ġquest ion
Ġto day
y ou
Ġp r
Ġinc re
ol ution
ar t
Ġd id
Ġc all
is ion
Ġu se
Ġde f
Ġpoin t
Ġre qu
Ġre al
Ġdiff eren
i le
Ġen d
Ġf ut
Ġint erest
ow n
Ġ ent
Ġm a
Ġcan not
wh at
Ġat t
ren t
Ġfut ure
Ġcont in
Ġe mp
Ġeff ect
ge t
Ġt reat
Ġdevelop ment
Ġp ublic
u ation
Ġst ill
Ġth rough
l es
er tain
Ġd es
if ic
Ġ (
Ġs i
it iz
Ġ1 9
Ġcommit te
Ġt ur
Ġl ast
Ġn ational
Ġfinan cial
Ġha pp
Ġ "
al th
mb ers
Ġhe l
k ing
Ġas s
o b
Ġiss ue
Ġre ally
Ġo wn
Ġreg ard
Ġh er
u ally
Ġc itiz
Ġme as
Ġg u
Ġprot ect
Ġgovern ment
Ġprog ra
Ġsyste m
Ġg row
Ġle ad
the y
ent s
Ġb ud
Ġintern ational
Ġc ar
Ġhel p
as on
l ed
Ġwh y
' re
ow er
pe t
lo y
ol og
Ġs m
Ġin form
t y
Ġres ult
iv en
es e
le ment
Ġcommitte e
Ġmat ter
Ġproble m
con d
Ġt al
is ed
n ing
Ġcour se
Ġen v
ru ct
Ġ ke
Ġcommission er
Ġ '
Ġcons id
b ility
Ġb r
read y
Ġb ack
a il
Ġle vel
Ġcitiz ens
Ġv iew
Ġal ready
Ġsit uation
o od
Ġin ter
Ġpos sible
Ġre ason
Ġp ers
Ġho pe
Ġs c
sel f
g an
w or
in ce
ir on
Ġdeb ate
i ed
ul ation
ill ion
Ġme mbers
Ġex amp
Ġbo th
et y
s ure
ou se
ic t
Ġpro cess
u th
Ġc ertain
Ġs ign
Ġcom e
er gy
Ġor der
b al
Ġagree ment
ra ct
Ġd ra
ur ing
iron ment
h ip
Ġse t
Ġb an
ic i
Ġb u
Ġw ar
ch ie
Ġbe fore
Ġenv ironment
Ġas k
how ever
ch n
er ic
l ud
ak ing
Ġa chie
ci p
Ġco op
or ity
n e
t le
Ġh im
Ġad op
Ġg lo
Ġdifferen t
Ġc ent
Ġen ergy
Ġa ble
Ġf ul
o ther
Ġsome thing
Ġne g
f t
ic es
l ish
Ġbud get
ic ally
Ġa ff
Ġtrans p
Ġin stit
t o
ut ions
Ġth ings
ur ther
Ġcomm on
r ation
Ġcom pet
Ġc ase
Ġd ay
g in
Ġcommun ity
Ġc ap
Ġla w
Ġcur rent
Ġh ouse
Ġinv est
in a
om en
Ġc ol
Ġfor m
Ġexamp le
t en
Ġwith in
Ġst and
b e
Ġdisc us
Ġpre v
Ġc ris
it s
ri but
ur ity
ate ly
Ġch ange
Ġma j
Ġi de
Ġpres ent
Ġmeas ures
Ġg ive
Ġser v
Ġm ain
Ġglo bal
Ġsu c
e ur
m en
Ġd on
Ġwith out
Ġm ed
Ġvot e
Ġhow ever
Ġf ore
Ġd own
Ġbe h
oun t
Ġme ans
Ġpl ace
Ġl it
e f
Ġte chn
o ver
c ome
Ġpr in
v en
is l
Ġs ol
Ġtak en
Ġl if
Ġproble ms
Ġimp ro
Ġin f
Ġam eric
Ġsi mp
Ġres pect
Ġsec urity
Ġhe alth
st and
Ġaf ter
Ġstr ate
Ġnu mber
Ġm od
ath er
Ġde al
Ġbet ter
Ġa uth
ere d
a ir
ver s
Ġf ra
Ġcoop eration
Ġun ited
Ġinform ation
Ġb us
Ġfin d
Ġth ree
Ġleg isl
Ġreg ion
Ġdirect ive
Ġp ower
re ed
i ly
Ġcris is
Ġg r
it al
Ġor gan
Ġr ul
Ġse ct
Ġact ion
Ġpl ay
Ġob ject
Ġs ch
ent ly
Ġne cess
Ġall ow
it ions
Ġare a
l ess
Ġprin cip
Ġfe w
it ive
ab ility
pport eur
Ġind ust
c om
oll ow
at er
Ġ2 0
l and
Ġc re
p h
Ġch ild
Ġde p
ist s
Ġp h
Ġn or
Ġr is
Ġn at
Ġpro m
Ġd one
Ġe lect
Ġh and
Ġwe l
wor k
n o
Ġa p
Ġb l
Ġe m
pport un
Ġme et
ut e
ent ial
Ġ est
Ġrep res
Ġo pportun
Ġe ar
Ġv al
Ġact ually
ic ult
al ity
Ġra pporteur
Ġsh e
u c
Ġre du
Ġinc lud
al f
ort s
is ation
d s
Ġ 3
Ġop en
Ġs ince
Ġsa f
Ġre st
Ġlit tle
Ġw omen
Ġne xt
ar ch
Ġt a
Ġtra de
' m
ot i
Ġdiff icult
Ġsh ow
Ġs ur
Ġw ish
Ġk ind
or ities
Ġa v
Ġimp lement
Ġfa v
e g
Ġin de
Ġrem ain
Ġincre as
Ġthan k
Ġf ollow
Ġexp er
Ġc or
Ġl ess
Ġen sure
Ġpl an
way s
Ġe qu
Ġdemoc rat
us si
Ġac cept
Ġad v
Ġf urther
Ġinv ol
ic k
Ġin s
m y
Ġcont ro
Ġneg oti
s he
al s
it i
Ġprogra m
Ġtreat y
Ġcomp le
Ġspe ci
ou ra
Ġlif e
Ġwh e
y ing
Ġiss ues
c ing
Ġj ob
Ġf r
Ġser ious
ic s
Ġmr s
loy ment
ro s
one y
Ġth ing
Ġin st
Ġv i
Ġunder stand
Ġc ost
Ġse cond
Ġgrow th
li g
Ġrul es
id ed
Ġconsid er
Ġle t
od y
Ġg ent
are d
Ġi r
Ġgent le
Ġpers on
Ġan other
Ġprodu ct
Ġb en
Ġg iven
Ġnecess ary
Ġsm all
Ġneed s
Ġrequ ire
Ġhapp en
in ess
Ġleg al
Ġbec ome
Ġwhe ther
Ġro le
ir d
Ġamend ments
ad ies
sel ves
Ġm oney
Ġgentle men
Ġal ways
p er
c u
Ġwho le
Ġre ad
Ġpro ced
Ġprotect ion
Ġr ussi
Ġpos ition
a ve
Ġl arge
Ġi mm
is ter
p ar
Ġsuc cess
si bility
a v
Ġeconom y
Ġare as
Ġmo ve
Ġcon v
ra cy
Ġso ci
ge ther
. "
g g
Ġch ina
Ġc rit
th ese
Ġappro ach
Ġparticular ly
Ġcons um
Ġne ver
sion s
our ces
n ess
e m
Ġus ed
Ġpro ject
âĢ Ŀ
Ġre v
Ġm illion
ros s
Ġprog ress
Ġa id
Ġprogram me
in es
Ġres olution
Ġdec ision
Ġin iti
Ġcon d
Ġm il
Ġcont ribut
en se
le t
en g
Ġb al
Ġfe el
Ġp ay
Ġsect or
y s
Ġst ep
Ġta x
Ġf ish
Ġre se
ĠâĢ ľ
Ġeffect ive
im ate
ab lish
r al
Ġpresid ency
ab ly
Ġp ract
' ve
Ġcontin ue
Ġop in
ult ural
ward s
Ġe as
Ġto gether
Ġ19 9
Ġp ur
Ġcomp an
Ġstr ong
is ions
Ġl ot
Ġdo ing
m ore
Ġu r
ou ght
Ġben ef
Ġ es
Ġ ed
Ġserv ices
Ġspeci f
n ed
Ġwork ing
Ġag ric
Ġf ree
Ġrepres ent
re t
ro du
Ġter ms
Ġfra me
Ġfa il
Ġe l
r or
Ġp o
Ġcon stit
Ġfav our
Ġest ablish
Ġfor ward
Ġme an
Ġrese arch
Ġinstit utions
Ġm ight
m ost
Ġd ist
Ġst ud
Ġproposal s
n er
Ġ 5
Ġst ar
Ġstrate gy
Ġpe ace
s w
Ġch ang
Ġcontro l
Ġw rit
iv ing
Ġf ood
Ġsu pp
eren ce
Ġbas is
Ġj oin
Ġl adies
Ġexper i
Ġp op
Ġrel ations
Ġspe ak
Ġe ach
Ġar ound
Ġf ound
Ġtechn olog
Ġa im
Ġb ro
Ġbus iness
os ed
Ġfund ament
Ġc reat
Ġamend ment
Ġsub ject
Ġit self
Ġy et
ap s
Ġgen eral
Ġqu ite
Ġte ll
Ġframe work
Ġon ce
Ġf ac
Ġs ing
Ġ ess
Ġc are
Ġbr ing
Ġwel come
Ġbu ild
Ġachie ve
i ble
Ġo pp
Ġre ach
Ġg ot
Ġsh ort
Ġchild ren
Ġdemoc racy
Ġm ention
Ġf am
Ġex pect
Ġof ten
Ġtal k
Ġb est
Ġan sw
ar m
Ġch all
Ġd uring
th en
Ġopportun ity
p ri
Ġc ri
li ght
Ġopin ion
Ġr ather
Ġ 4
Ġa w
ak es
ag es
Ġar t
Ġmon th
Ġdem and
Ġli b
Ġlegisl ation
ult ure
Ġst ruct
le g
Ġb ig
Ġimpro ve
an ces
Ġp le
Ġab s
Ġprom ot
Ġc lo
Ġincre ase
Ġag o
Ġext re
Ġwh ile
Ġex ist
iv id
Ġbe gin
Ġmin ister
f in
f ort
mp t
Ġsu ff
Ġfore ign
Ġint eg
og n
reed om
c lear
Ġs w
man y
Ġmaj or
Ġc a
Ġt ri
Ġst art
Ġen ough
Ġl im
ant s
st ain
Ġi m
id es
oc k
Ġindust ry
Ġvi ol
as es
Ġto wards
Ġl ab
l ing
Ġh ard
th ers
Ġconcern ed
if ied
Ġwe e
Ġm aking
Ġacc ount
Ġfundament al
e u
Ġle ast
Ġv ar
Ġadop ted
Ġrec ogn
Ġen g
Ġide a
Ġb ar
Ġdemocrat ic
Ġres ources
ci ally
Ġh ist
Ġprov ide
en ces
at ives
Ġf reedom
Ġvot ed
se qu
Ġreg ulation
Ġre t
Ġpolic ies
i vers
ard s
Ġact iv
Ġg er
Ġre form
Ġsh all
Ġsu mm
Ġp at
Ġo c
w ith
Ġc iv
Ġap pe
end ing
Ġsoci ety
Ġcon g
Ġaf ric
iz e
n ers
wh en
Ġrussi a
g ed
Ġdiscus s
Ġcon st
Ġprincip le
Ġed uc
a ren
b on
m it
Ġclear ly
ith er
Ġac cess
Ġreg ul
Ġinclud ing
im e
ar ant
Ġsign ific
Ġimport ance
Ġf l
Ġpropos ed
Ġth ird
Ġconc lu
Ġcol le
Ġciv il
ie ld
in ed
Ġcond itions
Ġadd ress
as ed
i b
Ġtransp ort
Ġexp ress
o f
arant e
Ġa ir
d o
ren g
Ġo ld
Ġrespon sibility
Ġint rodu
is ing
a f
o ve
Ġpro f
Ġsing le
Ġgu arante
Ġind ivid
ar ity
Ġter ror
Ġnegoti ations
Ġclo se
Ġh ome
ou b
Ġris k
ra ph
Ġwor ds
pe cially
ar s
ord in
id ence
Ġm om
Ġst reng
Ġsu re
Ġexp l
Ġextre me
Ġgreat er
Ġs ci
Ġm or
Ġatt ention
end s
e c
wh ere
Ġemp loyment
Ġcre ate
Ġen c
Ġrec ent
Ġtak ing
p l
Ġadd ition
00 0
fort un
Ġl ist
i od
m ad
Ġam ong
Ġke ep
Ġes pecially
Ġno thing
Ġpoin ts
Ġpos itive
Ġindivid ual
g er
p end
Ġful l
Ġf ight
Ġlead ers
ke y
o v
Ġp ass
Ġl oc
Ġauth orities
u ge
Ġmil it
Ġsu stain
Ġcent ral
Ġcom b
o ol
Ġprev ent
Ġsaf ety
Ġenvironment al
Ġv is
Ġsimp ly
on s
Ġp ast
id ent
Ġeff orts
Ġfund s
Ġre ce
Ġop er
b y
Ġha ving
Ġproced ure
' ll
t il
o ld
Ġbas ed
h aps
Ġpart ners
Ġf our
Ġfor ce
Ġcall ed
Ġbeh alf
Ġess ential
Ġch ar
Ġr u
Ġle ar
Ġbe l
al e
Ġhe ad
Ġtr ue
Ġintern al
Ġan n
Ġspecif ic
f irst
Ġth ought
Ġquest ions
Ġinterest s
Ġle ft
Ġneed ed
us ed
Ġnu clear
iz ed
Ġw ater
Ġke y
eu ro
Ġo thers
Ġproduct s
Ġameric a
n g
at a
Ġs ou
i um
ce ed
ic ial
Ġde t
Ġban k
Ġmarke ts
Ġincreas ing
Ġdec l
er ing
Ġcomple te
Ġtim es
Ġf oc
ar k
b ody
Ġm ind
Ġlong er
Ġs olution
Ġcertain ly
on d
Ġm is
Ġcl imate
Ġsignific ant
iz ation
Ġconcern s
Ġs l
Ġcompan ies
e mp
g o
Ġtur n
Ġf ri
Ġinst ru
c o
ens ive
Ġgovern ments
Ġper iod
Ġpri v
Ġst at
Ġpart y
Ġse en
Ġman age
Ġl ive
Ġc e
in ing
ir m
Ġmom ent
Ġis ra
Ġg re
Ġm akes
Ġr un
Ġappro pri
Ġn ame
Ġe ver
fortun ately
ul ate
euro pe
h as
Ġm id
er v
mad am
Ġdevelop ing
Ġconstit ution
Ġansw er
Ġmilit ary
Ġprop er
u g
min ist
ter m
Ġthem selves
Ġwork ers
Ġinvol ved
Ġch o
Ġm ot
Ġaff ect
Ġth reat
Ġcompet ition
Ġc red
Ġp en
Ġte xt
air s
Ġb ur
Ġeduc ation
ici ent
Ġ z
an k
ne w
Ġimp act
Ġfar m
Ġyou ng
v ious
Ġw on
Ġn on
Ġ1 0
Ġsee ms
Ġl ack
Ġcom es
Ġf ield
Ġenc oura
Ġconf lic
c ise
ter s
Ġcour t
Ġtur key
Ġd ata
s id
Ġf all
Ġa way
ci es
Ġres ol
Ġar g
Ġs ense
Ġto t
Ġcolle ag
Ġad minist
Ġas pect
Ġextreme ly
Ġregion al
Ġan im
Ġb or
Ġacc ord
Ġi d
Ġen l
Ġcong rat
Ġmaj ority
Ġmonth s
Ġav ail
Ġful ly
Ġne t
Ġadop t
Ġe le
Ġvar ious
ra q
iv ed
Ġtra d
Ġgroup s
Ġsch ool
ic ation
Ġent ire
e ch
Ġt y
ra in
Ġspe cial
Ġinvest ment
Ġsh are
c ent
Ġ 6
Ġcap ital
Ġf un
Ġth ough
og ue
er g
Ġd ial
gg est
Ġsu ggest
i ans
Ġevery thing
Ġoc c
Ġso on
Ġfa ce
Ġru le
s ide
Ġask ed
at ic
Ġreg ions
Ġdec isions
Ġi raq
Ġmeet ing
Ġcon sequ
il ities
Ġjob s
fin ally
Ġag end
Ġcomp rom
ces sion
Ġco h
Ġl ang
Ġstreng then
ar ian
ic le
Ġ er
Ġh on
om m
Ġp ot
li es
a z
Ġd ri
Ġresult s
Ġcont e
Ġo pt
Ġcost s
Ġaff airs
Ġp al
st r
ap an
Ġd ang
end ed
Ġinde pend
er t
Ġemp has
ver al
ce ll
me mber
at ors
ste ad
Ġstand ards
Ġprogra mm
Ġb re
Ġho ld
ific ation
Ġl is
it ing
Ġagric ultural
Ġagend a
Ġal most
Ġqu ality
ist an
Ġpartic ip
Ġrequ est
Ġsyste ms
Ġf ive
Ġtr y
Ġsub st
d en
as h
Ġobject ive
Ġe ur
Ġiniti ative
Ġdial ogue
Ġb illion
Ġinde ed
Ġd oub
Ġreason s
u p
no v
Ġlis bon
Ġqu ick
n ect
Ġ20 1
le v
Ġmod el
Ġlang u
Ġc ir
Ġdra w
Ġst ability
Ġc ame
Ġco ordin
ful ly
Ġun til
j ust
Ġpop ulation
. .
Ġgen er
on t
Ġac ross
Ġt as
Ġwrit ing
it or
Ġavail able
Ġc ut
ri ed
Ġprodu ction
Ġaw are
Ġafric a
if y
i er
Ġto ok
Ġinc lu
s ome
Ġid ent
Ġdes ign
Ġw r
Ġwee k
Ġhe ar
Ġsol id
Ġb rit
Ġ rom
Ġo ri
Ġw ent
Ġg ra
Ġli ght
Ġloc al
Ġpart ies
Ġdo cu
arge ment
Ġw a
Ġv ict
Ġapp lic
Ġass ist
m or
p le
Ġel se
Ġcom ing
Ġex c
Ġh arm
d le
Ġagree ments
Ġfoc us
c ri
Ġameric an
Ġconte xt
Ġa mb
Ġp ric
Ġf le
Ġtal king
Ġg e
Ġcir c
im s
Ġmention ed
Ġj ud
ed i
Ġd om
in de
Ġe ast
Ġref er
Ġcurrent ly
Ġobject ives
ag ed
Ġsumm it
Ġp a
Ġm ult
Ġin nov
ric t
Ġc ases
Ġan t
se cond
Ġtechnolog y
Ġper haps
Ġl ine
l ine
Ġdem on
Ġfollow ing
ur y
Ġt en
Ġl at
ur n
Ġass ess
Ġse veral
Ġbo ok
Ġur g
Ġob s
c k
ut es
Ġevery one
Ġabs ol
or m
Ġir an
Ġjoin t
the less
Ġlib eral
im es
Ġapp ly
Ġj apan
Ġjust ice
r ing
Ġex cell
Ġob vious
Ġwr ong
i res
Ġp ost
Ġbro ad
an ced
us h
Ġwant ed
Ġconv ention
Ġenl argement
i bility
Ġhist ory
Ġfin al
Ġt arge
iven ess
Ġabsol ute
er ia
Ġcont ain
i o
at ory
Ġdang er
Ġu k
u ed
at ch
Ġto p
Ġmatter s
Ġrespon sible
Ġo il
Ġn ations
ap er
Ġ 7
Ġh alf
Ġ 8
im il
ren ch
Ġconsum ers
Ġprogramm es
om et
Ġro ad
Ġmain tain
o ff
an e
ist ic
r ast
Ġsay ing
Ġd est
Ġimplement ation
si b
' d
p ris
h ere
Ġconsum er
Ġchang es
Ġany thing
l f
Ġappropri ate
Ġb ad
Ġmad am
Ġcomprom ise
Ġre ject
Ġconf erence
inde ed
Ġl ow
is es
es sion
Ġfa ir
Ġtr ying
Ġsi x
Ġde ep
Ġhe ard
Ġs at
Ġday s
Ġc ru
led ge
Ġme t
Ġexperi ence
Ġ ve
Ġs ide
Ġd ut
o id
Ġpre p
Ġlook ing
Ġmid dle
Ġpric es
imil ar
Ġp ack
Ġl iving
Ġinstit ution
Ġpo or
Ġsci ent
Ġrec omm
a pp
Ġsee m
b our
Ġs k
Ġ ver
Ġt est
Ġrespon se
Ġcon nect
p s
Ġpro b
over ty
we ll
re g
Ġst op
Ġchall eng
Ġisra el
Ġachie ved
Ġent er
Ġnat ure
rou ght
Ġde ath
ad e
Ġval ues
Ġpal est
Ġr ate
Ġmanage ment
Ġm ess
Ġexcell ent
p r
Ġguarante e
Ġelect ions
Ġori gin
2 0
Ġy es
s h
res sion
Ġprincip les
Ġ 9
Ġfish er
b an
Ġopp os
Ġcommit ment
ab led
Ġe ither
Ġstar ted
Ġproject s
ue l
en ing
Ġm ass
Ġremain s
Ġg ree
Ġne igh
min ation
Ġval ue
Ġour selves
Ġinteg ration
y es
Ġl ink
Ġp overty
Ġf ig
re ct
Ġimm ig
Ġsustain able
Ġpr ice
Ġter m
p ite
Ġsu per
Ġsub sid
Ġus ing
Ġviol ence
Ġf rench
wh y
Ġart icle
Ġde v
is f
Ġl and
Ġactiv ities
li ed
Ġcongrat ulate
Ġh uge
Ġsolid arity
Ġl ives
Ġl os
ac y
Ġwe ak
Ġdis e
Ġc amp
Ġstrate g
li ke
Ġpriv ate
s p
Ġdid n
Ġserv ice
Ġm us
Ġde ter
Ġreport s
Ġquick ly
Ġse lf
Ġpro s
Ġpri ority
l er
us es
Ġe c
ch an
Ġmon itor
Ġal ong
Ġsou th
Ġdec ided
Ġbenef it
th od
Ġger many
f er
Ġup on
Ġ1 5
Ġst ress
Ġme chan
Ġhappen ed
Ġconcern ing
Ġconflic t
Ġun emp
Ġatt ack
Ġin e
Ġfe ll
Ġs ent
Ġm en
Ġrec ently
Ġex ch
Ġredu ce
Ġdet ail
there fore
Ġp ort
Ġref lect
aren cy
Ġfund ing
Ġdemon str
Ġprob ably
de m
Ġto mor
Ġpl ac
Ġgr ound
Ġg l
et ary
Ġtomor row
ac c
ru pt
Ġan al
as ter
Ġpur p
Ġconsequ ences
Ġdra ft
Ġgo es
Ġs ort
tern al
Ġoff icial
Ġde l
Ġd am
Ġd ue
Ġab ove
Ġinf lu
Ġprov ided
Ġbec om
so ci
ure d
Ġwor d
un ch
Ġb i
Ġto ld
ve re
er ial
b o
h old
Ġimm edi
Ġfam ily
Ġdis p
Ġdef in
Ġincreas ed
i ation
Ġd i
Ġit al
Ġpot ential
Ġtransp arency
Ġbeh ind
Ġre d
Ġbas ic
Ġemp loy
Ġbal ance
Ġnat ural
Ġgre en
Ġat te
Ġthink ing
Ġob lig
ru ction
og raph
en ge
Ġmod ern
second ly
Ġb rought
li f
Ġrequire d
Ġinclu de
Ġc ause
Ġal one
Ġfr ance
Ġre lig
more over
Ġc y
Ġle ave
Ġdiscus sion
Ġcomplete ly
c al
Ġpract ice
Ġagric ulture
Ġme thod
Ġspe ech
Ġway s
Ġprev ious
in ation
Ġstruct ural
u ff
ire d
Ġcl os
af ter
Ġper cent
Ġreal ity
Ġchall enge
a h
be c
Ġpromot e
Ġre pe
th ough
Ġout side
Ġcru cial
Ġc ulture
com m
u se
id ing
Ġem erg
Ġterror ism
Ġl ater
omet imes
Ġmon etary
Ġdoub t
Ġth us
Ġa ut
Ġev ent
m ar
ow ers
ive ly
Ġav oid
Ġchalleng es
Ġd oll
for ms
in s
Ġl ar
Ġmove ment
Ġear ly
u ly
bec ause
t od
Ġc ross
Ġexpl ain
Ġ il
Ġind ic
Ġsay s
Ġex ternal
Ġag reed
ivers ity
tod ay
Ġb ri
Ġbuild ing
Ġh un
Ġhapp y
at eral
Ġhigh er
Ġb it
Ġf ear
Ġas soci
en sion
it arian
Ġ ill
Ġimp os
Ġcl a
Ġtas k
ission s
Ġind ia
Ġcontribut ion
Ġst age
ru g
Ġst e
Ġc ultural
Ġeff ort
or ies
Ġpur s
Ġcar ry
Ġget ting
er ve
Ġro om
Ġregard ing
t om
Ġact ions
Ġrecomm end
Ġhe ld
im um
Ġcommun ication
Ġd en
Ġs ound
Ġpalest in
Ġrev iew
Ġtak es
it er
g est
r on
Ġcolleag ues
re am
Ġret urn
Ġcri min
Ġlegisl ative
ll ing
Ġdire ction
Ġex act
Ġpre cise
Ġpartners hip
Ġv ol
w ise
Ġfarm ers
Ġvot ing
Ġdeb t
Ġra p
e ven
ri al
Ġc and
Ġple ased
Ġbegin ning
Ġpres sure
ct ions
Ġra d
Ġh our
Ġsat isf
Ġtechn ical
Ġlangu age
Ġex cept
Ġte ach
Ġcor rect
Ġexist ing
Ġe mb
b or
Ġlike ly
wh ile
Ġassist ance
Ġa ud
Ġp aper
Ġre member
Ġst ory
a rent
in ese
Ġfor ces
Ġabsolute ly
e x
ous and
Ġreg ime
Ġnor th
Ġregul ations
ous ly
Ġcons ult
il ateral
ter day
Ġk ill
Ġlo ve
Ġlab our
i or
Ġas se
Ġac cession
Ġorgan is
Ġopportun ities
Ġs an
Ġal though
t on
Ġdevelop ed
Ġstate ment
Ġl ost
Ġban ks
ra d
Ġide as
Ġra ised
Ġc oll
Ġs imilar
en cies
Ġj un
Ġcreat ed
Ġne ar
Ġc le
Ġequ al
en ed
Ġcap ac
Ġtot al
Ġcre ation
Ġr at
Ġam ount
Ġthrough out
Ġv ital
Ġcur ren
Ġr ise
ition al
Ġfin ally
Ġregard s
Ġaspect s
Ġcoh es
l ation
Ġsimp le
Ġpres s
g es
Ġoff er
Ġil leg
Ġf is
Ġse a
Ġwas te
off ice
Ġf lo
Ġtra ff
Ġwon der
c an
Ġre forms
Ġr ates
Ġconf idence
Ġth ousand
es tern
Ġeffect s
e very
y ond
Ġa ge
Ġread ing
Ġcand id
Ġm ist
Ġal tern
Ġch inese
r ist
Ġd rug
Ġunemp loyment
ver se
Ġgrow ing
Ġlevel s
Ġknow ledge
Ġi g
Ġmed ia
Ġfle x
Ġin stead
Ġr ich
l t
g ing
mit ted
r ated
Ġsuccess ful
Ġcar ried
Ġreach ed
Ġcrit ic
Ġch e
u ing
at or
Ġprep ared
Ġ3 0
Ġstud y
ish ed
Ġcrit eria
Ġlear n
i ally
p or
pp ed
Ġde li
Ġinter v
Ġg ain
Ġinterest ing
o ot
Ġd iv
Ġeff ici
Ġauth ority
Ġim ag
Ġcomple x
ro p
Ġcohes ion
ar ing
Ġpers pect
Ġindust rial
l am
Ġp owers
Ġmy self
Ġpresent ed
p re
Ġdoes n
Ġbrit ish
Ġharm on
Ġdocu ment
Ġproced ures
Ġcirc um
Ġrequ ires
Ġc al
Ġv o
Ġmat erial
Ġpack age
Ġd im
sel s
Ġsw ed
Ġex am
olog ical
Ġrel ation
Ġbenef its
ord ers
Ġ200 0
Ġbudget ary
Ġch ance
Ġtr ust
est ic
Ġrap id
Ġe th
r ate
Ġb ody
Ġwant s
Ġallow ed
Ġwor th
r ary
re ly
h a
Ġtraff ic
j o
Ġperson al
Ġeconom ies
Ġeas y
Ġoff ice
Ġrelations hip
Ġexch ange
Ġa ra
Ġaccord ing
Ġpri orities
Ġcompet it
Ġs ometimes
an ia
Ġrespon d
Ġc od
Ġwho se
d on
k now
Ġ1 2
Ġtra ining
d om
Ġpat i
Ġst ri
mpt ion
at s
Ġm ill
du ct
Ġw est
i x
ore d
Ġintern et
Ġencoura ge
Ġmess age
Ġbe yond
Ġinstru ment
Ġcapac ity
Ġw al
Ġknow n
? "
Ġ5 0
Ġbre ak
Ġ 000
f urther
l a
Ġde ad
Ġev ents
Ġa ust
Ġsupport ed
Ġw estern
Ġsec ret
Ġg iving
Ġr ural
op h
Ġparliament ary
Ġcol lect
a ff
Ġl ed
Ġear th
Ġcompan y
Ġfisher ies
g en
Ġcl ass
c er
ĠâĢ ĺ
Ġthan ks
Ġsa w
Ġscient ific
Ġfun ction
Ġhigh light
Ġdep end
Ġem issions
our ce
Ġprov isions
Ġinnov ation
Ġ2 5
Ġrequire ments
Ġrep ublic
Ġvict ims
Ġre con
Ġs al
Ġnot e
ther n
Ġext ra
Ġgr ant
Ġanim als
Ġg ave
Ġexact ly
a ction
Ġpol ice
Ġfell ow
Ġprodu ce
Ġf ed
oura ble
Ġrece ived
Ġp ie
Ġter rit
Ġrem ind
Ġtreat ment
Ġsp ace
Ġfam il
Ġt abled
Ġg as
europe an
y et
Ġreg ret
Ġmin utes
a ut
Ġpol l
Ġint el
Ġform er
Ġde ce
Ġre new
o pe
f ect
Ġcri me
sib ilities
r ound
Ġadv ant
Ġl ate
ris on
' .
Ġb orders
Ġinstru ments
o ke
Ġhe art
k ed
Ġ1 1
Ġfr ont
Ġte mp
Ġsol utions
he ad
b er
Ġi re
un fortunately
Ġpolit ics
Ġpri me
Ġcent ury
p res
Ġyes terday
re ci
Ġwe ap
Ġiniti atives
Ġcomp ut
Ġire land
li er
Ġp ict
Ġsubst ant
ot e
Ġshow s
Ġcreat ing
Ġhist or
Ġmonitor ing
Ġsh own
Ġpre par
v al
Ġre lev
Ġv ir
ici ans
. âĢĿ
Ġneigh bour
Ġcircum st
Ġexp ort
Ġadminist ration
a ign
Ġc op
Ġger man
Ġdisc ri
Ġaddition al
i et
n am
gh an
Ġocc ur
Ġleg it
c a
Ġsupp ly
Ġconclu sion
ad es
f r
Ġcon duct
Ġunder t
Ġmor ning
Ġindepend ent
Ġcamp aign
y l
se c
Ġwill ing
Ġsuc ceed
li ance
Ġpart s
Ġs ens
Ġis lam
Ġexpress ed
rast ruct
Ġen s
Ġcrimin al
th ank
Ġcons ist
Ġsp ir
Ġilleg al
Ġd r
Ġmeas ure
Ġsl ow
Ġarg u
Ġanal ys
Ġw in
Ġmed ium
Ġse par
Ġinf rastruct
Ġestablish ed
Ġdec ide
first ly
g ar
u ine
Ġinflu ence
ac cept
Ġpurp ose
Ġconv in
Ġstrateg ic
ver age
il it
Ġrec ord
Ġgu id
Ġara b
Ġgood s
Ġnor m
Ġfish ing
Ġbusiness es
Ġcurren cy
Ġf irm
Ġt ack
Ġn ight
Ġserious ly
Ġde g
Ġdel ay
Ġcircumst ances
ot s
u de
Ġas ia
und red
Ġm and
Ġris ks
Ġcompetit iveness
Ġto ol
oun ts
Ġcoun ter
Ġinvol ve
Ġinclud ed
Ġorganis ations
l ast
s es
Ġsp ending
Ġun accept
Ġk ing
Ġext ent
Ġw atch
qu e
Ġpract ical
Ġun d
Ġgen uine
Ġfri ends
Ġre in
Ġinc ome
Ġdef ic
Ġfis cal
p ol
ag raph
Ġp ain
Ġon es
Ġwork ed
Ġlim ited
Ġincreasing ly
am a
Ġaf ghan
Ġwee ks
Ġdes cri
Ġm al
il t
ort ion
an ish
re h
Ġfri end
ure au
l in
) .
os ov
Ġapp reci
Ġdanger ous
Ġview s
Ġimplement ed
Ġapplic ation
further more
Ġm er
Ġeffective ly
Ġele ction
Ġact ive
Ġlim it
p ro
Ġant i
Ġimmig ration
b ed
r ative
Ġb ul
Ġhigh ly
Ġm ig
Ġprov ides
Ġunaccept able
Ġredu ction
Ġcont ent
Ġminister s
Ġcred it
Ġconsid ered
Ġst ay
ke t
Ġag ency
it ude
s ince
ent ions
Ġwar m
Ġchang ed
n a
all ed
Ġapp lied
Ġoppos ition
n ever
u mption
olog y
Ġmot ion
Ġdise ase
d p
Ġb ureau
Ġev idence
Ġrest rict
Ġbri ef
on es
Ġconst ruct
st er
Ġpos sibility
Ġinvest ig
Ġout come
m a
Ġs en
Ġimpos sible
Ġper form
Ġc at
Ġk osov
Ġdes pite
z e
im ately
for ce
Ġdiscus sions
Ġrel ating
Ġpa id
is s
Ġg ives
s uch
Ġk ore
Ġc ou
Ġk id
Ġany one
Ġfail ure
Ġra ise
Ġcommit ted
Ġname ly
Ġw ide
Ġex er
Ġb rain
Ġinstitution al
h ood
Ġh undred
Ġprecise ly
Ġfor get
qu ate
Ġch a
Ġeffici ency
om p
Ġper fect
Ġty pe
Ġperspect ive
Ġdece mber
Ġde leg
Ġce ll
Ġocc as
Ġassess ment
Ġc ity
Ġcho ice
Ġuse ful
Ġfail ed
iv ity
land s
u mp
ri a
Ġeas tern
Ġdom estic
par liament
Ġsect ors
an y
Ġen able
Ġple ase
re st
Ġen orm
Ġaccept ed
Ġstep s
Ġcoordin ation
Ġrelev ant
Ġdiscuss ed
Ġun fortunately
ict ion
Ġm ut
Ġch ec
Ġbu y
Ġstat us
c l
Ġch rist
Ġ200 7
Ġaffect ed
Ġhapp ens
Ġfor ms
Ġactiv ity
Ġmis s
ra ine
Ġcom ments
at ure
Ġeuropean s
an n
it able
Ġpar agraph
pris es
Ã ©
Ġh y
Ġpro ceed
Ġpl ans
Ġann ual
m ed
Ġg ir
ment al
Ġcom ment
Ġtr uth
Ġspe aking
Ġ %
Ġcomp reh
Ġdirect ly
se t
Ġcall s
Ġhappen ing
Ġear lier
Ġhuman itarian
Ġsc ope
Ġdist ribut
i ra
Ġmed ic
ou ble
c ertain
Ġnew s
Ġclose ly
Ġj e
Ġchar act
Ġgree ce
l om
an u
ens us
Ġanim al
Ġkosov o
Ġsee k
Ġdeal ing
ust om
Ġ1 8
Ġcontribut e
Ġig n
c ul
ag ing
Ġto ur
Ġinfrastruct ure
Ġu lt
Ġread y
l s
ll ed
Ġconnect ion
Ġl ower
Ġaltern ative
Ġall oc
Ġrepresent atives
Ġca used
um e
Ġfin ance
Ġt able
Ġcl ar
Ġdecl ar
go vern
Ġcomm er
Ġpalestin ian
ow s
Ġover all
Ġrece ive
Ġcon dem
oin t
Ġconsider able
c le
Ġs ad
Ġhour s
ly ing
Ġcon cept
Ġwork s
Ġconc ent
pp ing
Ġweap ons
Ġcrit ical
Ġar ri
ate ver
end it
Ġrel ative
Ġref uge
Ġobvious ly
Ġw ind
Ġh or
Ġd ate
Ġgo al
us sels
Ġpre t
Ġtri ed
o very
Ġqu al
Ġexp lo
Ġunderstand ing
Ġaim ed
Ġty p
th ird
om b
Ġdifferen ce
Ġdemand s
w ill
el ines
Ġorgan isation
Ġrussi an
Ġch air
Ġbec ame
Ġspir it
Ġbe aut
Ġjun e
d ra
Ġd ip
Ġun ivers
Ġab ility
Ġla unch
Ġbl ack
i k
m aking
Ġ19 8
Ġb od
ur ally
Ġen jo
Ġco ver
Ġbecom ing
Ġev al
Ġra il
Ġbor der
o h
Ġlead ing
Ġsur v
it ious
Ġb ra
Ġ200 8
Ġlook s
Ġmar ch
.. .
Ġclos er
Ġit em
Ġst ru
if t
Ġconf irm
wor ks
Ġconstitution al
Ġpen al
Ġthousand s
Ġsu d
Ġwor se
Ġrep l
Ġauth or
Ġconvin ced
Ġsu n
Ġstand ard
Ġref eren
Ġun i
Ġcons ensus
Ġspe ed
Ġimpro ved
Ġs end
ac ed
Ġbeh av
Ġsci ence
Ġref erence
cu p
l ant
Ġknow s
Ġdifficult ies
Ġadminist rative
d am
Ġf oot
th ose
Ġg one
Ġas king
Ġfac ing
ag n
Ġtra vel
Ġob tain
Ġlaw s
Ġdam age
r ane
Ġp rison
ar ily
f act
r ants
Ġpolit icians
Ġeng lish
Ġdef ence
pres ident
Ġs il
Ġp ath
ol id
Ġdip lom
Ġf re
Ġad ap
Ġdifferen ces
Ġ $
ok ing
Ġsp ent
Ġh op
Ġtechnolog ies
Ġhun g
Ġprof ession
Ġsh ip
Ġcharact er
e v
ord ing
Ġmo ther
Ġuk raine
Ġcomp l
Ġappro ved
ple ase
Ġ1 00
Ġenter prises
er ves
Ġneg ative
anu ary
Ġs lo
Ġgovern ance
Ġappe ar
Ġdiscri mination
on ly
Ġdevelop ments
Ġ200 9
h is
Ġa head
Ġf uel
un der
Ġj anuary
Ġright ly
Ġafghan istan
is ms
Ġsit ting
Ġbus h
Ġenorm ous
ak istan
Ġcont rary
Ġconst ant
Ġleaders hip
Ġb lo
Ġprodu ced
Ġfinan cing
Ġwh ite
ur ance
Ġcont ract
Ġmo ving
Ġredu ced
Ġdut y
Ġrelig ious
never theless
acc ording
Ġl u
Ġse x
Ġconclu de
Ġprov iding
Ġport ug
alth ough
Ġph ys
Ġsaf e
Ġsuper v
Ġdoll ars
im in
Ġguid elines
Ġh ar
Ġar r
Ġbr ussels
Ġann oun
Ġl og
z ed
Ġj our
Ġful f
Ġrev olution
Ġb at
Ġbo ard
Ġrepres ents
Ġpict ure
Ġput ting
Ġurg ent
Ġplac es
yl um
u fact
Ġa de
Ġeff icient
Ġw to
ver t
Ġprov ision
Ġconclu sions
Ġens uring
y a
Ġmin imum
Ġbod ies
Ġr ound
Ġw all
Ġconsid eration
Ġ4 0
Ġamb itious
t a
Ġhon ourable
Ġe at
Ġadopt ion
Ġentire ly
Ġf il
Ġnet work
y e
Ġimpro ving
Ġexpect ed
Ġcla im
c ers
Ġob st
Ġcompreh ensive
Ġc ustom
Ġ1 4
Ġro b
iter rane
ar ies
eg u
vere ign
iterrane an
Ġas ylum
Ġsuff icient
re et
am es
Ġexp endit
Ġsp read
Ġstruct ure
Ġpre d
Ġtur ned
Ġafric an
Ġp ush
Ġsh a
w ide
Ġf ather
Ġinterest ed
Ġcompet itive
Ġanalys is
Ġbe gan
Ġbud ge
Ġvo ice
Ġse p
te mber
Ġman ufact
Ġsp ain
d es
m es
Ġhe av
Ġequ ality
Ġtot ally
ist ics
eren t
Ġbu ilt
Ġ1 3
Ġhand s
Ġsaf egu
Ġparticip ation
Ġsome one
Ġso vereign
Ġindepend ence
Ġpros pect
Ġt on
el t
Ġdec ades
Ġimmedi ately
Ġital y
Ġcolleag ue
Ġcor rupt
Ġir ish
Ġp akistan
iz ing
Ġt re
Ġcoop er
Ġcomb at
om an
Ġproper ly
Ġcandid ate
Ġtal ks
end er
com ing
Ġdemocrat s
Ġt un
Ġprop ose
Ġcommit ments
Ġsc ale
Ġ201 0
Ġatte mpt
an im
Ġn ice
Ġst aff
Ġfore st
2 00
Ġgo als
Ġinf lation
Ġst ated
Ġac know
Ġur ge
Ġinterv ention
Ġbe ar
Ġadvant age
Ġsep tember
ic les
Ġ200 4
ur d
iv al
Ġg dp
, "
Ġa verage
Ġs ources
Ġp act
Ã ¶
Ġn one
Ġl ay
Ġapp lies
Ġacc omp
Ġc ra
oc ol
Ġte am
Ġsp end
Ġsimp lif
Ġplan et
Ġfig ure
Ġl ose
Ġst reet
Ġcons erv
Ġlook ed
lud ed
Ġve h
Ġm ach
u ght
Ġsupp osed
ent ed
ent ially
Ġstar ting
Ġbur den
Ġrefer red
Ġh it
Ġoc cup
Ġele ments
Ġcompl ain
f rom
Ġwh om
Ġdis aster
Ġrec overy
Ġsol ve
Ġge or
Ġimag ine
y ed
Ġn ation
Ġre act
Ġstrong ly
Ġexcept ion
Ġpie ce
s c
Ġun f
Ġsu s
Ġdo ct
Ġqu ot
uc k
Ġex cess
Ġadd ed
Ġle a
Ġcomp ens
e conom
x ic
en e
Ġp ra
Ġin h
Ġevery body
Ġint ended
Ġfe ed
Ġmay be
ir ms
âĢ ĵ
Ġme rely
Ġcall ing
Ġdiscuss ing
Ġtur k
Ġbal anced
Ġdra wn
Ġfac ilit
Ġappe ars
Ġcommer cial
p ut
Ġs ource
un t
Ġman aged
Ġstud ents
Ġe ight
Ġwe alth
Ġen h
Ġredu cing
Ġintrodu ced
Ġmechan ism
Ġking dom
or k
ill s
aren ts
c alled
Ġsupport ing
Ġelect ed
at ically
el s
Ġaccept able
Ġflo or
re te
au gh
Ġreferen d
s y
Ġst ock
au ght
Ġlar gest
Ġd ict
Ġwith dra
Ġinc ent
Ġb ir
if ul
Ġintrodu ction
Ġf ast
Ġfor ced
id ents
Ġmembers hip
Ġappe al
Ġtarge ts
in stead
Ġopen ing
bor der
e li
oc ks
Ġtr uly
Ġtrans fer
Ġexpl an
Ġarr ange
Ġbudge ts
Ġh ost
Ġvis it
Ġac qu
Ġc ro
pe ople
us ing
Ġaim s
Ġc r
Ġsan ctions
Ġo ught
Ġso ld
Ġ200 5
Ġpower ful
Ġfollow ed
Ġs ides
Ġset ting
Ġsur pris
l ines
Ġp et
ul ated
b ased
Ġnorm al
in t
it ation
Ġun able
en ced
Ġprodu cers
Ġaccord ance
o on
Ġtransp arent
Ġconc rete
Ġgreat est
Ġcontin ues
Ġsuff ering
Ġcle an
Ġdim ension
Ġp ub
Ġme ant
Ġintrodu ce
l us
Ġdo or
Ġaddress ed
Ġd a
Ġinc or
Ġmain ly
Ġbureau c
y ear
Ġw oman
Ġcons umption
Ġrespon sibilities
Ġexpendit ure
u ations
Ã ¡
Ġch em
Ġspecif ically
Ġwh atever
ri ght
Ġachie ving
Ġnat o
Ġnet works
Ġdeter min
Ġfamil ies
re p
Ġor d
Ġag encies
Ġdest ro
Ġse ven
Ġv ul
comm ission
Ġun anim
Ġman ner
Ġpre fer
Ġemphas ise
Ġkore a
b s
Ġl ines
gy pt
Ġfra ud
Ġins ide
Ġdeg ree
res pon
Ġrep ly
Ġcommun ic
Ġofficial s
i j
Ġst ra
Ġwor ry
Ġopp osed
Ġcomput er
Ġdo g
Ġad just
Ġdrug s
Ġflex ibility
e es
Ġe yes
Ġne ither
Ġv ision
Ġgra du
m as
Ġl ies
Ġg ame
Ġrepresent ative
Ġf if
Ġf elt
Ġsh ared
Ġspeci es
Ġpub lish
Ġcont act
Ġmo b
Ġb ot
Ġobs er
Ġo ct
Ġd ream
Ġpromot ing
Ġcomp lic
Ġvul ner
Ġp un
Ġcomp ar
Ġper man
Ġlet ter
Ġcare fully
Ġpret ty
ve mber
Ġcontin ent
Ġbeaut iful
Ġact ual
Ġhim self
Ġplay ing
Ġrom ania
Ġdeclar ation
or ry
Ġca uses
) ,
Ġother wise
Ġtrans form
Ġ200 6
Ġsec ure
Ġwa it
Ġcontain s
Ġmethod s
z y
Ġre le
Ġfor th
Ġco ld
Ġfact or
Ġmill ions
f e
Ġmed iterranean
Ġfig ures
Ġimmedi ate
Ġno vember
5 0
ab il
si zed
Ġdeleg ation
Ġs ize
Ġd y
Ġ1 6
wh o
lant ic
Ġp arents
Ġdis app
Ġmean ing
Ġreg ular
Ġatte mp
Ġconstruct ive
econom ic
ro so
ent y
Ġdesign ed
Ġameric ans
Ġinform ed
Ġpros per
Ġe lement
Ġcan cer
oura ge
Ġrun ning
a w
Ġdef end
Ġinteg rated
Ġbel g
Ġdocu ments
Ġreject ed
Ġexer cise
Ġi i
op s
Ġsubstant ial
Ġt end
Ġwel com
Ġst rict
Ġlead er
ate ful
Ġaff ord
Ġprev ention
Ġelect ric
Ġinst ance
Ġrecogn ition
ul ations
per haps
Ġb er
Ġte le
Ġst im
Ġchar ter
Ġrepe at
m ay
ur s
Ġgo d
Ġsp anish
Ġaud it
n es
re l
an other
Ġex ec
mr s
Ġimprove ment
Ġvir t
v iet
er y
Ġd er
ate g
Ġcommun ities
Ġsens itive
Ġreferend um
st ood
Ġsupport s
Ġser ve
Ġfac ed
Ġresol ve
t ic
Ġw id
Ġparliament s
Ġdes ire
Ġins ist
Ġlim its
Ġmor al
Ġdis ch
ob er
Ġlarge ly
commission er
Ġt ren
Ġto uch
Ġh om
Ġke pt
Ġdeal t
Ġtrad itional
Ġint ention
Ġ1 7
Ġ200 3
Ġsubsid ies
Ġdeli ver
Ġturk ish
Ġy ork
Ġsa v
Ġcar s
Ġstruct ures
Ġcou ple
Ġcomb ating
Ġstru gg
Ġres ist
Ġinvest ments
Ġmechan isms
m ark
Ġst uff
Ġ200 1
rat ic
Ġrecogn ise
Ġeng ine
Ġgl ad
govern mental
ag en
Ġrel ated
Ġwish es
Ġoct ober
Ġtarge t
Ġobst ac
m atic
z one
Ġar ms
Ġpri m
Ġimplement ing
Ġattack s
Ġh ot
Ġe p
Ġe gypt
Ġexp orts
Ġcontin uing
go ing
Ġpol and
Ġpoin ted
Ġcha mber
Ġfact ors
Ġwa iting
Ġd iversity
Ġsee ing
Ġob ama
Ġlear ned
Ġrefuge es
Ġsafegu ard
en h
Ġcontin ued
Ġexamp les
Ġyour self
Ġindividual s
Ġisra eli
Ġsign ed
ro ad
Ġprot ocol
Ġplay ed
Ġlab or
Ġeas ier
Ġpass eng
ill ed
Ġpract ices
Ġp an
or ary
Ġst ake
Ġpos itions
Ġcred ibility
Ġital ian
Ġco al
Ġrapporteur s
Ġ199 9
Ġbring ing
Ġintel lig
Ġdefic it
Ġar rest
Ġla id
Ġgr ateful
Ġgree k
Ġtour ism
Ġcorrupt ion
m os
Ġatt ract
Ġaut om
Ġc ateg
Ġser ies
Ġhon est
Ġdefin ition
Ġemerg ing
in ary
Ġdy nam
l adies
Ġbas ically
Ġstreng th
sib ly
n ic
Ġext end
it ch
Ġb on
ted ly
Ġ200 2
Ġset t
f are
in y
Ġspeak ers
Ġfed eral
Ġmut ual
con t
Ġsa ve
Ġswed en
Ġt ro
Ġc ities
Ġp ill
Ġsy mb
stand ing
Ġfeel ing
Ġpay ments
r s
Ġcon ver
ab les
Ġ2 1
ak en
Ġop eration
Ġnor thern
Ġkind s
Ġsubsid i
Ġmus l
an a
Ġadv oc
Ġwrit ten
Ġpop ular
Ġbar ri
Ġorigin al
ind ing
Ġter ri
Ġinclud es
Ġeng age
Ġasse mb
Ġdr ink
Ġmand ate
Ġma x
Ġresol utions
Ġstrengthen ing
Ġatt itude
Ġrecommend ations
Ġpart ner
Ġmass ive
Ġmus ic
t w
ar ks
Ġstate ments
Ġhelp ed
Ġel imin
Ġopt ion
Ġpass ed
Ġfin e
Ġbecom es
b it
i ers
Ġr ange
Ġunder stood
sequ ently
Ġconsult ation
% .
Ġme ps
Ġkid s
Ġk y
third ly
Ġade quate
Ġb ase
Ġh ous
le ction
Ġgen eration
Ġmin ority
th us
Ġso viet
Ġ20 20
Ġtax es
Ġlos s
Ġcod e
Ġsymb ol
Ġth or
Ġb ill
ve red
Ġvot es
g round
Ġm ission
Ġimp lic
Ġtreat ies
Ġfight ing
pr ise
des pite
Ġc ourage
Ġh ur
os es
Ġchang ing
m on
r ant
r ich
z il
it es
Ġprop ortion
Ġb ound
Ġrenew able
Ġdeb ates
Ġdom in
Ġc ub
Ġgener ally
et ic
Ġact s
Ġwithdra w
enh agen
Ġst o
Ġexp ression
Ġrem ark
Ġph il
Ġeas ily
Ġbar roso
Ġ .
Ġcom pe
Ġinc red
Ġlangu ages
Ġbrit ain
im b
Ġj uly
con s
Ġlat in
b u
Ġsub mitted
Ġpo ore
Ġregul atory
Ġfor g
ap pe
Ġget s
Ġdirect ives
Ġgr and
Ġph ot
Ġdisch arge
p ret
as sion
il ing
Ġab ol
Ġcl osed
Ġ ...
Ġf ix
Ġun s
Ġcond ition
Ġterror ist
Ġlist en
Ġlink ed
Ġs orry
Ġestablish ment
Ġadap t
as ters
Ġu t
Ġnu mbers
Ġequ ally
ra id
Ġco vered
Ġeven ing
Ġdra f
Ġcho ose
Ġpati ents
Ġf ire
Ġre ven
Ġpres ence
Ġplan ning
Ġaf raid
Ġcontrol s
Ġhead s
Ġmist ake
Ġincor por
y our
k en
Ġun certain
Ġk new
Ġ2 7
Ġsign al
ar us
Ġser b
Ġacc ident
Ġobs erv
bo th
c ast
Ġpro ve
lo ok
ru it
Ġsp ok
Ġprot est
ron ic
Ġconflic ts
Ġemploy ees
Ġrepe ated
p art
Ġun like
Ġconst ruction
Ġdri ve
Ġtack le
Ġd ie
Ġso ft
Ġr id
Ġmed ical
Ġris ing
Ġlear ning
Ġchem ical
p ir
op les
Ġcondem n
Ġc ult
Ġins urance
Ġbook s
Ġfre qu
in c
Ġbal k
Ġbel ong
Ġlar ger
Ġpe oples
Ġsp oke
Ġguarante es
lev ision
Ġident ity
Ġkill ed
ing ly
Ġinvest ors
Ġbig gest
Ġoblig ations
Ġappreci ate
h ib
r id
Ġelect or
Ġ6 0
Ġdise ases
Ġoccas ion
Ġb omb
Ġtra in
Ġglobal isation
Ġnat urally
Ġmeet ings
Ġcor por
Ġperman ent
Ġcritic ism
Ġrelative ly
Ġvulner able
stit ution
Ġexper ts
or se
and on
Ġqu ant
Ġcar bon
Ġreason able
Ġem er
r il
Ġv ast
Ġb ilateral
Ġso le
Ġcons olid
Ġestablish ing
Ġim f
d i
Ġo ce
um er
Ġdec is
Ġbo y
Ġsm es
Ġwel fare
Ġcare ful
Ġlu x
i ence
Ġur ban
Ġpen sion
Ġgrant ed
Ġsepar ate
Ġprofession al
Ġg ender
Ġse vere
Ġsit uations
Ġ19 7
Ġlegit im
p ort
Ġf irms
et ies
Ġab andon
Ġprotect ing
Ġtechnolog ical
an cing
Ġhelp ing
Ġcop enhagen
Ġis n
loy ed
Ġbr ings
Ġgeor g
Ġex ists
ne y
Ġliberal isation
Ġd ig
Ġsocial ist
Ġexpect ations
Ġtrad ing
Ġinc om
Ġe ye
Ġcomp ared
Ġte levision
Ġinvolve ment
Ġsubsidi arity
g ra
Ġo k
Ġam az
Ġph en
k es
Ġy e
Ġbel arus
Ġparticip ate
Ġblo od
on ce
ab or
Ġstrong er
Ġstud ies
Ġal liance
Ġr out
Ġpl ant
Ġpeace ful
Ġpoll ution
Ġphen omen
Ġto wn
Ġdis appe
Ġsee king
Ġswed ish
Ġwor st
Ġco ast
Ġ199 0
Ġult imately
Ġthor ough
Ġst able
Ġus ually
Ġjapan ese
Ġdefin ite
s k
Ġdis pl
Ġexp and
Ġar ch
Ġar my
Ġdec ade
Ġmin orities
Ġend orse
Ġallow s
Ġbl ock
Ġtraffic king
t ies
Ġb os
Ġansw ers
if ying
Ġple as
Ġsumm er
Ġassemb ly
p ay
en ary
Ġde light
Ġpl ants
Ġapp arent
Ġsp ort
Ġap ril
ster dam
Ġsud den
it ial
Ġun less
Ġmo bility
Ġelse where
Ġassoci ated
Ġ ice
Ġint end
Ġinter pret
Ġnear ly
Ġsp ring
Ġins pect
Ġresol ved
Ġine v
Ġperform ance
g iven
Ġin itial
Ġne ther
os p
Ġcont rad
Ġimprove ments
Ġdoll ar
Ġterrit ory
Ġcell s
Ġcomplic ated
ch ina
Ġimp osed
Ġexp ensive
ress ive
Ġent it
Ġwrit e
Ġsignificant ly
Ġconsist ent
qu ality
Ġrem arks
Ġcent re
Ġsoci eties
Ġcri mes
Ġbra zil
Ġnether lands
Ġto ler
Ġcap able
Ġschool s
Ġdri ving
gar ia
g ment
h ol
m ission
Ġis ol
the ir
Ġstat istics
h ave
i ar
n ia
is on
Ġan g
Ġbir th
Ġelectric ity
b ur
n or
with out
Ġpl enary
Ġatt ach
Ġdep ends
Ġest im
Ġvol unt
d id
Ġpolit ically
Ġappro val
Ġcitiz en
Ġexc lu
Ġassoci ation
Ġcollect ive
Ġhundred s
Ġenjo y
Ġarrange ments
d uring
Ġsome what
com p
pr us
Ġs qu
Ġd ign
ci ous
Ġam sterdam
Ġcommitte es
Ġec b
Ġargu ment
ul ating
Ġtalk ed
Ġemphas is
Ġimmig rants
Ġplac ed
mar ily
Ġrad ical
, âĢĿ
Ġ x
Ġto b
Ġrem o
Ġcompet ence
Ġsch e
eng en
s pe
Ġd ied
Ġpromot ion
do es
u sion
Ġsh ar
Ġsmall er
Ġunivers al
n al
Ġpri marily
Ġban king
i ent
Ġse ll
Ġacc ounts
Ġrest ruct
Ġtas ks
Ġeval uation
ent h
Ġoff ers
Ġim age
Ġen force
m at
t ra
it ness
le ep
Ġcon ce
Ġfact s
Ġfind ing
Ġdemonstr ated
Ġmaterial s
Ġsav ings
o x
Ġam ounts
Ġad vert
Ġworld wide
Ġcould n
Ġbelie f
Ġoper ations
Ġprosper ity
h er
am eric
Ġlead s
Ġperson ally
Ġabs ence
Ġencoura ging
Ġbor n
Ġargu ments
Ġb ab
Ġjust ified
Ġprotect ed
Ġorgan ised
Ġsur ve
Ġcontribut ions
Ġvar i
Ġrelig ion
Ġislam ic
w ing
Ġpro ved
act ory
ul l
Ġopt im
Ġcy prus
Ġdetermin ed
d own
Ġs light
Ġc ast
Ġg al
Ġpar al
ak ers
ish ing
Ġhigh est
Ġorgan ization
Ġd ark
Ġre tain
Ġwe ight
ap se
Ġpropos ing
Ġoper ate
Ġge ograph
Ġ8 0
Ġdetail ed
Ġlegit imate
Ġsche me
Ġeuro zone
oin ted
Ġshow ed
Ġsou thern
Ġaudit ors
w ould
Ġc ore
Ġg az
Ġent ry
Ġdemonstr ate
Ġextra ordin
Ġbul garia
Ġrestrict ions
Ġveh icles
Ġstra ight
Ġm ic
Ġpropos es
ress ed
Ġdep art
Ġexist ence
Ġpat tern
Ġdut ch
comm un
Ġspok en
- -
Ġc ard
Ġre n
Ġre li
Ġbe ings
Ġadv ance
Ġperson s
Ġrecogn ised
Ġemerg ency
Ġtool s
Ġdistribut ion
Ġm oun
Ġinter governmental
Ġsch engen
Ġfav or
Ġtax ation
Ġportug al
Ġinvol ving
Ġprim ary
t ime
Ġc z
Ġfa ith
Ġoppos ite
Ġmig ration
Ġb inding
as ing
Ġtrans ition
Ġver sion
Ġc am
Ġre ve
ag ree
ove red
Ġbarri ers
3 0
u able
le y
il st
Ġdef ined
Ġap art
Ġevent ually
Ġtyp es
Ġsha pe
f ic
o o
on ia
Ġm ag
Ġv ig
Ġac ce
Ġext ended
Ġstand s
Ġamong st
Ġproper ty
Ġdescri bed
b ru
f ace
Ġc atch
Ġsh o
Ġflex ible
Ġannoun ced
re es
Ġun iversity
Ġsome body
Ġchec k
Ġcompens ation
u gh
Ġb all
Ġtreat ed
Ġprom ise
Ġnegoti ating
Ġtemp orary
Ġlab e
ond on
Ġlat ter
Ġrapid ly
Ġheav y
sy ch
Ġlegitim acy
Ġp sych
le b
ac co
Ġpre m
Ġbo ost
Ġwonder ful
c are
Ġn os
Ġequ ip
Ġadv anced
Ġhold ing
Ġlat est
Ġpurs ue
Ġwal k
Ġp ure
Ġh osp
Ġfor t
Ġimp ose
Ġpri or
Ġrespect ed
Ġfunction ing
Ġintel lect
Ġdelight ed
bru ary
c ould
Ġfoc used
Ġp ick
Ġpro c
ud s
Ġmo ved
Ġopt ions
e e
Ġdis asters
Ġimport s
ang ing
Ġlit er
Ġhealth y
Ġopin ions
Ġguarante ed
Ġconstant ly
Ġcz ech
Ġs on
ar i
Ġindust ries
Ġsubst ances
Ġmax imum
c ar
Ġf at
Ġcomp ly
Ġover come
Ġfreedom s
Ġbehav ior
Ġs ession
Ġfe bruary
Ġform al
Ġjud icial
Ġrecommend ation
Ġhistor ical
Ġjour nal
if e
Ġoff ered
Ġdist in
Ġm ac
ut ed
ad v
Ġconc luded
Ġfirst ly
Ġdign ity
Ġhosp ital
e mb
Ġor al
Ġadop ting
Ġpublish ed
b ack
u ous
Ġw itness
rou d
Ġass ume
Ġtrad ition
g u
Ġth row
Ġp i
il iation
Ġme at
Ġadv ice
it ime
Ġre cession
Ġmar k
Ġallow ing
Ġbal tic
Ġmanufact ure
Ġtob acco
t r
on om
Ġto ward
th rough
Ġst ories
Ġcommission ers
Ġplay ers
Ġmil k
aren ess
Ġkeep ing
Ġce leb
Ġmult ilateral
Ġsk ills
Ġoblig ation
Ġsecret ary
Ġst abil
Ġcomp on
Ġsc and
Ġph ase
Ġincreas es
tw o
Ġp pe
Ġgu y
Ġcent er
Ġinvol ves
oub tedly
Ġpalestin ians
Ġd ouble
Ġri g
Ġpre ced
Ġmar gin
Ġsur round
Ġme xic
Ġevery where
Ġprom ised
Ġincent ives
l ined
Ġv ill
Ġj oh
Ġli e
Ġbl ue
Ġstrateg ies
' ,
g ence
s ub
Ġw ine
Ġs ac
ing u
Ġn ar
Ġmar itime
Ġstand ing
Ġhistor ic
er o
ay s
ab ilities
Ġfirm ly
Ġdiplom atic
Ġfacilit ate
v ak
ot o
Ġcont rast
Ġeffect iveness
Ġtax pay
Ġdeep ly
Ġperfect ly
Ġvolunt ary
d ing
on y
Ġv ice
Ġelect ronic
e qu
ro te
iz ations
Ġpos sibly
Ġdecl ine
Ġdetail s
Ġcustom s
Ġexcess ive
Ġexplan ation
Ġdecis ive
a i
Ġf aster
Ġnot ed
Ġtra ged
Ġput in
Ġthe ory
res h
am ed
Ġaf tern
Ġexper t
Ġaw areness
Ġbrief ly
Ġfulf il
a x
Ġbe g
Ġwas h
Ġthere by
Ġcooper ate
Ġentit led
Ġp roud
Ġm c
ri an
ad a
and a
Ġpur ch
Ġhear ing
Ġrom a
Ġrepl ace
n one
Ġs we
Ġas ian
Ġv ia
Ġqu ar
Ġass ure
Ġcris es
Ġinclu sion
Ġdest ruction
Ġphys ical
Ġintellect ual
cept ion
Ġdraw ing
umer ous
u mb
Ġo mb
Ġf it
Ġsy n
Ġmat ch
Ġopen ed
Ġsustain ability
Ġgir l
Ġalloc ated
Ġomb uds
Ġw rote
Ġin ade
Ġse arch
Ġag g
Ġ2 4
Ġ5 00
our g
Ġtrans l
Ġcut s
Ġcoll apse
Ġret ur
Ġz one
bour g
Ġforth coming
Ġaftern oon
Ġb ed
as bourg
wh ich
Ġbelie ves
Ġcho ices
Ġground s
last ly
Ġre action
Ġgo ld
Ġwas n
Ġeth nic
emb ourg
Ġrel ates
Ġbl ame
Ġspeak er
Ġsuff er
Ġlaunch ed
Ġgeorg ia
Ġon going
Ġle ban
Ġra c
Ġmo v
term ine
Ġsatisf ied
Ġund oubtedly
Ġno body
Ġcre ates
Ġshow ing
Ġrad io
i mp
Ġf ruit
Ġdis agree
ific ations
Ġsuggest ed
Ġaust ria
Ġobstac les
Ġimplic ations
bu ild
a mb
in i
at o
Ġf light
st ate
Ġde termine
os en
Ġstr asbourg
ne cess
Ġchair man
m ing
Ġto ugh
Ġab stain
Ġab use
ire ct
Ġ199 7
Ġ199 8
Ġbel ow
Ġord inary
Ġoce an
Ġpro sec
Ġsub mit
Ġsc en
Ġdisp os
Ġv ide
ren eur
Ġcommun ist
Ġprocess es
Ġnecess arily
Ġpati ent
Ġsex ual
rep reneur
Ġbot tom
Ġequip ment
b all
Ġunder min
Ġval uable
eng th
Ġfarm ing
Ġterri ble
d is
Ġt it
Ġh us
Ġus a
Ġback ground
Ġem ot
Ġhard ly
Ġdict ators
Ġs pect
Ġnot ice
Ġr an
Ġjud ge
Ġurg ently
Ġchrist ian
Ġsovereign ty
Ġlux embourg
se e
Ġsh ift
Ġreal istic
Ġplan ned
Ġwide ly
Ġserb ia
Ġbalk ans
il es
Ġdis m
Ġdefinite ly
b es
Ġtr ouble
Ġpre f
Ġwar s
Ġess entially
Ġsignific ance
Ġtro ops
Ġrestruct uring
Ġe cu
Ġres erve
Ġab road
Ġact ing
Ġarg ue
Ġrecon st
Ġlea ving
Ġlabe lling
Ġg ap
Ġrepresent ed
Ġexperi enced
Ġrecogn ize
Ġoper ating
Ġturn s
Ġstrengthen ed
Ġwelcom ed
a id
y le
Ġis land
Ġsh ad
Ġev olution
Ġappro ve
Ġsupp lement
Ġteach er
Ġombuds man
t ur
is ory
Ġn umerous
Ġyou th
Ġpart ly
act ive
Ġent repreneur
Ġrest ric
Ġda ily
Ġpro hib
Ġal i
Ġfollow s
Ġun necess
Ġsu gar
Ġmon op
Ġsen sible
Ġwid er
ou th
ld er
Ġgreat ly
Ġprep are
Ġpurp oses
Ġpred ict
or ial
Ġm ent
Ġimp ression
Ġvot ers
Ġless on
Ġcontain ed
augh ter
Ġpresident ial
Ġrem ove
Ġinter ven
Ġinnov ative
at ures
an cy
ic ed
Ġch osen
Ġany body
Ġless ons
Ġcoordin ated
Ġreflect s
Ġmist akes
Ġharmon isation
Ġaccomp an
sc ale
Ġky oto
g os
Ġbo x
Ġconstit u
reg ard
dem oc
Ġuni que
Ġprospect s
ur ch
Ġch ann
Ġnever theless
Ġfound ation
Ġsure ly
Ġsubst ance
Ġexam ine
Ġ âĢĻ
Ġs leep
Ġad mit
Ġrequest ed
Ġscient ists
Ġsuperv ision
ic ip
ast ic
Ġac p
Ġpri ze
ail s
Ġrequire ment
Ġbuild ings
Ġbehav i
Ġacknow ledge
Ġpoore st
m o
s on
Ġv es
Ġres erv
te en
Ġsuff ered
Ġvis a
Ġcoll abor
Ġoccas ions
Ġsurpris ed
Ġforg ot
Ġt ed
at lantic
Ġw at
Ġst ocks
Ġprodu cing
Ġpat ent
Ġpenal ty
Ġtren d
Ġstrugg le
n el
ot ed
Ġr ational
Ġmin ute
Ġbr id
Ġdepend ent
Ġsucceed ed
Ġdefic its
Ġhop es
r ating
Ġt ight
om s
ul a
Ġident ified
Ġasse ts
Ġuni verse
Ġgaz a
l av
re w
Ġo s
Ġm os
Ġl ic
Ġv an
Ġch ap
Ġend ed
Ġinf ect
Ġbat tle
Ġ 0
Ġl ived
Ġl ondon
Ġconc iliation
Ġpay ment
Ġphenomen on
Ġc ry
Ġl ength
Ġun if
Ġr h
Ġra in
Ġsy mp
Ġ19 6
Ġcor respon
Ġrev ision
Ġpay ing
Ġurg ency
hold ers
Ġunf air
ou d
Ġi mb
et s
Ġrec all
Ġviol ations
Ġadvert ising
g ic
s imilar
Ġf al
Ġdes erves
Ġfamil iar
p rodu
Ġm ap
Ġfl ow
rel ated
f our
h ouse
Ġpol ish
ph ere
en cing
Ġha mas
Ġfield s
Ġlos ses
Ġclar ify
Ġre lie
Ġmoun tain
Ġal ban
si ght
Ġar med
Ġpers u
Ġoper ational
Ġthreat s
Ġslo vak
n l
it ect
Ġsp l
Ġfr ank
Ġmach ine
Ġdynam ic
Ġb ought
or ing
ir ing
Ġdec ent
Ġimportant ly
Ġdef ine
Ġdifficult y
Ġtri al
ib et
Ġdoct or
Ġcro at
adv ant
w are
er b
Ġs ister
Ġre iter
Ġfor um
ab ling
Ġprevent ing
Ġtest s
Ġprepar ing
Ġextraordin ary
Ġn gos
Ġpro di
ul s
Ġsu sp
Ġdis advant
Ġer a
Ġident ify
Ġsent ence
Ġreflect ed
gen eral
ca pe
Ġcam er
w ar
ers on
Ġext ension
Ġexc lus
Ġn ig
Ġch arge
Ġpos sibilities
Ġsuccess fully
lic it
Ġhouse hold
Ġlot s
Ġprof it
Ġcoh erent
Ġmodel s
Ġarch itect
Ġc aught
Ġn ine
Ġal leg
Ġas h
Ġcomp liance
vious ly
Ġbor row
Ġ7 0
Ġshar p
oint ment
Ġarri ved
Ġacknow led
Ġpill ar
stitution al
Ġreli able
p read
ul f
con sequently
Ġfe et
Ġdeal s
ides pread
Ġaddress ing
Ġgir ls
Ġmusl im
f ree
os lav
Ġcla ims
os oph
Ġpresident s
Ġacc ur
ib ly
Ġche ap
Ġmedic ine
Ġprison ers
Ġin j
Ġimp er
Ġsy ria
ug oslav
Ġcandid ates
Ġwarm ing
Ġin n
un g
Ġ2 3
Ġprom ises
Ġexec ut
Ġsett lement
r ussi
as m
Ġse at
Ġold er
Ġdecl ared
Ġtop ic
Ġtraged y
Ġreconst ruction
v est
Ġw idespread
Ġo l
Ġf resh
Ġext ensive
Ġconsider ing
Ġchar ges
Ġsymp ath
b ing
w an
Ġre ass
id ity
Ġun ity
um ed
ici ently
Ġsur prise
Ġconcent rate
Ġf lu
Ġe t
Ġre ly
Ġha ven
Ġex ceed
Ġexp an
Ġtell ing
Ġ9 0
Ġoccur red
Ġhous ing
Ġelector al
Ġamaz ing
Ġpleas ure
Ġdispos al
% ,
Ġb reat
Ġm ine
Ġre cip
be fore
Ġaffect s
Ġwilling ness
Ġmiss ing
Ġmedic ines
Ġhung arian
Ġmob il
Ġphil osoph
Ġt ibet
Ġw ife
Ġo d
Ġm ix
th ly
Ġst ation
Ġse ts
Ġtw enty
Ġinf ring
Ġappropri ations
Ġfair ly
Ġterrit orial
p ts
ke ts
Ġtim et
Ġtra ck
Ġopen ness
Ġbro ther
Ġconfirm ed
Ġreve al
Ġunif orm
a ult
Ġf er
ce l
os ition
Ġexp licit
Ġnew sp
Ġar m
Ġdeb ating
Ġdisc overed
Ġph one
Ġflo od
Ġconduct ed
Ġfil m
Ġy ugoslav
Ġorgan izations
Ġ201 1
Ġmexic o
Ġen de
Ġch urch
Ġus ers
ap ers
ag ain
Ġiss ued
Ġacc idents
Ġdeter mination
uff icient
Ġdeli ber
Ġcal cul
Ġattemp ts
Ġuncertain ty
Ġres erves
Ġcl in
Ġbl ind
Ġmot or
Ġmaintain ing
ha ving
Ġdig ital
Ġproduct ivity
Ġfl ag
Ġmaintain ed
Ġill ust
Ġrecon cil
Ġcontract s
Ġquot as
Ġpun ish
Ġshad ow
b el
Ġc row
Ġav iation
Ġaut onom
Ġsatisf actory
Ġrele ase
Ġber lin
Ġbehavi our
Ġexpan sion
Ġ â
Ġt v
Ġg ames
Ġreg ist
ag ue
Ġtra gic
Ġdemand ing
Ġprof ound
Ġstat ute
n ational
r ont
ad ing
Ġhum ans
Ġdirect or
Ġinter f
Ġencoura ged
Ġapply ing
Ġlink s
Ġrat ification
Ġpasseng ers
Ġtaxpay ers
e th
Ġm ort
as c
Ġst ick
Ġstr ange
ues e
Ġrest ore
Ġprof its
Ġoper ators
Ġvict ory
Ġregret t
Ġneighbour s
Ġjoh n
Ġwat ers
t ake
x ts
Ġse lect
ang es
Ġstud ent
Ġeng aged
Ġcolle ge
ograph ic
Ġundert aken
Ġcub a
z z
er ved
it ical
Ġd in
Ġal arm
ob viously
Ġfisher men
Ġdiv ided
Ġhighlight ed
Ġinvestig ation
Ġende av
Ã ¼
qu es
um an
ock ed
Ġdut ies
Ġemb ar
Ġhy p
Ġexclu sion
Ġvide o
Ġt ort
ke ep
Ġat mos
Ġtw ice
Ġsur pl
Ġcomb ined
Ġfour th
Ġlos ing
Ġcarry ing
Ġremo ved
Ġinade quate
Ġleban on
h and
Ġs ought
Ġdis cip
Ġfin ish
Ġcour ts
Ġent ered
Ġtur ning
Ġide al
Ġsuggest s
ira ble
Ġworry ing
Ġimb al
c ount
at t
Ġs ake
en n
ing ton
Ġli qu
Ġbelie ved
Ġresult ing
Ġdra matic
Ġreach ing
Ġterror ists
Ġmot iv
Ġz ero
Ġsurv ive
Ġenh ance
Ġsto pped
p orts
Ġt ar
Ġact ively
Ġfin land
Ġhuman ity
Ġsupp lies
Ġexplain ed
Ġportug uese
ic y
Ġl uck
Ġwh ilst
wh el
Ġput s
Ġreal ise
Ġown ers
Ġsc ot
Ġsur face
Ġfall s
Ġbeg un
it z
Ġex e
Ġaid s
Ġintrodu cing
h us
r ates
Ġa ug
Ġv acc
ud i
Ġfin ished
Ġbig ger
Ġgener ations
Ġdisp ute
Ġsus pend
c s
i ant
Ġf ly
th es
Ġres ource
Ġover whel
Ġconsequ ence
Ġseem ed
Ġine ff
in o
in stitutional
Ġpro of
Ġcomple ted
Ġfam ous
Ġlist ening
Ġgre ens
Ġresist ance
Ġunlike ly
Ġfort un
c ra
Ġs ight
Ġk il
Ġad m
Ġthan king
Ġlaw y
Ġfew er
Ġcontribut ed
Ġign ore
Ġm agn
Ġr ough
Ġev ol
ign ed
Ġ199 6
Ġcreat ive
Ġsuff iciently
Ġcred ible
Ġb ol
âĢĻ .
Ġgovern ing
Ġdes erve
Ġsch ed
Ġremain ing
Ġachieve ment
Ġwatch ing
Ġinterpret ation
k y
Ġ ,
Ġs ick
Ġd rop
ra cies
os s
ci ent
Ġco ff
Ġra ising
Ġcl ause
Ġdef ense
Ġatt end
Ġfac ilities
Ġopp ose
Ġpurs u
every one
Ġproceed ings
Ġv at
Ġeconomic ally
Ġfl ows
Ġfall ing
app ro
Ġtun is
Ġd ed
Ġad ult
ash ion
Ġmult ip
Ġbroad er
Ġstri ke
Ġsus pect
Ġunnecess ary
Ġw ise
Ġh iv
Ġd ub
Ġra ce
Ġreal ize
Ġprogra ms
Ġnegoti ation
Ġweak ness
Ġconver gence
Ġd ro
ad d
for ced
Ġtrans itional
Ġtrans atlantic
Ġdictators hip
t i
ion al
Ġch ain
all ow
Ġdef e
Ġconstit ute
Ġhead ing
ri end
oun ting
Ġleg ally
Ġgu ard
Ġaw a
Ġadvant ages
Ġcroat ia
r ust
u k
w s
Ġin qu
Ġremain ed
clear ly
Ġviol ent
Ġlea ves
Ġh al
ro g
Ġsu m
Ġpar ad
Ġreg imes
mar ket
Ġcorrect ly
Ġprepar ation
Ġ198 0
Ġeval u
w ater
ur ies
ab we
Ġconf ront
Ġextre m
Ġeduc ational
Ġiraq i
imb abwe
uls ory
i wan
Ġs im
Ġm ur
th ink
Ġco ol
Ġamend ed
ph one
Ġexperi ment
Ġpop ulations
Ġgenuine ly
Ġqual ified
Ġreven ue
similar ly
Ġp il
om in
ter ing
Ġint ens
de b
de velop
Ġind irect
Ġenvironment ally
Ġiran ian
us al
Ġno ise
Ġ2 2
Ġeconomic s
Ġdeb ated
Ġgu ys
Ġsc re
Ġcivil ian
Ġprevious ly
Ġsud an
er ate
Ġg ar
Ġwe b
Ġwor ried
Ġcan ada
Ġear n
Ġton ight
Ġsold iers
Ġbab y
Ġpure ly
Ã ³
or ous
Ġe ch
un ity
Ġint entions
Ġri ver
Ġvi able
Ġpriv ile
Ġsk y
Ġcorpor ate
Ġinn oc
g a
Ġwe ather
se ct
Ġsee ks
Ġra w
act ions
Ġprev ail
h ar
Ġh ol
Ġlo ans
Ġappro x
Ġca using
Ġconnect ed
sh ould
Ġrat ified
Ġbos nia
b and
m akers
Ġref used
Ġins p
Ġsw im
Ġhon our
Ġtarge ted
Ġneighbour hood
Ġbureauc racy
Ġmac ro
b re
c ap
at ible
Ġw ood
Ġas ide
Ġjust ify
Ġregard ed
Ġsol ved
Ġbur ma
Ġamb ition
urs day
s en
Ġ [
Ġus ual
Ġfore most
Ġhealth care
Ġgl ass
Ġgradu ally
Ġelimin ate
Ġincred ible
Ġacce ler
s u
Ġd ump
oc king
ie f
Ġexp ense
ach ing
Ġcap t
Ġfr an
Ġenforce ment
Ġis lands
Ġint ends
Ġmore over
Ġreport ed
Ġdet ect
sid er
Ġexplo itation
Ġslight ly
Ġparal le
b ar
ir ty
Ġsign s
Ġ199 5
Ġcut ting
Ġneigh bor
Ġindic ated
Ġhom es
Ġintellig ence
m ine
Ġp ace
ir y
Ġsh ame
Ġmove ments
Ġstress ed
Ġtre m
Ġadjust ment
Ġcateg ory
n y
we l
am end
pt ion
Ġenv is
Ġpers ist
Ġwar ning
Ġ3 00
Ġcor ner
Ġequ ival
Ġexperi ences
ov a
Ġz imbabwe
Ġrepeated ly
Ġb se
Ġf ing
ic ted
Ġwould n
Ġconsid ers
Ġins ufficient
Ġcontro lled
Ġcong ress
co hol
Ġanal y
Ġremark able
Ġsole ly
r ors
Ġth ursday
Ġg ri
Ġv ac
Ġ2 6
Ġinv ited
Ġmost ly
Ġcertain ty
pl ace
Ġpercent age
Ġaltern atives
Ġd anish
res hold
Ġar ise
Ġdec re
Ġper pet
Ġreal ized
Ġfac es
as ion
ri f
Ġk n
Ġany where
ribut e
Ġmor oc
Ġrefer ring
Ġoblig ed
Ġsal es
Ġcommunic ations
j ud
r ations
s v
Ġth reshold
Ġsa ving
Ġsm oking
Ġphot ograph
Ġemer ged
n at
Ġw age
Ġwe bs
Ġqu ote
Ġher it
Ġtri p
Ġcat ast
Ġg ulf
Ġcomm od
Ġhelp s
Ġjoin ed
Ġgain ed
Ġign ored
Ġsurv ival
Ġconserv ative
sub ject
Ġmov ie
russi a
Ġatmos phere
Ġto m
Ġf ost
ro c
ct ive
ra y
Ġup d
Ġsp ite
Ġind ones
Ġmo ld
Ġend ors
be ing
Ġconv ince
Ġannoun ce
Ġsudden ly
b l
on a
Ġc li
Ġn ut
Ġon to
Ġemp ty
Ġinter institutional
Ġcompet ent
cu se
Ġmind s
Ġapplic ations
Ġemb ra
Ġforgot ten
Ġherit age
Ġsh aring
Ġcomp lement
iz es
Ġind ian
Ġsubject s
Ġslow ly
Ġbelg ium
Ġcult ures
p oint
Ġw ake
Ġw ages
Ġp orts
ly mp
ol er
Ġal ive
Ġunder mine
Ġfe m
Ġoff ering
Ġrespect s
Ġsuggest ions
Ġdoub ts
Ġmob ile
b et
e ff
k i
r ut
s ession
er c
Ġal cohol
Ġper mit
Ġsch em
Ġconsider ably
ec ision
Ġdeath s
Ġnone theless
Ġpra g
Ġfix ed
Ġfrequ ently
build ing
h u
Ġw ed
an ks
al ities
Ġsocial ists
Ġref ers
Ġdisc over
Ġent hus
Ġresult ed
Ġinter pre
Ġplay s
Ġta iwan
Ġnegoti ated
Ġhung ary
Ġentrepreneur s
Ġtimet able
Ġenthus i
Ġt ired
it ably
Ġst ream
um n
Ġcomp ulsory
me an
Ġgen etic
Ġsc ar
Ġinstit ute
Ġdep ri
Ġspeech es
Ġdead line
Ġfal se
cra ft
Ġtrem end
h am
Ġan x
ch es
Ġcomm and
Ġso il
ag er
Ġlist ened
Ġpen sions
Ġpurs ued
Ġtemp er
Ġstim ul
Ġves sels
g n
Ġun re
Ġli ked
Ġpl at
Ġ2 8
Ġdist ort
Ġfriend ly
Ġet c
Ġs ong
Ġd ar
Ġas pir
Ġsc rut
Ġconsider ations
Ġrepresent ation
Ġlib ya
Ġbre ach
Ġharm ful
Ġbad ly
Ġpet itions
Ġdestro yed
Ġvirt ually
Ļ «
Ġreg ister
Ġdemoc racies
Ġfound ations
Ġcod ecision
know n
Ġbureauc ratic
l ong
Ġse ction
Ġfa ult
Ġdem ographic
Ġaffect ing
Ġdemon st
Ġroad s
Ġship s
Ġexecut ive
Ġregrett able
Ġschem es
e ms
n ob
ill ing
ate ll
Ġmar ked
Ġcl arity
Ġmin im
Ġfore cast
Ġir re
Ġer ror
Ġrom e
Ġwind ow
Ġbelg ian
Ġscand al
Ġretur ned
Ġreserv ations
b b
Ġo lymp
Ġp assion
id den
ra p
ch e
Ġun pre
op ard
other wise
to gether
Ġconstit utes
Ġthreat ened
Ġfear s
Ġeth ical
Ġrein force
Ġdisapp ointed
Ġquar ter
Ġinterven e
Ġaccompan ied
Ġbrid ge
Ġinfring e
Ġcoff ee
Ġh at
Ġl ith
Ġk en
Ġdis s
Ġsp here
Ġper ce
Ġmarke ting
Ġrem ed
Ġcol on
Ġnegoti ate
Ġfree ly
Ġpalest ine
oph ob
Ġbon ds
m ory
Ġn av
ci fic
Ġro ot
Ġlast ing
Ġglobal ization
Ġjour ney
Ġnar row
Ġrac ism
h ear
Ġc ash
Ġme re
os is
Ġus es
Ġwhere as
Ġann ivers
Ġdispl ay
Ġcontrad ict
Ġgeograph ical
Ġendeav our
Ã Ń
Ġme mory
ant ly
Ġpres erve
Ġout standing
Ġinc ident
Ġthink s
Ġmill enn
Ġsha res
bur g
k o
Ġc ert
Ġf ashion
ul ous
Ġdis abled
are r
Ġref use
lud ing
Ġrequest s
Ġcomput ers
Ġmillenn ium
in ational
Ġw ild
Ġm it
Ġun fortun
Ġte xts
Ġgen et
Ġim ages
Ġair port
Ġcoal ition
Ġsqu are
Ġaug ust
Ġannivers ary
e ach
f ollow
Ġc as
Ġnot ion
Ġun ions
Ġsu itable
Ġsm art
Ġfail s
Ġdev ast
Ġdeter ior
Ġemploy ers
Ġteach ers
Ġunfortun ate
re qu
ed s
ar io
Ġha z
ad ed
Ġse v
em ic
Ġexperi encing
Ġfall en
Ġrom an
Ġunemp loyed
Ġden mark
Ġpasseng er
Ġmanufacture rs
Ġchap ter
. '
m ic
Ġs ending
Ġf ate
al so
Ġcitizens hip
Ġce ase
Ġcop y
Ġveh icle
Ġvill age
v i
w a
Ġw is
Ġm aced
Ġst ance
Ġat lantic
eren ces
Ġapproach es
Ġbro ken
Ġcompar ison
Ġbo om
Ġcl ub
Ġprov id
Ġdes p
Ġrul ing
Ġbro ke
Ġsw ift
Ġmult inational
Ġexception al
Ġequival ent
y al
Ġn ames
Ġon line
Ġy ield
Ġsh ut
Ġind is
Ġap olog
Ġbenef icial
Ġconst rain
Ġjud gment
Ġcy cle
Ġsound s
Ġasse t
Ġfuel s
9 9
o ly
Ġs ite
le vel
Ġg ross
Ġare n
Ġsh i
Ġev ident
Ġunder lying
Ġtrans actions
Ġph arm
Ġexc luded
Ġneighbour ing
Ġlog ic
Ġfif th
Ġcompon ent
f all
it ative
Ġsh ap
et or
ect ive
Ġrel ate
Ġhelp ful
ne x
Ġneg lect
Ġer ad
lif eration
Ġearth qu
Ġrepl aced
Ġincent ive
Ġwash ington
Ġbreat h
Ġparalle l
r ity
or n
Ġst or
Ġcon vers
ch ild
os ing
Ġch ief
Ġdiv ision
Ġslo ven
Ġchemical s
Ġdisappe ar
Ġinev itable
Ġliter ally
Ġe ating
pp er
Ġmod ified
Ġnecess ity
reg ular
bo ard
Ġsurround ing
Ġlith u
Ġm urd
Ġd an
Ġe lder
lo oking
Ġmod est
Ġ3 5
Ġdist ance
Ġdecl are
Ġgre w
Ġcapital ism
Ġpot entially
Ġdemonstr ates
Ġindic ate
Ġincred ibly
Ġmic ro
Ġrestric ted
Ġt aught
ou red
Ġun p
Ġra ises
Ġsm oo
Ġpresent ing
Ġpresent ation
Ġcomb ination
Ġvis ible
Ġemphas ised
Ġgener ate
Ġmult i
Ġchec ks
Ġobtain ed
Ġregular ly
Ġintellig ent
Ġreconcil iation
Ġfem ale
1 0
Ġb ub
Ġg un
Ġprov en
Ġarg ent
ex ist
Ġlog ical
Ġstreet s
Ġscen ario
Ġâ Ļ«
t urn
in der
Ġg h
Ġsome where
Ġke en
Ġbus y
Ġlib er
Ġperiod s
Ġcomplain ts
c ol
c ulation
Ġact ors
Ġmar t
ang ible
Ġfeel s
Ġret ire
Ġvis ited
Ġdelay s
Ġje opard
Ġobser vers
i ents
k a
Ġa st
ast rich
wh e
Ġfr id
Ġdist ingu
Ġviol ation
ark o
Ġvari ety
Ġrh etor
astrich t
g row
o y
Ġp se
ic ian
il s
ation ally
Ġmar ried
Ġra re
ced ented
Ġdirect ed
Ġant icip
Ġunivers ities
Ġheav ily
Ġunanim ously
Ġsoft ware
Ġestim ated
Ġproc ure
nob ody
Ġ ic
Ġb iod
ver si
Ġfinan ced
Ġma astricht
chn ya
Ġabs or
Ġregul ated
Ġdi agn
Ġvol ume
Ġsatisf action
Ġrelie f
Ġinnoc ent
Ġunpre cedented
arko zy
z en
Ġt ree
Ġa ward
is ra
Ġd av
un til
Ġhe at
Ġbr ut
Ġset tle
com ings
Ġvi et
Ġfail ing
Ġabs urd
Ġprevent ed
Ġfun ctions
Ġvict im
Ġamb itions
Ġec ological
Ġgreen house
Ġult imate
Ġsuperv isory
Ġacqu is
Ġmur der
n s
p al
Ġf ab
Ġl augh
res pect
Ġex cuse
Ġsa udi
Ġref lection
Ġext ending
Ġgrow n
Ġshort comings
Ġsuggest ion
Ġarri ve
Ġaccomp lish
Ġenh anced
Ġrout e
Ġapprox imately
Ġtremend ous
Ġviet nam
d ro
r um
r ous
u ity
Ġo x
ro om
ic ations
ic king
Ġman aging
Ġunder line
Ġhapp iness
Ġregard less
Ġsol ar
Ġval id
Ġine quality
Ġindic ators
Ġaccording ly
versi al
p erson
s m
Ġs and
Ġs atell
Ġe co
Ġk ar
Ġdep ression
Ġart icles
Ġcoordin ate
Ġdi ver
Ġkill ing
none theless
Ġtar iff
o ided
u ct
Ġfinan ces
Ġopen ly
Ġav oided
Ġrev ised
Ġtrad itions
Ġ201 3
Ġche chnya
Ġpie ces
Ġtack ling
ev a
Ġinh ab
Ġfif teen
Ġrele ased
cont ro
Ġstimul us
le x
st ream
Ġl end
Ġst ore
un ction
all ing
Ġgu ess
Ġdifferent ly
Ġfra g
Ġshort ly
Ġfoot ball
Ġhop ed
Ġtransform ation
Ġcollabor ation
Ġtort ure
b as
m al
at isf
Ġha ir
Ġal lies
Ġme mor
Ġcomm end
Ġpar is
Ġint ensive
de p
Ġpl ural
Ġro ll
Ġconf ron
Ġfr ust
Ġproduct ive
Ġaccess ible
Ġenl ar
Ġcompe te
cel ona
a ur
Ġh ence
Ġl ad
Ġun it
Ġpar k
Ġag rees
Ġrec over
Ġacc ounting
Ġ3 1
Ġlack ing
Ġaud ience
Ġhor iz
Ġsil ence
Ġemer ge
Ġapparent ly
h uman
Ġ q
re c
Ġp ul
Ġb ang
Ġre cy
ct ic
Ġeuro pol
Ġli kes
Ġcomp assion
Ġrecogn ized
Ġdet ri
Ġaust rian
Ġpict ures
Ġsad dam
Ġwelcom es
Ġsupplement ary
Ġnig eria
Ġech o
Ġh ong
Ġne ut
Ġun equ
Ġsh if
ci ence
Ġch amp
Ġr and
Ġk h
Ġqu iet
ap h
Ġeconom ists
Ġdist ur
ib an
Ġve get
Ġaust ral
Ġdistribut ed
Ġmanufact uring
Ġdistin ction
follow ing
Ġprocure ment
f i
en sible
Ġd ur
ad ays
Ġres ort
Ġno vel
Ġout put
Ġtra ve
Ġro c
Ġstr ing
Ġappe ared
Ġreject ion
Ġpenal ties
Ġsimplif ication
mean while
Ġmaced onia
in ated
Ġm ary
Ġan nex
Ġst em
Ġha bit
Ġeuro s
Ġpl ed
Ġfe ature
Ġper mitted
Ġmo le
Ġhope fully
Ġsign als
Ġbu ying
Ġbl air
Ġir regular
Ġair ports
Ġdeep er
Ġden ied
Ġperspect ives
Ġoccup ation
may be
Ġtren ds
deb ate
Ġbiod iversity
c ow
or gan
as p
om al
Ġv oc
Ġen abling
Ġco vers
ces sions
Ġcontro versial
Ġjoin ing
Ġspeak s
Ġregul ate
Ġjournal ists
Ã ¤
Ġk ong
con nect
Ġ2 9
Ġacc used
man n
Ġ199 4
Ġpo et
Ġstar ts
Ġopp on
Ġdri vers
Ġgra ve
Ġfocus ing
Ġdoct ors
Ġment al
m uch
s ometimes
ab e
Ġac ad
Ġper sec
ang ed
Ġdes irable
Ġmil es
Ġbar celona
Ġjoint ly
Ġhun ger
Ġexam ined
ha ust
Ġinqu iry
t ical
Ġf ought
Ġf asc
Ġh es
ic ated
Ġst ood
if ies
so ever
ac es
Ġwhat soever
Ġman ip
Ġpre ca
ound ed
Ġmat he
Ġconf ident
Ġcol omb
Ġachieve ments
Ġart ific
Ġsw itch
Ġapplic ant
Ġbi ological
Ġeffici ently
Ġdescri be
Ġtele phone
Ġattract ive
Ġabstain ed
Ġsurpl us
h ence
Ġc f
li hood
Ġman if
Ġexp osed
Ġtal iban
Ġem u
Ġansw ered
lif e
Ġprepar ations
Ġwarm ly
Ġton nes
Ġdestro y
Ġres c
ak ings
Ġsp orts
Ġsit es
Ġdes per
Ġinform al
Ġcent res
Ġconv entions
Ġinteg rity
Ġrun s
Ġcomplex ity
Ġundert ake
Ġmer c
Ġdiplom acy
Ġautom atically
Ġdraf ting
Ġpi pe
Ġrough ly
Ġp ull
Ġal ger
ill ance
Ġj ur
Ġwhere by
Ġher o
Ġban ned
Ġcompet ences
Ġorgan ic
Ġcreat ivity
Ġhard er
Ġhold s
Ġland s
Ġste ad
Ġcou p
Ġcondem ned
Ġmusl ims
Ġaccur ate
Ġmoroc co
Ġelder ly
Ġt ribute
Ġnot ably
Ġnot iced
Ġimp lies
Ġcolle ction
Ġcoh erence
Ġdri ven
Ġexc iting
bo ok
Ġdi verse
Ġden y
Ġalloc ation
Ġcro ps
b ors
i ate
s a
Ġf ool
il ed
Ġcon ven
Ġli ability
Ġcons ent
Ġinv ite
Ġoff ic
Ġcol or
Ġorgan ized
Ġplay er
Ġeng land
with in
Ġmot ions
Ġ201 2
Ġapplic able
io x
Ġword ing
Ġill ness
Ġundert akings
Ġmig rants
Ġforest s
Ġobser ved
Ġslovak ia
Ġsusp ic
Ġacknowled ged
appro pri
d a
e lect
in al
Ġs n
Ġf ant
ut ical
Ġab uses
ag ers
Ġmar ine
Ġfav ourable
Ġbro k
Ġteach ing
Ġdiscri min
Ġconserv ation
Ġep ide
Ġinev itably
Ġgenet ically
b a
v ia
Ġs me
ou l
Ġn amed
Ġbe at
ot ic
ch ed
ter ror
ab ove
ace utical
Ġevery day
Ġmo ves
Ġend s
Ġinvest ing
Ġiniti ally
Ġfound ed
Ġaccount ability
Ġrece iving
Ġcirc le
Ġsk in
Ġwithdraw al
Ġut most
Ġalban ia
Ġyugoslav ia
Ġsuspend ed
Ġrhetor ic
Ġmanif est
i able
Ġt iny
Ġd os
ch rist
Ġad verse
Ġmar ks
Ġtrans it
Ġfund ed
Ġem ission
Ġfundament ally
Ġtell s
Ġair craft
ec d
Ġste el
Ġundert aking
Ġrail way
Ġcommunic ate
Ġobserv ation
Ġsurve illance
Ġtunis ia
Ġl ag
ll a
Ġdis par
ens es
rat ors
Ġsoon er
Ġcampaign s
Ġhur t
Ġtit le
Ġreiter ate
Ġimper ative
Ġol af
Ġsympath y
Ġindones ia
Ġpharm aceutical
b r
Ġs arkozy
Ġc ot
it a
Ġcon ve
Ġcont emp
Ġimport ed
Ġcons cious
Ġrespon ses
Ġdef ault
Ġprocess ing
Ġta pe
sequ ent
Ġcongrat ulations
Ġfle et
Ġten sions
Ġdisp utes
Ġsubstant ially
Ġdrink ing
commun ications
itz er
Ġmold ova
g ans
w omen
Ġt angible
Ġm outh
Ġan ge
Ġbe ef
Ġg rat
Ġv ent
Ġj ump
Ġent ering
Ġide ological
Ġaccept ance
Ġinst ability
Ġpriv at
la w
Ġterrit ories
Ġsurpris ing
Ġincorpor ated
Ġhus band
Ġdefe at
Ġinhab it
d ed
g ood
m atically
p ass
re m
Ġcom fort
Ġpro te
Ġout set
Ġoff ices
Ġgen oc
Ġfar ms
Ġgrant ing
Ġbill ions
Ġdin ner
nat urally
c ur
re aching
Ġb are
or ation
Ġinv ent
Ġdef ending
Ġinter im
Ġsince rely
Ġprof ess
Ġassoci ations
Ġcrimin als
Ġconsult ed
Ġexam ination
Ġmiss ed
Ġunanim ous
Ġcateg ories
Ġdraf ted
americ an
e my
on ing
en ophob
Ġb read
Ġin g
Ġd ivers
th ree
Ġit ems
Ġen emy
Ġint oler
Ġmon it
Ġlib ert
Ġpurs uing
Ġcle arer
Ġrelationship s
Ġhy dro
Ġ197 0
Ġwis dom
itzer land
r ather
Ġd na
Ġre verse
Ġl ending
Ġpro mpt
Ġimp rison
Ġar bit
Ġany way
Ġro t
Ġdang ers
Ġobs erve
Ġtest ing
Ġguarantee ing
Ġrecord ed
Ġstru ck
Ġpil ot
Ġresc ue
c les
m is
en na
Ġc ens
Ġb ail
Ġun ilateral
os y
Ġpres cri
am ong
Ġapp ointment
Ġsp ot
Ġ19 4
no thing
Ġappreci ation
bre ak
Ġfrid ay
m ans
Ġt all
Ġw ave
Ġc up
Ġp age
Ġm ich
Ġn ic
Ġact ed
lic ate
ne ither
Ġcent uries
Ġes cape
Ġemploy ed
Ġcurren cies
Ġpain ful
Ġengage ment
Ġtoler ance
Ġestim ates
Ġenlar ged
. ,
m er
s ch
w in
st uff
Ġex haust
ive red
ist ical
Ġfe atures
Ġmon day
Ġback ing
Ġenter prise
Ġwal king
pol itical
Ġqual ifications
tr ans
Ġscrut iny
Ġd iox
Ġsu ic
Ġco ok
Ġsub sequent
Ġwar rant
Ġcongrat ulating
Ġer rors
Ġmonop oly
Ġspl it
Ġhaz ard
Ġearthqu ake
p a
p ower
Ġa z
is ite
Ġp ig
Ġf oss
Ġh ide
Ġintern ationally
Ġph r
Ġaccept ing
Ġir on
Ġtext ile
reg ulation
Ġ15 0
Ġdel ivered
ij ing
Ġtele communications
Ġder og
Ġhous es
Ġoverwhel ming
Ġmacro economic
c ut
n ish
Ġre ward
Ġg ather
oun ce
op eration
te g
Ġel ite
Ġess ence
Ġpromot ed
Ġair lines
Ġmess ages
Ġisol ation
Ġx enophob
Ġwebs ite
Ġm use
Ġf an
Ġg all
Ġst ations
Ġse ats
so cial
Ġab st
Ġsome how
ound s
Ġmeet s
Ġresearch ers
Ġstar s
Ġarg ued
Ġworth y
Ġund erest
Ġcra zy
Ġunanim ity
democ ratic
Ġimbal ances
Ġowners hip
g ue
u gg
ter y
Ġse es
Ġv ary
Ġmar ri
Ġro ots
Ġass ured
Ġbr and
Ġdon ors
Ġbl ow
Ġcivil ians
Ġpost al
Ġred und
Ġgain s
Ġcr ash
Ġjur is
Ġgenoc ide
b ly
f riend
h n
Ġo wing
Ġb ow
Ġh all
Ġd up
ke l
ak ed
ud es
Ġreport ing
Ġjust ification
ub e
mm et
Ġgen eva
Ġ4 5
Ġmis under
Ġneigh bors
yes terday
Ġdos si
i os
n is
v is
z uel
Ġt am
Ġt ast
Ġa h
in n
Ġb ag
Ġun h
Ġnational s
Ġfore ver
Ġprotection ism
Ġcontribut ing
Ġsustain ed
Ġcounter fe
Ġquot a
Ġobstac le
Ġautonom y
Ġdiscip line
Ġscot land
Ġlithu ania
whe ther
Ġrecy c
en sions
ust ain
Ġsa ved
ip h
Ġrel oc
Ġmod erate
Ġgr ass
Ġins pir
Ġalong side
Ġdeclar ations
tra de
Ġmargin al
tur key
Ġplat form
Ġargent ina
Ġmuse um
Ġn ur
Ġsu pre
ist ry
Ġad mitted
Ġcont am
Ġfac ility
Ġbank rupt
Ġrenew ed
Ġnorm ally
Ġkore an
Ġclaim ed
Ġabandon ed
Ġha iti
os ure
Ġdo ha
Ġass ert
Ġimm ense
Ġbenef ici
Ġ4 00
Ġexcept ions
Ġchrist ians
Ġenjo yed
Ġstrict ly
Ġconsolid ation
Ġisol ated
Ġcamer a
Ġexplicit ly
l imin
u zz
Ġt ies
Ġc ow
Ġc ab
Ġb row
Ġh olid
th anks
ul ed
op ol
Ġse qu
con f
Ġprop ag
Ġsub s
Ġwar n
Ġ199 2
Ġori ent
Ġassess ments
Ġimpos ing
Ġmeant ime
Ġcontact s
Ġchann el
Ġmos cow
Ġexclus ively
Ġnewsp aper
child ren
c as
Ġs orts
ar ia
Ġl unch
ol f
Ġpre requ
Ġser ved
Ġser ves
Ġconf usion
Ġir respon
Ġbroad cast
Ġclos ing
Ġcat al
Ġarrest ed
Ġhousehold s
Ġlibert ies
j apan
v ent
v ote
Ġin put
Ġan cient
Ġd aughter
Ġrep ut
Ġev il
Ġfe as
Ġdiff er
Ġsub sequently
Ġdep th
Ġrepres sion
Ġadv is
Ġfr on
Ġstud ying
Ġcong o
Ġresol ving
Ġpost pon
sec urity
Ġsen ior
Ġsimplif y
Ġincom es
Ġalleg ed
Ġhyp oc
Ġfoss il
Ġt ic
Ġc ere
Ġtime ly
Ġtechn i
Ġ3 7
Ġinst all
Ġloc ation
Ġfis ch
Ġtre es
stuff s
a res
f ur
er ving
Ġst ages
im ag
Ġv ene
Ġat tain
Ġr ush
Ġint ense
Ġqu e
Ġdis ast
Ġbegin s
Ġsw itzerland
Ġbre ast
Ġdiv ide
Ġchrist mas
Ġconserv atives
Ġobserv ations
p one
r ical
Ġs now
Ġf ires
Ġst al
Ġst ip
Ġsu it
Ġsh ot
Ġfin nish
Ġknow ing
Ġredu ctions
Ġpop ul
Ġcomprom ises
Ġparticip ants
sh r
Ġaut umn
Ġig c
Ġtyp ical
Ġauthor itarian
Ġinsp ired
Ġdump ing
Ġconstrain ts
Ġsatell ite
m od
n i
in ter
er ity
Ġb es
or i
Ġun just
Ġen shr
Ġunder p
Ġwhen ever
Ġacc um
Ġrel uct
Ġsec ular
pet us
Ġvis ual
Ġce iling
Ġpost pone
Ġexer c
Ġclar ification
Ġstim ulate
Ġstake holders
Ġye ah
Ġattach ed
Ġstor age
appropri ate
it udes
le te
th y
st op
Ġv it
Ġte a
Ġpre jud
Ġpre limin
Ġmin or
Ġsystem atic
be it
Ġorgan ise
Ġadv ised
Ġim petus
Ġparticip ating
Ġine qu
Ġpartnership s
Ġcoll aps
every thing
Ġwal ked
Ġhighlight s
Ġvir us
Ġwin ter
Ġade qu
Ġadvoc ate
amend ment
Ġaustral ia
i ro
Ġ vers
ed a
Ġn ord
Ġbe ijing
ra pporteur
Ġse lling
Ġse lection
Ġhe ll
Ġbo ld
Ġmeas ured
Ġlow est
Ġinterv entions
Ġcharacter istics
Ġgeor ge
Ġbir ds
Ġut ter
Ġexpert ise
count ry
Ġjuris d
Ġf lying
al ing
Ġpl ain
oin ting
ress ing
Ġdeb ts
Ġdef ining
Ġinvest ed
Ġplan e
Ġlet ters
Ġca mb
Ġvo ices
Ġdepend ence
Ġcompar able
Ġdepart ment
Ġphilosoph y
isra el
Ġinhabit ants
m i
p ublic
Ġt act
Ġs ale
Ġo ecd
Ġm s
Ġnot es
Ġdo ors
us sions
Ġtr ick
Ġcomp atible
Ġup hold
Ġgu ide
Ġcar ri
Ġview ed
Ġobject ions
Ġliberal s
Ġuk rain
Ġconsist ently
Ġarab ia
Ġconcent ration
nes day
Ġcoast al
Ġprelimin ary
Ġa ld
Ġc os
Ġp ose
Ġd ivid
il ty
Ġch ick
Ġimp erial
Ġco pe
Ġtrans f
Ġwhere ver
Ġpublic ly
Ġsoci o
Ġabs ent
Ġamb ig
Ġconvention al
Ġexch anges
Ġweap on
Ġrefuge e
Ġdism iss
Ġprovid ers
Ġoppon ents
f ast
Ġto xic
Ġin con
Ġdis rupt
Ġacc omm
Ġrem ote
Ġsaf er
Ġfeel ings
Ġcare er
Ġexpress ing
Ġ7 5
Ġdev oted
la im
Ġsil ent
Ġprotest s
Ġrid ic
Ġpattern s
Ġprosec ut
Ġspect rum
Ġwed nesday
Ġpreca ution
Ġmathe mat
Ġvene zuel
Ġdisast rous
Ġaccomm od
h ist
p o
Ġt ens
Ġp ity
Ġb ath
Ġre un
Ġre aff
Ġex ac
Ġpl enty
Ġout break
Ġlo ved
Ġro ck
Ġcommun ism
Ġinst ruct
Ġ199 3
Ġgener ous
Ġdam aging
Ġrat ify
Ġinterv iew
Ġmach ines
Ġvig il
Ġchann els
Ġexac erb
b erg
t ered
Ã ¨
Ġm aster
Ġdis arm
are t
Ġyour s
min ent
Ġform ula
Ġdon or
Ġhand le
Ġrepresent ing
Ġexperi ments
Ġbroad ly
Ġsent ences
Ġorganis ms
Ġbeaut y
Ġ198 9
Ġang ry
regard ing
Ġpersu ade
Ġash ton
Ġretire ment
christ ian
b ul
c all
m id
il i
Ġst up
Ġal beit
Ġde tain
Ġen ables
Ġhe ight
Ġtr illion
Ġpre cond
Ġleg acy
ile o
Ġpract ically
Ġpress ing
Ġpoll ut
Ġrestrict ive
Ġhor se
Ġengine ering
Ġabol ition
americ a
Ġarchitect ure
Ġreveal ed
Ġendors ed
Ġolymp ic
r un
t es
u le
in et
er ted
Ġrep rodu
ll or
Ġpos ed
og le
ne g
Ġsol ving
Ġconv iction
Ġpay s
Ġfl at
Ġpass ing
Ġgener ated
Ġpush ed
Ġpra ise
Ġmonop ol
b i
g lo
h i
l im
o res
Ġp estic
Ġp apers
Ġf ill
Ġd ying
ul z
Ġun us
ad or
Ġsh op
ult ane
Ġtr oub
Ġtra ce
Ġmo on
Ġcost ly
Ġwhole hear
Ġinteg rate
ograph y
Ġcult iv
Ġthorough ly
Ġflight s
Ġcommod ity
Ġliber ty
Ġing red
in iti
Ġc ul
Ġm ir
Ġh idden
ar a
Ġd at
Ġse ason
Ġadd ing
Ġgu ilty
Ġaff air
to o
Ġsch ulz
Ġsecond ly
Ġlab el
Ġfl aw
Ġos ce
Ġpunish ment
Ġliqu idity
Ġfrag ile
b ally
d ens
n ight
v ity
al d
al es
Ġbe ars
Ġwh ol
id ential
ra ge
ir ds
Ġpres ents
au th
Ġind ication
Ġreal ities
Ġdra matically
Ġrespect ive
Ġequ ity
Ġfood s
Ġkeep s
Ġmand atory
Ġinvestig ate
Ġconce pts
dis cri
Ġtemper ature
s ess
x ual
Ġt s
Ġm ale
Ġn az
Ġl ists
Ġsh el
est ablish
Ġj er
Ġany more
Ġover look
Ġtrans lation
Ġsub stit
Ġsec ur
Ġgr asp
Ġprincip al
Ġadv ances
Ġunderstand able
mpt ions
Ġcomb ine
Ġorigin ally
Ġstri kes
Ġdelay ed
any one
Ġcover ing
Ġdomin ant
Ġoptim istic
Ġsac rif
Ġdism ant
Ġcolomb ia
. )
m edi
Ġt ear
Ġd rast
Ġre vers
Ġg ard
Ġso c
Ġco inc
Ġra rely
Ġfra gment
Ġfind s
Ġprogress ive
Ġstud ied
Ġrespond ed
Ġaust erity
Ġremind ed
Ġreven ues
Ġcompon ents
four thly
Ġirregular ities
s ad
v iew
Ġb ond
Ġe gg
Ġu til
Ġen rich
Ġrev ol
Ġthought s
20 1
Ġsun day
Ġtre as
Ã³ n
osy ste
s hip
an i
Ġb reed
Ġe lig
st an
ct ure
Ġg est
Ġg aps
id s
am i
Ġor gans
oc al
Ġwork er
ious ly
Ġpolicy makers
oll ah
Ġsm oke
Ġfind ings
Ġdep os
Ġproced ural
of uel
Ġvol at
Ġconsult ations
Ġharmon ised
Ġconsist ency
Ġfing er
Ġaspir ations
Ġconvers ation
Ġsmoo th
Ġartific ial
Ġmonit ored
ustain able
f ire
w ish
is en
Ġb and
Ġm ira
se in
Ġno bel
wh atever
Ġrul ed
Ġ199 1
some thing
Ġpa ul
Ġisrael is
Ġec osyste
Ġmeaning ful
Ġpoore r
Ġ196 0
Ġadult s
Ġsuic ide
Ġsupre me
Ġdat ab
b un
in ent
Ġm un
st one
Ġl am
se veral
ren ce
Ġnational ism
Ġdemocrat ically
Ġmom ents
Ġdev ice
Ġdefin itive
Ġrob ust
Ġgradu al
Ġfavor ite
h ard
v ic
Ġde ar
Ġat om
if or
Ġgo ogle
Ġbr an
Ġback ed
Ġsoci ally
Ġes cal
Ġhome work
Ġche aper
Ġcal m
Ġdim ensions
pro f
Ġinvestig ations
Ġgal ileo
Ġparad ox
Ġsim ultane
Ġdemonst ration
Ġald e
f if
h ad
r ass
Ġs ke
Ġc ath
an cies
es sions
Ġn omin
Ġl ingu
Ġcon cessions
qu ar
Ġr ub
ag ger
Ġspe cul
Ġbo at
Ġbo ys
Ġass urance
Ġform ally
less ly
Ġcrit er
Ġhop ing
Ġoccup ied
Ġdisappe ared
Ġhus sein
Ġemot ional
Ġperce ived
f ive
g s
Ġc art
Ġin appropriate
Ġbe aring
Ġch ances
out s
ig ation
Ġapp la
Ġar ctic
Ġher self
Ġed ge
Ġexist ed
Ġprevent ive
Ġz ones
Ġve to
Ġrob ot
Ġteam s
Ġdream s
Ġcontrad iction
Ġlawy er
Ġcriter ion
c or
f und
t aking
Ġc ards
Ġb ird
Ġd ish
Ġr ice
Ġres ign
Ġcons ists
Ġinv ented
Ġsc ore
Ġtri bun
Ġthreat ening
Ġbi ofuel
certain ly
Ġadap ted
Ġincorpor ate
Ġmort g
Ġadequ ately
is c
en ko
ic ks
Ġu g
ol ic
Ġen abled
Ġimp ressive
Ġdis abilities
Ġout lined
Ġpos es
Ġnow here
Ġmo thers
Ġgen es
Ġend ing
ici ally
Ġcap abilities
Ġide ology
Ġhand ling
Ġbar ack
Ġstat istical
Ġmoment um
ug en
Ġver he
Ġchance llor
ik a
Ġsimplif ied
Ġexplan ations
Ġsymbol ic
Ġdecent ral
Ġregist ration
Ġevalu ate
Ġenthusi asm
glo bal
Ġp oc
Ġf illed
Ġre me
ir t
od e
con i
um ing
Ġcomp li
Ġcomp osition
Ġapp ointed
ok ed
Ġper iph
Ġ19 5
Ġregul ators
Ġbur dens
Ġprogramm ing
Ġcy pri
Ġdim in
Ġconvin cing
Ġexplo it
int erest
lus ive
Ġphr ase
Ġxenophob ia
Ġtransf ers
Ġprecaution ary
Ġverhe ugen
g ive
m ind
Ġp it
st at
Ġsh oot
our se
Ġar ising
Ġho le
Ġwish ed
Ġsecond s
Ġbor ne
Ġimag ination
Ġrein forced
Ġparagraph s
Ġcustom ers
Ġcr uel
Ġtend ency
Ġelector ate
Ġsurve y
Ġpursu ant
Ġscar ce
Ġreput ation
Ġappla ud
f ar
h r
m et
u ously
Ġt ac
Ġt ail
Ġthe me
Ġm ath
ap art
Ġcomp are
ind ia
Ġinter act
Ġsc ene
Ġmain stream
Ġprom ising
Ġperson nel
Ġbro thers
Ġdri ver
Ġinnov ations
every body
inc re
Ġbelong s
Ġembra ce
h ab
p ens
z a
Ġt or
ur g
mp le
Ġex emp
Ġch ile
Ġk urd
Ġpos sess
ste in
ian n
Ġpr ide
Ġdep l
Ġrest aur
Ġrussi ans
Ġfail ures
Ġliberal ization
Ġdest abil
Ġrecomm ended
Ġpain t
Ġmal ta
Ġinh erent
Ġhot el
Ġpsych ological
Ġundermin ed
keep ing
Ġrand om
Ġhes it
Ġbare ly
Ġrecyc ling
Ġpropag anda
Ġprerequ isite
Ġreaff irm
b by
i ov
Ġd ress
Ġd rought
Ġe ib
Ġst ric
un te
Ġres idence
de f
Ġar men
Ġcouncil s
Ġtra ined
Ġinv itation
Ġcontin uation
Ġsystem atically
Ġbr ill
chn ology
ne xt
Ġform ed
ten ance
Ġshe ep
ov ina
Ġthreat en
Ġve ter
like wise
Ġrespond ing
Ġfulf illed
Ġspread ing
hol m
ky o
Ġdub lin
h igh
Ġt iss
Ġa se
Ġto kyo
st ill
ot y
con sider
Ġshould n
Ġpl us
Ġmy th
Ġcons cience
Ġnew ly
Ġpolit ician
Ġprodu cer
Ġbas es
Ġdes ired
Ġass umed
com es
Ġrecogn ises
Ġfri ght
Ġtop ics
Ġrail ways
Ġpill ars
Ġsevere ly
Ġfost er
Ġinequ alities
Ġjurisd iction
e k
g reat
t al
Ġc ake
Ġb act
se en
Ġsu ms
op ia
and er
Ġr um
âĢĻ ,
for ward
te xt
Ġpre de
Ġrec ital
Ġpr ud
Ġinter rupt
Ġsign ing
Ġmain tenance
Ġimm unity
Ġdemand ed
Ġcamp s
Ġbreak through
Ġfed eration
Ġdeg rees
Ġpreced ent
Ġmc c
Ġmix ed
Ġalarm ing
Ġmultip le
Ġdro pped
sect or
Ġprofess or
Ġirrespon sible
2 5
s s
w ood
Ġl iv
Ġu pper
ol ved
Ġun ex
Ġr ing
Ġrep air
Ġnow adays
Ġper ception
Ġacc us
olog ists
Ġadv ent
Ġiniti ated
Ġca ut
Ġmis le
ug abe
Ġjud ges
Ġten sion
rop he
Ġmal aria
Ġbound aries
Ġinj ured
Ġindis pens
Ġdav id
Ġhazard ous
k ind
w rit
Ġs omal
Ġc au
Ġh ate
Ġre b
Ġun its
Ġour s
Ġad h
Ġpre gn
Ġspe culation
ang er
Ġprodu ces
Ġref usal
Ġdes ert
Ġsix th
Ġbi ology
Ġage ing
Ġsepar ation
Ġtack led
Ġpush ing
Ġgal ax
Ġsho es
Ġali ke
Ġremed y
Ġdiox ide
i pped
in vest
Ġo we
Ġb le
ro ph
Ġwe ar
Ġst agn
Ġse as
Ġv ague
Ġres umed
ak h
for d
fore st
Ġdec iding
Ġgovern ed
Ġamend ing
Ġatt itudes
wor king
Ġglo bally
Ġrespect ing
Ġgr ants
Ġapproach ing
Ġcontribut es
Ġloc ated
Ġencoura ges
Ġvol unte
Ġtotal itarian
Ġcha os
Ġauthor isation
Ġfre ight
Ġphys ics
Ġtouch ed
Ġok ay
Ġfrank ly
Ġsched uled
Ġbrut al
Ġindispens able
v ation
Ġa th
in tern
ak er
Ġrep erc
ren d
Ġmy ster
Ġinc idents
Ġte eth
ok ay
Ġobject s
com pet
Ġsince re
Ġcontro lling
Ġdi am
Ġcooper ative
Ġexpand ing
Ġbirth day
Ġconfron ted
Ġvenezuel a
Ġstup id
a ire
Ġst uck
op en
if iable
te ll
Ġsy mpt
Ġsec uring
gg ed
Ġaccount able
Ġpa cific
Ġweak en
Ġdam aged
Ġexam ining
cons ist
Ġcatast rophe
Ġdar fur
Ġox y
dep th
Ġpipe line
Ġalger ia
Ġepide mic
Ġreperc ussions
t ion
v able
Ġs oph
en ess
Ġh ars
ic ate
Ġwe igh
Ġst orm
Ġme l
li b
ll s
Ġro se
arch y
Ġensure d
Ġvi enna
Ġur ged
Ġexpl ore
cent ury
Ġconsequ ently
Ġfocus es
Ġbri ght
Ġprefer red
Ġtown s
Ġagg ressive
Ġexe mption
Ġlawy ers
e ll
n ger
in form
Ġs li
ed ed
pe l
ol a
Ġr ating
um es
ose vic
Ġinv asion
Ġemp ire
Ġsol ana
em ed
Ġpat ten
Ġtransport ation
ng l
Ġsl a
erg ies
Ġbre aking
Ġ201 5
Ġdev ices
Ġsent i
rop ortion
Ġsafegu ards
Ġexclus ive
Ġflood s
Ġannounce ment
Ġsloven ia
Ġhoriz ont
terror ism
Ġmarri age
auth or
Ġlingu istic
Ġbrill iant
z eg
Ġn erv
Ġl oud
ow ered
Ġyou nger
Ġun res
ac ing
ie th
Ġman agers
Ġop ens
ici ency
Ġcap ita
Ġtri als
Ġaddress es
Ġdet ention
Ġweek end
Ġstri ve
Ġje wish
Ġcomplain t
Ġtransfer red
Ġabol ished
Ġadapt ation
Ġdispl aced
Ġembar rass
wel ve
Ġfisch ler
Ġpestic ides
Ġsecur ities
e as
Ġo h
Ġto ys
Ġh u
om ed
Ġfor b
Ġsh ock
est ed
ll ow
Ġapp alling
Ġlif t
ov al
Ġemerg ence
Ġreturn s
cl ass
Ġclar ified
Ġconcent rated
Ġwitness ed
Ġdevast ating
Ġbub ble
Ġacad emic
iann ual
b us
f l
Ġde licate
un k
Ġac ute
te x
Ġsupport ers
Ġrel ax
Ġent ail
Ġcor re
Ġunderstand s
Ġsubject ed
Ġart ists
Ġavail ability
Ġpack aging
Ġindic ates
pro t
Ġdeleg ations
Ġattemp ted
Ġdistin ct
Ġrig orous
Ġpursu it
Ġcolon ial
Ġshi pping
rem lin
zeg ovina
1 1
c ase
i pp
m other
t ail
Ġt one
Ġp ap
Ġn a
Ġi v
Ġg ue
Ġg mos
qu ite
Ġint im
Ġdis se
Ġout comes
Ġinc ur
Ġrem it
Ġgen e
rat s
Ġtri gg
Ġvis as
str Ã¶
Ġweak er
Ġclos ure
Ġsan ter
Ġarrange ment
Ġattemp ting
Ġsafeguard ing
Ġadvoc ates
Ġconstitu ency
Ġembar go
Ġinfringe ment
Ġstring ent
Ġcamb od
Ġnerv ous
strÃ¶ m
i ge
Ã ł
Ġc ig
or ously
Ġm ugabe
ur a
Ġst one
Ġle ague
mb ered
Ġres idents
Ġk remlin
con c
Ġext ract
Ġdep ending
Ġben ch
Ġlim iting
Ġret ail
Ġdecl ining
Ġver ts
Ġbit ter
Ġpress ures
Ġpun ished
Ġvirt ual
tr ue
Ġded icated
Ġscre en
Ġsev enth
Ġast on
Ġneut ral
Ġdossi er
Ġenshr ined
Ġstric ter
m ail
Ġa u
in ct
at om
Ġd are
il le
ri fic
Ġun ified
op er
am ount
Ġj ac
ose xual
Ġro th
Ġpoin ting
Ġproblem atic
Ġshort age
Ġfl our
Ġchar ged
Ġtest ed
Ġdisp roportion
Ġlimit ations
Ġacqu ire
Ġabol ish
Ġnewsp apers
Ġhal t
Ġneighbor hood
Ġenvis aged
Ġprag matic
Ġdistingu ish
Ġconve y
friend ly
Ġbrow n
Ġingred ients
r ition
y n
Ġs in
en ergy
or der
al ed
ic ious
est y
Ġar ises
Ġrem oval
Ġent ails
Ġgu ine
Ġsupp ose
Ġ4 8
af ric
Ġfun ny
Ġmult iannual
Ġconnect ions
Ġstress es
Ġeth i
Ġsens it
rid ge
Ġpurch asing
Ġclin ton
Ġdepri ved
Ġhydro gen
mind ed
Ġcau cas
b ollah
l ock
Ġw ond
Ġp and
an es
Ġm issions
Ġst er
ri g
Ġun rest
Ġj u
Ġdis regard
for cing
Ġtim or
ag on
ub er
Ġtrans mission
Ġexpect ing
Ġlib rary
fin ancing
Ġca ution
Ġchalleng ing
Ġmass ac
Ġavoid ing
Ġsatisf y
Ġcritic ised
Ġcollect ed
Ġmedic inal
Ġseek ers
will ing
Ġuns atisf
Ġquant ities
Ġmag ic
Ġtransl ate
icy cle
Ġunus ual
a ci
i est
Ġb id
Ġm i
Ġin consist
Ġd ual
Ġun known
un less
ist ribut
Ġr ide
de c
lo ad
sel ess
Ġfact ory
lud es
Ġinf l
Ġhand ed
Ġest onia
Ġ3 6
Ġclo thes
Ġrisk y
Ġ6 5
Ġcontain ing
Ġbi ote
Ġrevolution ary
Ġacqu ired
Ġpurch ase
Ġregist ered
Ġdecre ase
Ġpostpon ed
Ġwholehear tedly
Ġgard en
! "
1 99
w as
Ġh ind
Ġbe ach
Ġg iant
Ġst yle
Ġex ert
de pend
age ment
ord an
Ġconf used
Ġinter action
Ġinter connect
Ġ3 2
Ġsl aughter
Ġident ical
Ġexc ited
Ġstri king
Ġrecord s
Ġmer kel
Ġtun a
Ġwithdra wn
Ġconsolid ate
Ġexpand ed
Ġstabil isation
democ racy
Ġdisadvant age
Ġevol ved
vi ol
Ġfab ric
1 5
a ust
m its
Ġb unch
or al
Ġf ro
Ġd ile
Ġal ter
qu est
Ġinc ap
Ġunder way
Ġgu ant
ten eg
Ġcivil ization
Ġassess ing
Ġweak ened
gen er
Ġoccur s
Ġstock holm
Ġoptim ism
Ġceleb rate
Ġdisadvant aged
Ġod d
Ġindirect ly
Ġinterpre ted
Ġunequ iv
Ġlands cape
imag ine
Ġkurd ish
Ġprede cess
Ġa x
Ġthe rap
Ġm u
Ġan ger
Ġd iction
Ġg raph
Ġun willing
ore n
un like
est ock
Ġus d
Ġexp enses
Ġapp le
Ġconf irms
Ġsec re
Ġent ertain
Ġdist ant
Ġpriv acy
Ġlat via
Ġworth while
Ġstay ed
Ġcat tle
Ġfeed ing
Ġstrugg ling
Ġdomin ated
Ġexclu de
Ġeco fin
Ġfant astic
Ġholid ay
Ġdisarm ament
Ġliv estock
Ġhars h
a eda
b les
c ks
d ue
o le
u um
v ens
Ġth irty
in ations
Ġb ay
ar ians
Ġwe aring
Ġst ret
oun ter
Ġab und
ink i
Ġwant ing
Ġcountry side
Ġass umption
Ġmil osevic
Ġfood stuffs
Ġpromot es
Ġthreat ens
Ġbur ning
Ġtop ical
Ġreview ed
Ġemb ry
Ġemb ark
Ġdeli very
Ġguid ance
Ã¡ n
Ġdestro ying
Ġinspect ion
Ġundermin ing
Ġweakness es
Ġcopy right
Ġvoc ational
Ġtechni ques
ori ented
l ad
Ġc oc
Ġp ages
Ġcon j
ra ined
Ġas ks
Ġun st
un e
Ġen act
Ġle v
Ġch ose
Ġr w
Ġoff icially
Ġrequ iring
Ġma h
ruct ive
less ness
Ġhand led
Ġins ult
Ġsuccess es
Ġactiv ists
Ġdom ain
Ġpost s
Ġeth ics
pol icy
Ġje ws
Ġtyp ically
Ġsett led
Ġblock ed
Ġice land
Ġcorrespon d
Ġconfront ation
Ġdesper ate
Ġfeas ible
Ġunderp in
discri mination
Ġhorizont al
Ġdile mm
b ig
o thers
Ġb Ã¶
ar an
Ġd ry
ic a
ic ism
Ġst amp
ci le
âĢ ľ
Ġj ar
Ġdirect ions
Ġaff irm
Ġ6 00
Ġmodern isation
Ġharmon ise
Ġsubstant ive
Ġsupposed ly
Ġadjust ments
Ġdeliver ing
gra ce
Ġrout es
Ġmag az
Ġretur ning
aid s
Ġcorrespon ding
Ġsched ule
Ġroman ian
respect ive
Ġsuspic ion
Ġutter ly
Ġsimultane ously
Ġbiofuel s
c ultural
f ather
l ades
s inki
Ġin ject
Ġe ager
Ġha gue
Ġun clear
Ġwas ted
Ġpre text
he alth
Ġleg s
Ġhel sinki
Ġsc an
Ġafter wards
Ġart ist
Ġinteg ral
Ġsou l
Ġlack s
Ġemphas ize
Ġ9 5
Ġplac ing
Ġrat io
Ġilleg ally
Ġdisapp ointing
Ġadvoc ated
Ġsymbol s
Ġquant ity
Ġstraight forward
Ġthrow n
Ġmotiv ated
Ġplural ism
Ġoffic ers
Ġorient ation
Ġridic ulous
c end
z ing
Ġt ill
Ġthe ore
an as
Ġh ed
Ġg ases
Ġpro long
Ġpro minent
Ġsh r
Ġj ail
Ġus er
Ġwork force
Ġprov es
Ġmin es
Ġatt ribut
Ġauth ors
Ġrest ored
Ġperson ality
Ġpat ents
Ġdiv isions
fr ont
Ġexplo ited
Ġhung ry
Ġhar vest
Ġdepart ure
ari at
Ġawa it
Ġfran c
neg oti
Ġmonopol ies
Ġatom ic
Ġcig aret
e ast
g ain
n et
s l
v ention
en ous
al istic
Ġcan cell
Ġshould er
si x
Ġmon ti
Ġpr on
Ġdef lation
Ġ19 30
Ġear mark
Ġsecond ary
Ġprof itable
Ġine x
Ġdead lines
Ġfront iers
Ġmer it
ta x
Ġfacilit ating
Ġinfect ed
Ġcatast roph
pal est
Ġukrain ian
ifor nia
Ġcaucas us
d r
Ġm as
ion e
Ġd rew
Ġme p
Ġun t
est e
est s
Ġen forced
Ġte mpt
Ġlo an
Ġtw ent
ath ers
Ġfinan cially
Ġass ass
Ġfl owers
Ġresol ute
Ġscient ist
acc ount
Ġdiv or
Ġpoll s
Ġbra ve
Ġdict ator
Ġdisapp ointment
Ġelimin ating
Ġinspect ions
Ġali en
Ġcry ing
Ġdispar ities
Ġbenefici aries
quar ters
Ġbact eria
lib eral
prot ect
Ġguine a
s ah
t op
y an
Ġm ush
Ġd ance
Ġal together
Ġj ordan
Ġcont ra
Ġpe ak
si le
Ġper mission
Ġtreat ing
Ġinter medi
Ġglo be
Ġbenef ited
Ġair pl
Ġamb ass
Ġge opol
Ġattack ed
Ġdi et
Ġwonder ing
Ġcritic isms
Ġappreci ated
pro liferation
Ġforest ry
Ġineff ective
Ġpersec ution
Ġtribun al
teneg ro
b ra
r anging
Ġt ab
Ġt welve
in f
on ess
Ġp y
Ġp ump
Ġp uzz
Ġb a
Ġd il
ro t
le ted
Ġl ap
ra f
Ġun ch
Ġpart ial
Ġpl astic
Ġdis grace
Ġco ins
Ġco exist
Ġtrans national
Ġmin ing
art icle
Ġfore see
Ġlif el
Ġsur ger
ger many
Ġpati ence
Ġmer its
Ġprofession als
lus coni
Ġexec ution
Ġcorpor ations
Ġspect ac
sight ed
Ġhat red
Ġunsatisf actory
f ra
i us
m ary
Å ¡
in ating
in ery
Ġe g
the tic
li ers
Ġab ortion
ap ore
ag o
Ġpre st
Ġind iff
Ġcur ious
Ġcontin ually
ict ions
be lie
Ġdown turn
Ġsimp ler
Ġadv isory
ib i
Ġlist ed
Ġcoordin ating
Ġcla uses
Ġprepar atory
Ġpred icted
Ġtransform ed
Ġafford able
Ġegypt ian
Ġremo ving
Ġken ya
Ġgrat itude
Ġmisle ading
sah aran
g ments
y er
Ġt ong
in teg
at ri
Ġp up
an ium
ul ates
Ġsh ocked
Ġex hib
Ġle ap
ome ters
Ġk inn
Ġwork place
Ġinc lusive
wh ilst
Ġlo yal
Ġcl ash
Ġconf ined
Ġnational ist
Ġwar ned
Ġaim ing
Ġsl ide
Ġcho osing
Ġjud ged
Ġmist aken
Ġclass es
Ġrob ert
Ġpan el
Ġelimin ated
Ġbalk an
Ġtoler ate
ony m
Ġinterf ere
Ġmort ality
Ġawa iting
Ġbang lades
Ġsubs cri
Ġfron tex
Ġts un
Ġkinn ock
4 0
c c
f old
w er
Ġt um
Ġp in
ro l
Ġlike wise
Ġreg ain
Ġinc omp
Ġcl imb
Ġchild hood
Ġest imate
Ġdemocrat isation
Ġcomple tion
Ġpo ison
Ġfound ing
pri v
Ġclo thing
Ġsumm ar
mad e
emp loyed
Ġgra vity
Ġjud ici
Ġfair ness
Ġsk ill
reg ional
Ġsecret ariat
Ġsal ary
Ġens ures
Ġbrain s
ump h
Ġwall s
Ġreact ions
Ġincor rect
Ġord ers
Ġye llow
produ ctive
again st
Ġliqu id
Ġmart in
Ġtam pe
p rom
v ar
Ġt ries
Ġs ends
Ġc ure
an o
Ġn ative
ve z
Ġg ang
Ġwe ren
Ġst rain
Ġpro liferation
ir an
oun ted
Ġsh ocks
Ġch ern
Ġiss uing
Ġro les
ord s
Ġpublic ation
Ġdes k
Ġ19 50
Ġform ulated
air y
Ġsect ions
Ġsur ge
Ġparticip ated
Ġassess ed
Ġpoor ly
Ġsuper f
Ġgain ing
pre h
Ġrelev ance
Ġdeg rad
Ġign or
Ġcommer ce
according ly
Ġfulf illing
Ġdog s
Ġhom osexual
Ġautom atic
part y
Ġbomb s
Ġye men
Ġsho pping
Ġprem ium
Ġselect ed
Ġminim al
Ġcontradict ory
Ġtrave lling
cur rent
Ġsubstit ute
c ot
g ent
l ist
w est
Ġp ian
Ġin sight
al a
Ġg ift
id er
Ġal lev
Ġme al
ant ic
Ġk ick
Ġ1 20
Ġout rage
Ġup he
Ġlo bb
Ġcl im
Ġrul ers
Ġobject ion
Ġpo ol
Ġger mans
Ġz e
just ice
Ġcompetit ors
Ġwin ning
med iterranean
Ġsad ly
Ġreferen ces
Ġcharacter ised
Ġber lusconi
Ġengine ers
Ġfrequ ent
Ġprem ature
Ġconstitu ents
Ġsharp ly
Ġluck y
Ġcapt ure
Ġvac uum
Ġanx ious
Ġtariff s
Ġvent ure
Ġarbit rary
Ġmich el
initi ative
Ġrestaur ant
Ġcaut ious
intern ational
Ġoxy gen
Ġintim id
Ġdiction ary
k er
p an
z bollah
Ġt ag
Ġs cept
Ġb icycle
Ġd read
Ġal ly
Ġun amb
Ġle h
Ġj oy
Ġind ig
ip ed
Ġdisc overy
Ġsm ugg
Ġbeh ave
Ġsector al
Ġfl oren
co pe
Ġred istribut
Ġcal ifornia
Ġje an
Ġfoot ing
Ġcompens ate
Ġpref erence
Ġautonom ous
Ġdup lic
Ġchick en
Ġvigil ant
conc ern
Ġincap able
Ġtwent ieth
Ġjudici ary
j a
l ause
v a
Ġ ly
Ġt ied
re al
Ġb io
Ġf ur
Ġin ability
Ġd al
Ġd ad
Ġd airy
Ġne o
Ġen ergies
de fin
Ġapp oint
Ġnational ity
ob yl
sure ly
em ies
Ġgot ten
Ġminister ial
Ġmor ator
Ġpositive ly
erv ation
Ġobs c
Ġmet aph
Ġcapac ities
Ġ25 0
Ġinfrastruct ures
Ġwealth y
Ġbarri er
Ġinspect ors
back s
Ġreass ure
Ġod ds
Ġinterf erence
Ġprivile ge
rec ently
Ġstal in
Ġcompli ment
Ġtampe re
Ġchern obyl
g i
h alf
i ety
on ed
Ġf rat
ou p
ed uc
ic ing
Ġg rain
Ġu mb
im a
ci f
am s
Ġj oke
Ġk itch
Ġint r
ab out
Ġcomp lied
Ġrec ruit
Ġmad rid
Ġro of
Ġfact o
Ġatt ended
uc lear
Ġcrit ics
Ġspecif ied
Ġtri umph
Ġbar n
Ġrece ives
Ġbank ers
Ġcirc ulation
Ġharmon ization
Ġfront ier
ilit ary
ira c
200 6
Ġpet ition
Ġautom ob
Ġhospital s
Ġradio active
Ġpref erences
Ġlic ence
su pport
Ġprote in
Ġtic ket
Ġveter inary
b ear
f ol
k h
t les
is ible
Ġp orn
Ġf ue
Ġh ect
Ġh ang
le ts
il ater
ch ange
ter mination
Ġwor ries
Ġch ocol
Ġag es
Ġj ack
Ġint ent
Ġri val
Ġpre cious
Ġter min
Ġreal ised
Ġdep loyed
Ġserious ness
fin an
Ġemphas ises
Ġsal aries
Ġarri val
Ġton y
Ġcra ck
Ġdoct r
Ġcourage ous
Ġbab ies
erb a
Ġdeliber ately
count ries
Ġforecast s
Ġlad y
Ġdetri ment
Ġinspir ation
Ġreluct ant
Ġtreas ury
ilater ally
Ã §
ter ies
od ed
Ġac ced
Ġup set
Ġco verage
ind ust
ern ity
Ġlo bby
Ġcar ries
Ġbl ocks
Ġreform ed
Ġsumm ary
Ġair line
ash ed
Ġpa rent
pr int
Ġdemonstr ations
bor n
Ġrenew al
Ġexplo sion
Ġhar ass
Ġcub an
Ġcondemn ation
Ġoce ans
Ġpick ed
Ġcalcul ations
Ġmurd ered
Ġsettle ments
Ġprompt ly
Ġcollaps ed
201 3
Ġmorator ium
c king
is ual
Ġp ris
Ġd ates
Ġg amb
se arch
ch er
Ġmar s
pect ed
Ġunder lined
Ġcl ock
ues day
Ġconf erences
Ġmon t
Ġmon tenegro
Ġcontin uity
ail and
Ġtransp lant
Ġnor ms
Ġelect rical
Ġeduc ated
Ġann ually
Ġident ification
Ġweak ening
Ġindic ations
Ġcle ver
Ġlearn t
Ġrecon cile
Ġmut ually
Ġeat en
Ġmach inery
Ġobser ver
Ġprosper ous
Ġquant itative
spe aking
commun ity
usal em
Ġanx iety
Ġcf sp
Ġintoler able
Ġbankrupt cy
Ġelig ible
Ġreme mbered
Ġcambod ia
i i
Ġth in
in come
it ives
Ġl ou
Ġex agger
Ġcomp ris
Ġtim ing
Ġent ity
Ġban ana
Ġdep ut
Ġbl oc
Ġear s
Ġbar gain
Ġele ph
Ġlight s
istic ated
Ġreject ing
Ġdefin itions
Ġaud iov
Ġrich er
ats on
Ġbreak fast
Ġremind s
Ġchec ked
govern ments
Ġmax im
mon y
Ġrout ine
Ġacce pts
Ġproc laim
car bon
Ġswe et
Ġmov ies
Ġborrow ing
Ġacceler ate
roc ity
Ġmultinational s
Ġcounterfe iting
Ġase an
Ġearmark ed
Ġunamb ig
finan cial
Ġaudiov isual
d ri
e enth
f ish
Â ·
Ġb one
Ġf old
ion ed
ol es
Ġse ize
li est
Ġhas n
am ing
Ġk im
our s
Ġlike lihood
si mp
Ġdis order
Ġoff ences
ris y
Ġmin eral
Ġext rad
Ġgrow s
Ġcap ability
Ġris en
Ġvi b
Ġwrit er
Ġsw iss
Ġhead ed
Ġwa ves
Ġfle e
Ġ8 00
Ġdev al
Ġdev ote
Ġdemonstr ating
Ġencourage ment
fr ance
ows ki
under ing
Ġfil ms
Ġdetermin ing
Ġbelief s
Ġnig er
Ġdeterior ation
Ġdetri mental
Ġunex pected
Ġbiote chnology
Ġbanglades h
Ġtsun ami
6 0
g re
i ated
Ġbe er
Ġl uc
ot ing
pe ace
Ġha b
Ġde emed
Ġun ification
ain t
so on
oc ation
Ġeconom ist
Ġmar ry
Ġsp in
Ġcontin uous
Ġ8 5
Ġrad iation
Ġwatch ed
Ġpakistan i
iling ual
Ġuns ustainable
Ġtransl ated
Ġprohib ited
Ġspl end
Ġimbal ance
Ġupd ate
bet ter
Ġcert ific
Ġapolog ise
Ġprosecut or
Ġdilemm a
c itiz
l ers
o e
o es
Ġt ank
Ġt uesday
Ġw atson
Ġs ant
or row
le ments
ra de
Ġde regulation
Ġen emies
Ġle on
Ġch irac
Ġimp unity
Ġk az
Ġad j
Ġad here
Ġout look
Ġconc luding
Ġrec ur
ip s
Ġconf idential
Ġref und
wor ld
Ġnor way
Ġval ley
Ġ3 4
Ġfurther more
Ġprotection ist
Ġur anium
Ġsupp liers
Ġreform ing
Ġdeep ening
Ġanal og
Ġill usion
Ġcredit ors
Ġstay ing
Ġinvestig ated
cl ock
Ġhost ile
Ġcr ush
Ġrig id
Ġfer re
Ġmagn itude
Ġveget ables
Ġhypoc risy
Ġsoph isticated
Ġethi opia
Ġgeopol itical
Ġkitch en
Ġchocol ate
w ash
Ġt ig
Ġa qu
Ġa lex
on ic
at ories
Ġf ol
Ġin sect
al most
Ġn ap
st yle
Ġl ake
Ġfor cing
Ġha m
im ination
Ġag ents
Ġpresid encies
ig ate
si a
me mbers
Ġsp are
uc cess
Ġ3 8
Ġir respective
Ġcreat ures
Ġbar bar
ither to
emp loyment
Ġappropri ately
Ġshare holders
app y
Ġsubsid y
pol it
Ġobtain ing
Ġexception ally
Ġinh er
Ġcompar ative
Ġperman ently
Ġinsist ed
Ġhur ry
Ġemot ions
asm us
Ġcontemp orary
Ġsequ ence
Ġvers us
Ġreun ification
Ġprecond ition
Ġsacrif ice
Ġsensit ivity
Ġsurger y
f ood
Ġa ver
Ġp ed
Ġm akers
Ġan c
ic ts
Ġg a
Ġl in
Ġl ank
oun ced
li ances
we ight
Ġle verage
Ġhe zbollah
Ġres id
Ġk ne
ll er
Ġra pe
Ġdiff ering
Ġser ving
Ġma o
wor thy
Ġtransp osition
Ġbeh a
Ġsimp l
Ġrest rain
Ġcontro vers
Ġcivil isation
Ġcapital ist
Ġfif ty
Ġvirt ue
Ġcompe ting
Ġserb ian
Ġgold en
Ġextrem ism
Ġextrem ists
develop ed
Ġaccomplish ed
Ġnord ic
Ġdrast ic
Ġdatab ase
Ġmagaz ine
Ġsplend id
a unch
o il
Ġa er
Ġn ons
Ġre ct
st ers
Ġun w
Ġun ite
iv able
Ġpart ially
Ġcount s
te l
ink ing
ound ing
Ġro yal
Ġma il
Ġemp h
Ġsystem ic
Ġsm ile
Ġban ning
Ġcent ers
Ġlive lihood
Ġbur n
Ġfarm er
Ġarg uing
Ġhon or
Ġpric ing
Ġmodern ization
Ġexplain s
Ġcollect ing
Ġperform ed
ye ah
Ġtun nel
Ġincom preh
Ġcalcul ated
Ġdistort ions
Ġneglect ed
Ġwhol ly
erba ij
b ert
m ath
v ice
Ġs ir
Ġun cle
Ġsh ed
Ġse eds
Ġk iss
Ġno on
Ġpre c
Ġrec k
ath ered
olog ist
Ġback wards
bal anced
Ġform ing
Ġform ation
Ġtechn ically
Ġlif ted
Ġ3 3
Ġinst ances
Ġel imination
Ġsing apore
Ġ4 2
Ġpat ri
Ġfle ets
Ġrob ots
200 1
Ġphot o
car ious
Ġtradition ally
Ġdisagree ment
Ġemot ion
Ġmountain s
Ġdeliber ations
Ġvacc ine
Ġaward ed
sad ly
Ġvolat ility
Ġrw anda
Ġprest ige
Ġtong ue
citiz ens
e lection
k ov
p at
Ġth ailand
es ity
Ġh oc
Ġd irty
ic ular
Ġbe e
Ġst ating
Ġpro active
od a
Ġk ur
Ġparliament arians
el ine
Ġar isen
Ġprov ince
Ġadd iction
olog ically
Ġinter depend
Ġrev ise
Ġ5 5
Ġtext iles
ple te
ck er
app ing
Ġport fol
Ġinflu enced
Ġclos est
Ġoccur ring
Ġsepar ated
bes ides
Ġswim ming
Ġmerc ury
Ġgather ing
Ġabst ract
Ġjer usalem
Ġsomal ia
Ġpris ons
Ġincompreh ensible
e y
Ã º
Ġt abling
Ġin security
Ġd ies
Ġe ve
Ġe ase
th al
Ġl ocked
Ġne ur
Ġeuro stat
Ġsh ocking
ess im
Ġor ch
ak is
Ġout line
Ġdec ides
Ġsp ons
Ġcl oning
Ġgood will
Ġoff set
Ġconf ine
Ġmin istry
Ġinde x
Ġwhe el
Ġstrong est
Ġes cap
Ġframe works
Ġstruct ured
Ġinteg rating
Ġviol ated
Ġregul ating
Ġgra b
Ġexcell ence
ex per
Ġcritic ise
Ġcollect ively
Ġconduct ing
Ġauthor ised
Ġhar bour
Ġplanet s
Ġder iv
Ġreferendum s
mon th
Ġconsolid ated
Ġprevail ing
person ally
contro lled
Ġgall ery
Ġmir ror
Ġtear s
Ġske pt
Ġpian o
Ġbarn ier
b en
j ad
n uclear
re b
re cent
Ġs ri
Ġin land
al i
al ong
Ġh ill
Ġh ier
Ġn it
Ġg or
Ġimp art
Ġres ume
Ġpol ar
Ġco oking
Ġpre carious
Ġar ts
Ġro w
Ġro oted
Ġpartic les
Ġgen ome
Ġmay or
Ġsc ared
Ġprev ents
Ġredu ces
ret ion
Ġmention ing
Ġfundamental ism
Ġeng aging
Ġoper ates
Ġcy n
Ġstri p
Ġfunction al
Ġexcess ively
Ġvulner ability
Ġii i
Ġanaly se
Ġunre alistic
Ġdistur bing
Ġunderest imate
Ġvit ally
Ġcarri ers
Ġgest ure
Ġaccus ations
bus iness
Ġunst able
b rit
u a
Ġs ak
Ġm entions
Ġre build
Ġl ung
ort ed
Ġv en
Ġpres erving
Ġpres ervation
Ġref using
own ed
ob ama
Ġsm ith
Ġreason ably
Ġsc ra
Ġmed i
Ġorgan ising
Ġel ites
Ġpass port
Ġadminist rations
Ġbreak s
Ġfriends hip
Ġgir lf
Ġretain ed
Ġjournal ist
Ġwitness ing
Ġlength y
Ġcrow d
Ġhyp o
Ġpersist ent
Ġperpet rators
Ġdesp air
Ġfrust ration
Ġdur ation
Ġcath olic
Ġtiss ue
palest in
Ġlifel ong
a e
y mmet
ed e
as ive
ch ing
im ension
os ur
Ġrep lied
ous es
Ġexp osure
are st
Ġper mits
Ġlo ves
Ġref rain
Ġpoint less
Ġmeas uring
Ġlif ting
Ġinf in
Ġinf lic
Ġdep loy
Ġear liest
Ġforeign ers
Ġprof ile
Ġmilit ar
Ġiraq is
Ġident ifying
Ġfisher y
Ġharmon y
Ġbreak down
Ġrecon sider
Ġslow down
Ġdescri ption
Ã© s
Ġappear ance
Ġlay ing
Ġexplan atory
Ġpan ic
Ġhonest y
Ġhonest ly
Ġlux ury
Ġphenomen a
comp ass
develop ment
Ġscre ening
Ġdiagn osis
sm all
Ġaz erbaij
Ġbroadcast ing
Ġinstall ations
Ġmathemat ics
Ġmortg age
akh stan
Ġincomp atible
m un
v o
w estern
Ġt ons
re search
Ġs que
Ġp ir
Ġp essim
or ate
Ġh inder
Ġn om
Ġre organ
Ġcont ents
ste p
ors hip
Ġsch ol
Ġvi ability
Ġsuccess ive
gg ing
Ġconsum e
Ġafric ans
Ġdest ructive
pr an
Ġste pped
Ġsimilar ly
Ġreact ors
Ġord ered
Ġbot tle
Ġdraf ts
Ġdepart ments
Ġprior it
Ġkil omet
Ġshif ting
mis sible
Ġredund ant
Ġpopul ist
Ġprejud ice
Ġinstruct ions
Ġegg s
Ġsla very
Ġumb re
Ġanc est
f oot
g rad
i ver
t ini
z ens
Ġa k
Ġa str
en v
Ġb less
or ious
Ġf athers
as ant
il ation
id ently
Ġcon form
res sions
Ġme ters
ci pe
Ġpres erved
Ġint u
ine jad
Ġadd s
Ġdef ended
Ġent ities
Ġass ault
Ġbud d
be an
Ġiniti ate
Ġsat ur
Ġrad ically
Ġperform ing
gra de
Ġextraordin arily
Ġreve als
Ġvig orously
Ġrestric ting
Ġdin os
Ġsurpl uses
Ġfortun ately
Ġprivile ged
amend ments
Ġcas ual
Ġimprison ed
Ġderog ation
Ġtrace ability
Ġindig enous
Ġfrat tini
b at
e xt
k ash
m ap
Ġt ap
Ġt ends
Ġc rop
Ġo t
Ġan ch
Ġd well
Ġn ie
Ġg athered
ur ances
ow ed
Ġsu pran
Ġen gin
Ġimp ly
Ġres il
Ġqu art
Ġdis ability
me as
Ġar rog
Ġconc ludes
Ġtra ins
Ġsp aces
Ġreason ing
Ġsuccess or
Ġer u
Ġdraw s
Ġten nis
Ġexplain ing
Ġrich est
Ġrepl acing
Ã¶ der
Ġlay s
Ġlabor atory
Ġfruit ful
Ġundermin es
Ġevolution ary
Ġdeliber ate
Ġexe mptions
Ġcommod ities
Ġcomplement ary
Ġchamp ions
Ġstead ily
Ġdismant ling
incre asing
Ġtrigg er
imension al
env ironment
Ġsupran ational
Ġengin es
0 2
c op
f at
i que
n orm
r an
r ance
Ġ lying
Ġt ie
Ġth ri
Ġb ans
ro ots
Ġre hab
Ġg n
Ġu seless
im ated
Ġch ris
Ġcan c
Ġor ange
um ers
Ġact or
ath y
Ġbl ocking
Ġread iness
Ġbal ances
Ġel abor
Ġexpress ly
af i
Ġvis its
Ġele v
cri min
Ġrelig ions
nam o
Ġislam ist
Ġmal ay
Ġalloc ate
Ġship y
Ã¡ namo
Ġgrand mother
Ġves sel
Ġscot t
Ġfortun e
har ov
f ts
p es
s ol
v ian
Ġw ire
Ġp ione
Ġh itherto
ch et
Ġwor s
lic ity
Ġconc ert
Ġunder ground
Ġtra p
Ġob esity
Ġbo ats
ite ly
Ġdisc rep
Ġsec ured
Ġemp ower
Ġrest oration
Ġadv ise
av oid
Ġexpect ation
Ġindivid ually
Ġsl ower
Ġmid st
Ġcirc les
Ġant ibi
Ġcross ing
Ġcooper ating
cont in
Ġparal ys
Ġpreced ence
thes is
Ġevol ve
Ġsuspect ed
Ġunh appy
Ġdisproportion ate
Ġtempt ation
concern ing
Ġsak harov
Ġgirlf riend
Ġumbre lla
" .
o eu
t rad
v ard
Ä į
an en
Ġh orm
Ġd u
Ġre imb
Ġg ear
Ġas ymmet
Ġne ts
im er
ge red
Ġse min
Ġab d
Ġexp on
ign ment
Ġworld s
Ġoff ensive
Ġhuman e
Ġdirect ors
Ġ19 3
Ġcar ib
ract ed
Ġimpro ves
Ġgr id
Ġdep loyment
Ġwel coming
Ġequ ation
Ġsing ing
Ġ4 3
Ġ4 4
Ġbar oness
Ġkey nes
Ġsuggest ing
Ġgener ating
some one
Ġjud gments
Ġsk illed
Ġlink ing
sp ace
Ġbi om
comm er
Ġcorrect ed
Ġimag ined
Ġtour ists
erent ial
Ġenh ancing
Ã¡ vez
Ġsto pping
cons umers
part icular
Ġbomb ing
Ġbos s
Ġliter ature
Ġrac ist
tur ning
Ġcry st
Ġintens ify
Ġpoet tering
Ġconj unction
Ġcatastroph ic
Ġrehab ilit
oeu v
s ing
s outh
u ated
Ġw il
en l
it ting
or ically
Ġn as
Ġst ol
ort ions
ist ically
Ġcount less
Ġfa ire
au er
Ġman oeuv
ign ific
Ġtra um
Ġsp ur
Ġinv isible
ang le
Ġprov in
Ġcour ses
Ġgu ided
Ġke ys
Ġban anas
be h
Ġallow ances
Ġaw ful
Ġsuff ers
Ġdecl ined
Ġmis sile
Ġbor ing
Ġhear ings
app ed
Ġver sions
dom in
Ġrestrict ion
Ġblo ody
Ġsimplif ying
Ġhost age
Ġdynam ics
Ġforg ive
Ġpension ers
Ġren der
Ġvill ages
Ġcorrespon ds
Ġsusp ension
Ġrecip rocity
Ġclin ical
Ġdirector ate
Ġfortun ate
Ġerad icate
grow th
Ġcot ton
Ġtast e
Ġmira cle
Ġfro zen
Ġguant Ã¡namo
Ġtheore tical
Ġambass ador
Ġazerbaij an
j e
m ese
s ur
v in
Ġm ud
Ġd g
ut s
Ġcon vert
Ġun cond
Ġen light
Ġab ide
Ġcount ing
ab ul
Ġpl ot
Ġthem es
Ġdec omm
Ġover se
Ġcl ust
Ġintern ally
Ġph ones
Ġwish ing
Ġcor rid
Ġlib eration
Ġold est
co operation
Ġbur st
Ġbur mese
Ġconte mpt
Ġ7 00
Ġrecomm ends
Ġindic ator
Ġcod es
Ġexport ing
Ġanalys es
cul es
cul osis
Ġdynam ism
Ġhur ric
Ġaccompan ying
produ ct
Ġprofound ly
Ġineff icient
Ġsympt oms
uber culosis
Ġcoexist ence
Ġgamb ling
Ġhab its
Ġcarib bean
Ġdecomm ission
c ost
k este
r ational
Ġth rust
Ġw olf
Ġs id
Ġo w
Ġp air
Ġf ib
Ġh i
ro se
Ġre cipe
Ġl amp
Ġare na
Ġas p
Ġpar ame
Ġpar amount
Ġdo zen
Ġk al
ac ity
ig ration
oc cup
Ġqu o
Ġpre domin
he res
Ġfe es
Ġsupport ive
Ġover l
Ġsy rian
act ually
Ġoff ence
Ġmo od
Ġdisc red
Ġdisc oura
min ister
Ġatt ending
Ġass igned
ici encies
Ġlif et
Ġcond itional
Ġexpect ancy
Ġrecogn ising
Ġsumm its
Ġappe als
Ġhead quarters
Ġentire ty
Ġpot ato
Ġmult ilingual
Ġ9 9
ex p
Ġlaunch ing
Ġbat tery
Ġunf old
int ensive
Ġclean er
Ġstrength ens
spe ed
Ġparad ig
Ġenvis age
Ġswift ly
Ġfasc inating
Ġimprison ment
Ġque en
Ġincon ven
Ġperiph eral
Ġexemp l
Ġpregn ant
keste in
1 2
e ken
h ope
m us
t ar
Ġt uberculosis
Ġa mp
Ġc ats
Ġm erg
Ġf ru
ar raf
Ġg ro
Ġu en
Ġen compass
Ġch ronic
ome ter
ak s
Ġrep ro
Ġno se
Ġco financing
thing s
Ġser bs
tain ing
Ġlo oph
Ġsub ordin
Ġdisc retion
Ġher zegovina
Ġsc ul
Ġneg lig
ount ered
Ġrest oring
Ġdist ortion
Ġopp ression
Ġenc ounter
Ġenc ountered
Ġimpact s
Ġwa ited
Ġred ress
Ġrepublic an
Ġhistor ically
Ġenorm ously
ann es
Ġspirit ual
Ġspeed y
Ġphot os
Ġreplace ment
Ġswe ep
Ġchap ters
hand ed
Ġkil ometers
Ġfing ers
eff ective
Ġscandal ous
Ġshap ed
Ġcontemp l
Ġmun icip
Ġairpl ane
priv ate
Ġze al
Ġdoctr ine
Ġkur ds
Ġimpart ial
enl argement
Ġstol en
8 0
d in
d imensional
h o
m n
m ilitary
v ial
z be
Ġb in
ut ing
ol as
Ġme lt
op oul
Ġse ed
ess ed
Ġat e
Ġfe ared
Ġinv ention
rit ical
Ġrem inder
Ġdef er
ob oda
Ġown ed
Ġlegisl ators
Ġris es
Ġbl at
Ġem ail
Ġequ ipped
Ġlet ting
Ġshort er
pl ay
Ġann an
Ġdesign ers
Ġhear ts
Ġreject s
Ġstop s
Ġreflect ing
Ġhun ting
Ġsan ction
Ġwin ner
Ġconstruct ed
Ġ% .
govern ment
Ġobst ruct
Ġlay er
Ġreact ed
Ġphil ipp
Ġfat al
Ġsleep ing
Ġlic ences
Ġinj ury
Ġunre ason
Ġanticip ated
Ġderog ations
Ġmisunder standing
Ġcontam ination
Ġcos m
Ġpoc kets
Ġignor ance
Ġdeput y
Ġkaz akhstan
Ġquart et
1 9
g le
n on
t t
is ations
Ġp ending
or able
Ġin justice
ic able
Ġne pal
Ġun ilaterally
Ġimp ressed
Ġab bas
Ġman kind
Ġsy mmet
Ġfact ories
Ġsign atures
Ġcor n
Ġequ itable
par ts
Ġsw oboda
Ġtri g
af e
where as
Ġpack ages
sh aring
Ġoppos ing
thod ox
Ġrepe ating
Ġemb od
Ġrich ard
ca mb
Ġpain ting
Ġlower ing
Ġcondem ning
Ġqual itative
Ġsurv ived
Ġdrink s
Ġbelong ing
Ġquar ters
Ġagg reg
Ġtibet an
Ġmotiv ation
Ġcorner stone
Ġirre lev
Ġpassion ate
Ġdisplay ed
Ġclub s
Ġdan ube
Ġmole cules
Ġcomfort able
Ġdivers ification
Ġtact ics
Ġecosyste ms
Ġentertain ment
Ġlank a
f arm
t reat
v y
v it
re pres
Ġto y
Ġh iding
Ġd ust
Ġe ld
th irds
Ġre ception
id al
ur ate
Ġde eds
Ġab used
Ġtr uck
ru p
Ġte en
Ġover night
Ġadd itives
Ġla eken
Ġpr ince
Ġafter math
Ġ20 50
Ġinde fin
cu le
Ġimm une
Ġapproach ed
Ġsupp lied
Ġpop ulated
Ġprof essions
Ġemphas ized
Ġdest ination
Ġdest iny
Ġmass es
Ġsal t
Ġspir al
Ġign oring
ls on
Ġlu kash
Ġsurpris ingly
Ġpredict able
Ġpersu aded
Ġreiter ated
Ġvacc ines
Ġbol iv
Ġguard ian
bet ween
grow ing
Ġmerc osur
Ġsme ll
Ġconscious ness
Ġoverlook ed
afric a
Ġfranc is
Ġspectac ular
Ġdread ful
Ġcontrovers y
Ġnons ense
7 0
e ither
f unction
h el
i at
m ake
Ġt an
Ġs is
Ġf ier
Ġin ner
th rop
Ġre lying
Ġbe es
ly wood
Ġha w
Ġex cise
Ġv icious
Ġag ing
Ġimp over
de z
Ġri vers
Ġtim ber
Ġsa har
Ġpos sel
og en
Ġra b
ub ar
Ġinv al
Ġagree ing
oll ar
Ġcur tain
own ers
Ġma ur
Ġelect ron
Ġtri vial
Ġintrodu ces
ata h
Ġmis ery
Ġspecial ist
Ġemb ass
Ġsepar ately
Ġball ot
equ ally
Ġprosec ution
Ġillust rates
add afi
Ġchamp ion
Ġdepos it
Ġcypri ot
Ġscarce ly
oper ability
Ġwond ered
Ġdivor ce
Ġporn ography
Ġexempl ary
Ġtrig gered
Ġpossel t
b ted
c ular
f aced
m ill
w al
re z
er a
Ġs ar
Ġh oney
ar ound
ot al
Ġpro x
ra ction
Ġne u
Ġcomm em
qu it
us ive
Ġor te
Ġk u
ac cess
Ġbut ter
de termination
Ġad mission
ab et
oc ratic
ult imately
Ġpl a
Ġco in
Ġco gn
Ġcons p
Ġmar king
Ġspe ll
Ġsp ends
Ġprov ing
ange red
Ġref uses
Ġass urances
Ġtal ent
Ġbr ink
Ġsc ri
Ġsc our
Ġfore front
Ġins ol
let ion
Ġca iro
ger man
Ġchar les
europe ans
Ġindepend ently
Ġdoub led
Ġcoordin ator
Ġqual ities
Ġphys ically
Ġexpendit ures
Ġquot ed
Ġfrequ ency
Ġoccasion ally
Ġpleas ant
Ġren d
Ġpi racy
Ġsurround ed
Ġtaxpay er
Ġpref erential
Ġalban ian
Ġacknowled ges
Ġbreat he
Ġbol kestein
Ġinsp ire
Ġsloven ian
bas ically
Ġmanip ulation
Ġdesper ately
Ġstead y
Ġcens ure
Ġnur t
Ġbes ides
lim ited
Ġspecul ative
Ġtac is
aci o
palestin ian
Ġfaire r
Ġoverse as
Ġscul pt
zbe k
ubar ak
d ict
s um
t ry
u mber
u sions
Ġs am
or a
Ġf ile
Ġd row
pe red
Ġha ul
Ġy en
Ġal ert
the ast
Ġv ain
Ġr Ã¼
Ġint ra
Ġad vers
Ġrec ourse
Ġover t
Ġover coming
Ġla undering
Ġend angered
Ġass uming
Ġserv ants
Ġnegoti ators
Ġ4 6
Ġpass es
Ġpass ive
Ġenl arge
Ġele ven
Ġroad map
Ġmet al
Ġseem ingly
Ġtrust ed
Ġwin ners
Ġbul k
Ġsen ate
Ġadap ting
Ġsafe ly
Ġhar vard
Ġprefer able
Ġwid ening
Ġep is
Ġproportion ality
Ġboost ing
Ġscand als
Ġagg ression
Ġprohib it
Ġalleg ations
Ġexceed ed
Ġdub ious
Ġcli ents
Ġshap ing
Ġabsor b
Ġveget able
Ġoffic er
Ġreprodu ctive
inform ation
Ġjac ques
Ġrecruit ment
Ġautomob ile
Ġorte ga
g ree
r as
t an
Ġt rop
re ck
Ġm ism
Ġbe ll
Ġg m
Ġfor ge
Ġst ro
ad s
Ġch Ã¡vez
oc aust
Ġfin es
ens ity
lic k
Ġthem atic
Ġper cept
Ġlo ose
Ġcl oud
Ġmin ors
Ġprocess ed
Ġide als
Ġshe et
Ġimm inent
Ġbenef iting
with standing
pl an
Ġopt ed
Ġpal acio
Ġsent enced
Ġtour ist
Ġpret end
fe w
Ġgrand father
Ġincom plete
Ġcast ro
Ġmargin s
Ġcamer as
Ġdar win
Ġbub bles
Ġunequ al
Ġprote ins
Ġdismiss ed
Ġstagn ation
forest ation
Ġunres olved
current ly
gre en
Ġlukash enko
1 8
5 00
b g
b est
c ris
g arian
i ably
m ble
p os
u y
Ġ `
Ġs ab
it an
Ġp as
Ġf ert
Ġin du
om as
ver sible
ge or
Ġdo zens
am ble
Ġman n
ag an
Ġunder lines
igh ter
Ġrel atives
Ġcontin uously
Ġinform ing
Ġdra g
Ġdeal ings
Ġest ate
Ġconv ictions
Ġreach es
pri me
Ġhard est
Ġfl ower
Ġexpress es
pr in
Ġred ing
jo hn
Ġclass ic
Ġclass room
Ġexport ers
Ġarab s
Ġkid n
Ġwind ows
Ġbat teries
Ġwall strÃ¶m
Ġfast est
Ġappeal ing
Ġder ived
Ġvig orous
Ġsyn thetic
Ġash amed
Ġfran co
Ġnav igation
Ġcert ification
wa it
Ġpled ged
elect ed
Ġnaz i
Ġfragment ed
Ġlobb ying
Ġsque e
Ġphilipp ines
1 4
b ank
d iff
f reedom
g l
m ir
r ality
Ġa us
in stein
Ġs le
Ġb ones
Ġto ll
Ġf its
ed ing
Ġn aked
Ġn inet
as se
Ġg on
ot ive
Ġfor d
ra m
op ing
us s
Ġad am
Ġqu it
Ġout right
for ces
Ġinc in
Ġdec oup
Ġsp r
Ġtrans action
ang u
red ict
Ġext ends
Ġla ure
Ġcontin ents
Ġgu iding
Ġbu ff
be yond
Ġrest s
Ġmil est
ret t
Ġestablish es
Ġshort ages
leg al
Ġret reat
Ġgre et
Ġcred its
reg ulated
Ġimpos ition
Ġroom s
Ġharmon ising
pro v
Ġbul garian
Ġcompl ac
Ġattach es
Ġinade qu
Ġselect ive
Ġcontradict ions
Ġendeavour s
Ġcease fire
Ġanticip ate
Ġpul led
Ġexhaust ed
Ġaccommod ate
Ġbreed ing
Ġarmen ia
great er
Ġforb idden
Ġinconsist ent
Ġforesee able
camb ridge
1 00
d ated
g ress
h y
o a
Ġb ric
Ġf atah
ar ab
Ġre wards
Ġg reed
Ġl ama
Ġst ir
Ġst ere
Ġpro stitution
ri um
ul sion
ill a
Ġex it
Ġdo omed
am in
Ġk ash
Ġcont est
te mp
ag ric
ĠâĢ Ŀ
ris k
Ġcur tail
Ġend less
Ġinter ior
Ġtransp osed
Ġform ulate
Ġdep ressed
Ġnat ura
Ġinde bted
Ġrese mb
Ġmean while
Ġcoh n
Ġexport ed
Ġcounter parts
Ġcharacter istic
200 9
Ġoccup ying
els on
Ġstim ulating
Ġjoh annes
Ġsac rific
Ġflu ct
roc ities
Ġah mad
Ġcultiv ation
Ġrevers ed
Ġdepl ore
Ġgalax y
Ġunequiv ocal
Ġtherap y
Ġsecre cy
Ġmetaph or
Ġparame ters
d ad
e en
n esty
v ol
Ġa rose
re a
Ġm ouse
Ġm aps
Ġan onym
Ġh its
Ġg y
ot ics
Ġwe t
Ġpro mp
Ġun c
Ġun com
Ġun democratic
ere rs
Ġle cture
od es
Ġor thodox
Ġres erved
ard o
ie l
Ġev asion
Ġind ul
und i
Ġleg ality
Ġmat ernity
oll and
min ute
Ġatt ent
Ġtur bul
Ġcar l
Ġbr ush
Ġdra in
Ġmod e
Ġauth ent
Ġear ned
Ġta j
Ġless er
Ġread ily
par agraph
Ġexpect s
Ġviol ate
Ġvar ied
Ġciv ic
Ġdesign ated
Ġdam ages
Ġden ial
Ġvo iced
Ġhighlight ing
Ġdepend ency
Ġmig rant
ik i
Ġenjo ying
des ign
Ġtun e
Ġoccup y
Ġattract ed
Ġadvoc ating
Ġdecis ively
ari os
Ġsac red
Ġscen arios
Ġran ks
Ġbox es
Ġinfect ion
Ġillust rate
Ġvacc ination
uk raine
Ġextrem ist
Ġhol ocaust
Ġcapt ured
Ġdistingu ished
Ġpled ge
Ġambig uity
Ġdetain ed
Ġpredecess or
Ġhed ge
Ġallev iate
Ġdal ai
Ġextrad ition
? '
a el
a ven
d rop
f ail
n r
n ar
o ft
p ers
Ġp itch
Ġf led
Ġn ab
ment ioned
Ġst un
Ġas leep
we g
Ġac id
Ġdis gu
Ġro s
Ġcommit ting
rat ory
Ġext in
Ġcur b
Ġquestion ed
Ġprotect ive
Ġback s
Ġinter operability
Ġbl an
Ġdist ress
Ġfam ine
Ġpass age
Ġmaintain s
Ġchalleng ed
comm on
Ġevent ual
Ġden ying
Ġvir gin
Ġtravel ing
Ġprison er
Ġreferend a
Ġimplic it
Ġshame ful
Ġdemonst rators
Ġinfringe ments
ios ity
Ġreloc ation
Ġecosyste m
Ġau ction
Ġredistribut ion
Ãº n
Ġgn p
Ġrehabilit ation
Ġlifet ime
Ġirrelev ant
a o
a ired
c ulate
i as
l ining
o ons
r and
s ided
v ency
Ġthe ories
on i
on ou
Ġo zone
Ġb und
Ġb ern
Ġd ol
as y
Ġwh ist
Ġcon du
Ġeuro just
est yle
Ġat rocities
Ġch ad
Ġag gra
Ġj os
Ġk at
Ġrep ressive
ear ly
te ch
oin ts
he imer
Ġconc erted
Ġsp a
ite ment
Ġrel aunch
Ġdef iciencies
Ġreal ism
Ġtur mo
Ġinter l
Ġlif estyle
Ġorgan ize
Ġir rational
eng u
Ġpeace keeping
Ġbar rel
Ġret ention
Ġhome land
Ġmor ality
Ġhead lines
az z
Ġcir cu
Ġemploy ee
Ġil o
Ġemb ed
Ġhor ri
Ġhor ror
Ġ14 0
Ġmanufacture r
Ġsyn ergy
Ġjudge ment
Ġacceler ated
Ġolymp ics
Ġdiss atisf
Ġincident ally
Ġmemor ies
Ġq aeda
Ġprivat isation
Ġcontam inated
Ġcab inet
Ġwarn ings
Ġug anda
Ġmush arraf
Ġorch est
Ġderiv atives
Ġscott ish
Ġturmo il
b ro
e ba
f ield
g or
l it
p oll
t rodu
Ġa ri
Ġthe ater
er ies
Ġc ited
an mar
Ġf urn
ar at
Ġre ef
Ġre think
as ide
st s
Ġg ay
ra yed
ir ation
Ġsh y
Ġpar king
Ġv lad
rom e
Ġj i
ll ers
Ġcomp osed
Ġwork able
Ġte les
Ġar ray
ok es
Ġob li
Ġbo ther
Ġhum ili
Ġconf using
Ġsc ream
Ġstand point
Ġlegisl ate
Ġph are
Ġconv icted
Ġ4 7
Ġloc ally
Ġvis iting
Ġproper ties
Ġbur ned
Ġeur atom
Ġself ish
Ġinflu ential
tom orrow
Ġdead lock
Ġtemp or
Ġrein trodu
Ġdescri bes
cl imate
Ġstandard isation
Ġdiplom ats
Ġhit ler
Ġtend encies
Ġconver sion
Ġreserv ation
Ġtight en
Ġdisadvant ages
Ġrecip ient
Ġprivile ges
Ġnut s
ÃŃ n
Ġdistur b
Ġroc ket
Ġcot onou
Ġexerc ised
Ġpand emic
Ġax is
var ious
Ġemph atically
Ġmalay sia
Ġunreason able
zbek istan
Ġauthent ic
b endit
g one
l at
s how
u pp
Ġth rew
Ġs lu
Ġm ubarak
Ġf iction
Ġh in
Ġh ub
ic ago
Ġl ion
Ġha mp
Ġal tered
Ġun le
Ġun avoid
Ġch an
Ġj ames
Ġk la
Ġdis integ
Ġout dated
Ġinc lined
iz ar
fore ign
Ġra mp
ved ev
Ġtoo th
Ġdef ect
Ġent rust
Ġass ent
Ġmod es
Ġbl amed
Ġ3 9
Ġcomple ting
Ġdist ances
Ġrecogn izing
nov ation
reg rett
Ġdev ised
Ġhuge ly
Ġemerg es
Ġstri ving
Ġclass ified
Ġclass ification
iet ies
Ġmand elson
Ġinvestig ating
Ġarri ving
Ġsuperv is
Ġder ive
Ġengine er
Ġdomin ate
Ġang le
Ġleban ese
mo ving
Ġmobil ise
Ġattend ance
Ġvac ation
Ġphotograph s
Ġentrepreneurs hip
Ġfool ish
Ġcounterfe it
Ġbran ch
Ġsuperf lu
Ġantibi otics
Ġmanoeuv re
ignific ant
hope fully
cris is
regrett ably
0 3
a way
g as
m are
v an
z heimer
Ĥ ¬
re f
at ibility
Ġc ite
Ġo lig
Ġb ills
Ġf ox
Ġin ad
Ġd ressed
Ġe f
il ib
Ġg ates
Ġl ud
Ġst ub
ow ing
Ġde lete
Ġun den
im m
im ir
Ġcan ad
end ers
Ġpl un
Ġmar sh
Ġra cial
Ġsp ill
Ġconf ed
Ġappro ving
Ġdisc l
Ġcur ric
Ġhope ful
Ġins ists
Ġpo ly
Ġpo em
Ġ5 2
then burg
Ġexpl os
Ġmot ives
Ġer asmus
Ġassist ing
Ġge ared
ush ch
Ġfig ured
Ġindic ating
Ġtraff ick
Ġig no
Ġdr unk
Ġcounter productive
ann ual
Ġblack mail
Ġclaim ing
Ġmanufact ured
Ġfeed back
sk y
bur gh
comp liance
Ġshar on
ato eba
Ġaccur ately
Ġimper fect
Ġâ Ĥ¬
Ġintens ified
Ġupd ated
Ġerad ication
Ġdiscrimin atory
mod ern
Ġrevol utions
Ġhesit ate
Ġassass ination
indust rial
Ġharass ment
Ġadj our
environment al
Ġsahar a
Ġ` `
Ġninet eenth
Ġjohannes burg
Ġaggra v
Ġsuperflu ous
a urs
c ity
c reat
l ondon
p ing
r ne
s cient
y oun
Ġc res
Ġc ia
Ġb ible
Ġm am
Ġan no
st ay
st ud
Ġg olf
Ġl en
Ġl ul
Ġl one
Ġde af
Ġun think
Ġse ver
Ġse ized
Ġj im
Ġhe ed
ac ulture
now adays
Ġinc umb
Ġco ach
ition ally
Ġpre rog
he y
Ġra ins
Ġunder going
Ġsp ots
Ġrespon ds
olog ies
Ġenv iron
Ġprev al
Ġdown ward
Ġfra ction
Ġpower less
Ġinst inct
Ġcond ol
Ġpo pe
Ġcomb ining
Ġvis ibility
Ġmind set
Ġarg ues
cent ral
Ġwa iver
omet ric
Ġdev ise
Ġmodern ise
Ġcross ed
Ġden omin
Ġden ounce
Ġcle ared
Ġrenew ables
Ġund ers
Ġchec king
ustom ed
Ġcomplain ed
Ġvisit ors
Ġchem istry
Ġgradu ate
Ġterri bly
Ġspok es
Ġconce al
Ġgeograph y
Ġmobil isation
Ġchurch es
Ġdefe ated
develop ing
Ġhol es
cap ital
Ġdecre ased
Ġnut rition
Ġbreach es
Ġconvers ations
Ġmurd ers
Ġunp redict
Ġcf p
Ġcatal y
hist ory
Ġflaw ed
Ġsoc rates
prof it
Ġcypri ots
Ġna ive
Ġincur red
Ġmassac re
Ġinfl ows
viol ence
Ġsmugg ling
Ġunambig uous
Ġkilomet res
Ġdecommission ing
Ġparadig m
Ġtrop ical
Ġuncom fort
c red
Ġb izar
Ġf o
ou re
Ġh anging
Ġe man
st ar
Ġfor ty
Ġha mm
Ġby rne
so far
Ġgo thenburg
Ġor ph
Ġli ik
ast e
ag og
ach e
Ġover sight
act or
Ġmin i
Ġdef ines
Ġcol umn
Ġprev ails
Ġmed a
Ġmed ina
Ġshe ets
Ġfl ash
Ġdri ves
Ġdeep en
Ġcru de
Ġver ification
Ġste pping
Ġara fat
Ġtemp ted
fr ank
Ġund es
Ġrein teg
pro gress
Ġhy gi
Ġslo gan
Ġ13 0
Ã¶ r
Ġterri f
Ġcompe lling
americ ans
Ġslight est
Ġceleb rated
imp ro
Ġfer til
Ġadm ire
Ġwebs ites
Ġirre versible
Ġshap es
Ġsmoo thly
Ġgh ost
contro l
Ġacad em
Ġredund ancies
Ġmisunder stand
Ġadvis ers
Ġlam y
Ġmyster y
educ ation
Ġeleph ant
Ġrefund s
Ġneur ons
Ġbiom ass
Ġfrancis co
Ġfier ce
Ġahmad inejad
Ġenviron ments
Ġliik anen
b rid
h our
m oud
w ind
Ġth r
re du
Ġs ink
Ġc ents
Ġo omen
it ual
Ġm ild
Ġe instein
Ġl ord
Ġha vens
ri ans
ir s
Ġsu ited
ad mitted
Ġv ested
so lete
Ġr ank
Ġj am
Ġhe ge
Ġhe ated
Ġhe ating
Ġab ilities
Ġpol es
Ġint act
Ġpe ters
ren der
Ġsa mp
Ġpre occup
Ġgovern or
mm ing
rat or
Ġmon u
Ġquestion able
Ġass u
Ġback ward
ne ys
Ġinvest or
Ġval idity
Ġread s
Ġrev ive
Ġbur ied
Ġconflic ting
Ġrequest ing
Ġsk i
Ġprob ability
Ġorigin s
Ġcy cles
Ġindic ative
Ġanalys ed
lin ary
ann y
Ġconfirm ation
Ġsun ni
Ġhit ting
Ġbureauc rats
Ġtransform ing
roso ft
Ġcorpor ation
Ġboy cot
Ġabandon ing
ull ah
Ġparal y
Ġscand ina
Ġpurch ases
Ġunnecess arily
Ġlic ens
Ġol ive
Ġflag s
Ġoverwhel m
Ġdictatorship s
Ġevalu ating
Ġintens ity
Ġsudan ese
Ġic c
Ġhero es
Ġintoler ance
Ġunjust ified
Ġdivid ing
Ġgalax ies
Ġsenti ment
Ġcorre ction
Ġdisse min
Ġflour ish
ĠbÃ¶ ge
Ġvlad imir
Ġtempor arily
Ġigno res
admitted ly
s er
Ã ±
Ġt ender
Ġa ven
Ġb our
ro at
ro oms
Ġre hn
st ruct
Ġl an
Ġl ament
se ment
Ġde leted
Ġun limited
li p
Ġch arity
Ġhe aven
Ġk or
Ġrep ay
Ġri o
Ġapp les
Ġfe e
Ġpolit e
Ġind ians
Ġmo z
Ġho ly
Ġsign ature
over all
isl am
Ġsimp licity
Ġmod ification
Ġsch r
com mit
Ġhand ic
Ġes p
Ġpo le
Ġstar k
leg isl
Ġrecogn izes
Ġfl av
ib eral
Ġmis er
Ġz o
str ong
Ġmethod ology
Ġassoci ate
Ġreview ing
ex am
Ġmal n
Ġexplo iting
ij ten
Ġinsist ing
Ġautom otive
tw enty
Ġdomin ance
Ġabol ishing
Ġgeorg ian
Ġinterpret ations
Ġgeograph ic
Ġreli ability
att ered
eff icient
Ġshif ted
Ġillness es
Ġcens orship
Ġtall er
Ġvary ing
Ġimperial ist
Ġshel ter
Ġbran ches
Ġresign ation
Ġportfol io
Ġsatur day
Ġdinos aurs
Ġeru pt
Ġfru its
Ġboliv ia
Ġcogn itive
Ġstere oty
e z
g od
g roup
i h
l or
m outh
Ġt ide
Ġth omas
re form
Ġw ines
it ter
it ure
Ġp iv
Ġp engu
Ġh olland
Ġre ap
Ġre na
Ġl as
Ġl ock
Ġwh is
ot ted
pe lled
ld om
Ġst y
Ġal t
ch i
ul es
ul um
oun der
ant ed
Ġv itor
mb owski
Ġr itual
Ġli able
Ġk ir
Ġam nesty
Ġcont ag
Ġpe cul
ire land
te chn
Ġco at
Ġsa mple
Ġpre cip
Ġtra pped
Ġob solete
Ġper u
Ġover view
Ġtw in
Ġacc ustomed
Ġbas el
Ġ19 2
Ġlast ed
Ġprotect s
ne ed
Ġsuc cession
Ġprin t
Ġhealth ier
Ġins urg
Ġcontribut ors
Ġshort fall
Ġvar ies
Ġpen cil
Ġsuper power
Ġmus cle
Ġexch anging
Ġbi as
Ġoblig atory
Ġcy cl
Ġill iter
Ġislam ists
Ġanalys ing
Ġrein forces
Ġdescri bing
ze mbowski
Ġproceed ing
Ġult ra
ik h
Ġtele com
Ġsport ing
Ġpsych ology
Ġthrow ing
Ġrig our
Ġtraged ies
Ġtough er
Ġprohib ition
Ġbrid ges
Ġtight ening
Ġinj uries
Ġexe mpt
Ġearn ings
Ġthreshold s
Ġyield s
Ġlaugh ing
Ġpostpone ment
Ġfragment ation
Ġnomin al
Ġaston ishing
Ġmah moud
Ġjar zembowski
Ġpuzz le
Ġpup ils
Ġduplic ation
Ġalex ander
Ġastr onom
Ġcanc Ãºn
Ġparalys is
Ġhurric ane
Ġaggreg ate
Ġscour ge
Ġkash mir
ilib rium
Ġunthink able
d og
i ries
s ud
s erv
t ings
Ã ´
re member
Ġw ik
is ons
Ġs ket
Ġc ock
Ġp ounds
Ġan k
om ing
ot ion
ot ism
Ġwe ird
Ġst if
Ġst akes
ra mid
Ġnot ification
Ġun law
op ular
Ġsh ore
ich et
Ġres ent
um ably
Ġtr ichet
Ġman ager
ru ijten
Ġra ining
Ġover r
Ġbas que
Ġgen eric
Ġconf er
Ġprot oty
Ġtreat ments
Ġrespect ively
Ġsur render
Ġcor al
Ġcrit ically
Ġbal i
Ġfree ze
Ġple a
Ġappe aring
Ġtransport ed
Ġair space
Ġcongrat ulated
Ġspecial ists
Ġurg ing
Ġland ing
Ġlos ers
Ġec r
Ġinflu x
Ġbi ke
mar ks
ins on
Ġcritic ized
Ġcal culation
Ġclass ical
Ġpain ted
200 4
Ġcomplain ing
Ġcontinent al
Ġsafeguard ed
road s
Ġarrest s
Ġcatch es
Ġment ality
Ġinfect ious
Ġarchitect s
Ġacceler ating
su pp
Ġdetect ion
Ġfost ering
Ġdistort ed
Ġperce ive
Ġbreath ing
Ġjeopard ise
Ġlad en
Ġpersec uted
Ġlag ging
Ġtroub les
Ġtroub led
Ġperiph ery
Ġpy ramid
gree ce
Ġbizar re
Ġvitor ino
2 000
c ard
p ost
u ate
Ġt enth
re y
er ts
Ġc ine
Ġb h
Ġd ent
Ġd ense
Ġd uly
le z
Ġre lies
Ġre bel
Ġg ate
Ġg sp
Ġl akes
Ġst ig
Ġnot able
Ġse ldom
Ġle an
Ġgo e
Ġli p
ree vy
Ġwho ever
cy cl
Ġrec overed
Ġover due
ris ing
Ġgen ius
Ġsocial ism
Ġmarket place
Ġent ers
Ġass umes
Ġgu ilt
Ġcar c
Ġcol ors
Ġcol umb
Ġform at
Ġinf er
Ġmod ifications
Ġdep reci
Ġsur f
Ġed f
Ġdist rict
sw ed
Ġcivil ised
Ġloc ations
Ġiran ians
Ġmet als
Ġver dict
Ġland f
Ġlos es
ah u
Ġteach es
Ġnight mare
Ġrein forcing
200 2
Ġda wn
Ġdefend ers
Ġbelg rade
Ġpopular ity
Ġky i
Ġcondition ality
Ġconsolid ating
Ġang ola
Ġmic rosoft
through out
Ġsister s
Ġprofit ability
Ġkn ife
Ġgh ana
Ġambig uous
Ġprecond itions
Ġsoc cer
Ġcoinc idence
Ġescal ation
Ġath let
compet itive
Ġembry os
Ġcigaret te
protect ion
inf lation
Ġrestrain t
Ġhier archy
Ġcyn ical
Ġcryst al
Ġembed ded
Ġuncomfort able
l ow
w ere
w age
Ġt ables
is an
er ra
Ġp ou
Ġm ile
Ġin sofar
ic it
Ġre building
ul ent
Ġun belie
Ġsu u
op ening
Ġse mi
os ity
Ġv isions
ast y
lo se
Ġimport ing
ag g
ern al
Ġro lling
Ġtake over
Ġstr and
Ġbelie ving
Ġclear ing
Ġrespon sibly
lu de
Ġglobal ised
Ġmed vedev
Ġsch mid
land er
Ġcre w
Ġshe ll
Ġdemocrat ization
Ġgentle man
Ġconsum ed
Ġproject ed
Ġtax i
Ġcreat ure
Ġbar Ã³n
do ing
Ġexpl oration
Ġsci ences
Ġru in
Ġdri ft
off s
20 10
Ġimmig rant
Ġstress ing
Ġdoubt ful
Ġvol can
gar ians
Ġmig ratory
Ã© n
Ġsun light
Ġcontract ual
Ġphys ic
Ġmeaning less
aw are
Ġbase ball
Ġproportion ate
Ġamaz ed
Ġprem ise
Ġmatch ed
Ġrecip ients
Ġprevail ed
wel come
Ġupd ating
Ġprag ue
Ġenthusi astic
Ġnav al
Ġprovid er
Ġindis crimin
aph ne
Ġange l
Ġfron ts
Ã¨ s
Ġpollut ants
Ġmcc reevy
Ġresolute ly
Ġexhib ition
Ġoutrage ous
Ġuphe ld
Ġexagger ated
Ġniger ian
Ġferre ro
Ġinsect s
meas ures
Ġmultilingual ism
Ġmism an
Ġmilest one
Ġhorri ble
Ġunavoid able
Ġcanad ian
youn g
b one
g b
h es
h undred
n ato
z ero
Ġ Å¡
Ġs essions
or ia
ar ctic
om es
Ġbe ating
se ction
se mit
ur t
Ġcon qu
Ġal liances
Ġal zheimer
ch ar
ir ts
Ġle ve
Ġle af
Ġch arm
Ġag ent
us ible
Ġk o
ak i
con sid
Ġshould ers
Ġpe er
ren e
Ġtr u
Ġdis orders
Ġman ual
ag ues
ru le
Ġexp ressions
Ġapp lause
Ġapp arat
Ġconc ur
Ġsp ark
Ġsp ont
Ġyour selves
Ġrem un
Ġconf use
Ġinter face
Ġallow ance
Ġbl ank
Ġval ued
Ġ3 50
Ġpeace fully
Ġfundament als
Ġlab els
Ġbar s
Ġpass ports
Ġcentral ised
Ġmot to
Ġpen et
Ġtext book
Ġer o
Ġdesign ing
Ġexc luding
Ġland ed
Ġattack ing
Ġill usions
Ġjun cture
Ġcal end
Ġexport er
Ġslow ing
Ġenjo ys
Ġfulf ill
Ġpra y
Ġsold ier
Ġclean ing
Ġglad ly
Ġtro ika
Ġwithdraw ing
Ġcompe lled
tra ck
Ġren t
Ġpreced ed
dis c
Ġentrepreneur ial
Ġmagn ific
Ġwood s
Ġapolog ize
Ġgun s
Ġhoriz on
Ġpul ling
Ġneut rality
sch ool
Ġgrass roots
conf lic
Ġflaw s
Ġug ly
Ġpoc ket
rend t
Ġprolong ed
Ġly n
defin ed
wash ington
Ġescap ed
Ġuncond itional
Ġmerg ers
Ġindefin itely
Ġnab uc
Ġcondol ences
Ġassu mptions
Ġspont ane
0 4
e ight
f am
h or
i ri
i ance
k ward
r gy
s uff
s uccess
w ald
Ġ Â
Ġt ip
Ġw i
Ġw ing
Ġc ows
Ġp ave
Ġp light
Ġp nr
Ġf usion
Ġan ts
Ġan omal
ro ed
Ġe pp
Ġe rect
Ġn ich
Ġn go
as k
st ad
Ġg ut
Ġu zbekistan
Ġst icking
Ġy ard
qu al
Ġat oms
Ġby pass
Ġch imp
us a
Ġres on
ak a
Ġbut t
Ġprop ortions
Ġexp ed
Ġar sen
Ġfe at
Ġrec re
ors es
Ġcur iosity
Ġquestion ing
Ġdef ensive
Ġreal m
Ġemp owered
Ġachie vable
com b
Ġest e
Ġequ als
Ġbal ancing
Ġwrit ers
Ġexperi mental
Ġmis use
Ġsl im
Ġfri ed
Ġ201 4
Ġtarge ting
Ġhalf way
Ġdeep est
Ġweak est
Ġemploy er
Ġste ms
Ġlove ly
any way
Ġhy per
Ġtravel ed
ev ident
Ġinh uman
Ġpublish ing
spe cific
Ġceleb rating
Ġmexic an
imp lement
Ġsubmit ting
Ġillust rated
Ġtunis ian
Ġmole cule
Ġbenefici ary
hard t
Ġfright ening
invest ment
Ġembarrass ing
bra zil
Ġlap top
Ġindiff erent
Ġbargain ing
simp ly
Ġtig er
Ġaqu aculture
Ġlivelihood s
Ġcasual ties
Ġcres po
actor ily
Ġschr Ã¶der
Ġpecul iar
Ġero sion
Ġnabuc co
rgy z
1 7
b ish
b ach
d ist
d irect
f ia
m oney
r in
t un
Ġw ound
Ġm es
Ġm ol
Ġf les
Ġf lies
Ġin sure
Ġh en
Ġh ans
Ġd ensity
Ġd aphne
ct ors
Ġg i
Ġwh ale
Ġde forestation
ch inese
ate mal
im ity
Ġen qu
Ġen forcing
Ġch ech
ig ence
Ġpl ate
au g
te enth
Ġte x
Ġover ly
Ġacc ounted
Ġcommun ists
Ġgu er
Ġcar ing
Ġinter cultural
Ġadop ts
Ġmod eration
Ġsch roed
Ġhand ful
uc ks
eg al
Ġequ ilibrium
Ġwhe at
Ġrev ising
Ġeas ing
Ġspecif y
Ġtri bes
Ġoper ator
Ġid i
Ġemphas ising
Ġant arctic
Ġurg es
Ġver ify
Ġconsult ing
Ġjun cker
Ġrat ings
Ġpress ed
lt ry
Ġindustrial ised
Ġlimit ation
any ahu
Ġdistribut e
Ġcharact ers
Ġsil ver
200 8
Ġexec uted
Ġobserv atory
Ġadvert ise
four th
Ġexceed s
keep ers
Ġadm iration
Ġglass es
Ġinterpre ters
Ġsong s
Ġmole cular
Ġpig s
Ġunderest imated
Ġcere als
po or
Ġexacerb ated
Ġdetain ees
Ġscore board
Ġprud ent
Ġinterrupt ed
Ġsenti ments
Ġleh ne
Ġschol ars
particular ly
Ġprovin ces
Ġadjour ned
Ġlul ling
Ġhygi ene
f ishing
h en
Ġth ick
Ġw ary
en za
Ġc ord
it t
Ġp ound
es pecially
ing e
Ġd c
Ġl or
Ġas certain
gh dad
Ġun ple
Ġwill i
ain ted
Ġch airs
Ġimp lied
Ġbut ton
Ġrep atri
um s
um ane
Ġreg en
Ġout er
Ġcomp lying
Ġtrans mitted
Ġmat ure
Ġbas ket
Ġsit tings
Ġsi erra
Ġhapp ily
Ġhapp ier
Ġsc are
bal ance
hip s
to ok
Ġform ulation
Ġdon ations
Ġorgan ism
Ġir rit
per form
Ġprogress ively
Ġ5 4
Ġgeneral s
fin anced
Ġtri bal
Ġmis con
Ġgre y
Ġhon oured
up s
Ġapplic ants
Ġassist ants
Ġobs essed
Ġsuper ior
sp ain
Ġport ion
Ġcoll ateral
sec ure
Ġcounter part
Ġconstruct ively
Ġship building
Ġhar ness
Ġarr anged
Ġoccup ational
augh ters
Ġadjust ed
Ġobser ving
fe ld
Ġinsist ence
Ġdisch ar
Ġky rgyz
Ġfix ing
Ġuns afe
Ġincorpor ation
Ġcondemn s
Ġmic ros
gu ided
Ġmultilateral ism
Ġchristian ity
Ġ196 7
Ġexecut ives
Ġembra ced
Ġabsor bed
Ġbeat en
Ġbail out
Ġstip ulated
Ġsacrif ices
Ġdrast ically
Ġdepos its
Ġdisse mination
quest ion
Ġembark ed
Ġattribut ed
Ġcigaret tes
Ġba ghdad
Ġproclaim ed
dri ven
Ġkne es
ben ef
Ġdecoup ling
Ġextin ction
Ġincumb ent
Ġunpredict able
Ġundes irable
Ġpou ltry
wald ner
c ive
c od
m ain
v oc
Ġa y
Ġa vert
Ġw ins
Ġw iped
is a
Ġc ave
Ġb its
Ġf ake
Ġf ence
om y
ot ti
Ġal gor
ch air
mp ing
Ġsu its
op ian
ere r
un ting
est ion
Ġch er
Ġr anging
Ġhe lic
Ġev idently
Ġind ign
Ġinv iting
Ġover ha
Ġhad n
Ġsy ner
ight ing
Ġsub mission
xt y
Ġend uring
Ġgu atemal
Ġgrow ers
Ġinter active
Ġbefore hand
Ġcap tain
Ġdon ation
Ġlegisl ature
Ġrev ital
Ġ5 1
Ġcare ers
Ġaw kward
Ġvar iation
Ġspecific ations
Ġcred ential
Ġer ika
Ġgener ates
Ġimpos es
Ġsatisf actorily
Ġflo ating
Ġche ese
Ġ11 0
Ġmiss iles
Ġconcent rating
Ġsurv iv
Ġcustom er
Ġpred ic
rel ations
Ġtoler ated
Ġsurve ys
Ġlic ense
Ġflood ing
Ġevol ving
Ġevalu ated
Ġendors es
Ġscrut in
Ġdeterior ating
Ġcoup led
Ġtic kets
Ġfright ened
Ġunres erved
fra me
bear ing
Ġinfin ite
Ġwors ening
Ġreimb ur
beh rendt
Ġprox imity
oft en
Ġcondu cive
Ġapparat us
stad t
Ġunple asant
Ġalgor ith
Ġhelic op
3 5
b c
b ow
g ia
i ating
j i
p overty
v il
w ord
re ts
on ian
Ġs au
it ated
Ġm ast
Ġf ract
Ġh ut
Ġn erve
Ġg if
Ġme th
Ġeuro bon
Ġsh ake
Ġsh ark
Ġsh ops
Ġle ver
Ġch rom
Ġch icago
Ġr ang
iv o
de cl
um i
Ġno ble
Ġup coming
Ġexp ose
me xic
Ġper t
Ġinv entions
Ġcl ou
ative ly
Ġstr ang
Ġprov oc
Ġacc ent
Ġdes erved
wor se
Ġmod er
Ġshe er
Ġadv ancing
em erg
Ġrev ival
Ġprogress ing
Ġlot tery
Ġed itor
Ġ4 9
Ġart istic
Ġfinal ised
Ġjun ta
Ġscientific ally
Ġoccur rence
Ġproceed s
Ġunf ounded
Ġdict ate
Ġtransfer ring
Ġtele ph
Ġtouch es
Ġattract ing
Ġremark ably
Ġreven ge
Ġbrazil ian
Ġvari ations
Ġsearch ing
Ġagg ress
Ġrh y
Ġreveal ing
Ġregrett ably
Ġperpet rated
bet t
Ġwed ding
Ġdiss ent
Ġmit igate
Ġdisappear ance
Ġconfron ting
Ġconven ience
Ġ194 5
conf idence
Ġhypoc ritical
Ġexacerb ate
Ġvolat ile
fif th
Ġreb els
Ġvolunte ers
Ġath ens
gener ally
Ġmu lder
Ġunch anged
Ġindiff erence
Ġsubscri be
Ġtum or
Ġfloren ce
Ġobsc ure
Ġjack son
Ġsimpl istic
Ġresil ience
Ġshipy ards
farm ers
Ġoverwhelm ingly
hundred s
Ġcredential s
2 7
d y
l arge
m issions
s olid
u ay
Ġt anks
Ġa ster
Ġa mple
Ġthe ss
Ġc u
Ġc ad
Ġc ous
Ġf als
Ġf ond
al on
Ġh ired
Ġe ats
Ġn ass
Ġi p
Ġl od
Ġv ag
so ft
Ġcan ary
Ġpres umably
od ing
Ġres cu
Ġab u
Ġli ver
Ġpol io
ac cession
con st
Ġrep lies
Ġpe ter
ost on
Ġup grad
ts in
el tsin
Ġpolic ing
Ġpropos ition
Ġdem ise
Ġrec ru
Ġlo ad
Ġho ok
Ġent rench
Ġdes ires
Ġview point
Ġcol our
Ġmed iation
Ġfore seen
Ġprin ted
Ġph ased
Ġcor bett
Ġben e
Ġrepresent ations
Ġfavour s
Ġmor ally
Ġpen ins
Ġty r
Ġspecial ised
Ġcomprom ised
Ġer it
Ġident ities
Ġgra de
Ġconnect ing
Ġdev il
Ġdel hi
Ġinflu enza
mar kets
Ġorganis ational
Ġsens es
any thing
Ġpath s
200 3
Ġinflation ary
Ġaccomp any
commun ist
Ġrational e
Ġcli ent
Ġdiscover ies
Ġtemper atures
Ġpoet ry
Ġhes itation
Ġalger ian
Ġange la
Ġinspir ing
Ġadmitted ly
Ġalleged ly
establish ed
fund ed
Ġdepl orable
Ġadh ered
Ġcorre lation
Ġintr ins
Ġunw anted
exper ience
Ġancest ors
Ġelabor ate
Ġdol ph
Ġexplos ive
Ġtraffick ers
frank ly
sud den
Ġunlaw ful
Ġmagnific ent
b ring
j er
l en
l ab
s af
t ically
Ã £
Ġ ?
Ġw ounded
Ġw reck
is ive
er get
Ġc ute
it ate
an gh
Ġb ange
Ġb oston
Ġm d
Ġto ile
es ter
es ters
Ġin ert
al us
Ġh orses
Ġd aughters
ro cal
Ġre jo
st ates
Ġg b
ut rition
Ġfor wards
ur ation
Ġst a
ke ys
Ġse af
Ġv ivid
Ġle e
Ġag ed
ll o
oc ally
Ġmar x
ach ed
Ġunder took
Ġsp heres
Ġind o
Ġgu ards
Ġenv oy
Ġsc rap
ne eded
Ġprin ting
Ġbl unt
Ġsmall est
Ġ5 3
Ġ5 9
Ġbuild s
Ġ4 50
Ġsuff ice
Ġtri ps
Ġfundamental ist
ident ally
Ġmis guided
Ġsl ave
Ġturn over
Ġnet anyahu
Ġ6 2
Ġface book
Ġbroad band
Ġbi ometric
Ġjun ior
Ġmist rust
Ġsal mon
Ġvir uses
Ġsepar at
parliament ary
Ġhor rific
Ġqual ify
Ġspeed ing
Ġsil k
Ġreact or
Ġinh umane
Ġhost ility
Ġacqu iring
Ġprotocol s
Ġstrength s
Ġfulfil ment
Ġswe pt
Ġmatch es
Ġos set
Ġphilosoph er
Ġtort ured
Ġdro ve
Ġindones ian
Ġremed ies
Ġdevast ated
Ġeuros cept
Ġnur se
Ġexerc ising
Ġsli p
Ġintimid ation
Ġfloren z
Ġleon ardo
Ġnie lson
Ġlooph oles
Ġimpover ished
Ġmisunderstand ings
Ã´ te
Ġcalend ar
Ġsyner g
Ġthess alon
Ġbange mann
a cies
d ate
d iv
d ac
d ollar
e gypt
h arm
i qu
i pping
l is
m ass
n n
p ract
s mes
s orry
s ustainable
w oman
Ġt ent
Ġth irds
Ġa the
Ġa ung
in os
Ġo st
Ġb og
Ġf id
Ġh ire
Ġd ots
Ġre pet
Ġl ula
ment ed
Ġpro ver
ol ine
ra ms
ch ris
Ġnot withstanding
Ġne at
ad minist
Ġsh arks
Ġse al
Ġen erget
Ġle is
Ġwor sen
Ġch at
Ġall otted
Ġimp l
Ġj an
Ġres umption
Ġk er
ous ed
Ġcont ing
oc racy
ens en
Ġfe ver
Ġdevelop s
Ġtrans cend
cept ive
Ġgovernment al
Ġdra ma
Ġmod ulation
Ġap pet
Ġes dp
Ġstar vation
Ġ4 1
Ġhead way
Ġsou theast
Ġtrad ers
Ġlang en
Ġhold ers
Ġrom antic
Ġfle w
sh ore
Ġpolice man
Ġmer ger
Ġpenal ised
Ġround s
Ġcompens atory
Ġturk men
Ġquant um
spe cif
Ġvari able
Ġmoun ting
Ġpsych iat
Ġnar rative
Ġscen es
Ġpredict ions
produ cing
Ġtimet ables
Ġchain s
Ġgri p
Ġmoroc can
Ġcli p
Ġunp opular
exist ent
Ġmemor and
Ġshif ts
Ġnic olas
trans p
Ġfan at
Ġholid ays
Ġpopul ism
Ġwhol es
Ġenrich ment
Ġarmen ian
negoti ations
Ġtab oo
Ġscept ical
Ġinterdepend ence
brit ish
Ġnom ination
Ġanch or
Ġscri pt
Ġlicens ing
need less
Ġank ara
swed en
ivo ire
Ġclou ds
' '
b ers
i raq
k land
o is
q aeda
t our
v als
w ords
Ġth umb
in ate
Ġw ings
al ready
ic ating
Ġand erson
Ġn est
Ġre ar
Ġre lied
ur able
Ġst ored
Ġde lic
Ġun fore
Ġun even
Ġsh out
Ġsh ower
Ġsh ield
Ġex ile
un ted
Ġle one
Ġch ess
Ġr ally
Ġj ul
Ġres ur
Ġres igned
ll es
Ġcomp atibility
iz oph
ack s
Ġra m
Ġper se
Ġbo ast
igh ters
Ġstr anger
Ġdisc ard
Ġla x
Ġfut ures
ital y
Ġsch izoph
Ġ5 7
Ġ5 8
Ġansw ering
Ġconst rained
of i
ec k
Ġbel t
Ġhead ings
off icial
Ġgree ks
Ġsuper market
hold er
Ġste er
Ġdocument ation
Ġsal v
Ġmal m
ma j
Ġcompreh ensible
Ġalloc ating
Ġsil ic
Ġsil ly
Ġprovision al
Ġspread s
200 5
sc ar
Ġfeed s
Ġpet rol
right s
Ġfraud ulent
cons cious
Ġincom pet
Ġvolunt arily
spe cial
Ġinterven ing
Ġconstitu ent
Ġrelie ved
Ġanaly sts
Ġscar city
Ġkar as
Ġcommend able
Ġroc ard
Ġconven ient
Ġdiscrimin ated
br ussels
Ġbow is
Ġfeas ibility
Ġstip ulates
Ġaccum ulation
Ġchick ens
Ġcul p
Ġsympt om
Ġmi xt
Ġpredecess ors
Ġcancell ed
Ġintermedi ate
Ġdisgrace ful
Ġeg f
Ġhect ares
Ġcertific ates
Ġinflic ted
Ġdrafts man
Ġclust er
Ġzeal and
repres ent
ĠrÃ¼ big
Ġincin eration
Ġfluct uations
Ġcircu it
Ġchan ne
Ġcine ma
Ġlor ries
Ġeurobon ds
Ġaster oid
Ġleis ure
Ġschizoph ren
d est
f elt
h ed
n ings
o ch
z es
Ġt b
Ġt atoeba
in en
Ġthe r
Ġc Ã´te
Ġp our
Ġp ile
or ient
Ġf ats
ent er
th row
Ġg ore
Ġl om
Ġl ately
ot a
Ġst an
Ġal ign
ra ising
ch anging
Ġeuro dac
un employment
we igh
Ġle thal
mb ling
Ġimp at
Ġinc idence
Ġup ward
el ess
og ene
ial s
Ġbo ards
Ġacc use
Ġprot esters
Ġma fia
Ġtur ks
Ġcar te
Ġsc rat
Ġbu ck
be ll
Ġpresent ly
Ġbus es
Ġcre am
Ġdep ort
Ġdep leted
Ġcost a
av al
Ġrese tt
Ġpract ise
Ġconstit utions
Ġart ic
Ġlib r
when ever
Ġchar ging
Ġtrad ed
Ġcapital s
Ġcoordin ators
some body
inde pend
Ġlow ered
Ġcru cially
Ġver ge
sh ort
Ġkill s
Ġpoll en
Ġmer ch
Ġclar ifying
Ġcharacter ized
Ġjour neys
Ġcra ft
Ġsus cept
aught ered
Ġpun ct
Ġstrugg les
Ġbon ino
Ġsto res
Ġcard iff
Ġcatch ing
Ġball oon
Ġintellectual s
amb ique
see ing
Ġsupplement ed
russi an
Ġcrow ded
Ġdetect ed
Ġfrust rated
Ġprivat ization
Ġprescri bed
Ġmich ael
Ġdossi ers
Ġtechni que
Ġvers a
Ġmathemat ical
Ġspecul ators
Ġdecentral ised
Ġdimin ished
Ġmainstream ing
Ġmassac res
Ġunequiv ocally
Ġenact ed
Ġconfidential ity
Ġanalog y
Ġinher ited
Ġexpon ential
commer ce
Ġmelt down
Ġpercept ions
best os
prin ts
Ġaus p
Ġpromp ted
Ġobli ge
Ġcurric ulum
Ġmaln utrition
mexic o
angh ai
Ġthessalon iki
d led
h of
l angu
m il
o pp
p id
p oints
s r
u er
z io
Ġt ire
in ity
in qu
in novation
Ġs ul
Ġs ie
en a
Ġc un
an ke
Ġb ind
Ġm itch
Ġf u
ro b
Ġand ers
th ousand
Ġn ag
Ġn pt
Ġre ign
Ġre agan
as i
st ed
st art
st ick
Ġg and
Ġg ig
Ġg ros
se y
ver sion
Ġy eltsin
Ġas bestos
Ġun controlled
ci vil
if iably
Ġle ct
Ġwas ting
Ġqu a
Ġmy anmar
Ġco erc
me al
Ġsa il
Ġpre amble
ens itive
el a
Ġdiff ers
Ġdisc ourse
Ġend anger
Ġown er
Ġher man
Ġcar pet
Ġback drop
Ġmaj orities
ph eric
Ġins ert
Ġir ony
Ġdist rust
Ġmonth ly
Ġlib yan
Ġbar rot
Ġcong estion
Ġdecl aring
Ġsl aughtered
Ġgener osity
Ġdesign s
Ġdesign er
ck x
Ġwrong ly
omet ime
Ġtest im
Ġgreen land
Ġcohes ive
Ġcomput ing
Ġcontent ious
Ġstay s
Ġcha otic
Ġdeleg ated
Ġconcent rations
Ġfil es
Ġfacilit ation
Ġlabor atories
cont ract
Ġconver ted
Ġincorpor ating
sk i
Ġconce ived
Ġapart ment
Ġlabe lled
Ġsyn d
Ġseat tle
Ġreass uring
Ġneighbor ing
Ġminim ise
Ġcolon ies
isra eli
Ġacquis ition
Ġdiver gence
Ġjump ed
Ġincon ce
Ġelig ibility
Ġdatab ases
Ġdesert ification
compet ition
Ġster ckx
viol ent
Ġstret ch
Ġflee ing
Ġcertific ate
Ġeld r
abet es
lit tle
Ġorph an
Ġchech en
solid arity
Ġpenins ula
sudden ly
specif ically
Ġmemorand um
9 6
d ig
e ec
f ly
f air
h ur
n ik
p ie
p arents
z Ã¡
Ġ vel
re lig
Ġw ounds
Ġp icking
Ġb ust
Ġto wer
Ġf on
Ġf ta
Ġin secure
ar ter
Ġd ot
Ġd ys
Ġthat cher
il er
Ġg au
Ġg oll
Ġu cl
Ġfor a
pe ter
ra pe
gh ter
Ġun int
Ġun regulated
Ġun aware
ad ers
Ġsh it
Ġsh am
li ever
est a
Ġimp ul
Ġk abul
um a
ament s
lo vak
Ġpl ug
Ġdis g
Ġout weigh
Ġcomp aring
Ġco el
Ġev ans
Ġtra cks
Ġsupport er
ind ivid
Ġper il
Ġover sh
Ġtw itter
there d
Ġtrans mit
Ġfact ual
Ġla ud
lu ck
Ġdes cend
Ġsm arter
Ġdra gged
ne z
ne ath
Ġinf ant
Ġlegisl ator
Ġph ases
Ġ5 6
Ġsupp ression
Ġret ired
Ġaccess ibility
Ġcomb ust
Ġbur undi
Ġer r
Ġant agon
Ġ7 7
app lause
Ġground water
Ġdel ors
Ġill icit
Ġkill ings
Ġcal culate
Ġwal es
Ġrepublic ans
Ġheart felt
Ġsen egal
anu kov
Ġunivers ally
Ġ198 6
Ġcontract ing
Ġbat tles
Ġpet ro
Ġfederal ist
Ġuncertain ties
inc luding
her zegovina
Ġren ational
imp ort
Ġvide os
Ġconstitu encies
Ġforum s
Ġtibet ans
Ġillust ration
Ġded ication
Ġgri ps
Ġdepri ve
ÃŃ a
Ġabsor ption
Ġukrain ians
Ġgest ures
Ġshoot ing
Ġreaffirm ed
tal k
Ġsecre ts
Ġshr inking
Ġpron ounce
Ġinex p
Ġdies el
Ġcorrid or
Ġdiscred ited
Ġblat ant
Ġstro ke
Ġhumili ating
Ġhamm er
Ġboycot t
Ġbh ut
Ġlandf ill
Ġmisman agement
Ġsurviv ors
Ġpert inent
Ġucl af
Ġcoel ho
3 00
c r
l eration
m d
p ed
w atch
Ġt ant
Ġs ore
Ġs ars
Ġs ons
Ġc um
Ġb ite
Ġf iring
Ġf illing
Ġin action
al ous
om ach
il ings
ut ory
Ġst omach
ol iberal
Ġcon cession
ate red
pp ro
ant i
Ġch est
Ġcoun sel
Ġj et
Ġj ose
Ġk au
Ġam ounting
Ġreg rets
Ġtr an
Ġri ots
Ġprop h
Ġunder go
ĠâĢ Ķ
Ġtra cking
Ġeff ic
Ġlo oming
Ġro pe
Ġcommun aut
Ġdisc ourage
Ġcur ve
Ġass ad
Ġsm ok
wor th
Ġglobal ized
Ġimpro v
Ġmod ify
Ġrul ings
icult ural
Ġsur pass
Ġfree zing
arm ed
Ġaw ak
Ġsw allow
by e
co al
Ġce ilings
Ġhold ings
Ġobjective ly
Ġdoub ling
Ġgra ce
Ġmult if
Ġliberal ism
ps y
pr ice
Ġ9 6
Ġweak ens
bo x
Ġdi abetes
Ġcircum vent
Ġpoll uted
pol and
Ġmut ilation
Ġbuy ers
Ġ% ,
Ġwind s
Ġ198 7
Ġlog istics
Ġlay ers
Ġcompar isons
Ġelement ary
Ġvast ly
Ġsole mn
Ġ197 9
Ġstabil ize
Ġwars aw
Ġalban ians
Ġborrow ed
Ġrecip rocal
Ġdump ed
Ġkn ock
eff ect
Ġdiagn osed
Ġquiet ly
Ġhabit at
Ġartific ially
sa ving
Ġdivers ify
nis ch
Ġtast es
Ġcere mony
Ġplain ly
fif thly
Ġcart oon
Ġmortg ages
Ġtiss ues
writ ten
Ġbench mark
Ġabund ant
Ġdegrad ation
Ġfue led
Ġvib rant
Ġbarbar ic
polit icians
Ġped est
ae a
Ġdiscrep ancies
Ġsemin ar
Ġasp ire
Ġpredomin antly
opoul os
Ġpla usible
Ġepis ode
Ġjos Ã©
cred it
Ġkyrgyz stan
Ġchrom os
Ã£ o
Ġosset ia
Ġsynerg ies
Ġgoll nisch
Ġcommunaut aire
b ill
b ad
b ud
b ush
e mpt
h on
i racy
l ar
s al
u it
Ġs ed
it ted
Ġp lo
Ġf est
Ġf ern
Ġf uk
Ġin aug
Ġn in
Ġi aea
Ġwh ales
Ġst arch
Ġal as
the m
Ġnot ions
Ġne p
Ġun in
Ġun ites
Ġsh ia
Ġsh irt
os er
Ġv on
Ġdo yle
Ġor bit
ak y
Ġad minister
ish ment
si ze
lo g
Ġout lines
Ġwork sh
Ġpre y
Ġpos session
he m
pt ions
Ġjust ifies
Ġra ppro
Ġunder neath
Ġdem agog
Ġsp ar
Ġsp ider
Ġrec ast
tain e
ste ps
ful ness
Ġcommun al
Ġlong est
Ġconf isc
Ġmon key
man agement
Ġend ured
Ġcar go
olog ne
bal ancing
Ġwar fare
Ġph asing
Ġplan es
Ġinst ant
Ġinst alled
Ġstar ing
Ġret ro
Ġeduc ate
Ġthird ly
Ġoper ated
old s
Ġforce fully
Ġstat utory
sid ers
sid ents
Ġaccord ed
Ġdial og
Ġagend as
Ġconte xts
Ġ9 2
Ġmus cles
Ġrap ed
Ġcle ans
Ġguid eline
Ġkore ans
Ġforget ting
set ting
Ġhor n
200 7
Ġinh ib
Ġdetermin es
Ġcommunic ated
Ġresist ed
Ġoption al
Ġgrand children
Ġboy friend
Ġincom ing
Ġdisappe aring
Ġisol ate
tra ff
Ġprem ises
Ġfit ting
regard less
Ġinfect ions
Ġflow ing
Ġsympath etic
Ġexceed ing
Ġmobil ised
Ġadm is
nat ural
che ment
Ġsev ille
Ġstor ms
Ġrand zio
Ġmanip ulate
mans hip
Ġreward ed
Ġreloc ations
Ġimmense ly
Ġpostpon ing
Ġreluct ance
Ġexerc ises
Ġvigil ance
Ġpregn ancy
Ġinterconnect ed
Ġclash es
Ġpremium s
Ġacced e
Ġcrush ed
Ġlin ear
Ġpriorit ise
Ġteles cope
Ġdiscl osure
Ġcarc in
Ġtex as
Ġrhy th
Ġturkmen istan
Ġmalm strÃ¶m
Ġlom Ã©
Ġinconce ivable
individ ual
Ġrappro chement
9 0
a pe
c ore
c asters
i ority
k ers
l anges
m ult
s cience
t ling
w ed
Ġa pt
in able
Ġw yn
Ġs aint
Ġc ort
Ġc ust
Ġo vere
it ar
Ġp v
an ol
Ġb ert
Ġm ount
Ġm ck
ed usa
ar ms
Ġg ord
Ġu c
se a
id ers
Ġha ut
ch em
Ġnot ing
Ġne oliberal
Ġme g
Ġsh ining
Ġpres upp
am o
Ġab kh
Ġli abilities
ig ated
um ble
Ġout s
Ġfin ishing
Ġinc ar
Ġimport ers
Ġunder water
Ġob ey
Ġrec alled
Ġper v
Ġper verse
igh th
Ġsub t
Ġsub ur
Ġprov oke
Ġmin ist
ft a
Ġinf lex
Ġorgan iz
Ġelect ro
Ġsur prises
Ġfav oured
Ġfollow ers
Ġins ignificant
Ġstud io
Ġsupp ress
Ġhard ware
Ġvar ieties
Ġsou p
Ġopt imum
Ġgra din
Ġassist ed
Ġdom ination
Ġobs ession
Ġliberal ised
Ġliberal ising
Ġ7 2
Ġ7 8
Ġver tical
Ġterm ed
bo y
Ġste ep
Ġjun gle
ses sions
Ġmal t
Ġbul l
Ġdistribut ing
Ġ198 5
Ġhar ms
put in
Ġhost ages
Ġprefer ably
Ġgradu ated
Ġdisapp oint
Ġresist ant
cont rary
Ġsqu and
Ġwash ing
Ġtransl ations
Ġdisagree ments
Ġos lo
Ġaccur acy
Ġcalcul ating
Ġinterf ering
Ġinqu iries
Ġlithu an
Ġhabit ats
Ã¤ n
cut ting
Ġmarri ages
Ġstal em
Ġoutbreak s
Ġshel f
Ġescal ating
Ġdimin ish
Ġdrought s
writ e
Ġble w
Ġmyster ious
Ġdiam ond
inform ed
dec ision
Ġshr ink
Ġloyal ty
Ġlou der
norm al
Ġtan z
Ġsacrific ed
lat in
Ġsamp les
Ġbour langes
Ġkor an
Ġmoz ambique
commit te
Ġpiv otal
Ġunreserved ly
sted t
Ġeffic acy
Ġabkh az
c re
j an
n umber
r ise
s ay
t ube
Ġt ay
Ġt ube
re yer
at ar
Ġc ologne
Ġo ost
it en
it ary
Ġp ow
Ġp ink
or ig
Ġto pp
Ġin acc
st ated
st ones
ct ory
Ġal ph
Ġne ck
Ġsh anghai
Ġgo ds
Ġso aring
rom ania
Ġj ong
Ġdis connect
Ġconc ise
ack ed
Ġsp at
ric ts
Ġpolit ic
Ġrec ap
Ġover throw
Ġsub tle
Ġdisc ern
Ġbr on
Ġsc ales
Ġcommon ly
Ġsch reyer
Ġdep ressing
Ġkind ness
ros pect
cu mb
Ġimm oral
Ġrev is
Ġsupp lier
Ġsupp lements
Ġopp ressed
Ġtri be
Ġtri angle
Ġhard ship
pl ath
ov sky
Ġprevent ative
co hes
Ġmot ors
Ġ6 6
Ġexc itement
Ġrefer ral
Ġbroad en
Ġdeter rent
Ġmechan ical
Ġport ray
Ġemploy ing
Ġhun t
Ġste am
Ġvol umes
ator ial
gen eration
Ġrepublic s
Ġextra ction
Ġspir its
Ġsad ness
Ġconcept ion
Ġ198 8
Ġfoot print
Ġblo kland
Ġda ul
Ġbon n
Ġblock ade
comp an
Ġoptim al
Ġsho res
Ġprem ier
Ġceleb ration
Ġstabil ise
Ġtit ley
eth nic
Ġwise ly
deb t
Ġdecre asing
Ġplat forms
Ġaspir ation
Ġboom ing
col le
Ġange les
Ġprescri ption
Ġspot light
Ġnur ses
Ã¨ re
Ġcul min
met ics
Ġroth ley
ĠbÃ¶ sch
health y
Ġsurge on
Ġmineral s
Ġinher it
Ġrect ify
Ġcontempl ate
Ġsymmet ry
Ġinval uable
Ġembass y
Ġcomplac ency
Ġfurn iture
Ġji had
Ġunden iable
Ġacadem ics
Ġathlet es
Ġremun eration
qual ified
Ġresett lement
thousand s
Ġhaut ala
Ġoost lander
cohes ion
0 1
2 2
c rit
f inding
m ut
s it
t im
Ã ¸
Å Ł
Ġt ended
Ġa fore
Ġthe at
Ġw oke
it ania
Ġp oured
an ing
Ġm ant
Ġm ock
Ġf ired
Ġf ounder
Ġin ch
Ġan atom
ed oph
Ġd un
ro gen
Ġre vel
Ġre open
Ġg ill
Ġfor ged
Ġst umb
Ġde letion
ke ley
Ġun used
Ġun wise
Ġun sc
Ġsh ri
Ġse am
ant o
Ġdo se
Ġle ak
Ġch art
Ġimp asse
Ġj es
du mping
Ġman ages
ag a
Ġco x
me l
Ġmar g
Ġra y
Ġfact ions
Ġoff shore
read ing
Ġfar c
art ney
Ġcontin ual
Ġemp athy
Ġass ign
Ġtal ents
Ġke l
Ġsign atories
Ġbu iten
Ġcol leg
Ġap ar
par able
Ġrev ived
Ġdist ricts
Ġsw ing
Ġpat ch
Ġappe ase
Ġlive ly
Ġcho oses
Ġquick er
Ġpost ed
Ġpost ing
Ġver hof
sp ring
Ġec ology
Ġexch anged
Ġinflu ences
Ġaud iting
ex change
Ġsan itation
head s
Ġsucceed s
Ġrecord ing
Ġcounter act
Ġbul let
Ġalloc ations
sy ste
Ġstra w
Ġber Ã¨s
Ġhom ophob
Ġep ic
Ġbon uses
Ġimplic ation
bu ilt
Ġcult urally
inc identally
Ġbomb ings
Ġendorse ment
Ġfort ress
Ġprosec uted
Ġarchitect ural
Ġphilosoph ical
Ġhol lywood
Ġprag mat
Ġdiscover ing
Ġwild life
Ġdur able
Ġtrave llers
Ġsuspic ious
Ġdispar ity
Ġcos metics
isen berg
Ġdefinitive ly
Ġrub ber
199 9
Ġabund ance
Ġcancell ation
Ġsummar ise
Ġcompris es
Ġluc as
Ġbeha ving
Ġsimpl est
Ġmilitar isation
Ġow es
Ġlamp edusa
Ġsweep ing
Ġmunicip al
ogen ic
Ġelectron ics
Ġrend ered
Ġsculpt ure
pos itive
Ġstub born
Ġpengu ins
Ġunbelie vable
conflic t
Ġreimbur sement
Ġnass auer
Ġbene ath
Ġprover b
Ġmitch ell
Ġsynd rome
Ġminist ries
Ġmalt ese
Ġstalem ate
Ġafore mentioned
Ġverhof stadt
b ot
l ater
p y
s an
t own
y rom
Ġ Î
Ġthe or
Ġthe ato
Ġthe rape
Ġs ometime
Ġc ree
Ġp on
Ġp ause
Ġp ale
an ch
Ġf reed
Ġh eral
ro ach
Ġn urs
Ġre liance
Ġis tan
st ri
Ġl es
se ven
id a
Ġpro min
Ġal mun
Ġas ians
ill on
Ġyou tube
ad o
Ġcomm ence
Ġcomm ens
Ġse gment
li x
os h
Ġle ts
Ġch ip
Ġimp ede
Ġj o
Ġres ident
Ġli ar
Ġk ofi
Ġam id
con g
Ġcount ed
lo aded
Ġdis sidents
ie v
el f
ric ted
ub a
Ġgovern ors
Ġhum iliation
Ġmon keys
Ġfar ther
Ġreal isation
Ġma ize
Ġpublic ity
Ġtransp ose
Ġlaw making
Ġsuc cumb
Ġorgan izing
Ġ20 30
ph ur
Ġph y
Ġfail ings
Ġlim b
Ġru g
Ġru ined
Ġhead line
co ordin
ining rad
Ġmid night
Ġmot ive
Ġ6 8
ush ima
Ġ8 6
ade my
Ġmus ical
rupt ion
Ġcy ber
Ġste al
Ġremember ing
Ġconsult ative
Ġdocument ed
Ġdr ill
Ġslow ed
Ġdelay ing
Ġcha ired
Ġuseful ness
Ġhor rif
Ġwall is
Ġcustom ary
Ġpra ised
Ġfacilit ated
Ġdict ates
Ġproportion al
comp ared
Ġretain s
Ġceleb rations
Ġinterven ed
produ ction
Ġclin ic
add ed
Ġinterpre ting
Ġlaugh ed
Ġsatell ites
Ġcow ard
Ġrush ed
Ġcarri er
Ġske let
cor rect
hr an
Ġinherent ly
Ġcoc oa
iped ia
Ġparent al
Ġintu itive
Ġdu isenberg
Ġpotato es
Ġresemb les
Ġolig arch
Ġsever ity
Ġhege mony
Ġmiser able
Ġfles h
Ġmixt ure
Ġlibr aries
Ġtant amount
Ġwyn n
colle agues
Ġistan bul
Ġalmun ia
9 8
d f
f ashion
h un
i ol
i ke
l iness
p ric
p akistan
s is
w art
y p
y ard
Ä ĥ
Ġt ighter
Ġs izes
it ating
or um
Ġf lip
ed ia
Ġh ollow
Ġh ond
ro es
Ġe h
Ġe ighth
Ġg il
Ġg ru
Ġg ps
Ġl ent
Ġl aps
Ġl ump
pe c
Ġst icks
ol ar
Ġde lu
Ġme als
Ġun con
ter min
oun cing
pp y
ci an
Ġcan cel
Ġr on
od ork
iv ities
Ġj on
Ġhe mis
Ġcount y
Ġdis may
Ġdis cont
Ġcomp lies
Ġcomp ounds
Ġman uel
Ġcons ci
Ġunder gone
Ġcl out
Ġprov ocation
ath an
Ġmade ira
Ġla mb
Ġla zy
Ġfut ile
Ġsc ores
Ġchild care
work ers
Ġear ning
Ġwrit es
Ġfam ously
fin ance
Ġca res
Ġcivil izations
Ġintrodu ctory
af ghan
Ġsustain ing
emp loy
Ġaccord s
Ġ6 4
Ġpa edoph
Ġinnov ate
Ġliberal ise
Ġdest ined
Ġmet res
sh ed
Ġ9 00
Ġdam n
Ġdisp uted
Ġaut o
Ġnear by
Ġwal let
Ġgas oline
val ued
Ġmer cy
Ġhy brid
Ġeval uations
Ġpenal ise
Ġspeed s
Ġbudge ting
Ġappeal ed
Ġdog ma
Ġbot tles
aw i
Ġtoler ant
Ġretain ing
Ġgeograph ically
Ġfavor able
ari ably
Ġpreced ing
Ġtit an
Ġpref ers
Ġtight ened
Ġcroat ian
Ġdiscip linary
Ġpersist ence
Ġearthqu akes
sm oking
Ġrecover ing
Ġcoup les
terror ist
Ġdivid es
Ġdisrupt ion
Ġpollut ing
Ġdish on
Ġdecentral isation
Ġdimin ishing
eas tern
afric an
Ġinterconnect ion
Ġscept icism
Ġcompris ing
Ġarrog ance
Ġwire less
Ġenlight ened
product s
Ġembod ied
hel p
Ġfert ility
Ġdisinteg ration
Ġmarsh all
Ġlone ly
Ġprototy pe
Ġoverha ul
decl ared
Ġerit rea
Ġrepet ition
Ġappet ite
Ġsilic on
Ġausp ices
Ġfon taine
Ġgord on
committe e
Ġtherape ut
Ġcommens urate
2 1
a ise
b lo
b age
c z
c ÃŃa
f a
f ed
g age
h im
l v
n ist
p ra
p ress
r us
Ġw atered
er ated
er ting
Ġs ne
Ġc ric
Ġo mission
Ġp ic
an ze
Ġb ou
Ġm asters
Ġin ward
Ġin gen
Ġan throp
ing er
Ġn ost
Ġbe liever
st ock
ct or
Ġg am
Ġl ange
ot age
id able
Ġun balanced
op l
Ġex pelled
un ished
we ar
Ġwor n
Ġch ron
Ġr ings
Ġr uth
Ġimp ot
Ġor b
Ġam ate
ard er
ast ically
Ġno is
Ġout going
for th
du ly
Ġtim id
Ġup rising
Ġdem ol
Ġsp o
Ġpartic le
ful l
Ġsub stitution
Ġrel ent
Ġgen ital
Ġsit s
Ġback bone
Ġsc ant
Ġaff lic
Ġcol ony
Ġmain land
Ġprincip ally
Ġav ian
Ġcor ps
oura bly
Ġconsum ing
Ġproject ions
Ġsing er
Ġfl ames
Ġcivil ized
Ġtransport ing
Ġhome less
Ġturn out
Ġstat ic
Ġlack ed
Ġ6 3
Ġlight ly
Ġ9 8
Ġgl aring
Ġemerg encies
Ġcritic ize
Ġcal am
Ġvo y
Ġdim as
head ed
Ġsupply ing
Ġexer ted
Ġcomment ators
Ġunf av
Ġexcess es
Ġuns uccess
gra du
Ġang lo
Ġx ia
Ġfaith ful
Ġvig o
Ġsho e
Ġstabil ising
sub sid
Ġprosec ute
Ġrain fall
Ġcamer on
Ġreass ured
Ġenvis ages
ham as
Ġcommand er
Ġdevast ation
Ġunp unished
Ġox ford
Ġlend ers
Ġbrok er
Ġmanifest ation
Ġfan atic
Ġblow ing
Ġaccum ulate
Ġtact ical
Ġbath ing
Ġseason al
Ġ195 6
Ġrecital s
Ġvolunte er
Ġforb id
Ġembry onic
Ġhomosexual s
Ġkick ed
Ġhypo thesis
Ġhorm ones
Ġmaur itania
agric ulture
Ġanonym ous
Ġhamp er
Ġsupervis or
Ġstereoty pes
Ġchimp anze
benef it
Ġindign ation
Ġentrench ed
tour ism
Ġdelic ious
langu age
Ġanders son
Ġdisg ust
Ġabkhaz ia
? âĢĿ
g reg
h ung
h ouses
j im
k op
l ocal
m art
m ob
m iss
m aker
Ġt at
Ġt ick
Ġt ann
Ġt orn
Ġa in
re ally
Ġw w
Ġw ra
Ġw ij
is se
Ġc ater
Ġc ush
Ġo re
Ġp c
Ġm ate
Ġm all
es ome
es co
Ġf rict
Ġd ancing
Ġd Ã¼
Ġd uma
le ave
Ġn ail
as ian
Ġha arder
Ġy anukov
ra is
ir teen
Ġun ice
Ġsh ine
Ġpar ity
Ġv ic
Ġk m
ans w
Ġac ademy
Ġtr ucks
lo ve
Ġpl ut
Ġdis in
Ġcomp ound
ag ua
Ġexp edi
Ġapp end
ink ed
Ġar ist
Ġsp an
Ġinv ariably
Ġrespon s
Ġdisc ount
Ġreal izing
Ġatt raction
ty pe
Ġinter reg
Ġinter rog
Ġrul er
Ġbl ur
Ġpur se
Ġlib eria
Ġviol ates
Ġactiv ist
Ġregul ator
Ġforce ful
Ġsl ice
Ġsl ides
Ġcred itor
Ġadminist ered
Ġid le
az e
Ġge omet
Ġsubsid ised
Ġstrateg ically
Ġmechan ics
Ġste aling
Ġsound ed
Ġsatisf ying
Ġaud its
Ġrat ios
verse ly
Ġindustrial ized
Ġdead ly
Ġsucceed ing
Ġconsist ing
Ġappreci ates
Ġkid ding
Ġauthor ising
Ġauthor ized
Ġstandard ised
Ġfil ter
Ġcompens ated
ene i
Ġtransparent ly
Ġcommunic ating
Ġbot t
Ġcomplic ations
Ġafford ed
Ġexec utions
Ġvirt ues
Ġengine ered
Ġcateg orically
Ġbon us
part ite
Ġblood shed
Ġarm ies
Ġreconcil ed
Ġmagn et
ham enei
Ġregister s
Ġkar l
Ġintensive ly
Ġkh odork
Ġpled ges
Ġfasc ism
Ġfant asy
Ġbail outs
Ġbes ide
Ġaccum ulated
Ġuphold ing
Ġprosecut ors
Ġaccommod ation
fund ament
Ġcruel ty
hr kop
Ġadvent ure
Ġbench marks
Ġwond ers
Ġprec ision
Ġskept ical
reb ren
along side
Ġpessim istic
Ġbless ing
Ġdiscrep ancy
Ġnas a
Ġkal iningrad
diff erent
Ġsle pt
Ġgon zÃ¡
Ġturbul ence
design ate
Ġcataly st
Ġdepreci ation
Ã©n dez
ĠÅ¡ pid
Ġmicros cope
Ġinert ia
Ġunfore seen
Ġculp rit
Ġcombust ion
Ġdialog ues
Ġmck enna
Ġtann ock
ĠdÃ¼ hrkop
ĠÅ¡pid la
0 5
7 5
9 7
a ic
e ve
e val
f led
g iving
h ot
p ared
s erb
u x
v io
y o
Ġt ense
re ls
Ġc d
Ġp ier
Ġp owered
Ġm und
Ġto mat
ou ch
Ġh ugh
Ġre negoti
Ġg att
pe z
the id
ul ously
Ġeu ph
res ist
Ġnot ified
Ġnot orious
mp uy
Ġun imag
ad op
ge ts
Ġsh aking
Ġso ya
Ġj av
Ġab duct
Ġint rig
ig ating
ost ic
Ġtheir s
Ġqu ad
vel ope
Ġtr icks
lo qu
Ġev ade
Ġsp ouses
Ġro mpuy
Ġcl ing
Ġtw ist
mm ed
Ġappro ves
Ġprot racted
min es
Ġma at
Ġatt ribute
Ġdes c
Ġgu est
Ġtal ented
iron ically
Ġcommon s
Ġform idable
Ġstand still
Ġfra med
Ġph ant
Ġelect rom
iti as
Ġben ign
Ġpract ition
Ġpo ised
Ġestablish ments
Ġbusiness men
Ġtri ple
Ġviol ating
Ġexpl ored
Ġexpl oring
Ġmor gan
ec ks
Ġdet ract
Ġz ap
Ġ6 7
Ġident ifies
Ġexc uses
Ġ8 2
Ġve in
Ġinflu encing
soci ety
Ġcross roads
Ġcrimin ality
ex port
Ġsimilar ities
Ġpersonal ities
Ġwal ks
Ġcop ies
Ġmeasure ment
Ġones elf
iss ance
Ġchair men
Ġ198 1
Ġsex es
Ġadvantage ous
Ġcra w
Ġreact ing
Ġdream ed
Ġdisapp ro
Ġtend ers
cons erv
Ġbos n
nor th
Ġconce ivable
gu in
Ġblue fin
Ġreconst ruct
Ġrelie ve
Ġfer ber
Ġgar age
Ġgar cÃŃa
oler a
Ġdiver gent
Ġoppon ent
Ġcolomb ian
Ġabst ention
Ġbag s
Ġassert ion
japan ese
Ġrevers al
def ense
Ġsla ves
Ġunrest ricted
Ġju ven
quest ions
Ġlev y
Ġunderpin ning
Ġgang s
Ġappoint ments
Ġhect are
Ġdeval uation
Ġsant a
Ġnit rogen
Ġak in
Ġbudd hist
Ġhorm one
Ġinconven ience
Ġinconven ient
Ġcosm etic
Ġneu ro
fail ure
Ġwhist le
Ġramp ant
Ġdenomin ator
Ġterrif ying
Ġparaly zed
Ġwik ipedia
semit ism
Ġleve lled
Ġguatemal a
Ġmeth ane
Ġtoile t
Ġrejo ice
Ġlect ures
lovak ia
Ġlaud able
Ġtanz ania
rebren ica
ĠgonzÃ¡ lez
b ol
c us
c ulture
c ounter
f uel
f ighting
k t
m ist
m ates
n ame
p op
r ange
s f
s ed
u ish
Ä ĩ
in burgh
on aut
is n
Ġp ent
Ġp od
Ġto ken
Ġf et
Ġd eng
ro ll
Ġe leg
Ġre def
Ġbe et
Ġbe lder
st reng
Ġg mo
Ġl ind
Ġu rug
ver ted
ol ation
ay a
gh reb
Ġun duly
Ġsh attered
os phere
Ġv il
est ically
Ġdo d
Ġgo at
et te
Ġimp ending
Ġj ane
Ġres idential
Ġrep aired
ab ol
vel t
Ġout law
Ġcomp atri
Ġman eu
Ġapp ointing
ose velt
Ġte hran
Ġev ac
Ġtra mp
Ġtra ject
Ġtra ps
ace a
Ġmad ness
ful f
Ġgroup ings
ass es
Ġass imil
ail ing
Ġsc ary
no ye
Ġmil itias
Ġpract ised
Ġed inburgh
Ġfl or
Ġcomb ated
Ġmind ful
Ġce o
Ġlight ing
Ġmult icultural
Ġdanger ously
Ġ7 3
sh ot
Ġ9 7
Ġdeter rence
Ġgl ance
Ġcy nic
Ġste mming
Ġremind ing
Ġargu ably
Ġmand ela
Ġproceed ed
Ġtruth s
Ġje alous
Ġuni mp
Ġlog o
Ġcra fts
Ġ16 0
aw a
Ġpan els
Ġbound s
Ġphil ip
Ġcompe l
Ġobserv ance
Ġdispl ace
Ġice berg
Ġattach ment
Ġstabil ization
Ġrig orously
Ġfulfil s
Ġwash ed
Ġswe at
Ġprohib iting
Ġbehavi ors
Ġacknowledge ment
Ġborrow ers
Ġreass ess
Ġflu id
Ġmix ing
Ġcrow ley
Ġmotiv ate
Ġgreens pan
Ġcool ing
Ġscre ens
Ġcorner stones
Ġpermit ting
Ġbreach ed
Ġerad icating
Ġdistur bed
Ġtrave lled
Ġpreca utions
Ġpipe lines
Ġhero ic
Ġbag gage
Ġheight s
isc ard
Ġster ling
Ġguant an
Ġtherap ies
Ġfeeding stuffs
Ġaer opl
brit ain
rup ulous
function ing
Ġconsp iracy
Ġentrust ed
Ġinad missible
Ġprerog atives
Ġreinteg ration
Ġlan noye
Ġresent ment
Ġphysic ist
ĠÂ £
Ġrepatri ation
Ġsau ce
harm on
transp arency
ogene ous
Ġgand hi
Ġfuk ushima
Ġpresupp oses
cong rat
Ġtherapeut ic
) :
a ud
c atch
d h
d ling
f ear
m ust
n age
p ack
r itional
v ig
v ille
y ama
Ã Ł
Ġth read
Ġw ield
Ġw aged
is ers
en able
Ġc able
Ġc ass
Ġp ino
an jo
an throp
Ġb ah
Ġb ored
or ated
Ġto w
Ġf di
Ġin ches
Ġe ta
le um
as anjo
Ġbe gg
il iar
Ġwe ber
Ġwith stand
Ġne arest
Ġun eas
li ved
Ġpar am
un a
un ited
Ġv in
Ġen p
Ġen velope
Ġwor ship
Ġres pir
Ġab du
Ġk gb
Ġk hamenei
Ġneed le
lo ading
ear lier
Ġdis contin
au de
Ġwork ings
Ġup side
Ġexp ired
tern ally
Ġbet rayed
Ġjust ifiably
Ġtra its
Ġper me
Ġper missible
Ġind ict
Ġop ium
Ġlo op
Ġcl oned
Ġtrans c
Ġbas in
Ġconf ig
Ġref in
led o
Ġpers ists
Ġday ton
Ġform ulating
be at
Ġchange over
Ġrespect able
com put
ick ed
Ġsuccess ors
Ġbegin nings
Ġtri partite
Ġeduc ating
Ġlist ing
Ġwater ways
Ġ10 3
Ġfun eral
Ġpal ace
Ġemphas izes
Ġassist ant
Ġge b
Ġpa cif
Ġsk ull
Ġmus icians
Ġport ra
Ġsort ed
Ġbi ased
Ġdisp osed
Ġhun garians
Ġreview s
Ġrad i
Ġrat ifying
Ġvital ity
Ġdeli vers
Ġsal af
ber y
Ġhistor ians
Ġ18 0
Ġqual ification
oh l
Ġsurv iving
Ġauthor ise
Ġpet ty
Ġlies e
Ġprim acy
Ġaccident al
Ġ197 3
Ġdign ified
Ġrestruct ure
Ġfat uzz
gu ard
equ al
Ġineff iciency
Ġpil ots
Ġwood en
bar ometer
Ġcli ff
Ġnut ritional
Ġfault s
Ġnav y
Ġgenet ics
Ġchief ly
Ġmanip ulated
pa cific
Ġadvis able
Ġinstall ation
initi ally
Ġdismant le
Ġcoinc ide
Ġutil isation
Ġparadox ical
Ġrub bish
Ġtotalitarian ism
Ġaston ished
Ġhind ered
Ġpron ounced
Ġleh man
Ġeleph ants
Ġgor bach
Ġpessim ism
Ġabd ullah
Ġneglig ence
Ġteen agers
Ġdrow ned
Ġspr ings
Ġgreet ed
Ġdisgu ised
Ġpreval ence
Ġscandina vian
Ġerupt ed
Ġcontag ion
Ġwilli am
Ġprovoc ative
Ġfals ified
Ġtyr anny
Ġwholes ale
Ġsuscept ible
hur ry
esta ing
traff icking
Ġspat ial
Ġapar theid
Ġhond ur
Ġgeomet ry
Ġkhodork ovsky
fled ged
Ġelectrom agn
Ġurug uay
Ġguantan amo
Ġfatuzz o
] .
a j
b ably
f ty
g on
g iv
h an
i pt
l ings
o th
Ġs ang
Ġs rebrenica
Ġp ad
Ġp ac
Ġf og
Ġf ighters
Ġf yrom
Ġh iring
Ġe loqu
th irty
Ġn ik
Ġre all
Ġre leg
as ia
st ant
ly n
Ġg iscard
Ġcom ed
Ġst ad
Ġst agger
ver ing
Ġal b
Ġal igned
ra k
ra ining
Ġde ll
Ġde ception
ch ron
ul ative
ill es
gh ans
Ġun declared
im ic
pp i
Ġse als
Ġpar ks
Ġhas te
Ġle inen
Ġr ou
Ġj azz
Ġhe ter
Ġk ok
Ġam ounted
ig er
Ġpe as
Ġtr ump
Ġout ward
Ġri vals
Ġapp liances
Ġnew com
Ġeconom ical
el on
Ġar oused
he llo
Ġbet ray
Ġunder developed
Ġinv oked
form er
Ġlo ving
Ġtrans nist
Ġvot er
act ivity
Ġaf ghans
Ġgood ness
ian a
Ġprov oked
Ġoff enders
Ġmat urity
ass oure
Ġmin sk
Ġext inct
min atory
Ġcur se
Ġend ang
Ġma ghreb
Ġsi xty
Ġlast ly
Ġwar ri
Ġdifferent iated
Ġap ology
Ġem ig
Ġfav ourably
ned y
Ġsupp ressed
Ġaw ake
Ġret al
Ġfl out
Ġmis giv
Ġpriv ately
Ġz aire
Ġrom ney
Ġcontain ment
Ġrecomm ending
app arent
Ġmodern ising
Ġste ering
Ġden ounced
Ġaud io
Ġilleg it
Ġcritic ising
ix on
Ġformer ly
Ġmeasure ments
Ġmand ates
last ing
Ġund ue
Ġexer ting
Ġarri ves
Ġborder ing
Ġbra kes
Ġtravel s
Ġslo gans
Ġlog ically
Ġstock p
Ġda unting
Ġadjust ing
Ġstim ulated
Ġprim itive
Ġsubsidi ary
cons umer
Ġfrequ encies
Ġacce leration
Ġliter acy
tr ust
Ġsyn onym
Ġecu ador
Ġcollabor ate
Ġtight ly
Ġfal con
Ġextensive ly
Ġchurch ill
Ġjohn son
Ġoverwhel med
Ġsuspect s
Ġearn est
Ġinnoc ence
bre aking
su per
Ġanaly tical
Ġdepri vation
Ġmarked ly
Ġcash man
Ġmit igation
Ġdeterior ate
Ġyield ed
Ġconstrain t
Ġunp aid
Ġjeopard ising
Ġbrut ally
Ġbrut ality
Ġmemor ial
rec ogn
Ġannex es
Ġswitch ing
Ġnic ar
Ġadvis er
Ġcollaps ing
Ġtrick y
discri minatory
Ġlam assoure
Ġtac it
Ġpossess es
Ġpaint ings
Ġprud ence
Ġble ak
Ġcolonial ism
Ġdisproportion ately
Ġdisregard ed
Ġeager ly
vention al
Ġstrain s
Ġdegrad ing
Ġunambig uously
Ġfol ks
Ġga ul
commer cial
Ġcorrid ors
Ġsubordin ate
Ġhaw ai
mill ions
Ġbric k
Ġattent ive
Ġstun ning
Ġorchest ra
Ġdefect s
Ġplun ged
redu cing
Ġconfer red
Ġwi pe
Ġmes h
Ġip cc
Ġupgrad ing
Ġsta es
Ġtestim ony
pie ce
Ġdys function
Ġjose ph
Ġsmok ers
Ġpv c
Ġjes us
fashion ed
Ġdiscont ent
Ġmisgiv ings
0 6
c f
f ted
f rench
h ome
i ac
i ences
j ob
k ins
m ight
p age
p ine
p rop
r ons
s ufficient
t ight
v ide
Ġ :
Ġth ys
Ġa es
in is
re v
on ge
Ġc ron
Ġb ent
Ġto x
ing es
Ġd j
ro oted
as car
Ġl ens
Ġon wards
Ġst ones
Ġha ug
ri m
ch anges
Ġun healthy
Ġun esco
Ġsh akes
li mp
ant e
est ate
Ġch olera
et ting
am ous
Ġag ri
Ġso ared
Ġhe al
Ġab ys
Ġk it
Ġrep lic
Ġcont end
oc ut
ap est
Ġout siders
ag ascar
ach ie
Ġdec ree
Ġsp ared
Ġfe min
Ġover he
Ġsub way
pon s
Ġhum or
Ġhum ility
Ġwell being
Ġnu cle
Ġdisc ards
Ġmon ster
Ġla os
Ġent rance
Ġmeas urable
Ġgu itar
Ġenv y
Ġorder ly
Ġbu mp
chn er
Ġrespect ful
land ers
Ġnor weg
Ġbl own
Ġfav a
Ġread ers
par is
Ġed ges
Ġfundamental ists
Ġoper a
Ġhead ache
Ġstat ue
Ġce ment
Ġbur y
Ġnet working
Ġschool ing
Ġspecial ized
Ġer oded
az a
Ġjud ging
Ġbroad ening
Ġbroad casters
Ġ7 4
ban ks
Ġsuper state
Ġsubsid ized
Ġbi ologists
ins urance
Ġcorrect ions
can ada
Ġche er
Ġche ating
Ġdiv ine
Ġcal der
Ġtemp le
Ġarab ic
Ġwarm er
ze k
ik es
Ġ198 4
Ġdict ated
respon sibility
who ever
Ġhot els
Ġsett ling
Ġremark ed
Ġincorpor ates
Ġplant ing
Ġcoast s
Ġdark ness
Ġsurround ings
Ġshad ows
Ġrain forest
Ġinfring ed
asc ular
Ġded u
Ġdro pping
Ġguard ians
Ġgar bage
cap acity
Ġreported ly
Ġgri m
Ġdan iel
person nel
Ġhence forth
abe lling
Ġmonit ors
Ġrot ating
among st
Ġ194 0
Ġcart oons
Ġdish es
Ġrum ours
Ġweigh ed
Ġhomosexual ity
Ġclim bed
Ġintr ans
Ġresid ual
Ġkne e
Ġthri ve
Ġasymmet ric
Ġtraum a
Ġinsol vency
Ġadvers aries
Ġovert aken
Ġindu ce
Ġbern anke
Ġinterl ocut
Ġdissatisf ied
Ġdissatisf action
Ġconfed eral
ushch ev
Ġoverr iding
Ġtextbook s
suff iciency
implement ation
Ġhen ry
Ġalgorith ms
Ġsul phur
Ġspar se
Ġcust ody
orig in
compan ies
Ġpragmat ism
Ġunice f
Ġbott len
Ġhugh es
Ġredef ine
Ġpino chet
Ġgeb hardt
Ġgorbach ev
vide o
c lose
e an
e ing
f av
f alus
m ish
n early
p ox
u is
Ã ª
Å Ħ
Ġ Å
Ġth irst
Ġw ard
Ġs way
Ġs Ã¡n
Ġm umb
Ġm Ã©ndez
ic ia
Ġe lles
le aders
Ġg ib
Ġl est
pe are
ol it
ol ia
Ġal bert
ra c
Ġhave l
Ġwith hold
Ġun question
im ates
Ġle w
Ġj el
Ġj ones
Ġj okes
Ġcommission ed
Ġli a
Ġli u
all ah
Ġcont ention
ab a
ap ed
ie val
cess ing
iz er
Ġco ven
are rs
me at
he ment
Ġjust ifiable
Ġinv aded
Ġmad agascar
Ġro osevelt
Ġrel inqu
Ġsit uated
ass oni
Ġmon net
Ġla h
Ġla mber
Ġend ure
Ġlast s
mbers ome
Ġsc rew
Ġachie ves
Ġinstit utes
Ġide ally
Ġdown load
Ġsect arian
Ġem igration
Ġval en
Ġremain der
Ġcor ners
Ġins ane
Ġfr assoni
Ġspecif ies
ret ched
Ġforward ed
Ġdist racted
Ġshort coming
Ġcri ed
Ġaw esome
ime ter
pl aced
Ġcomb ines
Ġru ins
Ġsl ack
Ġinstru ction
Ġce ased
Ġ6 1
Ġdesign ation
Ġamb ival
Ġpost er
Ġbroad ened
Ġ8 1
Ġve hement
pr ince
Ġdev oid
Ġland mines
Ġital ians
Ġred isc
Ġmodern ity
lif ied
Ġclos ures
Ġpercent ages
Ġavoid s
Ġbri g
Ġste vens
tom an
Ġcorrect ing
Ġcorrect ive
ex cuse
rop ol
Ġharmon ious
know ledge
Ġ12 5
Ġextra pol
ber lin
Ġwilling ly
Ġpain s
pro of
Ġcomment ed
Ġje wel
Ġhor rors
Ġpret ending
ta wa
Ġstaff ing
Ġhost ilities
int rodu
rep ort
ij i
Ġvirt uous
Ġep as
Ġpan acea
Ġconver ting
Ġprotest ing
Ġbomb ers
Ġamaz on
Ġcontrad icts
Ġradical s
Ġgal icia
Ġadvance ment
car thy
Ġdistin ctive
Ġblue print
Ġmc carthy
tur k
Ġmos que
Ġacknowled ging
Ġineff ect
Ġbol ster
Ġded icate
Ġendors ing
bl ack
Ġnut ri
bb els
che z
Ġdeterior ated
Ġerad icated
Ġaward ing
Ġadverse ly
br d
Ġinvent ory
Ġcrash ed
Ġrecyc led
Ġmarginal ised
Ġcere al
Ġstip ulate
hist orically
Ġpollut er
Ġtroub ling
Ġenrich ed
Ġnomin ated
Ġtail ored
Ġprud ential
Ġaccus ation
yn man
prom oting
Ġtermin ology
Ġacced ing
Ġlou is
Ġroutine ly
Ġtig ers
Ġconform ity
Ġresil ient
Ġenlight en
abul ary
Ġoverl ap
Ġdiscoura ged
opoul ou
Ġembass ies
Ġconsp ic
Ġenlarge ments
geor ge
Ġtaj ani
scient ific
struct ural
Ġilliter acy
ikh ail
Ġgoe bbels
Ġindiscrimin ate
Ġspontane ous
Ġarsen al
Ġrecre ational
Ġguer r
Ġantarctic a
main taining
Ġgif ts
saf ety
Ġgb p
administ ration
Ġenerget ic
Ġmarg aret
Ġbuiten weg
Ġhomophob ia
afghan istan
Ġnois y
rais al
Ġpractition ers
Ġstad ium
apparent ly
Ġthys sen
falus sy
) )
7 1
a cious
b road
c p
d t
d rew
f it
h al
h ne
i ently
i Äĩ
l ance
l abelling
m om
m ics
m ium
r b
v ict
w on
Ġth irteen
on do
at i
Ġw and
is er
is ites
Ġc age
Ġc ites
Ġc lick
Ġo missions
or ating
Ġm ong
Ġd ive
Ġd ared
Ġd oping
Ġn asty
Ġre bell
Ġre balancing
Ġi z
Ġg limp
Ġu mp
Ġfor ci
Ġal ignment
ri ad
Ġwith drew
ir l
Ġun b
Ġun he
Ġun ten
pp ers
op in
Ġse iz
Ġse greg
Ġpar as
ain e
we lf
qu in
Ġdo ck
Ġch ips
Ġall erg
od ka
Ġres ounding
Ġli ghter
Ġk an
Ġk ib
con ian
Ġfa o
Ġqu orum
ie u
Ġman h
Ġexp ulsion
Ġsa ch
Ġpre ach
Ġconc lusive
Ġbo thered
Ġover weight
Ġho bby
Ġconf ess
Ġpri est
Ġpr one
Ġemp ir
Ġnational istic
Ġpers ian
Ġsol vit
Ġobject ed
Ġrev iving
eng lish
Ġresearch er
fin land
Ġret rospect
Ġactiv ism
Ġpat ron
Ġmor illon
Ġenc l
Ġmilit ant
Ġchar ism
Ġtrad es
Ġdraw ings
Ġdom estically
atch ed
Ġ7 6
Ġcru x
Ġec sc
Ġdisp ers
mar king
Ġaud itor
ex cept
Ġkill er
Ġmill en
Ġinstrument al
Ġcampaign ing
Ġconstruct ing
Ġje ans
ik istan
Ġspeed ily
Ġsex ually
Ġphys ician
Ġpred ators
anim al
Ã¶ ner
urs ed
Ġsav ary
Ġstrugg led
Ġhur ts
Ġsto le
Ġdispl ays
Ġbehavior al
Ġpurch ased
ato yama
Ġabstain ing
Ġatmos pheric
Ġdiscip lines
Ġkil og
appro val
Ġparad ise
Ġphotograph er
bl ock
Ġken nedy
Ġcert ified
Ġsev ent
Ġgross ly
Ġargent ine
Ġdav ies
Ġvoc abulary
Ġgrat ifying
Ġprofess ors
Ġxenophob ic
Ġhall uc
Ġdup uis
Ġcatal ogue
Ġfisch er
Ġattain ed
Ġinterview s
Ġwholehear ted
Ġcultiv ated
Ġmun ich
Ġlam falussy
cor ruption
Ġdecentral ized
Ġinteract ing
Ġmcc ain
Ġadh erence
Ġloud ly
Ġflour ishing
Ġdictator ial
Ġcontra ven
Ġclimb ing
Ġsuperf icial
Ġuphe aval
indust ry
Ġrecur ring
Ġinterdepend ent
norm ally
ran ca
Ġshipy ard
Ġoverl apping
Ġfert ile
Ġinadequ acy
Ġunle ashed
Ġspokes man
Ġpeters burg
Ġinsurg ency
rene w
Ġcu mbersome
Ġscrat ch
Ġoversh ad
Ġfanatic ism
Ġfrict ion
Ġphant om
streng then
congrat ulations
Ġunten able
! '
4 5
c ence
e a
e yed
e zz
f s
j ac
j ev
l an
l ay
l ash
m t
m etic
r ally
s pons
t est
t ier
u ities
u ating
Ġ /
Ġ ict
Ġt ut
Ġt ub
on ial
Ġw urt
Ġs ara
Ġo pec
an ou
Ġb il
Ġb end
Ġb ast
Ġm end
Ġm ice
Ġm lad
Ġf landers
Ġan ten
Ġan them
Ġh urd
Ġd ating
Ġd ough
Ġe it
Ġe brd
Ġand re
le ft
Ġn od
Ġn erves
Ġn ixon
as il
Ġbe ans
Ġg ol
Ġg ul
id is
Ġun answ
ad ors
Ġv all
ci a
so viet
Ġch al
Ġcan cers
et ric
âĢ Ķ
âĢ ĺ
Ġpres ume
am ins
Ġhe aling
Ġk all
Ġk inder
ac le
Ġus sr
ab ad
oc rats
Ġfa re
ap y
Ġmy riad
te chnology
Ġcons ens
Ġtime frame
ok en
cy cle
he ld
pt ic
Ġob asanjo
act ic
Ġgood bye
Ġhum ble
Ġmo ham
Ġtreat s
Ġnational ists
Ġass ignment
Ġgu ests
Ġbud apest
Ġcar rot
Ġdra conian
Ġdifferent iate
Ġide ologies
Ġsuc k
Ġmed ieval
Ġcost ing
Ġir rig
per anto
Ġdist ract
Ġsw ord
Ġreform ers
Ġmilit arily
Ġfoc al
Ġmis used
Ġperiod ic
Ġmoment ous
Ġappropri ation
Ġpot ent
ash ing
Ġcontain ers
Ġ8 9
Ġsat urn
Ġsk il
Ġver bal
Ġsubsid ise
Ġgl am
Ġgl ory
Ġdi ag
Ġemploy s
Ġoblig es
ah n
Ġdoubt less
Ġden ies
Ġjun k
Ġdocument ary
Ġsens ors
Ġnight s
Ġwarm est
Ġsen ator
Ġsen sibly
Ġcomment ing
Ġconcept ual
ik o
Ġconfirm ing
ev ent
Ġblo om
Ġwhite head
Ġboard ing
Ġburden ed
Ġfacilit ates
unt ary
Ġenh ances
sy ria
Ġdog matic
Ġgradu ates
Ġcateg or
Ġurban ization
Ġ197 4
Ġgaz prom
Ġren ounce
Ġball s
Ġbed room
Ġrestric ts
Ġprohib its
Ġmobil ize
att an
Ġmultip ly
Ġdro ps
Ġsim ulation
Ġanaly ze
Ġgri ev
Ġembra cing
Ġminim ize
Ġhaz ards
Ġdesp icable
Ġjeopard y
grow n
Ġanticip ation
Ġfrust rating
Ġconve yed
Ġprescri be
Ġaz nar
Ġimperial ism
Ġinterview ed
Ġnaz is
establish ing
Ġapplaud ed
Ġrestaur ants
Ġembarrass ed
Ġiv ory
Ġcoc a
Ġairpl anes
Ġinsight s
Ġclim atic
Ġmaxim ise
Ġburn t
Ġhypo the
Ġintu ition
Ġarrog ant
Ġwil der
Ġsid elines
Ġunfold ing
Ġblat antly
Ġrab bit
Ġku wait
Ġnurt ure
Ġpas sions
Ġkidn apped
Ġsquee ze
agric ultural
Ġhin du
ushch enko
Ġrena ult
serv ice
Ġinfer ior
Ġtru ce
Ġpredic ting
Ġstrang ers
Ġcous in
Ġchanne lled
Ġsie ge
Ġcun ha
Ġunint ended
Ġerr one
Ġpetro leum
Ġouts our
Ġcric ket
Ġunfav ourable
Ġrespons ive
fundament al
serb ia
Ġabduct ed
Ġtraject ory
Ġsalaf ranca
Ġstagger ing
Ġnicar agua
Ġgaul le
Ãª te
Ġmanh attan
Ġwurt z
Ġunansw ered
b row
c row
c ross
c ale
e le
f oc
g ences
g dp
g rand
h um
j amin
p aid
r d
r g
s ame
t led
Ã ¥
Ġ +
Ġt in
Ġt ian
re ll
re ach
Ġthe ft
on ds
Ġw o
Ġw ore
Ġw ool
er ous
Ġs our
Ġs ap
Ġc ant
Ġo mitted
Ġp ond
an men
Ġb bc
Ġm our
es ar
Ġf ancy
Ġin k
Ġh ip
Ġh ills
Ġd or
Ġe pl
Ġe ternal
Ġe minent
Ġn am
Ġre now
Ġre vert
as por
Ġl orry
Ġon set
Ġst ain
ol ese
Ġal lied
ch o
ill usion
Ġun ve
Ġun comp
Ġeuro barometer
im ation
im mer
un ci
un clear
qu ier
Ġwhich ever
âĢ ¦
ist ence
Ġr iding
Ġimp ress
Ġimp air
Ġam mun
Ġus h
Ġpl ag
ap es
Ġout lets
og as
Ġra bb
Ġtra il
Ġpolicy making
rit orial
Ġpr ist
Ġreal ising
Ġreal istically
Ġher oin
Ġhope less
Ġsc ape
Ġdra gging
Ġbu zek
Ġwar rants
Ġtransp osing
Ġmed ication
Ġdown side
Ġdown town
Ġgr Ã¶ner
Ġap athy
Ġrest art
Ġinst antly
Ġeas iest
Ġgot ta
Ġextre mes
mit t
Ġann um
emp has
Ġstat ure
Ġstat istic
Ġmanage able
Ġ10 8
Ġbre yer
den ed
Ġgra y
Ġvict or
Ġexc ludes
Ġpa ved
Ġ8 7
Ġconnect s
Ġprob able
Ġsuper markets
sp ort
Ġground work
Ġword ed
Ġdi aspor
Ġbri an
Ġinteresting ly
Ġ12 9
Ġsal ute
Ġ11 5
Ġdr um
pro bably
Ġclar ifies
Ġhor rend
dra fts
Ġhar bor
Ġfil mm
Ġpun itive
Ġwid en
Ġattract iveness
Ġmusic ian
Ġuns u
Ġ197 5
gra m
Ġentit lement
Ġtob in
Ġcast ing
Ġcast le
Ġmoun ted
agree ment
Ġfat ig
Ġwitness es
Ġsyn chron
Ġtransl ating
Ġ196 8
Ġarm aments
Ġflag ship
Ġparalle ls
Ġgri ef
Ġtaiwan ese
Ġenthusi astically
ches ter
Ġdiss olved
Ġroman o
Ġdesp eration
Ġapolog ies
Ġic on
Ġvietnam ese
Ġlad der
Ġroc ks
Ġconven ed
Ġsuspic ions
Ġdiscrimin ate
Ġexhaust ive
Ġphr ases
Ġmisunder stood
Ġtam il
Ġah med
Ġunderp ins
Ġvit amins
Ġreprodu ce
Ġmir rors
Ġnaz ism
Ġrevers ing
cor por
fund ing
Ġmel ting
Ġrelax ed
Ġju ice
dec isions
Ġbeach es
Ġgraph ic
Ġstret ched
Ġunderpin ned
Ġintermedi aries
Ġluc rative
Ġreck less
Ġportfol ios
Ġpir ker
Ġreorgan isation
Ġot tawa
Ġthri ving
Ġdefer red
quit ous
geor gia
Ġlaure ate
Ġkla us
Ġlud ic
Ġaggrav ated
scient ists
Ġmam m
Ġalt ru
Ġsket ch
agg eration
Ġschroed ter
Ġlod ged
Ġrescu ed
Ġimpat ient
relig ious
Ġfern and
Ġcleans ing
Ġinflex ible
Ġlithuan ian
Ġnost al
Ġunsuccess ful
Ġeuph oria
Ġjav ier
Ġelectromagn etic
Ġnewcom ers
Ġtransnist ria
Ġhawai i
Ġlia ison
Ġiz quier
renew able
Ġconsens ual
Ġscape go
' ?
3 7
a que
b ound
b ob
b inding
c oun
c roat
d or
d ial
d ip
d rug
f is
f its
f lies
f ounded
g al
h ill
m ot
m ert
o ise
p in
s ensitive
t b
Ã ¯
Ä Ł
Ġt read
Ġth war
Ġa unt
on ium
Ġs ank
ou ched
Ġan te
ar c
ar r
Ġd p
Ġd amp
Ġd uff
Ġd war
Ġi b
Ġg el
Ġl al
ut er
ut ive
Ġst airs
Ġha mb
Ġal tering
Ġal pine
Ġde ment
ri ga
the t
ill er
ir th
Ġun e
Ġun set
ad ap
Ġeuro control
Ġex aggeration
Ġv are
Ġhas ty
am iliar
ect ed
Ġab rupt
Ġli ed
Ġpol ling
Ġk iev
ac ross
ig s
Ġpart isan
Ġad oles
ud ge
Ġqu asi
Ġright ful
Ġcons ular
Ġpos ing
ack ing
Ġra ge
Ġsp ra
Ġper taining
Ġinv o
act s
Ġrem inis
rat er
Ġref ine
Ġmay ors
Ġmon et
Ġmin us
Ġfar ce
you th
Ġdef ender
Ġemp ires
get ting
Ġpublic ations
itiz ed
Ġset backs
Ġglo omy
Ġdifferent ial
Ġsol vency
Ġlif es
Ġcre ws
Ġhand ing
Ġval le
Ġfav ors
Ġplan k
Ġins erted
Ġsmall pox
Ġimm un
eng ine
Ġdist ill
Ġdist ressing
Ġstar ving
Ġbro ok
Ġgeneral ised
Ġshort est
Ġple ad
Ġexist ential
Ġbar b
Ġactiv ated
Ġreform ist
Ġaccess ing
Ġexpl oded
Ġenc oun
ov Ã¡
Ġru de
Ġbel ated
Ġwater way
Ġdecl ines
Ġcomprom ising
Ġcut backs
Ġlat vian
Ġ7 1
Ġpack ed
app lic
Ġsk ies
Ġorigin ated
Ġ9 3
Ġmen u
Ġgl aci
Ġdel ta
Ġavoid ance
Ġbri bes
Ġcorrect ness
Ġcoll ision
Ġwal ter
Ġdece ived
pro ble
Ġkid ney
Ġcompreh end
Ġje ff
Ġsuperv ise
Ġfil ed
Ġcomprehensive ly
Ġpred iction
Ġnation ally
Ġunf amiliar
Ġeight een
Ġcr unch
Ġrele ases
Ġmoral es
Ġhur ried
Ġbound ary
cons uming
Ġoccasion al
port ug
Ġbos ses
Ġcam el
Ġmag ical
Ġczech os
Ġformal ities
gu arante
Ġpi ge
Ġpreced ents
Ġmc don
state ment
Ġnotice able
Ġuniform ly
Ġflag rant
Ġpunish able
Ġfly nn
Ġadm irable
Ġexperiment ation
Ġech elon
Ġalcohol ic
Ġtremend ously
Ġreinforce ment
Ġnav igate
col lect
Ġnovel s
Ġroc kets
Ġannex ed
Ġswitch ed
Ġepide mi
cur ren
Ġdiox in
Ġcook ed
Ġaz ores
Ġbrand s
Ġcab in
Ġprerequ isites
Ġprejud ices
Ġdisrupt ive
laim ed
Ġingred ient
Ġrevol t
incre ased
Ġdestabil izing
Ġase m
Ġreb ate
omed ay
199 8
Ġcoc aine
Ġstamp s
Ġcatastroph es
Ġmas k
belie ve
list en
Ġrival ry
Ġtank ers
Ġham pered
Ġbeha ved
Ġpione ering
Ġempower ment
Ġfib er
Ġdiscoura ging
Ġneu ros
Ġinsol vent
Ġbuff er
Ġindebted ness
Ġturbul ent
creat ing
impro ving
Ġrena issance
Ġlas er
Ġcycl ical
Ġtelecom s
Ġdense ly
Ġschmid t
Ġconqu er
Ġexped ition
comb ating
Ġdischar ges
Ġsalv ador
Ġgig antic
Ġimpul se
Ġdescend ants
Ġrenational isation
empt ive
chem ical
Ġsquand ered
Ġinacc urate
Ġbosn ian
Ġcompatri ots
Ġcynic ism
Ġrespir atory
Ġhondur as
Ġsynonym ous
Ġshakes peare
Ġcalder Ã³n
ĠsÃ¡n chez
Ġjel ly
Ġlamber t
Ġrebell ion
Ġtian anmen
Ġmamm als
Ġizquier do
Ġreminis cent
4 8
b bing
d ut
f ound
f ting
k ar
l ocked
n in
n ature
p owered
r ina
s il
s im
s ound
s feld
t ops
Ġth ors
Ġa ce
at able
at ism
Ġw ives
Ġs or
Ġs lic
Ġs orrow
it ors
Ġp ip
Ġp unch
an ide
Ġb om
Ġb ret
Ġb rad
Ġm t
Ġm ikhail
Ġf erv
al an
al le
Ġan archy
Ġh an
Ġh ated
ro v
Ġe ag
Ġe eas
st airs
il legal
Ġl inc
Ġu bi
ot es
se x
Ġha bs
ol n
Ġy ushchenko
ch a
ill as
Ġun to
Ġun worthy
Ġsh red
Ġse m
Ġex ternally
un ion
Ġen dem
Ġcan v
Ġimp lying
Ġab ound
Ġk ac
Ġk not
de ath
de ep
um in
ab s
Ġpe an
si p
Ġpl um
Ġdis illusion
Ġcomp os
Ġcomp rise
Ġinc ite
Ġreport ers
Ġexp ires
ts burgh
og ens
Ġra ck
Ġdec ay
Ġdec rees
Ġsp en
Ġfe ynman
Ġper ry
Ġinv oke
Ġiss u
Ġcl ue
Ġgovern s
Ġcommun iqu
Ġhuman kind
Ġmon ies
Ġdef y
Ġdef ends
Ġreal ization
Ġinform ative
Ġsign atory
other apy
Ġlaw ful
Ġinf amous
ph al
Ġdep letion
Ġopportun e
Ġplan etary
Ġprogress ed
Ġiniti ating
Ġcond oms
Ġcontribut or
eng agement
Ġfavour ing
Ġjoin s
Ġcivil isations
Ġcentral ized
Ġmis led
Ġmis fortun
Ġz oo
Ġdri ed
Ġweek ly
Ġge o
Ġpost ure
pris ingly
Ġmet ic
Ġreflect ions
Ġdisp ens
Ġbri be
Ġste ve
Ġpurs ues
Ġaud iences
lam ation
Ġharmon ize
Ġswed es
know ing
Ġmill er
Ġregret ted
ber keley
Ġconsist ed
Ġdr ank
Ġsepar ating
Ġmal aise
Ġsen seless
Ġdeleg ates
set Ãªte
Ġ18 6
Ġunivers ality
Ġdiplom at
Ġobst ruction
mes ter
Ġcomplic ate
Ġwid ened
Ġtouch ing
Ġsav age
Ġegypt ians
Ġfederal ism
Ġphil anthrop
Ġut opian
bur ton
Ġfit ted
Ġsyn thes
Ġsyn thesis
see kers
Ġdirector ates
Ġembar king
appro x
Ġgar riga
Ġfost ered
Ġcomplement arity
Ġdistort ing
Ġdiss ol
Ġendeavour ing
Ġfashion able
Ġfrag ility
Ġunit ary
Ġq addafi
Ġaustral ian
Ġfasc inated
Ġepide mics
Ġdispar ate
Ġpharmaceutical s
Ġhydro carbon
Ġarbit r
Ġrot ation
trans port
Ġiron ic
Ġcatal og
Ġdepth s
Ġintense ly
Ġdivid end
Ġcultiv ate
sad dam
Ġsimultane ous
fif ty
Ġpit tsburgh
Ġhu go
Ġextract ed
Ġabund antly
Ġambass adors
Ġdil igence
Ġautomob iles
Ã§ ois
Ġtransplant ation
business es
Ġscra pping
Ġmedi ator
Ġot toman
Ġchampions hip
Ġpione er
Ġwors ened
Ġexpon entially
Ġrepro ach
Ġlooph ole
Ġinval id
wal k
Ġhaul age
prov iding
Ġtaj ikistan
Ġreef s
Ġslu mp
Ġghost s
Ġpreoccup ied
Ġrepay ment
Ġlyn ne
Ġanomal y
Ġyard stick
Ġhelicop ter
emerg ing
Ġintrins ic
Ġseaf arers
Ġgros setÃªte
Ġcoerc ion
Ġpedest rians
Ġrecap ital
Ġrevis it
Ġshri mp
Ġappease ment
Ġdishon est
Ġchimpanze es
Ġunimag inable
Ġuneas y
Ġpeas ants
Ġillegit imate
Ġmumb ai
Ġgib ral
turk ish
jev o
event ually
Ġhypothe tical
Ġdiaspor a
drafts man
Ġfatig ue
croat ia
fis cal
Ġdp j
Ġvare la
Ġlinc oln
9 5
g un
l ate
n ine
s ign
u ble
z id
Ġ &
Ġ ..
on ents
Ġw ired
is ance
Ġs ine
Ġs inking
Ġc er
Ġc ensus
it ations
Ġp ere
Ġp ills
Ġb ip
Ġb uch
or ative
Ġm ired
Ġf rog
ou st
Ġin se
Ġin ception
Ġh end
ar gent
Ġd ated
Ġd ick
Ġd umb
Ġd irt
th reat
Ġre de
Ġre use
Ġre cessions
Ġre defin
om a
Ġl Ã³
Ġu ri
se v
Ġst iff
Ġst alled
Ġcon sec
ra ham
ul sions
ill i
Ġnot ify
ad just
Ġsh un
Ġsh aken
Ġse cession
Ġse wage
Ġex ting
ust er
Ġv ind
Ġv odka
ess entially
Ġch en
Ġcan ce
Ġj aw
Ġj oe
Ġk ings
ig an
ab eth
Ġac ids
Ġfa x
ud o
ud ron
Ġneed ing
au b
Ġcomp ounded
Ġinc oh
Ġsa iling
Ġte ch
Ġmar vel
Ġmar ath
Ġmar ÃŃn
pt ive
Ġra v
Ġtra ctors
Ġfe ira
Ġthink ers
Ġinv ites
Ġbo il
Ġcl er
Ġtrans itions
Ġmarke ted
Ġstr ings
Ġsub mar
Ġter rain
ath ic
Ġoff spring
Ġrel at
Ġprot agon
Ġadd itions
Ġma i
Ġ19 20
Ġhel ms
Ġgu ise
Ġgu arant
Ġsm iling
Ġback lash
Ġinter actions
Ġinter parliamentary
Ġcent rally
Ġcompet itions
Ġcol om
be ek
Ġserv ant
Ġdeal ers
ater o
Ġhand some
Ġbl ast
Ġbl aming
Ġkind ly
Ġconstit uted
Ġopp ress
Ġcri pp
light s
Ġca udron
Ġim o
Ġlab s
Ġdiscuss es
do or
pl aces
Ġfull est
Ġfour teen
Ġsl ots
cise ly
Ġfall out
Ġgra pp
Ġfle mish
edi ment
Ġmult itude
Ġmet ropol
Ġve il
Ġver itable
Ġmess y
Ġorigin ating
Ġsuper iority
Ġdev ising
Ġland mark
Ġec ologically
Ġbi ogas
Ġdisp ose
Ġaut ocratic
Ġfear ful
Ġinterv als
Ġdiv isive
Ġimag ery
Ġharmon ized
Ġeth n
Ġspace craft
Ġvir al
Ġcircumst ance
Ġcop ying
Ġsens ation
Ġens uing
Ġfirm ness
Ġund is
Ġdistribut ors
Ġclar ifications
Ġconcent rates
Ġsun nis
Ġheav ier
Ġcooper ated
sc ot
Ġacqu ainted
Ġvision ary
Ġpun ishing
Ġcompar ability
Ġder ives
Ġsett lers
Ġhur dle
Ġprofessional ism
Ġabandon ment
Ġdisappe ars
tra ined
Ġstabil izing
Ġsac coni
Ġmc n
Ġmos quit
Ġpersu asion
Ġalleg iance
Ġol mert
Ġphilosoph ers
Ġuniform ity
Ġcrow n
Ġcrow ds
Ġselect ing
Ġded uct
add itionally
sen beek
Ġkn ocked
Ġ28 0
Ġforecast ing
whe el
Ġq atar
Ġcompassion ate
Ġfool ed
Ġsme lls
Ġbread th
Ġarbit ration
Ġabst entions
Ġdup licate
Ġunjust ifiable
Ġambig uities
Ġunus ually
Ġdismant led
Ġenrich ing
Ġbreed ers
Ġhesit ant
Ġvolunte ering
Ġdiam onds
Ġinconsist encies
Ġscan ners
Ġunt ouched
Ġdivor ced
Ġincorrect ly
Ġignor ant
Ġneur on
Ġlung s
trad itional
Ġow ed
Ġmunicip alities
Ġepis odes
Ġcomplac ent
Ġattent ively
Ġbund es
Ġdisturb ances
Ġauthentic ity
Ġlud ford
stud ies
Ġprerog ative
Ġpreval ent
Ġinstinct s
Ġzo om
Ġstig mat
cycl ical
dist ance
Ġgi ants
perform ing
Ġmoder ates
Ġrecru ited
Ġfid el
Ġincompet ence
Ġcarte ls
independ ent
Ġqua est
import ant
Ġsore ly
Ġcum ulative
worth iness
Ġawak ening
Ġtay lor
Ġmock ery
Ġron ald
Ġruth less
Ġamate ur
Ġyanukov ich
Ġzap atero
Ġpent agon
Ġflor ida
Ġnorweg ian
prince ton
Ġredisc over
Ġglimp se
strengthen ing
spons ored
Ġhurd les
Ġammun ition
Ġludic rous
Ġdement ia
Ġhabs burg
Ġendem ic
Ġspen cer
ĠlÃ³ pez
" ,
, '
1 6
9 2
a gh
c ir
c our
e at
e quality
g ically
h ima
j our
n els
r Ã©
r ushchev
u an
v ania
w ow
Ġa ires
Ġs j
Ġs ulf
en os
Ġp ants
Ġp Ã©
Ġb inary
or g
Ġto ss
Ġf od
Ġf ills
Ġf ores
al tern
Ġh atoyama
Ġand rew
th ought
Ġn ick
Ġbe ware
st ore
il ar
ce ived
Ġal ia
Ġun related
Ġun bear
Ġcomm ended
and an
ant ing
Ġpar ach
we ek
qu iet
Ġdo om
Ġpres umption
Ġr al
Ġimp ract
Ġj ury
Ġhe y
Ġk roes
Ġk ohl
Ġint ract
ak ash
con versely
Ġ- ,
um en
Ġtr ash
Ġmy st
Ġdis ag
Ġfin ite
Ġwork load
Ġman chester
wh ite
Ġapp rent
Ġpre aching
og ical
Ġmar ty
Ġmar io
Ġconc ede
Ġhow itt
ine es
Ġtra ces
Ġinv iol
Ġover fishing
Ġop aque
uch ma
Ġstr at
Ġsub contract
Ġmo ore
Ġbas ics
wn ing
not e
Ġref resh
Ġfar age
Ġla v
Ġcur ves
Ġend ow
Ġent rop
Ġma pping
Ġass erted
Ġhelp less
Ġtal e
Ġback yard
Ġsc aff
Ġsc aled
Ġbu c
Ġbu ys
stand ard
uc ked
Ġthank ed
Ġequ atorial
Ġnegoti ator
Ġben jamin
Ġread ings
par alle
Ġmil an
Ġes peranto
Ġel usive
Ġopp ressive
pri or
Ġsuff erers
Ġca pp
pl ain
pl us
Ġloc ate
Ġrece ipt
Ġmis inter
has a
Ġyoung est
az i
Ġopt ing
Ġparticip atory
Ġdoub ly
Ġwr ist
Ġgra ms
cri bed
Ġcontain er
Ġ7 9
Ġgl ut
Ġdi vert
Ġcoll ins
Ġrich ness
Ġche at
pre par
pre vent
pre vention
pre cisely
Ġeth ic
Ġstri pped
Ġdece ive
val ue
Ġlegit imately
Ġrein vent
iss au
any body
cl aude
Ã© t
cle an
Ġspeed ed
Ġsil va
Ġnegative ly
Ġlog istical
Ġ13 7
Ġtun nels
Ġdestro ys
Ġbeautiful ly
Ġstim ulation
Ġassemb led
rant ed
Ġut ility
Ġbelong ed
Ġ197 6
Ġang les
did n
Ġsell s
Ġmatch ing
Ġreaction ary
Ġment ally
Ġunfair ly
Ġcheap ly
Ġreconcil ing
Ġideal ism
add y
Ġpassion ately
Ġcas p
Ġwis er
Ġjeopard ised
Ġdiagn ostic
Ġkh rushchev
organ ised
Ġstead fast
Ġexhaust ion
Ġsubs istence
Ġsuit case
Ġsecular ism
Ġcamb ridge
Ġtact ic
Ġdivid ends
Ġexacerb ating
Ġmun itions
interest ed
Ġrum sfeld
Ġbreakthrough s
Ġring ing
Ġcaut iously
Ġweigh ing
Ġretail ers
Ġbitter ly
Ġinject ion
Ġcontra ction
Ġspectac le
var o
educ ated
Ġtermin al
pat ients
Ġmedi oc
Ġtraum atic
mus lim
Ġimpartial ity
Ġnurt uring
Ġsquee zed
Ġsacrific ing
Ġdisgu ise
Ġsupervis ors
legisl ation
legisl ative
Ġnich ol
Ġfried man
pract ice
Ġsymptom atic
luck ily
Ġkau ppi
Ġchromos ome
Ġrhyth m
Ġorganiz ational
Ġstumb ling
yp ical
Ġhemis phere
Ġore ja
Ġplut onium
Ġmaneu ver
Ġvin ci
Ġdysfunction al
Ġenlighten ment
Ġmong olia
welf are
Ġsach s
Ġmillen nia
Ġsara jevo
Ġepl p
Ġhorrend ous
Ġczechos lovakia
Ġuri be
) ;
3 3
4 6
d an
d ar
f ig
f lex
h ire
i arity
j on
j oint
m illion
p urs
t ri
t age
v ili
w o
w ich
w all
w ab
w itz
Ġt and
Ġt ink
Ġth ief
Ġth roat
in sp
re ction
it is
Ġp aren
Ġb ru
Ġb aker
Ġm aker
Ġto lls
es y
Ġf ren
Ġh ij
Ġh Ã¤
ar ted
Ġd ull
Ġre opening
ve ll
Ġbe lls
st age
st ability
Ġg ently
Ġg addafi
Ġl dp
Ġl aughter
ot le
Ġfor ging
ur i
Ġst aunch
Ġy uk
Ġal an
ch eck
Ġas th
ul as
ul atory
res olution
Ġme ter
Ġme ag
Ġme mo
Ġun ra
Ġun ifying
Ġun contro
Ġun true
op ened
Ġse mester
Ġex od
li um
Ġpar don
Ġv ine
Ġv atic
Ġv anish
est ine
Ġat ypical
et ta
Ġhe el
Ġab hor
Ġli k
Ġk am
Ġk uchma
Ġint ending
Ġpart ition
ish a
Ġneed less
Ġpl ast
Ġdis en
Ġout ra
Ġri pe
Ġbec k
Ġup s
ag ne
Ġapp raisal
are l
Ġcons ort
Ġcons igned
Ġsa ud
Ġnew ton
el ing
el li
Ġev ap
Ġjust ifying
Ġra ging
Ġtra w
ric k
Ġworld view
Ġbo b
tain s
Ġacc red
xt ric
Ġconf u
lu c
itiz e
Ġreason ed
Ġdifferent iation
Ġcap it
over s
Ġdep ended
Ġbl ows
Ġta h
Ġav iv
Ġfav ored
Ġins ur
av an
Ġbal d
Ġpur vis
Ġes f
Ġshall ow
Ġregul ates
Ġprof iling
Ġexpl ode
ec ked
ov an
Ġmilit ia
Ġann ih
Ġthought ful
Ġsl ums
Ġaffect ion
Ġcourt esy
Ġanim ation
Ġbor rell
den mark
Ġgra mm
Ġharm less
Ġcirc ular
Ġmet ric
Ġver ifiable
Ġoppos es
Ġine xtric
Ġground ed
Ġcy anide
Ġcle arest
Ġexam ines
Ġeth ically
Ġeth anol
yl vania
Ġsens ory
Ġrein stated
Ġmal administration
ls son
Ġchair manship
Ġrail road
Ġfre er
ev ol
Ġannoun cing
Ã¶ stedt
Ġpiece meal
Ġhost ed
int ention
Ġclean ed
Ġdoor step
Ġcoal itions
Ġconver ge
Ġthor ny
Ġcub ic
bu y
Ġdig ging
Ġamaz ingly
Ġplant ed
Ġtoler able
comp ulsory
Ġconce ive
Ġvari ant
Ġgal van
Ġcard iov
Ġsho ok
Ġboost ed
Ġmark ov
Ġprosec utions
Ġtit les
Ġbackground s
tur ned
Ġmos ques
Ġlength s
Ġrecall s
Ġcalcul us
Ġendeav oured
Ġenhance ment
bar oness
Ġzimbabwe an
Ġcomplement ed
Ġstream lined
Ġstream lining
mean ing
Ġroman ians
Ġmurd erers
Ġfab ulous
Ġplural ist
Ġplural istic
Ġkh an
Ġmathe matic
Ġdiscrimin ating
Ġmanifest ations
Ġmuseum s
Ġinput s
Ġcollaps es
Ġreprodu ction
global isation
Ġcompli ments
Ġexemp ted
Ġrandom ly
Ġmyth s
fl ow
Ġhind rance
Ġunwilling ness
Ġcorrespond ence
Ġaffirm ed
Ġattribut es
protect ed
fra ud
Ġtum ors
Ġfue ling
Ġcrack down
Ġmont real
ran king
trad ing
Ġkeynes ian
Ġprovin cial
Ġneglig ible
Ġcommem orate
Ġgon na
Ġgreed y
Ġblan ket
Ġconfed eration
star ting
Ġfierce ly
Ġdissemin ate
islam ic
Ġflav or
Ġstif le
Ġcolumb ia
Ġvolcan ic
Ġfeat ured
Ġidi ot
Ġregen eration
Ġteleph ones
Ġdolph ins
Ġschizophren ia
Ġpour ing
Ġstan ford
Ġinexp ensive
Ġfest ival
Ġnin th
Ġovere st
Ã¤n en
Ġunsc rupulous
Ġphy si
blo od
Ġwij senbeek
Ġabdu ction
Ġendang ering
Ġsparse ly
Ġbottlen ecks
Ġstevens on
Ġirrig ation
Ġdiag ram
coun cil
dial ogue
Ġlal umi
Ġune ase
Ġubi quitous
Ġgibral tar
Ġquaest ors
Ġsj Ã¶stedt
Ġintract able
akash vili
Ġcapp ato
Ġtand em
Ġexod us
Ġvatic an
Ġcardiov ascular
2 4
4 4
a ard
a ving
b od
d ent
k b
l ical
l inson
m ers
m ails
p m
t isa
u pon
y on
z og
Ġw en
Ġs omeday
en sibly
Ġc ess
Ġc ough
Ġo li
Ġp ree
Ġp iz
Ġf t
Ġf uss
Ġf ias
ou m
Ġin just
Ġan es
Ġd iving
ro ts
ro pri
ro bi
Ġe go
Ġand ean
Ġre built
il ly
il ia
il let
Ġg amble
Ġwe iler
se lling
pe ts
ri ger
ith metic
res py
ir ut
Ġun qualified
Ġeuro med
Ġsh ots
Ġse aled
Ġex h
os ures
un ivers
Ġv end
Ġen ron
Ġen zy
Ġso ber
Ġj ugg
Ġor den
Ġhe b
Ġhe m
Ġli ps
con cil
Ġrep reh
Ġpe l
oc ating
Ġdis like
Ġdis bur
Ġup wards
Ġup grade
wh ose
te ach
te lling
Ġexp iry
Ġexp osing
Ġexp ropri
Ġapp alled
Ġcons erve
Ġte l
Ġar row
ia h
Ġra f
ĠâĢ ¦
Ġsp ani
ric ate
Ġbo oms
Ġlo ading
Ġro lled
Ġleg end
Ġacc using
Ġmat ernal
Ġgen om
Ġdirect ing
not es
amp ed
Ġhigh way
Ġref riger
Ġnu mb
Ġadd icts
Ġsi b
Ġown s
Ġher zog
Ġtal es
Ġban ner
Ġaff lu
Ġtechn ocratic
Ġimpro per
Ġsimp son
Ġbus quin
Ġobject ivity
arch ing
Ġspeci ally
em u
Ġrese mble
Ġes c
Ġspecif ying
aps ed
Ġsing ular
Ġart if
fin ished
Ġviol in
Ġpat ently
Ġpat ernity
Ġcong ression
Ġcong olese
Ġfl ame
Ġprof iles
Ġann a
euro pol
Ġmis placed
Ġce os
Ġbur gl
Ġz ana
Ġer oding
Ġer df
Ġhon ored
Ġbrit tan
Ġgra vit
Ġoil s
Ġver bat
Ġ9 1
Ġmus card
Ġ15 2
Ġdam asc
bo ards
Ġdi ary
Ġdi ame
Ġcandid acy
Ġrich es
Ġcritic izing
Ġara ble
aff ected
Ġrecon sid
Ġtemp ting
ber ger
pres idents
pro ject
Ġfoot steps
Ġblo gg
Ġsuperv ising
Ġrob bed
sc apes
Ġquot es
put ting
Ġhost ing
Ġcr us
rep orted
Ġpublish ers
Ġdream t
Ġforg iveness
Ġgrand parents
Ġinspect ed
Ġentit lements
Ġpsych ologists
Ġliter ary
Ġquar rel
see king
Ġunique ly
Ġpersu ading
Ġrecip es
Ġbrother hood
Ġstrange ly
Ã¼ r
Ġintens ification
Ġtom linson
Ġstream s
Ġcommand s
Ġhat zid
Ġken yan
col onial
Ġjeopard ize
Ġpse udo
Ġic ao
Ġdav os
Ġfab re
Ġdiver ted
Ġpul ls
elect ions
Ġvent ures
Ġdivers ified
Ġcrash es
Ġbow l
Ġunh cr
Ġauthoritarian ism
Ġvit amin
Ġjurisd ictions
Ġpestic ide
Ġcul mination
Ġfinger prints
Ġmira cles
ifor is
Ġdestabil isation
Ġacute ly
Ġpap ua
Ġsensit ivities
Ġmi ke
Ã¡n dez
Ġintermedi ary
Ġtag s
Ġsmugg led
Ġbio eth
Ġfur ious
Ġobsc ene
Ġmaxim ize
Ġsant ini
Ġfol ly
Ġskept icism
Ġdinos aur
Ġelev ated
Ġhi ros
treat ment
Ġkat rina
Ġkat iforis
Ġreintrodu ce
imm igration
Ġscandina via
Ġdissemin ating
Ġcontag ious
Ġilliter ate
dog an
Ġsurf aces
Ġindiscrimin ately
Ġenqu iry
Ġschroed er
chair man
Ġhelicop ters
Ġcad mium
Ġvag ina
Ġdolph in
Ġfanat ical
Ġfanat ics
Ġperse ver
Ġdiscard ed
bud get
Ġadmis sible
Ġcarcin ogenic
Ġuc its
Ġperv asive
Ġinherit ance
Ġtheat re
Ġanatom y
Ġimpot ence
Ġmund us
Ġjuven ile
Ġindict ment
prop os
Ġintrans igence
fav oured
Ġconspic uous
Ġforci bly
Ġglam orous
Ġwilder ness
Ġrenow ned
Ġmcdon ald
curren cy
approx imately
argent ina
Ġconsec utive
Ġunbear able
Ġscaff old
Ġnichol son
Ġmeag re
tisa ari
Ġfias co
Ġinjust ices
Ġrepreh ensible
Ġverbat im
Ġmuscard ini
Ġhatzid akis
b ri
b ner
c ry
d ie
g ender
h ir
h uber
l ack
l ants
n ice
n ord
p ace
t u
t z
t te
y ans
z i
z ai
Ġ Ã¶
Ġ Ã¥
Ġa pe
in ternal
in tel
at to
at ollah
Ġw ag
Ġw oe
er or
Ġs chn
Ġs ins
Ġc ared
Ġo pel
Ġb ore
Ġb ak
Ġb ib
or ms
Ġm oura
Ġm ps
Ġto es
Ġto go
ed ge
Ġh int
Ġh ipp
ar ting
ar gu
Ġd ÃŃ
Ġd wind
ic an
th est
Ġn ai
Ġn aming
st eria
il der
il isation
Ġg ale
Ġg Ã¶
Ġst oring
ow itz
Ġha ck
ol ics
Ġy a
Ġal ps
Ġun iting
ad ding
im ating
op y
Ġse ated
Ġse oul
li ving
Ġv angu
Ġch ef
Ġall ergies
Ġr asmus
Ġr oure
Ġimp lant
Ġres ide
Ġab using
Ġk a
Ġk on
Ġk ad
ak able
ll able
Ġad ul
Ġcont ested
Ġpe ers
Ġfa ction
ren ces
Ġpl ates
Ġout lining
du ced
Ġman power
Ġapp reh
iz ers
Ġco pper
Ġsa akashvili
og enous
Ġmar in
Ġmar ia
ine v
Ġra ft
Ġdem ograph
Ġsp ike
ip ts
Ġtw ins
Ġsub committee
Ġbas eline
Ġconf ines
Ġstate hood
ass ad
Ġmon arch
Ġquestion na
Ġdef iciency
itiz ation
Ġhel m
Ġher b
Ġgu ides
Ġprotect ions
Ġview points
bal gs
Ġset back
Ġban otti
Ġbu g
chie f
Ġtransp lants
Ġcol oss
Ġform ulas
Ġdown s
Ġsch Ã¶r
Ġem ails
uc king
Ġsaf est
Ġcor p
Ġunderstand ably
Ġir rad
Ġproduct ions
Ġread just
Ġed ition
Ġfound ers
Ġbusiness man
Ġcreat or
Ġclo th
Ġca pe
Ġca fe
Ġbar rels
Ġret ic
Ġenc roach
Ġrece ipts
Ġkey board
Ġtimes cale
Ġbur ns
Ġty ph
Ġemphas izing
Ġhold er
Ġparticip ant
ple x
Ġharm ing
Ġge ological
Ġcirc ulating
Ġpost war
Ġ8 3
Ġfair y
Ġtest ify
reg ions
Ġorigin ate
Ġland scapes
Ġlos er
Ġport al
Ġred ouble
Ġcross es
Ġill s
Ġill um
Ġpaper work
ex ternal
ex plan
Ġsan ct
Ġprepared ness
Ġtrust ing
Ġpie balgs
Ġsubstant iated
sec ret
Ġunaccept ably
Ġrein vig
Ġsen ators
Ġcat ania
Ġcha mbers
cl oser
Ġsun set
Ġcontract ors
Ġ14 5
Ġrob otic
Ġprospect ive
Ġoccup ies
sc re
Ġpra ying
Ġcommunic able
Ġstra it
Ġrele asing
mon etary
cons umption
Ġprotest ant
part icip
Ġbomb ard
Ġ197 8
Ġradical ism
Ġx x
Ġsell ers
Ġfavor ites
Ġmc guin
Ġgold stone
Ġali ens
Ġpredict ability
Ġpatent ing
Ġbattle field
Ġrh ine
Ġimper atives
Ġreass urance
Ġfer ry
Ġclin ics
Ġadm its
Ġadm ired
Ġmagn etic
Ġawa its
Ġhal ted
Ġkn ocking
Ġdepri ving
rap id
Ġmit igating
Ġchief s
Ġdan es
exist ence
Ġmart ens
Ġdiver gences
Ġplural ity
Ġresort ing
Ġconven e
Ġreward ing
Ġmarginal ized
Ġassert ive
Ġattain ing
Ġcarri age
Ġbath room
bul garia
Ġheight ened
Ġnomin ate
Ġtail or
Ġtor res
urg ent
Ġchile an
Ġadh ering
Ġstagn ant
Ġsli pped
Ġentail ed
Ġextract ive
Ġjac ket
Ġinterconnect ions
Ġlap tops
simp lif
Ġtank er
Ġrecur rence
Ġaver ted
Ġresid ues
Ġpatri otism
Ġspons ored
Ġschol ar
Ġak p
Ġbless ed
Ġbudd h
Ġeru ption
Ġcanc un
Ġelev enth
Ġuncond itionally
tar iff
aks in
repres ented
Ġdrow ning
Ġunc overed
Ġthr illed
Ġaven ue
Ġaven ues
techn ical
Ġ192 9
supp ose
disc ussions
fam ily
Ġay atollah
lis bon
maj or
enter prises
Ġbhut an
Ġsed u
Ġworksh ops
syste m
Ġpon der
Ġbeliever s
Ġvoy age
Ġcush ion
Ġappend ix
Ġtomat oes
Ġdisplace ment
Ġbah rain
Ġtow ers
Ġcomed y
Ġrou ge
onge vity
Ġsegreg ation
Ġempir ical
asil in
Ġchal k
Ġkall as
ÄŁ an
Ġthwar ted
Ġplum met
Ġcommuniqu Ã©
aub respy
Ġethn ically
Ġmcn ally
Ġentrop y
Ġsib eria
Ġcongression al
Ġpersever ance
Ġrasmus sen
ĠschÃ¶r ling
2 3
8 00
b ag
c d
c at
e ye
f erence
g ling
g old
k k
k in
m ile
m erc
n c
n d
r ural
s sel
s arkozy
t oc
t arge
w aste
z abeth
Ġt icking
Ġt ips
Ġa ch
Ġa ig
Ġw itch
Ġw rap
er ations
Ġs ain
Ġs Ã¶der
en ough
Ġc ed
Ġc ds
it isation
Ġp m
Ġp airs
Ġp omp
Ġb ach
Ġb olog
or us
Ġm ous
Ġm au
al it
ed es
Ġh umb
ar ist
Ġd aring
Ġe li
le m
th ood
il and
Ġi ra
Ġi bra
Ġl ender
Ġl ongevity
id y
Ġst en
Ġst ern
Ġha voc
Ġal ten
Ġal ga
Ġde ceptive
ri r
ri min
ch witz
Ġne ander
Ġun competitive
Ġun conscious
Ġeuro pa
im medi
op athic
Ġex otic
Ġpar ked
Ġv iv
we ak
we alth
Ġen cycl
so ld
Ġle ather
Ġcan al
us ually
Ġr ic
Ġr ust
Ġor anges
Ġint imate
our ished
ac on
Ġrep udi
Ġpe at
one l
Ġfa cial
ud ed
Ġdis respect
Ġdis pel
Ġdis quiet
Ġout stri
Ġri p
Ġri ft
Ġact a
Ġinc itement
ru th
Ġcons olation
Ġar ithmetic
Ġra iny
Ġtra ced
Ġsp y
Ġper f
Ġcl ay
Ġmat ri
Ġgroup ing
not withstanding
Ġhigh lands
Ġnu isance
Ġmon archy
Ġadd icted
Ġdef ective
Ġend lessly
Ġma id
Ġ19 0
Ġcar p
Ġsc o
Ġsc old
Ġaff ront
Ġcommon place
Ġdon ald
Ġbeh old
Ġplace ment
ef a
Ġsol bes
Ġfra ught
Ġap ocal
Ġem ble
Ġem itted
Ġthank fully
Ġwhe els
Ġfish ed
Ġpract icing
Ġcare less
Ġstruct urally
Ġsw ine
Ġret ina
Ġger hard
Ġfl own
do ÄŁan
af ield
Ġclose t
ordin ary
Ġmor ph
Ġmilit ants
Ġvis ibly
Ġsou ls
Ġ6 9
Ġer ode
Ġer dogan
Ġprogramm ed
Ġlight ning
Ġvict ories
Ġten ure
Ġve al
Ġver b
Ġ9 4
sp ot
sp ending
Ġec j
Ġgl orious
Ġbi oc
Ġbi osphere
Ġgreen er
Ġmodern izing
Ġrepe al
Ġimpos sibility
Ġdebt or
Ġdebt ors
Ġcand y
Ġcand le
ex amp
Ġnorth west
Ġflo at
Ġflex ibly
Ġimag ing
Ġcal ib
Ġcal ories
Ġexam s
Ġpoll ute
pres ent
Ġmal es
Ġmer ge
Ġbul b
Ġbul lets
Ġmig uel
Ġwarm th
Ġinvestig ative
Ġdeleg ate
rest rial
Ġhy steria
Ġauthor ization
Ġcontract ed
ta iwan
Ġcra dle
Ġcra cks
Ġoccup ations
Ġquot ing
year s
respon sible
ij k
Ġdream ing
Ġcomplic ity
Ġ17 5
Ġintellig ently
Ġtro op
Ġforg iven
Ġadapt ability
part ners
Ġ197 1
Ġinspect or
Ġisol ating
comp are
Ġoptim ise
Ġfat alities
Ġtransl ates
Ġbrid ging
Ġfrank lin
Ġreiter ating
Ġcamer oon
Ġflood ed
Ġmotor way
Ġmotor ways
Ġexpansion ary
Ġwaters hed
Ġalarm ed
Ġbol st
think ing
Ġpil g
Ġapprox imation
bl own
eff orts
Ġremed ied
hear ted
.' "
Ġneglect ing
Ġmurd erer
Ġliber ated
Ġaccomplish ments
person al
Ġkar zai
Ġhair cut
human itarian
Ġdefault s
Ġtast ed
Ġah tisaari
Ġsupre m
Ġassert ions
Ġcab otage
opol itan
Ġsequ ences
Ġhell o
Ġdisrupt ions
Ġshel ves
Ġsubstit utes
Ġgrasp ed
Ġtreas ure
Ġcalm ly
high er
Ġadvent ures
writ ing
invest ors
Ġembarrass ment
Ġattribut able
Ġdeflation ary
palest ine
Ġassass inated
Ġalien ated
Ġunch ecked
Ġintimid ated
Ġnap olit
polit ics
Ġresid ue
Ġbeha ves
Ġrect ified
Ġpatri arch
Ġspons or
Ġgrab bed
Ġderiv ative
Ġven ice
Ġpir ates
Ġhinder ing
Ġkilomet re
Ġanch ored
Ġencompass es
Ġdiscretion ary
Ġsymmet rical
Ġembod ies
Ġhaul iers
Ġkidn apping
hy d
Ġbric ks
Ġcarl os
Ġstun ned
Ġros sa
Ġunle ash
ser ious
exam ine
Ġdent ist
Ġvolcan o
Ġangel illi
Ġinsure d
Ġintrins ically
Ġmd gs
Ġost ensibly
lar gest
Ġcort ex
Ġalph abet
Ġoligarch s
Ġdelu sion
aze era
Ġeleg ant
Ġparam ilitary
stant ial
Ġabys s
Ġvehement ly
Ġkilog rams
Ġgriev ances
Ġerrone ous
Ġoutsour cing
portug al
Ġmisfortun e
Ġbuch arest
Ġmarath on
jour nal
Ġfod der
Ġplast ics
Ġinextric ably
intention ed
Ġlalumi Ã¨re
Ġpiz za
Ġdamasc us
Ġgale ote
Ġvangu ard
Ġencycl op
Ġnapolit ano
. âĢĻ
4 00
a ak
a ires
b os
b irds
d av
d ata
d rs
f ut
f ired
h app
j am
k osov
l ost
m ount
r ice
v s
v acc
Ġth ai
in ative
re me
Ġw rest
Ġw aging
is o
Ġs igh
Ġs ino
Ġc mo
an ct
Ġm Ã¼
Ġf ay
Ġf iji
Ġin ali
al ay
Ġan a
ar ial
Ġd v
th ur
Ġre app
Ġre dep
Ġbe lo
st on
Ġg ah
Ġl ure
Ġl apse
Ġwe u
ur b
Ġcom ic
Ġst all
Ġst air
Ġst oning
Ġha y
Ġy ards
Ġde le
ul ators
Ġne lson
Ġun war
Ġcomm enced
pp Ã¤nen
Ġsh ir
Ġse ppÃ¤nen
Ġpar ish
Ġch lor
us c
Ġso ap
Ġr ans
Ġr udi
Ġr yan
Ġj ams
Ġhe ars
Ġhe ck
Ġab er
Ġab atto
Ġus age
Ġrep licate
Ġmust er
Ġad s
ous ing
ab y
ab el
Ġpe asant
oc u
vel ing
Ġri ot
Ġact ress
Ġcomp iled
Ġwork places
Ġreport er
Ġyear ning
ag erial
Ġcons ign
Ġsa ves
Ġar k
Ġev ils
Ġmar row
Ġdec ency
Ġunder valued
Ġob ese
Ġind iv
Ġover arching
Ġlo vers
Ġlo aded
row ing
Ġtrans ist
ang led
Ġstr ides
Ġlong standing
rat ives
Ġmon ks
Ġla z
Ġuse fully
Ġdef icient
Ġma es
Ġemp eror
Ġcar ic
Ġsm et
Ġsm iles
Ġbr un
ail able
Ġview ing
Ġsc aling
Ġsign alled
Ġbu zz
Ġbu enos
cip linary
Ġcent ered
Ġcompet itor
Ġcap s
ten ing
Ġdon ated
Ġmed al
isl av
Ġinf lam
Ġfra mes
Ġlegisl ating
Ġgr ind
Ġsch um
Ġsch wab
ater ial
ph y
Ġdep rez
Ġthank ful
ros anct
Ġvi kt
par ad
eng er
Ġtax ed
Ġel apsed
Ġpeace keepers
fort y
Ġactiv ate
Ġsumm ed
Ġair bus
Ġfight s
Ġbel li
Ġbel ts
Ġperiod ically
Ġz ed
cent ric
az ir
Ġopt ical
Ġpal li
Ġindepend ents
ash a
Ġgener ator
Ġdesign ate
Ġori ented
Ġgra ves
cri pt
Ġpa asilin
Ġ8 8
Ġdest it
Ġmet abol
sh ame
Ġfig uring
dem and
Ġdisp ense
Ġdi arr
Ġred irect
Ġred wood
Ġhun ter
Ġrad ar
Ġrat s
every where
Ġche ated
Ġche que
Ġsecret ly
oph er
cer ity
ber ian
Ġcomput ation
Ġhistor ian
Ġislam ism
Ġdr illing
Ġtack les
pro c
Ġanti qu
Ġpenal ising
Ġpath etic
Ġship ments
Ġship owners
Ġhar ry
fe eding
Ġsize able
Ġdy n
Ġexec ute
Ġ17 0
Ġresist ing
mos cow
Ġassemb lies
Ġcub ans
Ġaccident ally
Ġbelarus ian
Ġphenomen al
comp ens
Ġsell afield
Ġrestruct ured
Ġenforce able
tra ining
Ġcast e
Ġcore per
Ġvig our
Ġmac artney
Ġmark er
Ġsac rosanct
Ġnar ratives
Ġadmit ting
Ġreserv o
Ġcollabor ating
Ġted talk
Ġvan ished
Ġrecall ing
Ġreiter ates
Ġmobil ising
Ġmobil ization
Ġpunish ments
Ġcrow s
Ġmultip lied
Ġdub ai
Ġfran Ã§ois
Ġdetect or
jud ging
Ġstream line
Ġanx ieties
vi able
Ġindis put
fall s
Ġdiagn ose
ns ch
Ġsand wich
Ġmanip ulating
book s
elect ric
Ġlag s
br ush
Ġmouth s
Ġhusband s
american ism
Ġrot ten
Ġnic kel
Ġredund ancy
Ġmarginal isation
fur t
Ġvenezuel an
Ġmaster y
Ġstup idity
Ġutil ities
prof ile
Ġparadox ically
Ġshoot s
Ġinterrupt ion
Ġmisle ad
Ġdiam etric
Ġsli pp
esty les
Ġpand ora
Ġmi ert
Ġbiote chn
Ġgraph ics
Ġlev ies
Ġlev ied
Ġjar gon
Ġaffirm ative
Ġmush rooms
sighted ness
integ ration
Ġdegrad ed
Ã§ a
Ġacced ed
Ġharass ed
Ġnap les
Ġescap ing
exper ts
Ġskept ics
Ġdeploy ing
Ġassault s
beh ind
Ġhi ke
Ġdiscred it
Ġdeposit ors
Ġvirgin ia
Ġ140 8
Ġari as
Ġscream ing
Ġinad vert
Ġunden iably
Ġeman cip
Ġhandic ap
Ġastronom ical
serv ices
Ġstig ma
Ġcharm ing
Ġanomal ies
Ġeste emed
Ġlee way
Ġbog ged
Ġimpl ants
Ġdeport ation
Ġbhut to
Ġpow der
Ġcolleg es
ĠÎ µ
pric es
Ġdismay ed
Ġrelent less
Ġassimil ation
Ġconfig uration
Ġlah ti
Ġseiz ure
nin ety
Ġimpract ical
ĠhÃ¤ nsch
Ġasth ma
Ġdiame ter
Ġhiros hima
Ġnai robi
Ġmcguin ness
toc in
ĠsÃ¶der man
Ġbolog na
Ġibra him
Ġalten er
Ġalga e
dav id
Ġinali enable
Ġpaasilin na
3 8
6 5
a is
c ats
d oub
e ge
f il
g art
h c
j oin
k atell
l as
l od
n umerous
o pportun
r h
s ignificant
t otal
w id
w arm
Â °
Å Ĥ
Ġt res
Ġt ach
in ch
re forms
er d
en ic
Ġc ured
Ġo mn
Ġo etting
Ġp es
Ġp und
Ġp ork
an na
Ġb ren
or iously
Ġm p
ou ri
Ġin mates
al cul
Ġan ach
Ġh ates
Ġd orm
Ġe ts
le ans
Ġre ced
Ġre cept
Ġre defined
Ġre ceptive
Ġre opened
ve t
om fort
Ġbe ast
st al
st rict
Ġg ni
Ġl ing
Ġl un
Ġl ining
Ġwe ars
se ated
Ġit er
Ġst ing
ol s
ol ves
Ġal varo
ra h
ra il
ul in
ay ann
ill ions
Ġme te
Ġun not
Ġun mist
Ġun fulf
ter rey
Ġsh ah
Ġsh aky
Ġse gments
and re
Ġex or
Ġgo ats
Ġch i
Ġcan yon
et t
et ti
ist ed
Ġwas tes
Ġr ation
Ġr ash
Ġimp aired
Ġj in
Ġj oking
Ġj ensen
Ġj azeera
Ġor ally
Ġor leans
Ġres h
Ġthere after
end a
out side
Ġpol ledo
Ġk abil
Ġint angible
con ventional
de l
ll ari
um ines
Ġcount ies
Ġdis ney
Ġcomp art
Ġman agerial
Ġunion ists
te lla
Ġyear ly
ag os
Ġcons cient
he w
Ġmar ie
Ġhow ard
Ġra cing
Ġany time
Ġspe ar
Ġsp ade
Ġinv itations
Ġover turn
Ġleg o
ath ed
Ġho ol
Ġrem ot
Ġref ined
Ġdisc ord
Ġdisc omfort
art in
Ġma ij
Ġtur b
Ġtur mes
ob o
Ġher ring
olog ues
ty p
cond itions
Ġinter mod
Ġinter regional
wor n
ne igh
Ġhim alay
Ġcol onel
Ġtechn icians
Ġprin ter
Ġlif estyles
Ġsch Ã¼
Ġnor theast
Ġris king
Ġap es
Ġbl ak
Ġbl asp
Ġsur rend
Ġwish ful
Ġequ ations
Ġins uff
she ll
iti us
gg en
gg ish
gg age
let t
Ġpo ems
Ġtechnolog ically
Ġsing led
ib ia
do ctors
Ġhome owners
Ġbank er
Ġsl am
Ġpal m
Ġeur lings
Ġident ifiable
Ġlight weight
Ġamb ul
Ġcirc ulated
edi ence
Ġfinal ise
Ġ8 4
Ġve ld
Ġver ified
20 20
sh all
Ġmass ively
Ġcamp us
Ġbi ologist
Ġmodern ised
Ġmodern ize
Ġhun ters
Ġill ogical
Ġste ak
ton y
Ġsea water
Ġmist reat
Ġvo j
Ġstri fe
Ġcop ing
Ġsens ing
Ġsepar ates
pol ar
Ġcou ps
med ia
Ġ198 2
Ġauthor itative
Ġdefence less
Ġdiplom as
Ġship ment
Ġlu ggage
Ġlog ging
Ġfil ip
Ġ14 9
Ġton ne
Ġpakistan is
Ġnice ly
ene y
Ġstra its
Ġfif a
Ġbon de
Ġfederal ists
cont inent
Ġsubsidi aries
Ġadvoc acy
Ġterri fic
Ġcourage ously
Ġcondition ing
Ġprotest ed
Ġconce aled
Ġvari ables
commun ication
Ġjournal ism
Ġhospital ity
back ed
Ġvill agers
Ġtransl ator
Ġgold man
Ġod ys
bel arus
Ġdiscip lined
Ġsake llari
Ġsight s
Ġdub bed
jud icial
Ġphotograph ed
Ġmold ovan
Ġfem ales
Ġmicro phone
Ġkeen ly
Ġkh mer
Ġvoc ation
connect ed
Ġfasc ist
Ġinvent or
Ġah ern
Ġbroadcast s
Ġrush ing
Ġenshr ine
Ġdismiss al
Ġsoc ks
Ġbreed s
Ġband s
Ġcath ed
global ization
Ġ195 7
Ġpit tella
tal ks
Ġmcc artin
Ġoxy tocin
ell hardt
Ġpap ayann
Ġtrigg ering
Ġsin ister
Ġethi opian
Ġinfl ated
gener ational
gener ated
Ġstret ches
Ġinsult s
anas ia
protect ing
Ġregain ed
Ġpoison ed
Ġpoison ing
Ġpoison ous
cot ics
Ġpremature ly
Ġhang s
Ġrival ries
Ġrecur rent
Ġferre ira
Ġaqu atic
Ġprec urs
Ġspons ors
Ġinfin itely
Ġrender ing
Ġgro cer
Ġcosm opolitan
Ġteen ager
Ġmaur itius
Ġadvers ity
Ġdrag on
Ġorthodox y
Ġimplicit ly
Ġteles cop
Ġhub ris
ref erence
Ġanno ying
Ġlen in
Ġfertil izer
brid led
Ġpeters berg
Ġmonu ments
Ġmonu mental
Ġflav our
Ġritual s
Ġphysic ists
Ġko z
Ġspontane ously
Ġadvertise ments
Ġblunt ly
Ġeuroscept ics
mass ive
Ġconting ency
maj ority
Ġther mal
Ġartic ulate
dig it
Ġmultif unction
psy ch
effect s
hon ourable
Ġmeg aw
Ġpromin ence
coordin ated
Ġlaps es
Ġvic inity
conserv ative
Ġtramp led
aud ience
Ġreleg ated
rev olution
Ġunb und
Ġtub es
Ġanten na
unci ation
Ġjelly fish
Ġpean uts
Ġinse parable
Ġguarant or
Ġsaud is
Ġtah rir
Ġcess ation
nord ic
Ġschn ellhardt
Ġcoloss al
Ġsuprem acy
kosov o
Ġunwar ranted
Ġvikt or
Ġdiarr he
Ġdiametric ally
katell is
Ġtres pass
Ġoetting er
Ġanach ron
ĠschÃ¼ ssel
Ġsakellari ou
Ġpapayann akis
) (
1 3
2 6
6 00
8 9
] ,
b irth
c ling
c ov
d ain
d et
e w
e ks
g ers
g am
g ical
h m
h it
h uge
h enko
l ower
l ords
m w
m oon
m igration
n ard
n ets
o z
p ern
r c
r ank
r ules
t ts
t ok
t ances
u ant
u Ã©
y ield
z h
Ï Ħ
Ġt se
Ġt ud
Ġa ar
in v
in ke
re la
at ter
at tering
at temp
Ġc ress
Ġc av
Ġo ust
Ġp icks
Ġm um
Ġf li
Ġf aint
al ban
Ġan emic
Ġh ig
Ġd azz
le ban
Ġre ver
Ġbe ver
Ġbe irut
Ġl d
se ts
ur p
ur ban
Ġpro state
Ġha ke
Ġcon n
ra ble
Ġde em
the ws
Ġeu th
Ġnot oriously
Ġne arer
Ġun welcome
Ġun finished
Ġun reported
Ġun bridled
Ġsu pers
Ġsu pern
ter ritorial
op tim
Ġsh alit
Ġse ism
li fer
Ġpar cel
Ġv ase
Ġv idal
ich ester
we ap
we ggen
Ġle aked
Ġgo ose
Ġch op
Ġch unk
Ġch ichester
Ġcan e
Ġpres erves
Ġr ut
Ġj ou
Ġj eg
end ijk
Ġab ortions
Ġcommission s
out i
Ġk i
Ġk r
Ġk lam
Ġk ovÃ¡
ac a
all o
Ġpe ar
Ġac res
Ġno x
lo gy
ear th
Ġpl ague
Ġdis sip
Ġdis engagement
Ġdis dain
for get
Ġcomp act
Ġstates man
Ġexp ulsions
Ġco financed
are z
Ġsa vers
Ġte leg
he my
ach use
Ġra ined
Ġra mos
ase an
Ġunder foot
Ġtra gically
Ġtra katellis
Ġsp er
Ġsp oil
ind ones
Ġbo iling
Ġover st
Ġover see
Ġover capacity
Ġcommit s
Ġeven ly
Ġclear ance
Ġmat er
Ġstate less
ass uming
Ġmay nard
Ġmon str
Ġcountry men
ves o
rough ly
Ġma pped
Ġdes erving
Ġass erts
Ġprotect or
Ġcar ol
Ġcar tel
Ġsm iled
cond ition
Ġview ers
Ġinter tw
Ġwar heads
Ġcol ored
ten stein
Ġlit igation
Ġtechn ocrats
Ġinf ancy
Ġmod us
Ġmod alities
Ġgr ids
Ġ20 25
ph ones
Ġbl ink
Ġsur gical
Ġinde c
Ġins iders
ys ical
Ġfree ing
Ġmight y
Ġdist orts
Ġstar ve
Ġbro ch
Ġfac ult
Ġess ay
Ġviol ently
Ġhist ories
Ġret ard
Ġreform ists
Ġfl ush
where ver
Ġcentral isation
Ġprevent able
Ġstat utes
Ġid ly
Ġty mos
Ġconsequ ent
Ġer doÄŁan
az ard
Ġpal p
den omin
Ġwa x
Ġmult im
Ġdeep ened
Ġve t
sh ar
sh aped
Ġmass achuse
Ġsuper b
sp oken
bor g
Ġasse mble
rad es
Ġwaste ful
Ġcomplex ities
pre viously
Ġeth os
ix ed
Ġclass rooms
Ġpolice men
Ġrenew ing
pro per
Ġmig rate
Ġcell phone
Ġbuy er
ann i
Ġ18 5
Ġsun k
Ġbush ill
Ġarr anging
Ġfil ters
Ġ14 4
Ġton nage
Ġtre ason
Ġcooper atives
Ġcomplain ant
Ġpra yer
Ġcro cod
Ġchem otherapy
Ġstra ined
Ġder ail
Ġhom age
Ġintention ally
Ġattract s
Ġautom ated
Ġadapt ations
Ġut opia
Ġ197 7
Ġcoast line
Ġarch ives
Ġpleas ing
osp ace
Ġremo ves
Ġcast s
Ġdark er
Ġgaz e
Ġpsych o
Ġswe ater
Ġsearch ed
Ġbed s
Ġspect er
Ġment or
Ġrational ity
Ġmountain ous
Ġblind ed
Ġperpet uate
Ġupd ates
Ġfault y
Ġshi pped
col a
Ġic ty
Ġkar am
Ġenlar ging
Ġecho es
Ġecho ed
Ġdur ban
organ ized
Ġconven iently
Ġmanifest ly
Ġlag endijk
Ġcomfort ing
Ġinvent ing
Ġinvent ors
Ġprescri ptions
Ġ194 7
Ġ194 8
Ġbow e
Ġreloc ate
Ġcab rol
Ġcatal an
Ġattain able
inter rupt
Ġprosecut ing
Ġmathemat icians
Ġinstruct ive
Ġcoinc ides
Ġcath olics
Ġtribun als
Ġreme mbers
Ġburdens ome
invest ing
Ġmel ted
Ġremit tances
Ġsin cerity
Ġmagaz ines
list ening
kh ope
Ġlobby ists
soon er
Ġcomparative ly
Ġaver sion
Ġaer ospace
Ġemotion ally
Ġnit rates
Ġpriorit ised
Ġsatur ated
cop enhagen
Ġ193 3
Ġhurric anes
Ġcontempl ating
Ġobstruct ed
Ġelectron ically
Ġaus chwitz
Ġinadequ acies
Ġanonym ity
Ġindul gence
nar rator
poll uter
Ġselfish ness
Ġslu ggish
Ġef d
Ġterrif ied
Ġlament able
exam ined
Ġsty les
Ġkir khope
Ġcolumb us
Ġconqu ered
Ġerect ed
Ġmiscon duct
Ġcher ry
Ġscrutin ise
Ġmast ered
Ġaggress ively
Ġcous ins
const ruction
lab our
Ġathe ist
Ġpsychiat ric
Ġshout ing
Ġincompet ent
Ġpunct ual
Ġinexp lic
Ġinaug uration
Ġworksh op
Ã¸ rg
Ġleak age
Ġeh ud
Ġconsci ously
fed eral
Ġingen ious
Ġorb Ã¡n
Ġafflic ted
Ġcalam ity
hung ary
Ġwra pped
Ġarist otle
Ġblur red
counter fe
Ġaeropl anes
Ġoverhe ating
Ġineffect ual
Ġnutri ents
Ġkib aki
corpor ate
Ġscapego at
thet ics
proble ms
Ġepidemi ological
Ġbret ton
Ġdissol ve
Ġarbitr arily
Ġmetropol itan
scot t
Ġbundes bank
purs uant
inev itably
examp les
Ġtach ograph
Ġunnot iced
Ġunfulf illed
Ġkabil a
Ġklam t
ĠkovÃ¡ cs
Ġmonstr ous
Ġtymos henko
Ġmassachuse tts
Ã¸rg ensen
" ?
7 7
a ves
b ak
b issau
c ustom
c inct
c ritical
e ous
f ine
f aire
j ah
k ore
l os
m ah
n ation
o ys
o Äį
p ot
s b
s qu
s us
s ource
s ax
t ens
y ang
z hen
Ã ¦
Î ±
â Ļ«
Ġth under
Ġth aksin
Ġa eg
Ġa ided
Ġa wards
Ġthe sis
is i
Ġs ow
Ġc is
Ġc ries
Ġo min
Ġo ven
it iveness
Ġp om
an al
Ġb light
Ġm acc
Ġf p
Ġf red
Ġf ences
Ġf ateful
al ba
Ġan ecd
Ġh ers
Ġh ug
Ġh ats
Ġd as
Ġd iana
Ġd dt
ro it
ro ck
ent e
le an
Ġn an
Ġn un
Ġn umer
Ġre hear
as er
Ġbe gging
st ra
il a
Ġg ur
Ġl id
Ġl loy
Ġu f
Ġu m
ment ation
Ġst aged
Ġpro pe
Ġpro stit
Ġpro be
Ġpro lifer
Ġha iled
Ġal umin
ri e
ul ing
ke ting
ay ev
ill o
gh i
Ġnot icing
ir respective
Ġme ga
oun tain
Ġeuro c
op us
Ġse veso
un ks
Ġv oid
Ġle aks
mb led
Ġch au
Ġch uck
âĢ ¢
Ġall ay
us ers
Ġr ud
Ġimp lements
Ġimp ediment
Ġj Ã¶
Ġhe els
Ġthere of
Ġab raham
Ġli king
Ġk g
ac ent
Ġpresid ing
con stitutional
ig ent
Ġpe res
Ġac oust
Ġfa res
Ġdis ob
Ġri fe
du ous
now here
Ġinc alcul
Ġup stream
Ġprop he
ens uring
Ġar duous
ok o
Ġmar vell
Ġjust ifications
ine e
Ġdec k
Ġspe lled
Ġspe lls
Ġdem arc
Ġsp ills
Ġper nic
Ġind us
und oubtedly
Ġbo ots
Ġbo oth
Ġover seeing
Ġro the
act ing
act iv
Ġprov oking
Ġbas ing
Ġgen oa
Ġwell s
Ġfinan ci
Ġnu anced
Ġmon ol
Ġmon terrey
man ufact
art a
Ġ19 00
Ġcar ved
Ġbr unt
Ġbu gs
ne ut
Ġcent red
Ġinstit uted
Ġcompet encies
Ġcol ours
Ġsuc cinct
Ġdon ate
Ġfore cl
Ġdown right
Ġdown grad
Ġprin ts
Ġameric as
Ġfra ga
Ġsch uman
Ġdep orted
Ġest onian
Ġta pping
Ġcor als
my anmar
Ġvi i
Ġben evol
Ġposition ing
Ġproject ion
âĢĿ .
Ġstep hen
Ġpract icable
Ġeas ter
Ġpur ple
Ġpo ppy
Ġdist ressed
Ġsw ap
Ġsw ings
Ġca usal
Ġstart ling
Ġsumm ers
Ġfl ax
af o
Ġcomb inations
Ġessential s
Ġchar ities
Ġbel ly
Ġann ul
Ġz ip
Ġ10 5
Ġer ratic
Ġpot oÄį
Ġ201 8
Ġdraw backs
Ġgra des
cri be
Ġcirc us
Ġjud icious
Ġeast ward
Ġpa ving
Ġinnov ators
Ġobs erves
orm ick
Ġprep ares
Ġseem ing
Ġsk irt
pr ud
Ġlink oh
Ġport rayed
Ġgl ue
Ġclos es
Ġrepe aled
Ġaut ism
Ġteach ings
Ġ30 8
Ġlearn s
Ġimag ining
Ġcod ification
dom estic
Ġclass ify
Ġsal vation
Ġtemp oral
Ġneighbour ly
Ġconduct or
pol i
ureau c
Ġmig uÃ©
Ġmut ations
Ġcommer cially
Ġexplo sions
Ġchair ing
Ġcover t
Ġbra ke
Ġrepl aces
Ġauthor isations
Ġship w
Ġslo pe
Ġsex y
Ġpred ator
Ġpush es
urd y
Ã¶ t
Ġconserv atism
Ġcompens ating
Ġwealth ier
Ã¡ r
Ġfraud sters
Ġoct opus
Ġwid est
Ġhom o
Ġhom ogeneous
Ġbon temp
Ġhur ting
Ġcub e
Ġfire works
Ġquant ified
sk illed
Ġsqu ab
Ġradical isation
Ġcard board
Ġfaith s
Ġmag ist
Ġmag ician
Ġfort night
Ġproc lamation
Ġos ama
Ġsusp ending
Ġcheap est
Ġsympath ise
Ġluck ily
ky oto
Ġcoff ers
Ġintens ifying
Ġearn s
Ġequival ence
Ġvac ant
Ġtrip led
bl ue
Ġsoil s
Ġaspir ing
Ġnarrow ly
Ġdisplay ing
Ġshut ting
Ġgun shot
exist ing
col m
Ġmart ÃŃ
Ġrhetor ical
Ġacquis itions
Ġdiver ge
Ġfrust rations
Ġq e
Ġrecy cle
Ġresort ed
Ġsn akes
ba o
Ġmanifest o
Ġconve ying
Ġjump ing
Ġrot ate
pa ul
vis ual
Ġreloc ating
Ġaccommod ating
hist or
Ġexacerb ates
run ning
Ġseason s
Ġutil ised
Ġmira cul
Ġpit iful
Ġhesit ated
Ġreaffirm ing
Ġcambod ian
aust ria
Ġrw andan
Ġinsult ing
Ġinject ions
Ġtheore tically
Ġjail ed
Ġalien ation
Ġexhib it
Ġtag ged
Ġstalin ism
Ġfue lled
Ġdeval uations
Ġspin elli
Ġsant os
Ġadj acent
Ġanalog ous
Ġcrush ing
Ġfol k
Ġrestrain ts
Ġprec lude
Ġbee keepers
Ġhill ary
Ġcyn ically
Ġinflic t
Ġastr onaut
Ġempower ing
Ġasymmet rical
sing le
Ġclust ers
Ġwolf owitz
Ġfib res
Ġamp lif
Ġencompass ing
play ing
Ġsanction ed
temp orary
Ġcurtail ed
Ġinterl inked
Ġhumili ated
Ġstub b
Ġcoach es
impro ve
redu ction
Ġmonu ment
Ġski ing
consid ering
Ġspark ed
Ġpenet rate
Ġreson ance
Ġeditor ial
bring ing
Ġseparat ist
bers pace
Ġschizophren ic
independ ence
mil k
Ġgau ge
Ġproph et
Ġimprov ise
Ġnep ad
Ġconfisc ated
Ġadmis sibility
sit uation
Ġmant ra
Ġrevel ations
Ġheral d
Ġpromin ently
Ġhorrif ied
Ġhorrif ying
Ġskelet on
Äĥ u
Ġconsci ences
Ġxia obo
isse z
Ġculprit s
Ġintrig uing
Ġmaat en
Ġdesc ended
Ġdisappro val
Ġtransc ends
comput er
Ġportra it
Ġtox ins
Ġump teenth
Ġmoham med
Ġuncomp rom
Ġplag ued
Ġprist ina
Ġaltru ism
Ġlifes pan
Ġdistill ation
Ġglaci ers
Ġpige on
ĠpÃ© rez
paralle led
Ġoutra ged
Ġconsort ium
Ġtyph oon
mount able
parad ox
Ġpund its
Ġblasp hemy
Ġmultifunction al
Ġunbund ling
Ġdiarrhe a
tok yo
Ġcress on
Ġeuth anasia
Ġjeg gle
indones ia
Ġaeg is
ĠjÃ¶ ns
Ġincalcul able
ĠpotoÄį nik
Ġlinkoh r
ĠmiguÃ© lez
Ġbontemp i
7 00
8 5
? !
a qu
b in
b able
b ling
b ler
b ilateral
c ke
d ers
f irm
g ant
h le
h ang
k ay
k os
l ass
n om
n ig
o en
o ij
p ros
s un
s ave
s ounding
t ob
t enth
t oler
v ir
x on
Å ĳ
Ġ ion
Ġt u
Ġt es
Ġt il
Ġt ending
Ġt ipping
Ġth ro
Ġa i
Ġa pport
in duced
re view
at ical
Ġw oes
Ġw retched
Ġs r
en so
Ġc ep
Ġo u
Ġb p
Ġb av
Ġb amb
Ġb lix
Ġb mw
Ġm alf
Ġm ullah
Ġm imic
Ġf ame
Ġf ade
Ġf bi
ion age
al as
al ina
al igned
Ġan ne
Ġan ew
Ġh ul
Ġh ens
ar ray
Ġd m
Ġd ou
Ġd oses
Ġand or
th an
Ġre appe
Ġre novation
Ġre orient
om atic
st aff
Ġg ad
Ġg os
Ġg ns
Ġl ords
Ġwe ep
ol umines
Ġcon not
Ġal ibi
Ġne ural
Ġme mb
Ġun ify
Ġun paralleled
ter dam
ad z
ad ic
ad ras
Ġse l
and estine
li a
li able
ant opoulou
ere y
un cture
qu et
qu adras
Ġle mon
mb rance
Ġch ase
Ġch eney
et tered
us z
us er
Ġr ationally
Ġj ill
Ġhe in
Ġab usive
Ġli ech
Ġk ou
Ġint ru
Ġint imately
ac p
Ġam eli
ard e
con ceived
Ġus able
ig l
Ġrep ar
mber g
Ġac cessions
one lla
Ġfa it
si xty
Ġtr illions
Ġdis array
ag all
me ier
ens ical
Ġar c
cy cles
Ġra ces
Ġunder lies
Ġunder development
Ġspe culate
Ġtra inees
Ġsp ouse
Ġway side
ace ted
lear ning
Ġover load
Ġover turned
Ġlo oms
Ġro d
Ġro ses
Ġro sy
ks w
Ġcl andestine
Ġtwo fold
Ġhum our
Ġlong ing
Ġbas har
cept ions
Ġconf ers
Ġdisc lose
Ġla und
Ġla wn
Ġquestion er
art oum
ile aks
Ġdevelopment al
Ġhapp iest
Ġass erting
Ġprocess ors
Ġbu cks
lud ge
other mal
ina i
Ġdown stream
Ġprin cess
Ġmod ifying
Ġbus k
Ġregion ally
com plete
Ġdep icted
Ġap ol
Ġcond one
Ġmil o
Ġtax ing
Ġel it
Ġdist raction
Ġstar ved
Ġpop ulous
Ġcreat ors
Ġsing h
Ġca f
Ġtri ang
Ġair ways
Ġpass ages
Ġvis ually
Ġhead scar
Ġpen ns
Ġyoung sters
Ġadminist rators
Ġtrad able
Ġty res
Ġ6 50
str ateg
Ġgener ously
Ġdesign ations
mor al
Ġharm ed
Ġfocus sed
Ġge othermal
ims y
Ġant on
Ġant ide
Ġbook store
Ġ7 50
omet own
Ġlink age
Ġsubsid ising
Ġdev otion
Ġdev otes
Ġec st
Ġec ol
Ġport o
Ġsort ing
Ġbi ologically
Ġbi olumines
Ġred es
Ġassoci ates
Ġemb ro
bor ne
Ġstory telling
ex cess
Ġconsult ants
ior i
Ġcandid ature
Ġimag inary
Ġimag inative
pre pared
Ġdim it
Ġworth less
dom inated
la ws
Ġsal ad
Ġdece it
Ġcop ied
Ġoccur rences
fr an
Ġislam abad
Ġdr c
Ġpain fully
Ġmal awi
pro gra
Ġbul lying
Ġbul garians
Ġperfect ion
Ã© r
Ġcomment ary
Ġblack list
Ġfoot age
Ġfoot wear
Ġsil vio
Ġprovision ally
Ġsep a
des igned
Ġunf ettered
Ġcr ank
Ġord in
ij s
Ġtransform ations
Ġrid ge
Ġ197 2
Ġinev it
Ġang uish
spe ak
mat thews
gu y
Ġproud ly
Ġombuds men
Ġsearch es
Ġdism al
Ġrational ise
Ġmos cov
Ġsympath ies
Ġarm strong
Ġendeav or
Ġvacc inated
thes ia
add itional
Ġawa ited
Ġconfront ations
Ġsim on
Ġanaly zed
Ġirre voc
Ġunpre pared
Ġwild ly
Ġcas ini
Ġmaced onian
Ġmodest y
Ġmicro bes
Ġanticip ating
Ġsand s
Ġpul se
Ġchamp agne
Ġkh artoum
Ã¤ r
Ã¤ ki
Ġsn ake
Ġmanifest ed
Ġrot terdam
Ġirrespon sibility
Ġadequ acy
Ġnord en
Ġbold ly
Ġsale h
Ġtrick ed
Ġcos mic
Ġridic ule
Ġtear ing
Ġsunday s
Ġreme mbrance
Ġdestabil ising
Ġmyth ology
Ġmcc artney
Ġsomal i
Ġble eding
compet itiveness
Ġrelax ing
Ġneighborhood s
Ġbid ding
Ġaffirm ation
Ġtill ich
liberal s
Ġpump ing
Ġallev iating
Ġexagger ate
Ġbloc s
Ġemph atic
Ġkiss ed
Ġreimb ursed
treat ed
ĠrÃ¼ hle
Ġindu ced
Ġlaure ates
Ġcurtail ing
vol untary
Ġcircu its
Ġkla ÃŁ
Ġeman ating
Ġmild ly
Ġpolite ly
Ġesp ionage
Ġpengu in
techn ological
Ġinsurg ents
Ġstrand s
Ġpenet ration
Ġbutt ons
Ġinsure rs
Ġmiscon ception
Ġpredic ament
ji ang
Ġgif ted
Ġker ry
Ġpsychiat ry
represent ation
Ġfu ji
Ġcoerc ive
Ġswallow ed
Ġmultif aceted
Ġchromos omes
Ġalas ka
Ġalph a
Ġdisconnect ed
Ġbron ze
Ġkel ly
bot tom
Ġtheor ists
adop ting
Ġunimp ort
Ġwarri or
Ġretal iation
Ġcron ies
achie ving
rac ism
Ġcoven ant
Ġvalen cia
Ġjewel ry
Ġguerr illas
Ġallerg ic
Ġcharism atic
Ġbil bao
Ġunve iled
Ġunsu itable
dip lom
oise ach
Ġhamb urg
Ġace h
Ġbom bed
Ġredefin ing
Ġcance led
Ġundis put
cour t
flex ibility
insp ired
Ġconfu cian
Ġmathematic ian
Ġheb rew
Ġdisbur sement
Ġartif acts
Ġeli zabeth
immedi ately
Ġindiv isible
Ġzed ong
Ġinadvert ently
ĠÎµ u
Ġambul ance
Ġtelescop es
attemp ts
Ġintertw ined
ĠmartÃŃ nez
oen ix
enso hn
Ġgns s
Ġliech tenstein
Ġpenns ylvania
Ġmoscov ici
) ).
3 6
6 4
9 3
b eration
b ird
c os
c oll
c ases
g irl
h om
i ment
i ks
i ors
j u
k man
l ive
l iter
m ach
m old
m ond
m onella
n as
o os
o let
p ound
p hem
r ue
s ustain
s afe
t c
t able
t welve
u ates
u ary
w ent
y ad
z k
z o
Ä Ĺ
Ġ Ã¡
Ġt ires
Ġa erial
re cip
Ġw ow
Ġw art
Ġw ires
Ġw right
is ia
en i
en et
en force
en stedt
Ġc c
Ġc us
Ġc ages
Ġo y
Ġo un
it ates
it ian
Ġp upp
Ġp Ã¶t
Ġb ish
Ġb ounce
Ġb jer
or no
Ġm ri
Ġto e
Ġf ist
Ġf Ã¼
Ġf oul
al ism
Ġh inges
Ġh ikes
Ġd ru
ic ine
ic ide
Ġe min
Ġn afo
Ġre ne
as is
as ingly
Ġbe acon
il ated
il ton
Ġi q
Ġg Ã¼
Ġg room
Ġl ur
Ġl ends
Ġwh ip
se us
ur ning
Ġcom ics
Ġst ren
Ġha unted
Ġy ass
ri ends
Ġeu phem
gh etti
Ġne oc
Ġun do
Ġun ison
Ġun seen
Ġun elected
Ġun interrupt
Ġsu e
Ġsu g
ad el
ad vert
Ġeuro group
pp enstedt
li an
li ble
os ph
os ki
Ġpar an
Ġv enge
Ġv owed
ci ously
est imates
Ġdo ve
Ġle opard
Ġwor ms
Ġch ast
Ġch ave
Ġcan opy
et e
et al
ist a
am mar
Ġso y
od ies
Ġimp eded
Ġimp eding
Ġj ol
Ġj ails
Ġhe ap
Ġhe ath
Ġres ale
Ġthere in
end um
Ġab normal
Ġk re
Ġk iv
Ġint ake
Ġam use
all eng
Ġrep ressed
de aling
ue ire
ans k
Ġpe aked
ish es
Ġfa una
Ġdis b
Ġ1 000
Ġout do
Ġri be
Ġcomp iling
Ġinc ub
Ġman ners
Ġimport er
are a
Ġpre ts
Ġnew est
Ġar dent
Ġmar ines
ach es
ide ally
Ġsp inal
Ġinv ade
Ġbo lder
Ġlo ver
Ġlo ads
Ġlo fty
Ġro gue
Ġsy l
Ġcl an
ang ling
Ġstr angle
ween ey
ord ered
Ġdeb acle
Ġho od
rat sa
Ġpri zes
Ġref ere
Ġref ute
Ġext ensions
lu x
Ġrequ isite
Ġreal ises
own ess
Ġsi ren
Ġhel mut
ob ject
Ġher bal
Ġsc rup
Ġwar ring
be y
Ġrespect fully
ather ine
ph il
Ġph oenix
Ġph osph
Ġval ent
Ġrest ing
Ġimm ort
em a
em er
Ġpract iced
Ġed it
Ġspecif ics
sw ana
Ġsupp er
Ġpop s
Ġshort cut
mpt on
Ġsuff rage
Ġtri poli
Ġaccount ants
Ġeng ulf
Ġret ali
Ġfl ock
Ġprof lig
Ġmor als
Ġenc ry
Ġpass ively
Ġloc om
Ġchar coal
Ġdecl ares
co res
Ġbur ial
Ġfarm land
Ġadopt ions
Ġcapital ists
Ġdoub ted
some how
Ġrom ans
Ġgra Ã§a
Ġwa h
Ġvict orious
Ġant ib
Ġten acity
Ġbroad est
Ġorigin ates
Ġfig ueire
Ġsubsid ize
Ġdev iate
sp ent
Ġdecided ly
Ġmen ace
Ġgl oss
Ġbi omed
bo ys
Ġcy berspace
Ġbri bery
Ġden ouncing
Ġemb ody
Ġkill ers
Ġcircum s
Ġcollect ions
Ġrecon nect
Ġsal monella
Ġvir rank
nam ed
Ġcampaign ed
Ġmand ated
Ġmal colm
lin der
Ġmer cil
Ġbrief ing
Ġperform ers
Ġkosov ars
Ġcou ch
Ġ18 00
Ġult ras
Ġwind ing
Ġsurv ives
lant a
Ġphys icians
Ġaccomp li
Ġcra p
Ġpra ising
Ġcommercial isation
int osh
Ġstra uss
Ġdeliver ies
Ġep a
Ġtro jan
Ġsymbol ism
Ġimplic ated
rich ard
cons olid
Ġuns pe
rid den
Ġquant ify
umer able
ney ra
Ġinspect orate
Ġenjoy able
Ġsurve yed
oo th
Ġpsych ologist
Ġpsych ologically
Ġczech s
Ġstabil ized
Ġnar cotics
Ġjudge ments
Ġprohib itive
mo th
Ġcollabor ators
Ġpatent ability
Ġ196 2
Ġpersu asive
Ġfrank furt
Ġsharp en
asm uch
Ġinfring ing
Ġblind ness
Ġfortun es
Ġdetect ing
Ġvac ancies
Ġphotograph y
Ġyield ing
Ġic onic
Ġfab ra
Ġroll er
Ġconfron ts
aph r
Ġvoc al
Ġgrave ly
Ġfool s
elect ronic
Ġsn aps
Ġskin ner
Ġ194 9
sch engen
Ġsuic idal
Ġcook ies
Ġwarrant ed
Ġcrash ing
Ġsubs erv
Ġaccum ulating
Ġaccommod ated
Ġreaff irms
Ġinstruct ed
Ġlabel ed
establish ment
Ġjer sey
Ġoverlook s
Ġutil ise
201 1
prof ess
quar ter
Ġpit falls
Ġpossess ed
Ġdestabil ise
tal king
Ġreb ound
Ġmyster ies
Ġdiam and
Ġdiam antopoulou
Ġtrigg ers
Ġdistinguish es
minded ness
Ġinconsist ency
Ġfro st
Ġstret ching
Ġdilemm as
Ġscan ning
Ġscan ner
Ġharvest ing
Ġtempt ations
Ġcontra ception
Ġpeak s
Ġpuzz led
Ġyemen i
Ġlobb ies
Ġpool ing
Ġduplic ated
Ġstalin ist
Ġcrack ed
Ġniger ians
Ġunexpected ly
Ġaver aged
Ġcontrovers ies
Ġkiss inger
Ġoffset ting
Ġgor ge
research ers
ext reme
Ġchampions hips
Ġantibi otic
contin uation
Ġnas cent
Ġkeys er
sur prisingly
Ġsid el
Ġdiscoura ges
Ġmerg ing
Ġfru ition
Ġsubordin ation
Ġindefin ite
Ġinadequ ately
Ġauction ing
Ġspa ghetti
Ġef sf
Ġanno yed
Ġlan cker
Ġhandic apped
Ġastronom y
Ġcock tail
Ġoverr ide
Ġeste em
Ġouter most
Ġalgorith m
Ġeuroscept ic
Ġathe ists
Ġneat ly
Ġconting ent
Ġperse vere
Ġchanne lling
Ġther m
Ġgros ch
Ġsham eless
Ġantagon ism
Ġpronounce ments
Ġunin hab
log ical
Ġles b
Ġamid st
coordin ation
Ġcoward ly
press ure
Ġxia oping
Ġdisgust ing
miss ive
Ġtat too
Ġcater ing
Ġbegg ar
Ġpac kets
Ġfalcon er
job s
Ġnucle us
Ġrainforest s
Ġinterlocut ors
Ġwithhold ing
Ġambival ence
broad ly
Ġunhe ard
Ġhalluc inations
Ġovershad owed
Ġandre as
Ġgol an
Ġvall Ã©s
Ġskil ful
Ġnam ibia
Ġnostal gia
Ġib m
Ġgel at
Ġencoun tering
Ġneuros cience
Ġpip es
Ġcanv as
Ġbip olar
Ġincoh erent
Ġsubmar ine
Ġprotagon ists
Ġparach ute
Ġmedioc re
Ġyuk os
Ġabhor rent
Ġspani ards
Ġscaffold ing
Ġbib lical
journal ists
ĠmÃ¼ ller
Ġrans om
Ġabatto irs
Ġpalli ative
Ġantiqu ated
Ġemancip ation
Ġbren ner
Ġmete or
Ġinsuff iciently
Ġcathed ral
Ġgrocer y
Ġaar hus
Ġjou yet
counterfe iting
Ġmacc ormick
neut ral
Ġuncomprom ising
paradox ically
nig eria
igl ione
ksw agen
Ġunimport ant
Ġundisput ed
Ġwart ime
ĠpÃ¶t tering
ĠfÃ¼ le
Ġuninterrupt ed
Ġchave z
Ġribe iro
Ġfigueire do
Ġvirrank oski
' ;
5 5
6 2
b ureauc
c ents
d b
d Ã¶r
f re
f al
f ler
g ro
g ot
h art
k j
k Ã¡
k illed
k ids
l ag
l Ã©
l abor
m and
m ich
m ac
m ong
m ove
p ill
q addafi
r ud
s am
t ow
t atoeba
v ot
v od
v ine
v ably
w w
w itness
Ã ²
Ġ Ã©
Ġ Ãł
Ġt ect
Ġt ying
Ġt iles
Ġa we
in ants
at he
at ma
Ġw are
Ġc s
Ġo v
Ġp est
Ġp iss
an uel
Ġb red
Ġb Ã©
Ġb ilaterally
Ġm ould
Ġm be
Ġto d
Ġf ans
Ġf use
Ġf da
Ġf lick
Ġf Ã¤r
Ġan ast
Ġan war
ed o
Ġh os
Ġh iz
Ġd iz
Ġd anced
Ġd uck
Ġe mm
Ġand alus
th and
Ġbe ts
Ġbe fall
st ars
st icks
Ġi as
Ġg ab
Ġg omes
Ġl Ã¤n
Ġwh ipped
Ġfor k
id ious
Ġst am
Ġha il
Ġy ale
Ġde er
Ġde gen
ch t
res ol
Ġun productive
Ġun born
Ġsu ed
im f
Ġsh ep
Ġex termination
Ġv and
est ag
ich er
Ġwor ris
Ġpres umed
Ġj ia
Ġk ins
Ġk ratsa
Ġrep ris
Ġmust ard
ans as
ans wer
ab olic
oc ity
oc ated
vel ength
lo th
Ġpl umber
ap ol
Ġdis soci
Ġout p
Ġout cry
Ġri is
Ġri gged
Ġcomp ute
Ġinc l
Ġup right
Ġco zy
tern ess
me mor
Ġpos itives
ok s
lic es
Ġmar co
pt ure
Ġdec reed
Ġunder lie
Ġsp am
Ġdevelop ers
Ġper plex
Ġdiff ered
Ġdiff usion
form ed
Ġbo og
Ġover bur
Ġover time
Ġlo oting
Ġcl ut
Ġter restrial
ath ir
Ġoff ense
Ġho over
Ġho ppenstedt
Ġhuman ist
Ġref oc
Ġref rained
Ġdisc reet
Ġext rater
min ster
Ġla issez
Ġcur bing
Ġdef use
Ġdef enses
Ġreal izes
Ġatt or
alth us
Ġass y
Ġass uring
Ġher ds
Ġcar rots
Ġinter cept
Ġinter section
Ġhope lessness
Ġsc attered
Ġform ations
Ġpresent ations
Ġdon nel
Ġmed iate
Ġfore ns
Ġdown fall
ven e
Ġpower fully
Ġplay ground
Ġprincip led
Ġchild ish
Ġdep op
Ġhand outs
Ġem it
Ġem as
Ġem ir
Ġem ulate
Ġest rela
Ġrest ate
eg f
Ġcor related
Ġcor bey
Ġless en
Ġcomple ments
Ġread able
av i
em ission
Ġfavour ite
sw itzerland
Ġsubject ive
Ġshort en
Ġca us
Ġim itate
Ġhard working
Ġger ms
Ġpat ro
ime ters
Ġfl ora
Ġfl imsy
Ġmor gant
key nes
Ġvis itor
Ġoper ative
Ġchar itable
Ġspecific ity
Ġwater ing
Ġwater tight
Ġmis ses
Ġsl ot
erv ice
Ġpen ny
Ġz en
Ġbor is
Ġty rant
Ġshare holder
Ġer ase
itor ing
Ġgra pe
Ġgra ham
Ġwa velength
Ġbook sh
Ġdest inations
Ġsix teenth
Ġsk ip
Ġconnect ivity
reg ist
Ġmess enger
sh ut
sh od
sh irt
Ġcamp ania
vere st
Ġcy linder
Ġaut oc
Ġcross ings
Ġbit terness
Ġfear ing
Ġste wart
Ġsound ness
Ġrap kay
Ġsan ity
Ġpress ur
Ġindustrial ization
Ġ12 8
Ġsal ient
Ġnote worthy
Ġdece ased
Ġheart ily
Ġ11 2
Ġ11 9
Ġfront al
ber ries
Ġens la
Ġslow s
Ġpurpose ful
Ġcounter ing
Ġwatch es
pol ish
Ġbul bs
Ġkosov ar
iss l
iss ues
Ġign alina
Ġsad c
Ġsad dened
Ġbod e
Ġsil enced
ev idently
Ġappear ances
Ġlu ther
Ġsuperv ised
Ġhar iri
Ġbat tling
Ġround ly
ta o
Ġpred atory
Ġheav ens
Ġ13 8
Ġprospect us
Ġpact s
Ġaccomp lices
Ġquot ation
Ġdetermin ant
Ġcontact ed
Ġbot swana
Ġtransform ative
Ġber th
bit ant
pret ation
Ġuns killed
Ġcondition ed
Ġut tered
Ġsoft ly
Ġeye brow
sk aya
Ġsqu id
Ġshar per
Ġcard iac
Ġmac ao
Ġrig idity
Ġmexic ans
sub sequently
Ġcontrast s
Ġswe ar
imp osed
amb ia
Ġtough est
Ġsexual ity
Ġran king
Ġwat ts
Ġvan ity
Ġsymp h
Ġspl its
Ġexceed ingly
Ġmobil izing
Ġod ious
Ġmort al
Ġideal istic
Ġsick ness
Ġmultip licity
allow ing
Ġsim ulate
har ris
Ġapprox imate
Ġcapt ive
Ġpersist ently
Ġdecre ases
Ġfost ers
Ġannounce ments
eff iciency
Ġinterpre ter
Ġcommand ers
bb led
Ġquarter ly
Ġdiss ervice
Ġnarrow er
Ġmit ter
Ġgh ent
Ġdistingu ishing
rec ital
Ġveget arian
Ġnovel ty
organ ic
Ġprivat ised
Ġhall mark
Ġreloc ated
Ġhypoc rit
Ġcere mon
Ġreun ited
call s
Ġpraise worthy
Ġbond holders
hard ly
Ġescal ate
Ġmath ieu
Ġrum or
Ġath lete
Ġweigh s
oper ative
Ġpand em
depend ent
Ġmah athir
negoti able
liberal isation
Ġcontra vention
Ġpump s
Ġpuzz ling
Ġdil ute
Ġsummar ised
Ġdesk top
Ġmichel in
Ġtag ging
Ġfur thest
Ġmont erey
Ġcompris ed
Ġdeput ies
Ġfold ed
Ġextrad ite
Ġvib rating
[...]
