#version: 0.2 - Trained by `huggingface/tokenizers`
Ġ t
Ġt h
Ġ a
i n
r e
Ġth e
o n
a t
Ġ w
i s
Ġ s
e r
e n
Ġ c
Ġ o
i t
Ġ p
a n
Ġ b
o r
Ġ m
Ġt o
e s
Ġ f
o u
Ġ in
i on
Ġo f
a l
Ġa n
e d
Ġ h
in g
Ġ d
a r
r o
i c
Ġ e
Ġan d
en t
Ġ n
l e
t h
Ġ re
a s
Ġ is
v e
o m
Ġb e
Ġth at
s t
l y
i l
Ġ g
Ġ i
c t
Ġ l
Ġ u
Ġw h
Ġ on
at ion
u t
Ġw e
o t
Ġf or
s e
p e
m ent
i d
Ġ it
u r
l d
Ġc om
Ġs t
v er
c e
Ġp ro
Ġh a
o w
Ġ y
Ġc on
o l
Ġa l
Ġd e
Ġth is
r a
r i
Ġa re
or t
Ġ -
th e
c h
Ġa s
it h
u l
Ġe u
k e
Ġn ot
re s
a y
il l
g h
ou ld
Ġha ve
Ġw ith
i r
m p
Ġy ou
Ġn e
Ġm e
Ġ '
at e
Ġu n
Ġs u
Ġeu ro
ou n
a d
t er
Ġcom m
i m
g e
p p
Ġeuro pe
o p
o re
Ġs h
b le
Ġs e
it y
Ġe x
an d
i ve
u st
s ion
o s
l i
Ġw ill
an t
e re
er s
Ġp ar
Ġd o
Ġ v
u n
a in
es s
c i
es t
ic h
Ġh as
q u
w e
Ġa t
Ġ en
Ġb y
i f
gh t
Ġwh ich
Ġeurope an
i es
Ġ le
s o
m b
Ġw or
Ġg o
Ġc h
Ġc oun
e t
â Ģ
Ġp res
th er
is t
Ġal l
Ġ r
a m
Ġs o
Ġa g
Ġc an
u s
Ġw as
Ġ âĢ
al ly
u re
o d
ro m
Ġl i
Ġi mp
om e
is sion
Ġ j
e ct
Ġh e
Ġo r
Ġre s
Ġthe re
ver y
Ġa b
en d
Ġw ould
Ġp ol
ion s
Ġcomm ission
Ġ k
Ġin t
i v
ou t
ou r
a c
Ġf rom
Ġa m
ar d
a k
al l
Ġpres id
Ġal so
Ġo ur
Ġu s
Ġb ut
Ġsh ould
c on
i g
Ġre p
f f
Ġpar t
a ke
l l
u m
u d
Ġa d
mb er
Ġthe y
Ġm ust
Ġbe en
d er
ou s
Ġm ore
Ġpresid ent
at es
u e
Ġcon t
Ġcoun t
an s
Ġli ke
Ġre g
ation s
re e
Ġp e
Ġa c
a b
o c
re at
as t
is h
ul t
Ġf a
a ment
Ġab out
on e
pp ort
Ġwh at
ic al
Ġn o
Ġ qu
Ġon e
o st
th is
Ġthe ir
s i
Ġne ed
ar y
Ġt r
ve l
a ble
Ġp l
re n
Ġm r
i re
ment s
on g
Ġ 1
l o
e ar
Ġd is
Ġm y
Ġo ut
a p
Ġit s
Ġ very
e m
i e
Ġs ome
an ce
ci al
Ġ ri
Ġwh o
a u
Ġ 2
f or
d u
Ġcom p
Ġa ct
Ġthe se
Ġf in
Ġbe c
Ġin c
ĠâĢ Ļ
Ġwor k
Ġt im
n ow
c ess
op le
li ament
Ġu p
d e
Ġth an
0 0
Ġm an
Ġri ght
Ġun ion
Ġpe ople
r ou
Ġrep ort
Ġpar liament
Ġy ear
Ġst ates
Ġpro p
i z
Ġimp ort
r y
b ut
en ce
t e
a g
Ġex p
r u
Ġc o
Ġa pp
w h
Ġs a
con om
Ġcon s
a re
ter n
f ore
o se
Ġt e
it ion
ri es
t s
Ġp re
Ġe conom
ic e
au se
Ġne w
in k
ation al
en s
Ġo ther
Ġtim e
Ġp o
Ġi f
m e
c es
Ġp os
Ġa r
at ed
e l
i a
Ġm ar
Ġe v
Ġme mber
l ic
c y
o g
o k
a ge
Ġpol ic
Ġthe m
Ġcount ries
p t
m s
Ġcon c
a ch
ac k
Ġn ow
Ġbe t
Ġj ust
is e
Ġh ow
ig n
h e
Ġ ra
am e
Ġon ly
Ġk now
i al
in e
Ġde c
Ġs pe
as e
j ect
Ġan y
c il
Ġun der
Ġt ra
Ġprop os
i ous
pe ct
Ġimport ant
Ġde m
' t
Ġcoun cil
id e
oun d
Ġwe re
t ed
Ġs p
Ġw ant
vel op
Ġe ff
it ies
ut ion
res s
Ġde velop
Ġsu pport
Ġbec ause
c ed
ir st
Ġag ain
th ing
if f
Ġf e
Ġth ink
Ġo b
Ġwh en
Ġw ay
ere n
r ic
e ver
Ġpol it
Ġp er
Ġwor ld
Ġre c
Ġin d
in d
ct ion
m r
il ity
i p
Ġint o
Ġm ake
Ġd iff
u b
Ġpolic y
Ġs ay
Ġs er
le ar
a ce
Ġyou r
Ġb o
Ġin v
un d
Ġo ver
Ġt er
for m
Ġo p
se l
Ġm ad
Ġl o
in t
ver n
Ġha d
ing s
Ġis s
Ġ ro
er n
Ġse e
Ġpro ble
t ain
Ġ- -
v ed
Ġag ree
ul ar
u ch
Ġt ake
Ġs y
i ght
Ġle g
Ġeconom ic
Ġc l
Ġof f
Ġin st
r it
Ġpart ic
v ing
Ġgo vern
k s
Ġv ot
Ġh is
Ġcomm it
Ġt w
Ġtr ans
i gh
Ġf irst
ro w
at ive
Ġin tern
Ġsu ch
the re
Ġmar ke
d ay
li e
th at
Ġman y
ent ion
Ġpro g
Ġyear s
an g
Ġth ose
Ġc ould
u res
a ct
g y
Ġa f
Ġqu est
Ġh ere
si ble
Ġst r
Ġd ire
or s
f ul
Ġsu b
Ġgo od
Ġpropos al
it e
Ġbe lie
Ġpolit ical
Ġe very
Ġfa ct
at h
we en
t ing
i an
Ġf und
Ġg reat
Ġbet ween
Ġpro du
or d
p on
v es
Ġbe ing
e p
Ġmad e
Ġtw o
m m
Ġh um
Ġm o
Ġac c
Ġb as
Ġpro v
Ġde b
u es
at ing
x t
Ġcomm un
Ġt ak
r is
or y
Ġg en
Ġev en
Ġre l
Ġc our
Ġm uch
Ġm ost
Ġdo es
Ġconc ern
il d
Ġg et
Ġl ong
Ġ2 00
Ġc lear
st em
Ġthere fore
ar ge
Ġwh ere
Ġh o
an ge
Ġhum an
Ġwe ll
le ct
Ġre m
Ġcon f
re d
Ġpartic ular
ce pt
w ard
Ġres pon
rou p
Ġsy stem
Ġright s
w n
Ġst ate
Ġm at
Ġg roup
Ġdire ct
Ġp ri
Ġbelie ve
h ow
Ġfin an
u al
ur al
Ġso cial
ou gh
ub lic
Ġapp ro
ĠâĢ ĵ
r at
Ġsa id
Ġdis c
Ġj o
Ġs it
Ġh igh
er ation
a mp
is m
Ġc all
Ġm on
l ud
Ġn u
Ġre f
Ġcount ry
Ġlo ok
Ġm ay
as s
Ġpro t
er al
Ġm in
Ġto o
Ġad d
Ġex t
l ow
re ad
Ġl a
it ed
Ġf ar
Ġam end
ie w
Ġdem oc
w ay
Ġthe n
Ġp ut
iv es
Ġagain st
m in
en cy
Ġmarke t
Ġse c
ere st
Ġpo int
Ġc ur
Ġgo ing
Ġs ame
Ġp r
Ġde f
Ġinc re
rou gh
Ġquest ion
Ġen d
Ġu se
Ġto day
Ġs ol
Ġd id
is ion
Ġre al
Ġint erest
Ġre qu
Ġdiff eren
Ġe mp
m an
i le
Ġm a
Ġ ent
Ġf ut
Ġeff ect
Ġat t
y ou
ren t
Ġfut ure
ar t
Ġcont in
Ġt reat
Ġd es
Ġdevelop ment
Ġp ublic
ge t
Ġs i
Ġth rough
u ation
Ġ1 9
Ġst ill
er tain
l es
ow n
if ic
Ġt ur
Ġn ational
it iz
Ġl ast
wh at
Ġcommit te
Ġo wn
Ġgovern ment
Ġfinan cial
Ġas s
Ġc ol
Ġha pp
Ġhe l
Ġh er
mb ers
al th
Ġiss ue
k ing
Ġre ally
Ġg u
Ġc itiz
Ġreg ard
u ally
Ġg row
Ġme as
Ġprot ect
Ġc ar
Ġwh y
Ġprog ra
Ġs c
Ġle ad
Ġb ud
Ġintern ational
Ġs m
Ġhel p
ent s
the y
Ġ %
as on
Ġin form
Ġle vel
pe t
lo y
Ġcommitte e
Ġres ult
iv en
le ment
ol og
Ġproble m
Ġmat ter
es e
Ġ ke
Ġt al
t y
Ġen v
l ed
is ed
Ġcon st
n ing
con d
Ġcour se
Ġb r
ru ct
Ġcommission er
Ġcons id
Ġp ow
b ility
Ġb ack
read y
Ġm ak
Ġdeb ate
Ġcitiz ens
Ġin ter
Ġv iew
Ġp ers
Ġal ready
Ġsit uation
Ġpos sible
Ġre ason
Ġho pe
a il
o od
g an
sel f
in ce
Ġinc lud
Ġme mbers
ir on
i ed
u th
ill ion
Ġbo th
Ġpro cess
ul ation
Ġb u
Ġex amp
et y
s ure
Ġs ign
ou se
ic t
Ġw ar
Ġc ertain
Ġres ol
Ġcom e
Ġen er
w or
Ġd ra
Ġor der
Ġagree ment
ra ct
Ġc ent
Ġb an
ur ing
Ġenv iron
Ġse t
h ip
ic i
Ġbe fore
Ġenviron ment
b al
Ġa ch
Ġas k
how ever
ch n
Ġco op
er ic
Ġach ie
ci p
or ity
Ġg lo
Ġener gy
Ġh im
t le
Ġad op
Ġf ul
Ġd ay
Ġdifferen t
Ġne g
Ġa ble
Ġsome thing
o ther
ic es
Ġtrans p
Ġbud get
Ġinst it
Ġa ff
f t
l ish
Ġc ase
Ġcom pet
ic ally
Ġcomm on
ut ions
Ġc ap
Ġth ings
Ġla w
Ġcommun ity
ur ther
r ation
g in
Ġvot e
Ġst and
Ġh ouse
n e
Ġinv est
Ġcur rent
Ġm ed
Ġfor m
Ġc ris
in a
om en
Ġexamp le
Ġpre v
Ġd own
Ġwith in
t en
Ġch ange
Ġdisc us
Ġma j
Ġser v
it s
ri but
Ġglo bal
Ġi de
ur ity
ate ly
Ġbe h
Ġpres ent
Ġg ive
Ġmeas ures
Ġm ain
Ġsu c
Ġc a
Ġwith out
Ġf ore
e ur
Ġhow ever
Ġam eric
l u
Ġme ans
Ġpl ace
Ġte chn
Ġl it
Ġl if
Ġin f
e f
m en
Ġtak en
Ġproble ms
Ġimp ro
Ġm od
Ġsec urity
Ġres pect
Ġsi mp
Ġhe alth
is l
Ġstr ate
Ġaf ter
Ġse ct
ver s
Ġnu mber
Ġbet ter
oun t
Ġf ra
t o
Ġa uth
Ġ2 0
Ġb us
Ġde al
c ome
ath er
b e
Ġpr in
Ġun ited
Ġcoop eration
Ġinform ation
Ġpow er
ere d
Ġreg ion
Ġfin d
Ġcris is
Ġs ch
Ġg r
Ġor gan
Ġth ree
Ġleg isl
st and
Ġde p
Ġdirect ive
a ir
Ġr ul
re ed
Ġpl ay
i ly
Ġact ion
it al
Ġob ject
Ġne cess
ent ly
Ġh and
Ġare a
it ions
Ġall ow
Ġprin cip
Ġind ust
l ess
Ġfe w
ab ility
Ġ est
it ive
l and
v en
pport eur
ol low
Ġe lect
Ġ 3
Ġr is
Ġc re
Ġcon d
Ġe m
at er
p h
Ġn or
Ġn at
Ġch ild
Ġp h
Ġwe l
Ġpro m
ist s
Ġd one
Ġa p
Ġe ar
Ġrep res
Ġv al
Ġsh e
wor k
pport un
o v
Ġme et
Ġt a
ut e
Ġact ually
Ġop en
Ġo pportun
Ġtra de
ent ial
Ġre du
ic ult
Ġra pporteur
al ity
Ġf r
Ġsa f
Ġre st
Ġw omen
Ġsh ow
d s
al f
ort s
is ation
Ġs ince
u c
Ġne xt
Ġlit tle
Ġdemoc rat
Ġincre as
Ġs ur
Ġdiff icult
ar ch
Ġc or
ot i
Ġfa v
Ġin de
Ġimp lement
Ġa v
Ġk ind
Ġw ish
or ities
Ġpl an
Ġf ollow
Ġe qu
Ġthan k
Ġin s
Ġrem ain
Ġl ess
Ġin it
Ġexp er
e g
Ġcont ro
Ġb l
Ġen sure
Ġad v
way s
Ġspe ak
us si
Ġac cept
Ġlif e
Ġspe ci
ic k
Ġemp loy
Ġf urther
Ġinv ol
Ġneg oti
Ġtreat y
Ġcomp le
al s
Ġprogra m
Ġwh e
ou ra
s he
Ġv i
Ġc ost
Ġle t
y ing
Ġjo b
Ġiss ues
Ġser ious
c ing
Ġgrow th
ic s
Ġmr s
Ġth ing
Ġse cond
one y
ro s
Ġprodu ct
Ġunder stand
Ġi r
Ġrul es
Ġpers on
li g
Ġb en
Ġconsid er
id ed
Ġg ent
od y
are d
c om
Ġgent le
Ġsm all
Ġan other
Ġnecess ary
Ġr ussi
Ġg iven
Ġneed s
Ġrequ ire
Ġhapp en
Ġleg al
in ess
Ġro le
Ġwhe ther
Ġbec ome
ir d
Ġm oney
Ġamend ments
ad ies
sel ves
Ġre ad
Ġal ways
Ġgentle men
Ġprotect ion
Ġi mm
Ġwho le
c u
Ġpro ced
Ġl arge
Ġse em
Ġpos ition
Ġsuc cess
is ter
Ġeconom y
Ġch ina
si bility
m y
Ġare as
Ġmo ve
Ġcon v
Ġa id
Ġso ci
ra cy
ge ther
Ġc rit
Ġcons um
g g
Ġinit i
p ar
ĠâĢ Ŀ
p er
Ġparticular ly
a ve
Ġsect or
Ġappro ach
th ese
a v
Ġf ree
Ġne ver
Ġre v
Ġus ed
Ġb al
n ess
Ġm il
sion s
Ġm illion
Ġpro ject
our ces
Ġdec ision
Ġprog ress
ros s
Ġresol ution
Ġprogram me
Ġp ay
in es
en se
Ġcont ribut
Ġst ep
Ġta x
Ġeffect ive
Ġfe el
Ġmak ing
y s
Ġf ish
Ġ19 9
d o
en g
Ġre se
ĠâĢ ľ
Ġ es
Ġ ed
im ate
Ġp ract
Ġpresid ency
Ġe as
ab lish
ab ly
r al
le t
Ġcontin ue
Ġop in
Ġgen eral
ult ural
ward s
Ġben ef
Ġp ur
Ġest ablish
Ġto gether
Ġstr ong
Ġ 5
Ġcomp an
Ġspeci f
is ions
Ġl ot
Ġu r
Ġdo ing
Ġwork ing
Ġserv ices
ou ght
Ġe l
Ġrepres ent
n ed
Ġag ric
Ġfa il
Ġfra me
m ore
Ġconst it
n er
Ġd ist
Ġter ms
r or
Ġfor ward
re t
l ar
Ġfav our
Ġme an
Ġst ar
Ġrese arch
Ġter m
Ġinstit utions
Ġpe ace
Ġf ood
Ġm ight
Ġch ang
Ġcontro l
Ġre ach
Ġst ud
Ġproposal s
Ġw rit
Ġstrate gy
m ost
Ġsu pp
Ġp op
Ġf ound
Ġbas is
s w
eren ce
Ġexper i
Ġrel ations
Ġtechn olog
Ġl adies
Ġbus iness
Ġar ound
Ġe ach
Ġbu ild
Ġb ro
o ver
Ġa im
Ġc reat
Ġpo in
Ġc are
Ġamend ment
Ġfund ament
os ed
Ġ 4
ro du
Ġsub ject
Ġcall ed
Ġy et
Ġte ll
Ġit self
ap s
Ġf ac
Ġqu ite
Ġframe work
Ġs ing
Ġon ce
Ġ ess
Ġwel come
Ġli b
Ġbr ing
Ġachie ve
Ġmon th
Ġdemoc racy
i ble
Ġo pp
Ġbas ed
Ġf am
Ġg ot
Ġsh ort
Ġm ention
Ġar t
in ed
Ġex ist
Ġof ten
Ġchild ren
Ġa w
Ġb est
Ġex pect
Ġan sw
Ġtal k
Ġc ri
Ġch all
Ġd uring
Ġb ig
Ġopportun ity
Ġopin ion
Ġst ruct
Ġsu ff
Ġr ather
th en
Ġp le
ag es
Ġdem and
li ght
Ġo ld
iz ed
Ġlegisl ation
ult ure
Ġab s
Ġprom ot
Ġimpro ve
ar m
an ces
Ġacc ount
Ġc lo
g ed
Ġincre ase
Ġext re
Ġag o
Ġvi ol
Ġwh ile
Ġdemocrat ic
Ġs w
iv id
Ġl im
Ġl ab
Ġst art
Ġmin ister
c lear
Ġt ri
Ġbe gin
st ain
Ġint eg
Ġfore ign
f ort
Ġen ough
og n
reed om
Ġi m
Ġmaj or
man y
Ġen g
Ġindust ry
p ri
ant s
Ġreg ulation
oc k
Ġh ard
Ġg er
id es
Ġwe e
as es
Ġb ar
Ġto wards
th ers
mp t
Ġrec ogn
Ġconcern ed
Ġfundament al
Ġadop ted
l ing
if ied
Ġle ast
Ġv ar
Ġide a
Ġres ources
ci ally
Ġprov ide
Ġh ist
Ġrussi a
Ġre t
at ives
Ġf reedom
Ġb or
en ces
Ġre form
Ġaf ric
Ġp at
Ġvot ed
se qu
Ġstand ard
iz e
Ġact iv
i vers
Ġpolic ies
Ġth ird
Ġo c
Ġsu mm
Ġsh all
Ġsoci ety
Ġap pe
Ġc iv
Ġcon g
Ġed uc
Ġreg ul
Ġinclud ing
n ers
end ing
Ġcol le
Ġdiscus s
Ġprincip le
Ġter ror
Ġpro f
Ġac cess
Ġclear ly
ith er
b on
Ġsign ific
ar ant
a ren
w ith
Ġimport ance
wh en
Ġcond itions
Ġpropos ed
Ġciv il
f in
Ġa ir
i b
ie ld
Ġadd ress
m it
Ġris k
Ġtransp ort
Ġgu arant
le g
Ġexp ress
Ġrespon sibility
Ġint rodu
ren g
is ing
Ġsing le
Ġguarant e
Ġh ome
Ġind ivid
o ve
ar ity
Ġexp l
Ġclo se
Ġnegoti ations
Ġm om
Ġl ow
Ġs ci
ou b
Ġtak ing
Ġst reng
Ġwor ds
Ġm or
Ġsu re
pe cially
Ġgreat er
ra ph
Ġv is
id ence
Ġextre me
Ġke ep
Ġemploy ment
Ġmil it
Ġl ist
Ġen c
Ġatt ention
end s
Ġcre ate
ord in
Ġadd ition
Ġrec ent
b ody
Ġan n
fort un
Ġpos itive
Ġes pecially
i od
Ġno thing
Ġam ong
Ġf ight
00 0
Ġful l
Ġpoin ts
Ġindivid ual
er ing
wh ere
in ing
Ġsu stain
Ġp ass
a f
Ġlead ers
Ġl oc
on s
Ġr u
o ol
Ġcom b
Ġcent ral
m ad
ke y
Ġenvironment al
p end
im e
Ġauth orities
Ġf our
Ġsaf ety
u ge
Ġprev ent
Ġm ind
Ġop er
Ġsimp ly
Ġhe ad
c k
Ġp ast
Ġeff orts
Ġre ce
Ġfund s
Ġspecif ic
Ġha ving
Ġpart ners
Ġfor ce
Ġproced ure
t il
Ġch ar
Ġneed ed
Ġf ri
Ġess ential
Ġle ar
h aps
Ġbeh alf
o f
Ġs ou
Ġtr ue
Ġintern al
Ġnu clear
Ġw ater
Ġle ft
Ġth ought
Ġincreas ing
g er
Ġoff ice
Ġquest ions
Ġproduct s
Ġinterest s
Ġpart y
b y
Ġke y
Ġo thers
Ġban k
Ġr un
Ġameric a
at a
i um
us ed
Ġde t
ce ed
Ġmarke ts
ic ial
Ġf oc
Ġis ra
Ġpri v
Ġg re
Ġcomple te
Ġm is
Ġtim es
Ġcl imate
Ġsol ution
Ġyou n
Ġlong er
Ġ z
ar k
Ġcertain ly
Ġtur n
Ġsignific ant
Ġman age
on d
iz ation
Ġconcern s
Ġcompan ies
mad am
Ġst at
Ġc e
Ġper iod
Ġgovern ments
Ġinst ru
ens ive
Ġl ive
Ġse en
Ġe ver
Ġmom ent
Ġmilit ary
f irst
al e
Ġn ame
ir m
Ġappro pri
Ġmak es
Ġm id
u g
Ġch e
Ġconstit ution
fortun ately
Ġdevelop ing
Ġb ur
ul ate
Ġc red
Ġ1 0
Ġansw er
h as
Ġm ot
c o
n o
Ġprop er
e ad
Ġn on
Ġth reat
Ġcont e
Ġch o
Ġwork ers
Ġthem selves
Ġaff ect
Ġcompet ition
Ġinvol ved
b er
Ġeduc ation
Ġte xt
Ġp en
Ġad min
Ġconf lic
ici ent
Ġsub st
air s
Ġfar m
er v
Ġin n
Ġimp act
Ġe le
Ġtur key
Ġregion al
Ġyoun g
Ġtra d
Ġ 6
Ġf ield
v ious
p l
Ġcour t
Ġseem s
Ġl ack
Ġd ata
Ġenc oura
Ġcom es
Ġar g
c ise
ter s
Ġqu ality
l ine
an k
Ġf all
Ġa way
Ġs ense
Ġto t
Ġadmin ist
e qu
s id
Ġan im
Ġcolle ag
ci es
Ġmaj ority
Ġsch ool
Ġas pect
Ġextreme ly
Ġne t
Ġacc ord
ne w
Ġt y
Ġ20 1
Ġcong rat
Ġmonth s
Ġav ail
Ġful ly
Ġi d
Ġadop t
Ġf un
Ġgroup s
Ġinvest ment
ra q
Ġvar ious
Ġspe cial
Ġcap ital
ic ation
Ġd ri
Ġde ter
Ġth ough
Ġent ire
Ġp al
Ġ er
Ġsh are
Ġiniti ative
id ent
Ġg ra
Ġfa ce
Ġevery thing
Ġru le
h o
i ans
Ġd ial
og ue
gg est
Ġsu ggest
as ed
Ġoc c
Ġreg ions
Ġf ive
Ġi raq
Ġo ri
Ġso on
at ic
Ġask ed
Ġdec isions
l a
Ġco h
Ġmeet ing
Ġl ang
Ġcon sequ
Ġag end
Ġjob s
il ities
Ġstreng then
Ġo pt
Ġcomp rom
Ġem er
ces sion
fin ally
ar ian
ic le
l arge
Ġh on
Ġp ot
Ġinde pend
om m
s ide
Ġho ld
Ġemp has
Ġb re
e ch
Ġameric an
Ġcost s
Ġresult s
Ġaff airs
Ġl is
li es
Ġd ang
g ing
ap an
ver al
Ġagric ultural
Ġc ut
Ġstandard s
at ors
Ġprogra mm
Ġe ur
Ġagend a
ific ation
Ġpartic ip
Ġal most
g o
Ġdes ign
it ing
ist an
Ġtr y
Ġsystem s
Ġb illion
Ġrequ est
Ġobject ive
ce ll
a z
Ġlis bon
Ġdial ogue
Ġd oub
Ġgen er
Ġinde ed
st r
end ed
Ġhe ar
Ġqu ick
Ġe ast
me mber
Ġc ir
Ġlang u
Ġreason s
Ġafric a
Ġmod el
n ect
Ġst ability
as h
d en
lu sion
le v
i er
Ġy es
Ġdra w
Ġb ra
Ġpop ulation
Ġc ame
Ġco ordin
Ġun til
Ġprodu ction
ful ly
Ġp a
Ġac ross
Ġt as
on t
Ġwrit ing
Ġaw are
it or
Ġb rit
Ġavail able
Ġwee k
Ġw r
if y
Ġto ok
Ġl ine
Ġ rom
Ġsol id
ri ed
Ġid ent
Ġw a
Ġun e
Ġli ght
Ġv ict
Ġloc al
Ġen large
Ġdo cu
Ġapp lic
Ġlib eral
Ġh arm
Ġass ist
Ġw ent
Ġpart ies
j ust
Ġ 7
Ġg e
s ome
Ġex c
e u
Ġto m
Ġcom ing
Ġj ud
Ġel se
Ġmention ed
Ġa mb
Ġd om
d le
Ġp ric
Ġfoc us
Ġcir c
Ġagree ments
Ġconte xt
Ġf le
Ġtal king
im s
Ġinn ov
Ġlook ing
Ġm ult
Ġl at
Ġtechnolog y
Ġan t
Ġ 8
Ġcurrent ly
ed i
Ġobject ives
Ġsumm it
Ġj apan
c ent
Ġref er
Ġt en
Ġh alf
Ġob s
Ġr ate
Ġper haps
Ġfollow ing
p le
ric t
Ġass ess
Ġc ases
Ġir an
Ġabs ol
Ġbo ok
Ġdem on
Ġse veral
ur y
Ġret ur
Ġp ost
Ġjust ice
ut es
Ġjo int
Ġevery one
im es
ag ed
Ġapp ly
the less
Ġex cell
Ġconv ention
Ġo il
Ġenlarge ment
Ġwr ong
Ġu k
se cond
Ġob vious
Ġbro ad
Ġt arge
i res
Ġcont ain
Ġto p
Ġfin al
i bility
Ġwant ed
Ġabsol ute
Ġs k
or m
Ġhist ory
in de
Ġd est
Ġro ad
Ġrespon sible
Ġdang er
r ing
iven ess
at ory
i o
ar s
us h
ap er
u ed
Ġmatter s
at ch
Ġn ations
Ġconsum ers
ren ch
Ġsi x
om et
im il
Ġmain tain
Ġprogramm es
Ġb ad
ist ic
Ġimplement ation
an ced
Ġconsum er
Ġ 9
p id
Ġpal est
Ġsay ing
r ast
an e
Ġfa ir
si b
Ġany thing
er ia
Ġur g
l f
Ġappropri ate
p ris
Ġw on
Ġre ject
Ġconf erence
Ġchang es
Ġcomprom ise
Ġde ep
Ġs ide
Ġs at
is es
Ġtr ying
inde ed
es sion
Ġinstit ution
Ġd ut
Ġ ve
Ġpre p
h ere
Ġhe ard
Ġst op
er t
Ġp ack
iv ed
Ġday s
Ġisra el
Ġli ving
Ġpo or
Ġsci ent
Ġmid dle
Ġme t
Ġexperi ence
led ge
Ġ ver
Ġmanage ment
Ġpric es
Ġt est
Ġcon nect
imil ar
o id
Ġrec omm
Ġent er
Ġe c
Ġrespon se
mp loy
b our
Ġpro b
Ġmad am
Ġchall eng
Ġde ath
Ġori gin
Ġnat ure
c ri
Ġachie ved
Ġguarante e
Ġexcell ent
Ġm ess
rou ght
Ġval ues
Ġelect ions
Ġpr ice
res sion
Ġfish er
or row
Ġprincip les
Ġval ue
Ġproject s
p s
Ġstar ted
Ġopp os
Ġe ither
Ġne igh
Ġcommit ment
Ġsustain able
iv ing
ab led
Ġpriv ate
Ġm ass
Ġl ink
Ġc ru
Ġg ree
Ġviol ence
Ġf ig
Ġremain s
Ġimm ig
Ġsu per
Ġsub sid
ver ty
Ġpo verty
min ation
b an
Ġus ing
Ġour selves
Ġart icle
Ġinteg ration
Ġsou th
Ġf rench
Ġbor der
re ct
in s
Ġm us
p ite
Ġbenef it
Ġde v
en ing
Ġ1 5
Ġl and
Ġsolid arity
Ġstrate g
Ġl os
Ġserv ice
Ġactiv ities
is f
Ġwe ak
Ġcongrat ulate
li ed
Ġc amp
Ġh uge
Ġli ves
Ġex ch
Ġdis e
Ġse lf
ac y
Ġconflic t
l er
Ġpro s
Ġquick ly
Ġreport s
Ġmon itor
Ġpri ority
us es
Ġger many
Ġal ong
ch an
Ġdec ided
th od
Ġatt ack
Ġup on
Ġst ress
Ġme chan
Ġp ort
p r
Ġd ol
a pp
Ġf l
Ġgre en
Ġhappen ed
Ġconcern ing
Ġconc lud
Ġune mploy
eu ro
f er
l s
Ġm en
Ġfe ll
Ġdet ail
Ġs ent
Ġgr ound
Ġrec ently
Ġfund ing
Ġredu ce
aren cy
Ġref lect
there fore
Ġdemon str
Ġpl ac
as ter
Ġpur p
Ġprob ably
Ġd am
Ġtom orrow
Ġan al
et ary
Ġab ove
ru pt
Ġoff icial
Ġbuild ing
Ġde l
Ġdra ft
Ġconsequ ences
Ġwor d
Ġgo es
Ġc y
Ġd ue
Ġre d
Ġs ort
Ġterror ism
Ġb i
Ġbec om
Ġprov ided
Ġd i
Ġinf lu
Ġfam ily
er ial
Ġbal ance
ure d
tern al
Ġmod ern
Ġto ld
un ch
ve re
Ġit al
Ġdis p
Ġimm edi
Ġnat ural
Ġre lig
Ġdef in
Ġthink ing
Ġtransp arency
Ġpot ential
Ġincreas ed
i ation
Ġbeh ind
Ġob lig
Ġbas ic
Ġbe l
so ci
wh y
or ies
Ġfr ance
euro pe
Ġal one
Ġat te
og raph
en ge
ru ction
Ġb rought
second ly
Ġrequire d
Ġstruct ural
Ġc ause
Ġinclud e
Ġpract ice
Ġle ave
Ġcl os
Ġagric ulture
more over
Ġcomplete ly
in ation
Ġway s
Ġdiscus sion
Ġme thod
Ġspe ech
c al
Ġprev ious
ho ld
Ġ il
Ġper cent
Ġl ar
Ġc ulture
ire d
Ġpalest in
Ġh un
Ġout side
Ġchall enge
re g
Ġre pe
Ġreal ity
Ġpromot e
Ġcru cial
Ġa ut
li ke
Ġcl a
omet imes
Ġl ater
id ing
Ġdoub t
Ġmon etary
Ġind ia
Ġc ultural
Ġev ent
b o
Ġc ross
af ter
Ġth us
Ġear ly
be c
Ġav oid
th ough
Ġchalleng es
Ġex ternal
ive ly
Ġexpl ain
e c
for ms
Ġmove ment
Ġdol lar
u ly
Ġind ic
Ġag reed
Ġsay s
s p
t od
Ġb it
Ġb ri
Ġs ound
Ġd en
g es
Ġst age
Ġimp os
tod ay
Ġ ill
Ġhigh er
ivers ity
Ġhapp y
Ġf ear
Ġas soci
Ġem ission
Ġg l
bec ause
at eral
it arian
Ġcontribut ion
Ġtas k
en sion
Ġh our
Ġdeb t
Ġhe ld
Ġpur s
ru g
Ġeff ort
ar ily
Ġcar ry
Ġro om
Ġget ting
ll ing
Ġregard ing
Ġlegisl ative
Ġrev iew
li f
Ġact ions
Ġrecomm end
Ġretur n
ac c
Ġcommun ication
er ve
Ġdevelop ed
2 0
im um
Ġac cession
t om
Ġv ol
Ġtak es
Ġpartners hip
g est
Ġcolleag ues
Ġcri min
r on
e v
Ġdec ad
Ġpre cise
Ġdire ction
re am
it er
Ġra d
Ġcor rect
u ff
Ġfarm ers
Ġex act
Ġbre ak
u se
Ġvot ing
Ġex cept
Ġtechn ical
Ġlangu age
Ġsat isf
Ġpres sure
w ise
Ġc and
we ll
Ġple ased
Ġbegin ning
Ġe mb
Ġexist ing
Ġas se
Ġnor th
Ġst ory
Ġte ach
Ġp aper
ri al
Ġre member
Ġa ud
Ġassist ance
Ġfor ces
ol ution
Ġgrow ing
Ġl ost
Ġlike ly
Ġlo ve
Ġabsolute ly
in ese
Ġc le
ct ions
Ġreg ime
Ġs an
Ġk ill
wh ile
ous and
y es
Ġcons ult
Ġorgan is
Ġopportun ities
Ġregul ations
ous ly
Ġlab our
Ġf o
ter day
a rent
il ateral
i or
Ġal though
Ġcur ren
Ġstate ment
Ġr ich
Ġcap ac
Ġcre ation
Ġd im
Ġse a
un e
Ġra ised
Ġide as
Ġban ks
Ġl ed
Ġtot al
Ġne ar
Ġequ al
Ġ /
Ġknow n
Ġcreat ed
Ġconf idence
Ġs imilar
en cies
Ġr at
Ġa ge
Ġr ise
Ġpres s
Ġam ount
Ġv ital
Ġcoh es
Ġthrough out
l am
en ed
Ġtra ff
Ġfin ally
Ġcl ass
l ation
ition al
Ġeffect s
Ġsimp le
Ġil leg
m ission
Ġf is
Ġregard s
Ġaspect s
Ġwas te
e ven
in st
Ġf lo
Ġen s
Ġoff er
Ġ3 0
i ally
Ġex am
Ġch inese
Ġread ing
j o
Ġre forms
Ġth ousand
Ġknow ledge
Ġcol l
Ġd rug
Ġext ra
Ġr ates
Ġwon der
Ġcent ury
Ġindust rial
Ġdisc ri
Ġm ist
es tern
Ġmed ia
Ġcrit ic
y ond
Ġprep ared
Ġcand id
Ġal tern
Ġfle x
Ġunemploy ment
Ġi g
Ġinst ead
Ġlevel s
Ġe th
r ist
ver se
Ġd iv
Ġinteg r
mit ted
Ġw al
Ġw est
Ġsuccess ful
Ġreach ed
Ġinter v
Ġw ide
pp ed
Ġeff ici
Ġlear n
Ġcar ried
u ing
p or
Ġde li
Ġexch ange
at or
Ġg ain
Ġstud y
Ġbrit ish
Ġcrit eria
Ġim ag
Ġcohes ion
Ġinterest ing
Ġa ra
ish ed
Ġcomple x
Ġ5 0
Ġauth ority
Ġharm on
Ġw estern
Ġmy self
Ġpow ers
Ġpers pect
Ġc od
Ġ200 0
Ġtr ust
Ġpresent ed
Ġc al
Ġdocu ment
Ġmat erial
it ud
Ġv o
Ġwor th
Ġsw ed
ro p
Ġcirc um
Ġrequ ires
Ġproced ures
Ġtraff ic
Ġb ody
Ġ1 2
Ġbenef its
l t
sel s
Ġpack age
e very
Ġrel ation
Ġs low
Ġch ance
d ict
Ġbudget ary
Ġra pid
ord ers
olog ical
Ġcompet it
est ic
Ġperson al
re ly
Ġs ometimes
Ġwant s
Ġallow ed
Ġsc ale
Ġfun ction
r ary
Ġst ri
Ġtra ining
Ġeas y
Ġpat i
Ġeconom ies
Ġaccord ing
an ia
c an
Ġrespon d
Ġrelations hip
Ġwho se
Ġpri orities
at s
Ġcapac ity
Ġm ill
Ġfri end
Ġintern et
Ġpri m
Ġ 000
Ġbe yond
Ġ2 5
Ġdep end
Ġcon du
ore d
mpt ion
Ġde ad
Ġmess age
Ġsupport ed
i x
Ġa ust
Ġinstru ment
Ġencoura ge
Ġparliament ary
Ġear th
Ġr ural
Ġsec ret
Ġcol lect
h a
Ġscient ific
Ġg iving
f urther
Ġev ents
Ġger man
Ġinnov ation
re h
Ġs al
Ġf ed
Ġcompan y
Ġfisher ies
Ġter rit
Ġthan ks
Ġtreat ment
Ġre new
ĠâĢ ĺ
Ġinc ome
Ġg as
Ġsa w
c er
Ġrep ublic
Ġhigh light
Ġemission s
Ġint el
d om
Ġnot e
our ce
Ġprodu ce
Ġvict ims
Ġch rist
Ġsp ace
Ġprov isions
Ġrequire ments
Ġfam il
Ġre con
Ġgr ant
Ġanim als
Ġt abled
ther n
Ġform er
Ġfell ow
t on
Ġrem ind
Ġg ave
Ġ1 1
Ġrece ived
Ġexact ly
Ġp ie
Ġun d
Ġfr ont
oura ble
a ff
Ġm er
Ġpri me
Ġreg ret
Ġis lam
Ġde ce
Ġmin utes
Ġwe ap
Ġte mp
y et
Ġw in
Ġcri me
ris on
Ġs ens
a ction
Ġestablish ed
Ġhe art
Ġadv ant
sib ilities
ar ing
Ġit em
Ġl ate
Ġsol utions
Ġexp ort
Ġinstru ments
Ġb orders
Ġcomp ut
Ġpolit ics
Ġcreat ing
f ect
Ġc op
Ġele ction
Ġi re
un fortunately
Ġyes terday
b ia
Ġde g
ot s
Ġiniti atives
Ġhist or
Ġmonitor ing
Ġp ict
re ci
Ġv ir
Ġsubst ant
Ġire land
Ġpre par
Ġshow s
li er
Ġneigh bour
Ġsh own
ici ans
c a
Ġre lev
Ġaddition al
a ign
Ġleg it
Ġsupp ly
Ġadminist ration
Ġocc ur
Ġindepend ent
Ġcircum st
gh an
Ġcamp aign
Ġsp ir
Ġcondu ct
Ġmor ning
Ġconc lusion
Ġunder t
a ut
Ġd r
Ġnor m
Ġwill ing
Ġsuc ceed
Ġilleg al
i et
Ġexpress ed
Ġuk ra
n am
Ġpart s
Ġcurren cy
Ġstrateg ic
li ance
Ġcons ist
rast ruct
Ġcrimin al
om p
Ġse par
Ġarg u
Ġqu ot
Ġmed ium
Ġcoun ter
g ar
Ġsc o
Ġanal ys
Ġmeas ure
th ank
Ġinf rastruct
Ġfish ing
Ġpurp ose
first ly
Ġn ight
r ound
Ġdec ide
Ġinflu ence
Ġconv in
u ine
Ġrec ord
Ġbusiness es
Ġcompetit iveness
ver age
ac cept
Ġas ia
Ġact ive
Ġgood s
Ġgu id
Ġdel ay
Ġt ack
Ġm and
he ad
Ġf irm
Ġserious ly
Ġto ol
Ġcircumst ances
Ġris ks
Ġpol ice
Ġsp ending
und red
s h
Ġfis cal
Ġw atch
oun ts
Ġk ing
Ġinvol ve
Ġinclud ed
Ġpract ical
Ġun accept
Ġfri ends
Ġorganis ations
Ġgen uine
Ġdef ic
Ġlim ited
Ġcred it
Ġaf ghan
Ġext ent
Ġm al
Ġst ay
Ġp ain
Ġpol l
Ġf ue
am a
Ġwork ed
ag raph
Ġant i
v al
Ġon es
Ġdes cri
Ġredu ction
Ġincreasing ly
Ġb ul
Ġconsid ered
Ġimplement ed
il t
qu e
Ġper form
Ġlim it
Ġdanger ous
an ish
ort ion
Ġwee ks
n ot
Ġm ig
ure au
Ġapp reci
Ġview s
Ġapplic ation
Ġimmig ration
u mp
os ov
Ġhigh ly
Ġeffective ly
Ġpa id
further more
o int
Ġcont ent
Ġb ureau
Ġag ency
Ġty pe
Ġunaccept able
b ed
r ative
se c
Ġprov ides
Ġminister s
Ġwar m
Ġeas tern
Ġmot ion
Ġchang ed
Ġann ual
p re
s es
Ġf low
itud e
k now
ent ions
Ġinstitution al
Ġs en
Ġoppos ition
Ġdise ase
u mption
Ġapp lied
Ġconst ruct
Ġspeak ing
Ġimpos sible
Ġcomm er
Ġinvest ig
s ince
Ġev idence
Ġrest rict
Ġbri ef
d p
on es
Ġc at
il it
Ġk ore
Ġpos sibility
b s
Ġout come
Ġce ll
Ġdes pite
Ġeffici ency
Ġple ase
l ast
Ġc ou
Ġk osov
Ġfail ure
Ġh undred
st er
Ġst e
Ġ200 7
n a
Ġs l
Ġk id
Ġdiscus sions
o ke
im ately
Ġex er
Ġany one
Ġdiscri mination
Ġfor get
Ġrel ating
Ġpalestin ian
Ġg ives
Ġname ly
l in
Ġra ise
Ġcommit ted
Ġch a
Ġdec lar
Ġfail ed
Ġassess ment
h ood
Ġde leg
Ġprecise ly
Ġdece mber
Ġper fect
olog y
n ever
equ ate
Ġperspect ive
Ġc ity
Ġcho ice
Ġocc as
Ġspe ed
for ce
Ġuse ful
Ġbu y
Ġeuropean s
Ġsect ors
Ġdom estic
is s
Ġd ate
ri a
Ġen orm
land s
Ġm ut
Ġen able
Ġstep s
Ġdiscuss ed
Ġstat us
Ġcoordin ation
pp ing
iv ity
Ġsee k
Ġrel ated
Ġaccept ed
Ġrelev ant
Ġh y
Ġun fortunately
Ġaffect ed
k ed
Ġ1 8
Ġmis s
Ġpar agraph
Ġactiv ity
Ġfor ms
y l
Ġtr uth
Ġdec l
Ġhapp ens
Ġcom ments
Ġto ur
Ġhuman itarian
s uch
Ġcall s
pris es
it able
Ġpro ceed
Ġj e
Ġbo ard
Ġdist ribut
a h
Ã ©
Ġpl ans
Ġcomp reh
âĢ ĵ
Ġanim al
an y
Ġg ir
Ġdirect ly
at ure
Ġcom ment
Ġhappen ing
Ġsco pe
Ġfin ance
Ġmed ic
an u
Ġch air
Ġnew s
par liament
Ġgree ce
Ġear lier
i ra
Ġchar act
z e
ou ble
Ġdeal ing
Ġclose ly
ens us
c ertain
l om
ust om
re st
Ġkosov o
c ul
Ġjo in
Ġig n
Ġcontribut e
Ġs ad
Ġu lt
Ġinfrastruct ure
Ġca used
Ġbl ack
Ġrussi an
Ġt able
Ġsu n
Ġall oc
Ġrepresent atives
Ġread y
Ġcrit ical
Ġconnect ion
o b
Ġaltern ative
Ġ1 00
ll ed
Ġd ip
ag ing
Ġev al
Ġ200 8
Ġw ind
Ġh or
um e
Ġqu al
Ġcl ar
Ġexp lo
Ġconc ent
Ġover all
Ġweap ons
Ġconsider able
Ġcond em
Ġrece ive
Ġwork s
Ġhour s
Ġla unch
Ġty p
Ġar ri
Ġauth or
Ġd ict
Ġcon cept
Ġun ivers
end it
Ġtri ed
Ġeff icient
Ġref uge
Ġaim ed
Ġspir it
Ġgo al
Ġpre t
u ard
ly ing
ate ver
Ġrel ative
Ġunderstand ing
Ġobvious ly
Ġclos er
i k
o very
Ġb od
se t
us sels
Ġorgan isation
Ġbe aut
Ġj une
Ġ19 8
Ġdemand s
Ġconstitution al
Ġdifferen ce
Ġbec ame
Ġguid el
Ġen jo
Ġmar ch
Ġra il
Ġref eren
Ġsci ence
Ġfo ot
Ġ200 9
Ġbecom ing
Ġab ility
Ġlead ing
it ious
Ġsur v
ur ally
Ġco ver
Ġhun g
Ġre in
Ġlook s
Ġ $
Ġsu d
Ġfinan cing
Ġst ru
Ġrep l
if t
Ġcons ensus
Ġthousand s
Ġs il
Ġf re
Ġun i
Ġad ap
Ġconf irm
Ġenter prises
Ġconvin ced
Ġwor se
wor ks
Ġpen al
c le
Ġdef ence
Ġimpro ved
Ġfac ing
Ġadminist rative
Ġbeh av
Ġ4 0
Ġp rison
cu p
Ġas king
Ġse x
Ġref erence
Ġdam age
l ant
Ġs end
Ġukra ine
Ġdip lom
w ill
an n
Ġg one
Ġknow s
Ġtra vel
Ġlaw s
Ġdifficult ies
Ġeng lish
Ġp ath
Ġwh ite
Ġst ra
ag n
Ġsp ent
Ġob tain
Ġpolit icians
Ġappro ved
Ġh ar
th ose
Ġsh ip
Ġtechnolog ies
Ġprof ession
r ane
r ants
Ġb lo
Ġneg ative
d ra
d am
m a
Ġh op
lu sions
Ġrelig ious
Ġcont ract
Ġmo ther
Ġdifferen ces
Ġsaf e
Ġa head
Ġs lo
Ġcharact er
Ġr ound
Ġmo ving
ac ed
Ġgovern ance
Ġrev olution
Ġcomp l
ord ing
Ġdut y
f act
ol id
Ġprodu ced
Ġbus h
Ġsuff icient
Ġbra in
er ves
anu ary
Ġful f
Ġappe ar
Ġafghan istan
Ġdevelop ments
Ġcompet itive
Ġenorm ous
Ġj anuary
Ġport ug
Ġright ly
Ġbr ussels
e x
ak istan
Ġleaders hip
Ġsit ting
Ġb at
Ġconst ant
Ġredu ced
h is
Ġw to
Ġl u
Ġcont rary
Ġprov iding
Ġann oun
Ġph ys
Ġl og
ment al
ur ance
acc ording
never theless
p ol
is ms
âĢ Ļ
Ġar r
Ġsuper v
Ġafric an
Ġconclud e
Ġdollar s
Ġundert ak
im in
Ġj our
Ġput ting
Ġguidel ines
alth ough
Ġw all
Ġpict ure
y a
Ġrepres ents
Ġamb itious
Ġurg ent
Ġ1 4
Ġprov ision
yl um
u fact
Ġf il
ver t
Ġplac es
Ġens uring
Ġmin imum
ple ase
r ate
Ġconc lusions
Ġbod ies
Ġc ustom
un der
Ġ1 3
Ġinterest ed
Ġdim ension
u p
Ġconsid eration
Ġ201 0
Ġe at
Ġimpro ving
Ġadopt ion
Ġentire ly
on ly
Ġlow er
Ġnet work
op h
Ġexpect ed
Ġhon ourable
Ġcla im
Ġcompreh ensive
Ġc r
un t
Ġbu ilt
am es
Ġinf lation
c ers
Ġp ush
Ġas ylum
Ġsh a
Ġob st
Ġbud ge
Ġcor rupt
vere ign
iter rane
re et
Ġf ather
Ġse p
Ġman ufact
Ġexp endit
Ġsp read
Ġtur ned
Ġindepend ence
iterrane an
ar ies
eg uard
Ġstruct ure
m ed
Ġt on
Ġmed iterranean
Ġbe gan
Ġg dp
Ġsp ain
Ġp akistan
te mber
Ġhand s
Ġequ ality
Ġanalys is
Ġso vereign
Ġhe av
Ġ200 4
Ġir ish
Ġparticip ation
Ġbal anced
ist ics
Ġadd ed
Ġvo ice
Ġcoop er
Ġsaf eguard
Ġtot ally
Ġital y
Ġara b
Ġsome one
Ġcomb at
Ġpros pect
Ġcolleag ue
Ġelect ed
Ġimmedi ately
Ġt re
Ġdecad es
el t
eren t
iz ing
Ġcons erv
Ġsch em
Ġdemocrat s
Ġproper ly
Ġn ice
Ġfore st
Ġinterv ention
Ġst aff
Ġcommit ments
Ġcandid ate
Ġh it
om an
Ġtal ks
Ġc ra
Ġprop ose
end er
Ġsep tember
Ġp ra
Ġst ated
Ġfig ure
Ġatte mpt
Ġ 0
Ġbe ar
Ġgo als
Ġsimp lif
Ġoc cup
Ġa verage
Ġm ach
Ġur ge
Ġadvant age
Ġl ay
Ġac know
Ġp act
iv al
Ġte am
Ġstar ting
Ġve h
Ġcommer cial
ic les
com ing
Ã ¶
Ġge or
Ġs ources
Ġn one
Ġl ose
ur d
Ġst reet
Ġtur k
Ġbur den
Ġn ation
Ġre act
Ġsp end
Ġfe ed
Ġexcept ion
Ġdo ct
Ġapp lies
Ġacc omp
Ġlook ed
Ġplan et
Ġs ource
oc ol
m es
u ght
Ġman aged
uc k
Ġsupp osed
Ġlar gest
Ġwh om
Ġun f
Ġdis aster
ent ially
Ġcomp ens
Ġsol ve
Ġele ments
en e
th ird
ke t
Ġsu s
Ġle a
Ġstrong ly
an im
Ġe ight
ak es
Ġcompl ain
y ed
Ġen h
Ġmay be
Ġrefer red
Ġpie ce
Ġd a
Ġimag ine
Ġrec overy
y e
Ġin h
Ġex cess
Ġevery body
Ġor d
Ġopen ing
Ġm ission
Ġ200 5
Ġ200 6
x ic
Ġst ock
Ġme rely
Ġint ended
Ġsupport ing
f r
Ġredu cing
Ġintrodu ced
Ġnorm al
ir ms
Ġfac ilit
m ine
Ġcall ing
Ġdra wn
Ġappe ars
Ġdiscuss ing
Ġreferen d
Ġwe alth
Ġb ir
ent ed
ill s
Ġmechan ism
Ġking dom
Ġstud ents
e li
Ġf ast
at ically
or k
Ġintrodu ction
aren ts
Ġwith dra
Ġset ting
Ġpower ful
Ġaccept able
Ġexpl an
Ġflo or
re te
Ġfor ced
au ght
Ġinc ent
el s
Ġtrans fer
au gh
Ġbudge ts
f rom
l us
Ġac qu
Ġappe al
Ġcle an
Ġh ost
Ġse ven
Ġmembers hip
Ġtarge ts
Ġt un
Ġc ro
Ġdo or
if ul
Ġnat o
Ġf if
Ġso ld
oc ks
d es
re p
Ġtr uly
Ġarr ange
Ġp et
Ġtransp arent
Ġvis it
inst ead
Ġo ught
Ġcons umption
Ġbureau c
Ġaim s
Ġemer g
Ġad just
Ġfollow ed
Ġsan ctions
l ines
Ġop eration
Ġsur pris
Ġsuff ering
Ġs ides
Ġs ize
it ation
Ġprodu cers
Ġun able
Ġfra ud
en ced
Ġme ant
Ġch em
Ġaccord ance
Ġdeter min
Ġconc rete
Ġcontin ues
Ġaddress ed
Ġp ub
Ġwh atever
Ġinc or
Ġgreat est
Ġw oman
Ġmain ly
Ġintrodu ce
Ġnet works
Ġrespon sibilities
Ġdest ro
Ġfamil ies
id ents
us ing
Ġachie ving
Ġexpendit ure
p ut
Ã ¡
ul ated
Ġspecif ically
u ations
Ġemphas ise
Ġb ot
Ġv ul
Ġcomput er
Ġkore a
Ġd on
ok ing
e es
Ġag encies
Ġdrug s
Ġmo b
Ġcommun ic
Ġl ines
Ġrep ly
Ġun anim
Ġinform ed
Ġne ither
Ġpre fer
gy pt
Ġins ide
Ġspeci es
Ġpromot ing
Ġflex ibility
Ġdeg ree
o on
Ġdo g
Ġman ner
Ġofficial s
Ġv ision
Ġgra du
Ġwor ry
Ġper man
Ġopp osed
Ġe yes
i j
Ġg ame
Ġs ession
Ġl ies
Ġsh ared
Ġro b
Ġlet ter
Ġobs er
s y
Ġo ct
Ġco ld
Ġwa it
Ġf elt
Ġd ream
Ġcont act
Ġrepresent ative
Ġdesign ed
Ġrom ania
Ġpub lish
Ġcomp lic
Ġcontin ent
Ġameric ans
Ġplay ing
Ġ1 6
Ġvul ner
Ġmean ing
Ġc ard
Ġsens itive
pe ople
com mission
Ġdeclar ation
Ġpret ty
m as
Ġcomp ar
Ġact ual
Ġcare fully
Ġb er
ro g
Ġother wise
Ġtrans form
Ġre le
Ġgo d
Ġhim self
Ġca uses
Ġsec ure
Ġrun ning
Ġbeaut iful
z y
or ry
Ġd y
ar ks
ve mber
Ġno vember
Ġi i
Ġfor th
Ġcontain s
Ġp un
Ġfact or
Ġmethod s
Ġmill ions
go vern
Ġfig ures
Ġimmedi ate
Ġdeleg ation
Ġint ention
ab il
Ġconstruct ive
ent y
Ġst im
Ġcan cer
Ġreg ular
Ġintegr ated
Ġ1 7
Ġatte mp
ro so
Ġdis app
Ġisra eli
lant ic
Ġp arents
Ġeng ine
Ġd er
Ġprev ention
Ġexer cise
Ġpros per
Ġsubstant ial
res pon
Ġwel com
Ġrecogn ition
Ġtrad itional
Ġreject ed
Ġbel g
Ġturk ish
Ġe lement
Ġdef end
Ġelect ric
oura ge
Ġt end
Ġs ized
Ġres ist
Ġ200 1
Ġlead er
Ġdocu ments
Ġcont ra
Ġmor al
Ġst rict
Ġsh o
Ġte le
Ġsp anish
ate ful
Ġ200 3
Ġaff ord
Ġlim its
Ġreferend um
Ġw id
er y
Ġto uch
ul ations
Ġinst ance
Ġex ec
Ġfac ed
Ġchar ter
Ġh om
ur s
op s
Ġimprove ment
Ġrepe at
Ġt ren
Ġser ve
Ġaud it
n es
mr s
Ġcommun ities
Ġvir t
c l
Ġsa v
Ġsupport s
Ġdes ire
Ġmus l
t ic
Ġparliament s
Ġke pt
Ġlarge ly
Ġresol ve
Ġins ist
per haps
Ġ199 9
Ġsubsid ies
st ood
Ġdeli ver
Ġcou ple
o ber
Ġh ot
Ġe gypt
Ġdis ch
Ġar ms
Ġstruct ures
Ġcomb ating
Ġoct ober
an other
Ġcar s
Ġdeal t
Ġmechan isms
Ġstru gg
v iet
Ġy ork
Ġinvest ments
Ġattack s
f are
Ġst uff
Ġrecogn ise
Ġtarge t
commission er
Ġsign ed
Ġwa iting
Ġgl ad
ag en
Ġgen eration
Ġimplement ing
Ġwish es
Ġpoin ted
Ġd iversity
ate g
Ġobst ac
Ġcorrupt ion
Ġpol and
Ġsee ing
Ġexp orts
Ġfact ors
Ġcontin uing
Ġlear ned
Ġemer ging
Ġintel lig
Ġco al
Ġlab or
Ġcha mber
Ġun s
Ġob ama
Ġyour self
Ġcontin ued
Ġexamp les
Ġrefuge es
Ġ200 2
Ġindividual s
Ġtour ism
b r
Ġr ange
Ġso viet
Ġplay ed
Ġpass eng
Ġital ian
Ġp an
Ġb on
Ġf ire
Ġdefic it
en h
Ġaut om
Ġp ill
Ġprot ocol
Ġfed eral
m ay
Ġst ake
ill ed
Ġcar bon
Ġeas ier
Ġpos itions
Ġrapporteur s
Ġpract ices
Ġcred ibility
or ary
Ġar rest
Ġla id
Ġwrit ten
Ġdy nam
l adies
Ġc ateg
Ġgr ateful
Ġbring ing
Ġgree k
Ġdefin ition
Ġasse mb
in ary
Ġstreng th
Ġatt ract
Ġeng age
Ġhon est
m os
Ġo k
Ġ20 20
t a
wh o
Ġsa ve
Ġser ies
Ġbas ically
Ġchang ing
Ġterror ist
Ġmut ual
Ġ2 1
Ġset t
sib ly
f e
m ark
n ic
in y
it ch
Ġcon ver
ted ly
Ġext end
Ġspeak ers
Ġpay ments
Ġt ro
Ġk y
ab les
Ġsy mb
Ġsubsid i
Ġswed en
Ġc ities
an a
Ġfeel ing
Ġdom in
Ġrenew able
Ġso ft
Ġma x
Ġstrengthen ing
r s
Ġadv oc
Ġpop ular
Ġbar ri
Ġfight ing
Ġ6 0
Ġmass ive
Ġb ound
Ġter ri
Ġnor thern
Ġkind s
Ġpass ed
Ġorigin al
Ġdr ink
Ġmand ate
Ġpart ner
Ġfin e
Ġinclud es
Ġresol utions
Ġrecommend ations
Ġb om
Ġh ous
o in
Ġel imin
Ġche ck
Ġmus ic
Ġb ase
Ġstate ments
Ġatt itude
Ġopt ion
Ġw o
Ġhelp ed
Ġconsult ation
Ġlat in
Ġbecom es
Ġcod e
b it
Ġme ps
Ġunder stood
Ġmin ority
Ġgr and
Ġkid s
Ġad equate
i ers
ve red
Ġtax es
sequ ently
Ġhead s
Ġlos s
Ġcond ition
Ġchrist ian
third ly
th us
Ġexp ression
go ing
Ġsymb ol
Ġb ill
Ġh ur
Ġvot es
Ġregul atory
ro ad
m atic
Ġth or
Ġc ourage
pr ise
z il
it es
Ġf ix
Ġcom pe
Ġimp lic
Ġprop ortion
Ġtreat ies
Ġph il
Ġestablish ment
des pite
os es
Ġbar roso
Ġj uly
Ġlist en
Ġgener ally
Ġlink ed
Ġc ub
Ġst o
Ġr id
Ġdeb ates
Ġbrit ain
Ġfue l
Ġwithdra w
Ġrem ark
on y
et ic
enh agen
z one
Ġact s
Ġplan ning
Ġlangu ages
Ġs orry
ing ly
Ġfor g
Ġinc red
Ġcl osed
Ġsub mitted
Ġdra f
Ġph ot
Ġins urance
Ġeas ily
t ur
Ġadap t
Ġab ol
Ġpo ore
Ġget s
ra id
im b
Ġco vered
Ġdirect ives
5 0
Ġre ven
as sion
il ing
Ġu t
ot e
Ġ2 7
ind ing
Ġcho ose
Ġdisch arge
ad e
Ġaf raid
Ġwel fare
Ġpati ents
p ir
Ġnu mbers
Ġsm es
Ġequ ally
p ret
as ters
Ġte lev
Ġeven ing
Ġfre qu
Ġpres ence
Ġris ing
Ġmist ake
Ġincor por
g round
Ġd ig
Ġsp ok
ak ing
ap pe
Ġacc ident
Ġcontrol s
Ġobs erv
Ġcritic ism
Ġun certain
Ġbal k
Ġestablish ing
Ġtrad ing
Ġdri ve
Ġk new
Ġlear ning
Ġchem ical
Ġperman ent
Ġpro ve
Ġprot est
Ġconst ruction
Ġsign al
Ġmed ical
Ġemploy ees
ron ic
h n
Ġe ye
Ġme m
ru it
Ġconflic ts
Ġrepe ated
Ġtack le
s k
Ġun like
Ġbig gest
Ġcondem n
Ġc ult
Ġpe op
Ġcor por
Ġident ity
Ġlar ger
Ġd ie
Ġglobal isation
Ġim f
Ġguarante es
Ġbook s
k en
Ġelect or
Ġpeop les
h ib
Ġqu ant
Ġdise ases
Ġoblig ations
Ġbel ong
Ġkill ed
Ġtra in
Ġsp oke
Ġbo y
Ġnat urally
Ġexper ts
Ġur ban
bo th
Ġoccas ion
Ġo ce
Ġsee king
Ġinvest ors
Ġappreci ate
b or
d i
Ġcons olid
Ġdec is
Ġprofession al
Ġtelev ision
c ast
Ġb ilateral
Ġmeet ings
Ġrelative ly
Ġblo od
Ġgeor g
Ġvulner able
and on
Ġreason able
Ġcop enhagen
Ġlu x
or se
Ġse vere
Ġsocial ist
Ġ19 7
Ġtechnolog ical
Ġcare ful
Ġtraffic king
Ġlegit im
y our
Ġg ender
ri ght
Ġv ast
Ġso le
Ġpen sion
Ġjapan ese
Ġprotect ing
Ġgrant ed
et ies
Ġsepar ate
r il
Ġn g
Ġbe lar
Ġab andon
Ġar ch
Ġf irms
Ġex ists
Ġsit uations
Ġhelp ing
Ġreach ing
d ing
i ence
Ġbr ings
Ġbl ock
Ġpeace ful
k es
t w
Ġpl ant
Ġcomp ared
Ġliberal isation
Ġr out
Ġexpect ations
Ġsubsidi arity
Ġbelar us
Ġdis appe
Ġexp and
rat ic
Ġswed ish
Ġinvolve ment
Ġdecad e
Ġal liance
um er
Ġstrong er
Ġstud ies
Ġimp osed
Ġam az
Ġph en
Ġperform ance
Ġre n
Ġus ually
Ġar my
Ġparticip ate
Ġpoll ution
w ide
Ġto wn
Ġst able
Ġstand ing
Ġassemb ly
Ġco ast
Ġ199 0
Ġphen omen
Ġb os
Ġwor st
Ġsp ort
Ġend orse
Ġbra zil
Ġdefin ite
Ġult imately
r ant
Ġdis pl
Ġap ril
Ġansw ers
Ġple as
Ġthor ough
on ce
Ġag g
Ġmin orities
Ġatt ach
Ġsumm er
Ġde light
Ġappro val
Ġallow s
Ġwrit e
Ġsud den
Ġun less
if ying
Ġapp arent
Ġexc lud
en ary
ab or
Ġcri mes
Ġair p
Ġassoci ated
Ġto ler
Ġin ev
Ġan g
Ġint end
Ġmo bility
Ġelse where
Ġ8 0
ster dam
h ol
Ġpl ants
Ġexp ensive
Ġent it
Ġresol ved
Ġins pect
Ġdri ving
Ġcomplic ated
p res
r ich
t ies
Ġ ice
Ġne ther
Ġsp ring
Ġfind ing
Ġterrit ory
Ġinter pret
Ġsignificant ly
Ġnear ly
Ġin ad
Ġis ol
os p
Ġinit ial
Ġec b
Ġconsist ent
Ġcent re
ne y
Ġest im
Ġsoci eties
Ġimprove ments
Ġcell s
Ġnether lands
Ġrem arks
stand ing
Ġschool s
gar ia
g iven
Ġs qu
ress ive
Ġvol unt
Ġbir th
g ment
Ġcap able
Ġstat istics
Ġb inding
Ġplac ed
Ġislam ic
Ġelectric ity
Ġ x
is on
it ution
Ġpl enary
Ġdef ined
Ġorgan ised
Ġhundred s
i ar
n ia
Ġto b
Ġsh ar
Ġam sterdam
Ġcitiz en
Ġban king
Ġbor n
Ġcollect ive
Ġpolit ically
Ġfunction ing
Ġex e
Ġdep ends
Ġrest ruct
Ġexist ence
Ġrad ical
Ġeval uation
Ġunivers al
Ġarrange ments
m ar
Ġc atch
Ġcommitte es
Ġtalk ed
pr us
Ġassoci ation
Ġargu ment
Ġenjo y
d uring
Ġsome what
Ġd ign
Ġcon ce
the ir
eng en
Ġpromot ion
Ġemphas is
ci ous
Ġen force
Ġsmall er
Ġopt im
n al
an cing
Ġrem o
Ġimmig rants
Ġc ore
Ġm ic
Ġd ied
le ep
Ġwe ight
Ġse ll
Ġprotect ed
Ġcompet ence
Ġad vert
Ġoff ers
Ġtas ks
h ave
Ġorgan ization
Ġim age
Ġprim arily
Ġc ast
Ġb ab
Ġacc ounts
do es
Ġsav ings
lo ok
Ġbelie f
Ġrelig ion
Ġargu ments
ent h
le ction
Ġam ounts
Ġfact s
Ġent ry
Ġlead s
Ġsur ve
Ġoper ate
Ġencoura ging
Ġmaterial s
Ġprosper ity
it ness
ul ating
Ġperson ally
Ġabs ence
Ġlab e
Ġvar i
with out
Ġdemonstr ated
Ġbul garia
Ġp ul
Ġeuro zone
Ġjust ified
Ġworld wide
Ġcontribut ions
Ġoper ations
Ġdut ch
Ġdetail ed
Ġd ark
Ġg al
Ġpar al
Ġhigh est
Ġtreat ed
Ġsch engen
Ġsou thern
Ġcy prus
Ġextra ordin
Ġg az
Ġpro ved
Ġqu ar
Ġpat tern
Ġlegit imate
Ġdetermin ed
d id
on ia
Ġre tain
act ory
Ġemerg ency
Ġspok en
Ġm oun
Ġrecogn ised
Ġkeep ing
n or
Ġs light
ap se
Ġpropos ing
Ġge ograph
Ġmig ration
Ġdistribut ion
Ġstra ight
Ġportug al
Ġschem e
Ġdep art
Ġdemonstr ate
Ġre li
Ġtrans ition
Ġinter govern
Ġshow ed
Ġadv ance
Ġaudit ors
Ġfa ith
Ġpropos es
Ġfav or
Ġtax ation
Ġrestrict ions
Ġveh icles
Ġintergovern mental
u sion
Ġc z
Ġc am
Ġpro c
Ġz one
Ġtool s
c ks
Ġbe ings
Ġperson s
Ġprim ary
oin ted
Ġfor t
Ġinvol ving
Ġoppos ite
Ġevent ually
sy ch
Ġp sych
Ġf at
Ġac ce
Ġtemp orary
Ġsha pe
b ur
p ay
u able
le y
Ġpre m
Ġap art
Ġver sion
Ġbarri ers
Ġm ag
Ġre ve
Ġpri or
Ġext ended
Ġstand s
il st
ish ing
Ġsome body
Ġfoc used
Ġannoun ced
b ru
u gh
v est
Ġp ick
Ġb all
Ġun iversity
Ġv ig
com m
Ġproper ty
Ġdescri bed
Ġtyp es
Ġcompens ation
Ġamong st
Ġflex ible
Ġp ure
Ġadv anced
Ġnegoti ating
ove red
Ġhold ing
Ġintel lect
Ġheav y
re es
Ġprom ise
Ġrapid ly
b ing
i ent
r ated
Ġh osp
ra in
Ġequ ip
Ġlat ter
e e
Ġn os
ag ree
Ġeth nic
ad ow
ac co
Ġimport s
Ġbo ost
Ġrespect ed
ond on
Ġjud icial
Ġpurs ue
Ġwal k
Ġlegitim acy
Ġdelight ed
or ial
em ic
Ġlit er
Ġwonder ful
bru ary
Ġm ac
Ġimp ose
Ġlat est
Ġcz ech
2 00
h r
m ing
Ġre b
ress ed
Ġmo ved
Ġmin ute
Ġguarante ed
Ġopt ions
pres ident
Ġcomp ly
Ġfe bruary
Ġhealth y
ud s
Ġdis asters
Ġindust ries
Ġopin ions
Ġbehav ior
Ġconstant ly
e conom
p ro
w ould
Ġre cession
Ġform al
Ġfreedom s
Ġsubst ances
Ġhosp ital
er o
Ġn ar
Ġme at
Ġme xic
Ġover come
Ġbl ue
Ġaid s
Ġconclud ed
Ġrecommend ation
Ġhistor ical
Ġjour nal
Ġmax imum
Ġw itness
Ġst abil
Ġoff ered
Ġmil k
Ġ5 00
Ġdist in
Ġp pe
Ġd ouble
ut ed
Ġwas h
Ġs ac
ar i
if e
Ġcommun ist
Ġadop ting
Ġplay ers
Ġallow ing
Ġbal tic
Ġtrad ition
Ġmanufact ure
Ġpublish ed
Ġdign ity
u ous
Ġth row
Ġp i
ic ed
Ġor al
Ġcent er
Ġcontra dict
rou d
Ġph ase
Ġadv ice
Ġmult ilateral
Ġsk ills
o o
il iation
id ge
Ġmar k
Ġfirst ly
Ġeffect iveness
Ġass ume
Ġ199 8
Ġsecret ary
Ġtob acco
it ime
Ġst ories
ri f
Ġcommission ers
Ġsc and
aren ess
Ġce le
on om
Ġto ward
Ġprodu cing
t in
Ġs on
Ġas ian
res h
Ġcomp on
Ġprom ised
Ġincreas es
Ġoblig ation
Ġin equ
Ġy e
Ġri g
Ġ2 4
Ġpre ced
Ġmar gin
Ġinvol ves
oub tedly
Ġpalestin ians
Ġhistor ic
Ġcustom s
Ġvolunt ary
at o
ing u
Ġv ill
Ġr an
Ġgu y
Ġsur round
Ġincent ives
ay s
Ġli e
con s
Ġevery where
Ġelect ronic
Ġstrateg ies
g ence
Ġf aster
Ġse arch
Ġv ice
Ġmar itime
Ġtax pay
Ġdeter mination
Ġchair man
Ġdiplom atic
Ġdecis ive
c ould
e mb
Ġput in
Ġaw areness
v ak
Ġs we
Ġs ight
Ġpos sibly
Ġpur ch
Ġdest ruction
Ġfirm ly
Ġfacilit ate
Ġexplan ation
l ined
w are
Ġf it
ab ilities
Ġperfect ly
Ġw ine
ot o
ch ina
Ġcont rast
Ġdec line
Ġdeep ly
Ġdetail s
Ġintellect ual
a i
iz ations
Ġpre dict
Ġrec all
Ġexcess ive
e ff
f ace
Ġthe ory
Ġo s
Ġm c
ro te
Ġbe g
Ġnot ed
am ed
Ġcomp liance
Ġra c
Ġtra ged
Ġexper t
Ġrom a
Ġfulf il
Ġgo ld
Ġinc lusion
Ġaf tern
Ġbrief ly
ri an
and a
Ġthere by
Ġmat ch
Ġhear ing
Ġphys ical
Ġentit led
u mb
Ġp roud
ad a
Ġv ia
ard s
Ġdraw ing
Ġcoll apse
Ġfriend ly
Ġrepl ace
Ġcooper ate
Ġbot tom
umer ous
in c
th rough
Ġass ure
Ġcris es
Ġopen ed
Ġsustain ability
Ġlabe lling
Ġf light
our g
ang ing
Ġre action
Ġcut s
n one
Ġw rote
Ġo mb
Ġb ed
Ġle ban
Ġtrans l
Ġbl ame
Ġprof it
Ġgir l
Ġalloc ated
Ġgeorg ia
Ġomb uds
bour g
Ġforth coming
as bourg
ld er
Ġend ed
Ġsc en
Ġsatisf ied
Ġlaunch ed
Ġaftern oon
Ġyou th
Ġbelie ves
Ġcho ices
Ġground s
w s
Ġli ved
Ġexam ine
last ly
Ġlux emb
3 0
Ġf ruit
Ġus a
Ġstr asbourg
Ġrel ates
Ġplan ned
Ġ199 7
Ġsuggest ed
Ġrad io
Ġpati ent
Ġto ugh
Ġno body
Ġmo v
ific ations
Ġspeak er
Ġrepresent ed
Ġsuff er
Ġfarm ing
Ġund oubtedly
Ġoce an
Ġon going
Ġinc om
Ġdeter mine
Ġaust ria
Ġsex ual
h ar
Ġt it
Ġm ath
Ġab use
Ġdis agree
cept ion
Ġcre ates
Ġshow ing
Ġord inary
Ġobstac les
Ġimplic ations
Ġpro sec
ad v
os en
Ġab stain
Ġem ot
Ġval uable
Ġdisp os
Ġdict ators
Ġspe ct
Ġjud ge
Ġrestruct uring
b all
Ġbe low
Ġsub mit
europe an
Ġrecon st
Ġequip ment
Ġv ide
Ġnecess arily
Ġterri ble
Ġh us
as ing
Ġnot ice
ren eur
Ġunder min
Ġser bia
Ġprocess es
Ġess entially
rep reneur
Ġluxemb ourg
Ġg ap
Ġsh ift
Ġac p
Ġact ing
Ġback ground
ne cess
eng th
Ġsovereign ty
Ġlea ving
Ġbo x
Ġro ot
Ġmon op
Ġreal istic
Ġhard ly
Ġdepend ent
b es
Ġe cu
Ġab road
Ġdis m
Ġpre f
Ġstrengthen ed
Ġ7 0
Ġurg ently
Ġwide ly
Ġal i
Ġpresident ial
Ġtro ops
Ġky oto
Ġbalk ans
il es
Ġres erve
Ġtr ouble
Ġwar s
Ġsupp lement
Ġsignific ance
Ġarg ue
Ġteach er
Ġdefinite ly
econom ic
Ġn umerous
Ġev olution
Ġent repreneur
ict ion
Ġexperi enced
Ġoper ating
Ġturn s
Ġcontain ed
g ic
y le
Ġe p
Ġsu gar
Ġrecogn ize
Ġwelcom ed
tw o
Ġis land
Ġpart ly
Ġrest ric
Ġwid er
Ġpro hib
Ġtra ck
Ġappro ve
Ġda ily
Ġombuds man
is ory
Ġun necess
Ġv an
Ġimp ression
Ġfollow s
Ġch osen
Ġar med
Ġvot ers
Ġsen sible
Ġs leep
Ġm ent
Ġgreat ly
Ġinter ven
Ġprep are
Ġpurp oses
Ġharmon isation
Ġt ight
Ġrem ove
Ġless on
Ġpay ment
Ġcoordin ated
Ġinnov ative
o x
Ġch ann
Ġless ons
Ġfound ation
Ġmist akes
Ġuni que
Ġprospect s
augh ter
at ures
Ġsh adow
Ġreflect s
an cy
ire ct
Ġany body
Ġnever theless
Ġconstit u
Ġsure ly
Ġsubst ance
Ġaccomp an
Ġtren d
a mb
g en
Ġv es
Ġr ational
Ġer a
Ġmusl im
Ġf al
un g
Ġad mit
Ġpri ze
Ġinf ect
Ġrequire ment
Ġpat ent
Ġscient ists
Ġsuperv ision
g ra
Ġt ed
ast ic
Ġsuff ered
Ġvis a
Ġrequest ed
Ġcoll abor
Ġoccas ions
Ġbehav i
Ġbat tle
Ġforg ot
Ġw at
Ġh ol
Ġres erv
Ġpol ish
Ġbuild ings
Ġacknow ledge
Ġpoore st
Ġgaz a
Ġl ic
Ġl ength
Ġst ocks
ul a
Ġsu m
Ġapp oint
reg ard
Ġhop es
Ġsurpris ed
Ġstrugg le
b ack
Ġi mb
Ġch ap
te en
Ġ19 6
Ġpay ing
Ġz ero
Ġuni verse
Ġpenal ty
s ub
om s
Ġpresident s
Ġident ified
Ġasse ts
Ġsucceed ed
Ġdefic its
h er
n el
Ġm os
ur ch
Ġra in
Ġprev ail
Ġfamil iar
Ġunf air
Ġadvert ising
c ar
c are
Ġc ry
Ġl ondon
Ġun if
Ġr h
Ġconc iliation
Ġcor respon
Ġm ap
Ġrev ision
Ġurg ency
Ġphenomen on
l av
Ġha mas
Ġsy mp
Ġviol ations
Ġslo vak
Ġdoct or
ou d
ic ip
Ġal ban
Ġfr ank
Ġfield s
Ġmach ine
Ġmoun tain
s imilar
Ġre lie
ue l
Ġsp l
Ġdes erves
Ġtri al
Ġsuff ici
Ġlos ses
Ġng os
Ġdec ent
Ġpers u
Ġ9 0
Ġpill ar
Ġdynam ic
Ġextraordin ary
s on
en cing
Ġn ine
Ġdef ine
ph ere
Ġdifficult y
Ġoper ational
Ġclar ify
Ġn ig
Ġthreat s
Ġcro at
it ect
Ġsh aring
Ġcam er
Ġb ought
Ġre iter
Ġfor um
Ġsu sp
et s
ab ling
ib et
Ġprevent ing
Ġsent ence
Ġterrit orial
Ġprepar ing
Ġs ister
Ġimportant ly
Ġexc lus
Ġtest s
Ġshar p
or ing
Ġre cip
Ġdis adv
Ġext ension
Ġdisadv ant
Ġc aught
Ġpro di
Ġch arge
Ġident ify
Ġreflect ed
Ġwind ow
d own
re w
Ġo d
Ġpos sibilities
lic it
Ġhouse hold
Ġsuccess fully
Ġmodel s
Ġarch itect
Ġe t
Ġas h
Ġ2 3
Ġfe et
Ġlot s
Ġbor row
Ġcoh erent
ca pe
Ġreli able
ul s
Ġar m
Ġarri ved
Ġf resh
Ġst em
vious ly
Ġhung arian
Ġprison ers
a x
ul f
un ity
Ġra ising
Ġdef ense
Ġdeal s
Ġaddress ing
Ġche ap
Ġwarm ing
Ġacknow led
b a
p read
z er
Ġin j
ir ing
os oph
os lav
con sequently
Ġsy ria
Ġinter f
ides pread
Ġgir ls
Ġm ix
Ġun ity
Ġse at
ib ly
Ġ201 1
Ġcla ims
Ġdecl ared
Ġmedic ine
Ġexec ut
Ġmexic o
Ġt ar
Ġo l
Ġf er
Ġf lu
Ġimp er
Ġacc ur
Ġprom ises
com p
ug oslav
hold ers
Ġcandid ates
Ġsett lement
Ġf ly
Ġexp an
act ive
Ġhous ing
Ġt ibet
Ġm ine
Ġtw enty
Ġext ensive
Ġ201 3
Ġtop ic
Ġelector al
Ġtraged y
o ld
Ġw idespread
Ġb reat
Ġre ass
Ġreg ist
Ġbl ind
Ġold er
Ġoccur red
Ġconcent rate
Ġmob il
Ġpleas ure
Ġreconst ruction
Ġex ceed
Ġconsider ing
Ġchar ges
Ġdispos al
Ġsymp ath
w an
Ġf em
Ġre ly
Ġst ation
Ġse lect
um ed
Ġdis cip
Ġdisc overed
Ġdep th
Ġsur prise
Ġtell ing
Ġviol ent
Ġwilling ness
Ġphil osoph
Ġd ump
Ġy ugoslav
Ġas ide
Ġse ts
Ġacc idents
Ġproduct ivity
Ġbro ther
Ġfour th
Ġaffect s
Ġfair ly
Ġflo od
Ġmedic ines
Ġamaz ing
Ġw ife
Ġus ers
Ġexp licit
Ġsc ot
Ġph one
Ġmaintain ing
Ġmiss ing
Ġfil m
Ġunif orm
Ġsy n
Ġdeb ating
Ġinf ring
Ġopen ness
Ġappropri ations
Ġfl ag
Ġconfirm ed
Ġreve al
p ts
Ġc row
as m
ci f
Ġtim et
Ġnew sp
Ġvict ory
Ġconduct ed
a ult
Ġd in
Ġst ick
wh ich
Ġiss ued
Ġorgan izations
Ġdeli ber
Ġcal cul
Ġattemp ts
Ġuncertain ty
Ġexpan sion
p art
Ġg ames
ce l
os ition
Ġch urch
ap ers
Ġmot or
Ġaut onom
ha ving
Ġber lin
Ġdig ital
Ġprof its
Ġmaintain ed
Ġill ust
Ġrecon cil
Ġcontract s
Ġpun ish
Ġm ort
Ġres erves
Ġpre d
Ġtra gic
Ġown ers
Ġdemand ing
Ġrele ase
Ġt v
Ġpro of
ke ts
Ġav iation
Ġcontro lled
Ġstat ute
Ġencoura ged
Ġapply ing
Ġquot as
Ġtaxpay ers
Ġbehavi our
Ġv acc
Ġhum ans
Ġsur pl
Ġprof ound
Ġlink s
Ġsatisf actory
Ġrat ification
h ouse
r ont
Ġ â
Ġen em
ag ue
Ġregret t
Ġpasseng ers
Ġb ol
Ġal arm
Ġen de
Ġres ource
ues e
Ġdirect or
Ġjo hn
Ġrest ore
Ġfisher men
Ġcarry ing
Ġhy p
Ġwat ers
Ġende av
t r
Ã ¼
Ġth ir
ang es
Ġstr ange
Ġide al
be fore
Ġemploy ed
Ġoper ators
Ġmot iv
Ġlos ing
ograph ic
Ġdiv ided
Ġneighbour s
ob viously
Ġundertak en
Ġcub a
Ġimb al
x ts
Ġs ought
th ly
as c
qu id
con t
Ġsa ving
Ġstud ent
Ġeng aged
Ġcolle ge
Ġcomb ined
Ġexc lusion
Ġemb ar
Ġhighlight ed
Ġinvestig ation
Ġleban on
z z
ou th
Ġsur face
Ġcreat ive
Ġvide o
Ġ q
Ġt ort
ad ing
qu es
Ġat mos
Ġfin ish
Ġtw ice
Ġsuggest s
Ġdut ies
Ġportug uese
Ġremo ved
n s
at lantic
Ġcour ts
Ġtur ning
Ġresult ing
Ġsto pped
Ġinad equate
Ġa ug
en n
ing ton
ie f
Ġfin land
Ġbelie ved
Ġent ered
Ġfam ous
Ġaw a
ock ed
Ġterror ists
ira ble
Ġenh ance
Ġworry ing
Ġs ake
Ġb low
Ġl uck
Ġk il
Ġact ively
Ġdra matic
Ġsurv ive
Ġsus pend
Ġin eff
Ġfin ished
ag ain
Ġhuman ity
Ġdep loy
Ġsupp lies
Ġfall s
Ġexplain ed
Ġbeg un
Ġwh ilst
Ġr ough
wh el
Ġgovern ing
Ġput s
Ġdef e
Ġreal ise
Ġseem ed
Ġintrodu cing
Ġcut ting
a w
h us
Ġs ick
Ġ199 6
Ġlist ening
Ġwatch ing
Ġresist ance
i ant
Ġw ise
er ved
se e
Ġpar ad
Ġad m
Ġev ol
Ġev ident
Ġra ce
Ġfew er
Ġbig ger
Ġconsequ ence
Ġgener ations
Ġdisp ute
Ġstri ke
Ġtun is
itution al
m o
th es
Ġover whel
Ġeconomic ally
Ġsch ed
Ġcomple ted
Ġgre ens
Ġmult ip
Ġeval u
Ġunlike ly
re l
ud i
Ġthan king
Ġco ff
Ġgu ard
Ġcred ible
Ġm agn
Ġd ed
Ġd ro
Ġcan ada
Ġlaw y
Ġcontribut ed
Ġign ore
Ġsuffici ently
Ġd rop
Ġdes erve
Ġremain ing
Ġachieve ment
Ġdictators hip
Ġf ash
ra cies
Ġint ensive
all ow
Ġtrans itional
Ġtrans atlantic
Ġ3 00
Ġins uff
Ġfall ing
Ġproceed ings
Ġinterpret ation
in o
Ġh iv
Ġv at
Ġad ult
Ġcl ause
Ġatt end
Ġfac ilities
Ġopp ose
Ġweak ness
Ġpurs u
Ġflow s
Ġqual ified
Ġdisapp oint
Ġconver gence
Ġunnecess ary
c ra
f our
Ġ2 2
Ġsc re
Ġnegoti ation
Ġhead ing
Ġbroad er
Ġli quid
Ġreal ize
Ġval id
Ġins p
Ġextre m
every one
Ġsus pect
Ġbom b
t i
Ġh al
Ġd ub
Ġch ain
Ġprogra ms
Ġsm oking
Ġiran ian
g u
Ġconstit ute
Ġconnect ed
Ġadvant ages
Ġcroat ia
Ġw age
Ġm ur
os s
Ġint ens
Ġleg ally
Ġreven ue
t ake
Ġin qu
Ġcomp uls
Ġiraq i
Ġtarge ted
Ġprepar ation
Ġlea ves
Ġs im
Ġe ch
for ced
Ġremain ed
Ġpop ulations
r ust
ur ies
oun ting
Ġreg imes
Ġind irect
Ġconf ront
Ġgu ys
Ġenvironment ally
clear ly
Ġeduc ational
Ġcorrect ly
Ġ198 0
Ġcorpor ate
Ġfash ion
Ġp il
Ġat lantic
ab we
Ġco ol
Ġdeb ated
Ġappro x
Ġamend ed
Ġcivil ian
Ġprevious ly
Ġgenuine ly
imb abwe
i wan
Ġno ise
Ġra w
Ġeconomic s
Ġwar ning
Ġexperi ment
Ġbab y
similar ly
ter ing
Ġri ver
Ġlo ans
Ġvi able
Ġneigh bor
Ġsud an
Ġsold iers
Ġmac ro
Ġwe b
us al
Ġint entions
Ġpriv ile
Ġbur ma
Ġsk y
Ġneighbour hood
Ġpure ly
Ã ³
or ous
Ġg ar
Ġwe ather
op ho
Ġwor ried
Ġus ual
Ġlast ing
Ġca using
ph one
Ġexplo itation
Ġton ight
Ġcompuls ory
Ġinn oc
Ġbureauc racy
Ġenforce ment
Ġacce ler
k y
Ġw ood
ers on
ci ent
Ġsee ks
Ġcol on
Ġfr an
Ġ199 5
Ġrat ified
Ġf ing
om in
Ġjust ify
Ġref used
Ġcap t
Ġhon our
Ġgl ass
Ġbos nia
at ible
act ions
Ġmost ly
Ġregard ed
Ġsw im
inst itutional
urs day
Ġelimin ate
r ates
u ild
Ġo w
il s
Ġk n
Ġ2 6
Ġreport ed
Ġsol ved
Ġfore most
Ġhealth care
Ġamb ition
Ġtre m
Ġadjust ment
Ġgradu ally
Ġintellig ence
Ġparal le
Ġis lands
am eric
Ġint ends
Ġsign s
Ġequ ival
Ġstress ed
Ġconserv ative
Ġincred ible
er ate
ch e
Ġsh ame
oc king
Ġexp ense
Ġper pet
Ġcor ner
Ġdet ect
Ġpercent age
b and
Ġp ace
Ġse ction
Ġmore over
Ġpers ist
Ġmove ments
Ġsal es
Ġcateg ory
Ġslight ly
Ġconsid ers
ov a
Ġmor oc
Ġemer ged
Ġanal y
Ġindic ated
Ġhom es
m on
Ġth ursday
ir y
Ġemp ty
Ġent ail
Ġenv is
Ġexperi ences
Ġcong ress
Ġz imbabwe
Ġfif th
Ġinsuff icient
r ors
ic ted
Ġg ri
pt ion
co hol
Ġmob ile
Ġremark able
Ġrepeated ly
Ġb se
Ġv ac
ign ed
Ġinv ited
Ġcertain ty
Ġsole ly
s en
Ġo h
Ġd anish
Ġany where
Ġemb ra
Ġaltern atives
Ġquar ter
g a
n y
Ġth res
Ġc li
as ion
Ġar ise
Ġdec re
Ġmo ld
Ġreal ized
Ġfac es
Ġtri p
Ġbre ach
Ġpalest ine
Ġoblig ed
Ġcat ast
Ġcommunic ations
Ġphot ograph
Ġthres hold
Ġdri ven
Ġrefer ring
Ġsurv ival
Ġannoun ce
i mp
Ġg ulf
Ġ2 8
Ġher it
sid er
Ġa le
Ġw ake
Ġwe bs
ra d
Ġjo ined
Ġsc ar
ribut e
Ġgain ed
Ġquot e
Ġsudden ly
Ġmov ie
Ġatmos phere
Ġf ost
Ġn ut
ke ep
Ġcomm od
we l
Ġind ian
Ġend ors
Ġhelp s
Ġcompet ent
Ġear n
Ġsubject s
Ġign ored
Ġpra g
Ġfal se
Ġon to
Ġal cohol
Ġup d
Ġsp ite
Ġind ones
Ġconv ince
Ġslow ly
Ġhung ary
Ġstim ul
Ġbelg ium
Ġemot ion
Ġforgot ten
Ġherit age
u k
y al
on a
Ġw ages
Ġp orts
Ġst ream
Ġal ive
Ġsh ap
ak ers
Ġunder mine
Ġgen etic
Ġfinan ced
Ġinter institutional
Ġta iwan
cu se
Ġrepresent ation
Ġdist ort
Ġmind s
Ġdoub ts
Ġapplic ations
Ġfrequ ently
r id
Ġw ed
Ġc as
Ġcomp lement
iz es
Ġper mit
Ġent hus
Ġinter pre
Ġrespect s
Ġdead line
Ġcult ures
comm un
Ġenthus i
Ġan x
ly mp
Ġoff ering
Ġdist ance
Ġlib ya
pl ace
Ġsuggest ions
ec ision
Ġbureauc ratic
Ġfix ed
Ġves sels
sub ject
Ġm outh
Ġresult ed
Ġinstit ute
Ġconsider ably
Ġharm ful
Ġdeath s
Ġnone theless
Ġentrepreneur s
Ġt ired
at t
Ġs ong
al ities
Ġcomm and
Ġpl at
Ġsocial ists
Ġref ers
Ġsc r
Ġdep ri
Ġplay s
Ġnegoti ated
Ġspeech es
Ġtemp er
Ġmic ro
Ġet c
Ġtimet able
cra ft
it ably
Ġas pir
Ġac ad
Ġdemoc racies
Ġfore cast
Ġrom e
Ġbad ly
Ġpurs ued
sh ould
Ġrac ism
Ġtrem end
h am
am end
Ġli ked
ag er
Ġlist ened
Ġpen sions
Ġship s
Ġdestro yed
Ġreg ister
Ġdem ographic
Ġbr idge
app ro
Ġexecut ive
b b
l ad
Ġ ic
Ġp assion
Ġh at
Ġd ar
th ink
Ġha z
Ġwhere as
Ġsm art
Ġglobal ization
Ġconsider ations
Ġfound ations
Ġaffect ing
Ġroad s
Ġeth ical
Ġcod ecision
Ġfue ls
Ġpet itions
Ġvirt ually
Ġscr ut
Ļ «
Ġc ash
an ks
ol er
Ġun p
um an
Ġdis s
Ġmin im
Ġer ror
Ġschem es
Ġinterven e
Ġregrett able
Ġcoff ee
b re
Ġo lymp
id den
ate ll
Ġfa ult
Ġper ce
Ġir re
Ġfree ly
Ġdemon st
Ġrein force
Ġbelg ian
Ġscand al
e th
j ud
Ġc ow
Ġl ith
Ġy ield
ch es
Ġun re
op ard
Ġk en
Ġmar ked
Ġcl arity
Ġretur ned
Ġcy cle
Ġdisapp ointed
Ġsqu are
Ġreserv ations
g n
Ġs ite
ill ing
Ġun pre
Ġsp here
Ġmarke ting
Ġrem ed
Ġdisc over
Ġnegoti ate
Ġconstit utes
Ġthreat ened
Ġfear s
Ġbon ds
Ġaccompan ied
Ġinfring e
Ġendeav our
Ġw ild
Ġc ert
Ġme re
os is
other wise
Ġmod ified
Ġ3 5
Ġann ivers
Ġjour ney
Ġnar row
it i
Ġn av
Ġse v
Ġdis abled
Ġout standing
Ġim ages
Ġveh icle
Ġexception al
Ġcoal ition
Ġmem ory
Ġaug ust
Ã Ń
Ġm it
Ġch ief
Ġus es
Ġinc ident
Ġthink s
Ġbo om
Ġproduct ive
Ġsha res
Ġdispl ay
Ġgeograph ical
Ġwash ington
Ġmanufacture rs
Ġun fortun
ant ly
Ġpres erve
are r
Ġinst all
Ġfund ed
Ġgen et
Ġdev ast
Ġmill enn
bur g
Ġsac rif
Ġtar iff
Ġannivers ary
n at
it ical
ul ous
Ġnot ion
Ġte xts
Ġref use
to gether
Ġdeter ior
Ġrequest s
Ġcomput ers
Ġpasseng er
Ġairp ort
Ġunfortun ate
Ġmillenn ium
in ational
Ġsu itable
Ġcol om
Ġbro ke
Ġdiscri min
Ġcop y
Ġchap ter
Ġequival ent
in i
er c
Ġm aced
Ġun ions
Ġcl ub
Ġrul ing
Ġemploy ers
Ġfail s
Ġsw ift
Ġfall en
Ġunemploy ed
Ġasse t
Ġteach ers
Ġvill age
b el
y ear
ar io
Ġsh i
Ġj un
Ġk ar
Ġdes p
Ġgrow n
Ġcitizens hip
Ġbenef icial
Ġexperi encing
Ġrom an
Ġden mark
e ach
Ġs ending
Ġf ate
Ġan ne
Ġst ance
ad ed
Ġsh ut
Ġprov id
Ġbro ken
Ġce ase
b ar
Ġw is
Ġe ating
Ġn ames
Ġg un
Ġon line
si ght
Ġapproach es
Ġjud gment
Ġsound s
Ġcompar ison
Ġintellig ent
w ater
Ġg ross
Ġst or
Ġpro lif
ad d
um n
Ġind is
Ġneg lect
la h
Ġmult i
Ġmult inational
Ġrepl aced
Ġlog ic
Ġinev itable
Ġbreat h
e in
k o
ro c
Ġcon vers
eren ces
Ġph arm
Ġap olog
Ġemphas ised
Ġdi agn
Ġdisappe ar
Ġexclud ed
Ġcompon ent
Ġparalle l
it ative
ow er
Ġne ut
Ġunder lying
Ġtrans actions
Ġlib er
Ġer ad
la w
Ġdiv ision
Ġneighbour ing
Ġincent ive
Ġt aught
Ġd an
Ġg h
ct ive
et or
Ġso il
Ġrel ate
Ġhelp ful
Ġabs or
Ġregul ated
Ġland s
Ġindic ate
Ġearth qu
Ġslo ven
Ġchemical s
Ġliter ally
Ġlith u
in n
Ġb ub
pp er
me an
Ġprov en
Ġpresent ation
Ġsurround ing
f ollow
n ational
Ġm urd
ed s
Ġdirect ed
Ġsm oo
Ġnecess ity
Ġvis ible
Ġche cks
Ġcapital ism
Ġpot entially
Ġdemonstr ates
Ġdecl are
Ġincred ibly
s pe
al so
Ġe lder
Ġpresent ing
Ġmod est
Ġvi et
Ġret ire
Ġcomb ination
Ġgre w
Ġarg ent
Ġexam ined
Ġobtain ed
Ġlog ical
Ġstreet s
Ġrestric ted
Ġfem ale
Ġreconcil iation
Ġc f
or n
ou red
Ġra ises
Ġke en
Ġgener ate
Ġsatisf action
Ġregular ly
Ġestim ated
Ġviet nam
c ap
Ġa st
Ġp se
em oc
Ġsome where
Ġfound ed
Ġperiod s
reg ular
Ġsoft ware
Ġscen ario
Ġâ Ļ«
in der
Ġe co
ct ic
Ġst yle
os ing
Ġact ors
Ġra re
ang ible
Ġbr ut
Ġbus y
Ġvis ited
Ġdelay s
Ġcomplain ts
Ġobser vers
Ġvari ety
Ġmur der
Ġapprox imately
f all
Ġd av
ot ed
ast rich
Ġmar ried
Ġdep ression
Ġfeel s
ark o
Ġant icip
Ġvol ume
Ġje opard
Ġacqu is
Ġrh etor
Ġrelie f
astrich t
Ġt ree
Ġo x
ic ian
Ġhe at
Ġsa udi
Ġgu ess
Ġ3 1
Ġdist ingu
Ġviol ation
Ġemer ge
Ġunivers ities
Ġproc ure
Ġstimul us
i ents
Ġb iod
ver si
ra p
Ġex cuse
ak en
ced ented
Ġma astricht
Ġset tle
Ġvict im
Ġgreen house
Ġheav ily
Ġunanim ously
Ġprolif eration
arko zy
c s
i able
Ġa ward
ation ally
Ġman aging
Ġro ll
Ġref lection
Ġhapp iness
chn ya
Ġamb itions
Ġult imate
Ġsuperv isory
Ġinnoc ent
Ġunpre cedented
d ed
k a
z en
Ġs and
Ġl augh
Ġpar is
Ġ2 9
com ings
Ġfail ing
Ġabs urd
Ġprevent ed
no body
Ġfun ctions
Ġsuggest ion
Ġec ological
Ġarri ve
Ġenh anced
Ġrout e
c ulation
o ly
r ussi
Ġs atell
Ġf ab
Ġha ir
Ġext ending
Ġsol ar
Ġfra g
Ġshort comings
Ġart icles
Ġindic ators
Ġaccording ly
Ġsad dam
Ġhor iz
Ġaccomp lish
Ġrele ased
Ġtremend ous
versi al
o ided
u ct
u ity
re qu
ic ations
Ġst ore
Ġres ort
Ġunder line
Ġregard less
Ġav oided
Ġdi ver
Ġkill ing
Ġtack ling
Ġinequ ality
Ġdump ing
w a
Ġl ad
Ġsh if
Ġpar k
Ġpl ural
Ġacc ounting
Ġfinan ces
Ġopen ly
Ġfr id
Ġrev ised
Ġaccess ible
Ġche chnya
Ġcoordin ate
ev a
Ġpie ces
Ġfoot ball
Ġinh ab
Ġtransform ation
none theless
t ime
Ġb ang
Ġre cy
Ġl end
Ġcomm end
Ġconf ident
Ġdifferent ly
Ġfr ust
Ġbl air
Ġdist ur
Ġshort ly
Ġtrad itions
Ġpa cif
Ġaust rian
Ġhy d
Ġhop ed
Ġsimplif ication
Ġfif teen
Ġwelcom es
Ġnig eria
Ġm ary
Ġal lies
Ġun it
un til
Ġen lar
Ġcomp assion
Ġinc omp
Ġconf ron
Ġmer c
Ġpict ures
Ġmanufact uring
Ġcompe te
Ġcollabor ation
Ġtort ure
Ġanne x
Ġh ong
Ġh ence
Ġd ur
Ġha bit
ch ild
Ġeuro pol
Ġqu iet
Ġher o
Ġem u
Ġregul ate
Ġlack ing
Ġapparent ly
cel ona
Ġech o
Ġeuro s
Ġr and
Ġag rees
Ġli kes
Ġout put
Ġeconom ists
Ġtra ve
Ġbu ying
Ġaud ience
Ġdistribut ed
Ġsil ence
Ġmusl ims
Ġye ah
Ġsupplement ary
ro om
st ream
Ġen abling
Ġch amp
Ġstr ing
Ġcontro versial
Ġir regular
Ġ199 4
Ġrecogn ized
Ġappe ared
ib an
Ġdet ri
Ġmot ions
Ġve get
Ġaust ral
Ġoccup ation
Ġdistin ction
Ġprocure ment
b et
r ous
Ġf asc
Ġun equ
ad ays
Ġno vel
Ġpl ed
Ġreject ion
Ġdeep er
Ġmaced onia
c ow
Ġs n
en sible
Ġk ong
Ġper mitted
Ġmo le
Ġhope fully
Ġsign als
Ġorgan ized
Ġpenal ties
Ġtren ds
Ġairp orts
Ġsurpl us
mean while
Ġb ow
Ġf ought
om al
Ġv oc
Ġco vers
Ġpo et
Ġfe ature
Ġro ots
Ġjo ining
Ġcol or
Ġspeak s
Ġ201 2
Ġfocus ing
Ġbi ological
Ġden ied
Ġperspect ives
Ġdoct ors
Ġjournal ists
Ġrough ly
Ġbiod iversity
m akers
n l
Ġw ing
Ġpre ca
ces sions
Ġper sec
Ġtal iban
Ġprocess ing
Ġorgan ic
Ġart ific
Ġsw itch
Ġbar celona
Ġdri vers
Ġgra ve
Ġhun ger
Ġpul l
Ġment al
i ate
Ã ¤
Ġp age
if ies
Ġres c
Ġman if
Ġcons cious
Ġacc used
Ġstar ts
Ġachieve ments
Ġopp on
Ġapplic ant
Ġcomplex ity
Ġdescri be
Ġcou p
Ġton nes
Ġtele phone
Ġmath em
Ġinqu iry
follow ing
p oint
r um
ot ic
Ġst ood
Ġal ger
so ever
Ġwhat soever
Ġsp ot
Ġdes irable
Ġmil es
Ġjoint ly
ha ust
Ġalloc ation
Ġcele br
Ġabstain ed
t ical
Ġh es
ic ated
ac es
Ġman ip
Ġexp osed
Ġsp orts
Ġinform al
Ġcent res
Ġhand ed
Ġhard er
Ġcolle ction
Ġexam ination
Ġeffici ently
Ġwarm ly
Ġdiplom acy
Ġattract ive
Ġdraf ting
Ġmoroc co
m al
at isf
Ġbe at
Ġcon ven
ill ance
li hood
Ġli ability
Ġj ur
Ġrec over
Ġansw ered
Ġrun s
Ġhold s
Ġsk in
Ġprepar ations
Ġdestro y
Ġobser ved
Ġautom atically
Ġtunis ia
b as
h ence
m uch
Ġf ant
Ġnot ably
ang ed
Ġsit es
Ġdes per
Ġban ned
Ġconv entions
Ġcreat ivity
Ġcoh erence
Ġapplic able
Ġill ness
Ġintegr ity
Ġundert ake
Ġcro ps
Ġpi pe
a ur
Ġt ribute
Ġst ead
Ġnot iced
Ġtrans it
Ġwhere by
Ġdef ault
Ġcompet ences
Ġinvest ing
Ġir on
Ġdi verse
Ġcondem ned
may be
Ġfort un
Ġslovak ia
Ġsusp ic
Ġaccur ate
Ġelder ly
r ations
s ometimes
Ġt ic
in ated
Ġs me
ic y
Ġn amed
Ġimp lies
Ġcons ent
Ġinv ite
Ġplay er
Ġeng land
Ġexc iting
Ġden y
Ġteach ing
Ġste el
Ġundertak ings
Ġconserv ation
Ġyugoslav ia
Ġsuspend ed
Ġmanif est
b ors
Ġa h
Ġf ool
all ing
Ġmar ine
Ġinv ent
Ġoff ic
Ġgen oc
Ġta pe
Ġfav ourable
Ġbro k
Ġcirc le
io x
Ġ15 0
Ġword ing
Ġmig rants
Ġforest s
Ġdraf ted
Ġsurve illance
Ġacknowled ged
Ġgenet ically
h ear
Ġs arkozy
Ġc ens
Ġe pid
ut ical
Ġab uses
Ġad verse
ag ers
Ġevery day
Ġide ological
Ġiniti ally
Ġaccount ability
Ġair craft
Ġrece iving
Ġpriv at
Ġrail way
Ġhur t
Ġwithdraw al
Ġinev itably
Ġtit le
Ġalban ia
appro pri
in al
is c
Ġc ot
Ġin g
Ġd os
il ed
ci ence
Ġdis par
Ġmar ks
ace utical
Ġmo ves
Ġend s
Ġtell s
Ġori ent
Ġundertak ing
Ġut most
Ġol af
Ġmold ova
Ġhaz ard
Ġrhetor ic
n ish
v ia
Ġt iny
Ġl ag
Ġpro te
Ġcon ve
Ġal le
Ġj ump
ll a
Ġimport ed
Ġsa har
Ġfundament ally
with in
Ġsoon er
Ġtest ing
Ġcampaign s
Ġcommunic ate
Ġdrink ing
Ġincorpor ated
Ġobserv ation
Ġt angible
it zer
or ation
Ġbe ef
ra y
Ġv ent
ab ove
ens es
Ġrespon ses
rat ors
man n
Ġprof ess
Ġcongrat ulations
Ġten sions
Ġdisp utes
bo ok
Ġreiter ate
Ġimper ative
Ġsympath y
Ġdefe at
Ġindones ia
Ġpharm aceutical
c king
w ar
it a
ou l
Ġan ge
Ġd ivers
Ġg rat
Ġinst ability
Ġfar ms
Ġaccept ance
sequ ent
Ġconte mp
Ġfle et
Ġterrit ories
Ġsubstant ially
Ġsurpris ing
Ġtele commun
Ġhus band
Ġenem y
g ans
Ġb are
Ġcom fort
Ġpres cri
con nect
Ġout set
Ġdef ending
Ġent ering
Ġpoll ut
Ġunanim ous
Ġbill ions
rain ts
Ġmonop oly
Ġfrid ay
Ġinhab it
Ġresc ue
Ġw ave
Ġb ail
Ġd na
Ġl ending
Ġint oler
ap h
Ġpos s
Ġoff ices
Ġgr ass
Ġlib ert
ec d
Ġcrimin als
Ġconsult ed
Ġgrant ing
Ġmiss ed
Ġengage ment
Ġtoler ance
Ġdin ner
en opho
Ġd iox
Ġn ord
Ġro t
Ġ19 4
Ġinter im
Ġsince rely
Ġassoci ations
Ġpurs uing
Ġcle arer
Ġwal king
Ġitem s
Ġstru ck
Ġcateg ories
Ġdiscip line
Ġpil ot
itzer land
l ong
Ġb read
Ġre verse
Ġex haust
Ġar bit
Ġmon it
Ġvis ual
Ġdang ers
Ġenter prise
Ġguarantee ing
Ġrelationship s
Ġrecord ed
Ġ197 0
Ġappoint ment
nat urally
Ġwis dom
Ġt all
en na
Ġp ig
Ġm ich
Ġpro mpt
ch ed
res pect
Ġimp rison
Ġco ok
Ġany way
Ġbr and
Ġes cape
ber t
Ġobs erve
Ġisol ation
Ġestim ates
c les
o h
r ather
Ġt s
Ġun ilateral
os y
ist ical
lic ate
Ġel ite
Ġ4 00
Ġcounter fe
Ġpain ful
Ġappreci ation
Ġhous es
Ġspl it
Ġowners hip
Ġmacro economic
Ġenlar ged
on ing
Ġn ic
Ġre ward
Ġsu ic
am ong
ab e
Ġact ed
Ġmon day
Ġback ing
Ġcent uries
Ġtext ile
Ġer rors
Ġcurren cies
Ġqual ifications
Ġgenoc ide
g ies
g ue
Ġt ast
Ġg ather
ive red
Ġk h
Ġfe atures
Ġph r
Ġess ence
Ġarg ued
Ġdel ivered
bo ard
Ġder og
Ġattach ed
Ġscrut iny
Ġf oss
Ġst u
de velop
Ġintern ationally
Ġsub sequent
Ġwar rant
Ġ4 5
Ġcongrat ulating
Ġgain s
Ġinsp ired
Ġearthqu ake
Ġtelecommun ications
s u
re m
is ite
Ġh u
Ġh ide
st uff
wh e
Ġgovernment al
Ġmod erate
Ġadv ised
Ġaccept ing
Ġair lines
ij ing
Ġx enopho
Ġimbal ances
Ġoverwhel ming
a id
Ġt ail
Ġm use
Ġf an
Ġg all
Ġv ary
Ġab st
Ġreport ing
Ġresearch ers
Ġpromot ed
Ġmess ages
Ġred und
Ġworth y
Ġund erest
Ġcra zy
Ġwebs ite
Ġn ur
Ġst ations
ter y
Ġse ats
Ġhe ll
Ġcont am
Ġsome how
Ġmar ri
Ġjust ification
mm et
Ġass ured
Ġmeet s
Ġins pir
Ġstar s
Ġcivil ians
Ġcr ash
Ġdon ors
Ġunanim ity
p ort
er b
as p
ke l
Ġse es
Ġdo ha
Ġgen eva
ne ither
Ġfore ver
Ġpost al
Ġkore an
Ġcele b
Ġow ing
Ġjur is
b ly
m atically
Ġb ag
es sions
Ġf ur
Ġh all
Ġd up
oun ce
Ġimp erial
ak ed
Ġsa ved
Ġev il
ound s
ub e
Ġser ved
Ġrel oc
Ġprotection ism
Ġ199 2
Ġmis under
Ġneigh bors
yes terday
Ġquot a
Ġdeclar ations
Ġconsolid ation
Ġmargin al
Ġscot land
Ġlithu ania
russi a
Ġdos si
i os
m er
n is
t ra
Ġt am
en sions
Ġse lling
row n
Ġnational s
Ġcontribut ing
Ġbenef ici
Ġsustain ed
Ġbank rupt
Ġconvention al
Ġalong side
Ġobstac le
Ġchann el
Ġautonom y
Ġplat form
Ġargent ina
Ġrecy c
Ġmuse um
Ġc ab
Ġh olid
ound ed
Ġass ert
Ġperson nel
Ġdiv ide
Ġrenew ed
Ġweap on
Ġauthor itarian
Ġclaim ed
rog en
Ġabandon ed
Ġcamer a
Ġs v
Ġsu pre
Ġse qu
os ure
ist ry
Ġad mitted
Ġknow ing
ip h
Ġsub s
Ġfac ility
Ġbroad cast
Ġimpos ing
Ġchrist ians
Ġnorm ally
Ġenjo yed
Ġconserv atives
Ġok ay
Ġisol ated
Ġexplicit ly
bre ak
u zz
Ġv it
Ġprop ag
Ġconf usion
Ġwar n
Ġimm ense
Ġpost pon
Ġexcept ions
Ġsen ior
Ġstrict ly
Ġarrest ed
Ġmos cow
Ġnewsp aper
l imin
n i
Ġt ies
Ġs orts
Ġf lying
Ġd aughter
Ġqu e
Ġser ves
Ġsec ular
Ġrepres sion
Ġir respon
Ġsw itzerland
Ġassess ments
Ġclos ing
Ġmeant ime
Ġcontact s
Ġexclus ively
Ġhousehold s
Ġalle ged
m ans
Ġ vers
Ġs now
Ġc ere
Ġf ires
Ġin put
Ġan cient
Ġl unch
Ġst al
Ġsh ot
Ġat tain
Ġpre requ
Ġdiff er
Ġcl in
Ġmo on
Ġresol ving
Ġ3 7
Ġfr on
Ġstud ying
Ġcong o
no thing
Ġ7 5
Ġig c
Ġchrist mas
Ġcat al
Ġtyp ical
Ġhyp oc
Ġpacif ic
child ren
Ġlibert ies
Ġfoss il
p ass
ol f
ul ed
op ol
Ġse lection
Ġv ene
Ġr ush
ect ive
Ġrep ut
Ġdis ast
Ġtime ly
Ġfe as
Ġsub sequently
Ġadv is
Ġed ge
Ġpop ul
Ġloc ation
Ġce iling
Ġparticip ating
Ġfis ch
Ġdepend ence
Ġsimplif y
Ġincom es
whe ther
h u
o ff
Ġs ale
er ity
ar ia
ic king
Ġtechn i
Ġredu ctions
Ġlab el
Ġlow est
Ġbre ast
Ġliberal s
Ġpartnership s
Ġtre es
Ġobserv ations
Ġsatell ite
stuff s
f ur
Ġc ul
Ġc os
Ġst ip
Ġst ages
Ġha iti
Ġsu it
un ction
Ġint ense
Ġad equ
Ġtr ick
Ġfin nish
Ġbo ld
Ġrel uct
Ġconst raints
Ġback ed
Ġbegin s
Ġcomprom ises
Ġgener ated
Ġwin ter
Ġexer c
Ġengine ering
Ġstor age
p one
r ical
u gg
Ġb es
Ġm aster
th anks
Ġch ick
Ġcomp atible
Ġte a
Ġunder p
Ġwhen ever
Ġacc um
Ġsystem atic
Ġmeas ured
pet us
Ġca mb
Ġparticip ants
Ġvir us
Ġukra in
Ġclar ification
Ġbir ds
Ġstim ulate
Ġstake holders
Ġc up
Ġo ecd
Ġn az
Ġbe ijing
Ġun just
te g
Ġro c
Ġdef ining
Ġown ed
Ġorgan ise
Ġim petus
Ġpost pone
Ġaut umn
Ġorganis ms
Ġens hr
Ġcoll aps
Ġwal ked
itud es
Ġgeor ge
Ġaustral ia
Ġm s
Ġto xic
le te
ra pporteur
Ġun h
Ġpl ain
Ġpre jud
Ġpre limin
Ġmin or
Ġview ed
be it
Ġ199 3
rodu ctive
Ġvo ices
Ġhighlight s
Ġconcent ration
Ġadvoc ate
Ġut ter
Ġdepart ment
Ġexpert ise
appropri ate
i ro
u le
Ġa ld
ed a
Ġnot es
im ag
Ġr anging
Ġwhere ver
Ġsol ving
Ġsaf er
Ġplan e
Ġlet ters
ber g
Ġinterv entions
Ġbeaut y
Ġsil ent
Ġcharacter istics
Ġmach ines
Ġspect rum
Ġphilosoph y
Ġjuris dict
Ġt act
Ġin con
Ġdo ors
us sions
Ġj er
Ġdis rupt
Ġtra ined
Ġdeb ts
Ġgu ide
Ġcar ri
Ġinvest ed
Ġobject ions
Ġabs ent
Ġexch anges
Ġdam aging
Ġconsist ently
Ġcompar able
Ġpreca ution
Ġmathem at
Ġinhabit ants
Ġvene z
Ġd ivid
Ġal beit
Ġup hold
Ġco pe
ress ing
Ġlo ved
Ġcommun ism
Ġamb ig
Ġara bia
Ġhor se
Ġrefuge e
nes day
Ġcoast al
Ġdisast rous
Ġprelimin ary
re c
Ġp ose
Ġn a
Ġre aff
il ty
ra m
Ġpl enty
Ġdis arm
Ġro ck
Ġinst ruct
Ġtrans f
Ġrem ote
Ġpublic ly
Ġsoci o
Ġpay s
Ġcare er
Ġexpress ing
Ġdev oted
Ġrat ify
Ġdon or
Ġos ce
Ġprosec ut
Ġdism iss
Ġwed nesday
Ġprovid ers
Ġretire ment
Ġoppon ents
b ol
w omen
Ġb ath
th ree
Ġre un
st ate
Ġg ard
Ġsh op
Ġex ac
ud e
Ġtr illion
Ġout break
Ġyour s
Ġacc omm
Ġend ing
Ġform ula
Ġfeel ings
Ġgener ous
Ġbroad ly
Ġinterv iew
Ġrid ic
Ġprotest s
Ġpattern s
Ġstu pid
Ġexac erb
Ġaccomm od
Ġt ens
Ġp ity
Ġh idden
Ġu til
id s
Ġde tain
Ġsh el
Ġse ason
Ġtra ce
Ġhand le
Ġequ ity
Ġpract ically
Ġrepresent ing
Ġfl at
Ġrestrict ive
Ġ198 9
Ġpra ise
Ġoptim istic
Ġvig il
Ġchann els
Ġarchitect ure
Ġash ton
Ġolymp ic
m is
t ered
Ã ¨
Ġp estic
es h
al ing
Ġbe aring
Ġhe ight
are t
Ġsec ur
ile o
Ġexperi ments
Ġpass ing
la im
Ġsent ences
tur n
Ġang ry
Ġflight s
Ġmonop ol
Ġpersu ade
Ġreveal ed
Ġendors ed
Ġliber ty
p erson
s s
t es
in et
er ted
Ġpro min
Ġen ables
Ġen rich
Ġpre cond
Ġpos ed
Ġleg acy
Ġpress ing
Ġintegr ate
Ġaust erity
Ġmand atory
Ġabol ition
Ġcult iv
Ġing red
d a
Ġp apers
Ġm ira
Ġd ying
il i
Ġwh ol
ul z
ad or
ll or
og le
Ġgu ilty
Ġconv iction
Ġpush ed
Ġpunish ment
Ġfrag ile
er ving
Ġm ir
Ġf ill
Ġd at
th y
Ġun us
ult ane
Ġtr oub
Ġadd ing
Ġmak ers
Ġsch ulz
Ġcost ly
Ġsecond ly
Ġwhole hear
Ġprogress ive
Ġoccup ied
tur key
Ġthorough ly
regard ing
Ġliquid ity
Ġcommod ity
Ġcolom bia
b ally
v ity
Ġm ale
Ġbe ars
Ġl ists
Ġpres ents
Ġind ication
Ġcontin uation
Ġdra matically
Ġaff air
Ġes cal
Ġthreat ening
Ġsubst it
Ġdelay ed
Ġadap ted
lus ive
c as
h uman
Ġt ear
Ġa se
Ġs ke
Ġe lig
Ġre vers
Ġapp ointed
Ġra rely
Ġover look
Ġreal ities
Ġrespect ive
Ġgr asp
Ġfood s
Ġkeep s
Ġthought s
Ġorigin ally
ograph y
Ġharmon ised
Ġstri kes
Ġcommer ce
Ġinvestig ate
Ġcover ing
Ġdomin ant
Ġconce pts
Ġfing er
Ġtemper ature
b i
v ent
an i
Ġb and
Ġb reed
Ġb ond
ra ge
Ġany more
Ġtrans lation
Ġfra gment
Ġprincip al
Ġadv ances
Ġunderstand able
mpt ions
Ġcomb ine
Ġche aper
Ġcy pri
Ġje w
Ġtre as
Ġreven ues
Ġreb uild
Ġdism ant
four thly
americ a
amend ment
Ġartific ial
d ens
h ist
m aking
r ating
Ġf illed
Ġd rast
ar a
Ġe gg
Ġu g
Ġpl us
Ġcomp li
Ġco inc
Ġher z
Ġbr an
Ġfind s
Ġdep os
Ġrul ed
Ġrev ol
Ġstud ied
Ġpa ul
Ġisrael is
Ġrespond ed
Ġremind ed
any one
Ġrob ust
Ġcompon ents
Ġcolon ial
Ġaspir ations
Ġsmoo th
Ġirregular ities
c ur
m at
m edi
Ġm un
st an
Ġg est
Ġg aps
Ġwork er
ious ly
Ġsm oke
Ġfind ings
Ġhand ling
Ġproced ural
Ġ199 1
Ġvol at
Ġconsist ency
Ġsun day
Ġ196 0
Ġevalu ate
Ã³ n
Ġconvers ation
osy stem
Ġsuic ide
s m
Ġc ath
Ġe ib
ct ure
Ġl ingu
Ġde ar
Ġat om
Ġor gans
Ġpolicy makers
Ġbo ys
Ġass urance
Ġdefin itive
Ġconsult ations
Ġgradu al
Ġpoore r
Ġdisappe ared
Ġadult s
Ġmonit ored
Ġdat ab
is en
Ġl am
se in
Ġen abled
Ġno bel
Ġnational ism
Ġher self
Ġtri b
Ġbor ne
Ġprevent ive
Ġec osystem
Ġinvestig ations
Ġmeaning ful
sk i
Ġgal ileo
Ġfavor ite
Ġparad ox
Ġsupre me
Ġald e
b ul
ic ks
Ġn omin
ot ing
se veral
if or
Ġr ub
am i
ue la
ren ce
less ly
Ġdemocrat ically
Ġsoci ally
Ġmom ents
Ġstat istical
Ġdev ice
Ġdim ensions
Ġcal m
Ġregist ration
Ġemotion al
Ġperce ived
v ic
x ual
z ed
an cies
Ġin appropriate
ro l
ust ain
Ġgo ogle
Ġspe cul
Ġbo at
Ġform ed
Ġcrit er
Ġhome work
Ġseek ers
Ġhop ing
Ġsimplif ied
Ġteam s
Ġdream s
Ġsim ultane
Ġdemonst ration
Ġcos m
al es
Ġst ric
Ġcon cessions
Ġch ances
oc al
Ġar ctic
Ġpr ud
Ġma il
Ġform ally
Ġve to
Ġbi of
Ġhus sein
Ġscar ce
Ġhazard ous
Ġcriter ion
b ian
c ol
g s
en ko
Ġc art
Ġun clear
Ġr ice
ig ation
Ġapp la
Ġcons ists
Ġnow here
Ġinv ented
Ġho le
Ġsc ore
Ġexist ed
Ġz ones
Ġsix th
Ġchance llor
certain ly
Ġexplan ations
Ġrob ot
Ġcard s
Ġcontradict ion
Ġdecent ral
Ġmort g
Ġlawy er
Ġprecaution ary
is ra
Ġp oc
Ġb ird
Ġd ish
Ġre me
Ġimp ressive
Ġres ign
Ġmo thers
Ġmoment um
ug en
Ġbur dens
Ġconvin cing
Ġsymbol ic
Ġincorpor ate
Ġenthusi asm
Ġneut ral
Ġadequ ately
a res
h ad
k i
n ight
Ġt ac
Ġin sec
id ential
Ġch ile
Ġdis abilities
Ġout lined
Ġpos es
Ġper iph
Ġgen es
Ġ19 5
ici ally
Ġcap abilities
Ġide ology
Ġbar ack
Ġprogramm ing
Ġver he
Ġparagraph s
Ġexplo it
ik a
Ġcustom ers
Ġpsych ological
Ġphr ase
Ġxenopho bia
l ock
s hip
Ġp it
Ġr um
Ġk urd
our se
con i
Ġcomp osition
wh atever
Ġar ising
Ġsc ene
Ġinter act
Ġrespect ing
Ġwish ed
Ġsecond s
Ġbro thers
Ġregul ators
Ġdri ver
some thing
Ġinnov ations
Ġbreak ing
Ġdim in
Ġimag ination
Ġtend ency
Ġsurve y
Ġmultip le
Ġtransf ers
Ġverhe ugen
b by
e ll
f ast
u ously
st one
ri end
Ġcomp are
Ġar men
Ġinter rupt
Ġrein forced
Ġelector ate
Ġmix ed
Ġpursu ant
Ġembra ce
Ġrand om
Ġreput ation
Ġappla ud
z a
Ġ `
Ġt or
Ġthe me
Ġs la
or gan
Ġal leg
ir t
Ġr ing
Ġprodu cer
rat s
Ġmain stream
Ġdep l
Ġprom ising
Ġshe ep
Ġfail ures
Ġrecogn ises
Ġdest abil
Ġrecomm ended
every thing
Ġmal ta
Ġcooper ative
Ġinh erent
Ġhot el
Ġbelong s
Ġundermin ed
Ġprofess or
Ġbare ly
Ġposs ess
Ġdiox ide
Ġpropag anda
i ov
p ens
Ġ Ã
Ġre de
mp le
Ġrep air
Ġmy th
Ġcouncil s
Ġrec ital
Ġinv itation
ian n
Ġsystem atically
Ġpr ide
Ġbr ill
ten ance
Ġca ut
ov ina
Ġrest aur
Ġrussi ans
Ġliberal ization
Ġtop ics
like wise
Ġrespond ing
Ġpain t
Ġfulf illed
Ġexpand ing
Ġexe mp
ky o
Ġdav id
Ġhes it
Ġrecyc ling
Ġprerequ isite
Ġreaff irm
g ood
Ġt iss
Ġto kyo
Ġh ate
Ġd ress
Ġd rought
Ġde em
un te
Ġres idence
ap art
em en
ok ed
Ġpolit ician
Ġbas es
Ġdes ired
Ġass umed
Ġmain tenance
Ġadv ent
Ġimm unity
Ġthreat en
Ġve ter
every body
Ġfed eration
Ġspread ing
Ġpill ars
hol m
Ġpreced ent
Ġmc c
Ġdub lin
h i
in ter
Ġs omal
en er
Ġb act
Ġe g
ot y
Ġcons cience
Ġnew ly
Ġgovern ed
Ġacc us
Ġsign ing
Ġcap ita
Ġfri ght
Ġ201 5
Ġjud ges
Ġcamp s
lif e
Ġbreak through
Ġmal aria
Ġrail ways
Ġcr uel
Ġsevere ly
Ġinequ alities
Ġali ke
Ġalarm ing
Ġdro pped
Ġfost er
Ġbrut al
Ġirrespon sible
Ġjurisdict ion
s ad
v i
Ġc ake
ion ary
ro ph
Ġwe ar
se en
Ġsu ms
op ia
and er
un k
Ġad h
Ġpre de
Ġass um
olog ists
Ġdemand ed
Ġbi ology
Ġage ing
Ġdeg rees
Ġsepar ation
Ġauthor isation
Ġdomin ated
Ġbound aries
Ġagg ressive
Ġsched uled
Ġindis pens
Ġjew ish
Ġa x
Ġc au
Ġo we
Ġu pper
ol ic
Ġun its
Ġr ating
Ġour s
Ġpre gn
Ġnow adays
Ġspe culation
Ġper ception
Ġprodu ces
Ġiniti ated
Ġmis le
ug abe
Ġune x
Ġten sion
Ġvol unte
Ġexam ining
rop he
Ġtack led
Ġcha os
Ġfre ight
Ġpush ing
Ġemerg ence
Ġsho es
Ġinj ured
p a
r ass
w ood
Ġa th
Ġp t
Ġst agn
Ġst uck
ir ty
Ġse as
Ġv ague
Ġso c
Ġres umed
Ġdis se
Ġro se
Ġsy mpt
Ġref usal
Ġatt itudes
Ġdes ert
Ġglo bally
Ġmind ed
Ġencoura ges
Ġdam aged
Ġdi am
Ġtouch ed
Ġgal ax
Ġfrank ly
Ġcatast rophe
Ġremed y
Ġhoriz ont
Ġalger ia
Ġvenez uela
Ġindispens able
f ar
h ab
i pped
j apan
v able
Ġs li
Ġb le
st ill
Ġme l
Ġrep erc
ll ow
for d
Ġinc idents
Ġte eth
Ġdec iding
Ġamend ing
Ġgr ants
Ġcontro lling
Ġvi enna
gg ed
Ġapproach ing
Ġcontribut es
Ġloc ated
Ġconsequ ently
Ġweek end
Ġtotal itarian
Ġrevolution ary
Ġphys ics
ote chn
Ġannounce ment
Ġtrib un
d emoc
k ind
p o
p al
v ation
Ġf i
st at
Ġi v
ur g
Ġst one
Ġsh ock
Ġex ag
if iable
Ġj ail
Ġmy ster
ne xt
Ġlif t
Ġobject s
Ġsince re
com es
Ġtransport ation
Ġbirth day
Ġox y
Ġconfron ted
Ġsecur ities
Ġreperc ussions
g ive
pe l
ol ved
Ġres idents
con sider
Ġinv asion
Ġsec uring
Ġsol ana
Ġ3 2
Ġcor re
Ġaccount able
Ġpat ten
Ġweak en
Ġadapt ation
Ġtown s
Ġexe mption
Ġexclus ive
Ġdar fur
Ġpipe line
Ġepid emic
Ġlingu istic
t ion
Ġs oph
en ess
Ġh ars
ic ate
Ġwe igh
Ġfor b
Ġst orm
Ġun know
od e
Ġj ac
ll s
te xt
Ġop ens
int on
Ġemp ire
arch y
Ġensure d
Ġur ged
Ġexpl ore
Ġfocus es
Ġdev ices
Ġbri ght
Ġcomplain t
Ġprefer red
cons ist
Ġembar rass
Ġlawy ers
Ġacad emic
Ġsloven ia
Ġmarri age
Ġpestic ides
Ġbrill iant
Ġa u
ic ing
Ġl oud
Ġun res
ren d
ose vic
Ġart ists
Ġyoun ger
Ġsent i
Ġdisp rop
Ġstri ve
Ġsafeguard s
Ġabol ished
Ġdispl aced
Ġflood s
Ġscre en
Ġdevast ating
Ġbub ble
ustain able
Ġn erv
th or
om ed
Ġg mos
ul l
ak h
ie th
Ġman agers
fore st
Ġben ch
Ġtri als
Ġtri gg
Ġaddress es
Ġchar ged
Ġdet ention
Ġtest ed
Ġclar ified
ex ist
Ġtransfer red
Ġwitness ed
Ġthir ds
wel ve
Ġfisch ler
h ard
or al
Ġto ys
Ġde reg
Ġapp alling
Ġtrans mission
Ġgen e
ov al
Ġunderstand s
Ġ4 8
Ġavail ability
Ġori ented
Ġpack aging
Ġindic ates
Ġreturn s
Ġfo ld
Ġdeleg ations
Ġconcent rated
Ġattemp ted
Ġdistin ct
Ġrig orous
Ġpurch ase
Ġregist ered
Ġsev enth
rem lin
Ġcamb od
iann ual
f i
i pp
p ublic
Ġt one
Ġde licate
Ġle ague
Ġint im
Ġac ute
Ġinc ur
Ġsupport ers
Ġrel ax
Ġpoint ing
Ġdep ending
eg ovina
Ġsubject ed
Ġ6 00
str Ã¶
Ġweak er
Ġsan ter
Ġsafeguard ing
Ġfeed ing
Ġadvoc ates
Ġconstitu ency
Ġpursu it
Ġshi pping
Ġast on
isra el
Ġdisprop ortion
strÃ¶ m
o y
p ower
v iew
Ġs in
Ġb rown
st op
Ġg ue
Ġsh r
qu ite
Ġk remlin
Ġout comes
te x
Ġrem it
Ġext ract
Ġproblem atic
Ġlim iting
Ġvis as
Ġcontain ing
Ġconnect ions
Ġclos ure
Ġpress ures
Ġdecl ining
Ġarrange ment
Ġattemp ting
Ġvirt ual
Ġabol ish
Ġembar go
Ġded icated
Ġneighbor hood
Ġinfringe ment
Ġstring ent
Ġstric ter
Ġnerv ous
Ġc ig
Ġp ap
Ġb id
or ously
Ġm ugabe
ur a
ol a
mb ered
out s
Ġus er
Ġpr int
Ġgu ine
Ġdist ant
Ġlib rary
Ġshort age
Ġret ail
Ġrisk y
Ġ6 5
Ġver ts
Ġfl our
Ġbit ter
will ing
Ġacqu ired
Ġpun ished
Ġprag matic
Ġconve y
Ġdossi er
Ġenshr ined
Ġingred ients
Ġherz egovina
1 1
r ition
t al
y n
Ġf ro
Ġin se
al ed
Ġd are
il le
Ġst er
Ġst amp
Ġun ified
est ed
am ount
ac ing
Ġdis regard
ose xual
sel ess
Ġro th
Ġcl inton
Ġfact ory
Ġest onia
Ġ3 6
Ġsupp ose
Ġhead ed
Ġident ical
Ġbi otechn
Ġreview ed
Ġcritic ised
Ġsens it
Ġlimit ations
Ġacqu ire
Ġuns atisf
ony m
Ġpurch asing
Ġod d
Ġnewsp apers
Ġq a
Ġhal t
Ġenvis aged
Ġdepri ved
Ġeco fin
Ġdistingu ish
Ġpostpon ed
Ġcau cas
in ct
at om
Ġw ond
Ġp and
ic ious
ri g
Ġr ide
Ġj u
ue ls
Ġtim or
Ġar ises
ub er
Ġsy ner
ang er
Ġrem oval
Ġfun ny
Ġmult iannual
Ġstress es
Ġavoid ing
Ġeth i
Ġrein for
Ġmission s
Ġmag ic
tr ue
Ġentail s
Ġhyd rogen
icy cle
an es
Ġin consist
Ġh ind
Ġd ual
Ġbe ach
Ġun st
Ġun rest
est y
Ġshould er
ag on
Ġca ution
Ġexpect ing
Ġeduc ated
Ġexc ited
Ġsat ur
Ġchalleng ing
Ġmass ac
Ġsatisf y
Ġcollect ed
Ġmedic inal
Ġstock holm
Ġwithdra wn
Ġdestro ying
Ġquant ities
Ġexpand ed
Ġtransl ate
bol lah
Ġunus ual
c ount
e k
m other
Ġm u
Ġn l
Ġg iant
Ġun willing
Ġab und
te ll
Ġsp ons
ord an
ne g
Ġfood stuffs
Ġclo thes
Ġcivil ization
Ġbur ning
Ġstri king
pol itical
Ġconsolid ate
Ġdisadvant age
Ġinterf erence
Ġevol ved
Ġdecre ase
Ġwholehear tedly
Ġkurd ish
Ġhorizont al
i est
Ġthe rap
Ġd ile
Ġst ret
Ġal ter
ore n
Ġex ert
for ward
Ġra p
Ġconf used
Ġgu ant
Ġinter action
Ġinter connect
Ġmil osevic
Ġpriv acy
Ġweak ened
Ġred ist
Ġmer kel
Ġrecord s
Ġguid ance
Ġsl aughter
Ġtyp ically
Ġtun a
Ġng l
Ġoptim ism
vest ock
Ġstabil isation
Ġindirect ly
Ġinterpre ted
Ġlands cape
Ġfab ric
Ġfant astic
Ġceleb rate
Ġholid ay
Ġdisarm ament
Ġb unch
Ġg raph
un less
Ġen act
Ġus d
Ġinc ap
Ġexp enses
Ġapp le
Ġunder way
Ġwant ing
Ġent ertain
Ġaff irm
ten eg
Ġassess ing
Ġtop ical
Ġdeli very
Ġworth while
Ġoccur s
Ġstay ed
Ġcat tle
Ġinspect ion
Ġinfect ed
Ġdisadvant aged
Ġcopy right
Ġunequ iv
imag ine
Ġprede cess
Ġunknow n
m its
in ations
Ġc oc
Ġin ject
Ġd ry
Ġg ases
Ġle v
Ġli vestock
Ġdis in
Ġconf irms
Ġsec re
Ġlif el
Ġthreat ens
Ġemphas ize
Ġlat via
Ġ9 5
Ġemb ark
reh ensible
Ġje ws
Ġhung ry
Ġfulf illing
Ġstrugg ling
Ġexclud e
Ġcorrespon d
Ġthir ty
Ġmotiv ated
Ġweakness es
Ġhars h
u um
Ġs cept
Ġb ay
ar ians
Ġwe aring
un like
Ġr w
ink i
Ġoff icially
Ġcountry side
Ġdef lation
Ġass umption
Ġsc an
Ġins ult
Ġpromot es
Ġactiv ists
Ġsou l
Ġemb ry
Ġhar vest
Ġadjust ments
Ã¡ n
Ġundermin ing
Ġvoc ational
Ġtechni ques
Ġukrain ian
Ġqa eda
Ġdile mm
h and
s ch
z ing
Ġp ages
Ġan ger
Ġh ed
Ġcon j
Ġas ks
Ġch ose
Ġj ordan
Ġpe ak
lo ad
Ġdis or
Ġmin ing
Ġrequ iring
Ġhand led
less ness
Ġsuccess es
Ġpat ents
Ġdom ain
Ġpost s
Ġmodern isation
Ġeth ics
Ġdiv isions
Ġ25 0
Ġexplo ited
Ġdict ator
Ġsupposed ly
Ġdeliver ing
Ġsett led
Ġblock ed
Ġice land
Ġconfront ation
Ġplural ism
Ġdesper ate
Ġsuspic ion
Ġorient ation
Ġsahar an
Ġfeas ible
Ġunderp in
Ġgard en
Ġatom ic
Ġbiof uels
1 0
c ot
d ue
s inki
Ġb Ã¶
Ġun t
ci le
Ġwas ted
Ġj ar
con c
Ġpre text
Ġcl ash
Ġdirect ions
Ġma h
Ġhel sinki
Ġauth ors
Ġlack s
Ġretur ning
Ġrat io
Ġharmon ise
Ġwin ning
Ġsubstant ive
Ġsymbol s
Ġquant ity
Ġrout es
Ġstraight forward
Ġmag az
gra ce
Ġcorrespon ding
tr ans
Ġsched ule
Ġroman ian
Ġnord ic
respect ive
Ġutter ly
Ġsimultane ously
c ut
g lo
Ġt ill
Ġthe ore
Ġf la
ion e
Ġe ager
Ġpro long
Ġha gue
Ġmar tin
Ġleg s
Ġtw ent
Ġmin es
Ġpr on
Ġafter wards
to o
Ġperson ality
Ġart ist
Ġinteg ral
Ġprof itable
Ġamb ass
Ġplac ing
Ġilleg ally
Ġmer it
Ġappreci ated
Ġadvoc ated
Ġthrow n
Ġye llow
Ġoffic ers
Ġridic ulous
Ġmonopol ies
c end
o thers
Ġt ong
en ous
an as
ic a
Ġpro ves
ra ined
est s
Ġen forced
Ġcan cell
Ġab ortion
Ġwork force
Ġmar t
Ġper mission
Ġlo an
Ġatt ribut
Ġ19 30
Ġnational ist
ruct ive
Ġear mark
Ġrest ored
Ġsur ger
Ġsecond ary
Ġsector al
Ġlist ed
Ġsk ill
Ġforest ry
Ġdepart ure
Ġproc laim
ari at
Ġrig id
Ġawa it
Ġfran c
Ġdispar ities
Ġpromin ent
ifor nia
Ġcig aret
Ġguine a
i us
Ġp ump
si le
Ġinc lusive
Ġte mpt
Ġpre st
Ġmon ti
Ġresol ute
Ġscient ist
Ġdead lines
Ġfront iers
Ġfacilit ating
Ġelimin ating
Ġali en
Ġcry ing
Ġineff ective
Ġcatast roph
Ġbenefici aries
Ġcaucas us
a ire
f if
w rit
Ġm ush
Ġin ex
al istic
Ġd rew
Ġal together
Ġme p
qu est
Ġpol ls
all ed
Ġpo ison
ath ers
Ġfinan cially
Ġtreat ing
Ġass ass
Ġinter medi
Ġbra ve
Ġge opol
Ġdi et
Ġdiv or
Ġfront ier
Ġprepar atory
Ġflow ers
Ġegypt ian
Ġinspect ions
Ġdisappoint ment
lad esh
Ġpersec ution
Ġbact eria
Ġtribun al
Ġunsatisf actory
2 5
9 9
y er
y an
on ess
Ġp uzz
Ġb a
Ġm as
Ġd il
Ġd ance
le ted
Ġex hib
Ġ1 20
au thor
ind ia
Ġtrans national
Ġmon teneg
Ġglo be
Ġfore see
Ġwhe el
Ġbenef ited
Ġprof ile
Ġair pl
Ġenc oun
Ġ8 00
Ġattack ed
Ġwonder ing
Ġcritic isms
Ġexec ution
Ġpan el
Ġautom atic
Ġspect ac
Ġase an
a ust
f ather
i ge
t ail
w as
Ġt um
Ġt ab
Ġt welve
Ġp y
Ġn ative
Ġl ap
the tic
Ġsh ocks
ant ic
Ġpart ial
Ġpl astic
Ġdis grace
Ġco fin
Ġco ins
Ġco exist
Ġind iff
Ġcontin ually
Ġsimp ler
Ġsect ions
Ġsur ge
Ġadv isory
Ġcomple tion
Ġfound ing
Ġgra vity
Ġjud ged
Ġpati ence
Ġmer its
Ġprofession als
lus coni
Ġhom osexual
Ġbalk an
Ġcorpor ations
Ġselect ed
keep ing
Ġhat red
Ġken ya
r idge
w in
Å ¡
Ġt ag
in ating
in ery
Ġp in
Ġd ad
Ġd read
ra f
ra de
Ġsh ocked
li ers
âĢ ľ
Ġint r
ap ore
Ġwork place
wh ilst
Ġcur ious
Ġwar ned
Ġest imate
ib i
Ġz e
Ġcho osing
Ġcoordin ating
Ġpa rent
Ġcla uses
Ġclass es
Ġreact ions
Ġord ers
Ġtransform ed
Ġsho pping
Ġafford able
Ġremo ving
Ġpred icted
Ġawa iting
Ġdisappoint ing
Ġcf sp
Ġgrat itude
Ġts un
Ġfron tex
Ġchick en
Ġcaut ious
Ġmisle ading
a e
g ments
i ety
k er
Ġt ries
Ġa qu
on ed
an ium
Ġb one
ro t
st al
Ġg ang
Ġl in
ul ates
Ġle ap
ome ters
Ġpol ar
Ġk inn
Ġlo yal
Ġro bert
Ġcl imb
Ġconf ined
Ġdes k
Ġpublic ation
be ing
Ġchild hood
Ġdemocrat isation
Ġaim ing
Ġclo thing
Ġsumm ar
Ġcirc ulation
Ġfair ness
Ġmist aken
Ġrelev ance
Ġsl ide
Ġwall s
Ġincor rect
Ġbom bs
Ġelimin ated
Ġtoler ate
Ġcontradict ory
Ġroot ed
Ġinterf ere
Ġautonom ous
Ġmort ality
Ġsubs cri
Ġkinn ock
Ġc ure
an o
Ġy emen
Ġlike wise
Ġreg ain
ag o
Ġser ving
Ġcl im
Ġ19 50
Ġsm ugg
wor king
Ġform ulated
Ġbar n
Ġbra ins
Ġjud ici
Ġassess ed
Ġmet aph
Ġens ures
Ġcompetit ors
Ġsecret ariat
Ġsal ary
ump h
Ġign or
Ġreferen ces
according ly
Ġprem ium
Ġprem ature
Ġcapt ure
Ġanx ious
Ġminim al
Ġcounterfe iting
Ġtam pe
Ġstal in
Ġsubstit ute
g ain
m i
Ġ ly
Ġt ied
in tern
is ible
Ġs ends
Ġp up
ve z
Ġg ift
Ġne o
Ġme al
im a
Ġle h
Ġch ern
Ġk ick
Ġout rage
Ġpo ol
Ġrec ruit
Ġind ig
Ġiss uing
Ġro les
Ġdisc overy
Ġjo y
Ġrul ers
Ġest ate
Ġgot ten
Ġger mans
Ġparticip ated
Ġpoor ly
Ġsuper f
Ġgain ing
Ġdict ionary
Ġcompens ate
Ġdog s
Ġber lusconi
Ġengine ers
Ġfrequ ent
Ġquar ters
Ġacad em
Ġtrave lling
Ġprote in
Ġmich el
Ġoxy gen
Ġintim id
Ġp ian
Ġb io
Ġb icycle
Ġin sight
Ġd al
as y
Ġg a
id el
Ġal ly
Ġal lev
Ġup he
Ġter min
Ġlo bb
Ġro of
Ġfact o
Ġatt ended
Ġnational ity
air y
Ġobject ion
Ġ3 4
Ġminister ial
Ġobs c
Ġfl oren
Ġcapac ities
Ġharmon ization
Ġcal ifornia
Ġsad ly
Ġcharacter ised
Ġpick ed
Ġsharp ly
Ġreass ure
Ġluck y
Ġvac uum
Ġtariff s
Ġbang ladesh
Ġvent ure
Ġarbit rary
Ġrestaur ant
m ary
o by
v ar
z bollah
Ġf rat
Ġh ang
Ġl ou
Ġl uc
Ġun amb
oun ted
op er
ip ed
Ġro w
Ġcl ock
ord s
Ġjo ke
Ġbeh ave
Ġtri umph
Ġair line
Ġmor ator
Ġje an
Ġfoot ing
Ġpref erence
Ġconstitu ents
Ġlic ence
Ġdeploy ed
Ġdup lic
Ġvigil ant
Ġredist ribut
Ġincap able
glo bal
Ġtwent ieth
Ġjudici ary
b les
b uild
j a
l ause
Ġth in
Ġf ol
Ġf led
Ġin ability
Ġin just
Ġh ect
Ġd airy
le ts
Ġun ification
so cial
od ed
Ġri val
Ġener gies
be lie
Ġem ail
Ġcrit ics
Ġspecif ied
Ġpositive ly
Ġrece ives
ger many
Ġcapital ist
Ġrenew al
Ġinfrastruct ures
Ġwealth y
Ġpet ition
Ġautom ob
Ġbarri er
Ġquant itative
Ġinspect ors
Ġhospital s
tin i
Ġod ds
Ġprivile ge
Ġforecast s
Ġtic ket
Ġtreas ury
Ġcompli ment
Ġtampe re
Ġchern oby
Ġchernoby l
g ent
w er
at ri
Ġu mb
Ġag es
Ġj ack
Ġk itch
Ġac ced
Ġcomp lied
Ġmar s
Ġmad rid
Ġreal ised
sure ly
Ġtransp lant
Ġreform ed
Ġsumm ary
Ġbank ers
pr int
Ġperform ing
ira c
Ġarri val
Ġton y
Ġmax im
Ġcourage ous
Ġradio active
Ġpref erences
Ġrecip roc
Ġdeliber ately
Ġreluct ant
rec ently
Ġelig ible
Ġveter inary
Ġmonteneg ro
f ire
l im
t op
t les
Ġp orn
Ġh oc
Ġd ates
il ater
Ġg amb
Ġha m
ad es
Ġwor ries
Ġch ocol
Ġpres erv
Ġint ent
Ġfa ire
Ġco verage
Ġpre cious
Ġent ity
Ġform ing
Ġbl ocks
Ġserious ness
Ġbar gain
Ġregul ating
Ġemphas ises
Ġsk illed
Ġdeep ening
Ġdemonstr ations
Ġcle ver
Ġlearn t
Ġsal aries
Ġcra ck
Ġdoct r
Ġobser ver
Ġoce ans
Ġrout ine
Ġbab ies
Ġanx iety
Ġsettle ments
Ġlad y
Ġdetri ment
Ġinspir ation
Ġcollaps ed
cur rent
Ġreme mbered
Ġmorator ium
ilater ally
f ol
t aking
in vest
is ual
id er
ter ies
Ġle on
am s
Ġup set
Ġlo bby
Ġmon t
Ġcar ries
Ġdep ut
Ġelect rical
Ġbl oc
Ġsw iss
Ġann ually
co pe
Ġident ification
Ġweak ening
Ġexplo sion
Ġhar ass
Ġcheck ed
Ġcub an
Ġcondemn ation
Ġswe et
Ġborrow ing
Ġcalcul ations
again st
Ġshap ed
Ġmurd ered
Ġintoler able
Ġprompt ly
Ġbankrupt cy
Ġexag ger
Ġbiotechn ology
. .
d r
p an
Ġt ank
Ġp ris
al d
st ep
Ġha v
ra int
li est
am ing
Ġk az
lo oking
Ġtim ing
Ġunder lined
ern ity
ues day
Ġconf erences
Ġcontin uity
ail and
Ġban ana
Ġinf lic
Ġsimp l
Ġ3 3
Ġ3 8
Ġris en
Ġnor ms
Ġear s
ash ed
Ġ8 5
Ġindic ations
Ġaud iov
Ġrich er
Ġcollect ing
Ġrecon cile
Ġmut ually
Ġeat en
Ġmach inery
Ġdetermin ing
Ġprosper ous
Ġcompe ting
Ġbelief s
Ġnig er
Ġscot t
Ġimbal ance
usal em
Ġdeem ed
Ġcambod ia
conc ern
Ġearmark ed
Ġaudiov isual
e enth
m ony
it ives
Ġm i
al a
Ġbe er
Ġcomp ris
pect ed
Ġsp in
Ġmin eral
Ġma o
Ġgrow s
Ġcap ability
Ġele ph
Ġlight s
Ġfle e
istic ated
Ġreject ing
Ġdefin itions
Ġbreak fast
ats on
Ġremind s
under ing
Ġuns ustainable
Ġacce pts
Ġsight ed
Ġtransl ated
Ġmov ies
Ġenem ies
Ġacceler ate
Ġsacrif ice
Ġdiscrimin atory
Ġmultinational s
count ries
Ġsurger y
Ġtsun ami
Ġunamb ig
c c
Â ·
Ġt uesday
Ġc s
ou p
ic ism
le x
Ġg ath
ow ski
Ġse ize
ain t
Ġle verage
Ġimp unity
Ġk im
our s
Ġlike lihood
Ġeconom ist
Ġoff ences
ris y
art icle
Ġprotection ist
Ġwrit er
Ġreform ing
Ġpat ri
Ġshare holders
Ġwa ves
Ġpric ing
Ġsubsid y
Ġdev al
Ġdemonstr ating
Ġrad iation
Ġextra d
Ġencourage ment
Ġfil ms
govern ments
Ġprohib ited
Ġdeterior ation
Ġdetri mental
Ġunex pected
Ġdilemm a
Ġdisor der
g i
l ers
Ġt ig
Ġs ir
Ġp ed
Ġd irty
Ġn ap
Ġha b
ol es
ch er
Ġk ne
Ġout look
Ġmar ry
Ġrec ur
ip s
Ġconf idential
Ġcontin uous
Ġur anium
Ġsupp liers
Ġdev ote
Ġwatch ed
Ġstay ing
Ġpakistan i
iling ual
Ġgold en
Ġspl end
Ġextrem ists
Ġupd ate
Ġcert ific
Ġapolog ise
Ġvers us
Ġhypoc risy
Ġprosecut or
ĠÃ ł
b ra
Ġa ver
Ġw atson
Ġs ant
Ġn ons
Ġch irac
Ġad here
de pend
Ġra pe
Ġsp are
Ġsystem ic
Ġref und
Ġdown turn
Ġbeh a
Ġnor way
Ġval ley
Ġfurther more
Ġcreat ures
Ġbar bar
Ġmis sile
Ġappropri ately
Ġgra in
Ġdest ructive
Ġconclud ing
Ġanal og
Ġill usion
Ġcredit ors
Ġinvestig ated
Ġcr ush
Ġinh er
Ġhost ile
Ġfif ty
Ġinsist ed
Ġemot ions
back s
Ġfer re
Ġmagn itude
Ġextrem ism
Ġale x
Ġneglect ed
Ġveget ables
Ġske pt
Ġsoph isticated
Ġdereg ulation
Ġsensit ivity
Ġethi opia
Ġtong ue
Ġprest ige
Ġgeopol itical
Ġkitch en
Ġchocol ate
Ġpreserv ation
m ath
s a
Ġ lying
on ic
at ories
Ġan c
ic ts
le ments
Ġre ct
Ġl ake
Ġfor cing
Ġun w
im ination
Ġag ents
Ġres id
Ġpresid encies
ig ate
ll er
si a
Ġser bian
Ġtransp osition
Ġcontro vers
Ġir respective
Ġ5 5
Ġstruct ured
ither to
Ġbur n
Ġhon or
Ġperform ed
Ġobtain ing
Ġexception ally
Ġenh ancing
Ġperman ently
Ġcompar ative
Ġii i
cl ock
Ġhur ry
asm us
Ġdiagn osis
Ġcontemp orary
Ġsequ ence
teg ration
Ġreun ification
Ġprecond ition
Ġdatab ase
a unch
s v
Ġa k
Ġf law
Ġe ve
Ġl ank
Ġpro active
Ġun ite
Ġse eds
li ances
ci o
so on
Ġhe zbollah
ak er
Ġpart ially
ok ay
Ġdiff ering
Ġro yal
Ġprov oc
Ġent ities
wor thy
Ġcent ers
Ġmed i
Ġcivil isation
Ġfarm er
Ġarg uing
Ġgra b
app y
Ġmodern ization
Ġoccur ring
Ġord ered
fr ont
Ġtun nel
Ġrob ots
Ġvirt ue
Ġphot o
Ġtradition ally
Ġcalcul ated
Ġdistort ions
Ġaccomplish ed
Ġwhol ly
Ġdrast ic
Ġmagaz ine
Ġsplend id
Ġt abling
Ġa er
Ġsh ed
Ġk iss
iv able
Ġcount s
Ġpre c
Ġcl oning
Ġdef ici
Ġemp h
Ġsm ile
Ġban ning
Ġform ation
Ġsing apore
Ġlive lihood
Ġtext iles
Ġexplain s
Ġmem or
Ġdisagree ment
ba ij
Ġdeliber ations
Ġvacc ine
Ġsomal ia
k ov
l ist
Ġp ir
Ġre op
Ġpro st
Ġun cle
oun ced
Ġor ch
Ġno on
Ġrec k
Ġinst ances
Ġprov ince
Ġadd iction
olog ist
Ġback wards
Ġinter depend
Ġtechn ically
Ġlif ted
Ġinde x
Ġel imination
Ġ4 2
ck er
ho pe
Ġgener ating
Ġfle ets
Ġexcell ence
Ġport fol
Ġinflu enced
Ġintegr ating
Ġsepar ated
Ġhor rif
Ġvulner ability
car ious
Ġmountain s
cont ro
Ġaward ed
Ġdistur bing
Ġgather ing
Ġabst ract
Ġjer usalem
Ġvolat ility
sad ly
Ġunst able
neg oti
Ġlifel ong
Ġrw anda
c or
f o
Ġth ailand
Ġo t
es ity
Ġin du
al most
Ġbe e
Ġg or
Ġl ocked
Ġst ating
Ġeuro stat
Ġor ange
Ġk ur
ak is
Ġparliament arians
Ġar isen
olog ically
Ġrev ise
Ġframe works
Ġmilit ar
Ġpass port
Ġclos est
Ġfunction al
Ġconduct ing
pol it
Ġexplan atory
Ġder iv
Ġconsolid ated
pro t
Ġcrow d
Ġswim ming
Ġshif ting
Ġincomp rehensible
Ġmerc ury
Ġmir ror
Ġcath olic
Ġbarn ier
Ġpris ons
b us
e y
f ish
m et
n et
Ã §
Ã º
Ġa zer
Ġs ink
Ġh ill
Ġh ier
Ġd ies
Ġe ase
Ġn it
th al
Ġne ur
Ġun com
Ġsh ocking
ess im
Ġimp ed
Ġimp art
Ġres ume
Ġint u
Ġout line
Ġpre carious
Ġdec ides
Ġoff set
Ġpartic les
Ġgood will
Ġconf ine
Ġmin istry
Ġsc ared
Ġsm ith
Ġbr id
gg ing
Ġes cap
Ġstrong est
Ġviol ated
Ġeng aging
Ġfundamental ism
Ġcy n
Ġcritic ise
Ġstri p
Ġcollect ively
Ġfriends hip
Ġste pped
Ġauthor ised
Ġhar bour
Ġplanet s
Ġreferendum s
Ġprior it
bes ides
Ġprevail ing
Ġanaly se
Ġdur ation
Ġchamp ion
Ġgall ery
Ġbroadcast ing
Ġvit ally
Ġcarri ers
Ġtear s
Ġinsec urity
Ġaccus ations
Ġshr ink
Ġpian o
e xt
g reat
j ad
l ary
v ice
re cent
Ġs ri
it z
Ġin land
Ġl ung
Ġcon form
Ġas y
ir an
Ġun b
Ġexp osure
Ġco oking
Ġar ts
Ġgen ome
Ġmay or
Ġmeas uring
Ġback s
Ġprev ents
Ġinf in
Ġorgan ising
Ġear liest
Ġredu ces
Ġel ites
Ġ4 4
Ġmention ing
Ġoper ates
Ġiraq is
ple te
Ġbreak s
Ġislam ist
Ġgir lf
Ġexcess ively
fr ance
Ġretain ed
Ġjournal ist
Ġkil omet
Ġscre ening
Ġpersist ent
Ġunre alistic
Ġfrust ration
Ġincomp atible
Ġunderest imate
Ġpopul ist
person ally
Ġgest ure
Ġtiss ue
democ racy
build ing
i ver
j our
Ġa z
re b
Ġs ak
Ġp essim
or ate
Ġm entions
Ġn om
st ers
Ġpres erving
Ġres il
Ġsy rian
Ġref using
Ġreason ably
Ġforeign ers
Ġadminist rations
Ġident ifying
Ġfisher y
pr an
Ġexport ing
Ġappear ance
Ġreact ors
Ġbot tle
Ġhonest y
Ġwitness ing
Ġlength y
Ġhyp o
Ġperpet rators
Ġdesp air
Ġmathemat ics
Ġinstruct ions
Ġtrace ability
Ġmortg age
Ġsla very
Ġkaz akh
Ġazer baij
u a
Ġw ire
Ġs que
Ġf ib
Ġan ch
as ive
os ur
Ġen comp
Ġrep lied
Ġcont ents
are st
Ġper mits
Ġlo ves
int rodu
Ġbas el
Ġpoint less
Ġdef ended
Ġ19 3
Ġbud d
Ġlif ting
Ġrest oration
uc cess
Ġ7 00
Ġcross ing
Ġbreak down
Ġsimilar ly
Ġharmon y
Ġslow down
Ġrecon sider
Ġdescri ption
ob ama
Ġlay ing
Ġpan ic
Ġhonest ly
Ġlux ury
Ġphenomen a
Ġdepart ments
Ġrestric ting
Ġsurpl uses
Ġprivile ged
Ġinstall ations
Ġredund ant
Ġegg s
Ġindig enous
Ġanc est
Ġencomp ass
i que
r ance
z ens
Ġt ap
Ġt ons
Ġa str
Ġb less
al ong
Ġh i
Ġh inder
Ġre organ
Ġg n
res sions
Ġme ters
Ġch ris
ab out
Ġpo em
he alth
Ġra b
Ġtra um
ors hip
Ġdisc ret
Ġadd s
Ġemp ow
Ġass ault
be an
Ġsch ol
Ġequ ipped
Ġvi ability
Ġsuccess ive
Ġconsum e
Ġafric ans
Ġkey nes
Ġele v
Ġer u
Ġexplain ing
Ġrad ically
Ã© s
Ġextraordin arily
Ġdin os
Ġcas ual
Ġprejud ice
mis sible
Ġmira cle
Ġumb re
pran ational
k ash
m od
or ious
Ġf athers
Ġn ie
as ant
il ation
Ġu seless
id ently
ch ing
Ġun ch
Ġsu pranational
ter ror
qu ar
Ġen gin
Ġpres erved
Ġbut ter
ous es
Ġte ch
Ġar rog
ine jad
Ġtra ins
Ġsp aces
Ġhuman e
Ġref rain
Ġshe et
Ġvi br
Ġsuccess or
Ġiniti ate
Ġdraw s
Ġ9 9
Ġconclud es
Ġcorrect ed
Ġmal ay
Ġlay s
Ã¶ der
Ġdraf ts
Ġreve als
Ġvig orously
Ġevolution ary
Ġfortun ately
Ġimprison ed
Ġtast e
Ġderog ation
Ġtrigg er
Ġdisproportion ate
Ġfrat tini
Ġreciproc ity
Ġasy mmet
Ġengin es
Ġt ie
Ġt ends
Ġs is
Ġs essions
Ġc rop
Ġp ione
Ġb ans
Ġf its
al i
ro ach
ur ances
ess ed
ci pe
Ġwor s
Ġimp ly
Ġcount ing
Ġqu art
Ġdis ability
Ġtra p
Ġinv isible
Ġla undering
Ġcar ib
Ġreason ing
Ġgr id
Ġbl ocking
Ġ4 6
af i
Ġten nis
Ġlink ing
Ġrelig ions
Ġrich est
nam o
Ġalloc ate
Ġrepl acing
Ã¡ namo
Ġlabor atory
Ġbom bing
bor n
Ġexe mptions
Ġfort une
Ġrac ist
inc re
Ġfruit ful
Ġundermin es
Ġdeliber ate
Ġcommod ities
Ġcomplement ary
Ġchamp ions
Ġstead ily
Ġdismant ling
Ġfro zen
Ġgath ered
c ultural
d is
f ts
f und
h igh
p rom
v o
v ian
Ġ Â
Ġth ri
Ġh orm
Ġd u
Ġd well
Ġre hab
Ġal ign
ra v
ort ed
Ġen light
ist ically
Ġcan c
Ġact or
Ġob esity
Ġoff ensive
ath y
Ġgu ided
Ġread iness
Ġbal ances
Ġel abor
Ġ4 3
Ġexpress ly
Ġvis its
Ġslow er
Ġwin ner
Ġship y
Ġterri f
Ġgrand mother
Ġparal ys
har ov
Ġves sel
amend ments
Ġmerc osur
Ġfortun ate
Ġunderest im
Ġcypri ot
Ġambass ador
Ġtempt ation
Ġze al
intern ational
Ġgirlf riend
a o
m un
m ap
o res
in form
Ġw il
Ġm ol
Ġh itherto
Ġre imb
Ġg ro
ch et
Ġne ts
Ġv en
we ight
od a
Ġab d
Ġad mission
Ġup s
Ġman o
lic ity
Ġconc ert
Ġunder ground
Ġworld s
Ġbo ats
ite ly
Ġdisc rep
Ġsec ured
Ġlif et
Ġcond itional
Ġadv ise
Ġlib eration
Ġexpect ation
Ġbar oness
Ġindivid ually
Ġmid st
Ġgra de
Ġsuggest ing
Ġcirc les
Ġant ibi
Ġtour ists
Ġlaunch ing
Ġblo ody
Ġcooper ating
Ġsimplif ying
Ġbos s
Ġliter ature
Ġpreced ence
Ġdeploy ment
Ġevol ve
thes is
Ġsuspect ed
Ġunh appy
Ġinse ct
Ġsak harov
Ġumbre lla
quar ters
Ġcarib bean
1 5
p es
v ard
Ä į
an en
Ġm ud
Ġg ear
ort ions
ge red
Ġse min
Ġdo zen
Ġk al
Ġqu o
Ġexp on
Ġsp ur
Ġprov in
Ġdirect ors
low s
pet ition
ract ed
Ġimpro ves
Ġallow ances
Ġwel coming
Ġequ ation
Ġpop ulated
Ġsing ing
Ġold est
Ġbor ing
eu v
Ġjud gments
Ġver sions
cri min
Ġbi om
Ġden omin
Ġimag ined
erent ial
Ã¡ vez
Ġdynam ics
Ġhur ric
Ġsto pping
Ġforg ive
Ġfrequ ency
Ġren der
Ġineff icient
Ġintens ify
Ġpoet tering
Ġclin ical
Ġsympt oms
Ġguant Ã¡namo
Ġconj unction
Ġcatastroph ic
Ġrehab ilit
Ġmano euv
d on
u y
Ġw olf
or ically
Ġd g
Ġn as
Ġst ol
Ġcon vert
Ġun av
Ġse ed
Ġpar ame
con f
Ġcount less
ab ul
Ġpl ot
au er
Ġsy mmet
Ġcour ses
Ġke ys
ict ions
Ġban anas
Ġlegisl ators
Ġaw ful
Ġsuff ers
Ġhear ings
Ġindic ator
Ġcod es
Ġanalys es
Ġrestrict ion
Ġdecl ined
cul osis
ex per
Ġdimension al
Ġclean er
Ġhost age
Ġder ived
tur ning
Ġpension ers
Ġfat al
Ġvill ages
Ġcorrespon ds
Ġsusp ension
Ġparad ig
Ġerad icate
Ġcot ton
Ġax is
uber culosis
Ġtheore tical
concern ing
Ġazerbaij an
b ig
g ers
k est
m ese
re al
Ġe f
Ġu en
ut s
Ġha ul
Ġal t
Ġun cond
im er
Ġag ing
Ġab ide
um ers
Ġpre dom
Ġthem es
Ġdec omm
Ġsupport ive
Ġover se
Ġcl ust
Ġintern ally
ang le
Ġmo od
Ġpr ince
Ġneg lig
ount ered
Ġph ones
Ġcor rid
Ġwish ing
Ġsumm its
Ġappe als
Ġenc ountered
Ġhead quarters
Ġbur st
Ġbur mese
Ġconte mpt
some one
Ġrecomm ends
Ġsan ction
Ġrepublic an
Ġhistor ically
cul es
Ġspirit ual
Ġbat tery
Ġdynam ism
Ġaccompan ying
Ġtibet an
Ġprofound ly
Ġfing ers
Ġenvis age
Ġswift ly
Ġque en
Ġincon ven
Ġmun icip
Ġpregn ant
Ġencoun ter
Ġcoexist ence
Ġgamb ling
Ġhab its
prot ect
Ġkazakh stan
Ġdecomm ission
h ann
Ġt uberculosis
Ġth rust
Ġa mp
re se
is ations
Ġp air
Ġre cipe
Ġl amp
Ġha w
Ġare na
Ġas p
Ġpar amount
Ġhe ed
ak s
Ġrep rodu
Ġno se
me mbers
Ġfe es
Ġser bs
Ġover r
Ġoff ence
Ġsub ordin
Ġdisc red
Ġdisc oura
Ġatt ending
Ġass igned
Ġrest oring
Ġopp ression
Ġexpect ancy
Ġrecogn ising
Ġentire ty
Ġpot ato
Ġhear ts
Ġwa ited
Ġmult ilingual
Ġreject s
Ġsuper mar
Ġlay er
Ġunf old
Ġstrength ens
Ġswe ep
Ġreplace ment
Ġsleep ing
Ġchap ters
Ġcorner stone
Ġfasc inating
Ġimprison ment
Ġderog ations
Ġnaz i
Ġperiph eral
Ġimpart ial
kest ein
Ġpredom in
rese arch
e ken
i i
i as
p orts
s c
u ated
v ial
v ention
w ash
in ent
Ġc ats
Ġp ending
Ġto y
Ġf ru
Ġf ile
ar raf
Ġme lt
Ġat roc
Ġch ronic
ome ter
si mp
Ġtr uck
he res
Ġinv ention
Ġdef er
Ġsc ra
Ġsc ri
Ġsc ul
Ġris es
Ġcor n
Ġlet ting
Ġdist ortion
Ġsupp lied
Ġshort er
Ġcred its
Ġimpact s
Ġpack ages
Ġred ress
Ġhun ting
Ġpain ting
Ġspeed y
Ġenorm ously
Ġphot os
cons umers
Ġlic ences
Ġdirector ate
Ġmotiv ation
Ġkil ometers
Ġpassion ate
Ġscandal ous
Ġunre ason
Ġanticip ated
Ġdivers ification
Ġcontemp l
Ġairpl ane
Ġcofin ancing
Ġdread ful
Ġignor ance
Ġdoctr ine
Ġdeput y
Ġnons ense
Ġkur ds
Ġstol en
i ated
m n
z be
an z
Ġb in
Ġe ld
Ġg m
Ġg ol
op oul
Ġat e
Ġimp ressed
Ġrep roductive
si x
de c
age ment
ign ific
Ġfe ared
act ually
Ġrem inder
Ġ20 50
Ġequ itable
Ġbl at
fin an
Ġann an
Ġemphas ized
Ġdesign ers
Ġdest ination
Ġstop s
Ġreflect ing
Ġsal t
Ġconstruct ed
ob oda
Ġqual itative
Ġobst ruct
Ġreact ed
Ġwid ening
Ġphil ipp
Ġagg reg
Ġalban ian
Ġinj ury
Ġbol kestein
Ġirre lev
Ġdan ube
emoc ratic
Ġconscious ness
Ġcontam ination
Ġmisunder standing
Ġpoc kets
ener gy
Ġentertain ment
Ġquart et
d in
t t
v a
v y
v in
Ġs ar
or able
id al
Ġne pal
Ġun ilaterally
Ġab used
Ġab bas
Ġup gra
Ġman kind
Ġte en
thing s
Ġover night
Ġfact ories
Ġla eken
Ġsign atures
Ġca iro
Ġimm une
Ġsw oboda
Ġtri g
Ġlow ering
Ġoppos ing
thod ox
app ed
Ġrepe ating
Ġemb od
Ġrich ard
Ġwin ners
Ġspir al
Ġquot ed
Ġcondem ning
Ġsurv ived
Ġlu kash
Ġdrink s
Ġgrand father
Ġbelong ing
Ġcast ro
Ġreiter ated
Ġselect ive
Ġvacc ination
Ġbol iv
Ġdisplay ed
Ġclub s
Ġmole cules
Ġsme ll
Ġcomfort able
Ġtact ics
Ġoverlook ed
Ġecosystem s
Ġinjust ice
Ġcontrovers y
Ġlank a
e lect
m id
p rog
Ġs am
Ġp as
Ġf ier
Ġh oney
Ġh iding
Ġd ust
ro se
Ġre ception
Ġbe es
ly wood
ur ate
Ġst ro
Ġde eds
Ġcomm em
op eration
us s
con tin
Ġqu it
ru p
Ġrec ourse
Ġind ul
Ġmin i
Ġadd itives
Ġma ur
Ġafter math
Ġelect ron
Ġinde fin
Ġins ol
cu le
par ts
Ġapproach ed
Ġtri vial
Ġprof essions
Ġpass ive
Ġchar les
Ġdest iny
Ġmass es
ls on
sp ace
Ġign oring
Ġsurpris ingly
Ġren d
Ġagg ression
Ġball ot
Ġpi racy
Ġpredict able
Ġpref erential
Ġpersu aded
Ġvacc ines
Ġguard ian
add afi
Ġnur t
Ġdepos it
Ġjac ques
Ġfranc is
Ġspectac ular
hann es
Ġt une
Ġt enth
Ġin ner
ic able
th rop
Ġre lying
Ġy en
Ġal ert
Ġex it
Ġex cise
Ġv icious
ĠâĢ Ķ
Ġimp over
Ġk u
Ġpl a
em a
Ġri vers
Ġinc in
Ġtim ber
de z
te l
Ġco gn
Ġcons p
me as
Ġpos sel
og en
Ġra y
ub ar
Ġinv al
Ġagree ing
Ġref uses
Ġcur tain
Ġcur tail
Ġsol v
Ġsc our
Ġinter oper
Ġdra g
Ġear ned
Ġintrodu ces
ata h
Ġmis ery
equ ally
Ġspecial ist
mploy ment
Ġemb ass
Ġsepar ately
Ġbul k
Ġtour ist
Ġexpendit ures
Ġtaxpay er
Ġprosec ution
Ġwindow s
Ġbreat he
Ġillust rates
Ġcli ents
Ġshap ing
Ġcens ure
Ġbes ides
Ġspecul ative
Ġscarce ly
Ġtac is
Ġexemp lary
Ġassum ing
Ġwond ered
Ġdivor ce
Ġporn ography
finan cial
Ġtrig gered
Ġpossel t
a cio
b ted
p rodu
r ational
re z
Ġs ided
ic ular
Ġn inet
Ġpro x
Ġpro ving
Ġne u
qu it
Ġr Ã¼
Ġor te
ab et
ult imately
Ġco in
Ġmar king
Ġspe ll
Ġsp ends
ange red
Ġend angered
Ġass urances
Ġtal ent
Ġbr ink
Ġprocess ed
Ġfore front
Ġimm inent
Ġ4 7
Ġopt ed
Ġindepend ently
Ġdoub led
Ġcoordin ator
Ġroad map
Ġsen ate
Ġqual ities
Ġsafe ly
Ġphys ically
Ġprefer able
Ġstim ulating
Ġoccasion ally
Ġpleas ant
Ġboost ing
200 1
Ġsurround ed
Ġcamer as
Ġacknowled ges
Ġexceed ed
Ġinsp ire
Ġsloven ian
Ġbub bles
Ġmanip ulation
bas ically
Ġdesper ately
Ġstead y
Ġrecruit ment
Ġautomob ile
Ġfaire r
Ġoverse as
Ġscul pt
zbe k
ubar ak
s er
t an
u sions
re ck
Ġs ab
Ġn aked
Ġg reed
pe red
ra ction
the ast
op ing
Ġv ain
Ġint ra
Ġad vers
Ġman n
Ġdec oup
Ġover t
Ġover coming
Ġlo ad
Ġlo ose
Ġrel atives
Ġass ign
Ġserv ants
Ġinde bted
Ġnegoti ators
Ġseem ingly
Ġestablish es
Ġpass es
Ġele ven
Ġpal acio
Ġcy cl
Ġil o
Ġtrust ed
ca mb
Ġadap ting
Ġhar vard
Ġappeal ing
Ġproportion ality
Ġscand als
Ġincom plete
Ġep is
Ġprohib it
Ġdub ious
Ġfran co
Ġcert ification
Ġabsor b
Ġveget able
Ġoffic er
Ġalleg ations
Ġforb idden
Ġunres olved
Ġlukash enko
Ġorte ga
e en
e ither
m ir
m ail
Ġt rop
Ġm ism
Ġf ert
Ġd ens
Ġbe ll
Ġg y
Ġfor ge
Ġun contro
Ġdo zens
Ġch Ã¡vez
am ble
Ġab du
oc aust
Ġfin es
Ġthem atic
Ġper cept
Ġcl oud
Ġtrans action
Ġmin ors
Ġcontin uously
Ġbu ff
Ġide als
Ġdeal ings
Ġbl an
Ġbenef iting
with standing
Ġexpress es
co operation
Ġmet al
Ġsent enced
Ġara bs
Ġexport ed
Ġexport ers
Ġkid n
Ġpret end
Ġbat teries
Ġwall strÃ¶m
Ġfast est
Ġsho ot
Ġpul led
Ġvig orous
Ġmargin s
Ġbox es
Ġsyn thetic
Ġdar win
Ġunequ al
Ġprote ins
Ġdismiss ed
Ġbreed ing
Ġstagn ation
Ġsque e
f at
g arian
i ably
r ality
t ry
Ġo mission
Ġp itch
Ġb ric
ion al
om as
Ġwe t
Ġst ere
ver sible
Ġor thodox
Ġk ash
Ġac id
ag an
lic k
Ġunder lines
ound ing
Ġsp r
igh ter
Ġgu iding
Ġinform ing
Ġbr ush
Ġinter ior
Ġconv ictions
let ion
Ġreach es
Ġhard est
Ġdesign ated
Ġred ing
Ġden ial
Ġclass ic
Ġclass room
Ġstra in
Ġoccup ying
fe w
Ġattach es
Ġash amed
Ġnav igation
Ġpled ged
Ġah mad
Ġexhaust ed
Ġfragment ed
forest ation
Ġinconsist ent
Ġforesee able
Ġmetaph or
Ġlobb ying
current ly
Ġprost itution
Ġlifet ime
Ġphilipp ines
c ular
f ive
k h
r as
Ġa us
Ġs le
it an
Ġb ones
Ġto ll
Ġf atah
Ġg on
Ġl ama
ot ive
ot ics
Ġfor d
ul sion
ill a
Ġun c
Ġag ed
Ġres erved
Ġad am
Ġcont est
Ġout right
red ict
Ġtoo th
Ġext ends
Ġla ure
Ġcontin ents
Ġdra in
Ġmod e
Ġdep ressed
Ġrest s
Ġmil est
ret t
Ġmean while
Ġshort ages
Ġbar rel
Ġret reat
where as
af ric
Ġgre et
Ġcoh n
Ġeur atom
Ġimpos ition
Ġroom s
inst ein
jo hn
Ġharmon ising
Ġbul garian
Ġprison er
Ġcharacter istic
Ġcompl ac
Ġinad equ
Ġsac red
Ġcontradict ions
Ġhol ocaust
Ġillust rate
Ġextrem ist
Ġcapt ured
Ġendeavour s
Ġcease fire
Ġanticip ate
Ġaccommod ate
Ġcultiv ation
Ġrevers ed
sm all
Ġarmen ia
Ġdepl ore
Ġtherap y
Ġparame ters
Ġinteroper ability
b l
Ġm ouse
Ġm aps
Ġf iction
Ġre wards
ot al
Ġst ir
ri um
Ġsh y
Ġse ver
Ġdo omed
Ġall er
Ġhe y
Ġk at
ac ity
Ġdis gu
ie l
Ġev asion
Ġleg ality
Ġjo hannes
Ġend less
Ġtur bul
Ġtransp osed
Ġform ulate
Ġauth ent
Ġnat ura
Ġta j
Ġins urg
Ġless er
Ġrese mb
Ġchalleng ed
Ġvo iced
Ġdepend ency
Ġhighlight ing
Ġcounter parts
Ġmig rant
Ġ14 0
Ġ13 0
Ġhit ler
els on
Ġadjust ed
Ġengine er
Ġadvoc ating
Ġdecis ively
ari os
Ġscen arios
Ġrecip ient
Ġflu ct
Ġacceler ated
Ġcf p
Ġpled ge
su pport
Ġcontam inated
Ġambig uity
Ġdetain ed
Ġbran ch
Ġgalax y
Ġunequiv ocal
Ġsecre cy
Ġgn p
camb ridge
f ra
n esty
u mber
Ġa rose
re a
Ġc u
Ġp n
Ġb und
Ġb endit
Ġan onym
Ġh its
ar ound
ut ing
Ġpro mp
ere rs
we g
Ġle cture
am in
Ġj i
con st
um es
Ġco ach
Ġmat ernity
Ġcur b
Ġquestion ed
Ġreal ism
Ġatt ent
Ġprotect ive
Ġemploy ee
Ġread ily
Ġ5 2
Ġdist ress
Ġfam ine
Ġexpect s
Ġviol ate
Ġvar ied
Ġciv ic
Ġcir cu
Ġdam ages
Ġemb ed
Ġund emocratic
Ġvir gin
Ġhor ror
ik i
Ġenjo ying
Ġtravel ing
Ġoccup y
Ġreferend a
Ġattract ed
Ġran ks
Ġleban ese
Ġinfect ion
Ġdistingu ished
Ġreloc ation
Ġhypoc rit
Ġau ction
Ġpredecess or
Ġhed ge
Ġdal ai
Ġallev iate
Ġextrad ition
Ġdefici encies
Ġorch est
Ġunav oid
a el
b rit
d ated
f aced
f old
o le
w ing
on ou
Ġc ited
it ting
Ġb ills
Ġm ubarak
Ġh ub
Ġn ab
Ġre ef
Ġre think
Ġg ay
Ġl en
Ġwh ist
Ġst un
Ġde af
Ġas leep
Ġeuro just
Ġpar king
est yle
Ġch ad
od es
Ġj os
ard o
Ġrep ressive
Ġconc erted
Ġsp a
Ġcommit ting
Ġrel aunch
rat ory
Ġext in
Ġlif estyle
Ġorgan ize
Ġir rational
Ġmor ality
Ġpass age
Ġche cking
Ġmaintain s
Ġevent ual
Ġden ying
Ġdeg rad
Ġdiplom ats
Ã¶ r
Ġimplic it
Ġcatch es
Ġjudge ment
Ġshame ful
Ġdemonst rators
Ġinfringe ments
Ġdistur b
bet ter
bet ween
Ġprivat isation
Ġcot onou
Ġimperial ist
ios ity
Ġcab inet
Ġwarn ings
Ġroc ket
Ġug anda
Ġsyner gy
Ġmush arraf
Ġredistribut ion
Ġderiv atives
Ãº n
Ġrehabilit ation
Ġirrelev ant
Ġninet eenth
a ven
c op
c ulate
g or
j e
o ons
Ġthe ater
Ġthe ories
on i
en large
Ġo zone
an ne
Ġb ern
Ġd ressed
ol as
ig ration
Ġrep ay
Ġpe ters
oc cup
he imer
Ġra cial
Ġsp ill
Ġbo ther
und i
tain ing
ite ment
Ġdisc l
Ġtur mo
Ġinter l
Ġlegisl ate
Ġest e
Ġfav oured
eng u
Ġpeace keeping
Ġret ention
Ġstandard isation
Ġhome land
Ġexpl os
Ġvis iting
Ġhead lines
Ġer asmus
az z
Ġself ish
Ġaut oc
Ġtemp or
Ġcounter p
Ġdescri bes
Ġblack mail
Ġhor ri
Ġhit ting
Ġconver sion
Ġmem ories
Ġang le
Ġmanufacture r
Ġreserv ation
Ġdiss atisf
Ġolymp ics
Ġincident ally
Ġcens orship
vi ol
Ġproclaim ed
lim ited
Ġscott ish
Ġmalay sia
Ġatroc ities
Ġunreason able
Ġturmo il
a ired
g ree
l ining
m ill
Ġa ri
Ġo lig
an mar
Ġm ile
ar at
Ġre introdu
st s
Ġl ion
Ġu zbek
Ġst y
Ġde lete
Ġv lad
Ġj ames
Ġk o
Ġout dated
Ġcomp osed
Ġinc lined
Ġwork able
Ġte les
Ġar ray
Ġob li
Ġsub mission
Ġhum ili
Ġconf using
Ġdef ect
Ġemp ower
Ġass ent
Ġsc ream
Ġstand point
Ġdown ward
be yond
Ġ3 9
Ġph are
Ġins ists
Ġconv icted
Ġconsum ing
Ġloc ally
Ġbur ned
Ġproper ties
Ġ201 4
Ġemer ges
Ġassist ing
Ġport ra
Ġinflu ential
Ġoblig atory
Ġclass ified
Ġclass ification
Ġdead lock
Ġsuperv is
Ġgradu ate
Ġtend encies
Ġdomin ate
Ġtight en
gen er
Ġdisadvant ages
Ġprivile ges
Ġnut s
Ġic c
ÃŃ n
Ġsahar a
Ġexerc ised
Ġpand emic
var ious
Ġemph atically
terror ism
Ġauthent ic
enlarge ment
c itiz
e z
e ba
o a
p ers
r ne
Ġth rew
Ġs lu
Ġh anging
ic ago
st ein
Ġg ates
Ġst ub
Ġha mp
Ġal tered
Ġun le
Ġun think
Ġsh ore
Ġse ized
Ġj im
Ġk la
ll ers
Ġinc umb
iz ar
Ġra mp
ved ev
Ġcur ric
Ġent rust
Ġass ad
Ġmod es
uc lear
Ġbl amed
Ġcomple ting
Ġdist ances
Ġlab els
Ġrecogn izing
Ġz o
Ġhold ers
Ġge ared
ush ch
Ġdev ised
Ġhuge ly
reg rett
Ġpress ed
Ġtraff ick
Ġstri ving
Ġrenew ables
iet ies
Ġmand elson
Ġinvestig ating
Ġarri ving
Ġclaim ing
Ġchem istry
Ġder ive
Ġagg rav
Ġimper fect
Ġmobil ise
part icular
rel ated
Ġattend ance
Ġintens ity
Ġvac ation
Ġphotograph s
Ġentrepreneurs hip
Ġerad ication
spe cif
Ġfool ish
Ġcounterfe it
Ġsuperf lu
fo ot
Ġantibi otics
Ġmanoeuv re
Ġpn r
citiz ens
regrett ably
b g
g row
p at
u pp
z heimer
Ĥ ¬
Ġth ro
at ibility
Ġc ia
Ġc ite
Ġp ound
Ġm am
ed uc
il ib
Ġg sp
Ġg olf
Ġl ul
Ġl ud
Ġl one
Ġl ord
Ġl ock
pe ace
ir ation
Ġun den
im ir
Ġby rne
Ġch arity
Ġr ank
Ġcan ad
Ġj am
Ġhe ated
Ġor ph
Ġad jour
Ġpl un
Ġmy anmar
now adays
Ġpo ly
Ġmar sh
Ġsp ots
Ġtw in
Ġconf ed
Ġsocial ism
Ġappro ving
own ers
Ġhope ful
Ġpower less
Ġcond ol
Ġrest raint
then burg
Ġvis ibility
Ġcomb ining
Ġmind set
Ġmis er
Ġmot ives
Ġarg ues
Ġwa iver
Ġprob ability
Ġfig ured
Ġimmig rant
Ġcross ed
Ġindic ating
Ġden ounce
tom orrow
Ġfo x
Ġig no
Ġund ers
Ġdr unk
Ġsun ni
Ġcr ude
Ġmanufact ured
Ġfeed back
oin ts
Ġshar on
Ġgeograph y
bur gh
ato eba
Ġtight ening
Ġfer til
Ġaccur ately
Ġmobil isation
Ġchurch es
Ġâ Ĥ¬
Ġdefe ated
Ġintens ified
Ġnut rition
Ġupd ated
Ġunp redict
Ġconvers ations
Ġcypri ots
Ġrevol utions
Ġhesit ate
Ġeg f
Ġsoc rates
Ġcorre ction
Ġassass ination
Ġsmugg ling
Ġharass ment
hope fully
Ġkilomet res
Ġparadig m
Ġjohannes burg
Ġcounterp roductive
Ġsuperflu ous
a urs
c ase
d ad
f reedom
g one
m are
s ing
in ts
Ġc res
Ġb ible
Ġun limited
Ġgo thenburg
Ġhe ge
end ers
ac cess
ac ulture
Ġpe ter
em an
ag og
Ġpre ach
Ġpre rog
Ġpo pe
ok es
Ġbet ra
Ġra ins
Ġunder going
Ġfe e
Ġinst inct
Ġrespon ds
lud e
Ġcar l
Ġpow ered
Ġsign ature
Ġmed a
Ġprev al
Ġinf lows
Ġfra ction
Ġsch mid
Ġshe ets
Ġrev ive
Ġdri ves
omet ric
Ġver ification
Ġdev ise
Ġfl ash
Ġcy cles
Ġmodern ise
Ġcle ared
Ġclass ical
Ġara fat
Ġste pping
Ġhy gi
ustom ed
Ġslo gan
Ġcomplain ed
Ġclean ing
Ġvisit ors
ta x
Ġterri bly
Ġcompe lling
Ġspok es
sk y
Ġgeorg ian
Ġconce al
Ġscand ina
Ġhol es
Ġol ive
Ġadm ire
Ġdecre ased
Ġbreach es
Ġirre versible
Ġmurd ers
Ġhero es
Ġredund ancies
Ġcatal y
Ġna ive
Ġshel ter
Ġescal ation
Ġincur red
Ġmassac re
Ġunambig uous
Ġflaw ed
Ġuncom fort
Ġdecommission ing
Ġfier ce
Ġtrop ical
Ġahmad inejad
f arm
l ondon
Ġth r
Ġp iv
Ġb izar
Ġm d
Ġm ild
ou re
Ġe man
Ġl t
Ġwh is
Ġfor ty
Ġst akes
Ġha mm
Ġcon qu
ch en
ir s
Ġsu ited
Ġle an
so far
rom e
Ġli ik
Ġhe ating
Ġab ilities
Ġint act
ren der
Ġri o
Ġsa mp
Ġpre occup
ach e
Ġover sight
Ġover due
Ġstr and
Ġgen eric
Ġho ly
Ġmon u
Ġdef ines
Ġquestion able
Ġback ward
Ġenviron ments
Ġmed ina
Ġsimp licity
Ġsch r
Ġread s
Ġbur ied
Ġdeep en
Ġfl av
Ġindic ative
Ġund es
Ġtemp ted
Ġanalys ed
Ġcontinent al
Ġcorpor ation
Ġboy cot
Ġang ola
Ġslight est
Ġsearch ing
Ġprevail s
Ġwebs ites
Ġearn ings
Ġshap es
Ġgh ost
Ġsmoo thly
wa it
Ġlad en
Ġcelebr ated
Ġmisunder stand
Ġadvis ers
Ġlam y
Ġmyster y
Ġflour ish
Ġhav ens
Ġeleph ant
Ġrefund s
Ġneur ons
Ġeru pt
Ġbiom ass
Ġfrancis co
Ġstere oty
Ġtempor arily
Ġliik anen
1 4
l or
m ble
m oud
w al
Ã ±
Ġc ents
Ġo omen
Ġf li
Ġe instein
Ġre hn
Ġl as
Ġl ament
ow ed
ri ans
ch i
ul lah
ad mitted
ge or
Ġv ested
Ġen for
so lete
Ġpol es
Ġk g
Ġqu a
ear ly
Ġout s
ition ally
Ġtra pped
Ġgovern or
act or
Ġmo z
rat or
Ġass u
ne ys
Ġinvest or
Ġmod ification
Ġhand ic
Ġ3 50
Ġsur render
Ġes p
Ġ5 4
af e
Ġconflic ting
Ġrequest ing
Ġsk i
Ġorigin s
Ġmethod ology
Ġassoci ate
Ġreview ing
lin ary
Ġexplo iting
Ġconfirm ation
ann y
Ġbureauc rats
Ġtransform ing
roso ft
Ġtele com
Ġabandon ing
Ġparal y
Ġpurch ases
Ġunnecess arily
Ġlic ens
Ġflag s
Ġoverwhel m
Ġevalu ating
Ġdictatorship s
Ġvalid ity
Ġsudan ese
Ġintoler ance
Ġunjust ified
Ġdivid ing
hist ory
Ġdisse min
Ġgalax ies
Ġsenti ment
ĠbÃ¶ ge
Ġportfol io
Ġhurric ane
ignific ant
Ġboliv ia
Ġcogn itive
Ġkash mir
Ġvlad imir
Ġunthink able
Ġigno res
admitted ly
b ear
d rop
n orm
p ing
s ol
Ġt ender
Ġa ven
Ġw ines
it ual
Ġp engu
ion ed
Ġd row
ro ots
ro oms
Ġe e
Ġre na
se ment
Ġde leted
ul um
Ġun law
oun der
ich et
Ġle thal
us ive
Ġhe aven
Ġk or
Ġpe er
Ġtr ichet
Ġco at
Ġapp les
Ġsa mple
Ġpo le
Ġob solete
Ġpolit e
Ġper u
Ġind ians
Ġbas que
Ġlast ed
olog ies
Ġval ued
Ġequ ilib
Ġbal i
Ġstar k
Ġrecogn izes
ib eral
Ġru ij
Ġpen cil
Ġdesign ate
Ġsuper power
Ġland ing
reg ional
Ġill iter
Ġislam ists
Ġanalys ing
Ġmal n
Ġpain ted
Ġflow er
Ġproceed ing
Ġcontract ual
Ġinsist ing
Ġautom otive
Ġdomin ance
Ġabol ishing
Ġsport ing
Ġexclud ing
Ġinterpret ations
Ġexe mpt
Ġgeograph ic
Ġreli ability
Ġthrow ing
Ġtough er
Ġprohib ition
Ġinj uries
Ġacceler ating
Ġlaugh ing
Ġshif ted
Ġillness es
Ġtall er
Ġvary ing
Ġfragment ation
Ġbran ches
Ġnomin al
Ġresign ation
Ġaston ishing
Ġreinfor cing
Ġsatur day
Ġpuzz le
Ġastr onom
Ġdinos aurs
Ġfru its
Ġscour ge
Ġunavoid able
Ġruij ten
b at
c ity
d iff
i h
s how
Ġt ide
Ġth omas
Ġc in
it ter
it ure
or a
Ġd ense
ic it
Ġre ap
Ġre jo
ct ors
ld om
Ġst if
Ġnot able
Ġnot ification
Ġsh irt
Ġv itor
mb owski
Ġr itual
Ġli p
Ġli able
Ġk ir
Ġam nesty
Ġcont ag
Ġpe cul
ire land
Ġpre cip
Ġover view
Ġacc ustomed
Ġ19 2
Ġprotect s
Ġcar c
Ġsuc cession
Ġhealth ier
Ġdemocrat ization
Ġcor al
Ġcrit ically
Ġcontribut ors
over all
Ġshort fall
Ġvar ies
Ġappe aring
Ġair space
Ġtransport ed
Ġexpl oration
Ġcongrat ulated
Ġspecial ists
Ġmus cle
Ġlos ers
Ġexch anging
Ġbi as
Ġdescri bing
ilit ary
ze mbowski
ik h
Ġsafeguard ed
Ġcondition ality
Ġpsych ology
Ġrig our
Ġtraged ies
Ġmatch ed
Ġhol land
Ġthreshold s
Ġfost ering
Ġdistort ed
att ered
Ġperce ive
Ġyield s
Ġgh ana
Ġpersec uted
develop ment
tra de
Ġpostpone ment
Ġperiph ery
rend t
Ġreinfor ces
Ġjar zembowski
Ġmah moud
Ġpup ils
Ġduplic ation
Ġinflic ted
Ġalex ander
Ġbrid ges
Ġempow ered
Ġcanc Ãºn
Ġparalys is
Ġaggreg ate
Ġembed ded
f ield
h y
i ries
t ings
y oun
Ã ´
Ġt ables
re y
Ġw ik
is ons
Ġs ket
er ies
en v
Ġc ock
Ġp ounds
Ġb h
Ġan k
Ġd ent
Ġd uly
Ġe min
Ġl an
Ġwe ird
ot ted
ot ism
pe lled
Ġst ig
Ġse mi
Ġse ldom
ant ed
Ġres ent
um ably
Ġwho ever
Ġman ual
Ġman ager
Ġimport ing
Ġra ining
Ġsp o
Ġro lling
Ġgen ius
Ġclear ing
Ġconf er
Ġprot oty
Ġmarket place
Ġtreat ments
Ġcol umb
Ġform at
Ġglobal ised
Ġinf er
Ġmod ifications
Ġrespect ively
Ġdep reci
Ġsur f
Ġbl ank
Ġgentle man
par agraph
Ġfree ze
Ġed f
Ġ5 1
Ġur ging
Ġple a
Ġec r
ins on
Ġlos es
Ġbi ke
Ġinflu x
Ġteach es
Ġcritic ized
Ġcal culation
gar ians
Ġnight mare
Ġ0 2
Ġcomplain ing
Ġda wn
rep res
Ġdefend ers
Ġarrest s
road s
Ġfix ing
Ġreb el
through out
Ġprofit ability
Ġment ality
Ġinfect ious
Ġarchitect s
Ġkn ife
Ġdetect ion
Ġprag ue
Ġprovid er
Ġgun s
Ġbreath ing
Ġjeopard ise
Ġlag ging
Ġtroub les
Ġtroub led
Ġath let
Ġsoc cer
Ġpy ram
Ġexagger ated
Ġniger ian
Ġhier archy
Ġcyn ical
inform ation
Ġbizar re
Ġvitor ino
h el
r gy
is an
er ts
Ġp ou
Ġb our
Ġf ence
le z
Ġre lies
om ing
Ġbe ating
st ud
Ġg ate
Ġl akes
ra ine
Ġun belie
Ġse mit
Ġle af
Ġgo e
Ġch arm
Ġag ent
Ġbut t
ree vy
te mp
Ġev idently
Ġrec overed
Ġcommun ists
Ġrem un
Ġent ers
Ġcol ors
Ġgu ilt
Ġgrow ers
ne ed
Ġmed vedev
Ġconsum ed
Ġbal ancing
Ġdist rict
Ġcivil ised
Ġloc ations
Ġfri ed
Ġgre y
Ġmot to
Ġpen et
Ġdri ft
Ġiran ians
Ġtarge ting
Ġmet als
Ġver dict
Ġland f
Ġslow ing
Ġcounter part
ah u
Ġsun light
Ġmeaning less
Ġbelg rade
Ġresist ant
Ġky i
Ġpopular ity
Ġconsolid ating
Ġren t
Ġmic rosoft
pro f
Ġcry stal
Ġsister s
Ġrecip ients
Ġenthusi astic
Ġange l
develop ing
Ġambig uous
Ġprecond itions
Ġrebuild ing
Ġcoinc idence
Ġmcc reevy
Ġassum es
Ġembry os
Ġcigaret te
Ġresolute ly
Ġexhib ition
Ġoutrage ous
Ġdens ity
Ġuzbek istan
Ġuncomfort able
rgy z
b ic
b ach
d y
d ner
i ri
s ud
Ġth ick
Ġw i
er ra
Ġf ired
Ġin sofar
Ġh en
Ġe pp
Ġg ut
Ġal zheimer
ra ms
ul ent
Ġsu u
op ular
os ity
Ġv isions
Ġle ve
Ġbut ton
Ġexp ressions
Ġapp lause
fore ign
Ġmar x
Ġyour selves
ern al
Ġbelie ving
Ġrespon sibly
land er
Ġcre w
Ġshe ll
Ġproject ed
Ġtax i
Ġexperi mental
Ġcreat ure
Ġbar Ã³n
Ġsci ences
Ġru in
Ġcentral ised
Ġobs essed
Ġ9 6
Ġland ed
Ġattack ing
Ġstress ing
Ġdoubt ful
Ġvol can
Ġlove ly
Ġcal end
Ġmig ratory
Ġhy per
Ã© n
Ġfulf ill
Ġphys ic
unt a
Ġinflation ary
Ġky rgyz
Ġbase ball
Ġcompe lled
Ġproportion ate
tw enty
Ġamaz ed
Ġprem ise
Ġentrepreneur ial
Ġprevail ed
Ġnav al
Ġindis crimin
Ġneut rality
Ġabsor bed
Ġhoriz on
Ġepid em
Ġpollut ants
aph ne
Ġgrass roots
Ġbenefici ary
Ġfron ts
Ã¨ s
Ġug ly
Ġpoc ket
Ġrede f
Ġly n
Ġuphe ld
Ġtig er
Ġferre ro
great er
Ġinsect s
Ġmultilingual ism
Ġmism an
Ġmilest one
Ġhorri ble
Ġcanad ian
Ġcondol ences
Ġschr Ã¶der
Ġequilib rium
a way
k ward
Ġ Å¡
Ġt b
in ate
Ġw ins
is a
Ġs idel
it ate
Ġb ust
or ia
Ġf les
Ġin sure
Ġe rect
Ġe ec
Ġn go
om es
Ġal liances
ir ts
Ġby pass
Ġch airs
us ible
Ġshould ers
Ġtr u
Ġdis orders
Ġprop ortions
ag ues
Ġapp arat
Ġconc ur
Ġsp ark
Ġsp ont
Ġconf use
Ġmat ure
Ġcur iosity
Ġquestion ing
Ġemp t
Ġinter face
Ġinter cultural
Ġbeh rendt
Ġallow ance
Ġequ als
Ġemploy er
Ġpeace fully
Ġfundament als
Ġbar s
Ġpass ports
Ġtext book
Ġer o
Ġer ika
Ġdesign ing
europe ans
Ġill usions
Ġindustrial ised
Ġwal dner
Ġmer gers
Ġexport er
Ġsl im
Ġdistribut e
any way
Ġenjo ys
Ġsil ver
Ġtravel ed
Ġpra y
fr ank
Ġsold ier
Ġglad ly
Ġtro ika
Ġwithdraw ing
Ġadvert ise
Ġpul ling
Ġmexic an
Ġpreced ed
Ġscen es
Ġsubmit ting
Ġmagn ific
Ġwood s
americ an
imp ro
Ġupd ating
Ġjun cture
Ġapolog ize
Ġbeat en
Ġpig s
Ġprud ent
Ġfla ws
Ġprolong ed
Ġbargain ing
Ġescap ed
Ġuncond itional
prog ress
Ġindefin itely
Ġnab uc
actor ily
Ġassu mptions
Ġspont ane
1 2
b est
d og
f ia
h en
i at
n ar
o th
o ft
Ġ 00
Ġt ip
re member
Ġw ary
Ġp ave
Ġp light
Ġf usion
Ġin ch
Ġan ts
Ġan omal
Ġh ans
ar ctic
ro ed
Ġn ich
st ad
Ġl or
Ġst icking
Ġy ard
Ġeu ph
ate mal
Ġat oms
Ġch er
Ġch imp
Ġres on
Ġk er
ak a
ak i
um s
ast y
Ġqu ad
Ġpl ate
Ġexp ed
Ġte x
Ġar sen
Ġfe at
Ġrec re
ors es
Ġbas ket
Ġdef ensive
Ġreal m
Ġachie vable
Ġmod er
Ġorgan ism
eg al
Ġrev ising
Ġspecif y
Ġwrit ers
Ġaw kward
Ġmis use
Ġid i
Ġemphas ising
Ġhalf way
Ġdeep est
Ġweak est
Ġflo ating
Ġcoll ateral
Ġ11 0
Ġsil k
ye ah
Ġinh uman
Ġpublish ing
Ġchristian ity
Ġcondemn s
Ġstem s
Ġexceed s
Ġillust rated
Ġevol ving
Ġtunis ian
Ġevalu ated
uk raine
Ġcow s
Ġjun cker
Ġhyd ro
Ġmole cule
Ġmole cular
Ġcelebr ating
Ġscore board
Ġinterrupt ed
Ġfright ening
Ġembarrass ing
hard t
Ġprint ing
Ġlap top
Ġindiff erent
Ġaqu aculture
Ġlivelihood s
Ġdiscret ion
Ġcasual ties
Ġunderestim ated
Ġprovin ces
gree ce
Ġincumb ent
Ġlul ling
Ġcres po
Ġhygi ene
Ġpecul iar
Ġero sion
Ġnabuc co
i ance
i pping
m ake
o vers
Ġw ound
er a
Ġc ord
it ated
Ġb og
Ġm ast
Ġf ake
Ġf lies
Ġd aphne
Ġg i
Ġi p
Ġl om
Ġwh ale
Ġde forestation
im ity
Ġsh ops
Ġen qu
Ġle ver
Ġch icago
ĠâĢ ¦
Ġimp lied
ig ence
Ġup ris
te enth
Ġind ign
Ġover ly
Ġacc ounted
Ġdes erved
Ġhapp ily
Ġgu er
Ġgu atemal
Ġcar ing
Ġadop ts
Ġform ulation
Ġmod eration
Ġsch roed
Ġhand ful
uc ks
Ġwhe at
Ġeas ing
Ġgeneral s
Ġ5 3
Ġsw allow
Ġtri bal
Ġtri bes
Ġoper ator
Ġmis con
Ġtrad ed
pl ay
Ġant arctic
Ġurg es
Ġver ify
Ġsuper ior
Ġport ion
Ġconsult ing
Ġrat ings
lt ry
Ġlimit ation
any ahu
Ġcharact ers
Ġhar ness
Ġarr anged
Ġ0 4
Ġexec uted
Ġobserv atory
Ġbrazil ian
Ġconce ived
Ġmic ros
Ġmultilateral ism
Ġflood ing
Ġadm iration
Ġglass es
Ġcli ent
wel come
Ġinterpre ters
Ġsong s
Ġdeterior ating
Ġcoup led
Ġbail out
Ġfur n
Ġcere als
Ġexacerb ated
Ġdetain ees
Ġdepos its
Ġsenti ments
Ġleh ne
Ġsimpl istic
Ġkne es
Ġinfin ite
Ġschol ars
Ġwors ening
Ġdecoup ling
Ġadjour ned
Ġunpredict able
Ġenfor cing
Ġpou ltry
b ish
Ġ Î
Ġa y
in os
en za
Ġb its
ing e
Ġd c
Ġn ail
as k
ur t
Ġha ven
Ġas certain
ith m
gh dad
Ġun ple
Ġex ile
Ġwill i
Ġv ag
Ġch rom
Ġr ang
Ġrep atri
Ġno ble
Ġdis sid
Ġout er
Ġcomp lying
te chn
Ġtra cking
Ġtrans mitted
Ġsit tings
Ġend uring
Ġsi erra
Ġhapp ier
Ġsc are
Ġbefore hand
Ġca ve
to ok
Ġir rit
Ġprogress ively
Ġ5 8
Ġcare ers
Ġ4 9
Ġ4 50
Ġmonth ly
Ġvar iation
Ġhon oured
Ġrom antic
Ġapplic ants
Ġliberal ism
Ġassist ants
Ġsatisf actorily
Ġsepar at
Ġconstruct ively
Ġconcent rating
Ġsurv iv
Ġship building
Ġoccup ational
augh ters
Ġdon ations
Ġobser ving
Ġinsist ence
Ġdisch ar
Ġuns afe
fe ld
Ġremark ably
Ġincorpor ation
Ġ196 7
Ġexecut ives
Ġembra ced
Ġsacrif ices
Ġconven ience
Ġinspir ing
Ġstip ulated
Ġenrich ment
Ġdrast ically
Ġdisse mination
Ġembark ed
Ġattribut ed
Ġcigaret tes
Ġba ghdad
Ġleon ardo
Ġreimb ur
simp ly
meas ures
Ġextin ction
Ġundes irable
c ive
n uclear
Ġa vert
on ian
Ġw iped
Ġc ad
Ġf ta
Ġh ut
Ġre inst
as se
ot ti
Ġal gor
Ġsu its
op ian
Ġsh ark
ere r
est ion
Ġhe lic
Ġres cu
um i
de f
Ġexp ose
Ġmar g
Ġpolic ing
Ġinv iting
Ġover ha
Ġcl ou
Ġstr ang
xt y
Ġcol our
Ġsc rap
Ġinter active
Ġcap tain
Ġtechn oc
Ġlegisl ature
ov ation
Ġrev ital
Ġrev ival
Ġes dp
Ġed itor
Ġ5 6
sw ed
Ġ4 1
pri v
Ġspecific ations
Ġche ese
Ġcred ential
Ġ6 2
Ġgener ates
Ġfinal ised
Ġdev il
Ġdol ph
Ġimpos es
Ġcondu cive
Ġmiss iles
Ġcustom er
Ġtransfer ring
Ġdon ation
Ġagg ress
Ġtoler ated
Ġsurve ys
comm on
pro v
Ġnar rative
Ġlic ense
Ġpred ic
Ġregrett ably
Ġendors es
Ġscrut in
spe aking
Ġconfron ting
Ġtic kets
Ġpollut er
Ġ194 5
Ġnur se
Ġalleged ly
Ġvolat ile
Ġfright ened
Ġvolunte ers
Ġcorre lation
Ġunres erved
Ġtum or
Ġindiff erence
Ġobsc ure
Ġfloren ce
bus iness
Ġprox imity
Ġexplos ive
educ ation
Ġunlaw ful
youn g
env iron
Ġapparat us
stad t
Ġunple asant
Ġhelic op
h an
Ġ vel
Ġt anks
Ġt orn
Ġa ster
Ġa mple
re ts
Ġs au
Ġc ute
it t
Ġp icking
Ġf ract
ic on
Ġn est
Ġn pt
Ġn ass
Ġn erve
om y
Ġg if
Ġl od
ul es
Ġme th
Ġeuro bon
Ġsh ake
Ġsh ia
un ting
ain ted
Ġle e
Ġch at
Ġli ver
Ġj ung
Ġj unta
Ġab u
iv o
Ġrep lies
au g
Ġup coming
ag g
ag ric
Ġdem ise
Ġsp heres
Ġfe ver
Ġper tin
Ġrec ru
Ġinv entions
ative ly
Ġacc ent
Ġent rench
Ġsm ok
Ġconst rained
wor se
bal anced
Ġmed iation
Ġshe er
Ġadv ancing
Ġben e
Ġprogress ing
Ġ5 7
Ġlot tery
Ġart istic
Ġtri ps
Ġfundamental ist
Ġmor ally
Ġspecial ised
Ġer it
Ġconnect ing
Ġscientific ally
Ġoccur rence
Ġproceed s
Ġdict ate
Ġ0 3
Ġreact or
Ġunf ounded
Ġcontra d
Ġtele ph
Ġtouch es
cl imate
Ġattract ing
Ġreven ge
Ġcatch ing
Ġvari ations
Ġreb els
Ġfulfil ment
Ġrh y
Ġreveal ing
Ġperpet rated
Ġmoroc can
Ġwed ding
Ġtemper atures
Ġdiss ent
Ġdiscover ies
Ġmit igate
Ġdisappear ance
bet t
Ġpoet ry
Ġalger ian
Ġexerc ising
Ġexacerb ate
Ġarmen ian
Ġath ens
Ġmu lder
quest ion
Ġlin ear
Ġsubscri be
Ġjack son
Ġunw anted
Ġresil ience
Ġancest ors
Ġunch anged
Ġshipy ards
Ġhypocrit ical
Ġtraffick ers
Ġoverwhelm ingly
Ġcredential s
b c
f ree
f ail
h or
i ating
l en
u ay
u ate
re f
Ġthe ss
Ġw ounded
Ġw reck
Ġc ous
Ġo st
an gh
Ġf als
Ġf ond
Ġin ert
al on
Ġh ire
Ġh ired
Ġh orses
Ġe ats
Ġg b
Ġl ula
Ġfor wards
Ġun int
li b
Ġpres umably
Ġcan ary
Ġj an
Ġpol io
um ane
ost on
ts in
el tsin
Ġpropos ition
ind ust
Ġho ok
Ġdes ires
Ġenv oy
Ġview point
Ġfore seen
Ġprin ted
Ġph ased
Ġcor bett
Ġbl unt
do ing
Ġrepresent ations
Ġfavour s
Ġexist ent
pri me
Ġpen ins
Ġty r
Ġcomprom ised
Ġident ities
Ġbroad band
Ġ9 2
Ġdel hi
Ġinflu enza
Ġorganis ational
Ġsens es
Ġvir uses
Ġmal t
Ġfue led
Ġqual ify
Ġpath s
Ġaccomp any
Ġinh umane
br id
Ġstrength s
Ġswe pt
Ġrational e
Ġfem in
Ġtort ured
gu ided
Ġdevast ated
Ġhes itation
Ġange la
Ġadmitted ly
Ġwhol es
Ġdepl orable
Ġadh ered
Ġsli p
Ġspons ored
Ġintr ins
ae a
Ġhorrif ic
Ġelabor ate
Ġscri pt
Ġeste em
farm ers
Ġpyram id
Ġcalend ar
Ġfles h
Ġmagnific ent
b ased
f l
f ood
l it
m arks
s cient
t ically
v ol
w ere
w ind
Ã £
Ġa the
Ġthe r
Ġw ings
Ġs ul
Ġc ort
Ġb ange
Ġb oston
Ġto ile
es ter
es ters
Ġf ats
al us
Ġd aughters
ro cal
Ġre ar
Ġi aea
ut rition
Ġst a
ke ys
Ġne at
Ġun a
im m
Ġse af
Ġv ivid
Ġle is
od ing
Ġres umption
Ġcont ing
oc ally
Ġprop h
ens en
Ġunder took
Ġrec ast
Ġind o
Ġlo oph
Ġgu ards
Ġsc rat
Ġener get
hip s
ici ency
Ġimpro v
Ġcre am
Ġsmall est
Ġ5 9
Ġbuild s
Ġsuff ice
Ġmis guided
Ġturn over
Ġnet anyahu
ident ally
Ġface book
Ġ9 8
Ġbi ometric
Ġbel t
sp ain
Ġmist rust
Ġsal mon
Ġmer ger
Ġsl ave
Ġspeed ing
Ġcontract ing
Ġround s
Ġspread s
Ġturk men
Ġacqu iring
Ġhost ility
Ġpet rol
Ġprotocol s
Ġvari able
Ġos set
Ġmatch es
Ġincom pet
Ġphilosoph er
mo ving
Ġdro ve
keep ers
Ġindones ian
Ġremed ies
Ġjun ior
Ġshif ts
Ġeuros cept
Ġprivat ization
Ġholid ays
Ġvers a
Ġscept ical
Ġintimid ation
Ġfloren z
Ġmemor and
Ġinterdepend ence
Ġanch or
Ġnie lson
Ġimpover ished
Ġincin eration
Ġcircu it
Ġmisunderstand ings
Ġcin ema
Ã´ te
frank ly
Ġclou ds
Ġthess alon
Ġbange mann
Ġlooph oles
a cies
b ers
d ac
h undred
j i
n n
Ġt ent
Ġth umb
Ġa i
Ġa ung
Ġc Ã´te
Ġp v
Ġd ots
Ġre agan
Ġst ored
Ġpro ver
ol ine
Ġnot withstanding
op en
Ġsh arks
Ġse al
Ġwor sen
Ġch anne
Ġall otted
Ġimp l
Ġj ul
ous ed
oc ation
Ġpolic eman
Ġra m
Ġdevelop s
Ġtrans cend
cept ive
Ġla ud
Ġown er
Ġdra ma
Ġmod ulation
Ġap pet
Ġstar vation
Ġart ic
Ġansw ering
Ġoper ated
Ġhead ings
Ġhead way
Ġsou theast
Ġtrad ers
Ġer r
Ġlang en
Ġfle w
Ġsen egal
Ġpenal ised
Ġprovision al
Ġcompens atory
Ġsus cept
Ġfacilit ation
Ġfraud ulent
Ġquant um
Ġmoun ting
Ġpsych iat
comm unity
Ġintellectual s
Ġpredict ions
Ġsupplement ed
Ġrelie ved
Ġrecip rocal
Ġtimet ables
Ġblow ing
rel ations
Ġgri p
Ġcli p
Ġunp opular
Ġcommend able
Ġnic olas
Ġfan at
Ġpopul ism
Ġchick ens
Ġroc ard
Ġmathemat ical
Ġsympt om
Ġintermedi ate
Ġtab oo
Ġnom ination
Ġsupermar ket
ĠrÃ¼ big
gener ally
Ġlicens ing
Ġank ara
sud den
ivo ire
Ġleis ure
hundred s
5 00
b ring
c all
g ia
k land
s uccess
v als
Ġt atoeba
in f
Ġc um
Ġp ile
Ġh ug
Ġand erson
Ġre lied
Ġthat cher
ot ion
ur ation
ur able
Ġal igned
Ġde lic
Ġun fore
Ġsh out
Ġsh ield
un ted
we igh
Ġle one
Ġch ess
Ġr ally
Ġres ur
Ġres igned
ll es
lo se
Ġcomp atibility
Ġup ward
iz oph
Ġper se
Ġbo ast
igh ters
Ġstr anger
Ġacc use
Ġdisc ard
Ġla x
Ġma fia
Ġfut ures
Ġcar te
Ġinf ant
Ġsch izoph
Ġdep ort
Ġdep leted
com b
Ġlib r
Ġeduc ate
leg al
of i
Ġ6 4
Ġcoordin ators
Ġune ven
Ġ7 7
cent ral
Ġgree ks
pr ints
Ġdocument ation
Ġsal v
Ġmal m
Ġste er
Ġdeleg ated
Ġcompreh ensible
Ġult ra
Ġalloc ating
Ġconcent rations
Ġsil ly
Ġcharacter ized
Ġjour neys
Ġfil es
Ġfeed s
Ġcard iff
Ġsho oting
Ġstrugg les
Ġfederal ist
Ġsto res
Ġvolunt arily
Ġfort ress
Ġball oon
Ġinterven ing
Ġconstitu ent
Ġblow n
Ġanaly sts
Ġscar city
Ġdiscrimin ated
Ġkar as
Ġbow is
Ġconven ient
Ġpollut ing
Ġfeas ibility
Ġcul p
Ġstip ulates
Ġaccum ulation
Ġabund ant
Ġenact ed
Ġpredecess ors
Ġcancell ed
Ġdisgrace ful
Ġhect ares
Ġmi xt
Ġcertific ates
negoti ations
Ġdrafts man
Ġzeal and
exper ience
Ġclust er
Ġmelt down
Ġstro ke
Ġfluct uations
Ġcurric ulum
Ġorph an
need less
Ġlor ries
Ġaster oid
Ġeurobon ds
Ġschizoph ren
1 8
b ro
b ank
d led
s ur
in th
in ity
Ġc un
Ġp our
Ġp ier
an ke
Ġto wer
Ġf u
al ready
Ġre bal
Ġre liance
Ġg ore
Ġg and
Ġl ately
ment ioned
ra pe
Ġme g
Ġeuro dac
Ġch ip
us a
Ġwas ting
Ġimp at
Ġreg rets
ast e
Ġtr an
Ġpl ug
Ġdis g
ie v
Ġinc idence
Ġco erc
Ġsa il
og ene
Ġover l
Ġcommun al
Ġprot esters
Ġtur ks
Ġback drop
Ġbu ck
Ġpresent ly
Ġbus es
Ġorgan izing
Ġcost a
Ġrese tt
Ġpract ise
Ġconstit utions
Ġsupp ression
Ġold s
when ever
Ġlow ered
Ġchar ging
Ġcapital s
Ġdesign er
Ġver ge
Ġtest im
Ġcru cially
app ing
Ġkill s
Ġmer ch
Ġpoll en
Ġcontent ious
Ġsl aught
Ġboard s
Ġclar ifying
Ġcra ft
Ġpet ro
Ġpun ct
Ġbon ino
Ġgrand children
Ġboy f
Ġapart ment
amb ique
Ġsyn d
Ġcrow ded
Ġdetect ed
Ġabsor ption
Ġacquis ition
Ġfrust rated
Ġjump ed
Ġprescri bed
Ġmich ael
Ġdossi ers
Ġtechni que
Ġelig ibility
Ġspecul ators
Ġdecentral ised
Ġdimin ished
Ġmainstream ing
Ġmassac res
Ġunequiv ocally
Ġconfidential ity
Ġanalog y
Ġinher ited
Ġexpon ential
wash ington
Ġeld r
Ġpercept ions
Ġaus p
afric a
Ġpromp ted
Ġobli ge
Ġmaln utrition
Ġkyrgyz stan
best os
swed en
angh ai
Ġmemorand um
Ġthessalon iki
Ġslaught ered
b one
f elt
g roup
h of
l at
l iness
o is
u er
z io
Ġt ire
is ive
Ġb ind
Ġm itch
Ġf illing
Ġh in
Ġd ot
ar ter
ic ating
Ġand ers
Ġn ag
Ġre ign
st ed
Ġg ig
Ġg au
Ġg ros
ot a
Ġfor a
Ġy eltsin
ch ris
Ġas bestos
Ġun reg
est a
if iably
Ġle ct
Ġout weigh
Ġpre amble
Ġtra cks
Ġdiff ers
Ġlo ving
Ġinst ant
Ġtw itter
Ġdisc ourse
Ġmon key
Ġend anger
Ġcol umn
Ġher man
Ġcar pet
Ġsm arter
Ġmaj orities
be ll
Ġlegisl ator
ph eric
Ġins ert
Ġir ony
Ġdist rust
Ġlib yan
Ġbar rot
Ġcong estion
Ġaccess ibility
Ġann o
Ġcomb ust
ck x
Ġche chen
Ġbur undi
Ġdesign s
Ġgener osity
Ġ7 8
Ġwrong ly
omet ime
Ġgreen land
Ġhun t
Ġcle ans
Ġcohes ive
Ġdocument ed
Ġrepublic ans
Ġcomput ing
Ġstay s
Ġcha otic
Ġdeclar ing
anu kov
Ġunivers ally
Ġ198 6
Ġlabor atories
Ġbon n
Ġconver ted
Ġincorpor ating
Ġlabe lled
Ġprem ises
Ġstabil ize
Ġfit ting
Ġconstitu encies
Ġseat tle
Ġreass uring
see ing
Ġchain s
Ġfashion ed
Ġneighbor ing
Ġcolon ies
Ġgri ps
Ġminim ise
Ġdiagn osed
Ġdiver gence
Ġhabit ats
Ġincon ce
Ġgest ures
Ġdatab ases
Ġinsec ure
Ġdesert ification
Ġster ckx
Ġstret ch
Ġrap ed
Ġpron ounce
Ġuphe av
Ġflee ing
Ġcertific ate
abet es
Ġuncontro lled
Ġdiscl osure
Ġhamm er
Ġbh ut
Ġchrom os
environ mental
Ġpenins ula
g as
m il
n ik
o ch
p arents
s l
v is
w est
w oman
w ords
z Ã¡
in qu
Ġw w
Ġw ounds
Ġs ore
en a
Ġp ale
Ġb ite
Ġf on
Ġf est
Ġf et
Ġf iring
Ġf uk
Ġd ys
il er
Ġu cl
se y
ur ry
Ġcon cession
gh ter
Ġne p
ate red
Ġsh it
Ġsh am
li ever
Ġimp ul
Ġj et
Ġj ose
Ġk abul
Ġam ounting
ament s
Ġcomp aring
Ġco el
me al
el a
Ġev ans
Ġsupport er
Ġpolit ic
Ġper v
Ġper il
Ġover f
Ġover th
Ġtrans mit
there d
Ġfact ual
Ġdes cend
Ġdra gged
ne z
ne ath
Ġglobal ized
Ġmod ify
Ġph ases
Ġshow er
Ġaw ak
Ġret ired
Ġ6 8
sid ers
Ġdoub ling
str ong
Ġassist ed
Ġant agon
Ġground water
Ġdel ors
hold er
Ġill icit
Ġkill ings
Ġwal es
Ġcal culate
Ġheart felt
Ġpoll uted
Ġforget ting
any thing
Ġfoot print
Ġbat tles
Ġuncertain ties
Ġsole mn
Ġblock ade
Ġren ational
Ġos lo
Ġvide os
Ġalban ians
Ġforum s
Ġtibet ans
Ġillust ration
Ġded ication
four th
Ġdepri ve
ÃŃ a
Ġinstall ed
Ġhabit at
Ġquiet ly
mans hip
unction al
Ġukrain ians
Ġshel f
Ġreaffirm ed
Ġbench mark
Ġsecre ts
Ġinex p
Ġped est
bra zil
polit icians
Ġdies el
Ġshrink ing
Ġcorrid or
Ġdiscred ited
Ġgol l
Ġblat ant
Ġjos Ã©
Ġhumili ating
Ġboycot t
Ġlandf ill
Ġmisman agement
Ġlom Ã©
Ġsurviv ors
Ġpertin ent
Ġuna ware
sudden ly
Ġunreg ulated
Ġucl af
Ġcoel ho
2 7
d isc
l eration
m oney
o pp
v an
w ord
Ġ +
Ġt ant
Ġs ed
Ġs ons
Ġs ars
an ol
Ġb ert
es ion
Ġf ern
Ġin action
as i
om ach
il ings
Ġu c
ut ory
pe c
Ġst an
Ġst omach
ol iberal
ch ar
Ġnot ions
Ġsh ining
Ġdo yle
qu al
Ġle ak
Ġch est
Ġcoun sel
Ġk au
Ġri ots
Ġtim id
Ġjust ifies
Ġra pp
Ġunder go
Ġdem agog
Ġeff ic
Ġlo oming
Ġro s
Ġro pe
Ġtake over
Ġsub tle
Ġcommun aut
Ġlong est
Ġdisc ourage
Ġcur ve
Ġwar fare
Ġinf l
Ġrul ings
ital y
icult ural
Ġsur pass
Ġfree zing
Ġsw ing
Ġsustain ing
Ġce ilings
Ġ6 6
Ġgra ce
Ġhold ings
Ġobjective ly
Ġmult if
Ġ9 00
Ġweak ens
app lause
Ġdi abetes
Ġcircum vent
Ġflow ing
Ġbuy ers
Ġmut ilation
Ġwind s
Ġ198 5
Ġ198 7
Ġlog istics
Ġlay ers
Ġcompar isons
Ġelement ary
Ġ197 9
Ġvast ly
Ġoptim al
200 2
Ġwars aw
Ġborrow ed
Ġdump ed
Ġkn ock
americ ans
Ġsev ille
Ġstor ms
Ġartific ially
Ġdivers ify
Ġreward ed
Ġtast es
develop ed
nis ch
Ġcere mony
Ġplain ly
Ġescal ating
Ġcart oon
Ġmortg ages
Ġtiss ues
Ġsyner gies
Ġclash es
fif thly
Ġacced e
Ġbarbar ic
Ġvibr ant
Ġdiscrep ancies
Ġsemin ar
Ġsymmet ry
Ġasp ire
Ġpredomin antly
opoul os
Ġpla usible
Ġepis ode
Ġdegrad ation
specif ically
Ã£ o
Ġturkmen istan
Ġosset ia
Ġboyf riend
Ġgoll nisch
Ġcommunaut aire
- -
c r
j ac
l anges
m us
n ings
p oints
r an
r and
s orry
u it
Ġt ay
Ġt ube
Ġs aint
Ġb row
Ġm ount
Ġm ck
Ġin aug
ed e
ed ed
Ġh ollow
ro che
Ġwh ales
Ġst arch
Ġal as
Ġun ites
ad s
ad ers
os h
Ġv on
Ġgo ds
et ics
Ġj es
Ġor bit
um a
Ġpl ath
Ġout lines
Ġwork sh
Ġpre y
cy cl
Ġunder neath
Ġsp at
Ġsp ar
Ġsp ider
Ġob ey
Ġover st
tain e
ful ness
Ġconf isc
Ġend ured
Ġcar go
Ġsign atories
lu ck
Ġph asing
Ġplan es
Ġimm oral
cu mb
Ġstar ing
Ġterm ed
Ġtri be
Ġtri angle
Ġthird ly
Ġforce fully
Ġstat utory
Ġconte xts
Ġadmin ister
Ġaccord ed
Ġdial og
Ġagend as
Ġopt imum
some body
Ġobs ession
Ġmus cles
Ġmechan ical
sec urity
Ġkore ans
Ġste ep
Ġhor n
Ġguidel ine
pol and
Ġinh ib
Ġdetermin es
Ġcommunic ated
Ġresist ed
Ġoption al
Ġdisappe aring
Ġisol ate
Ġprem ier
Ġwash ing
Ġincom ing
Ġinfect ions
regard less
Ġmobil ised
Ġexceed ing
Ġsympath etic
cont rary
Ġadm is
che ck
Ġplat forms
Ġsacrif iced
Ġlithu an
cap ital
Ġrand zio
Ġmanip ulate
Ġprescri ption
Ġposs ession
su pp
Ġreloc ations
Ġimmense ly
Ġpostpon ing
Ġreluct ance
Ġexerc ises
Ġvigil ance
Ġdimin ish
Ġpregn ancy
Ġdiam ond
Ġinterconnect ed
Ġscept icism
Ġpremium s
Ġlou der
Ġcrush ed
Ġintu itive
Ġpriorit ise
Ġji had
viol ence
Ġteles cope
Ġsamp les
Ġmoz ambique
Ġcarc in
Ġbour langes
Ġtex as
Ġrhy th
lib eral
Ġmalm strÃ¶m
Ġinconce ivable
Ġrapp roche
Ġrapproche ment
1 9
c asters
e ight
h alf
i ol
i ority
m ass
p ost
p over
Ġt anz
Ġa pt
in able
Ġthe rape
Ġw yn
Ġc d
Ġc ust
Ġo vere
it en
it ar
Ġp ink
Ġm ock
ed usa
ro lo
Ġbe liever
Ġg ord
Ġfor ged
ment ed
ver sion
Ġha ut
Ġal ph
ch em
Ġnot ing
Ġne ck
Ġne oliberal
ad o
Ġse ated
ant o
Ġdo se
Ġpres upp
am o
Ġli abilities
Ġab kh
ig ated
Ġdis connect
Ġout f
Ġfin ishing
Ġinc ar
Ġimport ers
og ne
pt ions
Ġconc ise
Ġunder water
Ġsp an
Ġper verse
Ġrec ap
igh th
Ġsub t
Ġsub ur
Ġprov oke
Ġmin ist
Ġcommon ly
Ġinf lex
Ġorgan iz
Ġap ar
Ġsur prises
Ġfollow ers
Ġins ignificant
Ġemploy ing
Ġstud io
Ġsupp ress
Ġopp ressed
Ġhard ware
Ġvar ieties
Ġappe ase
Ġprevent ative
Ġsou p
Ġmot ors
Ġgra din
Ġliberal ised
Ġliberal ising
Ġ7 2
Ġdom ination
Ġ8 6
Ġver tical
une mployment
Ġextra ction
sh ore
Ġdistribut ing
Ġ198 8
Ġhar ms
Ġhost ages
Ġprefer ably
Ġgradu ated
Ġengine ered
Ġhom opho
Ġsqu and
200 6
Ġrecall ed
inc identally
Ġtransl ations
Ġtit ley
Ġdisagree ments
Ġinterf ering
Ġaccur acy
Ġcalcul ating
Ġq addafi
Ġinqu iries
Ġprag mat
Ġaspir ation
Ġboom ing
Ã¤ n
Ġmarri ages
Ġstal em
Ġcul min
Ġoutbreak s
Ġdrought s
Ġble w
Ġmyster ious
tal k
Ġloyal ty
step s
Ġinher it
Ġrect ify
protect ion
Ġwhist le
grow th
Ġpiv otal
Ġkor an
Ġathlet es
Ġunreserved ly
Ġjung le
sted t
Ġeffic acy
pover ty
Ġabkh az
1 99
2 000
c ard
e gypt
g l
i racy
p ie
s olid
t ar
t ling
v il
Ġt at
in en
re yer
Ġthe at
Ġo ost
it ary
it ted
it ating
Ġto pp
es pecially
Ġf ounder
Ġf ighters
Ġin acc
ed ing
Ġh eral
th ousand
Ġg ru
Ġg ps
ct ory
id ers
ke ley
Ġun de
Ġsh anghai
Ġse am
os phere
li x
mb ling
Ġch art
Ġso aring
Ġj ong
Ġres ident
Ġk m
ak y
um ble
Ġcons ci
ric ts
ind ivid
Ġoff shore
Ġdisc ern
Ġfar c
Ġemp athy
Ġma ize
Ġcontin ual
Ġcol ogne
Ġsc ales
Ġbr on
Ġbu iten
Ġsuc cumb
Ġsch reyer
Ġdep ressing
ov sky
Ġkind ness
Ġrev is
Ġsupp lier
Ġsupp lements
Ġhard ship
Ġpat ch
Ġsubst itution
Ġdeter rent
Ġexc itement
Ġrefer ral
Ġbroad en
Ġvol umes
Ġrepublic s
Ġspir its
Ġcounter act
Ġrecord ing
Ġbul let
Ġste al
Ġste am
Ġcha ired
Ġsad ness
Ġconcept ion
Ġsil icon
Ġstra w
Ġblo kland
Ġda ul
Ġsho res
Ġtoler ant
Ġstabil ise
Ġprosec uted
Ġhol lywood
Ġdiscip linary
Ġphilosoph ical
Ġwise ly
Ġdecre asing
Ġinterpre ting
Ġwild life
Ġdur able
Ġtrave llers
Ġspot light
Ġsuspic ious
Ġange les
Ġnur ses
Ġceleb ration
Ã¨ re
Ġske let
Ġdefinitive ly
Ġroth ley
ĠbÃ¶ sch
Ġsurge on
Ġsummar ise
Ġacadem ics
Ġmineral s
Ġreop en
Ġmilitar isation
health y
Ġcontempl ate
Ġinval uable
Ġembass y
Ġcycl ical
Ġcomplac ency
Ġolig arch
Ġunden iable
Ġunbelie vable
Ġremun eration
oft en
Ġfurn iture
Ġbene ath
lit tle
Ġresett lement
Ġsynd rome
Ġtherape ut
Ġhaut ala
Ġoost lander
thousand s
b ill
b ir
c oun
e ve
g uard
h on
j er
m ain
Å Ł
Ġt ended
Ġa fore
re ach
Ġthe or
Ġw oke
Ġc ree
it ania
Ġp on
Ġp ause
Ġp oured
Ġm ant
Ġan atom
ed ia
ed oph
Ġd un
Ġre vel
Ġis tan
st ones
Ġg ill
Ġst umb
Ġst icks
Ġde letion
Ġun used
Ġun wise
Ġsh ri
Ġse w
Ġwor n
Ġli ar
Ġimp ot
Ġimp asse
Ġam id
reat ing
ish ment
lo vak
Ġman ages
ag a
Ġco x
me xic
ack s
Ġoff s
Ġpartic le
Ġfact ions
Ġhum iliation
Ġla zy
Ġpr one
art ney
Ġhel m
Ġtal ents
Ġdifferent ial
Ġaff lic
Ġmain land
Ġear ning
ros pect
par able
Ġrev ived
Ġdist ricts
ining rad
Ġhead line
Ġlive ly
co h
Ġcho oses
Ġquick er
Ġpost ed
Ġpost ing
Ġver hof
Ġec ology
Ġmus ical
Ġexch anged
Ġcy ber
Ġinflu ences
Ġaud iting
Ġsan itation
Ġsupply ing
Ġsucceed s
Ġalloc ations
Ġbudge ting
Ġber Ã¨s
Ġbon uses
Ġimplic ation
Ġproportion al
Ġmem orial
Ġcult urally
Ġendorse ment
Ġretain ing
Ġran king
Ġep ic
Ġsuffici ency
Ġarchitect ural
comp an
Ġbomb ings
Ġow es
Ġcow ard
Ġdiscover ing
Ġdispar ity
off icial
isen berg
Ġrub ber
Ġcosm etics
col le
Ġinherent ly
po or
Ġabund ance
Ġcancell ation
Ġparent al
Ġluc as
Ġsimpl est
Ġcompris es
Ġbeha ving
Ġmunicip al
Ġlamp edusa
Ġsweep ing
Ġelectron ics
Ġrend ered
ogen ic
Ġsculpt ure
Ġsever ity
fra me
Ġstub born
Ġmarsh all
Ġhege mony
Ġkg b
Ġpengu ins
Ġdissid ents
Ġreimbur sement
Ġnass auer
Ġmalt ese
Ġprover b
Ġmitch ell
Ġminist ries
Ġstalem ate
Ġafore mentioned
Ġistan bul
Ġverhof stadt
b u
j an
p y
t our
t ube
w atch
y rom
Ġthe ato
at ar
Ġs ie
Ġs ometime
Ġp ic
Ġb ou
Ġf reed
al ous
Ġe h
Ġe ighth
Ġn urs
st ay
Ġg la
id a
Ġal mun
Ġas ians
ill on
Ġyou tube
Ġme als
Ġcomm ence
Ġcomm ens
Ġse gment
Ġen p
Ġle ts
Ġcan cel
Ġj on
Ġor b
Ġk ofi
Ġcount ed
Ġreg en
Ġout going
Ġout law
Ġdem ol
ric ted
ub a
int erest
Ġcl out
Ġgovern ors
ath an
Ġmon keys
Ġla mb
Ġfar ther
min ist
Ġreal isation
Ġfut ile
Ġpublic ity
Ġ19 0
Ġke l
Ġtransp ose
Ġlaw making
Ġ20 30
ph ur
Ġph y
Ġfail ings
Ġru g
Ġru ined
Ġmid night
Ġmot ive
Ġadminist ered
ush ima
Ġ9 7
Ġremember ing
Ġconsult ative
Ġdim as
Ġwal let
ator ial
Ġslow ed
Ġgas oline
Ġdr ill
Ġdelay ing
Ġuseful ness
Ġ18 0
Ġtruth s
ah n
Ġeval uations
Ġdict ates
Ġwall is
Ġcustom ary
Ġpra ised
Ġfacilit ated
Ġblood sh
Ġang lo
Ġretain s
hr an
ari ably
Ġtit an
Ġpref ers
Ġinterven ed
Ġcroat ian
Ġpersist ence
Ġlaugh ed
Ġsatell ites
Ġcelebr ations
Ġclin ic
Ġrush ed
Ġcarri er
Ġdecentral isation
Ġcoc oa
iped ia
Ġfled ged
Ġprovoc ation
Ġimped e
Ġwire less
Ġdu isenberg
Ġenlight ened
Ġpotato es
Ġfert ility
Ġresemb les
Ġlone ly
Ġmiser able
Ġfli p
bear ing
Ġsmok ers
Ġerit rea
Ġlibr aries
Ġmixt ure
Ġdisg ust
Ġtant amount
Ġwyn n
individ ual
colle agues
Ġalmun ia
c red
k op
n on
n ato
o pe
y p
y ard
Ã ¸
Ä ĥ
Ġt ick
Ġt ighter
Ġw ra
Ġw ield
Ġw ij
Ġw atered
Ġs izes
Ġc ric
or i
or um
Ġto w
Ġf di
Ġan throp
Ġh ond
Ġd Ã¼
ar ting
Ġand re
Ġre petition
st ick
Ġg il
Ġg mo
Ġl ent
Ġl aps
Ġl ump
ol ar
Ġde ception
ch inese
Ġun in
oun cing
ad minist
pp y
Ġpar ity
ci an
Ġch ron
Ġr on
Ġr uth
od ork
Ġli a
Ġhe mis
ll o
Ġcount y
Ġdis may
Ġdis cont
Ġcomp lies
Ġcomp ounds
Ġman uel
ack ed
Ġunder gone
Ġtw ist
Ġmade ira
Ġbas in
Ġca res
Ġprincip ally
Ġelect ro
Ġchild care
com mit
Ġwrit es
Ġfam ously
Ġcivil ized
Ġcivil izations
leg isl
Ġintrodu ctory
Ġhome less
Ġ6 3
Ġ6 7
Ġaccord s
Ġpa edoph
Ġlight ly
Ġliberal ise
Ġinnov ate
Ġdest ined
Ġmet res
Ġsubsid ised
Ġdam n
Ġdisp uted
Ġaut o
sp ring
Ġnear by
Ġdiv ine
Ġvo y
Ġmer cy
Ġsco res
head s
Ġspeed s
Ġchair men
Ġpenal ise
Ġreact ing
Ġunf av
Ġcompens ated
Ġappeal ed
Ġemerg encies
Ġbot tles
Ġcommunic ating
Ġdog ma
Ġ16 0
Ġdig it
Ġgeograph ically
Ġfavor able
hr kop
Ġstabil ising
Ġpreced ing
Ġprosec ute
Ġtight ened
car bon
Ġearthqu akes
Ġcoup les
Ġrecover ing
Ġfant asy
Ġbrok er
Ġfan atic
Ġtact ical
Ġdisrupt ion
Ġdivid es
Ġcolonial ism
Ġcosm etic
Ġdish on
Ġdimin ishing
Ġvolunte er
Ġinterconnect ion
Ġdisin tegration
Ġcompris ing
mod ern
Ġarrog ance
Ġhorm ones
Ġkal iningrad
Ġembod ied
Ġprototy pe
repres ent
Ġindign ation
Ġoverha ul
Ġentrench ed
Ġappet ite
Ġausp ices
Ġfon taine
Ġgord on
solid arity
Ġcommens urate
ĠdÃ¼ hrkop
b age
c ÃŃa
d em
d irect
e an
g ical
g age
i ke
i qu
n ist
p ress
p ract
r us
t own
w art
in it
re en
Ġs ne
er ting
Ġc ush
Ġo re
Ġp c
an ze
Ġb ored
Ġm ate
Ġm ong
Ġm asters
Ġm esh
Ġm Ã©n
es co
Ġf yrom
Ġin ward
Ġin gen
ing ing
Ġg am
Ġg lar
ct or
Ġl ange
ot age
id able
Ġy anukov
Ġun balanced
op l
Ġex pelled
un ished
ci ers
Ġr ings
am il
iv ities
Ġam ate
ard er
con g
Ġrep lic
ast ically
Ġno is
for th
ice f
el f
el ess
Ġinv ariably
Ġro ss
ight ing
Ġgen ital
Ġrel ent
Ġsit s
Ġcol ony
Ġgu est
Ġsc ant
Ġback bone
Ġinter reg
Ġfra med
Ġrul er
Ġph ant
Ġcor ps
Ġav ian
oura bly
Ġproject ions
Ġsing er
Ġlib eria
Ġactiv ist
Ġregul ator
Ġtransport ing
Ġexpl ored
Ġturn out
Ġstat ic
Ġlack ed
Ġid le
Ġdeter rence
Ġve in
Ġfl ames
Ġaud its
Ġcritic ize
Ġcal am
Ġbul l
Ġexer ted
Ġcomment ators
Ġfil ter
Ġexcess es
put in
Ġcomplic ations
Ġsho e
Ġexec utions
Ġuns uccess
br ussels
Ġbon us
Ġcateg orically
Ġobserv ance
Ġinad missible
Ġx ia
Ġfaith ful
Ġvig o
200 3
200 4
Ġrain fall
Ġcamer on
comp ared
Ġreass ured
Ġreconcil ed
Ġenvis ages
imp lement
Ġcommand er
Ġunp unished
Ġdevast ation
Ġox ford
Ġlend ers
Ġpled ges
Ġmanifest ation
Ġaccum ulate
Ġbath ing
Ġseason al
Ġprud ential
Ġ195 6
Ġrecital s
Ġadvent ure
pal est
Ġforb id
Ġwond ers
Ġembry onic
Ġhomosexual s
Ġkick ed
Ġhect are
Ġskept ical
Ġhypo thesis
Ġdenomin ator
Ġmaur itania
Ġanonym ous
Ġsupervis or
Ġhamp er
Ġstereoty pes
Ġchimp anze
Ġupris ing
Ġinert ia
Ġsul phur
Ġdelic ious
Ġanders son
Ġcombust ion
Ġmck enna
Ġabkhaz ia
Ġtherapeut ic
Ġbloodsh ed
1 7
b ush
d f
g od
h ed
l ater
n umber
o il
p ed
p os
Ġ ..
Ġt ann
re du
is se
Ġc ater
Ġm all
es ome
Ġf rict
Ġh ugh
Ġd ancing
Ġd uma
ro b
Ġre negoti
ct ed
Ġl es
Ġl est
se ction
Ġha arder
ow ing
ra is
ch rist
Ġsh ine
Ġv ic
ci vil
rom ania
Ġint rig
Ġtr ucks
Ġpl ut
lo aded
Ġout siders
du ly
Ġcomp ound
ag ua
Ġexp edi
Ġapp end
Ġar ist
Ġmad ness
Ġlo op
Ġcl er
Ġrespon s
Ġdisc ount
Ġreal izing
Ġatt raction
Ġinter rog
wor ld
com petition
Ġpur se
Ġviol ates
Ġlim b
Ġtri ple
Ġstandard ised
Ġforce ful
Ġcred itor
Ġ7 3
Ġge omet
Ġmult icultural
pid la
Ġver bal
Ġstrateg ically
Ġmechan ics
Ġhun garians
Ġcross roads
Ġsound ed
Ġcrimin ality
Ġcorrect ing
Ġsatisf ying
Ġrat ios
Ġindustrial ized
Ġwal ks
Ġdead ly
Ġdeg ra
Ġsucceed ing
Ġconsist ing
Ġappreci ates
Ġste aling
Ġsl ice
Ġsl ides
Ġkid ding
parliament ary
Ġauthor ized
Ġauthor ising
Ġcra w
ene i
Ġtransparent ly
Ġbot t
Ġafford ed
Ġvirt ues
Ġuns c
Ġbos n
200 9
Ġstabil ization
cons cious
Ġarm ies
Ġflu id
aw i
Ġmagn et
Ġdro pping
Ġintensive ly
ham enei
Ġregister s
Ġkar l
Ġdiagn ost
Ġfasc ism
Ġbail outs
Ġkh odork
Ġbes ide
Ġaccum ulated
Ġuphold ing
Ġprosecut ors
Ġaccommod ation
Ġrevers al
Ġsla ves
Ġcruel ty
Ġbench marks
Ġacadem y
Ġprec ision
reb ren
Ġpessim istic
Ġbudd hist
Ġbless ing
along side
Ġhorm one
Ġdiscrep ancy
Ġnas a
Ġinconven ient
Ġsle pt
Ġgon zÃ¡
Ġturbul ence
Ġinsurg ency
particular ly
Ġcataly st
Ġrejo ice
Ġdepreci ation
Ġsemit ism
Ġleve lled
ĠÅ¡ pidla
Ġguatemal a
Ġmicros cope
Ġlaud able
Ġunfore seen
Ġculp rit
Ġfuk ushima
Ġdialog ues
coh esion
Ġtann ock
a ic
b ow
c ro
h im
j im
r ise
v ency
z es
Ġt ense
re ls
Ġc c
Ġc ass
Ġb ent
Ġm und
Ġan te
ing er
Ġd eng
ro cess
Ġe leg
Ġbe gg
Ġg att
pe z
the id
ul ously
Ġnot ified
Ġnot orious
ay a
mp uy
Ġun imag
Ġsh aking
Ġex ter
Ġdo d
Ġv il
est ically
Ġen vel
Ġle inen
Ġso ya
Ġimp ending
Ġj av
Ġres idential
ig ating
Ġrep aired
Ġtheir s
Ġtr icks
lo qu
Ġte hran
Ġpo ised
Ġev ade
Ġunder val
Ġsp ra
Ġsp ouses
Ġro mpuy
Ġappro ves
ass es
Ġprot racted
min es
Ġma at
Ġatt ribute
Ġdes c
Ġass imil
Ġcol a
Ġtal ented
Ġbu mp
Ġcommon s
Ġstand still
Ġform idable
Ġrespect able
Ġelect rom
Ġben ign
Ġpract ition
Ġpract ised
Ġestablish ments
Ġbusiness men
Ġviol ating
Ġexpl oring
Ġmor gan
Ġdet ract
Ġz ap
Ġce o
ber y
pl an
Ġnet working
Ġident ifies
Ġexc uses
Ġtom ato
Ġ8 2
Ġfl or
Ġinflu encing
Ġrad i
Ġsimilar ities
verse ly
Ġpersonal ities
Ġsal af
Ġformer ly
Ġremind ing
Ġcop ies
Ġmeasure ment
Ġones elf
iss ance
Ġ198 1
Ġsex es
pol icy
Ġadvantage ous
Ġdream ed
Ġdisapp ro
Ġtend ers
Ġbound s
Ġdispl ace
Ġconce ivable
Ġblue fin
Ġwash ed
Ġreconst ruct
Ġep as
Ġappoint ments
Ġrelie ve
Ġmix ing
Ġfer ber
Ġscre ens
Ġcool ing
Ġgar age
Ġgar cÃŃa
oler a
Ġcolom bian
Ġdiver gent
Ġhero ic
Ġtrave lled
Ġoppon ent
Ġabst ention
Ġbag s
Ġassert ion
Ġutil isation
Ġju ven
Ġunrest ricted
Ġtherap ies
Ġlev y
Ġunderpin ning
Ġgang s
Ġleh man
Ġlou is
Ġdeval uation
Ġsant a
Ġak in
Ġot tom
Ġindu ced
Ġnit rogen
Ġpessim ism
incre asing
ĠÂ £
Ġterrif ying
Ġinconven ience
Ġconsp iracy
Ġdisgu ised
Ġramp ant
Ġscandina vian
Ġparaly zed
Ġwik ipedia
Ġip cc
Ġmeth ane
Ġtoile t
Ġsuscept ible
Ġgand hi
Ġlect ures
Ġspat ial
Ġtanz ania
Ġapar theid
lovak ia
mexic o
rebren ica
ĠgonzÃ¡ lez
Ġenvel ope
a ud
c z
d ling
g reg
h ouses
i raq
m ates
m ilitary
s it
u ish
Ä ĩ
in burgh
on aut
Ġw ow
Ġw aged
er ated
Ġc lick
Ġp ent
Ġp od
Ġp ino
Ġm im
Ġto ken
Ġan the
Ġd ough
ar ms
Ġbe et
Ġbe lder
Ġl ind
Ġu rug
ver ted
Ġal b
gh reb
Ġun duly
Ġsh attered
Ġse m
Ġpar am
un a
we ar
Ġgo at
Ġj ane
Ġk hamenei
Ġrep roach
Ġpart isan
um ing
vel t
Ġpl o
Ġdis contin
Ġcomp atri
Ġman eu
ose velt
Ġev ac
Ġtra mp
Ġtra ject
Ġtra its
Ġtra ps
Ġper missible
ace a
Ġinv oked
Ġop ium
Ġtrans c
Ġgroup ings
Ġref in
Ġcur se
Ġend ang
Ġma ghreb
Ġsc ary
ail ing
iron ically
ft a
work ers
Ġed inburgh
Ġeduc ating
Ġmilit ias
Ġlist ing
Ġcomb ated
Ġmind ful
by e
Ġbur g
co ordin
no ye
Ġlight ing
Ġ7 6
Ġdanger ously
ps y
Ġport ray
Ġcy nic
Ġdisp osed
Ġgl ance
Ġvital ity
Ġargu ably
Ġmand ela
Ġ18 6
Ġproceed ed
Ġje alous
Ġqual ification
Ġsurv iving
Ġrein tegration
Ġuni mp
Ġlog o
Ġcra fts
govern ment
cl ared
Ġpan els
Ġsubsidi ary
Ġcompe l
Ġphil ip
Ġplant ing
Ġattach ment
Ġice berg
Ġrig orously
Ġfulfil s
Ġprohib iting
Ġbehavi ors
Ġacknowledge ment
Ġappoint ing
Ġborrow ers
Ġstem ming
Ġreass ess
Ġcrow ley
part ite
Ġmotiv ate
cont rol
Ġgreens pan
gu in
Ġwood en
Ġcorner stones
Ġembra cing
Ġbreach ed
Ġpermit ting
Ġinstall ation
Ġgenet ics
Ġerad icating
Ġdistur bed
Ġpreca utions
Ġpipe lines
isc ard
Ġbag gage
Ġheight s
Ġfeeding stuffs
Ġster ling
Ġguant an
Ġunt ou
Ġpron ounced
writ e
Ġaer opl
Ġresil ient
Ġabd ullah
rup ulous
Ġentrust ed
Ġprerog atives
Ġerupt ed
Ġee as
Ġlan noye
Ġresent ment
Ġphysic ist
Ġrepatri ation
Ġsau ce
Ġwholes ale
ogene ous
Ġdys f
Ġoverth row
Ġjes us
Ġpresupp oses
Ġunde clared
ĠmÃ©n dez
2 2
3 5
4 0
8 0
b t
c us
e w
e mploy
f ty
h urry
i pt
k t
l ang
n age
r itional
s r
s ed
s ay
y ama
Ġth read
is ers
Ġs our
Ġc able
Ġp ad
an jo
or ated
Ġin ches
Ġe ta
le um
as anjo
Ġwe ber
Ġcom ed
Ġst ones
Ġde ll
ort ant
ul ative
Ġwith stand
Ġne arest
Ġv in
est ablish
Ġwor ship
et te
am ous
Ġj azz
Ġres pir
Ġk ok
con sid
ans w
Ġfa o
Ġneed le
Ġtr ump
ear lier
Ġcomp os
Ġwork ings
Ġup side
Ġexp ired
tern ally
Ġeconom ical
Ġar oused
Ġjust ifiably
Ġper me
Ġind ict
Ġover sh
Ġcl oned
Ġconf ig
Ġmin sk
led o
Ġmak er
Ġpers ists
ail s
Ġday ton
Ġform ulating
Ġchange over
Ġsuccess ors
ned y
Ġtri partite
Ġbegin nings
Ġret ro
Ġwater ways
Ġ10 3
co al
Ġ6 1
Ġschool ing
Ġfun eral
Ġpal ace
Ġemphas izes
Ġassist ant
Ġge b
Ġcontain ment
Ġsk ull
Ġmet ab
Ġsuper state
Ġmus icians
Ġsort ed
Ġbi ased
Ġmodern ising
bo y
ec ks
Ġreview s
Ġaud io
Ġrat ifying
Ġdeli vers
Ġharmon ious
Ġprim acy
Ġhistor ians
sh ort
Ġarri ves
Ġauthor ise
Ġtravel s
Ġarab ic
Ġpet ty
Ġlies e
Ġstim ulated
Ġaccident al
Ġ197 3
Ġtob in
Ġrestruct ure
Ġdign ified
Ġfat uzz
Ġineff iciency
Ġpil ots
Ġcli ff
Ġnut ritional
ham as
Ġunp aid
Ġfault s
Ġnav y
Ġmit igation
Ġchief ly
spe cial
Ġbrut ally
Ġmanip ulated
Ġadvis able
Ġtrick y
Ġdismant le
Ġcoinc ide
Ġparadox ical
Ġrub bish
Ġprud ence
Ġtotalitarian ism
Ġaston ished
Ġdisregard ed
Ġhind ered
Ġhomosexual ity
Ġfol ks
Ġeleph ants
Ġprovoc ative
Ġgor bach
Ġtraum a
Ġalign ment
Ġenlight en
Ġneglig ence
Ġsubordin ate
Ġteen agers
Ġspr ings
Ġgreet ed
Ġbetra yed
Ġpreval ence
Ġschmid t
Ġdrow ned
Ġcontag ion
Ġemin ent
Ġwilli am
agric ulture
Ġfals ified
Ġtyr anny
Ġtestim ony
esta ing
Ġhond ur
Ġgeomet ry
Ġkhodork ovsky
Ġelectrom agn
Ġurug uay
Ġguantan amo
Ġfatuzz o
9 6
a pe
d h
g iv
l an
l ings
l ocal
s al
v ig
x on
Ã Ł
Ġt read
Ġa es
in is
Ġs ang
Ġs rebrenica
en able
Ġp ac
an throp
Ġb ah
Ġto x
Ġf og
Ġh iring
ing es
Ġd oping
Ġe loqu
Ġn am
Ġn ik
le ave
th irty
Ġre all
Ġre leg
ly n
Ġg iscard
pe ter
Ġst ad
ver ing
Ġha ug
ra k
ch ange
ill es
gh ans
Ġsu p
pp i
Ġse als
Ġpar ks
Ġhas te
Ġr ou
Ġso ared
Ġag ri
Ġhe ter
Ġcommission ed
Ġam ounted
Ġpe as
Ġqu orum
Ġout ward
Ġri vals
Ġapp liances
Ġnew com
el on
Ġdec ree
Ġunder developed
Ġoff enders
Ġvot er
Ġtrans nist
Ġaf ghans
Ġgood ness
ian a
Ġhum ility
Ġprov oked
Ġmat urity
Ġdisc ards
Ġmon ster
Ġnu cle
ass oure
Ġext inct
Ġla os
Ġent rance
Ġsi ber
Ġsi xty
Ġlast ly
Ġmeas urable
Ġconst raint
Ġpers ian
Ġwar ri
Ġorder ly
Ġdifferent iated
Ġem ig
Ġap ology
Ġfav ourably
Ġsupp ressed
Ġaw ake
af ghan
Ġpriv ately
Ġmis giv
Ġz aire
Ġstat ue
Ġche er
la pping
Ġbra kes
Ġrom ney
Ġ7 4
Ġ7 9
Ġjud ging
Ġbroad ening
Ġ9 3
Ġrecomm ending
Ġborder ing
Ġfl out
Ġden ounced
Ġilleg it
Ġcritic ising
Ġcal der
Ġ12 5
Ġprim itive
ix on
Ġund ue
Ġmeasure ments
Ġmand ates
Ġste ering
Ġsl ack
Ġexer ting
Ġ198 4
Ġstra ins
Ġslo gans
Ġlog ically
Ġburden ed
Ġda unting
Ġstock p
Ġadjust ing
Ġhot els
Ġsett ling
Ġfrequ encies
Ġradical s
Ġacce leration
Ġliter acy
Ġecu ador
Ġtight ly
Ġfal con
Ġcollabor ate
Ġextensive ly
Ġsyn onym
Ġchurch ill
Ġjohn son
Ġoverwhel med
Ġsuspect s
Ġinnoc ence
Ġanaly tical
Ġgri m
Ġearn est
Ġdepri vation
Ġcash man
Ġyield ed
Ġmarked ly
Ġdeterior ate
inn ovation
Ġbrut ality
Ġjeopard ising
Ġannex es
Ġswitch ing
Ġnic ar
Ġadvis er
Ġnaz is
Ġcollaps ing
Ġlam assoure
Ġtac it
Ġrum ours
Ġpossess es
Ġpaint ings
Ġble ak
Ġdisproportion ately
Ġeager ly
quest ions
Ġga ul
invest ment
Ġunambig uously
Ġresid ual
Ġcorrid ors
Ġhaw ai
Ġupgra ding
Ġinsol vency
Ġbric k
Ġattent ive
Ġorchest ra
Ġstun ning
Ġdefect s
Ġplun ged
Ġconqu er
Ġconfer red
Ġwi pe
Ġsta es
Ġpv c
Ġjose ph
qual ified
Ġdiscont ent
init ially
Ġhugh es
Ġdegra ding
Ġpino chet
lang u
Ġmisgiv ings
9 7
d iv
f a
h un
h arm
i ac
i ences
k ins
m iss
o es
r ons
s outh
w ed
y o
Ġ ict
Ġth irst
Ġth ys
re form
on ge
Ġc ron
Ġo pec
Ġd j
Ġd p
Ġn asty
Ġre now
as car
st ri
Ġg ib
Ġl ens
Ġon wards
Ġst ev
ol it
Ġal lied
ra ining
ri m
ch ron
ith ms
Ġun question
Ġun healthy
Ġun esco
Ġun icef
Ġsh akes
li mp
Ġle w
Ġch olera
et ting
Ġhe al
Ġab ys
Ġk it
Ġcont end
oc ut
ap est
ag ascar
Ġexp ulsion
el li
Ġjust ifiable
he ment
Ġsp ared
Ġover he
Ġmad agascar
Ġro osevelt
Ġsub way
Ġhum or
Ġwell being
Ġgu itar
Ġcar rot
Ġenv y
chn er
Ġmed ication
Ġrespect ful
Ġsect arian
Ġnor weg
Ġcor ners
Ġfav a
Ġbl ur
Ġread ers
Ġed ges
Ġbar b
Ġfundamental ists
Ġactiv ism
Ġoper a
Ġhead ache
Ġchar ism
Ġce ment
Ġche ating
Ġbur y
Ġspecial ized
Ġer oded
Ġbroad casters
Ġve hement
Ġec sc
Ġsubsid ized
app arent
Ġbi ologists
Ġmodern ity
Ġcorrect ions
Ġkill er
Ġtemp le
Ġwarm er
Ġsen ator
ze k
Ġdict ated
ik es
Ġremark ed
Ġincorpor ates
Ġcoast s
Ġdark ness
200 8
hr ushch
Ġsurround ings
Ġshadow s
gra du
Ġrain forest
Ġinfring ed
asc ular
Ġguard ians
Ġded u
Ġgar bage
Ġreported ly
Ġcert ified
bar ometer
Ġdan iel
Ġaward ing
Ġhence forth
Ġadverse ly
Ġrot ating
Ġ194 0
Ġmonit ors
oh l
among st
Ġhell o
Ġattain ed
Ġnomin ated
Ġcart oons
Ġdish es
Ġaccus ation
Ġweigh ed
Ġdictator ial
trans p
writ ten
Ġintr ans
Ġclim bed
Ġacced ing
Ġkne e
Ġindu ce
Ġasymmet ric
Ġthri ve
abul ary
Ġoverr iding
Ġadvers aries
Ġovert aken
Ġcu mbers
brit ain
brit ish
Ġbern anke
Ġinterl ocut
Ġdissatisf ied
Ġdissatisf action
mill ions
Ġconfed eral
diff erent
Ġhen ry
Ġredef ine
Ġtextbook s
Ġalgor ithms
Ġgb p
Ġenerget ic
Ġspar se
Ġcust ody
Ġhomopho bia
Ġpragmat ism
Ġbuiten weg
tour ism
Ġphant om
Ġgeb hardt
Ġgorbach ev
hrushch ev
a ise
c od
c ale
f alus
g le
l is
l ocked
m d
m ist
m ish
n early
p ox
s af
v ide
w estern
Ã ª
Å Ħ
Ġ Å
Ġt an
Ġa ub
re ally
at able
Ġw and
Ġw ard
Ġw ool
is er
Ġs way
Ġs Ã¡n
Ġc ites
Ġp om
an ch
Ġb ast
Ġm end
Ġm umb
ic ia
Ġe it
Ġe ternal
Ġe br
Ġe lles
Ġn ixon
st ruct
Ġu mp
pe are
ol ation
Ġhave l
Ġwith hold
ge ts
Ġse iz
Ġdo ck
ci a
Ġli u
Ġj el
Ġj ones
Ġj okes
Ġhe aling
Ġcont ention
ie val
iz er
Ġco ven
are rs
Ġinv aded
Ġrel inqu
Ġsit uated
Ġmon net
ass oni
Ġmin us
Ġla h
Ġla mber
Ġend ure
Ġnational istic
Ġlast s
Ġachie ves
Ġinstit utes
Ġdown load
Ġide ally
Ġgr Ã¶
land ers
Ġem igration
Ġval en
Ġfr assoni
Ġins ane
Ġremain der
Ġspecif ies
Ġdist racted
Ġforward ed
Ġshort coming
Ġaw esome
Ġcri ed
Ġret al
Ġmilit ant
Ġenc l
Ġru ins
Ġcomb ines
ime ter
Ġce ased
Ġinstru ction
Ġdesign ation
Ġenlarge ments
Ġamb ival
Ġdom estically
Ġ8 1
Ġ8 7
Ġ8 9
Ġpost er
Ġbroad ened
Ġdev oid
Ġland mines
Ġred isc
Ġital ians
Ġdisp ers
Ġclos ures
Ġpercent ages
bo x
Ġavoid s
Ġbri g
Ġsound ing
Ġgl am
Ġcorrect ive
Ġextra pol
Ġeth anol
rop ol
Ġinstrument al
Ġcampaign ing
Ġwilling ly
Ġpain s
Ġje wel
Ġcomment ed
Ġhor rors
Ġpret ending
set ting
Ġblo om
Ġphys ician
Ġstaff ing
Ġhost ilities
ij i
Ġvirt uous
Ġpan acea
ta wa
who ever
Ġconver ting
Ġprotest ing
Ġ197 4
Ġamaz on
Ġentit lement
Ġgal icia
Ġadvance ment
Ġbehavior al
Ġblue print
Ġdistin ctive
Ġmc car
Ġabstain ing
Ġmos que
Ġacknowled ging
Ġbol ster
Ġthir teen
Ġawa ited
Ġineff ect
Ġded icate
Ġbomb ers
Ġapprox im
che z
Ġnut ri
Ġendors ing
Ġdistort ing
bb els
Ġken nedy
Ġsev ent
Ġdeterior ated
Ġerad icated
Ġvoc abulary
Ġinvent ory
Ġgrat ifying
Ġexhaust ive
Ġtail ored
Ġcrash ed
Ġimperial ism
Ġmarginal ised
Ġrecyc led
Ġcere al
Ġfisch er
Ġstip ulate
Ġenrich ed
Ġtroub ling
Ġiv ory
yn man
Ġtermin ology
Ġroutine ly
Ġtig ers
Ġrecur ring
Ġconform ity
Ġfib er
Ġdiscoura ged
opoul ou
Ġconsp ic
Ġinval id
Ġsolv it
Ġembass ies
Ġtaj ani
Ġouts our
Ġilliter acy
ikh ail
Ġgoe bbels
Ġindiscrimin ate
Ġspontane ous
Ġarsen al
Ġrecre ational
Ġguer r
Ġantarctic a
Ġmarg aret
priv ate
Ġgif ts
agg ering
Ġcontrad icts
fail ure
Ġrebal ancing
Ġoverl ap
compan ies
Ġfanatic ism
Ġnois y
rais al
Ġpractition ers
Ġottom an
Ġstad ium
Ġthys sen
Ġdp j
Ġstev ens
apparent ly
Ġcumbers ome
falus sy
vide o
Ġebr d
Ġmccar thy
b ably
c ence
d rew
g on
g iving
h ir
h ne
i ently
i Äĩ
m or
p ine
r b
r in
s cience
u is
Ġa ce
Ġthe ft
on do
at i
Ġw ol
is ites
Ġc age
an ing
Ġb end
or ating
es ar
Ġh an
Ġd ive
Ġd ating
Ġd ared
Ġre bell
Ġg limp
Ġi z
Ġfor ci
Ġst aggering
ow s
Ġy a
ol ia
ri ad
ch anges
Ġwith drew
Ġun he
Ġun ten
Ġun comp
ad op
Ġse greg
ant i
Ġpar as
Ġv all
ain e
qu in
Ġch ips
Ġr iding
od ka
Ġli ghter
Ġres ounding
Ġk all
Ġk ib
all ah
con ian
ab a
ab ad
oc racy
lo ading
ie u
Ġman h
Ġsa ch
Ġmar ie
Ġconc lusive
ach ie
Ġbo thered
Ġover weight
Ġover lapping
act ivity
Ġmo ham
Ġho bby
Ġconf ess
Ġpri est
Ġemp ir
Ġnational ists
Ġbud apest
pet itive
wor th
Ġdra gging
Ġdra conian
Ġcent red
Ġmed ieval
Ġdown s
Ġsuc k
Ġobject ed
Ġap athy
ick ed
Ġir rig
Ġrev iving
Ġes f
Ġdist ract
Ġresearch er
Ġim o
Ġret rospect
Ġpat ron
Ġmor illon
Ġmilit arily
Ġenc roach
Ġmis used
Ġtrad es
Ġpot ent
Ġdraw ings
Ġpack ed
Ġcru x
Ġword ed
Ġaud itor
Ġmill en
Ġconstruct ing
Ġspeed ily
Ġje ans
Ġboard ing
ik istan
Ġsex ually
Ġcontra ven
urs ed
Ġsav ary
Ġstrugg led
Ġcateg or
Ġbound ary
Ġhur ts
Ġsto le
Ġdispl ays
mar king
Ġmoun ted
ato yama
Ġpurch ased
Ġdiscip lines
Ġsyn chron
Ġpred ators
cont ract
Ġatmos pheric
Ġkil og
Ġparad ise
Ġanaly ze
Ġphotograph er
Ġdiscrimin ate
Ġjun k
Ġdesp icable
Ġgross ly
Ġargent ine
Ġdav ies
Ġfrust rating
Ġconve yed
Ġprofess ors
Ġxenopho bic
Ġhall uc
Ġdup uis
Ġcatal ogue
Ġinterview s
Ġinterview ed
Ġcultiv ated
Ġwholehear ted
Ġase m
hist orically
Ġmun ich
Ġlam falussy
Ġdecentral ized
Ġinteract ing
Ġmcc ain
Ġadh erence
Ġmel ting
Ġembarrass ed
Ġloud ly
Ġflour ishing
Ġsatur n
Ġstret ched
Ġcoc a
Ġclimb ing
Ġclim atic
Ġsuperf icial
Ġinterdepend ent
Ġot tawa
Ġintu ition
Ġarrog ant
fund ament
Ġshipy ard
Ġwil der
Ġpas sions
Ġnurt ure
Ġku wait
produ ct
Ġassign ment
Ġindebted ness
Ġfert ile
Ġomission s
Ġinadequ acy
Ġpeters burg
Ġunle ashed
ushch enko
Ġspokes man
norm ally
Ġrena ult
Ġscrat ch
Ġchanne lled
Ġhin du
Ġcleans ing
Ġupheav al
ran ca
pie ce
Ġsie ge
cred it
Ġcric ket
amil iar
palest in
Ġfrict ion
Ġsalaf ranca
Ġoversh adow
ĠgrÃ¶ ner
Ġunten able
d ri
e zz
g ically
h ot
j or
l ash
m ight
m ium
n as
p akistan
r g
s an
u ities
u ating
Ġt in
Ġt ut
Ġt ub
Ġa unt
Ġw ore
Ġw urt
Ġs ap
Ġs ara
Ġc ant
an ou
Ġb il
Ġb ru
Ġm t
Ġm ice
Ġm lad
Ġf landers
Ġan ten
Ġh ip
Ġh urd
Ġd or
ar ted
ro ll
Ġn od
Ġn erves
le aders
as il
as ia
Ġbe ans
Ġg ul
Ġg el
Ġon set
id is
Ġst ain
Ġal tering
Ġun answ
ad ors
Ġse cession
Ġhas ty
Ġch al
et ric
Ġpres ume
am ins
Ġcan cers
Ġk inder
ac le
Ġus sr
ig er
Ġfa re
Ġno stal
Ġqu asi
Ġmy riad
Ġout lets
em er
Ġcons ens
Ġtime frame
Ġob asanjo
Ġpolicy making
Ġinv o
Ġinst antly
act ic
Ġgood bye
Ġhum ble
rat ulations
min ister
Ġtreat s
Ġgu ests
Ġsc ape
Ġcent ered
Ġdifferent iate
Ġide ologies
ount able
Ġins erted
Ġemploy s
Ġcost ing
per anto
ret ched
Ġsw ord
Ġreform ers
fin land
Ġfoc al
Ġperiod ic
Ġmoment ous
Ġappropri ation
Ġgra y
az a
Ġpa ved
Ġvict or
Ġ7 1
Ġlat vian
Ġcontain ers
Ġsk il
Ġprob able
Ġsubsid ise
ban ks
Ġdi ag
Ġoblig es
Ġcla ude
Ġdoubt less
Ġden ies
Ġgl ory
20 10
Ġwal ter
Ġinteresting ly
Ġdocument ary
Ġ12 9
Ġ11 5
Ġsens ors
Ġnight s
sh ot
Ġwarm est
Ġsen sibly
Ġcomment ing
ob il
Ġconcept ual
ik o
Ġconfirm ing
Ġwhite head
dra fts
Ġfil mm
Ġenh ances
Ġfacilit ates
Ã¡ l
Ġdog matic
Ġgradu ates
Ġ17 0
Ġuns u
Ġphil anthrop
Ġrid den
Ġurban ization
Ġ197 5
Ġren ounce
Ġgaz prom
Ġfat ig
Ġball s
Ġreb u
Ġswe at
Ġbed room
Ġrestric ts
Ġprohib its
Ġmobil ize
Ġmotor cy
Ġmultip ly
Ġded uct
Ġdro ps
Ġsim ulation
Ġech elon
Ġgri ev
att an
Ġhaz ards
Ġminim ize
Ġanticip ation
Ġjeopard y
Ġprescri be
Ġphr ases
Ġdisrupt ive
Ġapplaud ed
Ġrestaur ants
Ġairpl anes
Ġinsight s
Ġluc rative
Ġmaxim ise
Ġbeha ved
Ġburn t
Ġaz nar
Ġhypo the
Ġrab bit
Ġalt ru
Ġamp lif
Ġunfold ing
Ġblat antly
Ġabdu cted
Ġbuff er
Ġkidn apped
Ġsquee ze
Ġempower ment
Ġslu mp
Ġthro at
Ġmam m
Ġmd gs
geor ge
Ġinfer ior
Ġsidel ines
Ġtru ce
Ġmoder ates
Ġrescu ed
Ġstrang ers
Ġpredic ting
Ġlod ged
Ġcous in
Ġunint ended
Ġerr one
Ġcun ha
Ġpetro leum
Ġlithuan ian
administ ration
Ġunfav ourable
cong ratulations
Ġrespons ive
Ġanthe m
Ġtraject ory
afghan istan
Ġnicar agua
Ġgaul le
transp arency
Ãª te
Ġmanh attan
Ġwurt z
Ġunansw ered
1 6
a cious
b bing
e mp
f ear
g ir
g eration
g ences
j ev
j amin
l ance
r ally
s is
t un
t led
u x
v oc
Ġt ian
Ġt ier
re ll
on ds
Ġw ired
Ġs lic
Ġs orrow
er ous
Ġo mitted
Ġp ond
an men
Ġb bc
Ġm our
Ġf ancy
Ġin k
Ġan archy
Ġh ills
Ġd ated
Ġe pl
Ġre vert
as por
st reng
Ġi b
Ġl orry
ol ese
ill usion
Ġun ve
Ġun set
Ġeuro barometer
pp ers
Ġv are
qu ier
Ġwhich ever
Ġch op
âĢ ĺ
Ġimp ress
Ġimp air
Ġk iev
Ġam mun
ig s
Ġad oles
Ġpl ag
ap y
Ġyear ly
Ġmar ath
og as
ack ing
Ġra ge
Ġra bb
Ġtra il
Ġop a
Ġro cks
Ġcl ue
Ġrem inis
Ġmon et
Ġpr ist
Ġdef ender
Ġreal ising
Ġreal istically
Ġsc rew
Ġhope less
Ġbu zek
Ġsign atory
Ġwar rants
Ġtransp osing
Ġdown side
Ġdown gra
Ġdown town
Ġhand ing
Ġrest art
Ġfav ors
Ġsmall pox
Ġimm un
Ġeas iest
Ġgeneral ised
Ġstar ving
Ġexist ential
Ġextre mes
Ġreform ist
Ġactiv ated
mit t
Ġann um
Ġcentral ized
Ġmanage able
Ġstat ure
Ġstat istic
Ġ10 8
Ġbre yer
az e
Ġge o
Ġconnect s
Ġground work
Ġdi aspor
Ġavoid ance
Ġbri an
Ġbri bes
Ġcorrect ness
Ġcoll ision
Ġsal ute
Ġdr um
Ġkid ney
Ġhor rend
Ġclar ifies
Ġhar bor
ex cuse
Ġfil ed
Ġnation ally
Ġpun itive
Ġmoral es
Ġwid en
Ġattract iveness
Ġmusic ian
Ġut opian
Ġexclud es
Ġcast ing
Ġcast le
Ġprior itiz
Ġwitness es
Ġfit ted
Ġpredict ion
Ġtransl ating
Ġ196 8
Ġarm aments
Ġuniform ly
Ġflag ship
Ġparalle ls
Ġgri ef
Ġ28 0
Ġtaiwan ese
Ġenthusi astically
Ġic on
Ġdiss olved
ches ter
Ġdesp eration
Ġroman o
Ġapolog ies
Ġvietnam ese
Ġlad der
Ġannex ed
Ġswitch ed
Ġconven ed
Ġsuspic ions
Ġah med
Ġcook ed
Ġbrand s
Ġmisunder stood
Ġtam il
Ġvit amins
Ġunderp ins
Ġnaz ism
Ġingred ient
Ġmir rors
Ġrevers ing
Ġrevol t
Ġexag geration
Ġrelax ed
Ġju ice
Ġbeach es
Ġgraph ic
Ġunderpin ned
Ġintermedi aries
Ġrival ry
Ġtank ers
Ġpir ker
Ġreck less
Ġportfol ios
Ġaz ores
Ġreorgan isation
Ġtraum atic
Ġkeynes ian
Ġthri ving
Ġreprodu ce
Ġsupermar kets
Ġdefer red
dec isions
Ġinsol vent
Ġsolv ency
quit ous
Ġlaure ate
Ġturbul ent
Ġrepay ment
Ġunle ash
Ġkla us
Ġaggrav ated
Ġlud ic
Ġlas er
Ġsket ch
Ġeuph oria
Ġschroed ter
Ġimpat ient
Ġfern and
Ġinflex ible
Ġappease ment
Ġlia ison
Ġunsuccess ful
Ġbosn ian
Ġjav ier
Ġelectromagn etic
Ġnewcom ers
Ġtransnist ria
Ġcalder Ã³n
Ġhawai i
Ġiz quier
Ġconsens ual
Ġscape go
Ġmamm als
Ġreminis cent
9 8
b en
c rit
e mployment
f lies
m aker
o ise
r un
s ustainable
v ille
Ã ¯
Ä Ł
Ġth war
in ety
on ium
Ġs ank
Ġb ak
al an
Ġh int
Ġd amp
Ġd uff
Ġd umb
Ġd war
ar r
ro es
Ġe ag
Ġe ts
as co
Ġl al
Ġst airs
Ġha mb
Ġal pine
Ġde ment
the t
Ġme ter
Ġun worthy
Ġeuro control
im mer
ist ence
Ġr ude
Ġcan v
Ġli ed
Ġab rupt
Ġpol ling
ud ge
Ġpe an
Ġright ful
ru le
Ġcons ular
me at
Ġpos ing
Ġmar ty
og ens
Ġra v
Ġper taining
act s
Ġsub mar
rat er
Ġref ine
Ġref resh
Ġmay ors
Ġfar ce
Ġemp ires
Ġpublic ations
Ġtal e
Ġbu c
Ġset backs
Ġglo omy
Ġlif es
Ġcre ws
Ġval le
ov an
ov Ã¡
Ġplan k
Ġproduct ions
par is
Ġdist ill
Ġdist ressing
Ġbro ok
Ġshort est
Ġple ad
Ġaccess ing
Ġexpl oded
Ġwater way
Ġz oo
ber lin
Ġdri ed
Ġcomprom ising
Ġcut backs
Ġcirc ular
Ġsk ies
atch ed
Ġ9 1
Ġmet ropol
Ġorigin ated
Ġmen u
Ġdel ta
Ġbel ated
Ġmill er
Ġdece ived
Ġsens ation
Ġvir al
Ġsepar ating
Ġsen seless
Ġste ve
Ġhy brid
Ġdecl ines
Ġje ff
Ġcompreh end
Ġdiplom at
ex p
Ġsuperv ise
Ġcomprehensive ly
Ġcr unch
mes ter
Ġunf amiliar
Ġeight een
sy ria
Ġrele ases
Ġtouch ing
Ġegypt ians
Ġhur ried
tur ns
Ġoccasion al
Ġbos ses
Ġmag ical
Ġczech os
Ġreb ate
Ġformal ities
Ġpi ge
Ġpreced ents
Ġmc don
Ġnotice able
Ġfly nn
Ġflag rant
Ġpunish able
Ġadm irable
Ġexperiment ation
Ġalcohol ic
Ġforecast ing
Ġtremend ously
Ġreinforce ment
Ġnav igate
nat ural
Ġnovel s
Ġdiox in
Ġarbit r
Ġcab in
Ġprerequ isites
Ġroc kets
Ġprejud ices
Ġdivid end
Ġcultiv ate
Ġdestabil izing
omed ay
Ġstamp s
Ġcoc aine
Ġambass adors
Ġcatastroph es
Ġmas k
Ġdil igence
Ġham pered
Ġak p
Ġpione er
Ġpione ering
incre ased
Ġdiscoura ging
Ġneu ros
Ġtaj ikistan
Ġunders c
Ġpreoccup ied
Ġtelecom s
Ġrena issance
Ġdense ly
Ġkir k
Ġepidem i
Ġempt ive
Ġexped ition
Ġdischar ges
indust rial
scient ists
Ġhug o
Ġsalv ador
Ġgig antic
Ġimpul se
Ġdescend ants
Ġrenational isation
Ġmock ery
Ġrecap ital
Ġsquand ered
Ġinacc urate
redu cing
Ġcompatri ots
Ġcynic ism
Ġrespir atory
Ġenlighten ment
Ġhondur as
Ġsynonym ous
Ġshakes peare
ĠsÃ¡n chez
Ġjel ly
Ġlamber t
Ġrebell ion
Ġfatig ue
Ġtian anmen
Ġvare la
Ġizquier do
7 1
b ad
c lose
d or
h ill
m ert
r ina
s feld
t rad
Ġ &
Ġth ors
on ents
Ġw ives
is ance
Ġs or
Ġc ds
Ġc ensus
it ations
it ors
Ġp m
Ġp ip
Ġp ants
Ġp unch
Ġp ills
an ide
Ġb ip
Ġb ret
Ġm ikhail
es y
Ġf erv
ou st
al le
Ġh ated
Ġd ick
Ġd irt
st ant
st ock
st airs
Ġl inc
Ġu bi
Ġha bs
Ġy ushchenko
ol n
ri ga
ill as
Ġun to
Ġsh red
Ġex ternally
Ġv odka
Ġch en
Ġpres umption
Ġimp lying
Ġhe el
Ġab ound
Ġk ac
Ġk hrushchev
um in
reat ed
si p
Ġtr ash
Ġpl um
lo ve
Ġdis illusion
Ġcomp ounded
Ġcomp rise
Ġinc ite
Ġreport ers
te e
Ġexp ires
ts burgh
ink ed
pt ive
Ġra ck
ial s
Ġdec ay
Ġdec rees
Ġsp en
Ġfe ynman
Ġper ry
Ġinv oke
Ġter rain
Ġlo ading
Ġlo opho
Ġiss u
Ġgovern s
Ġacc red
Ġcommun iqu
Ġhuman kind
Ġconf u
Ġjo ins
Ġmon ies
lud ing
Ġdef y
Ġdef ends
Ġreal ization
Ġma i
Ġma pping
Ġ19 20
Ġinform ative
other apy
Ġlaw ful
Ġserv ant
Ġinf amous
Ġdep letion
Ġcond oms
ph al
Ġopportun e
Ġplan etary
Ġbl ast
com put
Ġiniti ating
Ġprogress ed
Ġcontribut or
eng lish
Ġes c
Ġfavour ing
Ġopp ress
Ġcri pp
Ġcivil isations
Ġfour teen
Ġmis led
Ġmis fortun
ber keley
equ al
Ġer df
Ġgra v
Ġopt ing
Ġhold er
Ġweek ly
Ġwr ist
Ġune asy
Ġpost ure
Ġ9 4
pris ingly
Ġmet ic
Ġdev ising
pr ince
Ġreflect ions
Ġdisp ens
Ġbri be
Ġpurs ues
Ġaud iences
lam ation
Ġharmon ize
Ġswed es
Ġregret ted
Ġdr ank
Ġconsist ed
Ġmal aise
Ġdeleg ates
Ġdistribut ors
Ġunivers ality
set Ãªte
Ġcontract ors
ex cept
Ġobst ruction
Ġcooper ated
rep ort
Ġcomplic ate
Ġcompar ability
Ġstim ulation
Ġwid ened
cl os
Ġsav age
Ġfederal ism
Ġcam el
Ġstabil izing
eff ective
Ġpersu asion
Ġselect ing
Ġdepth s
Ġsyn thes
Ġsyn thesis
Ġcrow ds
Ġdirector ates
Ġembar king
Ġfashion able
Ġgar riga
Ġfost ered
Ġcomplement arity
Ġdiss ol
Ġendeavour ing
Ġfrag ility
Ġunit ary
Ġcompassion ate
Ġaustral ian
Ġfasc inated
Ġiron ic
Ġsme lls
Ġdispar ate
Ġpharmaceutical s
Ġrot ation
Ġcatal og
Ġintense ly
Ġsimultane ous
Ġpit tsburgh
Ġdiam onds
Ġextract ed
Ġabund antly
Ġautomob iles
Ġtransplant ation
Ġmedi ator
Ã§ ois
Ġencompass ing
Ġwors ened
Ġchampions hip
Ġexpon entially
Ġhaul age
Ġscra pping
ser bia
Ġreef s
Ġghost s
hy d
Ġstig mat
Ġepidem ics
Ġlyn ne
impro ving
Ġanomal y
Ġyard stick
Ġhydro carbon
Ġhelicop ter
Ġrecru ited
len ecks
Ġintrins ic
Ġseaf arers
Ġincompet ence
Ġcum ulative
Ġcoerc ion
Ġgros setÃªte
Ġchromos ome
Ġsore ly
Ġawak ening
Ġpedest rians
Ġtay lor
Ġrhyth m
Ġbeliever s
Ġrevis it
main taining
Ġshri mp
Ġruth less
Ġdishon est
Ġglar ing
Ġyanukov ich
Ġchimpanze es
Ġunimag inable
Ġpeas ants
Ġillegit imate
Ġrenow ned
Ġgib ral
Ġmumb ai
drafts man
Ġhypothe tical
jev o
streng then
Ġdiaspor a
Ġlinc oln
Ġloopho le
6 0
7 5
b ud
c ulture
f ting
h al
k ar
l ate
m ult
n ame
p ric
s f
s mes
t ops
u ble
z id
at ia
Ġs j
Ġs ine
Ġs ulf
Ġc er
it ute
Ġp ere
Ġb uch
Ġm ired
Ġf rog
Ġf idel
Ġf uss
Ġin ception
Ġh end
Ġd iving
ar c
Ġre use
Ġre cessions
as ide
om a
Ġg addafi
Ġl dp
Ġl Ã³
Ġu ri
ot es
Ġst iff
Ġst alled
Ġcon sec
Ġal ber
Ġde lusion
ra ham
ch a
ul sions
Ġnot ify
ill i
ill er
Ġun con
Ġun ifying
Ġsh un
Ġsh aken
Ġsh irts
Ġex ting
ust er
Ġv ind
un ci
Ġen cycl
Ġr al
Ġcan ce
Ġk ings
Ġk roes
ac ross
ig an
ud o
ud ron
Ġac ids
ab eth
Ġfa x
Ġneed ing
Ġinc oh
Ġsa iling
Ġmar vel
Ġmar ÃŃn
pt ic
Ġtra ctors
Ġfe ira
Ġthink ers
Ġser b
Ġbo il
Ġinv ites
Ġoff spring
Ġtrans itions
row s
Ġmarke ted
Ġstr ings
ath ic
Ġmo ore
Ġrel at
Ġhigh way
Ġnu mb
Ġprot agon
Ġadd itions
Ġend emic
Ġent rop
art in
Ġhel ms
Ġgu ise
Ġsc aled
Ġsm iling
Ġback lash
Ġinter actions
Ġinter parliamentary
Ġcent rally
Ġcompet itions
Ġca udron
Ġdeal ers
be ek
Ġhand some
ater o
Ġfav ored
Ġkind ly
Ġbl aming
Ġes peranto
Ġel usive
Ġconstit uted
Ġsuff erers
Ġlab s
Ġdiscuss es
Ġfull est
pl aces
cise ly
Ġfall out
Ġgra pp
Ġgra ms
Ġparticip atory
Ġfle mish
Ġmult itude
Ġ8 3
edi ment
inde pend
Ġve il
Ġver itable
Ġec ologically
Ġorigin ating
Ġmess y
Ġsuper iority
Ġland mark
rupt ion
Ġbi ogas
Ġdisp ose
sp ort
Ġfear ful
Ġrich ness
Ġens uing
Ġeth n
Ġeth ic
Ġdiv isive
Ġinterv als
Ġimag ery
Ġharmon ized
Ġcod ified
Ġspace craft
Ġund is
Ġcop ying
Ġcircumst ance
Ġfirm ness
Ġfue ling
Ġsl ots
Ġsun nis
Ġclar ifications
Ġconcent rates
Ġ13 7
Ġheav ier
Ġacqu ainted
Ġhost ed
Ġvision ary
Ġpun ishing
Ġder ives
Ġassemb led
Ġsett lers
Ġhur dle
Ġprofessional ism
Ġabandon ment
Ġdisappe ars
pro bably
Ġsac coni
Ġmc n
Ġmatch ing
Ġreaction ary
Ġmos quit
Ġol mert
Ġphilosoph ers
Ġuniform ity
Ġcrow n
Ġq atar
Ġow ed
Ġkn ocked
sen beek
Ġcas p
add itionally
russi an
Ġbow l
Ġfool ed
Ġbread th
Ġarbit ration
Ġabst entions
Ġdup licate
Ġsubs istence
Ġcamb ridge
Ġunjust ifiable
Ġunh cr
Ġambig uities
Ġenrich ing
Ġunus ually
Ġbreed ers
Ġdismant led
Ġmun itions
Ġbiof uel
Ġalleg iance
Ġrede fin
Ġhesit ant
Ġvolunte ering
Ġjac ket
Ġinconsist encies
Ġinject ion
Ġscan ners
fif ty
Ġdivor ced
Ġspectac le
Ġincorrect ly
Ġignor ant
Ġsink ing
Ġneur on
Ġlung s
Ġdiscret ionary
Ġmunicip alities
Ġcommem orate
produ ction
Ġepis odes
Ġcomplac ent
Ġbund es
Ġattent ively
Ġspa wn
Ġdisturb ances
Ġautoc ratic
Ġsupervis ors
Ġauthentic ity
Ġzo om
Ġlud ford
Ġprerog ative
Ġinstinct s
Ġpreval ent
wal k
Ġqua est
Ġfried man
Ġgi ants
Ġvag ina
Ġdolph in
Ġsymptom atic
inf lation
Ġcarte ls
comb ating
Ġoverf ishing
Ġuc its
Ġsew age
Ġwij senbeek
Ġron ald
Ġmong olia
Ġamate ur
Ġdiagnost ic
Ġzap atero
Ġflor ida
Ġpent agon
Ġendang ering
Ġuntou ched
langu age
Ġnorweg ian
Ġredisc over
Ġglimp se
Ġhurd les
Ġammun ition
Ġludic rous
Ġdwar f
Ġdement ia
Ġhabs burg
Ġspen cer
prince ton
ĠlÃ³ pez
3 7
a gh
d t
d ar
d ial
e pt
f ted
f air
h ima
l ical
n els
p rop
r Ã©
s im
v ania
v ili
w ich
y on
Ã ł
Ġ .
Ġth ief
Ġa ires
re lig
at ism
en os
Ġp Ã©
an na
Ġb inary
Ġb aker
or g
or ig
Ġto ss
Ġf od
Ġf ills
Ġh ul
Ġh ij
Ġh atoyama
ar gent
Ġe go
ent ually
Ġn ick
Ġbe ware
Ġbe lls
il ar
ut ive
ur i
Ġal ia
Ġun related
Ġcomm ended
Ġse mester
and an
li um
Ġpar ach
Ġdo om
Ġv a
Ġv atic
Ġat yp
Ġimp ract
Ġj ury
Ġab norm
Ġk a
Ġk ohl
Ġint ract
ak ash
con versely
Ġpart ition
um en
Ġneed less
Ġdis ag
Ġmy st
Ġri pe
Ġact a
Ġfin ite
Ġwork load
Ġman chester
Ġapp rent
Ġapp raisal
Ġsa ud
Ġcons igned
me l
ia h
Ġmar io
og ical
ok en
Ġconc ede
Ġhow itt
ine es
Ġtra w
Ġtra ces
Ġworld view
Ġbo b
Ġinv iol
form er
uch ma
Ġstr at
Ġsub contract
Ġbas ics
Ġadd icted
Ġla v
Ġfar age
Ġcur ves
Ġend ow
Ġass erted
Ġsc aff
Ġhelp less
Ġback yard
Ġbu ys
Ġcap it
Ġca pp
be at
uc ked
Ġequ atorial
Ġthank ed
Ġins ur
Ġnegoti ator
Ġben jamin
Ġread ings
Ġmil an
Ġfish ed
Ġopp ressive
light s
arm ed
Ġsw amp
Ġcong olese
Ġloc ate
Ġrece ipt
Ġmis inter
Ġche at
has a
Ġprogramm ed
Ġdoub ly
den ed
Ġcontain er
Ġmet ric
Ġfl ame
Ġground ed
Ġdi vert
Ġill um
Ġgl ut
Ġgl orious
ev entually
Ġfo res
Ġcoll ins
Ġprepared ness
Ġeth ically
Ġstri pped
Ġdece ive
Ġlegit imately
Ġmig uel
pre cisely
Ġspeed ed
iss au
Ã© t
any body
Ġrein teg
Ġrein vent
Ġsil va
Ġstra it
Ġnegative ly
Ġannoun cing
Ġlog istical
Ġtun nels
Ġdestro ys
Ġcommunic able
Ġbeautiful ly
Ġcontra ction
Ġcoal itions
Ġconver ge
Ġcondition ing
Ġut ility
Ġmem o
Ġbelong ed
Ġ197 6
Ġplant ed
rant ed
Ġtoler able
Ġang les
mar ket
Ġsell s
Ġpsych ologists
Ġment ally
gen eral
Ġunfair ly
Ġcheap ly
Ġreconcil ing
Ġideal ism
Ġenhance ment
Ġic ty
Ġpassion ately
Ġsacrif icing
Ġwis er
add y
Ġjeopard ised
Ġhair cut
Ġstead fast
Ġexhaust ion
Ġkh an
tra ff
Ġsecular ism
Ġsuit case
Ġtact ic
Ġdivid ends
Ġexacerb ating
Ġrum sfeld
Ġring ing
Ġcaut iously
Ġbreakthrough s
Ġweigh ing
Ġretail ers
Ġbitter ly
Ġaffirm ed
Ġdisin teg
Ġtermin al
var o
Ġmedi oc
Ġunb ear
Ġdenomin ated
Ġneglig ible
Ġimpartial ity
Ġnurt uring
Ġblan ket
Ġsquee zed
Ġkat rina
Ġdisgu ise
Ġpreach ing
geor gia
Ġnich ol
Ġidi ot
Ġcad mium
Ġreinst ated
lat in
Ġperv asive
Ġkau ppi
luck ily
Ġorganiz ational
Ġstumb ling
Ġhemis phere
Ġore ja
Ġplut onium
cro atia
Ġmaneu ver
Ġdysf unctional
Ġvin ci
Ġsach s
Ġmillen nia
Ġsara jevo
Ġepl p
Ġopa que
Ġhorrend ous
Ġczechos lovakia
Ġuri be
Ġvatic an
Ġatyp ical
akash vili
Ġscaff old
2 1
e ing
f rench
g al
h our
i arity
l ay
p in
p urs
r d
t age
t ight
w ab
w itz
z ai
Ġt and
Ġt ink
Ġs d
Ġc ed
it is
Ġp ree
Ġp aren
Ġto lls
Ġf ren
Ġin ext
Ġh Ã¤
Ġh ipp
Ġd ull
ro bi
Ġand ean
Ġn aming
Ġn inth
ve ll
om b
Ġg ently
Ġg amble
Ġl aughter
ot le
Ġfor ging
Ġst aunch
Ġy uk
Ġal an
ch anging
Ġas th
ul as
Ġne y
Ġme ag
Ġun ra
Ġun iting
Ġun true
Ġeuro med
Ġse aled
Ġex h
Ġex od
Ġv ine
Ġv anish
est ine
Ġen ron
et ta
Ġli k
Ġhe b
Ġab hor
Ġk an
Ġk ahn
Ġk uchma
Ġint ending
Ġrep rehensible
Ġpe ers
ish a
Ġpl ast
Ġdis en
Ġdis eng
Ġout ra
Ġbec k
ag ne
Ġcons ort
are l
Ġte l
Ġnew ton
Ġev ap
Ġjust ifying
Ġra f
Ġra ging
Ġdec im
Ġbo oms
Ġleg end
Ġsub commit
Ġmat the
Ġjo e
lud ed
Ġadd icts
Ġtal es
Ġreason ed
Ġdifferent iation
Ġsimp son
be h
Ġdep ended
Ġta h
Ġsaf est
Ġcor p
Ġav iv
Ġbl as
par alle
Ġbal d
Ġpur vis
Ġfound ers
Ġbor rell
Ġshall ow
Ġcong ression
Ġregul ates
Ġprof iling
Ġprof iles
Ġexpl ode
Ġmilit ia
Ġann a
Ġann ih
Ġthought ful
Ġz ana
Ġce os
ug al
Ġaffect ion
Ġyoung est
Ġ6 9
Ġcourt esy
Ġanim ation
Ġgra mm
Ġhon ored
den mark
Ġbrit tan
Ġune ase
Ġharm less
Ġve al
Ġver ifiable
Ġec j
Ġoppos es
Ġ15 2
Ġlos er
ls son
Ġcy anide
Ġcle arest
Ġsan ct
Ġexam ines
Ġsens ory
Ġmal administration
Ġsl ums
yl vania
Ġchair manship
Ġsun set
Ġrail road
Ġfre er
Ġblo gg
Ġcr us
Ġton ne
Ã¶ stedt
Ġpiece meal
Ġclean ed
Ġhost ing
Ġdoor step
Ġcard iov
Ġ17 5
Ġsho ok
Ġgrand parents
Ġthor ny
Ġcub ic
Ġdig ging
Ġamaz ingly
Ġentit lements
Ġx x
Ġconce ive
Ġvari ant
Ġgal van
agree ment
Ġboost ed
Ġmark ov
Ġrecall s
Ġtit les
Ġprosec utions
Ġbackground s
Ġali ens
Ġunique ly
Ġlength s
sub sid
Ġmos ques
Ġpersu ading
Ġrecip es
Ġcalcul us
Ġendeav oured
Ġblow s
Ġzimbabwe an
Ġstream lined
Ġstream lining
Ġcomplement ed
Ġmicro phone
Ġic ao
Ġdiscrimin ating
Ġroman ians
bar oness
Ġmurd erers
Ġfab ulous
Ġplural ist
Ġplural istic
Ġmathem atic
Ġconven e
Ġmanifest ations
Ġdivers ified
Ġmuseum s
Ġvit amin
Ġinput s
Ġcollaps es
Ġvenez uel
Ġpestic ide
Ġmira cles
Ġfinger prints
Ġcompli ments
Ġrandom ly
Ġmyth s
Ġexemp ted
Ġhind rance
Ġunwilling ness
Ġcorrespond ence
Ġattribut es
Ġtum ors
Ġobsc ene
Ġinjust ices
Ġmaxim ize
Ġcrack down
Ġmont real
Ġreop ening
Ġdinos aur
Ġprovin cial
Ġreprodu ction
Ġupgra de
Ġgreed y
Ġabdu ction
Ġlen in
Ġconfed eration
Ġfierce ly
Ġflav or
Ġdissemin ate
Ġilliter ate
Ġstif le
Ġcolumb ia
hel p
stud ies
Ġvolcan ic
Ġfeat ured
ĠÎ µ
Ġtechnoc ratic
Ġdolph ins
Ġteleph ones
Ġschizophren ia
Ġpour ing
Ġpier re
Ġfest ival
Ġinexp ensive
Ġstan ford
Ġovere st
Ã¤n en
Ġinherit ance
Ġtheat re
Ġimpot ence
Ġregen eration
Ġphy si
legisl ation
implement ation
Ġbott lenecks
Ġunsc rupulous
Ġsparse ly
Ġglam orous
Ġstevens on
worth iness
Ġirrig ation
Ġwilder ness
Ġdiag ram
Ġlal umi
Ġubi quitous
Ġgibral tar
Ġsj Ã¶stedt
Ġquaest ors
Ġintract able
Ġcapp ato
Ġtand em
Ġinext ric
Ġexod us
Ġcardiov ascular
4 5
4 8
a ard
b lo
b road
d ent
d ol
e at
j on
k b
k in
l inson
m ers
t isa
u an
Ġ Ã¶
in na
at ol
Ġw en
Ġs omeday
en sibly
Ġc ess
Ġc ough
Ġc ared
Ġo li
Ġp iz
Ġb ib
Ġb issau
or ative
Ġm au
Ġf p
Ġf t
ou m
al tern
Ġan es
Ġh ull
Ġd ÃŃ
ro v
ro ts
ro pri
Ġe li
Ġn ai
le ting
Ġre ced
as ian
il ly
il ia
il let
Ġg ni
Ġi ra
Ġl ing
Ġl apse
Ġwe iler
se v
pe ts
ra mm
ri ger
Ġnot or
res py
ir ut
Ġun qualified
Ġeuro pa
Ġsh ots
Ġse oul
ant e
Ġv end
ess entially
qu iet
Ġen zy
Ġr ic
Ġso ber
Ġli ps
Ġj ugg
Ġhe m
Ġhe in
Ġor den
Ġab iding
Ġab using
Ġk on
Ġk ad
Ġus h
Ġpe l
Ġpl ates
ren ces
Ġdis like
Ġdis bur
Ġout do
Ġup ro
Ġup wards
Ġexp iry
Ġexp osing
Ġexp ropri
Ġco pper
Ġapp alled
Ġsa akashvili
Ġcons erve
Ġar ithm
el ing
Ġsp ani
ric ate
Ġlo aded
Ġro lled
tain s
Ġtw ins
ful l
Ġacc using
Ġgen om
Ġmat ernal
Ġdirect ing
Ġmon arch
Ġref riger
Ġend lessly
Ġemp er
Ġma ils
get ting
Ġown s
Ġbu g
Ġban ner
Ġaff lu
Ġca pe
Ġimpro per
Ġbus quin
Ġobject ivity
ph em
Ġap ocal
Ġbl ink
Ġspeci ally
Ġunderstand ably
per form
av an
Ġrese mble
Ġspecif ying
Ġsing ular
Ġart if
Ġclo th
Ġviol in
Ġpat ently
Ġpat ernity
Ġmis pl
ber ger
Ġtrad able
Ġer oding
Ġparticip ant
Ġ7 50
Ġtom linson
Ġ8 8
Ġoil s
Ġfair y
Ġver bat
cri bed
Ġmus card
Ġdam asc
Ġdi ary
Ġdi ame
bo ards
ev ol
Ġpaper work
Ġrich es
Ġcritic izing
Ġcandid acy
Ġimag ing
Ġara ble
Ġrecon sid
Ġtemp ting
Ġquot es
Ġsco ld
not e
Ġflow n
Ġfoot steps
Ġstra its
Ġsuperv ising
unt ary
Ġcra dle
Ġoccup ies
Ġrob bed
Ġdream t
Ġpublish ers
Ġwo e
Ġforg iveness
Ġinspect ed
Ġsell ers
Ġpul ls
Ġquar rel
Ġliter ary
200 5
Ġgold stone
Ġbattle field
Ġbrother hood
Ġmotor ways
Ã¼ r
Ġstrange ly
Ġadm ired
Ġintens ification
Ġstream s
Ġcommand s
Ġhat zid
Ġken yan
Ġkar zai
cap es
Ġpse udo
Ġdav os
Ġjeopard ize
Ġfab re
Ġdiver ted
Ġvent ures
Ġcrash es
Ġfur ious
Ġauthoritarian ism
Ġattain ing
Ġcul mination
Ġjurisdict ions
Ġherz og
ifor is
Ġdestabil isation
Ġunex pl
Ġstagn ant
Ġfi asco
Ġacute ly
Ġpap ua
Ġsensit ivities
Ġspons or
Ġdeflation ary
Ã¡n dez
sch ool
Ġintermedi ary
Ġtag s
Ġsmugg led
Ġbio eth
Ġfol ly
Ġmi ke
Ġpatri otism
Ġsant ini
Ġskept icism
Ġpir ates
cor por
Ġkilomet re
Ġhi ros
Ġelev ated
Ġelev enth
ĠÂ °
Ġkat iforis
Ġreintrodu ce
Ġscandina via
Ġthr illed
Ġdissemin ating
Ġcontag ious
Ġsurf aces
Ġindiscrimin ately
dog an
Ġenqu iry
Ġschroed er
Ġhelicop ters
Ġfanat ical
Ġfanat ics
Ġperse ver
Ġdiscard ed
Ġadmis sible
Ġcarcin ogenic
chem ical
Ġanatom y
Ġcush ion
Ġmund us
Ġdisplace ment
Ġjuven ile
Ġcomed y
Ġindict ment
harm on
Ġintrans igence
Ġaub respy
Ġconspic uous
Ġforci bly
fundament al
Ġrebu ilt
Ġmarath on
Ġmcdon ald
strengthen ing
Ġconsec utive
Ġencycl op
Ġentrop y
argent ina
Ġunbear able
Ġnichol son
Ġmeag re
Ġcongression al
tisa ari
Ġarithm etic
Ġmispl aced
Ġverbat im
Ġmuscard ini
Ġhatzid akis
0 2
b ot
b ag
b ner
d an
h em
l ab
l ants
m t
m ust
x ed
y ans
Ġt em
Ġa pe
re ction
at to
Ġw ag
Ġw itch
Ġw rap
Ġs id
Ġs chn
Ġs ins
Ġs lam
Ġc mo
Ġo pel
Ġp airs
Ġb olog
Ġm oura
Ġm ier
Ġm ps
Ġto es
Ġto go
al it
Ġan a
Ġd orm
Ġd aring
Ġd wind
ent er
th est
st ore
st eria
Ġg ale
Ġl ender
Ġu m
Ġst all
Ġst oring
Ġha ck
ow itz
ol ics
Ġal ps
Ġde ceptive
ch air
ad ding
op y
Ġex otic
Ġpar ked
Ġv ou
Ġv ang
Ġch ef
Ġr ust
Ġr asmus
Ġr oure
Ġimp lant
Ġj a
ect ed
Ġres ide
Ġk am
ak able
Ġrep licate
ll able
Ġad ul
Ġcont ested
oc ating
Ġfa ction
Ġout lining
Ġri ot
Ġinc itement
de p
Ġman power
iz ers
te lling
Ġapp reh
Ġcons ign
Ġcons olation
Ġmar in
Ġmar ia
og enous
he llo
Ġra ft
Ġtra ced
Ġdem ograph
Ġsp y
Ġsp ike
ip ts
Ġover s
Ġcl ay
Ġconf ines
Ġstate hood
Ġmon archy
Ġnu isance
Ġquestion na
itiz ed
Ġcol oss
Ġgu ides
Ġprotect ions
Ġview points
Ġban otti
Ġset back
bal gs
Ġtransp lants
Ġcap s
Ġform ulas
Ġbeh old
Ġca fe
Ġinf lam
isl am
Ġsch Ã¶r
uc king
Ġnegoti able
Ġread just
Ġtax ed
Ġed ition
Ġbusiness man
Ġcreat or
aps ed
Ġbar rels
Ġret ic
Ġrece ipts
Ġsou ls
Ġkey board
Ġtimes cale
Ġche que
Ġbur ns
Ġty ph
Ġemphas izing
Ġlight ning
Ġvict ories
Ġharm ing
Ġge ological
Ġcirc ulating
Ġant id
Ġten ure
Ġpost war
Ġtest ify
Ġorigin ate
Ġport al
Ġgreen er
euro pol
Ġred ouble
Ġmodern izing
Ġbel ts
Ġrepe al
Ġcross es
Ġill s
Ġdebt or
Ġasse mble
Ġtrust ing
Ġrecon f
Ġpie balgs
Ġsens ing
Ġsubstant iated
Ġunaccept ably
Ġbul b
Ġsen ators
Ġcat ania
Ġsl ash
Ġcha mbers
Ġrein vig
Ġhar ris
ma jor
Ġ14 5
Ġprospect ive
Ġpra ying
Ġrob otic
Ġrele asing
tur ned
Ġadapt ability
Ġprotest ant
Ġ197 1
Ġ197 8
Ġradical ism
Ġoptim ise
Ġcast e
nor th
Ġfavor ites
cons umer
Ġpredict ability
Ġmc guin
Ġpatent ing
Ġcry st
Ġrh ine
Ġfer ry
Ġimper atives
Ġreass urance
Ġmobil ization
Ġflood ed
Ġexpansion ary
Ġwaters hed
Ġawa its
Ġadm its
Ġmagn etic
Ġbomb ard
Ġhal ted
Ġkn ocking
Ġentail ed
Ġdepri ving
bre aking
Ġmit igating
Ġchief s
Ġliber ated
Ġdan es
Ġlands capes
Ġmurd erer
cap acity
Ġresort ing
Ġdiver gences
Ġplural ity
Ġfasc ist
Ġtic king
Ġreward ing
Ġtail or
Ġmarginal ized
Ġassert ive
Ġassert ions
Ġclin ics
Ġmaster y
Ġcarri age
Ġbath room
Ġheight ened
Ġnomin ate
Ġchile an
Ġinterrupt ion
Ġtor res
ĠÃ ¥
Ġadvent ures
Ġadh ering
Ġsli pped
democ ratic
Ġembarrass ment
Ġextract ive
Ġinterconnect ions
Ġmart ens
Ġalien ated
Ġlap tops
belie ve
Ġemail s
Ġtank er
Ġpatri arch
Ġnap olit
Ġrecur rence
Ġaver ted
Ġresid ues
Ġdefici ency
cor rect
Ġbasel ine
Ġ193 3
Ġbudd h
Ġbless ed
Ġschol ar
Ġeru ption
Ġcanc un
Ġuncond itionally
aks in
Ġdrag on
Ġneu rolo
Ġunc overed
Ġaller gies
pat ients
Ġaven ue
Ġaven ues
Ġdrow ning
Ġ192 9
Ġdent ist
Ġay atol
prov iding
business es
Ġbhut an
disc ussions
Ġsed u
Ġworksh ops
hon ourable
Ġpon der
Ġtow ers
Ġvoy age
Ġappend ix
Ġtomato es
Ġbah rain
Ġrou ge
Ġsiber ia
onge vity
Ġvehement ly
Ġapproxim ation
Ġoutsour cing
Ġsegreg ation
Ġkall as
Ġempir ical
Ġchal k
ÄŁ an
Ġthwar ted
Ġplum met
Ġcommuniqu Ã©
Ġethn ically
Ġmcn ally
dial ogue
Ġsubcommit tee
Ġpersever ance
Ġvang uard
Ġrasmus sen
ĠschÃ¶r ling
Ġnapolit ano
Ġayatol lah
7 0
9 0
9 5
c ill
c ry
d ers
e le
f am
g ling
h um
k k
n ature
n inety
p loy
s sel
t u
t oc
v io
v Ã©
w o
z abeth
Ġt ips
Ġth ai
Ġa ig
Ġa ided
Ġs ain
Ġs Ã¶der
er ations
Ġo min
Ġo mn
Ġb ach
or us
or ms
Ġm ous
Ġf iji
Ġin ali
al ay
Ġh umb
ic an
th ood
Ġis a
il and
il der
Ġg low
Ġi bra
Ġl ongevity
id y
Ġcom ic
Ġst en
Ġst ern
Ġha it
Ġal ten
Ġal ga
ra c
ra pid
ri r
ri min
ch witz
Ġne ander
Ġun check
Ġun conscious
op ulation
op athic
Ġsh ir
Ġex or
ant ing
Ġv iv
Ġle ather
et t
Ġr ash
Ġcan al
Ġimp aired
Ġj aze
Ġor anges
Ġint imate
our ished
ac on
ig l
Ġrep udi
Ġrep rocess
Ġpe at
Ġfa cial
one l
Ġdis respect
Ġdis pel
Ġdis quiet
Ġout stri
Ġri p
Ġri ft
du ct
Ġcomp art
Ġcomp iled
te ach
Ġev ils
Ġra cing
Ġra ys
Ġra iny
Ġunder cut
Ġper f
Ġtrans ist
Ġho ol
lect ed
Ġmat ri
Ġgroup ing
rat ives
Ġhigh lands
low er
read ing
Ġdef ective
Ġsol bes
Ġrequ isite
Ġma id
Ġcol lar
Ġcol ored
Ġher oin
Ġcar p
Ġsc aling
ici ently
Ġaff ront
Ġcommon place
Ġplace ment
Ġfra mes
Ġfra ught
Ġsch um
Ġem ble
Ġem itted
Ġshe ikh
Ġthank fully
Ġins ens
Ġwhe els
do ÄŁan
Ġpract icing
Ġcare less
Ġstruct urally
Ġsw ine
Ġger hard
Ġret ina
Ġcolle ges
Ġclose t
Ġmor ph
Ġvis ibly
Ġmilit ants
af ield
Ġtrad em
equ ality
Ġpal li
Ġer ode
Ġer dogan
Ġamerican ism
Ġhear ted
Ġbi oc
Ġbi osphere
Ġbel li
Ġhun ters
bo b
Ġimpos sibility
Ġdebt ors
Ġcand y
Ġcand le
Ġnorth west
Ġflo at
Ġexam s
jo int
Ġflex ibly
Ġcal ib
Ġcal ories
Ġmer ge
Ġcop ing
Ġquot ing
Ġmal es
Ġpoll ute
Ġbul lets
not es
not withstanding
Ġwarm th
know ing
Ġinvestig ative
Ġdeleg ate
Ġhy steria
rest rial
Ġauthor ization
Ġhar ry
Ġship ment
Ġship ments
Ġcontract ed
Ġ14 9
Ġcra cks
Ġoccup ations
Ġdon ald
ij k
Ġdream ing
Ġcomplic ity
Ġintention ed
respon sibility
Ġexec ute
Ġintellig ently
Ġtro op
Ġforg iven
Ġinspect or
Ġisol ating
Ġrestruct ured
Ġconce aled
Ġenforce able
Ġfat alities
Ġnar ratives
Ġtransl ates
Ġfrank lin
Ġcamer oon
Ġreiter ates
Ġreiter ating
Ġmobil ising
Ġdiscip lined
Ġmotor way
Ġbol st
Ġalarm ed
Ġq e
Ġpil g
Ġfran Ã§ois
mon th
Ġstream line
Ġremed ied
Ġneglect ing
Ġaccomplish ments
Ġdefault s
Ġah tisaari
Ġtast ed
Ġcab otage
Ġsupre m
Ġsequ ences
opol itan
off s
Ġdisrupt ions
Ġshel ves
Ġsubstit utes
Ġgrasp ed
Ġtreas ure
Ġcalm ly
Ġcosm opolitan
Ġrede ploy
Ġsli pp
Ġtrigg ering
Ġpand ora
Ġsatur ated
Ġgraph ics
Ġaffirm ative
Ġattribut able
Ġpoison ed
Ġassass inated
Ġintimid ated
invest ors
Ġhav oc
Ġbeha ves
Ġskept ics
Ġrect ified
Ġresid ue
Ġgrab bed
Ġderiv ative
Ġuncom petitive
Ġbrid ging
Ġanch ored
Ġencompass es
Ġhinder ing
fund ing
prom oting
Ġven ice
conf lic
Ġsymmet rical
Ġhaul iers
Ġembod ies
Ġkidn apping
Ġbric ks
Ġstun ned
Ġpeters berg
Ġportra it
Ġcarl os
Ġcharm ing
Ġangel illi
Ġvolcan o
Ġinsure d
Ġost ensibly
Ġintrins ically
Ġther mal
Ġcort ex
Ġdeport ation
Ġbhut to
Ġinfl ated
supp ose
Ġalph abet
199 9
Ġoligarch s
Ġross a
Ġeleg ant
Ġassimil ation
Ġparam ilitary
Ġabys s
Ġseiz ure
Ġkilog rams
Ġgriev ances
Ġerrone ous
Ġmisfortun e
Ġbuch arest
Ġfod der
Ġplast ics
Ġlalumi Ã¨re
Ġinextric ably
Ġpiz za
Ġemper or
Ġdamasc us
Ġgale ote
Ġinali enable
Ġuncheck ed
Ġjaze era
3 00
a ires
b ri
c row
d ie
f ighting
g art
l ack
n ost
p m
p ow
p ace
r ice
t est
v s
Ġt we
Ġt ipping
in ative
Ġw rest
Ġw aging
Ġs igh
Ġs ino
er d
Ġc t
Ġp es
an ct
Ġm p
Ġm Ã¼
Ġf id
Ġf ay
Ġf ist
al cul
Ġh ig
Ġd v
ar ist
ar ial
Ġn t
Ġn un
th ur
Ġre app
as tern
Ġbe lo
st art
Ġg ah
Ġl d
Ġl ure
Ġl ining
Ġwe u
Ġwe ars
Ġit er
Ġst air
Ġst oning
Ġy ards
ul ators
Ġne lson
Ġun acc
Ġun rep
Ġun war
Ġcomm enced
pp Ã¤nen
Ġse ppÃ¤nen
and re
Ġpar ish
Ġgo ats
Ġch lor
et ti
Ġall ud
Ġr ation
Ġr ans
Ġr udi
Ġr yan
Ġso ap
us c
Ġj oking
Ġj ams
Ġhe ck
Ġab er
Ġab atto
Ġk not
out i
Ġus age
con cil
ig ious
Ġad s
Ġmust er
Ġpe asant
ap t
Ġact ress
Ġwork places
Ġman ag
Ġreport er
Ġyear ning
Ġsa ves
Ġar k
Ġmar row
lic ation
lic able
ach ed
Ġdec ency
Ġob ese
Ġind iv
Ġover arch
Ġlo vers
Ġleg o
Ġstr ides
ful f
Ġprov oking
Ġlong standing
Ġmon ks
Ġla z
Ġdef icient
Ġuse fully
Ġma es
Ġtur mes
itiz ation
Ġcar ic
Ġsm et
Ġsm iles
Ġbr un
Ġpow der
Ġview ing
Ġbu enos
Ġsign alled
Ġhim alay
Ġcompet itor
Ġmed al
ten ing
Ġlif esty
isl av
Ġsch wab
Ġgr ind
Ġlegisl ating
Ġdep rez
ph y
Ġsur rend
Ġwish ful
Ġthank ful
Ġins iders
Ġvi kt
ros anct
Ġben evol
Ġel apsed
Ġpeace keepers
fort y
Ġactiv ate
Ġsumm ed
fin ished
Ġair bus
Ġhome owners
Ġfight s
Ġz ed
Ġperiod ically
Ġche ated
Ġbur ton
Ġgra ves
Ġopt ical
Ġindepend ents
az ir
Ġgener ational
Ġgener ator
Ġbra d
Ġpa asil
Ġ8 4
Ġver ified
Ġfig uring
Ġsuper st
Ġred irect
Ġred wood
Ġdi arr
Ġdisp ense
Ġhun ter
Ġrad ar
Ġrat s
Ġimag ining
Ġsecret ly
Ġrenew ing
cer ity
Ġislam ism
Ġcomput ation
Ġdeg en
Ġhistor ian
Ġdr illing
Ġtack les
Ġfue lled
Ġanti qu
pre par
Ġblack list
Ġpenal ising
Ġdiplom as
Ġpath etic
Ġship owners
oph er
Ġcompens ating
Ġord in
Ġsize able
Ġdon ated
Ġdy n
Ġresist ing
Ġsho ots
Ġfederal ists
Ġassemb lies
Ġcub ans
Ġaccident ally
Ġbelarus ian
Ġphenomen al
Ġinad vert
Ġcore per
Ġsell afield
Ġpsych o
Ġvig our
Ġmac artney
Ġsac rosanct
Ġmark er
cons erv
Ġrecall ing
eff orts
Ġgold man
Ġvan ished
Ġadmit ting
Ġted talk
Ġcollabor ating
Ġreserv o
Ġfrank fur
comp are
Ġfem ales
Ġcrow s
Ġpunish ments
ns ch
Ġdeploy ing
Ġmultip lied
Ġdub ai
Ġdetect or
Ġmold ovan
Ġanx ieties
Ġmouth s
appro x
jud ging
iti us
Ġindis put
Ġdiagn ose
Ġsand wich
Ġmanip ulating
Ġinvent or
Ġlag s
Ġhusband s
Ġrot ten
Ġnic kel
Ġredund ancy
Ġmarginal isation
Ġrush ing
rec ogn
state ment
Ġstupid ity
Ġutil ities
Ġutil ised
Ġparadox ically
Ġburdens ome
sad dam
Ġmisle ad
Ġdiam etric
japan ese
Ġsin ister
Ġlev ies
Ġlev ied
Ġjar gon
fif th
Ġmush rooms
Ġpremature ly
Ġacced ed
Ġharass ed
Ġnap les
Ġaver sion
Ġprec urs
Ã§ a
Ġescap ing
Ġhi ke
Ġpoem s
Ġassault s
Ġasymmet rical
Ġgro cer
Ġrender ing
Ġdiscred it
vention al
elect ions
Ġmaur itius
Ġdeposit ors
Ġ140 8
Ġvirgin ia
Ġdegrad ed
Ġari as
Ġko z
Ġscream ing
Ġunden iably
Ġeman cip
Ġhandic ap
Ġastronom ical
Ġcock tail
Ġstig ma
Ġanomal ies
Ġcher ry
Ġker ry
Ġbog ged
Ġreinst ate
Ġlee way
Ġesteem ed
Ġimpl ants
Ġmeg aw
Ġww ii
Ġconsci ously
coun cil
Ġafflic ted
Ġdismay ed
Ġrelent less
Ġ.. ..
Ġunderval ued
Ġburg lar
Ġconfig uration
Ġmetab ol
saf ety
struct ural
Ġlah ti
Ġpean uts
Ġimpract ical
ĠhÃ¤ nsch
Ġasth ma
Ġunra vel
Ġtah rir
Ġblas phem
Ġvenezuel an
Ġnai robi
Ġdiame ter
Ġhiros hima
Ġbolog na
Ġmier t
Ġmcguin ness
toc in
ĠsÃ¶der man
Ġibra him
Ġalten er
Ġalga e
Ġmanag erial
Ġoverarch ing
Ġlifesty les
Ġpaasil inna
1 00
4 4
c ross
c ats
d est
f ly
g am
h c
h ire
k atell
l od
n d
s ame
s ound
s uff
u pon
w all
Å Ĥ
Ġt res
Ġt ach
at temp
Ġw re
is o
Ġc ress
Ġc ured
Ġo v
Ġo etting
Ġp und
Ġp ork
Ġb m
Ġb ore
Ġb ren
Ġb lix
Ġm um
Ġf aint
ou ri
Ġin mates
Ġan ach
Ġh ates
Ġd ressing
Ġd azz
ar us
ar ab
le ans
Ġre or
Ġre cept
Ġre ceptive
om fort
Ġbe ver
Ġbe ast
Ġbe irut
il legal
Ġg ur
Ġl un
Ġwe gg
Ġha y
Ġcon n
ol s
Ġal varo
ul in
ay ann
ill ions
Ġme te
Ġun not
Ġun mist
Ġun fulf
ter rey
im medi
Ġsh ah
Ġsh aky
Ġse gments
Ġpar cel
Ġpar don
qu ality
Ġch i
Ġr ud
Ġso cks
Ġcan yon
us ually
Ġwas tes
Ġj ensen
Ġor ally
Ġor leans
Ġres h
Ġthere after
Ġpol ledo
Ġk abil
Ġint angible
ll ari
um ines
Ġcount ies
Ġpe ar
ab el
Ġno x
Ġdis ney
Ġright e
Ġunion ists
te lla
ag os
wh ose
Ġcons cient
Ġhow ard
ine v
Ġspe ar
Ġany time
Ġsp ade
ric k
Ġinv itations
Ġcl ing
ath ed
Ġclear ance
Ġrem ot
Ġstate less
Ġmat er
Ġdisc ord
Ġdisc omfort
Ġmon terrey
Ġref ined
Ġma ij
Ġdes erving
Ġsi ren
Ġtur b
Ġcol onel
Ġher ring
Ġcar ved
olog ues
Ġinter mod
Ġinter regional
ail able
Ġbu zz
bal ance
Ġsuc c
Ġtechn icians
Ġlit igation
Ġ20 25
Ġprin ter
Ġsch Ã¼
Ġris king
Ġnor theast
Ġap es
Ġsur gical
Ġequ ations
Ġbl ak
she ll
Ġvi b
gg ish
gg age
Ġproject ion
Ġstar ve
Ġstar ved
Ġtechnolog ically
Ġfac ult
Ġsing led
Ġret ard
Ġreform ists
ib ia
Ġguarant or
Ġcentral isation
mad e
Ġbank er
Ġpal m
Ġpal p
Ġeur lings
ash a
Ġident ifiable
Ġlight weight
Ġge e
Ġamb ul
Ġcirc ulated
edi ence
Ġfinal ise
Ġve t
Ġve ld
Ġver b
cri pt
Ġmass ively
Ġsuper b
Ġcamp us
Ġbi ologist
Ġmodern ised
Ġmodern ize
soci ety
Ġill ogical
Ġsea water
Ġvo j
every where
Ġstri fe
Ġsal vation
ton y
Ġtemp oral
Ġsepar ates
Ġcou ps
Ġste ak
Ġauthor itative
Ġ198 2
Ġdefence less
ex amp
Ġlu ggage
Ġlog ging
pol l
Ġ14 4
Ġfil ip
Ġton nage
Ġpakistan is
Ġtre ason
Ġnice ly
ene y
Ġfif a
put ting
Ġbon de
Ġattract s
mos cow
Ġsubsidi aries
Ġadvoc acy
Ġcourage ously
Ġprotest ed
Ġcoast guard
Ġvari ables
Ġhospital ity
Ġnar cot
Ġjournal ism
Ġvill agers
Ġsight s
Ġbed s
Ġtransl ator
Ġment or
Ġod ys
Ġsake llari
Ġdefe ating
aw a
Ġdub bed
mon etary
Ġphotograph ed
Ġupd ates
Ġyield ing
year s
Ġkeen ly
fall s
Ġdur ban
Ġvoc ation
Ġmanifest ly
Ġah ern
Ġjump ing
book s
Ġ194 8
osy n
Ġkh mer
port ugal
Ġbroadcast s
Ġadequ acy
Ġenshr ine
Ġprosecut ing
Ġdismiss al
Ġpromin ence
Ġband s
Ġbreed s
Ġcath ed
Ġcath olics
Ġ195 7
Ġpit tella
ell hardt
Ġmcc artin
Ġoxy tocin
Ġcambod ian
Ġsin cerity
Ġpap ayann
Ġinse parable
Ġethi opian
Ġspons ors
Ġstret ches
Ġinsult s
Ġfla x
anas ia
Ġpoison ing
Ġpoison ous
Ġaqu atic
Ġregain ed
Ġhang s
Ġrival ries
Ġspin elli
Ġrecur rent
Ġferre ira
Ġreop ened
Ġnit rates
Ġunb und
Ġinfin itely
jour nal
Ġterrif ic
conf idence
Ġef sf
Ġteen ager
Ġindul gence
Ġelectron ically
Ġadvers ity
Ġorthodox y
Ġhub ris
Ġimplicit ly
Ġfertil izer
Ġmonu ments
Ġmonu mental
Ġflav our
Ġritual s
Ġphysic ists
Ġredef ined
Ġerect ed
Ġadvertise ments
Ġspontane ously
Ġmast ered
Ġseparat ist
Ġaggress ively
Ġblunt ly
brid led
Ġathe ist
Ġconting ency
Ġincompet ent
Ġeuroscept ics
Ġartic ulate
Ġanno ying
mil k
Ġleak age
Ã¸ rg
Ġwra pped
Ġlaps es
pract ice
Ġvic inity
aud ience
Ġtramp led
Ġreleg ated
Ġsup ern
Ġtub es
Ġanten na
Ġmetropol itan
Ġarbitr arily
Ġjelly fish
stant ial
Ġconfu cian
pric es
unci ation
Ġsaud is
Ġsd rs
Ġdiseng agement
ĠÎµ u
dol lar
Ġcess ation
Ġschn ellhardt
Ġcoloss al
Ġsuprem acy
Ġunwar ranted
Ġvikt or
Ġdiarr he
Ġdiametric ally
katell is
Ġtres pass
Ġoetting er
Ġanach ron
Ġwegg en
ĠschÃ¼ ssel
Ġnarcot ics
Ġsakellari ou
Ġpapayann akis
Ã¸rg ensen
) (
0 5
1 3
a is
a ving
b low
b ling
c re
c ov
c ling
c reating
d ain
d ist
e ge
f is
f inding
f lex
g ender
h m
h uge
h app
h enko
k osov
l ords
m ind
n ard
n umerous
n ets
o bo
o bs
p ra
p ack
s b
s arkozy
t ts
t ok
t ances
u ant
u Ã©
y r
y ang
z h
Ï Ħ
Ġt u
Ġt il
Ġt se
Ġt ud
Ġt ang
Ġth aksin
Ġa ar
in ke
re la
at ter
at tering
Ġc is
Ġc ep
Ġc cs
Ġo ust
it ism
Ġp icks
Ġm acc
Ġf ighter
Ġan emic
Ġd uck
ent e
Ġre ver
Ġbe gging
st e
Ġg lu
Ġg ns
Ġi as
Ġpro pe
Ġpro li
Ġpro be
Ġpro state
Ġha ke
Ġal umin
ra h
ra ble
ch o
Ġeu th
Ġne arer
Ġme ga
Ġun welcome
Ġun finished
Ġun bridled
Ġsu pers
Ġsh alit
Ġse ves
Ġse ism
and estine
Ġv ase
Ġv idal
ich ester
we alth
Ġle aked
Ġgo ose
Ġch au
Ġch unk
Ġch ichester
Ġpres erves
Ġr ut
Ġr ous
Ġcan e
Ġj ou
Ġj ak
Ġj eg
Ġj Ã¸rgensen
Ġhe ap
Ġab ortions
Ġab raham
end ijk
Ġcommission s
Ġk i
Ġk r
Ġk lam
Ġk ovÃ¡
ac a
all o
Ġpresid ing
Ġrep ressed
Ġac res
Ġac oust
ab y
si zed
Ġpl ague
Ġdis sip
Ġdis dain
Ġcomp act
Ġinc alcul
Ġstates man
Ġexp ulsions
Ġsa vers
are z
Ġte leg
Ġpo ppy
Ġar c
Ġpolic emen
ach use
he w
he y
Ġra j
Ġra ined
Ġra mos
Ġdec k
Ġunder foot
Ġtra gically
Ġtra katellis
Ġsp er
Ġsp am
Ġob e
ind ones
Ġbo ots
Ġbo iling
Ġover see
Ġover capacity
Ġro gue
Ġcl andestine
Ġcommit s
Ġeven ly
Ġmon str
Ġcountry men
Ġmay nard
Ġma pped
Ġent ang
art a
Ġ19 00
Ġass erts
Ġcol ours
Ġprotect or
Ġcar ol
Ġcar tel
Ġsm iled
Ġbr unt
Ġinter tw
Ġview ers
Ġwar heads
Ġener g
Ġinstit uted
ten stein
Ġca v
Ġameric as
Ġinf ancy
Ġmod us
Ġmod alities
Ġsch uman
Ġgr ids
Ġest onian
ph ones
Ġinde c
Ġread able
Ġposition ing
Ġfree ing
do ctors
eng er
let t
Ġdist orts
Ġmight y
Ġbro ch
Ġcreat ors
Ġess ay
Ġviol ently
Ġhist ories
Ġann ul
Ġprevent able
ger man
Ġz ion
Ġstat utes
erv ice
Ġty mos
Ġid ly
Ġer doÄŁan
Ġgra des
Ġconsequ ent
Ġcirc us
Ġmult im
Ġobs erves
orm ick
Ġdeep ened
Ġmass achuse
Ġsubsid ising
Ġdol l
Ġfl ush
Ġclos es
Ġgl ue
Ġclass rooms
Ġwaste ful
Ġeth os
Ġcomplex ities
ha pe
Ġcop ied
Ġconduct or
Ġdr c
sh ame
Ġmig rate
Ġcommer cially
Ġcell phone
Ġbuy er
Ġ18 5
Ġsun k
Ġsex y
ann i
Ġstra ined
Ġslo pe
Ġbush ill
Ġarr anging
Ġfil ters
Ġcooper atives
Ġconserv atism
Ġpra yer
Ġcommercial isation
Ã¶ t
anim al
Ġcomplain ant
Ġtun ing
Ġcro cod
Ġchem otherapy
Ġtransform ations
Ġintention ally
Ġder ail
Ġhom o
Ġhom age
Ġautom ated
Ġsoft ly
Ġadapt ations
Ġut opia
Ġquant ified
bor g
Ġ197 7
Ġarch ives
Ġcoast line
Ġpleas ing
osp ace
Ġradical isation
Ġremo ves
Ġcast s
Ġdark er
Ġgaz e
200 7
pro ble
Ġstabil ized
Ġsearch ed
Ġswe ater
Ġspect er
Ġdism al
Ġrational ity
Ġmountain ous
Ġsusp ending
Ġod a
Ġblind ed
Ġvacc inated
Ġcoff ers
Ġperpet uate
Ġemotion ally
Ġfault y
Ġmaced onian
Ġshi pped
Ġkar am
Ġrhetor ical
Ġrecy cle
Ġenlar ging
Ġecho es
Ġecho ed
Ġbow e
Ġconven iently
Ġinvent ing
Ġinvent ors
Ġorient ated
Ġlag endijk
Ġcomfort ing
Ġprescri ptions
Ġ194 7
Ġreloc ate
Ġcab rol
Ġattain able
Ġcatal an
Ġjer k
Ġmathemat icians
Ġinstruct ive
Ġexacerb ates
Ġmira cul
Ġcoinc ides
Ġreme mbers
Ġmel ted
Ġtribun als
urg ent
Ġremit tances
tal ks
Ġscan ning
Ġinsult ing
Ġmagaz ines
trans port
writ ing
Ġcofin anced
Ġtag ged
global isation
Ġlobby ists
Ġcomparative ly
Ġaer ospace
Ġpriorit ised
Ġempow ering
high er
Ġterrif ied
Ġhurric anes
Ġef d
Ġsanction ed
simp lif
Ġcontempl ating
Ġobstruct ed
Ġaus chwitz
Ġinadequ acies
Ġanonym ity
const itutional
cop es
Ġselfish ness
Ġsty les
Ġslu ggish
Ġconqu ered
Ġmonu ment
Ġlament able
Ġspo il
Ġcolumb us
nar rator
Ġmiscon duct
Ġtechnoc rats
Ġscrutin ise
Ġcous ins
scient ific
Ġimprov ise
Ġpsychiat ric
Ġshout ing
Ġpunct ual
Ġgau ge
Ġnep ad
Ġinaug uration
Ġworksh op
Ġconsci ences
Ġskelet on
bir ds
Ġeh ud
Ġgla ciers
Ġorb Ã¡n
Ġingen ious
Ġcalam ity
Ġarist otle
Ġaeropl anes
Ġoverhe ating
Ġblur red
Ġineffect ual
Ġnutri ents
Ġkib aki
Ġmoham med
Ġscapego at
thet ics
Ġkirk hope
Ġepidemi ological
Ġbret ton
Ġdissol ve
Ġbundes bank
purs uant
Ġmatthe ws
beh ind
Ġeli zabeth
Ġnotor iously
Ġunrep orted
Ġblasphem y
Ġtach ograph
Ġcress on
Ġunnot iced
Ġunfulf illed
Ġkabil a
inev itably
kosov o
Ġgns s
Ġproli fer
Ġseves o
Ġklam t
ĠkovÃ¡ cs
Ġincalcul able
Ġmonstr ous
Ġtymos henko
Ġmassachuse tts
3 8
4 6
6 5
7 7
a qu
b in
b os
c d
g un
g reen
h ung
j ah
n ine
o ys
o hr
o Äį
p ared
t im
t ens
z o
z hen
Ã ¦
â Ļ«
Ġ ion
Ġth under
Ġa eg
Ġa wards
Ġthe sis
at ur
at ical
Ġw ie
Ġs ow
Ġc it
Ġc ries
Ġo ven
Ġb p
Ġb light
Ġm int
Ġf red
Ġf ences
Ġf ateful
Ġf bi
Ġan ecd
Ġh ers
Ġh ats
Ġd as
Ġd iana
Ġd dt
ro it
Ġn an
Ġn af
Ġn umer
Ġre hear
as er
ve t
st rict
il a
Ġg ad
Ġg os
Ġg room
Ġl id
Ġl loy
Ġl anes
Ġl ords
Ġu l
se ts
ment ation
Ġst ing
Ġst aged
Ġha iled
ri e
Ġnot icing
res ist
ay ev
ill o
gh i
ir respective
Ġun sp
Ġun paralle
Ġeuro c
op in
op us
Ġse l
li p
Ġv oid
un ks
est im
Ġle mon
Ġle aks
Ġch ase
Ġch uck
Ġch eney
âĢ ¢
Ġall ay
Ġso ils
Ġli king
Ġimp lements
Ġimp ediment
Ġj ol
Ġj Ã¶
Ġhe ath
Ġhe els
Ġthere of
Ġk l
Ġk re
ig ent
Ġrep rog
Ġad jac
Ġpe res
Ġfa res
Ġri fe
du ous
Ġup stream
Ġprop he
ens uring
Ġar duous
Ġmar vell
ok o
pt ure
Ġbet ray
Ġjust ifications
ine e
Ġspe lled
Ġspe lls
Ġdem arc
Ġsp ills
Ġper nic
Ġind us
Ġbo oth
und oubtedly
Ġover seeing
Ġro the
Ġbas ing
Ġgen oa
Ġho od
Ġwell s
Ġmon ol
Ġnu anced
Ġla und
ile aks
Ġass erting
Ġher bal
Ġprocess ors
Ġbu gs
cip linary
Ġcompet encies
Ġdown right
Ġdown stream
Ġca f
Ġca usal
Ġmod ifying
Ġfra ga
be y
Ġprin ts
Ġdep ress
Ġdep icted
Ġdep orted
Ġap ol
Ġear ns
Ġta pping
Ġrest raints
Ġcor als
Ġvi i
Ġseem ing
Ġstep hen
Ġpract icable
Ġeas ter
Ġpur ple
Ġdist ressed
Ġsw ings
Ġstart ling
Ġtri pol
Ġret ali
Ġsumm ers
Ġcolle g
where ver
Ġcomb inations
Ġoper ative
Ġchar ities
Ġessential s
Ġz ip
Ġ10 5
Ġ6 50
Ġ201 8
Ġer ratic
Ġpot oÄį
Ġgener ously
Ġeast ward
Ġdraw backs
Ġbra ke
Ġpa ving
Ġjud icious
Ġinnov ators
Ġsk irt
Ġprep ares
Ġec st
Ġlink age
Ġlink ohr
Ġbel ly
Ġrepe aled
Ġaut ism
Ġbri bery
Ġteach ings
Ġclass ify
Ġ30 8
Ġlearn s
Ġimag inary
Ġcod ification
can ada
Ġfront al
aff ected
Ġdeg ener
Ġneighbour ly
Ġoccur rences
Ġmig uÃ©
Ġcell ular
Ġmut ations
Ġchair ing
Ġsad c
Ġexplo sions
Ġauthor isations
Ġcover t
Ġrepl aces
Ġhar iri
Ġship w
Ġprovision ally
Ġpush es
Ġsep a
urd y
Ġwealth ier
Ġtun g
Ġtun ed
Ġfraud sters
Ã¡ r
Ġdon ate
Ġoct opus
Ġcard board
Ġwid est
Ġhom ogeneous
br ush
Ġbon temp
Ġfire works
ta iwan
Ġcondition ed
Ġhur ting
Ġcub e
Ġ197 2
Ġsqu ab
Ġfaith s
Ġproc lamation
Ġfort night
Ġmag ist
Ġmag ician
pro per
pro of
Ġos ama
Ġep a
Ġtrack ed
Ġcheap est
ba o
Ġsympath ise
Ġpred ator
Ġluck ily
Ġintens ifying
Ġequival ence
Ġanaly zed
Ġvac ant
Ġtrip led
commun ist
Ġmicro bes
Ġaspir ing
Ġnarrow ly
Ġdisplay ing
Ġshut ting
Ġgun shot
sight ed
Ġacquis itions
Ġresort ed
Ġdiver ge
Ġfrust rations
Ġchamp agne
Ġsn ake
Ġsn akes
Ġmanifest o
Ġconve ying
Ġrot ate
su per
Ġreloc ating
Ġsale h
Ġbold ly
Ġreaff irms
Ġaccommod ating
Ġseason s
Ġpromin ently
Ġcompli ant
col m
col lect
Ġpit iful
Ġhesit ated
Ġreaffirm ing
inter rupt
Ġjail ed
Ġbid ding
Ġster il
Ġinject ions
Ġrw andan
Ġtheore tically
Ġmart ÃŃ
Ġalien ation
Ġexhib it
Ġstalin ism
Ġluc id
Ġfol k
Ġinflic t
Ġdeval uations
Ġsant os
Ġanalog ous
Ġcrush ing
soon er
Ġprec lude
list en
Ġhorrif ied
Ġhorrif ying
Ġbee keepers
Ġhill ary
Ġcyn ically
Ġfib res
Ġastr onaut
Ġwolf owitz
exper ts
Ġclust ers
Ġcurtail ed
Ġcurtail ing
Ġinsurg ents
Ġcoach es
Ġinterl inked
Ġhumili ated
Ġportra yed
Ġstub b
Ġstrand s
Ġski ing
Ġpengu in
Ġee a
Ġpenet rate
Ġspark ed
Ġreson ance
Ġquad ras
Ġalgor ithm
Ġeditor ial
ref erence
indust ry
Ġproph et
bers pace
Ġschizophren ic
Ġcoerc ive
Ġmultif unctional
Ġconfisc ated
Ġadmis sibility
Ġalph a
Ġheral d
bir th
Ġmant ra
Ġrevel ations
Äĥ u
Ġxia obo
isse z
Ġintrig uing
Ġculprit s
Ġbegg ar
Ġmaat en
Ġdesc ended
Ġdisappro val
Ġmim ic
Ġtransc ends
consid ering
Ġtox ins
Ġcharism atic
Ġump teenth
Ġace h
Ġya wn
Ġuncomp rom
Ġgel at
Ġunsu itable
Ġaltru ism
Ġplag ued
Ġprist ina
Ġbuc ket
Ġlifes pan
Ġdistill ation
Ġpige on
ĠpÃ© rez
Ġheb rew
Ġoutra ged
Ġconsort ium
Ġtyph oon
igl ione
approx imately
attemp ts
Ġpund its
Ġrighte ous
Ġsucc inct
examp les
Ġunbund ling
Ġdiarrhe a
fis cal
tok yo
Ġeuth anasia
Ġjeg gle
indones ia
Ġaeg is
Ġunparalle led
ĠjÃ¶ ns
Ġadjac ent
ĠpotoÄį nik
ĠmiguÃ© lez
Ġbontemp i
9 2
a ves
b ler
c p
c ke
d av
d rug
f s
g ant
h le
k ay
k os
k ers
m ic
m om
m ountable
n ice
o en
r ud
r ank
v ict
w ent
Å ĳ
Ġt ending
Ġa pport
in tegration
Ġw art
Ġw right
Ġw retched
Ġs r
Ġs no
en so
Ġc em
Ġo u
Ġo un
Ġp upp
Ġp Ã¶t
Ġb av
Ġb amb
Ġb ounce
Ġm es
Ġm alf
Ġm ullah
Ġf ame
Ġf ade
ion age
al as
al ina
al ba
Ġan ew
Ġh ens
Ġh inges
Ġd m
Ġd oses
ar ray
Ġe y
Ġand or
th ought
Ġre appe
Ġg ab
Ġg em
Ġg Ã¶
Ġg Ã¼
Ġwh ip
Ġwe ep
Ġcon not
ol umines
Ġal ibi
ke ting
Ġne ural
Ġme mb
Ġun do
Ġun ify
ad z
ad ic
ter dam
ge l
os ki
ant opoulou
ere y
Ġdo ve
un cture
ci ously
qu et
Ġle opard
mb led
mb rance
Ġch ast
et tered
Ġpres umed
Ġr ationally
Ġso b
us z
od ies
Ġli ech
Ġj r
Ġj ill
Ġj aw
Ġab usive
end um
Ġk ou
Ġint imately
out side
Ġam eli
Ġus able
Ġrep ar
mber g
Ġac cessions
Ġfa it
one lla
si xty
Ġtr illions
Ġdis array
em ission
now here
ag all
Ġsa xon
Ġnew est
me ier
Ġpos itives
Ġar row
Ġmar co
he ld
Ġra ces
Ġdec la
Ġspe culate
Ġunder lies
Ġunder development
Ġtra inees
Ġsp ouse
Ġway side
Ġrec laim
ace ted
Ġover turn
Ġover load
Ġover turned
Ġlo ver
Ġlo oms
Ġlo fty
Ġro d
Ġro ses
Ġro sy
Ġcl an
ks w
row ing
Ġtwo fold
Ġhum our
Ġbas har
Ġbas hir
Ġlong ing
Ġconf ers
cept ions
Ġdisc lose
lud ge
ass uming
Ġla wn
Ġquestion er
art oum
Ġdevelopment al
Ġhapp iest
Ġcar rots
Ġbu cks
wor n
other mal
ina i
Ġbus k
Ġprin cess
Ġregion ally
Ġcond one
Ġval ent
Ġimm ort
par ad
Ġmil o
Ġtax ing
ys ical
Ġdist raction
Ġpop s
Ġpop ulous
Ġsing h
Ġsw ap
Ġtri ang
pri or
Ġbar red
Ġair ways
Ġvis ually
Ġpass ages
Ġgre ening
Ġpen ns
Ġyoung sters
Ġadminist rators
Ġty res
Ġcapital ists
Ġdesign ations
az i
Ġhear s
Ġwa h
Ġharm ed
Ġge othermal
some how
Ġpric ed
Ġfocus sed
ims y
Ġant on
Ġant ib
Ġbook store
omet own
Ġec ol
Ġsubsid ize
Ġdev otion
Ġdev otes
Ġport o
Ġred es
Ġsort ing
Ġbi omed
Ġbi ologically
Ġbi olumines
Ġden ouncing
Ġassoci ates
Ġemb ro
Ġstory telling
Ġconsult ants
ior i
Ġdim it
Ġcandid ature
Ġimag inative
Ġworth less
Ġsal ad
Ġislam abad
Ġdece it
Ġvir rank
Ġmand ated
Ġmal awi
Ġpain fully
Ġbul lying
Ġbul garians
pre viously
pre vent
pre vention
Ġkosov ars
Ġperfect ion
Ġ18 00
Ã© r
Ġcomment ary
Ġfoot age
Ġfoot wear
Ġsil vio
Ġstra uss
Ġphys icians
Ġcr ank
Ġcombat ants
Ġunf ettered
ij s
Ġrob les
Ġcard iac
Ġbom bed
Ġwo es
Ġheads car
Ġrid ge
Ġren ovation
Ġinev it
Ġang uish
Ġpul se
Ġfat ty
Ġsearch es
Ġproud ly
Ġombuds men
Ġrational ise
Ġcollabor ators
Ġmos cov
Ġpersu asive
Ġarm strong
Ġsympath ies
Ġendeav or
tr ust
thes ia
gu arant
Ġsim on
Ġconfront ations
Ġdetect ing
Ġphotograph y
Ġcas ini
Ġirre voc
Ġunpre pared
Ġwild ly
Ġkar ab
Ġmodest y
Ġanticip ating
Ġsand s
Ã¤ r
Ã¤ ki
Ġmanifest ed
Ġprescri ptive
Ġnord en
Ġrot terdam
Ġkh artoum
Ġsubs erv
Ġirrespon sibility
Ġlabel ed
Ġtrick ed
Ġaccum ulating
Ġridic ule
Ġutil ise
person al
Ġtear ing
Ġsunday s
bul garia
Ġcosm ic
Ġreme mbrance
Ġdestabil ising
Ġmyth ology
Ġmcc artney
Ġsomal i
Ġble eding
Ġfold ed
Ġrelax ing
Ġneighborhood s
Ġfro st
Ġstret ching
Ġaffirm ation
Ġharvest ing
Ġtill ich
Ġpump ing
Ġpin point
Ġpool ing
Ġallev iating
Ġbloc s
Ġexagger ate
Ġsighted ness
Ġkiss ed
Ġemph atic
list ening
cor ruption
polit ics
Ġdwell ers
Ġreimb ursed
Ġef sa
ĠrÃ¼ hle
Ġdecoup led
Ġlaure ates
Ġaller gic
Ġcircu its
Ġteles copes
Ġkla ÃŁ
specif ic
Ġmild ly
Ġeman ating
Ġesp ionage
Ġpolite ly
Ġastronom y
Ġbutt ons
Ġpenet ration
Ġinsure rs
Ġswallow ed
Ġmiscon ception
Ġpredic ament
Ġgif ted
Ġther m
Ġneat ly
imm igration
Ġconting ent
ji ang
Ġartic ulated
Ġpsychiat ry
bring ing
Ġfu ji
Ġpronounce ments
Ġchromos omes
Ġww w
Ġmultif aceted
Ġalas ka
Ġdisconnect ed
Ġbron ze
Ġtheor ists
Ġdisgust ing
sit uation
coordin ated
Ġwarri or
Ġcron ies
Ġcoven ant
Ġvalen cia
Ġretal iation
Ġjewel ry
Ġguerr illas
adop ting
achie ving
Ġbil bao
Ġnostal gia
Ġunve iled
oise ach
Ġhamb urg
Ġsubmar ine
Ġcance led
independ ent
Ġundis put
Ġredefin ing
Ġabnorm al
traff icking
Ġmathematic ian
blo od
Ġbib lical
Ġdisbur sement
Ġartif acts
Ġencyclop edia
Ġreprocess ing
Ġpalli ative
Ġindiv isible
Ġzed ong
Ġinadvert ently
Ġfrankfur t
Ġbm w
Ġreor ient
Ġambul ance
Ġmacc ormick
Ġintertw ined
Ġnaf o
ĠmartÃŃ nez
dav id
oen ix
Ġwart ime
enso hn
ĠpÃ¶t tering
Ġliech tenstein
Ġpenns ylvania
Ġvirrank oski
Ġmoscov ici
8 9
b able
b eration
b ird
c f
c ost
c ases
f oc
f ishing
g rown
i ment
i ks
i ors
k man
l as
l os
m ond
m ah
m onella
o let
r h
r ue
s ignificant
t ms
t welve
u ates
u ary
z k
Ä Ĺ
Ġ Ã©
Ġt es
Ġt ires
Ġa we
Ġa erial
in ternal
Ġw ig
Ġw ires
en stedt
Ġc ages
Ġo y
it ates
Ġp or
Ġb out
Ġb ish
Ġb red
Ġb jer
Ġm ri
Ġto e
Ġf uck
Ġf Ã¼
Ġf oul
Ġf lick
Ġin active
Ġh os
Ġh ikes
Ġd ou
Ġd ru
Ġd ash
ar ium
ar gu
ro ck
Ġand rew
le m
th and
Ġre ne
Ġre ins
Ġre aring
as ingly
Ġbe f
Ġbe acon
st ates
il ated
il ton
Ġg uts
Ġg omes
Ġi q
Ġl ur
Ġl ance
Ġl ined
Ġl ends
Ġl Ã¤n
se us
se ven
ur ning
Ġcom ics
Ġst am
Ġst ren
Ġst ag
Ġha unted
Ġy ass
ul atory
gh etti
Ġne oc
Ġun ison
Ġun seen
Ġun interrupt
Ġsu e
Ġsu g
Ġeuro group
ad el
pp enstedt
Ġse ren
os ph
li ble
li able
Ġpar an
Ġpar ap
Ġv enge
Ġv owed
Ġat lant
so ld
Ġwor ms
Ġch ave
et e
et al
ist a
am mar
Ġso y
Ġcan opy
Ġres ale
Ġthere in
Ġk iv
Ġint ake
Ġam use
Ġad ri
ue ire
ans k
Ġpe aked
ab s
Ġfa una
Ġ1 000
lo v
Ġdis b
Ġdis soci
ap ol
em u
Ġri be
Ġri gged
Ġcomp iling
Ġinc ub
de b
Ġman ners
Ġimport er
Ġpre ts
ens ical
Ġar dent
Ġmar ines
ach es
ide ally
Ġsp ut
Ġsp inal
Ġdevelop ers
Ġbo lder
Ġinv ade
Ġinv asive
Ġter restrial
int osh
Ġsy l
Ġcl ut
Ġcl amp
Ġstr angle
ween ey
mm ed
Ġdeb acle
Ġho over
Ġho ppenstedt
Ġpri zes
Ġdisc reet
Ġmon soon
Ġref ere
Ġref ute
Ġext ensions
Ġla issez
Ġdef enses
Ġreal ises
Ġass uring
Ġsc rup
Ġprocess or
Ġwar ring
ribut ion
Ġlit re
Ġrespect fully
ather ine
Ġem as
Ġph oenix
Ġph osph
Ġrest ing
Ġrest ate
Ġless en
Ġcontro llers
Ġes a
Ġed it
Ġpract iced
Ġspecif ics
Ġsupp er
sw ana
Ġshort cut
Ġsuff rage
Ġaccount ants
Ġeng ulf
mpt on
Ġbor is
Ġprof lig
Ġmor als
Ġvis itor
Ġenc ry
ordin ary
Ġpass ively
Ġloc om
ck o
Ġchar coal
Ġmis ses
Ġbur ial
co res
Ġfarm land
Ġadopt ions
Ġgra Ã§a
Ġdoub ted
Ġrom ans
Ġune lected
Ġvict orious
just ice
Ġten acity
Ġbroad est
Ġorigin ates
cri be
Ġfig ueire
Ġdev iate
Ġdecided ly
Ġfl ock
Ġmen ace
Ġcy berspace
Ġfear ing
Ġgl oss
Ġvol ksw
Ġemb ody
Ġkill ers
inst on
Ġindustrial ization
Ġcircum s
Ġcollect ions
Ġsal monella
Ġrecon nect
Ġ11 2
Ġ11 9
Ġmer cil
Ġmer ging
Ġcampaign ed
Ġcounter ing
sh all
Ġmal colm
Ġperform ers
know ledge
Ġbrief ing
Ġcou ch
Ġsl ot
lin der
Ġult ras
Ġwind ing
Ġsurv ives
ex port
Ġprospect us
Ġcra p
Ġpra ising
Ġaccomp li
des ign
sy stem
Ġcontra ception
Ġdeliver ies
Ġuns pe
Ġtro jan
Ġgrand ma
Ġsymbol ism
Ġimplic ated
Ġquant ify
umer able
Ġinspect orate
rich ard
Ġenjoy able
Ġsurve yed
Ġpsych ologist
Ġpsych ologically
Ġmac ao
Ġczech s
Ġreb ound
Ġjudge ments
Ġprohib itive
Ġvan ity
ox ically
Ġpatent ability
Ġ196 2
Ġsharp en
Ġod ious
Ġblind ness
Ġinfring ing
asm uch
Ġpred atory
Ġsick ness
Ġinsuff iciently
gu y
Ġvac ancies
imp ortant
Ġic onic
bel arus
Ġshi ite
Ġabsor bing
Ġmurder ing
Ġroll er
Ġfab ra
Ġconfron ts
Ġveget arian
Ġsn aps
Ġvoc al
Ġgrave ly
Ġskin ner
Ġfortun es
Ġfool s
Ġ194 9
Ġcook ies
Ġsuic idal
Ġwarrant ed
Ġhu h
Ġcrash ing
tra ck
Ġjer sey
Ġinstruct ed
Ġaccommod ated
Ġutil ization
Ġoverlook s
Ġband w
sm oking
Ġpit falls
rats a
Ġdestabil ise
Ġpossess ed
Ġath lete
Ġdiam and
Ġdiam antopoulou
Ġjail s
Ġmyster ies
Ġtrigg ers
Ġdistinguish es
Ġinconsist ency
Ġmu ham
Ġscan ner
Ġdilemm as
Ġpeak s
Ġtempt ations
Ġpuzz led
Ġencoun tering
aust ria
Ġtag ging
Ġyemen i
Ġstalin ist
Ġlobb ies
Ġduplic ated
Ġcrack ed
Ġniger ians
Ġpatri otic
Ġunexpected ly
Ġaver aged
Ġbarbar ism
Ġcontrovers ies
Ġkiss inger
Ġgor ge
Ġimped ed
Ġimped ing
Ġoffset ting
Ġchampions hips
Ġantibi otic
Ġnas cent
Ġkeys er
Ġneglig ent
protect ing
Ġamp ly
Ġoverr ide
Ġsubordin ation
Ġdiscoura ges
Ġfru ition
Ġgol an
elect ric
Ġindefin ite
Ġrend ition
Ġload s
afric an
Ġinadequ ately
Ġauction ing
Ġspa ghetti
Ġmd g
Ġwhis ky
Ġhandic aps
Ġhandic apped
Ġlan cker
Ġmarx ist
Ġadvertise ment
Ġeuph em
Ġouter most
Ġrescu ing
Ġathe ists
Ġeuroscept ic
Ġchanne lling
Ġram ifications
Ġperse vere
sur prisingly
Ġgros ch
Ġanno yed
Ġsham eless
Ġantagon ism
Ġtat too
reach ing
Ġcree ping
Ġamid st
Ġhelm ut
Ġcoward ly
Ġkel ly
Ġtitan ic
Ġandre as
Ġunin hab
Ġxia oping
Ġcater ing
Ġunimp ortant
Ġpac kets
Ġnam ibia
Ġnucle us
Ġfalcon er
miss ive
Ġrainforest s
Ġinterlocut ors
Ġwand ering
Ġwithhold ing
Ġambival ence
Ġunhe ard
Ġvall Ã©s
Ġhalluc inations
palestin ian
Ġovershadow ed
Ġskil ful
gir l
Ġib m
Ġcanv as
Ġneuros cience
Ġpip es
Ġbip olar
bud get
Ġincoh erent
Ġprotagon ists
prop os
orig in
Ġparach ute
Ġva unted
Ġmedioc re
Ġscaffold ing
Ġyuk os
Ġney ra
Ġabhor rent
Ġspani ards
lab our
Ġomn ip
ĠmÃ¼ ller
Ġrans om
Ġabatto irs
Ġsurrend ered
Ġantiqu ated
Ġgrocer y
Ġemancip ation
Ġbren ner
Ġmete or
immedi ately
Ġcathed ral
Ġaar hus
Ġjou yet
Ġtripol i
Ġuncomprom ising
Ġdecla res
parad oxically
Ġkarab akh
Ġundisput ed
ĠfÃ¼ le
Ġuninterrupt ed
Ġchave z
Ġribe iro
Ġfigueire do
a j
c ents
d b
d d
f il
f ound
f ler
j u
k j
k Ã¡
k illed
l ag
l abor
m ut
n om
n ig
o os
p ot
p age
v od
v ine
v ably
w arm
Ã ²
Ġt us
Ġt ect
Ġt ying
Ġt iles
in ants
re forms
at ma
Ġw iz
Ġw are
Ġw ink
is i
Ġs inai
en i
en ough
Ġc us
Ġc lic
Ġo z
it ist
Ġp est
Ġp urity
Ġp iss
an al
Ġb Ã©
Ġb aked
Ġb ilaterally
or no
Ġm ould
Ġm alth
Ġm be
Ġf ans
Ġf use
Ġf da
Ġf Ã¤r
Ġan ast
Ġan war
ed o
Ġh iz
Ġh ometown
Ġd iz
Ġd ag
Ġd anced
Ġd itch
Ġd Ã¶r
ro ve
ic ine
Ġe mm
Ġe yed
Ġand alus
Ġbe ts
Ġbe fall
Ġg cc
Ġwh ipped
Ġfor k
Ġfor ger
id ious
ur ge
Ġha il
Ġy ale
Ġde er
Ġde an
ch t
ch ief
Ġne il
Ġun born
Ġsu ed
ter min
Ġsh ep
Ġse y
li a
Ġv and
un ivers
ain ed
est ag
ich er
Ġle ase
Ġwor ris
Ġch an
Ġj ia
end a
Ġk ins
Ġk ratsa
Ġus ur
Ġrep ris
um ns
Ġmust ard
ans as
Ġac re
oc ity
oc ated
ish es
vel ength
Ġpl oo
Ġpl umber
Ġdis per
Ġout p
Ġout cry
Ġri is
for get
Ġcomp ute
Ġinc l
Ġtim ed
Ġup right
de ath
Ġimport ation
Ġco zy
tern ess
ens son
Ġmar c
lic es
ok s
Ġbet ting
Ġdec reed
Ġunder lie
Ġper ple
Ġdiff ered
Ġdiff usion
Ġbo og
Ġbo eing
Ġover bur
Ġover time
Ġlo oting
Ġoff ense
act iv
ath ir
mm ing
Ġacc laim
Ġhuman ist
Ġref oc
Ġref rained
Ġext rater
min ster
Ġcur bing
Ġdef use
Ġsol o
Ġsol vent
Ġreal izes
Ġatt or
Ġass y
Ġher ds
Ġsc attered
Ġpow ell
Ġinter cept
Ġinter section
Ġhope lessness
Ġorder ing
Ġach illes
Ġglo om
Ġmed iate
Ġform ations
Ġdown fall
Ġpresent ations
Ġca us
Ġfore ns
Ġlit mus
Ġpower fully
Ġplay ground
Ġhand outs
Ġprincip led
Ġest rela
Ġem it
Ġem ir
Ġem ulate
ater ial
Ġchild ish
Ġcor nel
Ġcor related
Ġcor bey
Ġins ider
Ġcomple ments
Ġjob less
Ġben z
Ġlegal ization
Ġrese t
Ġel itist
Ġfavour ite
Ġsubject ive
Ġshort en
Ġtri f
Ġim itate
Ġhard working
Ġger ms
Ġpat ro
ib a
Ġmor gant
Ġann oy
ime ters
Ġspecific ity
Ġchar itable
Ġwater ing
Ġwater tight
Ġz en
Ġche e
ber ries
Ġpen ny
Ġty rant
Ġer ase
Ġer tms
Ġshare holder
Ġgra pe
Ġgra ham
Ġwa x
Ġwa velength
Ġbook sh
Ġsk ip
Ġdest inations
Ġsix teenth
Ġconnect ivity
Ġmess enger
Ġcamp ania
Ġfl ora
Ġfl imsy
Ġcy linder
vere st
Ġcross ings
sp ending
Ġbit terness
Ġsound ness
ev al
Ġsan ity
Ġpress ur
Ġclass ed
Ġens la
Ġexam inations
Ġ12 8
Ġslow s
Ġsal ient
dom estic
Ġnote worthy
Ġ11 1
Ġdece ased
Ġheart ily
Ġquot ation
Ġpurpose ful
Ġwatch es
Ġbul bs
Ġkosov ar
Ġste wart
iss l
iss ues
Ġign alina
Ġsad dened
Ġqual ifying
Ġbod e
Ġsil enced
Ġround ly
Ġappear ances
ex plan
Ġbat tling
Ġlu ther
Ġsuperv ised
Ġ13 8
Ġheav ens
Ġintervention ist
Ġsimplif ies
Ġpact s
Ġaccomp lices
Ġnormal isation
Ġdetermin ant
Ġbot swana
Ġdon nel
Ġcontact ed
Ġber th
Ġtransform ative
Ġintention al
Ġcontra vention
Ġuns killed
Ġfire men
Ġstake holder
bit ant
Ġut tered
pret ation
Ġeye b
sk aya
Ġsqu id
Ġshar per
Ġweight s
Ġball istic
Ġmexic ans
Ġswe ar
Ġcontrast s
Ġtough est
Ġsexual ity
Ġmath ieu
amb ia
Ġwat ts
sub sequently
Ġsymp h
Ġspl its
Ġmobil izing
Ġexceed ingly
Ġmort al
Ġideal istic
Ġmultip licity
Ġsim ulate
Ġapprox imate
Ġcapt ive
Ġkn it
Ġpersist ently
Ġquarter ly
Ġdecre ases
Ġannounce ments
Ġfost ers
Ġinterpre ter
Ġcommand ers
bb led
Ġunp roductive
Ġdiss ervice
Ġnarrow er
Ġmit ter
Ġpharm ac
Ġgh ent
Ġlands l
Ġdistingu ishing
Ġnovel ty
Ġprivat ised
Ġorient ations
Ġkh at
Ġfur thest
Ġhall mark
Ġreloc ated
Ġsequ encing
Ġcere mon
Ġreluct antly
Ġreun ited
Ġpraise worthy
Ġescal ate
Ġbond holders
Ġstric ken
Ġrum or
pa ul
Ġsli pping
Ġweigh s
Ġbench marking
hard ly
Ġbiotechn ological
Ġpand em
Ġrap kay
Ġinject ed
cot t
Ġmah athir
Ġmart ial
Ġrigid ity
Ġpump s
Ġpuzz ling
Ġdil ute
Ġdesk top
Ġsummar ised
Ġmetaph ors
Ġacadem ia
Ġmichel in
invest ing
Ġmont erey
Ġdeput ies
Ġcompris ed
Ġdeval ue
Ġextrad ite
lers undi
Ġmarry ing
Ġmedi ators
Ġshed ding
kov skaya
Ġpir ate
Ġreck on
Ãº l
thal ates
Ġrab in
Ġelev ator
Ġvibr ating
Ġasymmet ry
Ġwil son
Ġmol uc
Ġven us
Ġsemin al
Ġalt itude
protect ed
Ġhaw ks
Ġoverr un
research ers
Ġscra pped
ser ious
Ġcycl one
Ġuncontro llable
Ġbrush ed
Ġunc over
Ġbund estag
const ruction
Ġcurric ula
Ġrank ed
Ġunders cores
Ġfee ble
bat i
Ġwik ileaks
Ġsemit ic
Ġbutt iglione
Ġbasket ball
agric ultural
Ġrecru iting
hor st
Ġfemin ist
Ġenerget ically
Ġcun ning
Ġtran qu
Ġmerch and
Ġimpul ses
uit ous
liberal isation
mass ive
Ġincar n
Ġsubur bs
Ġculmin ated
Ġseam en
Ġbron x
coun ter
Ġjon athan
Ġoutlaw ed
Ġchron ically
Ġexpedi ent
Ġbegg ars
Ġexter mination
Ġeloqu ently
Ġheter ogeneous
Ġdispers ed
Ġphilanthrop y
Ġmour ning
Ġunset tled
Ġprioritiz e
Ġfernand es
Ġvalle lersundi
Ġplank ton
Ġbrook lyn
Ġkac zy
Ġissu ance
Ġaccred itation
Ġmetic ulous
Ġhydrocarbon s
Ġalber tini
Ġcasp ian
Ġapprent ices
Ġfores ight
Ġcrus ade
Ġhem icycle
Ġwoe fully
Ġexor bitant
Ġslipp ery
Ġld cs
Ġdegen erate
Ġbever ages
Ġpalp able
journal ists
Ġseism ic
Ġchau vin
proble ms
hung ary
Ġlloy d
Ġkre issl
Ġmarvell ous
Ġpernic ious
Ġshipw reck
Ġecol abel
Ġbjer reg
ĠlÃ¤n der
Ġvolksw agen
Ġmercil ess
Ġultras ound
nig eria
Ġmalth us
Ġmbe ki
ĠfÃ¤r m
ĠdÃ¶r fler
Ġshep her
Ġworris ome
Ġploo ij
Ġmorgant ini
Ġdonnel ly
0 1
3 9
5 5
b f
b od
b ilateral
c at
d c
d ata
e ment
e lection
f ut
g ren
g ents
h ang
i pe
j ane
j ell
k ids
m ont
m obil
n an
o pportun
p ros
r hus
s ign
t z
t otal
t atoeba
u its
v ist
v ailing
w ool
w ars
y ch
y la
z i
z ler
z ona
Ã ¢
Ġ Ã¡l
Ġt ul
Ġt ind
Ġa verse
in as
in jiang
on en
at eness
Ġw rought
Ġw aking
Ġw icked
is ans
Ġs g
Ġs inn
Ġs worn
en et
Ġc el
Ġc uc
Ġc erc
Ġc nn
Ġo mit
it utions
it isation
Ġp ious
Ġp av
Ġp ix
Ġp iling
Ġp kk
Ġb ending
Ġm are
Ġto wel
Ġf as
ou ros
Ġin und
Ġin activity
Ġin asmuch
al ism
Ġh id
Ġh ern
Ġh atch
Ġh ann
Ġh Ã¶
ro cious
Ġn y
Ġn ul
Ġn omen
as is
om it
Ġbe w
Ġbe an
Ġbe am
Ġbe ard
st age
st arting
Ġg ians
ct ar
Ġl g
Ġu f
Ġon erous
ut a
ut re
ot on
ot ers
id i
ur ous
Ġst ap
Ġst ack
Ġst even
ce ived
Ġal s
Ġde lude
ra ising
ri ous
ort ex
ul ing
Ġeu for
Ġne ves
Ġne ctar
Ġme c
Ġun v
Ġun work
Ġun lock
Ġun author
Ġun common
Ġun natural
Ġun protected
ge oning
op ed
Ġsh ack
and i
est an
Ġat rocious
Ġen velop
Ġle yla
ist ication
Ġag ro
Ġag ony
Ġj ub
Ġj int
Ġhe mp
Ġhe aled
Ġres iding
Ġres hape
Ġab m
Ġpol o
Ġpol ity
Ġk ol
Ġam ino
Ġam icable
Ġpresid e
Ġpresid ed
ig rants
Ġrep airs
Ġpe p
oc u
Ġneed lessly
Ġtr um
Ġpl as
Ġpl ato
ren ts
lo g
Ġdis k
Ġdis regarding
Ġout l
Ġcomp ile
ag ar
Ġexp ans
Ġexp ire
Ġco er
Ġco ke
Ġcons erving
Ġte ens
Ġnew cast
Ġpos ses
Ġar thur
el se
og g
Ġsp oon
Ġper tains
ub on
Ġbo el
Ġinv ading
Ġover head
Ġover loaded
Ġover crow
Ġlo be
Ġro ws
Ġcl inging
Ġoff end
Ġprog ression
Ġgreat ness
Ġmo h
Ġmo ist
Ġacc rue
Ġbas s
ris k
Ġgen omes
Ġhuman ities
Ġhuman ism
Ġdirect ory
Ġfinan ciers
Ġnu mbered
Ġadd ict
Ġdef iance
rough ly
Ġent rants
Ġ19 14
Ġtur in
Ġcol umns
Ġhel met
Ġher d
Ġcar ter
Ġsc ars
Ġsc iss
Ġenv ision
Ġwar lords
Ġdra ghi
Ġglo ves
Ġday light
Ġaff ili
Ġmaj esty
Ġinf ra
Ġinf ilt
Ġmod al
Ġafter ward
Ġfra ming
Ġsch wa
Ġgr inding
Ġlegisl ations
Ġelect ing
Ġcond om
Ġchild birth
Ġph thalates
Ġwel sh
Ġear ners
ov o
Ġta oiseach
Ġfr inge
Ġrest ed
Ġrest rained
Ġcor k
Ġequ ates
Ġcontro ller
com plete
Ġread er
Ġconv ol
av i
Ġpract ising
Ġel bow
Ġcare rs
[...]
