{
  "<pad>": 0,
  "<s>": 1,
  "</s>": 2,
  "<unk>": 3,
  "<mask>": 4,
  "!": 5,
  "\"": 6,
  "#": 7,
  "$": 8,
  "%": 9,
  "&": 10,
  "'": 11,
  "(": 12,
  ")": 13,
  "*": 14,
  "+": 15,
  ",": 16,
  "-": 17,
  ".": 18,
  "/": 19,
  "0": 20,
  "1": 21,
  "2": 22,
  "3": 23,
  "4": 24,
  "5": 25,
  "6": 26,
  "7": 27,
  "8": 28,
  "9": 29,
  ":": 30,
  ";": 31,
  "<": 32,
  "=": 33,
  ">": 34,
  "?": 35,
  "@": 36,
  "A": 37,
  "B": 38,
  "C": 39,
  "D": 40,
  "E": 41,
  "F": 42,
  "G": 43,
  "H": 44,
  "I": 45,
  "J": 46,
  "K": 47,
  "L": 48,
  "M": 49,
  "N": 50,
  "O": 51,
  "P": 52,
  "Q": 53,
  "R": 54,
  "S": 55,
  "T": 56,
  "U": 57,
  "V": 58,
  "W": 59,
  "X": 60,
  "Y": 61,
  "Z": 62,
  "[": 63,
  "\\": 64,
  "]": 65,
  "^": 66,
  "_": 67,
  "`": 68,
  "a": 69,
  "b": 70,
  "c": 71,
  "d": 72,
  "e": 73,
  "f": 74,
  "g": 75,
  "h": 76,
  "i": 77,
  "j": 78,
  "k": 79,
  "l": 80,
  "m": 81,
  "n": 82,
  "o": 83,
  "p": 84,
  "q": 85,
  "r": 86,
  "s": 87,
  "t": 88,
  "u": 89,
  "v": 90,
  "w": 91,
  "x": 92,
  "y": 93,
  "z": 94,
  "{": 95,
  "|": 96,
  "}": 97,
  "~": 98,
  "¡": 99,
  "¢": 100,
  "£": 101,
  "¤": 102,
  "¥": 103,
  "¦": 104,
  "§": 105,
  "¨": 106,
  "©": 107,
  "ª": 108,
  "«": 109,
  "¬": 110,
  "®": 111,
  "¯": 112,
  "°": 113,
  "±": 114,
  "²": 115,
  "³": 116,
  "´": 117,
  "µ": 118,
  "¶": 119,
  "·": 120,
  "¸": 121,
  "¹": 122,
  "º": 123,
  "»": 124,
  "¼": 125,
  "½": 126,
  "¾": 127,
  "¿": 128,
  "À": 129,
  "Á": 130,
  "Â": 131,
  "Ã": 132,
  "Ä": 133,
  "Å": 134,
  "Æ": 135,
  "Ç": 136,
  "È": 137,
  "É": 138,
  "Ê": 139,
  "Ë": 140,
  "Ì": 141,
  "Í": 142,
  "Î": 143,
  "Ï": 144,
  "Ð": 145,
  "Ñ": 146,
  "Ò": 147,
  "Ó": 148,
  "Ô": 149,
  "Õ": 150,
  "Ö": 151,
  "×": 152,
  "Ø": 153,
  "Ù": 154,
  "Ú": 155,
  "Û": 156,
  "Ü": 157,
  "Ý": 158,
  "Þ": 159,
  "ß": 160,
  "à": 161,
  "á": 162,
  "â": 163,
  "ã": 164,
  "ä": 165,
  "å": 166,
  "æ": 167,
  "ç": 168,
  "è": 169,
  "é": 170,
  "ê": 171,
  "ë": 172,
  "ì": 173,
  "í": 174,
  "î": 175,
  "ï": 176,
  "ð": 177,
  "ñ": 178,
  "ò": 179,
  "ó": 180,
  "ô": 181,
  "õ": 182,
  "ö": 183,
  "÷": 184,
  "ø": 185,
  "ù": 186,
  "ú": 187,
  "û": 188,
  "ü": 189,
  "ý": 190,
  "þ": 191,
  "ÿ": 192,
  "Ā": 193,
  "ā": 194,
  "Ă": 195,
  "ă": 196,
  "Ą": 197,
  "ą": 198,
  "Ć": 199,
  "ć": 200,
  "Ĉ": 201,
  "ĉ": 202,
  "Ċ": 203,
  "ċ": 204,
  "Č": 205,
  "č": 206,
  "Ď": 207,
  "ď": 208,
  "Đ": 209,
  "đ": 210,
  "Ē": 211,
  "ē": 212,
  "Ĕ": 213,
  "ĕ": 214,
  "Ė": 215,
  "ė": 216,
  "Ę": 217,
  "ę": 218,
  "Ě": 219,
  "ě": 220,
  "Ĝ": 221,
  "ĝ": 222,
  "Ğ": 223,
  "ğ": 224,
  "Ġ": 225,
  "ġ": 226,
  "Ģ": 227,
  "ģ": 228,
  "Ĥ": 229,
  "ĥ": 230,
  "Ħ": 231,
  "ħ": 232,
  "Ĩ": 233,
  "ĩ": 234,
  "Ī": 235,
  "ī": 236,
  "Ĭ": 237,
  "ĭ": 238,
  "Į": 239,
  "į": 240,
  "İ": 241,
  "ı": 242,
  "Ĳ": 243,
  "ĳ": 244,
  "Ĵ": 245,
  "ĵ": 246,
  "Ķ": 247,
  "ķ": 248,
  "ĸ": 249,
  "Ĺ": 250,
  "ĺ": 251,
  "Ļ": 252,
  "ļ": 253,
  "Ľ": 254,
  "ľ": 255,
  "Ŀ": 256,
  "ŀ": 257,
  "Ł": 258,
  "ł": 259,
  "Ń": 260,
  "Ġt": 261,
  "Ġth": 262,
  "Ġa": 263,
  "in": 264,
  "re": 265,
  "Ġthe": 266,
  "on": 267,
  "at": 268,
  "Ġw": 269,
  "is": 270,
  "er": 271,
  "Ġs": 272,
  "en": 273,
  "Ġc": 274,
  "Ġo": 275,
  "it": 276,
  "Ġp": 277,
  "an": 278,
  "Ġb": 279,
  "or": 280,
  "Ġm": 281,
  "Ġto": 282,
  "es": 283,
  "Ġf": 284,
  "ou": 285,
  "ion": 286,
  "Ġin": 287,
  "Ġof": 288,
  "al": 289,
  "Ġan": 290,
  "ed": 291,
  "Ġh": 292,
  "ing": 293,
  "ar": 294,
  "Ġd": 295,
  "ro": 296,
  "ic": 297,
  "Ġe": 298,
  "Ġand": 299,
  "ent": 300,
  "le": 301,
  "th": 302,
  "Ġn": 303,
  "Ġre": 304,
  "as": 305,
  "Ġis": 306,
  "ve": 307,
  "om": 308,
  "Ġbe": 309,
  "Ġthat": 310,
  "st": 311,
  "ly": 312,
  "il": 313,
  "Ġi": 314,
  "ct": 315,
  "Ġg": 316,
  "Ġl": 317,
  "Ġu": 318,
  "Ġwh": 319,
  "ation": 320,
  "Ġon": 321,
  "ut": 322,
  "ot": 323,
  "Ġwe": 324,
  "Ġfor": 325,
  "se": 326,
  "pe": 327,
  "ment": 328,
  "id": 329,
  "Ġit": 330,
  "ur": 331,
  "ld": 332,
  "Ġcom": 333,
  "Ġst": 334,
  "ver": 335,
  "ce": 336,
  "Ġpro": 337,
  "ow": 338,
  "Ġha": 339,
  "ol": 340,
  "Ġy": 341,
  "Ġcon": 342,
  "Ġal": 343,
  "Ġthis": 344,
  "ra": 345,
  "Ġde": 346,
  "ri": 347,
  "Ġare": 348,
  "ort": 349,
  "the": 350,
  "ch": 351,
  "Ġas": 352,
  "ith": 353,
  "ul": 354,
  "ke": 355,
  "Ġeu": 356,
  "res": 357,
  "ay": 358,
  "ill": 359,
  "gh": 360,
  "ould": 361,
  "Ġhave": 362,
  "Ġwith": 363,
  "Ġnot": 364,
  "ir": 365,
  "mp": 366,
  "Ġyou": 367,
  "Ġne": 368,
  "Ġme": 369,
  "ate": 370,
  "Ġun": 371,
  "Ġsu": 372,
  "ter": 373,
  "oun": 374,
  "ad": 375,
  "Ġeuro": 376,
  "im": 377,
  "ge": 378,
  "Ġcomm": 379,
  "pp": 380,
  "op": 381,
  "Ġeurope": 382,
  "ore": 383,
  "Ġsh": 384,
  "ble": 385,
  "ity": 386,
  "Ġse": 387,
  "and": 388,
  "Ġex": 389,
  "ive": 390,
  "ust": 391,
  "sion": 392,
  "li": 393,
  "os": 394,
  "Ġwill": 395,
  "ant": 396,
  "ere": 397,
  "ers": 398,
  "Ġpar": 399,
  "un": 400,
  "Ġv": 401,
  "ain": 402,
  "ess": 403,
  "ci": 404,
  "est": 405,
  "ich": 406,
  "Ġhas": 407,
  "we": 408,
  "qu": 409,
  "Ġat": 410,
  "'s": 411,
  "Ġdo": 412,
  "Ġby": 413,
  "Ġen": 414,
  "if": 415,
  "ght": 416,
  "Ġwhich": 417,
  "ies": 418,
  "so": 419,
  "Ġeuropean": 420,
  "Ġle": 421,
  "mb": 422,
  "Ġwor": 423,
  "Ġgo": 424,
  "Ġch": 425,
  "Ġcan": 426,
  "Ġcoun": 427,
  "et": 428,
  "âĢ": 429,
  "ther": 430,
  "ist": 431,
  "Ġpres": 432,
  "am": 433,
  "Ġall": 434,
  "Ġag": 435,
  "us": 436,
  "Ġso": 437,
  "Ġwas": 438,
  "Ġr": 439,
  "ally": 440,
  "od": 441,
  "ure": 442,
  "rom": 443,
  "ome": 444,
  "Ġimp": 445,
  "iv": 446,
  "ission": 447,
  "ect": 448,
  "Ġj": 449,
  "Ġor": 450,
  "Ġhe": 451,
  "Ġres": 452,
  "Ġthere": 453,
  "very": 454,
  "end": 455,
  "Ġab": 456,
  "Ġwould": 457,
  "ions": 458,
  "Ġcommission": 459,
  "Ġli": 460,
  "out": 461,
  "Ġpol": 462,
  "Ġk": 463,
  "Ġint": 464,
  "our": 465,
  "ac": 466,
  "Ġfrom": 467,
  "Ġam": 468,
  "ard": 469,
  "ak": 470,
  "all": 471,
  "ff": 472,
  "Ġpresid": 473,
  "con": 474,
  "Ġalso": 475,
  "Ġour": 476,
  "Ġbut": 477,
  "Ġus": 478,
  "Ġshould": 479,
  "ig": 480,
  "Ġrep": 481,
  "Ġ-": 482,
  "de": 483,
  "ake": 484,
  "Ġpart": 485,
  "ll": 486,
  "um": 487,
  "mber": 488,
  "Ġthey": 489,
  "Ġmust": 490,
  "Ġbeen": 491,
  "der": 492,
  "Ġad": 493,
  "ous": 494,
  "Ġmore": 495,
  "ates": 496,
  "ue": 497,
  "Ġcont": 498,
  "ans": 499,
  "Ġpresident": 500,
  "Ġcount": 501,
  "Ġlike": 502,
  "ations": 503,
  "Ġreg": 504,
  "ree": 505,
  "ab": 506,
  "Ġpe": 507,
  "oc": 508,
  "reat": 509,
  "ast": 510,
  "ish": 511,
  "ult": 512,
  "Ġac": 513,
  "one": 514,
  "ament": 515,
  "Ġfa": 516,
  "Ġabout": 517,
  "si": 518,
  "pport": 519,
  "ud": 520,
  "Ġwhat": 521,
  "ical": 522,
  "ost": 523,
  "this": 524,
  "Ġmr": 525,
  "Ġtheir": 526,
  "Ġone": 527,
  "ary": 528,
  "Ġqu": 529,
  "Ġneed": 530,
  "Ġno": 531,
  "vel": 532,
  "ren": 533,
  "Ġtr": 534,
  "able": 535,
  "lo": 536,
  "ire": 537,
  "ments": 538,
  "ong": 539,
  "ear": 540,
  "Ġpl": 541,
  "ap": 542,
  "Ġits": 543,
  "Ġmy": 544,
  "Ġvery": 545,
  "Ġdis": 546,
  "âĢĻ": 547,
  "Ġ1": 548,
  "Ġout": 549,
  "ie": 550,
  "Ġsome": 551,
  "ance": 552,
  "cial": 553,
  "au": 554,
  "for": 555,
  "Ġwho": 556,
  "Ġri": 557,
  "du": 558,
  "ms": 559,
  "Ġthese": 560,
  "Ġact": 561,
  "Ġcomp": 562,
  "Ġbec": 563,
  "Ġfin": 564,
  "Ġwork": 565,
  "now": 566,
  "Ġinc": 567,
  "cess": 568,
  "Ġtim": 569,
  "ople": 570,
  "liament": 571,
  "Ġ2": 572,
  "Ġthan": 573,
  "00": 574,
  "Ġman": 575,
  "Ġunion": 576,
  "Ġpeople": 577,
  "Ġright": 578,
  "rou": 579,
  "Ġreport": 580,
  "Ġup": 581,
  "Ġparliament": 582,
  "Ġstates": 583,
  "Ġprop": 584,
  "wh": 585,
  "te": 586,
  "Ġyear": 587,
  "Ġimport": 588,
  "but": 589,
  "ag": 590,
  "ry": 591,
  "ru": 592,
  "ence": 593,
  "Ġexp": 594,
  "iz": 595,
  "Ġapp": 596,
  "Ġco": 597,
  "conom": 598,
  "are": 599,
  "tern": 600,
  "fore": 601,
  "Ġcons": 602,
  "me": 603,
  "Ġsa": 604,
  "ose": 605,
  "ition": 606,
  "ries": 607,
  "ice": 608,
  "ts": 609,
  "ause": 610,
  "Ġte": 611,
  "Ġpre": 612,
  "Ġnew": 613,
  "Ġeconom": 614,
  "ink": 615,
  "ational": 616,
  "ens": 617,
  "Ġother": 618,
  "oin": 619,
  "ces": 620,
  "Ġpos": 621,
  "Ġif": 622,
  "ated": 623,
  "Ġtime": 624,
  "el": 625,
  "Ġar": 626,
  "ia": 627,
  "ok": 628,
  "cy": 629,
  "lic": 630,
  "Ġmember": 631,
  "og": 632,
  "Ġev": 633,
  "he": 634,
  "age": 635,
  "Ġmar": 636,
  "Ġsee": 637,
  "Ġthem": 638,
  "pt": 639,
  "Ġcountries": 640,
  "Ġpolic": 641,
  "Ġconc": 642,
  "ach": 643,
  "ack": 644,
  "Ġnow": 645,
  "ise": 646,
  "Ġbet": 647,
  "Ġjust": 648,
  "ign": 649,
  "ame": 650,
  "Ġonly": 651,
  "Ġhow": 652,
  "ine": 653,
  "Ġra": 654,
  "ial": 655,
  "Ġknow": 656,
  "Ġdec": 657,
  "ase": 658,
  "ject": 659,
  "cil": 660,
  "Ġany": 661,
  "pect": 662,
  "Ġunder": 663,
  "ide": 664,
  "Ġpropos": 665,
  "ious": 666,
  "Ġimportant": 667,
  "'t": 668,
  "Ġcouncil": 669,
  "Ġspe": 670,
  "ĠâĢ": 671,
  "ound": 672,
  "ted": 673,
  "Ġwant": 674,
  "Ġtra": 675,
  "velop": 676,
  "Ġwere": 677,
  "Ġdem": 678,
  "ities": 679,
  "ution": 680,
  "Ġsp": 681,
  "ress": 682,
  "Ġfe": 683,
  "Ġeff": 684,
  "Ġsupport": 685,
  "Ġdevelop": 686,
  "Ġbecause": 687,
  "ced": 688,
  "irst": 689,
  "Ġagain": 690,
  "thing": 691,
  "iff": 692,
  "Ġthink": 693,
  "Ġob": 694,
  "eren": 695,
  "ever": 696,
  "ric": 697,
  "Ġwhen": 698,
  "Ġway": 699,
  "ind": 700,
  "Ġpolit": 701,
  "Ġrec": 702,
  "ction": 703,
  "Ġper": 704,
  "Ġworld": 705,
  "ility": 706,
  "Ġind": 707,
  "ip": 708,
  "Ġinto": 709,
  "Ġmake": 710,
  "ub": 711,
  "Ġdiff": 712,
  "Ġsay": 713,
  "Ġpolicy": 714,
  "Ġser": 715,
  "ace": 716,
  "lear": 717,
  "mr": 718,
  "Ġyour": 719,
  "und": 720,
  "Ġinv": 721,
  "form": 722,
  "Ġbo": 723,
  "Ġover": 724,
  "sel": 725,
  "Ġmad": 726,
  "vern": 727,
  "Ġhad": 728,
  "ings": 729,
  "Ġop": 730,
  "Ġiss": 731,
  "ern": 732,
  "Ġproble": 733,
  "tain": 734,
  "Ġlo": 735,
  "ste": 736,
  "Ġro": 737,
  "Ġagree": 738,
  "ular": 739,
  "uch": 740,
  "Ġtake": 741,
  "Ġsy": 742,
  "Ġleg": 743,
  "ight": 744,
  "rit": 745,
  "Ġ--": 746,
  "Ġpoin": 747,
  "Ġpartic": 748,
  "ved": 749,
  "ks": 750,
  "Ġhis": 751,
  "Ġcl": 752,
  "Ġcommit": 753,
  "Ġeconomic": 754,
  "day": 755,
  "Ġtw": 756,
  "igh": 757,
  "Ġgovern": 758,
  "row": 759,
  "ative": 760,
  "there": 761,
  "Ġtrans": 762,
  "Ġvot": 763,
  "Ġintern": 764,
  "Ġsuch": 765,
  "that": 766,
  "Ġfirst": 767,
  "lie": 768,
  "Ġmany": 769,
  "Ġyears": 770,
  "ention": 771,
  "Ġprog": 772,
  "ang": 773,
  "Ġthose": 774,
  "act": 775,
  "Ġmarke": 776,
  "ures": 777,
  "Ġcould": 778,
  "ting": 779,
  "gy": 780,
  "Ġquest": 781,
  "Ġhere": 782,
  "Ġaf": 783,
  "sible": 784,
  "ful": 785,
  "ors": 786,
  "Ġstr": 787,
  "Ġdire": 788,
  "ite": 789,
  "Ġproposal": 790,
  "Ġsub": 791,
  "Ġbelie": 792,
  "Ġgood": 793,
  "Ġter": 794,
  "Ġfact": 795,
  "Ġevery": 796,
  "stit": 797,
  "Ġpolitical": 798,
  "ween": 799,
  "ian": 800,
  "ord": 801,
  "Ġbetween": 802,
  "pon": 803,
  "Ġfund": 804,
  "Ġgreat": 805,
  "Ġprov": 806,
  "mm": 807,
  "ath": 808,
  "Ġtwo": 809,
  "Ġprodu": 810,
  "Ġmade": 811,
  "Ġoff": 812,
  "Ġhum": 813,
  "ives": 814,
  "ep": 815,
  "Ġbeing": 816,
  "Ġmo": 817,
  "Ġacc": 818,
  "ues": 819,
  "xt": 820,
  "ating": 821,
  "ris": 822,
  "ory": 823,
  "Ġtak": 824,
  "ving": 825,
  "Ġeven": 826,
  "Ġcommun": 827,
  "Ġmuch": 828,
  "Ġcour": 829,
  "Ġdoes": 830,
  "Ġmost": 831,
  "Ġdeb": 832,
  "Ġconcern": 833,
  "ild": 834,
  "Ġget": 835,
  "Ġlong": 836,
  "Ġclear": 837,
  "Ġtherefore": 838,
  "arge": 839,
  "ange": 840,
  "Ġrel": 841,
  "lect": 842,
  "Ġwhere": 843,
  "red": 844,
  "Ġho": 845,
  "Ġmat": 846,
  "Ġrem": 847,
  "Ġhuman": 848,
  "how": 849,
  "Ġbas": 850,
  "Ġparticular": 851,
  "cept": 852,
  "Ġgen": 853,
  "Ġconf": 854,
  "ward": 855,
  "roup": 856,
  "ĠâĢĵ": 857,
  "Ġrespon": 858,
  "Ġsyste": 859,
  "Ġ200": 860,
  "Ġrights": 861,
  "Ġgroup": 862,
  "Ġdirect": 863,
  "Ġbelieve": 864,
  "ual": 865,
  "ural": 866,
  "ough": 867,
  "Ġwell": 868,
  "ublic": 869,
  "wn": 870,
  "rat": 871,
  "Ġpri": 872,
  "Ġappro": 873,
  "Ġsaid": 874,
  "Ġsocial": 875,
  "Ġfinan": 876,
  "Ġsit": 877,
  "eration": 878,
  "Ġstate": 879,
  "amp": 880,
  "ism": 881,
  "not": 882,
  "Ġhigh": 883,
  "ass": 884,
  "Ġref": 885,
  "Ġmay": 886,
  "Ġnu": 887,
  "Ġdisc": 888,
  "Ġmon": 889,
  "eral": 890,
  "Ġprot": 891,
  "oll": 892,
  "Ġcountry": 893,
  "Ġmin": 894,
  "Ġtoo": 895,
  "Ġadd": 896,
  "Ġlook": 897,
  "read": 898,
  "Ġext": 899,
  "way": 900,
  "min": 901,
  "ited": 902,
  "iew": 903,
  "Ġfar": 904,
  "Ġamend": 905,
  "Ġthen": 906,
  "Ġput": 907,
  "Ġla": 908,
  "ves": 909,
  "Ġagainst": 910,
  "ency": 911,
  "Ġdemoc": 912,
  "erest": 913,
  "lu": 914,
  "Ġsec": 915,
  "man": 916,
  "Ġsame": 917,
  "Ġcur": 918,
  "Ġgoing": 919,
  "rough": 920,
  "Ġmarket": 921,
  "Ġquestion": 922,
  "Ġtoday": 923,
  "you": 924,
  "Ġpr": 925,
  "Ġincre": 926,
  "olution": 927,
  "art": 928,
  "Ġdid": 929,
  "Ġuse": 930,
  "ision": 931,
  "Ġcall": 932,
  "Ġdef": 933,
  "Ġpoint": 934,
  "Ġrequ": 935,
  "Ġreal": 936,
  "Ġdifferen": 937,
  "ile": 938,
  "Ġend": 939,
  "Ġfut": 940,
  "Ġinterest": 941,
  "own": 942,
  "Ġent": 943,
  "Ġma": 944,
  "Ġcannot": 945,
  "what": 946,
  "rent": 947,
  "Ġatt": 948,
  "Ġfuture": 949,
  "Ġcontin": 950,
  "get": 951,
  "Ġemp": 952,
  "Ġeffect": 953,
  "Ġtreat": 954,
  "Ġdevelopment": 955,
  "Ġpublic": 956,
  "uation": 957,
  "Ġstill": 958,
  "Ġthrough": 959,
  "ertain": 960,
  "les": 961,
  "Ġdes": 962,
  "ific": 963,
  "Ġsi": 964,
  "Ġ(": 965,
  "itiz": 966,
  "Ġ19": 967,
  "Ġcommitte": 968,
  "Ġlast": 969,
  "Ġtur": 970,
  "Ġnational": 971,
  "Ġfinancial": 972,
  "Ġhapp": 973,
  "mbers": 974,
  "alth": 975,
  "Ġhel": 976,
  "king": 977,
  "Ġ\"": 978,
  "Ġass": 979,
  "ob": 980,
  "Ġissue": 981,
  "Ġown": 982,
  "Ġreally": 983,
  "Ġregard": 984,
  "ually": 985,
  "Ġher": 986,
  "Ġcitiz": 987,
  "Ġmeas": 988,
  "Ġgu": 989,
  "Ġgovernment": 990,
  "Ġprotect": 991,
  "Ġprogra": 992,
  "Ġsystem": 993,
  "Ġgrow": 994,
  "ents": 995,
  "Ġlead": 996,
  "they": 997,
  "Ġbud": 998,
  "Ġinternational": 999,
  "Ġcar": 1000,
  "Ġhelp": 1001,
  "led": 1002,
  "ason": 1003,
  "Ġwhy": 1004,
  "ower": 1005,
  "pet": 1006,
  "'re": 1007,
  "olog": 1008,
  "loy": 1009,
  "Ġ'": 1010,
  "Ġsm": 1011,
  "Ġinform": 1012,
  "ty": 1013,
  "Ġresult": 1014,
  "iven": 1015,
  "ese": 1016,
  "lement": 1017,
  "Ġcommittee": 1018,
  "Ġmatter": 1019,
  "Ġproblem": 1020,
  "cond": 1021,
  "Ġtal": 1022,
  "ised": 1023,
  "ning": 1024,
  "Ġcourse": 1025,
  "Ġke": 1026,
  "Ġenv": 1027,
  "ruct": 1028,
  "Ġcommissioner": 1029,
  "Ġconsid": 1030,
  "Ġbr": 1031,
  "bility": 1032,
  "ready": 1033,
  "Ġback": 1034,
  "Ġlevel": 1035,
  "ail": 1036,
  "Ġcitizens": 1037,
  "Ġalready": 1038,
  "Ġview": 1039,
  "Ġsituation": 1040,
  "ood": 1041,
  "Ġinter": 1042,
  "Ġpossible": 1043,
  "Ġreason": 1044,
  "Ġpers": 1045,
  "Ġhope": 1046,
  "Ġsc": 1047,
  "wor": 1048,
  "self": 1049,
  "gan": 1050,
  "ince": 1051,
  "iron": 1052,
  "Ġdebate": 1053,
  "ied": 1054,
  "illion": 1055,
  "ulation": 1056,
  "Ġmembers": 1057,
  "Ġboth": 1058,
  "ety": 1059,
  "Ġexamp": 1060,
  "sure": 1061,
  "Ġprocess": 1062,
  "ouse": 1063,
  "ict": 1064,
  "Ġcertain": 1065,
  "uth": 1066,
  "Ġsign": 1067,
  "ergy": 1068,
  "Ġcome": 1069,
  "Ġorder": 1070,
  "bal": 1071,
  "Ġagreement": 1072,
  "ract": 1073,
  "uring": 1074,
  "Ġdra": 1075,
  "ironment": 1076,
  "hip": 1077,
  "ici": 1078,
  "Ġset": 1079,
  "Ġban": 1080,
  "Ġbu": 1081,
  "Ġwar": 1082,
  "chie": 1083,
  "Ġbefore": 1084,
  "Ġask": 1085,
  "Ġenvironment": 1086,
  "however": 1087,
  "chn": 1088,
  "eric": 1089,
  "aking": 1090,
  "lud": 1091,
  "Ġachie": 1092,
  "Ġcoop": 1093,
  "cip": 1094,
  "ority": 1095,
  "ne": 1096,
  "Ġhim": 1097,
  "tle": 1098,
  "Ġadop": 1099,
  "Ġglo": 1100,
  "Ġenergy": 1101,
  "Ġdifferent": 1102,
  "Ġcent": 1103,
  "Ġable": 1104,
  "Ġful": 1105,
  "other": 1106,
  "Ġsomething": 1107,
  "Ġneg": 1108,
  "ices": 1109,
  "ft": 1110,
  "Ġbudget": 1111,
  "lish": 1112,
  "ically": 1113,
  "Ġaff": 1114,
  "Ġinstit": 1115,
  "Ġtransp": 1116,
  "utions": 1117,
  "to": 1118,
  "Ġthings": 1119,
  "Ġcommon": 1120,
  "urther": 1121,
  "ration": 1122,
  "Ġday": 1123,
  "Ġcase": 1124,
  "Ġcompet": 1125,
  "Ġcommunity": 1126,
  "gin": 1127,
  "Ġcap": 1128,
  "Ġcurrent": 1129,
  "Ġlaw": 1130,
  "Ġhouse": 1131,
  "ina": 1132,
  "Ġinvest": 1133,
  "omen": 1134,
  "Ġcol": 1135,
  "Ġform": 1136,
  "ten": 1137,
  "Ġexample": 1138,
  "Ġwithin": 1139,
  "Ġstand": 1140,
  "be": 1141,
  "Ġprev": 1142,
  "Ġdiscus": 1143,
  "Ġcris": 1144,
  "its": 1145,
  "ribut": 1146,
  "Ġchange": 1147,
  "urity": 1148,
  "Ġmaj": 1149,
  "ately": 1150,
  "Ġide": 1151,
  "Ġpresent": 1152,
  "Ġgive": 1153,
  "Ġmeasures": 1154,
  "Ġserv": 1155,
  "Ġmain": 1156,
  "Ġsuc": 1157,
  "eur": 1158,
  "men": 1159,
  "Ġglobal": 1160,
  "Ġmed": 1161,
  "Ġwithout": 1162,
  "Ġvote": 1163,
  "Ġdon": 1164,
  "Ġhowever": 1165,
  "Ġfore": 1166,
  "Ġdown": 1167,
  "Ġbeh": 1168,
  "ount": 1169,
  "Ġmeans": 1170,
  "Ġplace": 1171,
  "Ġlit": 1172,
  "ef": 1173,
  "Ġtechn": 1174,
  "come": 1175,
  "over": 1176,
  "Ġprin": 1177,
  "Ġsol": 1178,
  "ven": 1179,
  "isl": 1180,
  "Ġtaken": 1181,
  "Ġlif": 1182,
  "Ġproblems": 1183,
  "Ġimpro": 1184,
  "Ġinf": 1185,
  "Ġameric": 1186,
  "Ġsimp": 1187,
  "Ġrespect": 1188,
  "stand": 1189,
  "Ġsecurity": 1190,
  "Ġhealth": 1191,
  "Ġafter": 1192,
  "Ġstrate": 1193,
  "Ġnumber": 1194,
  "Ġmod": 1195,
  "ather": 1196,
  "Ġbetter": 1197,
  "Ġdeal": 1198,
  "Ġauth": 1199,
  "air": 1200,
  "Ġfra": 1201,
  "ered": 1202,
  "vers": 1203,
  "Ġcooperation": 1204,
  "Ġinformation": 1205,
  "Ġunited": 1206,
  "Ġbus": 1207,
  "Ġfind": 1208,
  "Ġthree": 1209,
  "Ġlegisl": 1210,
  "Ġpower": 1211,
  "Ġdirective": 1212,
  "Ġregion": 1213,
  "reed": 1214,
  "ily": 1215,
  "Ġgr": 1216,
  "Ġcrisis": 1217,
  "ital": 1218,
  "Ġrul": 1219,
  "Ġorgan": 1220,
  "Ġsect": 1221,
  "Ġsch": 1222,
  "Ġplay": 1223,
  "Ġaction": 1224,
  "Ġobject": 1225,
  "Ġnecess": 1226,
  "ently": 1227,
  "itions": 1228,
  "less": 1229,
  "Ġallow": 1230,
  "Ġarea": 1231,
  "Ġprincip": 1232,
  "ability": 1233,
  "Ġfew": 1234,
  "itive": 1235,
  "pporteur": 1236,
  "Ġindust": 1237,
  "ollow": 1238,
  "com": 1239,
  "Ġ20": 1240,
  "ater": 1241,
  "land": 1242,
  "Ġcre": 1243,
  "ph": 1244,
  "Ġdep": 1245,
  "Ġchild": 1246,
  "ists": 1247,
  "Ġph": 1248,
  "Ġris": 1249,
  "Ġnor": 1250,
  "Ġnat": 1251,
  "Ġprom": 1252,
  "Ġelect": 1253,
  "Ġhand": 1254,
  "Ġwel": 1255,
  "Ġdone": 1256,
  "work": 1257,
  "Ġbl": 1258,
  "no": 1259,
  "Ġem": 1260,
  "Ġap": 1261,
  "pportun": 1262,
  "Ġmeet": 1263,
  "ute": 1264,
  "ential": 1265,
  "Ġactually": 1266,
  "Ġrepres": 1267,
  "Ġest": 1268,
  "Ġear": 1269,
  "Ġopportun": 1270,
  "Ġval": 1271,
  "icult": 1272,
  "ality": 1273,
  "Ġrapporteur": 1274,
  "Ġshe": 1275,
  "uc": 1276,
  "Ġredu": 1277,
  "Ġinclud": 1278,
  "orts": 1279,
  "alf": 1280,
  "ds": 1281,
  "Ġ3": 1282,
  "isation": 1283,
  "Ġopen": 1284,
  "Ġsaf": 1285,
  "Ġsince": 1286,
  "Ġwomen": 1287,
  "Ġrest": 1288,
  "Ġlittle": 1289,
  "Ġnext": 1290,
  "arch": 1291,
  "Ġdifficult": 1292,
  "oti": 1293,
  "Ġta": 1294,
  "Ġtrade": 1295,
  "Ġshow": 1296,
  "'m": 1297,
  "Ġsur": 1298,
  "Ġimplement": 1299,
  "Ġkind": 1300,
  "Ġav": 1301,
  "Ġwish": 1302,
  "orities": 1303,
  "Ġfav": 1304,
  "eg": 1305,
  "Ġinde": 1306,
  "Ġincreas": 1307,
  "Ġremain": 1308,
  "Ġthank": 1309,
  "Ġfollow": 1310,
  "Ġcor": 1311,
  "Ġexper": 1312,
  "Ġless": 1313,
  "Ġensure": 1314,
  "Ġplan": 1315,
  "ways": 1316,
  "Ġequ": 1317,
  "Ġdemocrat": 1318,
  "ussi": 1319,
  "Ġaccept": 1320,
  "Ġadv": 1321,
  "Ġfurther": 1322,
  "ick": 1323,
  "Ġinvol": 1324,
  "Ġins": 1325,
  "my": 1326,
  "Ġnegoti": 1327,
  "Ġcontro": 1328,
  "she": 1329,
  "als": 1330,
  "iti": 1331,
  "Ġcomple": 1332,
  "Ġprogram": 1333,
  "Ġtreaty": 1334,
  "Ġspeci": 1335,
  "oura": 1336,
  "Ġlife": 1337,
  "Ġwhe": 1338,
  "ying": 1339,
  "Ġissues": 1340,
  "cing": 1341,
  "Ġjob": 1342,
  "Ġfr": 1343,
  "Ġserious": 1344,
  "ics": 1345,
  "ros": 1346,
  "Ġmrs": 1347,
  "loyment": 1348,
  "oney": 1349,
  "Ġthing": 1350,
  "Ġinst": 1351,
  "Ġunderstand": 1352,
  "Ġvi": 1353,
  "Ġsecond": 1354,
  "Ġcost": 1355,
  "Ġgrowth": 1356,
  "Ġrules": 1357,
  "lig": 1358,
  "ided": 1359,
  "Ġlet": 1360,
  "Ġconsider": 1361,
  "Ġgent": 1362,
  "ody": 1363,
  "ared": 1364,
  "Ġir": 1365,
  "Ġgentle": 1366,
  "Ġperson": 1367,
  "Ġanother": 1368,
  "Ġproduct": 1369,
  "Ġnecessary": 1370,
  "Ġben": 1371,
  "Ġsmall": 1372,
  "Ġgiven": 1373,
  "Ġrequire": 1374,
  "Ġhappen": 1375,
  "Ġneeds": 1376,
  "iness": 1377,
  "Ġlegal": 1378,
  "Ġrole": 1379,
  "Ġbecome": 1380,
  "Ġwhether": 1381,
  "ird": 1382,
  "adies": 1383,
  "Ġamendments": 1384,
  "selves": 1385,
  "Ġmoney": 1386,
  "Ġgentlemen": 1387,
  "Ġalways": 1388,
  "per": 1389,
  "Ġwhole": 1390,
  "cu": 1391,
  "Ġprotection": 1392,
  "Ġread": 1393,
  "Ġproced": 1394,
  "Ġrussi": 1395,
  "Ġposition": 1396,
  "Ġlarge": 1397,
  "ave": 1398,
  "Ġimm": 1399,
  "ister": 1400,
  "par": 1401,
  "Ġsuccess": 1402,
  "av": 1403,
  "sibility": 1404,
  "Ġeconomy": 1405,
  "Ġareas": 1406,
  "Ġmove": 1407,
  "racy": 1408,
  "Ġconv": 1409,
  "gether": 1410,
  "Ġsoci": 1411,
  "gg": 1412,
  ".\"": 1413,
  "Ġchina": 1414,
  "these": 1415,
  "Ġcrit": 1416,
  "Ġapproach": 1417,
  "Ġparticularly": 1418,
  "Ġconsum": 1419,
  "sions": 1420,
  "Ġnever": 1421,
  "ness": 1422,
  "Ġused": 1423,
  "ources": 1424,
  "em": 1425,
  "Ġproject": 1426,
  "Ġmillion": 1427,
  "ross": 1428,
  "âĢĿ": 1429,
  "Ġrev": 1430,
  "Ġprogress": 1431,
  "Ġaid": 1432,
  "Ġprogramme": 1433,
  "Ġresolution": 1434,
  "ines": 1435,
  "Ġcond": 1436,
  "Ġdecision": 1437,
  "Ġiniti": 1438,
  "let": 1439,
  "Ġmil": 1440,
  "ense": 1441,
  "Ġcontribut": 1442,
  "eng": 1443,
  "Ġbal": 1444,
  "Ġfeel": 1445,
  "Ġpay": 1446,
  "ys": 1447,
  "Ġsector": 1448,
  "Ġstep": 1449,
  "Ġtax": 1450,
  "Ġfish": 1451,
  "Ġrese": 1452,
  "ĠâĢľ": 1453,
  "imate": 1454,
  "Ġeffective": 1455,
  "Ġpresidency": 1456,
  "ablish": 1457,
  "ral": 1458,
  "ably": 1459,
  "Ġpract": 1460,
  "Ġcontinue": 1461,
  "Ġopin": 1462,
  "'ve": 1463,
  "ultural": 1464,
  "Ġeas": 1465,
  "wards": 1466,
  "Ġtogether": 1467,
  "Ġ199": 1468,
  "Ġcompan": 1469,
  "Ġpur": 1470,
  "Ġstrong": 1471,
  "isions": 1472,
  "Ġlot": 1473,
  "Ġdoing": 1474,
  "more": 1475,
  "Ġbenef": 1476,
  "ought": 1477,
  "Ġes": 1478,
  "Ġur": 1479,
  "Ġspecif": 1480,
  "Ġservices": 1481,
  "Ġed": 1482,
  "ned": 1483,
  "Ġworking": 1484,
  "Ġrepresent": 1485,
  "Ġfree": 1486,
  "Ġagric": 1487,
  "ret": 1488,
  "Ġterms": 1489,
  "rodu": 1490,
  "Ġframe": 1491,
  "Ġfail": 1492,
  "ror": 1493,
  "Ġpo": 1494,
  "Ġel": 1495,
  "Ġconstit": 1496,
  "Ġfavour": 1497,
  "Ġestablish": 1498,
  "Ġforward": 1499,
  "Ġinstitutions": 1500,
  "Ġresearch": 1501,
  "Ġmean": 1502,
  "Ġmight": 1503,
  "most": 1504,
  "Ġdist": 1505,
  "Ġ5": 1506,
  "Ġproposals": 1507,
  "Ġstud": 1508,
  "Ġstar": 1509,
  "Ġstrategy": 1510,
  "ner": 1511,
  "sw": 1512,
  "Ġpeace": 1513,
  "Ġchang": 1514,
  "Ġcontrol": 1515,
  "iving": 1516,
  "Ġwrit": 1517,
  "Ġfood": 1518,
  "Ġsupp": 1519,
  "Ġbasis": 1520,
  "erence": 1521,
  "Ġjoin": 1522,
  "Ġladies": 1523,
  "Ġpop": 1524,
  "Ġrelations": 1525,
  "Ġexperi": 1526,
  "Ġspeak": 1527,
  "Ġeach": 1528,
  "Ġaround": 1529,
  "Ġtechnolog": 1530,
  "Ġfound": 1531,
  "Ġaim": 1532,
  "Ġbro": 1533,
  "Ġbusiness": 1534,
  "osed": 1535,
  "Ġfundament": 1536,
  "Ġcreat": 1537,
  "Ġamendment": 1538,
  "Ġsubject": 1539,
  "Ġyet": 1540,
  "aps": 1541,
  "Ġitself": 1542,
  "Ġquite": 1543,
  "Ġgeneral": 1544,
  "Ġtell": 1545,
  "Ġframework": 1546,
  "Ġonce": 1547,
  "Ġfac": 1548,
  "Ġwelcome": 1549,
  "Ġsing": 1550,
  "Ġess": 1551,
  "Ġcare": 1552,
  "Ġbring": 1553,
  "Ġachieve": 1554,
  "Ġbuild": 1555,
  "ible": 1556,
  "Ġopp": 1557,
  "Ġreach": 1558,
  "Ġgot": 1559,
  "Ġshort": 1560,
  "Ġdemocracy": 1561,
  "Ġchildren": 1562,
  "Ġfam": 1563,
  "Ġmention": 1564,
  "Ġoften": 1565,
  "Ġexpect": 1566,
  "Ġtalk": 1567,
  "Ġansw": 1568,
  "arm": 1569,
  "Ġbest": 1570,
  "Ġchall": 1571,
  "then": 1572,
  "Ġduring": 1573,
  "light": 1574,
  "pri": 1575,
  "Ġcri": 1576,
  "Ġ4": 1577,
  "Ġopportunity": 1578,
  "Ġrather": 1579,
  "Ġopinion": 1580,
  "Ġaw": 1581,
  "ages": 1582,
  "akes": 1583,
  "Ġlib": 1584,
  "Ġart": 1585,
  "Ġmonth": 1586,
  "Ġdemand": 1587,
  "Ġlegislation": 1588,
  "ulture": 1589,
  "leg": 1590,
  "Ġstruct": 1591,
  "Ġbig": 1592,
  "Ġimprove": 1593,
  "ances": 1594,
  "Ġabs": 1595,
  "Ġple": 1596,
  "Ġpromot": 1597,
  "Ġclo": 1598,
  "Ġincrease": 1599,
  "Ġago": 1600,
  "Ġexist": 1601,
  "Ġextre": 1602,
  "Ġwhile": 1603,
  "ivid": 1604,
  "Ġbegin": 1605,
  "Ġminister": 1606,
  "fort": 1607,
  "Ġsuff": 1608,
  "mpt": 1609,
  "fin": 1610,
  "Ġforeign": 1611,
  "Ġca": 1612,
  "many": 1613,
  "Ġinteg": 1614,
  "ogn": 1615,
  "clear": 1616,
  "Ġsw": 1617,
  "reedom": 1618,
  "Ġmajor": 1619,
  "Ġtri": 1620,
  "Ġstart": 1621,
  "Ġlim": 1622,
  "Ġenough": 1623,
  "stain": 1624,
  "Ġim": 1625,
  "ants": 1626,
  "ock": 1627,
  "ides": 1628,
  "Ġviol": 1629,
  "ases": 1630,
  "Ġindustry": 1631,
  "Ġlab": 1632,
  "thers": 1633,
  "Ġtowards": 1634,
  "Ġconcerned": 1635,
  "ling": 1636,
  "Ġhard": 1637,
  "Ġmaking": 1638,
  "Ġwee": 1639,
  "ified": 1640,
  "Ġfundamental": 1641,
  "Ġadopted": 1642,
  "Ġaccount": 1643,
  "Ġleast": 1644,
  "Ġeng": 1645,
  "Ġrecogn": 1646,
  "eu": 1647,
  "Ġvar": 1648,
  "Ġidea": 1649,
  "Ġbar": 1650,
  "Ġdemocratic": 1651,
  "cially": 1652,
  "Ġresources": 1653,
  "Ġprovide": 1654,
  "atives": 1655,
  "Ġhist": 1656,
  "ences": 1657,
  "Ġfreedom": 1658,
  "sequ": 1659,
  "Ġvoted": 1660,
  "Ġret": 1661,
  "ivers": 1662,
  "Ġregulation": 1663,
  "Ġpolicies": 1664,
  "Ġactiv": 1665,
  "Ġger": 1666,
  "ards": 1667,
  "Ġreform": 1668,
  "Ġshall": 1669,
  "Ġsumm": 1670,
  "Ġpat": 1671,
  "Ġoc": 1672,
  "with": 1673,
  "Ġappe": 1674,
  "Ġciv": 1675,
  "ending": 1676,
  "Ġsociety": 1677,
  "Ġcong": 1678,
  "ize": 1679,
  "Ġafric": 1680,
  "ners": 1681,
  "Ġrussia": 1682,
  "when": 1683,
  "ged": 1684,
  "Ġdiscuss": 1685,
  "Ġprinciple": 1686,
  "Ġconst": 1687,
  "bon": 1688,
  "aren": 1689,
  "Ġeduc": 1690,
  "mit": 1691,
  "Ġregul": 1692,
  "ither": 1693,
  "Ġclearly": 1694,
  "Ġaccess": 1695,
  "Ġincluding": 1696,
  "arant": 1697,
  "ime": 1698,
  "Ġsignific": 1699,
  "Ġfl": 1700,
  "Ġimportance": 1701,
  "Ġproposed": 1702,
  "Ġcolle": 1703,
  "Ġthird": 1704,
  "Ġconditions": 1705,
  "ield": 1706,
  "Ġcivil": 1707,
  "ined": 1708,
  "Ġconclu": 1709,
  "Ġaddress": 1710,
  "ib": 1711,
  "ased": 1712,
  "Ġtransport": 1713,
  "of": 1714,
  "Ġexpress": 1715,
  "arante": 1716,
  "do": 1717,
  "Ġair": 1718,
  "reng": 1719,
  "Ġold": 1720,
  "Ġresponsibility": 1721,
  "ising": 1722,
  "Ġintrodu": 1723,
  "ove": 1724,
  "af": 1725,
  "Ġprof": 1726,
  "Ġsingle": 1727,
  "arity": 1728,
  "Ġguarante": 1729,
  "Ġindivid": 1730,
  "Ġnegotiations": 1731,
  "Ġterror": 1732,
  "Ġclose": 1733,
  "oub": 1734,
  "Ġhome": 1735,
  "Ġwords": 1736,
  "Ġrisk": 1737,
  "pecially": 1738,
  "Ġstreng": 1739,
  "raph": 1740,
  "ars": 1741,
  "ordin": 1742,
  "Ġexpl": 1743,
  "Ġmom": 1744,
  "Ġsure": 1745,
  "idence": 1746,
  "Ġgreater": 1747,
  "Ġextreme": 1748,
  "Ġsci": 1749,
  "Ġmor": 1750,
  "Ġattention": 1751,
  "Ġenc": 1752,
  "ends": 1753,
  "ec": 1754,
  "where": 1755,
  "Ġemployment": 1756,
  "Ġtaking": 1757,
  "Ġcreate": 1758,
  "Ġrecent": 1759,
  "pl": 1760,
  "Ġaddition": 1761,
  "fortun": 1762,
  "000": 1763,
  "Ġlist": 1764,
  "iod": 1765,
  "mad": 1766,
  "Ġkeep": 1767,
  "Ġamong": 1768,
  "Ġespecially": 1769,
  "Ġnothing": 1770,
  "ger": 1771,
  "Ġpoints": 1772,
  "Ġindividual": 1773,
  "Ġpositive": 1774,
  "pend": 1775,
  "Ġfight": 1776,
  "Ġfull": 1777,
  "key": 1778,
  "Ġleaders": 1779,
  "Ġloc": 1780,
  "ov": 1781,
  "Ġpass": 1782,
  "Ġauthorities": 1783,
  "uge": 1784,
  "Ġmilit": 1785,
  "ool": 1786,
  "Ġsustain": 1787,
  "Ġcomb": 1788,
  "Ġcentral": 1789,
  "Ġprevent": 1790,
  "Ġsafety": 1791,
  "Ġenvironmental": 1792,
  "Ġsimply": 1793,
  "Ġvis": 1794,
  "ons": 1795,
  "Ġpast": 1796,
  "Ġefforts": 1797,
  "ident": 1798,
  "Ġfunds": 1799,
  "Ġrece": 1800,
  "Ġoper": 1801,
  "Ġhaving": 1802,
  "by": 1803,
  "Ġprocedure": 1804,
  "old": 1805,
  "Ġbased": 1806,
  "til": 1807,
  "'ll": 1808,
  "Ġpartners": 1809,
  "Ġfour": 1810,
  "haps": 1811,
  "Ġcalled": 1812,
  "Ġforce": 1813,
  "Ġbehalf": 1814,
  "Ġessential": 1815,
  "Ġlear": 1816,
  "Ġchar": 1817,
  "Ġru": 1818,
  "Ġtrue": 1819,
  "Ġbel": 1820,
  "Ġhead": 1821,
  "ale": 1822,
  "Ġinternal": 1823,
  "Ġann": 1824,
  "Ġspecific": 1825,
  "first": 1826,
  "Ġthought": 1827,
  "Ġquestions": 1828,
  "Ġinterests": 1829,
  "Ġleft": 1830,
  "used": 1831,
  "Ġneeded": 1832,
  "Ġnuclear": 1833,
  "Ġothers": 1834,
  "ized": 1835,
  "Ġwater": 1836,
  "Ġkey": 1837,
  "Ġproducts": 1838,
  "ata": 1839,
  "euro": 1840,
  "ng": 1841,
  "Ġamerica": 1842,
  "Ġsou": 1843,
  "ceed": 1844,
  "Ġdet": 1845,
  "ium": 1846,
  "Ġbank": 1847,
  "icial": 1848,
  "Ġdecl": 1849,
  "Ġincreasing": 1850,
  "Ġmarkets": 1851,
  "ering": 1852,
  "Ġcomplete": 1853,
  "Ġtimes": 1854,
  "Ġfoc": 1855,
  "Ġmind": 1856,
  "ark": 1857,
  "body": 1858,
  "Ġlonger": 1859,
  "Ġsolution": 1860,
  "Ġcertainly": 1861,
  "Ġclimate": 1862,
  "ond": 1863,
  "Ġsignificant": 1864,
  "Ġmis": 1865,
  "ization": 1866,
  "Ġconcerns": 1867,
  "Ġcompanies": 1868,
  "Ġsl": 1869,
  "go": 1870,
  "emp": 1871,
  "Ġturn": 1872,
  "Ġstat": 1873,
  "co": 1874,
  "Ġgovernments": 1875,
  "Ġpriv": 1876,
  "Ġfri": 1877,
  "Ġperiod": 1878,
  "ensive": 1879,
  "Ġinstru": 1880,
  "Ġparty": 1881,
  "Ġseen": 1882,
  "Ġmanage": 1883,
  "Ġisra": 1884,
  "Ġmoment": 1885,
  "ining": 1886,
  "Ġce": 1887,
  "Ġlive": 1888,
  "Ġgre": 1889,
  "irm": 1890,
  "Ġmakes": 1891,
  "Ġrun": 1892,
  "Ġappropri": 1893,
  "Ġever": 1894,
  "Ġname": 1895,
  "fortunately": 1896,
  "has": 1897,
  "ulate": 1898,
  "Ġmid": 1899,
  "europe": 1900,
  "madam": 1901,
  "Ġdeveloping": 1902,
  "erv": 1903,
  "Ġconstitution": 1904,
  "Ġanswer": 1905,
  "Ġmilitary": 1906,
  "Ġproper": 1907,
  "ug": 1908,
  "minist": 1909,
  "term": 1910,
  "Ġthemselves": 1911,
  "Ġmot": 1912,
  "Ġworkers": 1913,
  "Ġinvolved": 1914,
  "Ġcho": 1915,
  "Ġaffect": 1916,
  "Ġthreat": 1917,
  "Ġcred": 1918,
  "Ġcompetition": 1919,
  "icient": 1920,
  "Ġtext": 1921,
  "airs": 1922,
  "Ġbur": 1923,
  "Ġpen": 1924,
  "Ġeducation": 1925,
  "Ġz": 1926,
  "ank": 1927,
  "new": 1928,
  "Ġimpact": 1929,
  "Ġfarm": 1930,
  "Ġyoung": 1931,
  "vious": 1932,
  "Ġnon": 1933,
  "Ġwon": 1934,
  "Ġ10": 1935,
  "Ġseems": 1936,
  "Ġfield": 1937,
  "Ġlack": 1938,
  "Ġencoura": 1939,
  "Ġcomes": 1940,
  "cise": 1941,
  "ters": 1942,
  "Ġdata": 1943,
  "Ġturkey": 1944,
  "Ġconflic": 1945,
  "Ġcourt": 1946,
  "sid": 1947,
  "Ġfall": 1948,
  "Ġaway": 1949,
  "cies": 1950,
  "Ġarg": 1951,
  "Ġresol": 1952,
  "Ġcolleag": 1953,
  "Ġsense": 1954,
  "Ġtot": 1955,
  "Ġadminist": 1956,
  "Ġregional": 1957,
  "Ġaspect": 1958,
  "Ġextremely": 1959,
  "Ġbor": 1960,
  "Ġanim": 1961,
  "Ġaccord": 1962,
  "Ġenl": 1963,
  "Ġid": 1964,
  "Ġmajority": 1965,
  "Ġmonths": 1966,
  "Ġcongrat": 1967,
  "Ġfully": 1968,
  "Ġavail": 1969,
  "Ġnet": 1970,
  "Ġadopt": 1971,
  "Ġele": 1972,
  "Ġschool": 1973,
  "raq": 1974,
  "ived": 1975,
  "Ġtrad": 1976,
  "Ġvarious": 1977,
  "Ġgroups": 1978,
  "ication": 1979,
  "Ġentire": 1980,
  "ech": 1981,
  "Ġspecial": 1982,
  "Ġty": 1983,
  "rain": 1984,
  "Ġ6": 1985,
  "Ġinvestment": 1986,
  "Ġshare": 1987,
  "cent": 1988,
  "Ġcapital": 1989,
  "Ġthough": 1990,
  "ogue": 1991,
  "ggest": 1992,
  "Ġsuggest": 1993,
  "Ġfun": 1994,
  "Ġdial": 1995,
  "erg": 1996,
  "ians": 1997,
  "Ġocc": 1998,
  "Ġeverything": 1999,
  "Ġsoon": 2000,
  "Ġface": 2001,
  "Ġrule": 2002,
  "Ġregions": 2003,
  "side": 2004,
  "atic": 2005,
  "Ġasked": 2006,
  "Ġdecisions": 2007,
  "Ġiraq": 2008,
  "Ġmeeting": 2009,
  "Ġconsequ": 2010,
  "ilities": 2011,
  "Ġjobs": 2012,
  "Ġagend": 2013,
  "Ġcoh": 2014,
  "Ġstrengthen": 2015,
  "icle": 2016,
  "finally": 2017,
  "Ġcomprom": 2018,
  "cession": 2019,
  "arian": 2020,
  "Ġlang": 2021,
  "Ġer": 2022,
  "Ġhon": 2023,
  "omm": 2024,
  "Ġpot": 2025,
  "Ġdri": 2026,
  "Ġconte": 2027,
  "az": 2028,
  "lies": 2029,
  "Ġresults": 2030,
  "Ġcosts": 2031,
  "Ġopt": 2032,
  "Ġaffairs": 2033,
  "Ġpal": 2034,
  "str": 2035,
  "ert": 2036,
  "ended": 2037,
  "Ġemphas": 2038,
  "Ġindepend": 2039,
  "Ġdang": 2040,
  "apan": 2041,
  "veral": 2042,
  "cell": 2043,
  "member": 2044,
  "stead": 2045,
  "ators": 2046,
  "Ġstandards": 2047,
  "Ġlis": 2048,
  "ification": 2049,
  "Ġprogramm": 2050,
  "Ġbre": 2051,
  "Ġhold": 2052,
  "Ġagenda": 2053,
  "Ġquality": 2054,
  "iting": 2055,
  "istan": 2056,
  "Ġalmost": 2057,
  "Ġparticip": 2058,
  "Ġrequest": 2059,
  "Ġagricultural": 2060,
  "Ġtry": 2061,
  "Ġsubst": 2062,
  "den": 2063,
  "Ġfive": 2064,
  "ash": 2065,
  "Ġsystems": 2066,
  "Ġobjective": 2067,
  "Ġeur": 2068,
  "Ġbillion": 2069,
  "Ġdialogue": 2070,
  "Ġinitiative": 2071,
  "Ġindeed": 2072,
  "Ġdoub": 2073,
  "nov": 2074,
  "Ġreasons": 2075,
  "up": 2076,
  "Ġlisbon": 2077,
  "Ġquick": 2078,
  "Ġ201": 2079,
  "nect": 2080,
  "lev": 2081,
  "Ġmodel": 2082,
  "Ġcir": 2083,
  "Ġlangu": 2084,
  "Ġcame": 2085,
  "Ġstability": 2086,
  "Ġdraw": 2087,
  "just": 2088,
  "fully": 2089,
  "Ġpopulation": 2090,
  "Ġcoordin": 2091,
  "Ġuntil": 2092,
  "Ġgener": 2093,
  "Ġacross": 2094,
  "..": 2095,
  "ont": 2096,
  "Ġtas": 2097,
  "itor": 2098,
  "Ġwriting": 2099,
  "Ġcut": 2100,
  "Ġavailable": 2101,
  "Ġaware": 2102,
  "ify": 2103,
  "Ġproduction": 2104,
  "Ġafrica": 2105,
  "ried": 2106,
  "Ġtook": 2107,
  "ier": 2108,
  "some": 2109,
  "Ġinclu": 2110,
  "Ġdesign": 2111,
  "Ġsolid": 2112,
  "Ġident": 2113,
  "Ġweek": 2114,
  "Ġbrit": 2115,
  "Ġrom": 2116,
  "Ġwr": 2117,
  "Ġhear": 2118,
  "Ġori": 2119,
  "Ġlocal": 2120,
  "Ġlight": 2121,
  "argement": 2122,
  "Ġwent": 2123,
  "Ġgra": 2124,
  "Ġwa": 2125,
  "Ġvict": 2126,
  "Ġparties": 2127,
  "Ġdocu": 2128,
  "Ġapplic": 2129,
  "mor": 2130,
  "Ġassist": 2131,
  "ple": 2132,
  "Ġelse": 2133,
  "Ġcoming": 2134,
  "Ġharm": 2135,
  "Ġexc": 2136,
  "dle": 2137,
  "Ġamerican": 2138,
  "Ġagreements": 2139,
  "Ġfocus": 2140,
  "Ġcontext": 2141,
  "cri": 2142,
  "Ġamb": 2143,
  "Ġpric": 2144,
  "Ġfle": 2145,
  "Ġtalking": 2146,
  "Ġcirc": 2147,
  "Ġge": 2148,
  "ims": 2149,
  "Ġjud": 2150,
  "Ġmentioned": 2151,
  "inde": 2152,
  "edi": 2153,
  "Ġeast": 2154,
  "Ġcurrently": 2155,
  "Ġdom": 2156,
  "Ġrefer": 2157,
  "Ġobjectives": 2158,
  "aged": 2159,
  "line": 2160,
  "Ġpa": 2161,
  "Ġinnov": 2162,
  "Ġsummit": 2163,
  "Ġmult": 2164,
  "rict": 2165,
  "Ġant": 2166,
  "second": 2167,
  "Ġtechnology": 2168,
  "Ġcases": 2169,
  "Ġfollowing": 2170,
  "Ġline": 2171,
  "Ġperhaps": 2172,
  "Ġten": 2173,
  "Ġdemon": 2174,
  "Ġobs": 2175,
  "Ġassess": 2176,
  "ck": 2177,
  "Ġlat": 2178,
  "urn": 2179,
  "Ġseveral": 2180,
  "ury": 2181,
  "Ġbook": 2182,
  "Ġabsol": 2183,
  "orm": 2184,
  "utes": 2185,
  "imes": 2186,
  "Ġurg": 2187,
  "Ġjoint": 2188,
  "Ġeveryone": 2189,
  "Ġiran": 2190,
  "theless": 2191,
  "Ġliberal": 2192,
  "Ġapply": 2193,
  "Ġexcell": 2194,
  "Ġjustice": 2195,
  "ring": 2196,
  "Ġjapan": 2197,
  "Ġobvious": 2198,
  "Ġpost": 2199,
  "Ġwrong": 2200,
  "ires": 2201,
  "anced": 2202,
  "Ġbroad": 2203,
  "Ġenlargement": 2204,
  "ibility": 2205,
  "Ġconvention": 2206,
  "Ġwanted": 2207,
  "ush": 2208,
  "Ġfinal": 2209,
  "Ġhistory": 2210,
  "Ġabsolute": 2211,
  "Ġtarge": 2212,
  "eria": 2213,
  "iveness": 2214,
  "atory": 2215,
  "Ġtop": 2216,
  "Ġuk": 2217,
  "Ġcontain": 2218,
  "atch": 2219,
  "Ġdanger": 2220,
  "io": 2221,
  "ued": 2222,
  "aper": 2223,
  "Ġmatters": 2224,
  "Ġ7": 2225,
  "Ġresponsible": 2226,
  "Ġoil": 2227,
  "Ġnations": 2228,
  "rench": 2229,
  "Ġ8": 2230,
  "omet": 2231,
  "Ġconsumers": 2232,
  "Ġhalf": 2233,
  "imil": 2234,
  "Ġprogrammes": 2235,
  "Ġroad": 2236,
  "Ġmaintain": 2237,
  "istic": 2238,
  "off": 2239,
  "rast": 2240,
  "Ġdest": 2241,
  "sib": 2242,
  "Ġimplementation": 2243,
  "ane": 2244,
  "Ġsaying": 2245,
  "pris": 2246,
  "here": 2247,
  "'d": 2248,
  "Ġanything": 2249,
  "Ġconsumer": 2250,
  "Ġbad": 2251,
  "lf": 2252,
  "Ġmadam": 2253,
  "Ġchanges": 2254,
  "Ġappropriate": 2255,
  "Ġlow": 2256,
  "indeed": 2257,
  "Ġreject": 2258,
  "Ġconference": 2259,
  "Ġcompromise": 2260,
  "ises": 2261,
  "Ġtrying": 2262,
  "ession": 2263,
  "Ġfair": 2264,
  "Ġsix": 2265,
  "Ġheard": 2266,
  "Ġdeep": 2267,
  "Ġsat": 2268,
  "Ġcru": 2269,
  "Ġdays": 2270,
  "ledge": 2271,
  "Ġmet": 2272,
  "Ġve": 2273,
  "Ġlooking": 2274,
  "Ġexperience": 2275,
  "Ġside": 2276,
  "Ġdut": 2277,
  "Ġliving": 2278,
  "Ġmiddle": 2279,
  "oid": 2280,
  "Ġinstitution": 2281,
  "Ġprices": 2282,
  "Ġprep": 2283,
  "imilar": 2284,
  "Ġpack": 2285,
  "Ġrecomm": 2286,
  "Ġpoor": 2287,
  "Ġscient": 2288,
  "app": 2289,
  "Ġseem": 2290,
  "bour": 2291,
  "Ġsk": 2292,
  "Ġver": 2293,
  "Ġtest": 2294,
  "Ġconnect": 2295,
  "Ġresponse": 2296,
  "ps": 2297,
  "Ġprob": 2298,
  "well": 2299,
  "overty": 2300,
  "Ġstop": 2301,
  "Ġchalleng": 2302,
  "reg": 2303,
  "Ġisrael": 2304,
  "Ġenter": 2305,
  "ade": 2306,
  "Ġachieved": 2307,
  "Ġnature": 2308,
  "rought": 2309,
  "Ġexcellent": 2310,
  "Ġpalest": 2311,
  "pr": 2312,
  "Ġdeath": 2313,
  "Ġrate": 2314,
  "Ġmess": 2315,
  "Ġvalues": 2316,
  "Ġmanagement": 2317,
  "Ġyes": 2318,
  "20": 2319,
  "Ġguarantee": 2320,
  "Ġorigin": 2321,
  "ression": 2322,
  "Ġelections": 2323,
  "sh": 2324,
  "Ġprinciples": 2325,
  "Ġfisher": 2326,
  "Ġ9": 2327,
  "ban": 2328,
  "Ġstarted": 2329,
  "Ġoppos": 2330,
  "abled": 2331,
  "Ġcommitment": 2332,
  "Ġeither": 2333,
  "Ġprojects": 2334,
  "uel": 2335,
  "ening": 2336,
  "Ġremains": 2337,
  "Ġmass": 2338,
  "Ġgree": 2339,
  "Ġneigh": 2340,
  "mination": 2341,
  "Ġvalue": 2342,
  "Ġfig": 2343,
  "Ġourselves": 2344,
  "yes": 2345,
  "Ġterm": 2346,
  "Ġlink": 2347,
  "rect": 2348,
  "Ġintegration": 2349,
  "Ġsustainable": 2350,
  "Ġpoverty": 2351,
  "Ġprice": 2352,
  "pite": 2353,
  "Ġimmig": 2354,
  "Ġsubsid": 2355,
  "Ġfrench": 2356,
  "Ġusing": 2357,
  "Ġsuper": 2358,
  "Ġviolence": 2359,
  "why": 2360,
  "Ġarticle": 2361,
  "Ġdev": 2362,
  "isf": 2363,
  "Ġactivities": 2364,
  "Ġsolidarity": 2365,
  "Ġcongratulate": 2366,
  "Ġland": 2367,
  "Ġlos": 2368,
  "lied": 2369,
  "Ġhuge": 2370,
  "Ġlives": 2371,
  "Ġcamp": 2372,
  "Ġweak": 2373,
  "acy": 2374,
  "Ġdise": 2375,
  "Ġstrateg": 2376,
  "Ġprivate": 2377,
  "like": 2378,
  "sp": 2379,
  "Ġquickly": 2380,
  "Ġmus": 2381,
  "Ġdeter": 2382,
  "Ġreports": 2383,
  "Ġdidn": 2384,
  "chan": 2385,
  "uses": 2386,
  "Ġservice": 2387,
  "Ġpros": 2388,
  "Ġself": 2389,
  "ler": 2390,
  "Ġec": 2391,
  "Ġmonitor": 2392,
  "Ġpriority": 2393,
  "Ġalong": 2394,
  "Ġbenefit": 2395,
  "Ġgermany": 2396,
  "Ġsouth": 2397,
  "Ġdecided": 2398,
  "thod": 2399,
  "fer": 2400,
  "Ġmechan": 2401,
  "Ġupon": 2402,
  "Ġstress": 2403,
  "Ġ15": 2404,
  "Ġhappened": 2405,
  "Ġconcerning": 2406,
  "Ġfell": 2407,
  "Ġattack": 2408,
  "Ġconflict": 2409,
  "Ġine": 2410,
  "Ġunemp": 2411,
  "Ġdetail": 2412,
  "Ġexch": 2413,
  "Ġmen": 2414,
  "Ġsent": 2415,
  "Ġport": 2416,
  "Ġrecently": 2417,
  "Ġreduce": 2418,
  "arency": 2419,
  "therefore": 2420,
  "Ġreflect": 2421,
  "Ġdemonstr": 2422,
  "Ġfunding": 2423,
  "Ġtomor": 2424,
  "dem": 2425,
  "rupt": 2426,
  "Ġprobably": 2427,
  "aster": 2428,
  "Ġtomorrow": 2429,
  "Ġgl": 2430,
  "etary": 2431,
  "Ġplac": 2432,
  "Ġground": 2433,
  "Ġanal": 2434,
  "acc": 2435,
  "Ġdam": 2436,
  "Ġabove": 2437,
  "Ġconsequences": 2438,
  "Ġgoes": 2439,
  "Ġdraft": 2440,
  "Ġpurp": 2441,
  "Ġdel": 2442,
  "Ġsort": 2443,
  "ternal": 2444,
  "Ġofficial": 2445,
  "Ġdue": 2446,
  "Ġword": 2447,
  "Ġbecom": 2448,
  "Ġprovided": 2449,
  "Ġinflu": 2450,
  "Ġbi": 2451,
  "soci": 2452,
  "ured": 2453,
  "unch": 2454,
  "Ġtold": 2455,
  "vere": 2456,
  "erial": 2457,
  "hold": 2458,
  "bo": 2459,
  "Ġimmedi": 2460,
  "Ġfamily": 2461,
  "Ġdisp": 2462,
  "Ġincreased": 2463,
  "Ġital": 2464,
  "Ġdefin": 2465,
  "Ġpotential": 2466,
  "iation": 2467,
  "Ġdi": 2468,
  "Ġtransparency": 2469,
  "Ġbasic": 2470,
  "Ġbehind": 2471,
  "Ġred": 2472,
  "Ġemploy": 2473,
  "Ġbalance": 2474,
  "Ġgreen": 2475,
  "Ġatte": 2476,
  "Ġnatural": 2477,
  "Ġoblig": 2478,
  "Ġthinking": 2479,
  "ograph": 2480,
  "enge": 2481,
  "ruction": 2482,
  "secondly": 2483,
  "Ġbrought": 2484,
  "Ġmodern": 2485,
  "Ġrelig": 2486,
  "Ġalone": 2487,
  "lif": 2488,
  "Ġrequired": 2489,
  "Ġcause": 2490,
  "Ġfrance": 2491,
  "Ġinclude": 2492,
  "Ġcy": 2493,
  "moreover": 2494,
  "Ġways": 2495,
  "Ġdiscussion": 2496,
  "Ġcompletely": 2497,
  "cal": 2498,
  "Ġleave": 2499,
  "Ġpractice": 2500,
  "Ġagriculture": 2501,
  "Ġspeech": 2502,
  "Ġmethod": 2503,
  "Ġstructural": 2504,
  "Ġclos": 2505,
  "Ġprevious": 2506,
  "ination": 2507,
  "uff": 2508,
  "ired": 2509,
  "Ġpercent": 2510,
  "ah": 2511,
  "after": 2512,
  "Ġchallenge": 2513,
  "Ġreality": 2514,
  "though": 2515,
  "Ġrepe": 2516,
  "Ġoutside": 2517,
  "bec": 2518,
  "Ġpromote": 2519,
  "Ġcrucial": 2520,
  "Ġculture": 2521,
  "ometimes": 2522,
  "comm": 2523,
  "use": 2524,
  "iding": 2525,
  "Ġemerg": 2526,
  "Ġlater": 2527,
  "Ġterrorism": 2528,
  "Ġmonetary": 2529,
  "Ġthus": 2530,
  "Ġevent": 2531,
  "Ġaut": 2532,
  "Ġdoubt": 2533,
  "owers": 2534,
  "ively": 2535,
  "Ġavoid": 2536,
  "Ġchallenges": 2537,
  "mar": 2538,
  "forms": 2539,
  "Ġearly": 2540,
  "Ġdoll": 2541,
  "uly": 2542,
  "ins": 2543,
  "Ġlar": 2544,
  "Ġmovement": 2545,
  "Ġcross": 2546,
  "Ġexplain": 2547,
  "because": 2548,
  "tod": 2549,
  "Ġindic": 2550,
  "Ġsays": 2551,
  "Ġil": 2552,
  "today": 2553,
  "Ġhun": 2554,
  "Ġexternal": 2555,
  "Ġagreed": 2556,
  "Ġbri": 2557,
  "iversity": 2558,
  "ateral": 2559,
  "Ġbuilding": 2560,
  "Ġbit": 2561,
  "Ġhappy": 2562,
  "Ġhigher": 2563,
  "ension": 2564,
  "itarian": 2565,
  "Ġassoci": 2566,
  "Ġimpos": 2567,
  "Ġfear": 2568,
  "issions": 2569,
  "rug": 2570,
  "Ġindia": 2571,
  "Ġtask": 2572,
  "Ġill": 2573,
  "Ġstage": 2574,
  "Ġcontribution": 2575,
  "Ġcla": 2576,
  "Ġpurs": 2577,
  "Ġcultural": 2578,
  "ories": 2579,
  "Ġste": 2580,
  "Ġeffort": 2581,
  "Ġcarry": 2582,
  "Ġgetting": 2583,
  "Ġactions": 2584,
  "Ġroom": 2585,
  "Ġregarding": 2586,
  "tom": 2587,
  "erve": 2588,
  "Ġrecommend": 2589,
  "Ġheld": 2590,
  "imum": 2591,
  "Ġcommunication": 2592,
  "Ġpalestin": 2593,
  "Ġsound": 2594,
  "Ġden": 2595,
  "Ġtakes": 2596,
  "Ġcolleagues": 2597,
  "gest": 2598,
  "ron": 2599,
  "Ġreview": 2600,
  "iter": 2601,
  "Ġreturn": 2602,
  "ream": 2603,
  "lling": 2604,
  "Ġcrimin": 2605,
  "Ġlegislative": 2606,
  "Ġprecise": 2607,
  "Ġdirection": 2608,
  "wise": 2609,
  "Ġexact": 2610,
  "Ġpartnership": 2611,
  "Ġfarmers": 2612,
  "Ġdebt": 2613,
  "Ġvol": 2614,
  "Ġvoting": 2615,
  "Ġrap": 2616,
  "rial": 2617,
  "even": 2618,
  "Ġcand": 2619,
  "Ġhour": 2620,
  "Ġpleased": 2621,
  "Ġbeginning": 2622,
  "ctions": 2623,
  "Ġpressure": 2624,
  "Ġrad": 2625,
  "Ġsatisf": 2626,
  "Ġexcept": 2627,
  "Ġtechnical": 2628,
  "Ġcorrect": 2629,
  "Ġlanguage": 2630,
  "Ġstory": 2631,
  "Ġexisting": 2632,
  "Ġemb": 2633,
  "Ġforces": 2634,
  "while": 2635,
  "Ġteach": 2636,
  "Ġassistance": 2637,
  "Ġpaper": 2638,
  "Ġremember": 2639,
  "Ġlikely": 2640,
  "Ġaud": 2641,
  "inese": 2642,
  "Ġabsolutely": 2643,
  "arent": 2644,
  "bor": 2645,
  "ousand": 2646,
  "Ġregime": 2647,
  "ex": 2648,
  "Ġnorth": 2649,
  "Ġregulations": 2650,
  "ously": 2651,
  "terday": 2652,
  "ilateral": 2653,
  "Ġopportunities": 2654,
  "ior": 2655,
  "Ġconsult": 2656,
  "Ġlove": 2657,
  "Ġlabour": 2658,
  "Ġkill": 2659,
  "Ġasse": 2660,
  "Ġalthough": 2661,
  "Ġaccession": 2662,
  "Ġorganis": 2663,
  "ton": 2664,
  "Ġsan": 2665,
  "Ġstatement": 2666,
  "Ġdeveloped": 2667,
  "Ġlost": 2668,
  "Ġraised": 2669,
  "rad": 2670,
  "Ġbanks": 2671,
  "Ġideas": 2672,
  "Ġcoll": 2673,
  "Ġjun": 2674,
  "Ġsimilar": 2675,
  "encies": 2676,
  "Ġtotal": 2677,
  "Ġcreated": 2678,
  "Ġnear": 2679,
  "Ġcapac": 2680,
  "Ġcle": 2681,
  "Ġcreation": 2682,
  "Ġamount": 2683,
  "Ġequal": 2684,
  "ened": 2685,
  "Ġrat": 2686,
  "Ġthroughout": 2687,
  "Ġvital": 2688,
  "itional": 2689,
  "Ġrise": 2690,
  "Ġcurren": 2691,
  "Ġcohes": 2692,
  "lation": 2693,
  "Ġfinally": 2694,
  "Ġregards": 2695,
  "Ġaspects": 2696,
  "Ġsimple": 2697,
  "Ġpress": 2698,
  "Ġoffer": 2699,
  "ges": 2700,
  "Ġilleg": 2701,
  "Ġfis": 2702,
  "Ġsea": 2703,
  "can": 2704,
  "Ġflo": 2705,
  "Ġwaste": 2706,
  "office": 2707,
  "Ġtraff": 2708,
  "Ġreforms": 2709,
  "Ġrates": 2710,
  "Ġwonder": 2711,
  "Ġthousand": 2712,
  "Ġconfidence": 2713,
  "estern": 2714,
  "every": 2715,
  "Ġeffects": 2716,
  "Ġage": 2717,
  "yond": 2718,
  "Ġmist": 2719,
  "Ġreading": 2720,
  "Ġchinese": 2721,
  "Ġcandid": 2722,
  "Ġdrug": 2723,
  "Ġaltern": 2724,
  "rist": 2725,
  "Ġlevels": 2726,
  "Ġmedia": 2727,
  "verse": 2728,
  "Ġknowledge": 2729,
  "Ġunemployment": 2730,
  "Ġinstead": 2731,
  "Ġgrowing": 2732,
  "Ġflex": 2733,
  "Ġig": 2734,
  "Ġrich": 2735,
  "ging": 2736,
  "mitted": 2737,
  "lt": 2738,
  "Ġsuccessful": 2739,
  "rated": 2740,
  "Ġche": 2741,
  "Ġreached": 2742,
  "Ġcarried": 2743,
  "uing": 2744,
  "Ġcritic": 2745,
  "Ġlearn": 2746,
  "por": 2747,
  "ator": 2748,
  "pped": 2749,
  "Ġ30": 2750,
  "Ġprepared": 2751,
  "ially": 2752,
  "Ġdeli": 2753,
  "ished": 2754,
  "Ġcriteria": 2755,
  "Ġstudy": 2756,
  "Ġinterv": 2757,
  "Ġgain": 2758,
  "oot": 2759,
  "Ġeffici": 2760,
  "Ġinteresting": 2761,
  "Ġdiv": 2762,
  "Ġauthority": 2763,
  "Ġcohesion": 2764,
  "Ġcomplex": 2765,
  "Ġimag": 2766,
  "rop": 2767,
  "Ġindustrial": 2768,
  "aring": 2769,
  "Ġmyself": 2770,
  "Ġperspect": 2771,
  "Ġpowers": 2772,
  "Ġpresented": 2773,
  "lam": 2774,
  "Ġbritish": 2775,
  "pre": 2776,
  "Ġdoesn": 2777,
  "Ġharmon": 2778,
  "Ġcircum": 2779,
  "Ġprocedures": 2780,
  "Ġdim": 2781,
  "Ġvo": 2782,
  "Ġrequires": 2783,
  "Ġdocument": 2784,
  "Ġcal": 2785,
  "Ġexam": 2786,
  "Ġmaterial": 2787,
  "sels": 2788,
  "Ġswed": 2789,
  "Ġrelation": 2790,
  "ological": 2791,
  "Ġbenefits": 2792,
  "Ġpackage": 2793,
  "Ġbudgetary": 2794,
  "Ġ2000": 2795,
  "Ġeth": 2796,
  "Ġchance": 2797,
  "Ġtrust": 2798,
  "orders": 2799,
  "Ġrapid": 2800,
  "rate": 2801,
  "estic": 2802,
  "rely": 2803,
  "Ġbody": 2804,
  "Ġworth": 2805,
  "Ġwants": 2806,
  "Ġoffice": 2807,
  "Ġallowed": 2808,
  "rary": 2809,
  "jo": 2810,
  "Ġpersonal": 2811,
  "Ġexchange": 2812,
  "ha": 2813,
  "Ġtraffic": 2814,
  "Ġsometimes": 2815,
  "Ġeconomies": 2816,
  "Ġeasy": 2817,
  "ania": 2818,
  "Ġcompetit": 2819,
  "Ġaccording": 2820,
  "Ġrelationship": 2821,
  "Ġara": 2822,
  "Ġrespond": 2823,
  "Ġpriorities": 2824,
  "Ġstri": 2825,
  "Ġcod": 2826,
  "Ġwhose": 2827,
  "dom": 2828,
  "Ġpati": 2829,
  "don": 2830,
  "Ġ12": 2831,
  "Ġtraining": 2832,
  "know": 2833,
  "ats": 2834,
  "mption": 2835,
  "Ġwest": 2836,
  "duct": 2837,
  "Ġinternet": 2838,
  "Ġmill": 2839,
  "Ġmessage": 2840,
  "ix": 2841,
  "Ġbeyond": 2842,
  "Ġencourage": 2843,
  "Ġcapacity": 2844,
  "ored": 2845,
  "Ġknown": 2846,
  "Ġinstrument": 2847,
  "Ġwal": 2848,
  "?\"": 2849,
  "Ġ000": 2850,
  "Ġ50": 2851,
  "Ġbreak": 2852,
  "la": 2853,
  "Ġdead": 2854,
  "further": 2855,
  "Ġevents": 2856,
  "Ġaust": 2857,
  "Ġrural": 2858,
  "Ġsupported": 2859,
  "Ġgiving": 2860,
  "Ġwestern": 2861,
  "oph": 2862,
  "Ġsecret": 2863,
  "Ġcollect": 2864,
  "aff": 2865,
  "Ġcompany": 2866,
  "Ġparliamentary": 2867,
  "Ġfisheries": 2868,
  "Ġled": 2869,
  "Ġearth": 2870,
  "gen": 2871,
  "Ġsaw": 2872,
  "ĠâĢĺ": 2873,
  "cer": 2874,
  "Ġscientific": 2875,
  "Ġthanks": 2876,
  "Ġclass": 2877,
  "Ġhighlight": 2878,
  "Ġdepend": 2879,
  "Ġemissions": 2880,
  "Ġfunction": 2881,
  "Ġinnovation": 2882,
  "ource": 2883,
  "Ġvictims": 2884,
  "Ġprovisions": 2885,
  "Ġextra": 2886,
  "Ġrequirements": 2887,
  "action": 2888,
  "Ġnote": 2889,
  "Ġrepublic": 2890,
  "Ġ25": 2891,
  "Ġgrant": 2892,
  "Ġanimals": 2893,
  "thern": 2894,
  "Ġfellow": 2895,
  "Ġrecon": 2896,
  "Ġproduce": 2897,
  "Ġremind": 2898,
  "Ġsal": 2899,
  "Ġgave": 2900,
  "Ġexactly": 2901,
  "Ġpolice": 2902,
  "ourable": 2903,
  "Ġterrit": 2904,
  "Ġtreatment": 2905,
  "Ġfamil": 2906,
  "Ġreceived": 2907,
  "Ġfed": 2908,
  "Ġspace": 2909,
  "yet": 2910,
  "Ġtabled": 2911,
  "Ġpie": 2912,
  "Ġregret": 2913,
  "Ġgas": 2914,
  "Ġminutes": 2915,
  "Ġformer": 2916,
  "aut": 2917,
  "european": 2918,
  "Ġdece": 2919,
  "Ġintel": 2920,
  "Ġpoll": 2921,
  "Ġrenew": 2922,
  "sibilities": 2923,
  "ope": 2924,
  "Ġadvant": 2925,
  "fect": 2926,
  "round": 2927,
  "Ġlate": 2928,
  "rison": 2929,
  "Ġcrime": 2930,
  "Ġheart": 2931,
  "Ġsolutions": 2932,
  "Ġinstruments": 2933,
  "'.": 2934,
  "oke": 2935,
  "Ġborders": 2936,
  "head": 2937,
  "ked": 2938,
  "Ġ11": 2939,
  "Ġtemp": 2940,
  "Ġfront": 2941,
  "unfortunately": 2942,
  "ber": 2943,
  "Ġire": 2944,
  "Ġpolitics": 2945,
  "Ġyesterday": 2946,
  "Ġprime": 2947,
  "pres": 2948,
  "Ġcomput": 2949,
  "Ġcentury": 2950,
  "Ġinitiatives": 2951,
  "Ġweap": 2952,
  "reci": 2953,
  "Ġireland": 2954,
  "Ġcreating": 2955,
  "Ġpict": 2956,
  "Ġhistor": 2957,
  "Ġsubstant": 2958,
  "ote": 2959,
  "lier": 2960,
  "Ġshows": 2961,
  "Ġmonitoring": 2962,
  "icians": 2963,
  "Ġshown": 2964,
  "aign": 2965,
  "Ġprepar": 2966,
  "Ġcircumst": 2967,
  "nam": 2968,
  "val": 2969,
  "ghan": 2970,
  "Ġvir": 2971,
  "Ġneighbour": 2972,
  "Ġcop": 2973,
  "Ġrelev": 2974,
  "Ġdiscri": 2975,
  "Ġadministration": 2976,
  ".âĢĿ": 2977,
  "Ġgerman": 2978,
  "Ġadditional": 2979,
  "Ġexport": 2980,
  "Ġoccur": 2981,
  "iet": 2982,
  "Ġcampaign": 2983,
  "Ġlegit": 2984,
  "Ġsupply": 2985,
  "Ġmorning": 2986,
  "ca": 2987,
  "yl": 2988,
  "sec": 2989,
  "ades": 2990,
  "Ġundert": 2991,
  "Ġconclusion": 2992,
  "Ġindependent": 2993,
  "fr": 2994,
  "Ġconduct": 2995,
  "Ġwilling": 2996,
  "Ġsucceed": 2997,
  "Ġsens": 2998,
  "Ġparts": 2999,
  "Ġislam": 3000,
  "liance": 3001,
  "Ġexpressed": 3002,
  "thank": 3003,
  "Ġens": 3004,
  "Ġspir": 3005,
  "rastruct": 3006,
  "Ġconsist": 3007,
  "Ġcriminal": 3008,
  "Ġillegal": 3009,
  "Ġslow": 3010,
  "Ġdr": 3011,
  "Ġmedium": 3012,
  "gar": 3013,
  "Ġanalys": 3014,
  "Ġmeasure": 3015,
  "Ġwin": 3016,
  "Ġsepar": 3017,
  "Ġinfrastruct": 3018,
  "Ġargu": 3019,
  "Ġestablished": 3020,
  "Ġdecide": 3021,
  "firstly": 3022,
  "uine": 3023,
  "Ġstrategic": 3024,
  "Ġinfluence": 3025,
  "accept": 3026,
  "Ġconvin": 3027,
  "Ġpurpose": 3028,
  "verage": 3029,
  "Ġfishing": 3030,
  "Ġrecord": 3031,
  "Ġgoods": 3032,
  "Ġguid": 3033,
  "Ġnorm": 3034,
  "Ġseriously": 3035,
  "Ġbusinesses": 3036,
  "Ġdelay": 3037,
  "Ġcurrency": 3038,
  "Ġarab": 3039,
  "Ġtack": 3040,
  "ilit": 3041,
  "Ġasia": 3042,
  "Ġcircumstances": 3043,
  "Ġfirm": 3044,
  "Ġnight": 3045,
  "ots": 3046,
  "Ġdeg": 3047,
  "undred": 3048,
  "Ġrisks": 3049,
  "ude": 3050,
  "Ġcompetitiveness": 3051,
  "Ġmand": 3052,
  "Ġtool": 3053,
  "Ġcounter": 3054,
  "ounts": 3055,
  "Ġinvolve": 3056,
  "Ġincluded": 3057,
  "ses": 3058,
  "Ġking": 3059,
  "Ġspending": 3060,
  "Ġorganisations": 3061,
  "Ġwatch": 3062,
  "Ġunaccept": 3063,
  "last": 3064,
  "que": 3065,
  "Ġincome": 3066,
  "Ġextent": 3067,
  "Ġpractical": 3068,
  "Ġund": 3069,
  "Ġgenuine": 3070,
  "Ġfriends": 3071,
  "pol": 3072,
  "Ġrein": 3073,
  "Ġfiscal": 3074,
  "Ġdefic": 3075,
  "agraph": 3076,
  "Ġafghan": 3077,
  "Ġworked": 3078,
  "Ġlimited": 3079,
  "Ġones": 3080,
  "Ġincreasingly": 3081,
  "Ġpain": 3082,
  "ama": 3083,
  "ortion": 3084,
  "anish": 3085,
  "ilt": 3086,
  "Ġdescri": 3087,
  "Ġweeks": 3088,
  "Ġmal": 3089,
  "reh": 3090,
  "ureau": 3091,
  "Ġfriend": 3092,
  "Ġviews": 3093,
  "lin": 3094,
  "Ġdangerous": 3095,
  ").": 3096,
  "osov": 3097,
  "Ġappreci": 3098,
  "Ġimplemented": 3099,
  "Ġeffectively": 3100,
  "Ġactive": 3101,
  "Ġapplication": 3102,
  "pro": 3103,
  "Ġlimit": 3104,
  "furthermore": 3105,
  "Ġbul": 3106,
  "Ġmer": 3107,
  "Ġelection": 3108,
  "Ġanti": 3109,
  "bed": 3110,
  "Ġhighly": 3111,
  "rative": 3112,
  "Ġimmigration": 3113,
  "Ġcredit": 3114,
  "Ġunacceptable": 3115,
  "Ġmig": 3116,
  "Ġagency": 3117,
  "Ġprovides": 3118,
  "Ġcontent": 3119,
  "Ġreduction": 3120,
  "Ġministers": 3121,
  "Ġstay": 3122,
  "Ġconsidered": 3123,
  "itude": 3124,
  "ket": 3125,
  "entions": 3126,
  "na": 3127,
  "since": 3128,
  "Ġwarm": 3129,
  "Ġchanged": 3130,
  "Ġmotion": 3131,
  "Ġopposition": 3132,
  "umption": 3133,
  "alled": 3134,
  "Ġapplied": 3135,
  "ology": 3136,
  "Ġdisease": 3137,
  "dp": 3138,
  "never": 3139,
  "Ġbureau": 3140,
  "Ġevidence": 3141,
  "Ġinvestig": 3142,
  "Ġrestrict": 3143,
  "Ġconstruct": 3144,
  "Ġbrief": 3145,
  "ones": 3146,
  "Ġsen": 3147,
  "ster": 3148,
  "Ġpossibility": 3149,
  "Ġimpossible": 3150,
  "Ġoutcome": 3151,
  "ma": 3152,
  "Ġdespite": 3153,
  "Ġperform": 3154,
  "Ġcat": 3155,
  "Ġkosov": 3156,
  "force": 3157,
  "Ġdiscussions": 3158,
  "such": 3159,
  "ze": 3160,
  "imately": 3161,
  "Ġrelating": 3162,
  "iss": 3163,
  "Ġcou": 3164,
  "Ġgives": 3165,
  "Ġanyone": 3166,
  "Ġpaid": 3167,
  "Ġkid": 3168,
  "Ġkore": 3169,
  "Ġfailure": 3170,
  "Ġcommitted": 3171,
  "Ġinstitutional": 3172,
  "Ġexer": 3173,
  "Ġraise": 3174,
  "Ġnamely": 3175,
  "hood": 3176,
  "Ġwide": 3177,
  "Ġhundred": 3178,
  "Ġforget": 3179,
  "Ġefficiency": 3180,
  "Ġbrain": 3181,
  "Ġprecisely": 3182,
  "quate": 3183,
  "Ġcha": 3184,
  "Ġdeleg": 3185,
  "Ġoccas": 3186,
  "Ġperspective": 3187,
  "Ġdecember": 3188,
  "Ġperfect": 3189,
  "Ġassessment": 3190,
  "omp": 3191,
  "Ġfailed": 3192,
  "Ġtype": 3193,
  "Ġchoice": 3194,
  "Ġcity": 3195,
  "Ġuseful": 3196,
  "Ġcell": 3197,
  "Ġeastern": 3198,
  "ump": 3199,
  "Ġsectors": 3200,
  "parliament": 3201,
  "ria": 3202,
  "Ġenorm": 3203,
  "ivity": 3204,
  "lands": 3205,
  "Ġdomestic": 3206,
  "Ġplease": 3207,
  "any": 3208,
  "Ġsteps": 3209,
  "Ġ%": 3210,
  "Ġenable": 3211,
  "rest": 3212,
  "Ġaccepted": 3213,
  "Ġcoordination": 3214,
  "Ġunfortunately": 3215,
  "iction": 3216,
  "Ġdiscussed": 3217,
  "Ġrelevant": 3218,
  "Ġstatus": 3219,
  "cl": 3220,
  "Ġmut": 3221,
  "Ġ2007": 3222,
  "Ġbuy": 3223,
  "Ġforms": 3224,
  "Ġchec": 3225,
  "Ġchrist": 3226,
  "Ġaffected": 3227,
  "Ġhappens": 3228,
  "Ġactivity": 3229,
  "Ġmiss": 3230,
  "ature": 3231,
  "Ġcomments": 3232,
  "raine": 3233,
  "prises": 3234,
  "Ġeuropeans": 3235,
  "itable": 3236,
  "ann": 3237,
  "Ġparagraph": 3238,
  "Ġannual": 3239,
  "Ã©": 3240,
  "Ġproceed": 3241,
  "Ġtruth": 3242,
  "Ġplans": 3243,
  "med": 3244,
  "Ġhy": 3245,
  "mental": 3246,
  "Ġgir": 3247,
  "Ġspeaking": 3248,
  "Ġdirectly": 3249,
  "Ġcomment": 3250,
  "Ġcompreh": 3251,
  "Ġhappening": 3252,
  "set": 3253,
  "Ġcalls": 3254,
  "certain": 3255,
  "Ġhumanitarian": 3256,
  "Ġscope": 3257,
  "Ġearlier": 3258,
  "ira": 3259,
  "Ġmedic": 3260,
  "Ġdistribut": 3261,
  "lom": 3262,
  "ouble": 3263,
  "Ġclosely": 3264,
  "Ġgreece": 3265,
  "Ġnews": 3266,
  "ensus": 3267,
  "Ġcharact": 3268,
  "anu": 3269,
  "ustom": 3270,
  "Ġje": 3271,
  "cul": 3272,
  "Ġ18": 3273,
  "Ġdealing": 3274,
  "Ġanimal": 3275,
  "Ġkosovo": 3276,
  "Ġtour": 3277,
  "Ġseek": 3278,
  "Ġcontribute": 3279,
  "Ġign": 3280,
  "aging": 3281,
  "Ġinfrastructure": 3282,
  "Ġult": 3283,
  "Ġready": 3284,
  "Ġrepresentatives": 3285,
  "Ġlower": 3286,
  "Ġcaused": 3287,
  "Ġconnection": 3288,
  "lled": 3289,
  "ls": 3290,
  "Ġfinance": 3291,
  "Ġdeclar": 3292,
  "Ġalternative": 3293,
  "Ġalloc": 3294,
  "cle": 3295,
  "ume": 3296,
  "Ġclar": 3297,
  "govern": 3298,
  "Ġtable": 3299,
  "Ġcommer": 3300,
  "Ġoverall": 3301,
  "Ġpalestinian": 3302,
  "oint": 3303,
  "Ġconsiderable": 3304,
  "Ġreceive": 3305,
  "Ġcondem": 3306,
  "Ġhours": 3307,
  "ows": 3308,
  "Ġsad": 3309,
  "Ġconcent": 3310,
  "lying": 3311,
  "pping": 3312,
  "Ġarri": 3313,
  "Ġhor": 3314,
  "Ġconcept": 3315,
  "Ġworks": 3316,
  "Ġweapons": 3317,
  "Ġdate": 3318,
  "endit": 3319,
  "Ġrefuge": 3320,
  "Ġaimed": 3321,
  "Ġtried": 3322,
  "Ġcritical": 3323,
  "atever": 3324,
  "Ġqual": 3325,
  "Ġrelative": 3326,
  "Ġobviously": 3327,
  "will": 3328,
  "Ġwind": 3329,
  "Ġgoal": 3330,
  "Ġchair": 3331,
  "ussels": 3332,
  "Ġexplo": 3333,
  "Ġpret": 3334,
  "Ġunderstanding": 3335,
  "third": 3336,
  "omb": 3337,
  "Ġtyp": 3338,
  "overy": 3339,
  "Ġspirit": 3340,
  "Ġdifference": 3341,
  "Ġorganisation": 3342,
  "Ġrussian": 3343,
  "Ġdemands": 3344,
  "dra": 3345,
  "Ġdip": 3346,
  "Ġjune": 3347,
  "Ġunivers": 3348,
  "Ġbecame": 3349,
  "Ġguidel": 3350,
  "Ġbeaut": 3351,
  "Ġlaunch": 3352,
  "Ġ198": 3353,
  "Ġblack": 3354,
  "Ġability": 3355,
  "ik": 3356,
  "Ġenjo": 3357,
  "Ġborder": 3358,
  "Ġbecoming": 3359,
  "making": 3360,
  "Ġbod": 3361,
  "urally": 3362,
  "Ġeval": 3363,
  "Ġcloser": 3364,
  "Ġcover": 3365,
  "Ġ2008": 3366,
  "Ġleading": 3367,
  "Ġsurv": 3368,
  "oh": 3369,
  "itious": 3370,
  "Ġstru": 3371,
  "Ġrail": 3372,
  "Ġlooks": 3373,
  "works": 3374,
  "Ġconstitutional": 3375,
  "Ġbra": 3376,
  "Ġsud": 3377,
  "ift": 3378,
  "Ġmarch": 3379,
  "Ġthousands": 3380,
  "Ġitem": 3381,
  "Ġrepl": 3382,
  "...": 3383,
  "Ġconvinced": 3384,
  "Ġsun": 3385,
  "Ġworse": 3386,
  "Ġconfirm": 3387,
  "Ġpenal": 3388,
  "Ġuni": 3389,
  "Ġreferen": 3390,
  "Ġstandard": 3391,
  "Ġauthor": 3392,
  "Ġimproved": 3393,
  "Ġscience": 3394,
  "aced": 3395,
  "Ġconsensus": 3396,
  "Ġbehav": 3397,
  "cup": 3398,
  "Ġasking": 3399,
  "Ġspeed": 3400,
  "Ġsend": 3401,
  "Ġdamage": 3402,
  "Ġfoot": 3403,
  "Ġreference": 3404,
  "Ġfacing": 3405,
  "those": 3406,
  "Ġknows": 3407,
  "Ġdifficulties": 3408,
  "Ġadministrative": 3409,
  "dam": 3410,
  "lant": 3411,
  "arily": 3412,
  "Ġgone": 3413,
  "agn": 3414,
  "Ġpoliticians": 3415,
  "fact": 3416,
  "Ġpath": 3417,
  "Ġprison": 3418,
  "Ġobtain": 3419,
  "Ġtravel": 3420,
  "Ġlaws": 3421,
  "Ġenglish": 3422,
  "Ġdiplom": 3423,
  "rane": 3424,
  "Ġdefence": 3425,
  "president": 3426,
  "rants": 3427,
  "Ġfre": 3428,
  "olid": 3429,
  "Ġspent": 3430,
  "Ġ$": 3431,
  "Ġsil": 3432,
  "Ġadap": 3433,
  "Ġtechnologies": 3434,
  "Ġhop": 3435,
  "oking": 3436,
  "Ġdifferences": 3437,
  "Ġprofession": 3438,
  "Ġhung": 3439,
  "Ġcharacter": 3440,
  "Ġship": 3441,
  "ording": 3442,
  "ev": 3443,
  "Ġcompl": 3444,
  "Ġukraine": 3445,
  "Ġenterprises": 3446,
  "Ġslo": 3447,
  "Ġmother": 3448,
  "please": 3449,
  "Ġapproved": 3450,
  "Ġ100": 3451,
  "Ġnegative": 3452,
  "erves": 3453,
  "anuary": 3454,
  "Ġahead": 3455,
  "Ġappear": 3456,
  "Ġdiscrimination": 3457,
  "only": 3458,
  "Ġdevelopments": 3459,
  "Ġgovernance": 3460,
  "Ġ2009": 3461,
  "Ġenormous": 3462,
  "isms": 3463,
  "under": 3464,
  "Ġafghanistan": 3465,
  "his": 3466,
  "Ġrightly": 3467,
  "Ġblo": 3468,
  "Ġfuel": 3469,
  "Ġjanuary": 3470,
  "akistan": 3471,
  "Ġproduced": 3472,
  "Ġsitting": 3473,
  "Ġbush": 3474,
  "Ġwhite": 3475,
  "Ġcontrary": 3476,
  "Ġfinancing": 3477,
  "Ġleadership": 3478,
  "Ġreligious": 3479,
  "Ġcontract": 3480,
  "Ġconstant": 3481,
  "Ġportug": 3482,
  "Ġsex": 3483,
  "Ġreduced": 3484,
  "Ġsafe": 3485,
  "according": 3486,
  "nevertheless": 3487,
  "urance": 3488,
  "Ġmoving": 3489,
  "Ġduty": 3490,
  "Ġlu": 3491,
  "although": 3492,
  "Ġconclude": 3493,
  "Ġhar": 3494,
  "Ġproviding": 3495,
  "Ġphys": 3496,
  "Ġsuperv": 3497,
  "Ġdollars": 3498,
  "Ġlog": 3499,
  "imin": 3500,
  "Ġarr": 3501,
  "Ġbrussels": 3502,
  "Ġguidelines": 3503,
  "Ġannoun": 3504,
  "Ġjour": 3505,
  "Ġboard": 3506,
  "Ġfulf": 3507,
  "Ġrevolution": 3508,
  "zed": 3509,
  "Ġefficient": 3510,
  "Ġputting": 3511,
  "Ġrepresents": 3512,
  "Ġpicture": 3513,
  "ylum": 3514,
  "ufact": 3515,
  "Ġbat": 3516,
  "Ġade": 3517,
  "vert": 3518,
  "Ġurgent": 3519,
  "Ġplaces": 3520,
  "Ġensuring": 3521,
  "Ġprovision": 3522,
  "ya": 3523,
  "Ġwto": 3524,
  "Ġminimum": 3525,
  "Ġconclusions": 3526,
  "Ġbodies": 3527,
  "Ġwall": 3528,
  "Ġambitious": 3529,
  "Ġround": 3530,
  "Ġconsideration": 3531,
  "Ġ40": 3532,
  "Ġhonourable": 3533,
  "ta": 3534,
  "Ġentirely": 3535,
  "Ġrob": 3536,
  "Ġadoption": 3537,
  "ye": 3538,
  "Ġfil": 3539,
  "Ġeat": 3540,
  "Ġimproving": 3541,
  "Ġnetwork": 3542,
  "Ġexpected": 3543,
  "Ġcustom": 3544,
  "Ġ14": 3545,
  "Ġsufficient": 3546,
  "Ġclaim": 3547,
  "cers": 3548,
  "ames": 3549,
  "Ġcomprehensive": 3550,
  "Ġobst": 3551,
  "aries": 3552,
  "Ġasylum": 3553,
  "vereign": 3554,
  "iterrane": 3555,
  "reet": 3556,
  "egu": 3557,
  "iterranean": 3558,
  "Ġexpendit": 3559,
  "Ġspread": 3560,
  "Ġturned": 3561,
  "Ġstructure": 3562,
  "Ġafrican": 3563,
  "Ġpred": 3564,
  "Ġbegan": 3565,
  "Ġsha": 3566,
  "Ġpush": 3567,
  "Ġfather": 3568,
  "Ġsep": 3569,
  "tember": 3570,
  "Ġinterested": 3571,
  "Ġbudge": 3572,
  "Ġcompetitive": 3573,
  "mes": 3574,
  "wide": 3575,
  "Ġmanufact": 3576,
  "Ġvoice": 3577,
  "Ġanalysis": 3578,
  "Ġspain": 3579,
  "istics": 3580,
  "des": 3581,
  "Ġbuilt": 3582,
  "Ġequality": 3583,
  "Ġtotally": 3584,
  "Ġparticipation": 3585,
  "Ġheav": 3586,
  "Ġ13": 3587,
  "erent": 3588,
  "Ġton": 3589,
  "Ġhands": 3590,
  "Ġprospect": 3591,
  "Ġsomeone": 3592,
  "Ġsafegu": 3593,
  "Ġcolleague": 3594,
  "Ġsovereign": 3595,
  "Ġirish": 3596,
  "Ġindependence": 3597,
  "Ġimmediately": 3598,
  "Ġitaly": 3599,
  "elt": 3600,
  "Ġdecades": 3601,
  "Ġpakistan": 3602,
  "izing": 3603,
  "Ġcorrupt": 3604,
  "Ġcombat": 3605,
  "Ġproperly": 3606,
  "Ġtre": 3607,
  "Ġcooper": 3608,
  "oman": 3609,
  "Ġcommitments": 3610,
  "Ġ2010": 3611,
  "Ġcandidate": 3612,
  "Ġtalks": 3613,
  "coming": 3614,
  "Ġtun": 3615,
  "Ġdemocrats": 3616,
  "Ġstaff": 3617,
  "ender": 3618,
  "Ġpropose": 3619,
  "Ġforest": 3620,
  "Ġattempt": 3621,
  "Ġnice": 3622,
  "Ġscale": 3623,
  "anim": 3624,
  "Ġstated": 3625,
  "Ġgoals": 3626,
  "Ġinflation": 3627,
  "Ġbear": 3628,
  "Ġseptember": 3629,
  "200": 3630,
  "Ġurge": 3631,
  "Ġintervention": 3632,
  "Ġadvantage": 3633,
  "Ġacknow": 3634,
  "icles": 3635,
  "Ġgdp": 3636,
  "ival": 3637,
  "Ġ2004": 3638,
  "Ġfigure": 3639,
  "Ã¶": 3640,
  "Ġaverage": 3641,
  "Ġpact": 3642,
  "urd": 3643,
  "Ġlay": 3644,
  ",\"": 3645,
  "Ġsources": 3646,
  "Ġteam": 3647,
  "Ġnone": 3648,
  "Ġapplies": 3649,
  "Ġaccomp": 3650,
  "Ġcra": 3651,
  "ocol": 3652,
  "Ġspend": 3653,
  "Ġstreet": 3654,
  "Ġlooked": 3655,
  "Ġsimplif": 3656,
  "Ġplanet": 3657,
  "Ġveh": 3658,
  "Ġlose": 3659,
  "luded": 3660,
  "Ġsupposed": 3661,
  "ught": 3662,
  "Ġmach": 3663,
  "entially": 3664,
  "Ġconserv": 3665,
  "Ġdisaster": 3666,
  "Ġsolve": 3667,
  "Ġoccup": 3668,
  "Ġburden": 3669,
  "Ġelements": 3670,
  "Ġstarting": 3671,
  "Ġcomplain": 3672,
  "yed": 3673,
  "ented": 3674,
  "Ġwhom": 3675,
  "Ġstrongly": 3676,
  "Ġgeor": 3677,
  "Ġreferred": 3678,
  "from": 3679,
  "Ġhit": 3680,
  "Ġexception": 3681,
  "Ġimagine": 3682,
  "Ġnation": 3683,
  "Ġreact": 3684,
  "Ġsus": 3685,
  "Ġrecovery": 3686,
  "sc": 3687,
  "Ġdoct": 3688,
  "Ġadded": 3689,
  "uck": 3690,
  "Ġpiece": 3691,
  "ene": 3692,
  "Ġunf": 3693,
  "Ġquot": 3694,
  "Ġcompens": 3695,
  "econom": 3696,
  "Ġexcess": 3697,
  "Ġlea": 3698,
  "Ġeverybody": 3699,
  "xic": 3700,
  "Ġpra": 3701,
  "Ġinh": 3702,
  "Ġmaybe": 3703,
  "Ġmerely": 3704,
  "Ġintended": 3705,
  "Ġfeed": 3706,
  "irms": 3707,
  "âĢĵ": 3708,
  "Ġbalanced": 3709,
  "Ġdiscussing": 3710,
  "unt": 3711,
  "Ġcalling": 3712,
  "Ġturk": 3713,
  "Ġappears": 3714,
  "Ġeight": 3715,
  "ills": 3716,
  "Ġmanaged": 3717,
  "Ġsupporting": 3718,
  "Ġdrawn": 3719,
  "Ġkingdom": 3720,
  "put": 3721,
  "Ġsource": 3722,
  "Ġfacilit": 3723,
  "Ġintroduced": 3724,
  "Ġmechanism": 3725,
  "Ġcommercial": 3726,
  "Ġwealth": 3727,
  "Ġreducing": 3728,
  "Ġstudents": 3729,
  "atically": 3730,
  "Ġenh": 3731,
  "Ġelected": 3732,
  "ork": 3733,
  "els": 3734,
  "arents": 3735,
  "called": 3736,
  "Ġacceptable": 3737,
  "rete": 3738,
  "Ġbir": 3739,
  "Ġwithdra": 3740,
  "Ġreferend": 3741,
  "idents": 3742,
  "aught": 3743,
  "Ġfloor": 3744,
  "sy": 3745,
  "Ġstock": 3746,
  "augh": 3747,
  "Ġincent": 3748,
  "Ġlargest": 3749,
  "Ġfast": 3750,
  "Ġintroduction": 3751,
  "Ġdict": 3752,
  "Ġforced": 3753,
  "Ġmembership": 3754,
  "Ġtargets": 3755,
  "instead": 3756,
  "iful": 3757,
  "Ġopening": 3758,
  "ocks": 3759,
  "Ġappeal": 3760,
  "Ġtruly": 3761,
  "Ġexplan": 3762,
  "Ġarrange": 3763,
  "Ġbudgets": 3764,
  "eli": 3765,
  "Ġhost": 3766,
  "Ġtransfer": 3767,
  "border": 3768,
  "Ġvisit": 3769,
  "Ġcro": 3770,
  "using": 3771,
  "Ġacqu": 3772,
  "people": 3773,
  "Ġaims": 3774,
  "Ġought": 3775,
  "Ġsold": 3776,
  "Ġsetting": 3777,
  "Ġpowerful": 3778,
  "lines": 3779,
  "Ġcr": 3780,
  "Ġfollowed": 3781,
  "Ġsanctions": 3782,
  "Ġ2005": 3783,
  "Ġsides": 3784,
  "itation": 3785,
  "ulated": 3786,
  "Ġsurpris": 3787,
  "Ġpet": 3788,
  "Ġnormal": 3789,
  "based": 3790,
  "Ġunable": 3791,
  "int": 3792,
  "enced": 3793,
  "Ġsuffering": 3794,
  "Ġaccordance": 3795,
  "Ġdimension": 3796,
  "oon": 3797,
  "Ġconcrete": 3798,
  "Ġproducers": 3799,
  "Ġcontinues": 3800,
  "Ġpub": 3801,
  "Ġtransparent": 3802,
  "Ġaddressed": 3803,
  "Ġincor": 3804,
  "Ġgreatest": 3805,
  "Ġclean": 3806,
  "Ġmeant": 3807,
  "Ġintroduce": 3808,
  "lus": 3809,
  "Ġda": 3810,
  "Ġdoor": 3811,
  "Ġresponsibilities": 3812,
  "Ġbureauc": 3813,
  "year": 3814,
  "Ġconsumption": 3815,
  "Ġachieving": 3816,
  "Ġmainly": 3817,
  "Ġnato": 3818,
  "Ġexpenditure": 3819,
  "Ã¡": 3820,
  "Ġwoman": 3821,
  "Ġnetworks": 3822,
  "Ġfamilies": 3823,
  "uations": 3824,
  "Ġchem": 3825,
  "Ġwhatever": 3826,
  "Ġspecifically": 3827,
  "Ġdetermin": 3828,
  "right": 3829,
  "Ġord": 3830,
  "Ġdestro": 3831,
  "rep": 3832,
  "Ġseven": 3833,
  "Ġvul": 3834,
  "Ġagencies": 3835,
  "Ġlines": 3836,
  "Ġreply": 3837,
  "Ġprefer": 3838,
  "gypt": 3839,
  "commission": 3840,
  "Ġcomputer": 3841,
  "Ġkorea": 3842,
  "respon": 3843,
  "Ġunanim": 3844,
  "Ġmanner": 3845,
  "Ġinside": 3846,
  "Ġemphasise": 3847,
  "Ġdrugs": 3848,
  "Ġdegree": 3849,
  "bs": 3850,
  "Ġadjust": 3851,
  "Ġfraud": 3852,
  "Ġofficials": 3853,
  "ij": 3854,
  "Ġstra": 3855,
  "Ġworry": 3856,
  "Ġcommunic": 3857,
  "Ġopposed": 3858,
  "Ġflexibility": 3859,
  "Ġeyes": 3860,
  "ees": 3861,
  "Ġvision": 3862,
  "Ġdog": 3863,
  "Ġneither": 3864,
  "mas": 3865,
  "Ġspecies": 3866,
  "Ġgradu": 3867,
  "Ġfif": 3868,
  "Ġgame": 3869,
  "Ġlies": 3870,
  "Ġmob": 3871,
  "Ġobser": 3872,
  "Ġpublish": 3873,
  "Ġfelt": 3874,
  "Ġrepresentative": 3875,
  "Ġshared": 3876,
  "Ġcontact": 3877,
  "Ġpromoting": 3878,
  "Ġoct": 3879,
  "Ġbot": 3880,
  "Ġletter": 3881,
  "Ġdream": 3882,
  "Ġperman": 3883,
  "Ġromania": 3884,
  "Ġvulner": 3885,
  "Ġcompar": 3886,
  "Ġcomplic": 3887,
  "Ġcarefully": 3888,
  "Ġpretty": 3889,
  "Ġpun": 3890,
  "vember": 3891,
  "Ġplaying": 3892,
  "Ġactual": 3893,
  "Ġotherwise": 3894,
  "Ġhimself": 3895,
  "Ġcauses": 3896,
  "Ġdeclaration": 3897,
  "Ġcontinent": 3898,
  "Ġbeautiful": 3899,
  "orry": 3900,
  "Ġ2006": 3901,
  "Ġwait": 3902,
  "Ġforth": 3903,
  "Ġsecure": 3904,
  "),": 3905,
  "zy": 3906,
  "Ġrele": 3907,
  "Ġcold": 3908,
  "Ġtransform": 3909,
  "Ġcontains": 3910,
  "Ġmethods": 3911,
  "fe": 3912,
  "Ġdy": 3913,
  "Ġfactor": 3914,
  "Ġmillions": 3915,
  "Ġmediterranean": 3916,
  "Ġfigures": 3917,
  "abil": 3918,
  "Ġnovember": 3919,
  "Ġimmediate": 3920,
  "Ġdelegation": 3921,
  "50": 3922,
  "enty": 3923,
  "Ġ16": 3924,
  "Ġsize": 3925,
  "sized": 3926,
  "who": 3927,
  "Ġattemp": 3928,
  "roso": 3929,
  "Ġdisapp": 3930,
  "Ġconstructive": 3931,
  "lantic": 3932,
  "economic": 3933,
  "Ġparents": 3934,
  "Ġregular": 3935,
  "Ġmeaning": 3936,
  "Ġdesigned": 3937,
  "Ġinformed": 3938,
  "Ġamericans": 3939,
  "Ġcancer": 3940,
  "ourage": 3941,
  "Ġrunning": 3942,
  "Ġrejected": 3943,
  "Ġprosper": 3944,
  "Ġsubstantial": 3945,
  "Ġexercise": 3946,
  "aw": 3947,
  "Ġtend": 3948,
  "Ġelement": 3949,
  "Ġintegrated": 3950,
  "Ġbelg": 3951,
  "Ġdocuments": 3952,
  "ops": 3953,
  "Ġdefend": 3954,
  "Ġii": 3955,
  "Ġwelcom": 3956,
  "ateful": 3957,
  "Ġleader": 3958,
  "Ġafford": 3959,
  "Ġstrict": 3960,
  "ulations": 3961,
  "Ġelectric": 3962,
  "Ġinstance": 3963,
  "Ġrecognition": 3964,
  "Ġstim": 3965,
  "Ġprevention": 3966,
  "perhaps": 3967,
  "Ġber": 3968,
  "urs": 3969,
  "Ġtele": 3970,
  "Ġgod": 3971,
  "Ġspanish": 3972,
  "Ġrepeat": 3973,
  "may": 3974,
  "nes": 3975,
  "Ġcharter": 3976,
  "Ġder": 3977,
  "rel": 3978,
  "another": 3979,
  "ateg": 3980,
  "Ġexec": 3981,
  "mrs": 3982,
  "Ġcommunities": 3983,
  "Ġimprovement": 3984,
  "Ġaudit": 3985,
  "tic": 3986,
  "viet": 3987,
  "Ġsupports": 3988,
  "Ġserve": 3989,
  "Ġvirt": 3990,
  "Ġreferendum": 3991,
  "ery": 3992,
  "Ġparliaments": 3993,
  "Ġdesire": 3994,
  "Ġmoral": 3995,
  "Ġsensitive": 3996,
  "Ġtren": 3997,
  "Ġwid": 3998,
  "stood": 3999,
  "ober": 4000,
  "Ġkept": 4001,
  "Ġinsist": 4002,
  "Ġfaced": 4003,
  "Ġlimits": 4004,
  "Ġresolve": 4005,
  "Ġtraditional": 4006,
  "Ġlargely": 4007,
  "Ġtouch": 4008,
  "Ġhom": 4009,
  "Ġdisch": 4010,
  "Ġ17": 4011,
  "Ġsubsidies": 4012,
  "Ġdeliver": 4013,
  "Ġcouple": 4014,
  "commissioner": 4015,
  "Ġdealt": 4016,
  "Ġmechanisms": 4017,
  "Ġintention": 4018,
  "Ġsav": 4019,
  "Ġ2003": 4020,
  "Ġcars": 4021,
  "Ġcombating": 4022,
  "Ġstrugg": 4023,
  "Ġturkish": 4024,
  "Ġyork": 4025,
  "Ġinvestments": 4026,
  "Ġstructures": 4027,
  "governmental": 4028,
  "Ġresist": 4029,
  "Ġrelated": 4030,
  "Ġ2001": 4031,
  "ratic": 4032,
  "Ġengine": 4033,
  "Ġrecognise": 4034,
  "Ġglad": 4035,
  "Ġoctober": 4036,
  "mark": 4037,
  "Ġstuff": 4038,
  "agen": 4039,
  "Ġwishes": 4040,
  "Ġhot": 4041,
  "Ġarms": 4042,
  "Ġimplementing": 4043,
  "zone": 4044,
  "Ġegypt": 4045,
  "Ġpointed": 4046,
  "Ġprim": 4047,
  "going": 4048,
  "Ġtarget": 4049,
  "Ġobstac": 4050,
  "matic": 4051,
  "Ġpoland": 4052,
  "Ġexports": 4053,
  "Ġseeing": 4054,
  "Ġcontinuing": 4055,
  "Ġattacks": 4056,
  "Ġep": 4057,
  "Ġfactors": 4058,
  "Ġlearned": 4059,
  "Ġwaiting": 4060,
  "Ġchamber": 4061,
  "Ġobama": 4062,
  "Ġrefugees": 4063,
  "enh": 4064,
  "Ġdiversity": 4065,
  "Ġexamples": 4066,
  "Ġsafeguard": 4067,
  "Ġyourself": 4068,
  "Ġcontinued": 4069,
  "Ġsigned": 4070,
  "Ġindividuals": 4071,
  "Ġisraeli": 4072,
  "Ġplayed": 4073,
  "road": 4074,
  "Ġprotocol": 4075,
  "Ġlabor": 4076,
  "Ġpasseng": 4077,
  "illed": 4078,
  "Ġeasier": 4079,
  "Ġpan": 4080,
  "Ġstake": 4081,
  "Ġpositions": 4082,
  "Ġpractices": 4083,
  "Ġ1999": 4084,
  "Ġitalian": 4085,
  "Ġtourism": 4086,
  "orary": 4087,
  "Ġrapporteurs": 4088,
  "Ġcredibility": 4089,
  "Ġcoal": 4090,
  "Ġgrateful": 4091,
  "Ġautom": 4092,
  "mos": 4093,
  "Ġarrest": 4094,
  "Ġbringing": 4095,
  "Ġintellig": 4096,
  "Ġdeficit": 4097,
  "Ġcorruption": 4098,
  "Ġdynam": 4099,
  "Ġcateg": 4100,
  "Ġlaid": 4101,
  "Ġattract": 4102,
  "Ġgreek": 4103,
  "Ġemerging": 4104,
  "inary": 4105,
  "Ġseries": 4106,
  "Ġbasically": 4107,
  "Ġstrength": 4108,
  "Ġhonest": 4109,
  "Ġdefinition": 4110,
  "ladies": 4111,
  "sibly": 4112,
  "nic": 4113,
  "Ġbon": 4114,
  "tedly": 4115,
  "Ġ2002": 4116,
  "Ġextend": 4117,
  "Ġsett": 4118,
  "itch": 4119,
  "ables": 4120,
  "Ġspeakers": 4121,
  "Ġmutual": 4122,
  "fare": 4123,
  "iny": 4124,
  "Ġpill": 4125,
  "Ġsymb": 4126,
  "Ġfederal": 4127,
  "rs": 4128,
  "Ġtro": 4129,
  "cont": 4130,
  "Ġsave": 4131,
  "Ġfeeling": 4132,
  "Ġmusl": 4133,
  "Ġsweden": 4134,
  "Ġcities": 4135,
  "ana": 4136,
  "Ġconver": 4137,
  "Ġ21": 4138,
  "standing": 4139,
  "Ġpayments": 4140,
  "Ġsubsidi": 4141,
  "aken": 4142,
  "Ġoperation": 4143,
  "Ġwritten": 4144,
  "inding": 4145,
  "Ġnorthern": 4146,
  "Ġkinds": 4147,
  "Ġadvoc": 4148,
  "Ġengage": 4149,
  "Ġbarri": 4150,
  "Ġoriginal": 4151,
  "Ġincludes": 4152,
  "Ġpopular": 4153,
  "Ġresolutions": 4154,
  "Ġrecommendations": 4155,
  "Ġassemb": 4156,
  "Ġdrink": 4157,
  "Ġmandate": 4158,
  "Ġterri": 4159,
  "Ġmax": 4160,
  "Ġstrengthening": 4161,
  "arks": 4162,
  "Ġattitude": 4163,
  "Ġmassive": 4164,
  "Ġmusic": 4165,
  "tw": 4166,
  "Ġpartner": 4167,
  "Ġstatements": 4168,
  "Ġhelped": 4169,
  "Ġpassed": 4170,
  "bit": 4171,
  "Ġelimin": 4172,
  "Ġoption": 4173,
  "Ġbecomes": 4174,
  "Ġfine": 4175,
  "Ġrange": 4176,
  "Ġky": 4177,
  "Ġconsultation": 4178,
  "Ġkids": 4179,
  "iers": 4180,
  "Ġmeps": 4181,
  "Ġunderstood": 4182,
  "sequently": 4183,
  "%.": 4184,
  "Ġbase": 4185,
  "Ġhous": 4186,
  "Ġtaxes": 4187,
  "thirdly": 4188,
  "Ġadequate": 4189,
  "thus": 4190,
  "Ġ2020": 4191,
  "Ġmission": 4192,
  "lection": 4193,
  "Ġsoviet": 4194,
  "Ġgeneration": 4195,
  "Ġminority": 4196,
  "Ġloss": 4197,
  "Ġsymbol": 4198,
  "Ġvotes": 4199,
  "vered": 4200,
  "prise": 4201,
  "Ġcode": 4202,
  "ground": 4203,
  "zil": 4204,
  "Ġthor": 4205,
  "Ġbill": 4206,
  "Ġimplic": 4207,
  "Ġtreaties": 4208,
  "Ġfighting": 4209,
  "despite": 4210,
  "Ġhur": 4211,
  "Ġproportion": 4212,
  "Ġchanging": 4213,
  "mon": 4214,
  "rich": 4215,
  "Ġcourage": 4216,
  "oses": 4217,
  "rant": 4218,
  "ites": 4219,
  "Ġbound": 4220,
  "Ġrenewable": 4221,
  "Ġcub": 4222,
  "Ġdebates": 4223,
  "Ġbarroso": 4224,
  "Ġdomin": 4225,
  "Ġwithdraw": 4226,
  "Ġsto": 4227,
  "etic": 4228,
  "Ġexpression": 4229,
  "Ġphil": 4230,
  "Ġregulatory": 4231,
  "Ġgenerally": 4232,
  "enhagen": 4233,
  "Ġacts": 4234,
  "Ġbritain": 4235,
  "Ġjuly": 4236,
  "Ġincred": 4237,
  "Ġremark": 4238,
  "Ġeasily": 4239,
  "Ġlanguages": 4240,
  "bu": 4241,
  "Ġ.": 4242,
  "Ġcompe": 4243,
  "imb": 4244,
  "cons": 4245,
  "Ġsubmitted": 4246,
  "appe": 4247,
  "Ġgets": 4248,
  "Ġphot": 4249,
  "Ġlatin": 4250,
  "Ġforg": 4251,
  "raid": 4252,
  "Ġdirectives": 4253,
  "Ġgrand": 4254,
  "Ġpoore": 4255,
  "assion": 4256,
  "iling": 4257,
  "Ġabol": 4258,
  "Ġclosed": 4259,
  "Ġcondition": 4260,
  "Ġdischarge": 4261,
  "pret": 4262,
  "Ġafraid": 4263,
  "Ġterrorist": 4264,
  "Ġadapt": 4265,
  "Ġ...": 4266,
  "Ġsorry": 4267,
  "Ġfix": 4268,
  "Ġuns": 4269,
  "Ġnumbers": 4270,
  "Ġequally": 4271,
  "Ġestablishment": 4272,
  "Ġlisten": 4273,
  "Ġlinked": 4274,
  "asters": 4275,
  "Ġut": 4276,
  "Ġevening": 4277,
  "Ġfire": 4278,
  "Ġreven": 4279,
  "Ġcovered": 4280,
  "Ġdraf": 4281,
  "Ġplanning": 4282,
  "Ġchoose": 4283,
  "Ġpatients": 4284,
  "Ġincorpor": 4285,
  "Ġpresence": 4286,
  "Ġheads": 4287,
  "Ġmistake": 4288,
  "your": 4289,
  "cast": 4290,
  "Ġcontrols": 4291,
  "Ġuncertain": 4292,
  "Ġknew": 4293,
  "Ġserb": 4294,
  "ken": 4295,
  "arus": 4296,
  "Ġ27": 4297,
  "Ġaccident": 4298,
  "Ġsignal": 4299,
  "Ġobserv": 4300,
  "both": 4301,
  "ronic": 4302,
  "Ġprove": 4303,
  "ruit": 4304,
  "Ġspok": 4305,
  "Ġemployees": 4306,
  "look": 4307,
  "Ġprotest": 4308,
  "Ġrising": 4309,
  "Ġdrive": 4310,
  "Ġtackle": 4311,
  "part": 4312,
  "Ġlearning": 4313,
  "Ġconflicts": 4314,
  "Ġrepeated": 4315,
  "pir": 4316,
  "Ġdie": 4317,
  "Ġunlike": 4318,
  "Ġmedical": 4319,
  "Ġconstruction": 4320,
  "Ġcondemn": 4321,
  "Ġfrequ": 4322,
  "Ġchemical": 4323,
  "oples": 4324,
  "Ġsoft": 4325,
  "Ġrid": 4326,
  "Ġidentity": 4327,
  "Ġcult": 4328,
  "Ġinsurance": 4329,
  "Ġbalk": 4330,
  "Ġguarantees": 4331,
  "levision": 4332,
  "Ġbooks": 4333,
  "Ġlarger": 4334,
  "hib": 4335,
  "inc": 4336,
  "Ġpeoples": 4337,
  "Ġbiggest": 4338,
  "Ġbelong": 4339,
  "Ġkilled": 4340,
  "ingly": 4341,
  "Ġspoke": 4342,
  "Ġdiseases": 4343,
  "Ġobligations": 4344,
  "Ġoccasion": 4345,
  "Ġtrain": 4346,
  "Ġinvestors": 4347,
  "Ġelector": 4348,
  "Ġcorpor": 4349,
  "Ġappreciate": 4350,
  "Ġpermanent": 4351,
  "rid": 4352,
  "Ġbomb": 4353,
  "Ġglobalisation": 4354,
  "Ġnaturally": 4355,
  "Ġ60": 4356,
  "orse": 4357,
  "Ġmeetings": 4358,
  "Ġexperts": 4359,
  "Ġrelatively": 4360,
  "Ġvulnerable": 4361,
  "andon": 4362,
  "Ġcriticism": 4363,
  "stitution": 4364,
  "Ġcarbon": 4365,
  "Ġemer": 4366,
  "Ġbilateral": 4367,
  "umer": 4368,
  "Ġquant": 4369,
  "Ġdecis": 4370,
  "Ġreasonable": 4371,
  "ril": 4372,
  "Ġvast": 4373,
  "Ġsole": 4374,
  "Ġimf": 4375,
  "Ġprofessional": 4376,
  "Ġconsolid": 4377,
  "Ġestablishing": 4378,
  "Ġcareful": 4379,
  "Ġgranted": 4380,
  "di": 4381,
  "Ġoce": 4382,
  "Ġsevere": 4383,
  "eties": 4384,
  "Ġboy": 4385,
  "Ġsmes": 4386,
  "Ġwelfare": 4387,
  "Ġurban": 4388,
  "Ġlux": 4389,
  "ience": 4390,
  "Ġabandon": 4391,
  "Ġpension": 4392,
  "Ġseparate": 4393,
  "port": 4394,
  "Ġfirms": 4395,
  "Ġgender": 4396,
  "Ġexists": 4397,
  "Ġsituations": 4398,
  "Ġ197": 4399,
  "Ġlegitim": 4400,
  "ancing": 4401,
  "Ġprotecting": 4402,
  "loyed": 4403,
  "Ġtechnological": 4404,
  "Ġcopenhagen": 4405,
  "Ġgeorg": 4406,
  "Ġhelping": 4407,
  "Ġbrings": 4408,
  "Ġisn": 4409,
  "ney": 4410,
  "Ġliberalisation": 4411,
  "Ġdig": 4412,
  "Ġexpectations": 4413,
  "Ġtrading": 4414,
  "Ġeye": 4415,
  "Ġcompared": 4416,
  "Ġincom": 4417,
  "Ġtelevision": 4418,
  "Ġsocialist": 4419,
  "Ġsubsidiarity": 4420,
  "gra": 4421,
  "kes": 4422,
  "Ġinvolvement": 4423,
  "Ġok": 4424,
  "Ġye": 4425,
  "Ġblood": 4426,
  "Ġamaz": 4427,
  "Ġplant": 4428,
  "Ġphen": 4429,
  "Ġstronger": 4430,
  "Ġbelarus": 4431,
  "Ġstudies": 4432,
  "Ġparticipate": 4433,
  "Ġswedish": 4434,
  "once": 4435,
  "Ġrout": 4436,
  "abor": 4437,
  "Ġdisappe": 4438,
  "Ġseeking": 4439,
  "Ġstable": 4440,
  "Ġalliance": 4441,
  "Ġdecade": 4442,
  "Ġpeaceful": 4443,
  "Ġpollution": 4444,
  "Ġphenomen": 4445,
  "Ġtown": 4446,
  "Ġusually": 4447,
  "Ġarmy": 4448,
  "Ġendorse": 4449,
  "Ġblock": 4450,
  "Ġdefinite": 4451,
  "Ġultimately": 4452,
  "Ġworst": 4453,
  "Ġcoast": 4454,
  "Ġ1990": 4455,
  "Ġjapanese": 4456,
  "Ġthorough": 4457,
  "Ġexpand": 4458,
  "Ġarch": 4459,
  "Ġminorities": 4460,
  "Ġtrafficking": 4461,
  "sk": 4462,
  "Ġdispl": 4463,
  "Ġsport": 4464,
  "Ġallows": 4465,
  "Ġanswers": 4466,
  "pay": 4467,
  "ties": 4468,
  "Ġbos": 4469,
  "Ġdelight": 4470,
  "ifying": 4471,
  "Ġsummer": 4472,
  "Ġassembly": 4473,
  "enary": 4474,
  "Ġapparent": 4475,
  "Ġpleas": 4476,
  "Ġsudden": 4477,
  "Ġunless": 4478,
  "Ġintend": 4479,
  "Ġelsewhere": 4480,
  "sterdam": 4481,
  "itial": 4482,
  "Ġplants": 4483,
  "Ġapril": 4484,
  "Ġassociated": 4485,
  "Ġmobility": 4486,
  "Ġice": 4487,
  "ressive": 4488,
  "Ġinterpret": 4489,
  "Ġinspect": 4490,
  "Ġsignificantly": 4491,
  "Ġresolved": 4492,
  "Ġinev": 4493,
  "Ġnearly": 4494,
  "Ġperformance": 4495,
  "Ġinitial": 4496,
  "osp": 4497,
  "Ġcontrad": 4498,
  "Ġspring": 4499,
  "Ġdollar": 4500,
  "Ġterritory": 4501,
  "given": 4502,
  "china": 4503,
  "Ġnether": 4504,
  "Ġimposed": 4505,
  "Ġexpensive": 4506,
  "Ġentit": 4507,
  "Ġsocieties": 4508,
  "Ġwrite": 4509,
  "Ġcrimes": 4510,
  "Ġimprovements": 4511,
  "Ġconsistent": 4512,
  "Ġcells": 4513,
  "Ġcomplicated": 4514,
  "Ġremarks": 4515,
  "garia": 4516,
  "Ġcentre": 4517,
  "Ġschools": 4518,
  "Ġbrazil": 4519,
  "gment": 4520,
  "hol": 4521,
  "Ġtoler": 4522,
  "quality": 4523,
  "Ġstatistics": 4524,
  "Ġbirth": 4525,
  "Ġnetherlands": 4526,
  "Ġcapable": 4527,
  "Ġdriving": 4528,
  "mission": 4529,
  "ison": 4530,
  "Ġisol": 4531,
  "iar": 4532,
  "nia": 4533,
  "their": 4534,
  "Ġelectricity": 4535,
  "bur": 4536,
  "have": 4537,
  "Ġang": 4538,
  "Ġplenary": 4539,
  "nor": 4540,
  "Ġattach": 4541,
  "Ġdepends": 4542,
  "Ġestim": 4543,
  "without": 4544,
  "Ġhundreds": 4545,
  "Ġarrangements": 4546,
  "did": 4547,
  "during": 4548,
  "prus": 4549,
  "Ġvolunt": 4550,
  "Ġenjoy": 4551,
  "Ġsomewhat": 4552,
  "Ġpolitically": 4553,
  "Ġapproval": 4554,
  "Ġcitizen": 4555,
  "Ġtalked": 4556,
  "Ġexclu": 4557,
  "Ġassociation": 4558,
  "Ġcollective": 4559,
  "ulating": 4560,
  "Ġamsterdam": 4561,
  "Ġcommittees": 4562,
  "comp": 4563,
  "engen": 4564,
  "Ġecb": 4565,
  "Ġplaced": 4566,
  "Ġsqu": 4567,
  "Ġdign": 4568,
  "cious": 4569,
  "Ġemphasis": 4570,
  "Ġargument": 4571,
  "Ġx": 4572,
  "Ġtob": 4573,
  "Ġsche": 4574,
  "Ġimmigrants": 4575,
  "marily": 4576,
  "Ġradical": 4577,
  ",âĢĿ": 4578,
  "Ġdied": 4579,
  "Ġremo": 4580,
  "Ġcompetence": 4581,
  "ient": 4582,
  "spe": 4583,
  "does": 4584,
  "Ġuniversal": 4585,
  "usion": 4586,
  "Ġsmaller": 4587,
  "Ġpromotion": 4588,
  "Ġshar": 4589,
  "Ġbanking": 4590,
  "Ġrestruct": 4591,
  "Ġtasks": 4592,
  "mat": 4593,
  "nal": 4594,
  "Ġprimarily": 4595,
  "Ġevaluation": 4596,
  "enth": 4597,
  "Ġsell": 4598,
  "Ġoffers": 4599,
  "Ġaccounts": 4600,
  "tra": 4601,
  "leep": 4602,
  "Ġbelief": 4603,
  "Ġimage": 4604,
  "Ġenforce": 4605,
  "Ġamounts": 4606,
  "Ġadvert": 4607,
  "Ġfacts": 4608,
  "Ġfinding": 4609,
  "Ġsavings": 4610,
  "itness": 4611,
  "Ġconce": 4612,
  "Ġleads": 4613,
  "Ġsurve": 4614,
  "Ġencouraging": 4615,
  "Ġdemonstrated": 4616,
  "Ġmaterials": 4617,
  "her": 4618,
  "ox": 4619,
  "Ġbab": 4620,
  "americ": 4621,
  "Ġworldwide": 4622,
  "Ġcouldn": 4623,
  "Ġpersonally": 4624,
  "Ġabsence": 4625,
  "Ġoperations": 4626,
  "Ġborn": 4627,
  "Ġprosperity": 4628,
  "Ġorganised": 4629,
  "Ġcontributions": 4630,
  "Ġdetailed": 4631,
  "Ġreligion": 4632,
  "Ġarguments": 4633,
  "wing": 4634,
  "Ġproved": 4635,
  "ull": 4636,
  "Ġparal": 4637,
  "Ġjustified": 4638,
  "Ġprotected": 4639,
  "Ġvari": 4640,
  "Ġcyprus": 4641,
  "Ġislamic": 4642,
  "Ġcast": 4643,
  "actory": 4644,
  "Ġorganization": 4645,
  "Ġdark": 4646,
  "Ġgal": 4647,
  "Ġweight": 4648,
  "akers": 4649,
  "ishing": 4650,
  "Ġhighest": 4651,
  "Ġoptim": 4652,
  "Ġ80": 4653,
  "Ġextraordin": 4654,
  "Ġdetermined": 4655,
  "down": 4656,
  "Ġslight": 4657,
  "Ġretain": 4658,
  "apse": 4659,
  "Ġproposing": 4660,
  "Ġoperate": 4661,
  "Ġsouthern": 4662,
  "Ġlegitimate": 4663,
  "Ġbulgaria": 4664,
  "Ġscheme": 4665,
  "Ġcard": 4666,
  "Ġeurozone": 4667,
  "ointed": 4668,
  "Ġgeograph": 4669,
  "Ġdemonstrate": 4670,
  "Ġgaz": 4671,
  "ressed": 4672,
  "Ġshowed": 4673,
  "Ġdutch": 4674,
  "Ġportugal": 4675,
  "Ġauditors": 4676,
  "would": 4677,
  "Ġcore": 4678,
  "Ġren": 4679,
  "Ġentry": 4680,
  "Ġschengen": 4681,
  "Ġadvance": 4682,
  "commun": 4683,
  "Ġrestrictions": 4684,
  "Ġvehicles": 4685,
  "Ġstraight": 4686,
  "Ġspoken": 4687,
  "Ġmic": 4688,
  "Ġreli": 4689,
  "Ġproposes": 4690,
  "Ġintergovernmental": 4691,
  "Ġdepart": 4692,
  "Ġfavor": 4693,
  "Ġexistence": 4694,
  "Ġpattern": 4695,
  "Ġemergency": 4696,
  "Ġtools": 4697,
  "Ġdistribution": 4698,
  "--": 4699,
  "Ġbeings": 4700,
  "Ġpersons": 4701,
  "Ġrecognised": 4702,
  "Ġcam": 4703,
  "Ġmoun": 4704,
  "Ġinvolving": 4705,
  "Ġtaxation": 4706,
  "Ġopposite": 4707,
  "Ġprimary": 4708,
  "Ġcz": 4709,
  "Ġbinding": 4710,
  "Ġmigration": 4711,
  "time": 4712,
  "uable": 4713,
  "ley": 4714,
  "Ġfaith": 4715,
  "Ġtransition": 4716,
  "Ġdefined": 4717,
  "overed": 4718,
  "Ġversion": 4719,
  "Ġeventually": 4720,
  "30": 4721,
  "fic": 4722,
  "oo": 4723,
  "Ġreve": 4724,
  "asing": 4725,
  "Ġbarriers": 4726,
  "ilst": 4727,
  "agree": 4728,
  "Ġstands": 4729,
  "Ġapart": 4730,
  "Ġshape": 4731,
  "bru": 4732,
  "onia": 4733,
  "Ġmag": 4734,
  "Ġacce": 4735,
  "Ġtypes": 4736,
  "Ġcatch": 4737,
  "Ġsho": 4738,
  "Ġvig": 4739,
  "Ġextended": 4740,
  "Ġamongst": 4741,
  "Ġproperty": 4742,
  "Ġdescribed": 4743,
  "face": 4744,
  "Ġball": 4745,
  "Ġuniversity": 4746,
  "Ġflexible": 4747,
  "Ġannounced": 4748,
  "rees": 4749,
  "Ġsomebody": 4750,
  "Ġprem": 4751,
  "Ġlabe": 4752,
  "Ġcheck": 4753,
  "Ġcompensation": 4754,
  "ugh": 4755,
  "Ġtreated": 4756,
  "Ġnegotiating": 4757,
  "Ġlatter": 4758,
  "Ġrapidly": 4759,
  "Ġnos": 4760,
  "Ġpromise": 4761,
  "Ġtemporary": 4762,
  "sych": 4763,
  "Ġpsych": 4764,
  "leb": 4765,
  "acco": 4766,
  "ondon": 4767,
  "Ġpursue": 4768,
  "Ġheavy": 4769,
  "Ġlegitimacy": 4770,
  "Ġdelighted": 4771,
  "care": 4772,
  "Ġfort": 4773,
  "Ġboost": 4774,
  "Ġprior": 4775,
  "Ġequip": 4776,
  "Ġadvanced": 4777,
  "Ġholding": 4778,
  "Ġwonderful": 4779,
  "bruary": 4780,
  "Ġhosp": 4781,
  "Ġlatest": 4782,
  "Ġwalk": 4783,
  "Ġintellect": 4784,
  "could": 4785,
  "Ġpure": 4786,
  "Ġimpose": 4787,
  "Ġimports": 4788,
  "Ġmoved": 4789,
  "Ġrespected": 4790,
  "Ġfocused": 4791,
  "Ġfunctioning": 4792,
  "ee": 4793,
  "Ġpick": 4794,
  "ari": 4795,
  "Ġhealthy": 4796,
  "Ġoptions": 4797,
  "Ġfat": 4798,
  "Ġproc": 4799,
  "uds": 4800,
  "Ġdisasters": 4801,
  "Ġcomply": 4802,
  "Ġopinions": 4803,
  "Ġguaranteed": 4804,
  "Ġczech": 4805,
  "Ġmac": 4806,
  "anging": 4807,
  "Ġliter": 4808,
  "Ġindustries": 4809,
  "Ġfreedoms": 4810,
  "Ġsubstances": 4811,
  "Ġbehavior": 4812,
  "Ġconstantly": 4813,
  "Ġson": 4814,
  "Ġfebruary": 4815,
  "Ġovercome": 4816,
  "Ġmaximum": 4817,
  "car": 4818,
  "Ġsession": 4819,
  "Ġoffered": 4820,
  "Ġjudicial": 4821,
  "Ġrecommendation": 4822,
  "ife": 4823,
  "Ġformal": 4824,
  "Ġdistin": 4825,
  "Ġhistorical": 4826,
  "Ġjournal": 4827,
  "uted": 4828,
  "Ġconcluded": 4829,
  "Ġadopting": 4830,
  "Ġpublished": 4831,
  "Ġhospital": 4832,
  "emb": 4833,
  "uous": 4834,
  "Ġmeat": 4835,
  "adv": 4836,
  "Ġoral": 4837,
  "Ġfirstly": 4838,
  "Ġdignity": 4839,
  "roud": 4840,
  "Ġtradition": 4841,
  "back": 4842,
  "Ġwitness": 4843,
  "Ġpi": 4844,
  "Ġrecession": 4845,
  "Ġassume": 4846,
  "Ġallowing": 4847,
  "Ġadvice": 4848,
  "Ġbaltic": 4849,
  "Ġkeeping": 4850,
  "Ġskills": 4851,
  "Ġmanufacture": 4852,
  "gu": 4853,
  "Ġthrow": 4854,
  "itime": 4855,
  "iliation": 4856,
  "Ġstories": 4857,
  "Ġplayers": 4858,
  "areness": 4859,
  "Ġtobacco": 4860,
  "Ġtoward": 4861,
  "through": 4862,
  "Ġmark": 4863,
  "Ġceleb": 4864,
  "Ġmultilateral": 4865,
  "tr": 4866,
  "onom": 4867,
  "Ġcommissioners": 4868,
  "Ġcompon": 4869,
  "Ġscand": 4870,
  "Ġmilk": 4871,
  "Ġobligation": 4872,
  "Ġsecretary": 4873,
  "Ġppe": 4874,
  "Ġstabil": 4875,
  "Ġphase": 4876,
  "Ġpromised": 4877,
  "Ġincreases": 4878,
  "Ġinvolves": 4879,
  "oubtedly": 4880,
  "Ġpalestinians": 4881,
  "two": 4882,
  "Ġrig": 4883,
  "Ġpreced": 4884,
  "Ġguy": 4885,
  "Ġcenter": 4886,
  "Ġsurround": 4887,
  "Ġdouble": 4888,
  "ays": 4889,
  "Ġmexic": 4890,
  "Ġvill": 4891,
  "Ġlie": 4892,
  "Ġmargin": 4893,
  "Ġhistoric": 4894,
  "Ġincentives": 4895,
  "Ġeverywhere": 4896,
  "Ġstrategies": 4897,
  "lined": 4898,
  "Ġsac": 4899,
  "ingu": 4900,
  "Ġnar": 4901,
  "Ġjoh": 4902,
  "Ġmaritime": 4903,
  "Ġblue": 4904,
  "Ġdiplomatic": 4905,
  "',": 4906,
  "gence": 4907,
  "sub": 4908,
  "vak": 4909,
  "Ġwine": 4910,
  "Ġstanding": 4911,
  "Ġtaxpay": 4912,
  "ding": 4913,
  "ero": 4914,
  "abilities": 4915,
  "Ġeffectiveness": 4916,
  "Ġelectronic": 4917,
  "Ġfirmly": 4918,
  "Ġperfectly": 4919,
  "Ġfacilitate": 4920,
  "oto": 4921,
  "resh": 4922,
  "Ġvice": 4923,
  "Ġcontrast": 4924,
  "Ġdecline": 4925,
  "Ġdeeply": 4926,
  "Ġdetails": 4927,
  "Ġcustoms": 4928,
  "Ġexplanation": 4929,
  "Ġdecisive": 4930,
  "Ġvoluntary": 4931,
  "ai": 4932,
  "ony": 4933,
  "Ġfaster": 4934,
  "izations": 4935,
  "Ġpossibly": 4936,
  "equ": 4937,
  "rote": 4938,
  "Ġnoted": 4939,
  "Ġputin": 4940,
  "Ġawareness": 4941,
  "Ġexcessive": 4942,
  "Ġtraged": 4943,
  "Ġexpert": 4944,
  "ax": 4945,
  "Ġtheory": 4946,
  "Ġbeg": 4947,
  "rian": 4948,
  "anda": 4949,
  "amed": 4950,
  "Ġwash": 4951,
  "Ġthereby": 4952,
  "Ġaftern": 4953,
  "Ġhearing": 4954,
  "Ġbriefly": 4955,
  "Ġfulfil": 4956,
  "Ġentitled": 4957,
  "Ġproud": 4958,
  "Ġpurch": 4959,
  "Ġinclusion": 4960,
  "Ġcooperate": 4961,
  "umerous": 4962,
  "umb": 4963,
  "Ġswe": 4964,
  "Ġmc": 4965,
  "ada": 4966,
  "Ġvia": 4967,
  "Ġassure": 4968,
  "Ġcrises": 4969,
  "Ġroma": 4970,
  "Ġdestruction": 4971,
  "Ġreplace": 4972,
  "Ġphysical": 4973,
  "Ġintellectual": 4974,
  "none": 4975,
  "ches": 4976,
  "Ġasian": 4977,
  "Ġagg": 4978,
  "Ġquar": 4979,
  "Ġsyn": 4980,
  "Ġfit": 4981,
  "ception": 4982,
  "Ġsustainability": 4983,
  "Ġdrawing": 4984,
  "ĠâĢĻ": 4985,
  "Ġomb": 4986,
  "Ġopened": 4987,
  "Ġgirl": 4988,
  "Ġallocated": 4989,
  "Ġombuds": 4990,
  "Ġwrote": 4991,
  "Ġinade": 4992,
  "Ġreaction": 4993,
  "Ġsearch": 4994,
  "Ġ24": 4995,
  "Ġtransl": 4996,
  "Ġ500": 4997,
  "bourg": 4998,
  "Ġcollapse": 4999,
  "Ġforthcoming": 5000,
  "asbourg": 5001,
  "ourg": 5002,
  "Ġzone": 5003,
  "Ġcuts": 5004,
  "Ġbed": 5005,
  "Ġgold": 5006,
  "Ġbelieves": 5007,
  "Ġretur": 5008,
  "Ġafternoon": 5009,
  "which": 5010,
  "Ġchoices": 5011,
  "Ġgrounds": 5012,
  "Ġethnic": 5013,
  "lastly": 5014,
  "Ġgeorgia": 5015,
  "Ġwasn": 5016,
  "Ġrelates": 5017,
  "Ġblame": 5018,
  "termine": 5019,
  "Ġsuggested": 5020,
  "Ġlaunched": 5021,
  "embourg": 5022,
  "Ġrac": 5023,
  "ifications": 5024,
  "Ġspeaker": 5025,
  "Ġsuffer": 5026,
  "Ġundoubtedly": 5027,
  "imp": 5028,
  "Ġongoing": 5029,
  "Ġleban": 5030,
  "Ġmov": 5031,
  "Ġsatisfied": 5032,
  "build": 5033,
  "Ġflight": 5034,
  "Ġdetermine": 5035,
  "Ġnobody": 5036,
  "Ġstrasbourg": 5037,
  "Ġcreates": 5038,
  "Ġshowing": 5039,
  "Ġradio": 5040,
  "Ġchairman": 5041,
  "Ġimplications": 5042,
  "Ġfruit": 5043,
  "Ġprosec": 5044,
  "osen": 5045,
  "Ġabstain": 5046,
  "Ġdisagree": 5047,
  "Ġaustria": 5048,
  "Ġobstacles": 5049,
  "amb": 5050,
  "ini": 5051,
  "ato": 5052,
  "state": 5053,
  "necess": 5054,
  "Ġ1997": 5055,
  "Ġ1998": 5056,
  "ming": 5057,
  "Ġtough": 5058,
  "Ġabuse": 5059,
  "irect": 5060,
  "Ġscen": 5061,
  "Ġvaluable": 5062,
  "Ġbelow": 5063,
  "Ġdispos": 5064,
  "Ġpatient": 5065,
  "Ġordinary": 5066,
  "Ġocean": 5067,
  "Ġsubmit": 5068,
  "Ġnecessarily": 5069,
  "Ġequipment": 5070,
  "ball": 5071,
  "Ġtit": 5072,
  "Ġnotice": 5073,
  "Ġvide": 5074,
  "reneur": 5075,
  "Ġcommunist": 5076,
  "Ġprocesses": 5077,
  "Ġemot": 5078,
  "Ġfarming": 5079,
  "Ġjudge": 5080,
  "Ġsexual": 5081,
  "repreneur": 5082,
  "Ġbottom": 5083,
  "Ġspect": 5084,
  "Ġundermin": 5085,
  "Ġbackground": 5086,
  "Ġplanned": 5087,
  "ength": 5088,
  "Ġterrible": 5089,
  "dis": 5090,
  "Ġhus": 5091,
  "Ġusa": 5092,
  "Ġhardly": 5093,
  "Ġdictators": 5094,
  "iles": 5095,
  "Ġshift": 5096,
  "Ġran": 5097,
  "Ġrealistic": 5098,
  "Ġurgently": 5099,
  "Ġwidely": 5100,
  "Ġchristian": 5101,
  "Ġsovereignty": 5102,
  "Ġserbia": 5103,
  "Ġluxembourg": 5104,
  "see": 5105,
  "Ġessentially": 5106,
  "Ġstrengthened": 5107,
  "Ġbalkans": 5108,
  "Ġrestructuring": 5109,
  "Ġlabelling": 5110,
  "bes": 5111,
  "Ġecu": 5112,
  "Ġtrouble": 5113,
  "Ġdism": 5114,
  "Ġpref": 5115,
  "Ġwars": 5116,
  "Ġsignificance": 5117,
  "Ġargue": 5118,
  "Ġtroops": 5119,
  "Ġdefinitely": 5120,
  "Ġgap": 5121,
  "Ġacting": 5122,
  "Ġrepresented": 5123,
  "Ġsupplement": 5124,
  "Ġleaving": 5125,
  "yle": 5126,
  "Ġnumerous": 5127,
  "Ġshad": 5128,
  "Ġreserve": 5129,
  "Ġabroad": 5130,
  "Ġexperienced": 5131,
  "Ġrecognize": 5132,
  "Ġreconst": 5133,
  "Ġoperating": 5134,
  "Ġturns": 5135,
  "Ġwelcomed": 5136,
  "aid": 5137,
  "tur": 5138,
  "Ġisland": 5139,
  "Ġpartly": 5140,
  "Ġevolution": 5141,
  "Ġapprove": 5142,
  "Ġteacher": 5143,
  "Ġombudsman": 5144,
  "isory": 5145,
  "Ġprohib": 5146,
  "Ġyouth": 5147,
  "Ġsugar": 5148,
  "active": 5149,
  "Ġentrepreneur": 5150,
  "Ġrestric": 5151,
  "Ġfollows": 5152,
  "Ġdaily": 5153,
  "Ġali": 5154,
  "Ġimpression": 5155,
  "Ġmonop": 5156,
  "Ġsensible": 5157,
  "outh": 5158,
  "Ġunnecess": 5159,
  "Ġgreatly": 5160,
  "Ġinterven": 5161,
  "Ġwider": 5162,
  "orial": 5163,
  "lder": 5164,
  "Ġvoters": 5165,
  "Ġremove": 5166,
  "Ġlesson": 5167,
  "Ġcontained": 5168,
  "Ġprepare": 5169,
  "Ġpurposes": 5170,
  "Ġpredict": 5171,
  "Ġment": 5172,
  "Ġprospects": 5173,
  "aughter": 5174,
  "atures": 5175,
  "iced": 5176,
  "Ġchosen": 5177,
  "Ġpresidential": 5178,
  "Ġlessons": 5179,
  "Ġinnovative": 5180,
  "Ġreflects": 5181,
  "Ġmistakes": 5182,
  "ancy": 5183,
  "Ġanybody": 5184,
  "Ġbox": 5185,
  "Ġfoundation": 5186,
  "Ġsubstance": 5187,
  "Ġcoordinated": 5188,
  "regard": 5189,
  "democ": 5190,
  "Ġharmonisation": 5191,
  "Ġexamine": 5192,
  "Ġunique": 5193,
  "Ġaccompan": 5194,
  "scale": 5195,
  "Ġkyoto": 5196,
  "gos": 5197,
  "Ġsleep": 5198,
  "Ġnevertheless": 5199,
  "Ġconstitu": 5200,
  "Ġsurely": 5201,
  "Ġves": 5202,
  "Ġchann": 5203,
  "Ġadmit": 5204,
  "Ġacp": 5205,
  "icip": 5206,
  "astic": 5207,
  "Ġrequirement": 5208,
  "Ġrequested": 5209,
  "Ġscientists": 5210,
  "Ġoccasions": 5211,
  "Ġbehavi": 5212,
  "Ġsupervision": 5213,
  "nel": 5214,
  "son": 5215,
  "Ġprize": 5216,
  "ails": 5217,
  "Ġbuildings": 5218,
  "Ġsuffered": 5219,
  "Ġacknowledge": 5220,
  "Ġpoorest": 5221,
  "mo": 5222,
  "Ġted": 5223,
  "Ġstocks": 5224,
  "Ġreserv": 5225,
  "teen": 5226,
  "Ġvisa": 5227,
  "Ġcollabor": 5228,
  "Ġdependent": 5229,
  "Ġsurprised": 5230,
  "Ġtrend": 5231,
  "Ġstruggle": 5232,
  "Ġforgot": 5233,
  "Ġtight": 5234,
  "atlantic": 5235,
  "Ġwat": 5236,
  "oted": 5237,
  "ula": 5238,
  "Ġproducing": 5239,
  "Ġbrid": 5240,
  "Ġpatent": 5241,
  "Ġpenalty": 5242,
  "Ġuniverse": 5243,
  "Ġhopes": 5244,
  "rating": 5245,
  "Ġos": 5246,
  "oms": 5247,
  "Ġrational": 5248,
  "Ġminute": 5249,
  "Ġsucceeded": 5250,
  "Ġdeficits": 5251,
  "Ġgaza": 5252,
  "lav": 5253,
  "Ġ0": 5254,
  "Ġimb": 5255,
  "Ġvan": 5256,
  "Ġended": 5257,
  "Ġinfect": 5258,
  "Ġidentified": 5259,
  "Ġassets": 5260,
  "rew": 5261,
  "Ġmos": 5262,
  "Ġlic": 5263,
  "Ġlived": 5264,
  "Ġchap": 5265,
  "Ġcorrespon": 5266,
  "Ġbattle": 5267,
  "gic": 5268,
  "Ġlondon": 5269,
  "ets": 5270,
  "Ġconciliation": 5271,
  "Ġ196": 5272,
  "Ġpaying": 5273,
  "Ġpayment": 5274,
  "Ġflow": 5275,
  "Ġphenomenon": 5276,
  "Ġcry": 5277,
  "Ġlength": 5278,
  "Ġunif": 5279,
  "Ġrh": 5280,
  "Ġrain": 5281,
  "Ġsymp": 5282,
  "Ġrevision": 5283,
  "Ġviolations": 5284,
  "Ġurgency": 5285,
  "holders": 5286,
  "Ġunfair": 5287,
  "Ġadvertising": 5288,
  "Ġmap": 5289,
  "oud": 5290,
  "Ġrecall": 5291,
  "Ġfamiliar": 5292,
  "similar": 5293,
  "Ġfal": 5294,
  "Ġpolish": 5295,
  "Ġdeserves": 5296,
  "four": 5297,
  "house": 5298,
  "produ": 5299,
  "related": 5300,
  "Ġhamas": 5301,
  "phere": 5302,
  "Ġlosses": 5303,
  "encing": 5304,
  "Ġarmed": 5305,
  "Ġoperational": 5306,
  "Ġfields": 5307,
  "Ġclarify": 5308,
  "Ġslovak": 5309,
  "Ġdynamic": 5310,
  "Ġrelie": 5311,
  "Ġdefine": 5312,
  "Ġdifficulty": 5313,
  "Ġmountain": 5314,
  "itect": 5315,
  "Ġalban": 5316,
  "sight": 5317,
  "Ġdecent": 5318,
  "Ġspl": 5319,
  "Ġpersu": 5320,
  "Ġthreats": 5321,
  "Ġmachine": 5322,
  "Ġextraordinary": 5323,
  "Ġcamer": 5324,
  "nl": 5325,
  "Ġbought": 5326,
  "oring": 5327,
  "abling": 5328,
  "Ġfrank": 5329,
  "ibet": 5330,
  "Ġpreparing": 5331,
  "erb": 5332,
  "Ġreiter": 5333,
  "iring": 5334,
  "Ġsusp": 5335,
  "Ġimportantly": 5336,
  "Ġtrial": 5337,
  "Ġtests": 5338,
  "Ġsentence": 5339,
  "Ġdoctor": 5340,
  "Ġcroat": 5341,
  "advant": 5342,
  "ware": 5343,
  "Ġsister": 5344,
  "Ġnig": 5345,
  "Ġforum": 5346,
  "Ġpreventing": 5347,
  "general": 5348,
  "Ġngos": 5349,
  "Ġprodi": 5350,
  "uls": 5351,
  "Ġdisadvant": 5352,
  "Ġextension": 5353,
  "Ġera": 5354,
  "Ġidentify": 5355,
  "Ġreflected": 5356,
  "cape": 5357,
  "war": 5358,
  "erson": 5359,
  "Ġcharge": 5360,
  "Ġpossibilities": 5361,
  "licit": 5362,
  "Ġsuccessfully": 5363,
  "Ġexclus": 5364,
  "Ġalleg": 5365,
  "Ġhousehold": 5366,
  "Ġlots": 5367,
  "viously": 5368,
  "Ġarchitect": 5369,
  "Ġnine": 5370,
  "Ġash": 5371,
  "Ġprofit": 5372,
  "Ġcoherent": 5373,
  "Ġmodels": 5374,
  "Ġ70": 5375,
  "Ġarrived": 5376,
  "Ġmuslim": 5377,
  "Ġcaught": 5378,
  "Ġcompliance": 5379,
  "Ġborrow": 5380,
  "ointment": 5381,
  "Ġpillar": 5382,
  "Ġsharp": 5383,
  "Ġreliable": 5384,
  "ulf": 5385,
  "Ġfeet": 5386,
  "Ġaddressing": 5387,
  "Ġacknowled": 5388,
  "stitutional": 5389,
  "free": 5390,
  "pread": 5391,
  "osoph": 5392,
  "oslav": 5393,
  "consequently": 5394,
  "Ġmatch": 5395,
  "Ġdeals": 5396,
  "idespread": 5397,
  "Ġgirls": 5398,
  "ibly": 5399,
  "Ġclaims": 5400,
  "Ġcheap": 5401,
  "Ġinj": 5402,
  "Ġchur": 5403,
  "Ġpresidents": 5404,
  "Ġsyria": 5405,
  "Ġaccur": 5406,
  "ugoslav": 5407,
  "Ġcandidates": 5408,
  "Ġmedicine": 5409,
  "Ġprisoners": 5410,
  "Ġfresh": 5411,
  "Ġimper": 5412,
  "Ġwarming": 5413,
  "Ġsettlement": 5414,
  "russi": 5415,
  "vest": 5416,
  "Ġol": 5417,
  "Ġmine": 5418,
  "Ġinn": 5419,
  "ung": 5420,
  "Ġ23": 5421,
  "Ġexpan": 5422,
  "Ġpromises": 5423,
  "Ġexecut": 5424,
  "asm": 5425,
  "Ġseat": 5426,
  "Ġextensive": 5427,
  "Ġolder": 5428,
  "Ġdeclared": 5429,
  "Ġtopic": 5430,
  "Ġtragedy": 5431,
  "Ġreconstruction": 5432,
  "bing": 5433,
  "Ġwidespread": 5434,
  "Ġet": 5435,
  "Ġreass": 5436,
  "umed": 5437,
  "Ġconsidering": 5438,
  "Ġcharges": 5439,
  "Ġoccurred": 5440,
  "Ġconcentrate": 5441,
  "Ġmobil": 5442,
  "Ġsympath": 5443,
  "wan": 5444,
  "Ġbreat": 5445,
  "Ġflu": 5446,
  "Ġrecip": 5447,
  "idity": 5448,
  "Ġunity": 5449,
  "Ġexceed": 5450,
  "iciently": 5451,
  "Ġsurprise": 5452,
  "Ġ90": 5453,
  "Ġwillingness": 5454,
  "Ġphilosoph": 5455,
  "Ġelectoral": 5456,
  "Ġrely": 5457,
  "Ġhaven": 5458,
  "Ġtelling": 5459,
  "Ġaffects": 5460,
  "Ġmedicines": 5461,
  "Ġhousing": 5462,
  "Ġamazing": 5463,
  "Ġpleasure": 5464,
  "Ġdisposal": 5465,
  "%,": 5466,
  "Ġtibet": 5467,
  "Ġod": 5468,
  "Ġmix": 5469,
  "thly": 5470,
  "Ġstation": 5471,
  "Ġsets": 5472,
  "Ġtwenty": 5473,
  "before": 5474,
  "Ġterritorial": 5475,
  "Ġmissing": 5476,
  "Ġhungarian": 5477,
  "Ġwife": 5478,
  "kets": 5479,
  "Ġexplicit": 5480,
  "Ġtrack": 5481,
  "Ġaccidents": 5482,
  "Ġdebating": 5483,
  "Ġdiscovered": 5484,
  "Ġinfring": 5485,
  "Ġopenness": 5486,
  "Ġbrother": 5487,
  "Ġappropriations": 5488,
  "Ġfairly": 5489,
  "Ġflood": 5490,
  "Ġreveal": 5491,
  "pts": 5492,
  "osition": 5493,
  "Ġtimet": 5494,
  "Ġnewsp": 5495,
  "Ġconfirmed": 5496,
  "Ġuniform": 5497,
  "ault": 5498,
  "Ġfer": 5499,
  "cel": 5500,
  "Ġyugoslav": 5501,
  "Ġarm": 5502,
  "Ġorganizations": 5503,
  "Ġphone": 5504,
  "Ġ2011": 5505,
  "Ġconducted": 5506,
  "Ġfilm": 5507,
  "Ġattempts": 5508,
  "Ġende": 5509,
  "apers": 5510,
  "again": 5511,
  "Ġissued": 5512,
  "Ġclin": 5513,
  "Ġblind": 5514,
  "Ġdetermination": 5515,
  "Ġdeliber": 5516,
  "Ġcalcul": 5517,
  "Ġuncertainty": 5518,
  "Ġmexico": 5519,
  "Ġexpansion": 5520,
  "Ġgames": 5521,
  "Ġusers": 5522,
  "Ġmaintaining": 5523,
  "ufficient": 5524,
  "Ġillust": 5525,
  "having": 5526,
  "Ġshadow": 5527,
  "Ġreserves": 5528,
  "Ġtragic": 5529,
  "Ġmotor": 5530,
  "Ġmaintained": 5531,
  "Ġcontracts": 5532,
  "Ġdigital": 5533,
  "Ġinterf": 5534,
  "Ġaviation": 5535,
  "Ġproductivity": 5536,
  "Ġdemanding": 5537,
  "Ġflag": 5538,
  "Ġreconcil": 5539,
  "Ġquotas": 5540,
  "Ġpunish": 5541,
  "Ġbehaviour": 5542,
  "bel": 5543,
  "Ġcrow": 5544,
  "Ġregist": 5545,
  "ague": 5546,
  "Ġprofound": 5547,
  "Ġstatute": 5548,
  "Ġencouraged": 5549,
  "Ġlinks": 5550,
  "Ġautonom": 5551,
  "Ġsatisfactory": 5552,
  "Ġrelease": 5553,
  "Ġberlin": 5554,
  "Ġtaxpayers": 5555,
  "national": 5556,
  "Ġâ": 5557,
  "Ġtv": 5558,
  "Ġhumans": 5559,
  "Ġapplying": 5560,
  "Ġregrett": 5561,
  "eth": 5562,
  "ront": 5563,
  "Ġmort": 5564,
  "ading": 5565,
  "uese": 5566,
  "Ġdirector": 5567,
  "Ġprofits": 5568,
  "Ġratification": 5569,
  "Ġpassengers": 5570,
  "take": 5571,
  "Ã¼": 5572,
  "asc": 5573,
  "Ġstick": 5574,
  "Ġalarm": 5575,
  "Ġselect": 5576,
  "anges": 5577,
  "Ġstrange": 5578,
  "obviously": 5579,
  "Ġrestore": 5580,
  "Ġoperators": 5581,
  "Ġvictory": 5582,
  "ographic": 5583,
  "Ġneighbours": 5584,
  "Ġundertaken": 5585,
  "Ġcuba": 5586,
  "Ġjohn": 5587,
  "Ġwaters": 5588,
  "xts": 5589,
  "zz": 5590,
  "Ġstudent": 5591,
  "Ġengaged": 5592,
  "Ġcollege": 5593,
  "Ġfishermen": 5594,
  "Ġhighlighted": 5595,
  "Ġinvestigation": 5596,
  "Ġendeav": 5597,
  "erved": 5598,
  "itical": 5599,
  "Ġdin": 5600,
  "Ġsurpl": 5601,
  "Ġcombined": 5602,
  "Ġlosing": 5603,
  "Ġembar": 5604,
  "Ġdivided": 5605,
  "Ġimbal": 5606,
  "ques": 5607,
  "uman": 5608,
  "Ġtwice": 5609,
  "Ġideal": 5610,
  "ocked": 5611,
  "Ġfourth": 5612,
  "Ġsuggests": 5613,
  "Ġduties": 5614,
  "Ġcarrying": 5615,
  "Ġhyp": 5616,
  "Ġexclusion": 5617,
  "Ġvideo": 5618,
  "hand": 5619,
  "Ġtort": 5620,
  "keep": 5621,
  "Ġatmos": 5622,
  "Ġfinish": 5623,
  "Ġcourts": 5624,
  "Ġstopped": 5625,
  "Ġremoved": 5626,
  "Ġinadequate": 5627,
  "Ġlebanon": 5628,
  "Ġsought": 5629,
  "ington": 5630,
  "Ġdiscip": 5631,
  "Ġbelieved": 5632,
  "Ġentered": 5633,
  "Ġturning": 5634,
  "Ġresulting": 5635,
  "Ġmotiv": 5636,
  "irable": 5637,
  "Ġworrying": 5638,
  "count": 5639,
  "att": 5640,
  "Ġsake": 5641,
  "enn": 5642,
  "icy": 5643,
  "Ġliqu": 5644,
  "Ġfinland": 5645,
  "Ġdramatic": 5646,
  "Ġreaching": 5647,
  "Ġterrorists": 5648,
  "Ġzero": 5649,
  "Ġsurvive": 5650,
  "Ġportuguese": 5651,
  "Ġenhance": 5652,
  "ports": 5653,
  "Ġtar": 5654,
  "Ġwhilst": 5655,
  "Ġactively": 5656,
  "Ġhumanity": 5657,
  "Ġowners": 5658,
  "Ġscot": 5659,
  "Ġsupplies": 5660,
  "Ġexplained": 5661,
  "Ġbegun": 5662,
  "Ġaug": 5663,
  "itz": 5664,
  "Ġluck": 5665,
  "Ġexe": 5666,
  "whel": 5667,
  "Ġputs": 5668,
  "Ġrealise": 5669,
  "Ġsurface": 5670,
  "Ġaids": 5671,
  "Ġfalls": 5672,
  "Ġseemed": 5673,
  "Ġsuspend": 5674,
  "hus": 5675,
  "rates": 5676,
  "Ġintroducing": 5677,
  "Ġineff": 5678,
  "iant": 5679,
  "Ġvacc": 5680,
  "udi": 5681,
  "Ġfinished": 5682,
  "Ġbigger": 5683,
  "Ġconsequence": 5684,
  "Ġgenerations": 5685,
  "Ġdispute": 5686,
  "Ġfortun": 5687,
  "cs": 5688,
  "Ġfly": 5689,
  "thes": 5690,
  "Ġresource": 5691,
  "Ġkil": 5692,
  "Ġoverwhel": 5693,
  "Ġfamous": 5694,
  "Ġlistening": 5695,
  "cra": 5696,
  "ino": 5697,
  "institutional": 5698,
  "Ġproof": 5699,
  "Ġadm": 5700,
  "Ġthanking": 5701,
  "Ġfewer": 5702,
  "Ġcompleted": 5703,
  "Ġgreens": 5704,
  "Ġresistance": 5705,
  "Ġunlikely": 5706,
  "Ġsight": 5707,
  "Ġrough": 5708,
  "Ġcoff": 5709,
  "Ġevol": 5710,
  "igned": 5711,
  "Ġlawy": 5712,
  "Ġcontributed": 5713,
  "Ġcreative": 5714,
  "Ġwatching": 5715,
  "Ġignore": 5716,
  "Ġbol": 5717,
  "Ġmagn": 5718,
  "Ġdefense": 5719,
  "Ġdeserve": 5720,
  "Ġremaining": 5721,
  "Ġ1996": 5722,
  "Ġachievement": 5723,
  "Ġsufficiently": 5724,
  "Ġcredible": 5725,
  "ky": 5726,
  "racies": 5727,
  "âĢĻ.": 5728,
  "Ġraising": 5729,
  "Ġeconomically": 5730,
  "Ġgoverning": 5731,
  "Ġsched": 5732,
  "everyone": 5733,
  "Ġinterpretation": 5734,
  "Ġ,": 5735,
  "Ġsick": 5736,
  "Ġdrop": 5737,
  "oss": 5738,
  "cient": 5739,
  "Ġclause": 5740,
  "Ġattend": 5741,
  "Ġfacilities": 5742,
  "Ġoppose": 5743,
  "appro": 5744,
  "Ġweakness": 5745,
  "Ġpursu": 5746,
  "Ġstrike": 5747,
  "Ġproceedings": 5748,
  "Ġtunis": 5749,
  "Ġded": 5750,
  "Ġvat": 5751,
  "Ġrace": 5752,
  "Ġflows": 5753,
  "Ġfalling": 5754,
  "ashion": 5755,
  "Ġmultip": 5756,
  "Ġhiv": 5757,
  "Ġdro": 5758,
  "Ġadult": 5759,
  "Ġtransitional": 5760,
  "Ġnegotiation": 5761,
  "Ġbroader": 5762,
  "Ġsuspect": 5763,
  "Ġunnecessary": 5764,
  "Ġwise": 5765,
  "Ġdub": 5766,
  "add": 5767,
  "Ġrealize": 5768,
  "Ġprograms": 5769,
  "Ġconvergence": 5770,
  "ti": 5771,
  "Ġchain": 5772,
  "forced": 5773,
  "Ġtransatlantic": 5774,
  "Ġdefe": 5775,
  "Ġadvantages": 5776,
  "Ġdictatorship": 5777,
  "Ġmur": 5778,
  "ional": 5779,
  "riend": 5780,
  "ounting": 5781,
  "allow": 5782,
  "Ġlegally": 5783,
  "Ġconstitute": 5784,
  "Ġheading": 5785,
  "Ġguard": 5786,
  "Ġawa": 5787,
  "clearly": 5788,
  "Ġcroatia": 5789,
  "rust": 5790,
  "uk": 5791,
  "ws": 5792,
  "Ġinqu": 5793,
  "rog": 5794,
  "think": 5795,
  "Ġremained": 5796,
  "Ġviolent": 5797,
  "Ġiraqi": 5798,
  "Ġleaves": 5799,
  "Ġhal": 5800,
  "uries": 5801,
  "Ġsum": 5802,
  "Ġparad": 5803,
  "Ġregimes": 5804,
  "Ġpopulations": 5805,
  "Ġextrem": 5806,
  "market": 5807,
  "Ġcorrectly": 5808,
  "Ġpreparation": 5809,
  "Ġ1980": 5810,
  "Ġevalu": 5811,
  "water": 5812,
  "abwe": 5813,
  "Ġ22": 5814,
  "Ġconfront": 5815,
  "Ġeducational": 5816,
  "Ġgenuinely": 5817,
  "Ġqualified": 5818,
  "imbabwe": 5819,
  "Ġrevenue": 5820,
  "ulsory": 5821,
  "iwan": 5822,
  "Ġsim": 5823,
  "Ġpil": 5824,
  "tering": 5825,
  "Ġintens": 5826,
  "Ġcool": 5827,
  "Ġamended": 5828,
  "Ġguys": 5829,
  "Ġenvironmentally": 5830,
  "phone": 5831,
  "Ġexperiment": 5832,
  "similarly": 5833,
  "omin": 5834,
  "deb": 5835,
  "develop": 5836,
  "Ġindirect": 5837,
  "Ġiranian": 5838,
  "Ġpreviously": 5839,
  "Ġsudan": 5840,
  "usal": 5841,
  "Ġintentions": 5842,
  "Ġnoise": 5843,
  "Ġeconomics": 5844,
  "Ġdebated": 5845,
  "Ġscre": 5846,
  "Ġearn": 5847,
  "Ġcivilian": 5848,
  "Ġbaby": 5849,
  "Ã³": 5850,
  "erate": 5851,
  "orous": 5852,
  "Ġgar": 5853,
  "Ġweb": 5854,
  "unity": 5855,
  "Ġworried": 5856,
  "Ġcanada": 5857,
  "Ġriver": 5858,
  "Ġviable": 5859,
  "Ġprivile": 5860,
  "Ġtonight": 5861,
  "Ġsoldiers": 5862,
  "Ġcorporate": 5863,
  "Ġpurely": 5864,
  "Ġech": 5865,
  "Ġloans": 5866,
  "Ġsky": 5867,
  "Ġconnected": 5868,
  "Ġmacro": 5869,
  "Ġinnoc": 5870,
  "ga": 5871,
  "Ġweather": 5872,
  "sect": 5873,
  "Ġseeks": 5874,
  "Ġraw": 5875,
  "actions": 5876,
  "Ġprevail": 5877,
  "Ġcausing": 5878,
  "Ġtargeted": 5879,
  "Ġneighbourhood": 5880,
  "har": 5881,
  "makers": 5882,
  "Ġhol": 5883,
  "Ġaside": 5884,
  "Ġjustify": 5885,
  "Ġapprox": 5886,
  "Ġrefused": 5887,
  "Ġinsp": 5888,
  "should": 5889,
  "Ġratified": 5890,
  "Ġbureaucracy": 5891,
  "Ġbosnia": 5892,
  "bre": 5893,
  "band": 5894,
  "cap": 5895,
  "atible": 5896,
  "Ġwood": 5897,
  "Ġusual": 5898,
  "Ġregarded": 5899,
  "Ġswim": 5900,
  "Ġhonour": 5901,
  "ursday": 5902,
  "sen": 5903,
  "Ġdump": 5904,
  "Ġforemost": 5905,
  "Ġsolved": 5906,
  "Ġhealthcare": 5907,
  "Ġburma": 5908,
  "Ġambition": 5909,
  "Ġacceler": 5910,
  "Ġ[": 5911,
  "ief": 5912,
  "Ġglass": 5913,
  "Ġgradually": 5914,
  "Ġeliminate": 5915,
  "Ġincredible": 5916,
  "Ġparalle": 5917,
  "su": 5918,
  "ocking": 5919,
  "Ġexpense": 5920,
  "aching": 5921,
  "Ġsigns": 5922,
  "Ġcapt": 5923,
  "Ġfran": 5924,
  "Ġexploitation": 5925,
  "Ġenforcement": 5926,
  "Ġislands": 5927,
  "irty": 5928,
  "Ġintends": 5929,
  "Ġmoreover": 5930,
  "Ġreported": 5931,
  "Ġ1995": 5932,
  "Ġdetect": 5933,
  "sider": 5934,
  "Ġcutting": 5935,
  "Ġstressed": 5936,
  "Ġslightly": 5937,
  "bar": 5938,
  "mine": 5939,
  "Ġpace": 5940,
  "Ġfing": 5941,
  "Ġshame": 5942,
  "amend": 5943,
  "Ġpersist": 5944,
  "Ġ300": 5945,
  "Ġneighbor": 5946,
  "Ġindicated": 5947,
  "Ġadjustment": 5948,
  "Ġhomes": 5949,
  "Ġintelligence": 5950,
  "Ġcategory": 5951,
  "iry": 5952,
  "Ġwarning": 5953,
  "Ġcorner": 5954,
  "Ġequival": 5955,
  "Ġmovements": 5956,
  "Ġexperiences": 5957,
  "Ġcongress": 5958,
  "Ġanaly": 5959,
  "Ġtrem": 5960,
  "ny": 5961,
  "rors": 5962,
  "icted": 5963,
  "Ġgri": 5964,
  "wel": 5965,
  "ption": 5966,
  "Ġenvis": 5967,
  "ova": 5968,
  "cohol": 5969,
  "Ġzimbabwe": 5970,
  "Ġpercentage": 5971,
  "Ġrepeatedly": 5972,
  "Ġbse": 5973,
  "Ġvac": 5974,
  "Ġwouldn": 5975,
  "Ġinvited": 5976,
  "Ġconsiders": 5977,
  "Ġinsufficient": 5978,
  "Ġcontrolled": 5979,
  "place": 5980,
  "Ġremarkable": 5981,
  "Ġsolely": 5982,
  "Ġthursday": 5983,
  "Ġdanish": 5984,
  "Ġ26": 5985,
  "Ġmostly": 5986,
  "Ġcertainty": 5987,
  "Ġalternatives": 5988,
  "reshold": 5989,
  "Ġkn": 5990,
  "Ġarise": 5991,
  "Ġdecre": 5992,
  "Ġperpet": 5993,
  "Ġrealized": 5994,
  "Ġfaces": 5995,
  "Ġmoroc": 5996,
  "Ġobliged": 5997,
  "jud": 5998,
  "rations": 5999,
  "asion": 6000,
  "rif": 6001,
  "Ġanywhere": 6002,
  "Ġsmoking": 6003,
  "ribute": 6004,
  "Ġreferring": 6005,
  "Ġsales": 6006,
  "Ġcommunications": 6007,
  "Ġphotograph": 6008,
  "Ġemerged": 6009,
  "sv": 6010,
  "Ġthreshold": 6011,
  "Ġsaving": 6012,
  "nat": 6013,
  "Ġwage": 6014,
  "Ġgulf": 6015,
  "Ġwebs": 6016,
  "Ġquote": 6017,
  "Ġherit": 6018,
  "Ġtrip": 6019,
  "Ġgained": 6020,
  "Ġcatast": 6021,
  "Ġsurvival": 6022,
  "russia": 6023,
  "Ġtom": 6024,
  "Ġfost": 6025,
  "Ġcommod": 6026,
  "Ġhelps": 6027,
  "Ġjoined": 6028,
  "Ġignored": 6029,
  "Ġconservative": 6030,
  "Ġsuddenly": 6031,
  "subject": 6032,
  "Ġmovie": 6033,
  "Ġatmosphere": 6034,
  "yal": 6035,
  "Ġcli": 6036,
  "roc": 6037,
  "Ġnut": 6038,
  "ctive": 6039,
  "Ġonto": 6040,
  "Ġupd": 6041,
  "Ġspite": 6042,
  "Ġindones": 6043,
  "Ġmold": 6044,
  "Ġendors": 6045,
  "Ġempty": 6046,
  "Ġcompetent": 6047,
  "being": 6048,
  "Ġconvince": 6049,
  "Ġsubjects": 6050,
  "Ġannounce": 6051,
  "bl": 6052,
  "point": 6053,
  "ona": 6054,
  "Ġports": 6055,
  "Ġalive": 6056,
  "Ġinterinstitutional": 6057,
  "cuse": 6058,
  "Ġminds": 6059,
  "Ġapplications": 6060,
  "Ġembra": 6061,
  "Ġslowly": 6062,
  "Ġforgotten": 6063,
  "Ġheritage": 6064,
  "Ġwake": 6065,
  "oler": 6066,
  "Ġsharing": 6067,
  "Ġcomplement": 6068,
  "izes": 6069,
  "Ġundermine": 6070,
  "Ġfem": 6071,
  "Ġindian": 6072,
  "Ġrespects": 6073,
  "Ġdoubts": 6074,
  "Ġbelgium": 6075,
  "Ġfrequently": 6076,
  "Ġcultures": 6077,
  "ki": 6078,
  "Ġwages": 6079,
  "erc": 6080,
  "lymp": 6081,
  "Ġalcohol": 6082,
  "Ġoffering": 6083,
  "ecision": 6084,
  "Ġsuggestions": 6085,
  "Ġprag": 6086,
  "Ġmobile": 6087,
  "building": 6088,
  "bet": 6089,
  "eff": 6090,
  "rut": 6091,
  "session": 6092,
  "Ġpermit": 6093,
  "Ġenthus": 6094,
  "Ġresulted": 6095,
  "Ġschem": 6096,
  "Ġconsiderably": 6097,
  "Ġdeaths": 6098,
  "Ġhungary": 6099,
  "Ġnonetheless": 6100,
  "Ġfixed": 6101,
  "Ġvessels": 6102,
  "Ġenthusi": 6103,
  "hu": 6104,
  "Ġwed": 6105,
  "anks": 6106,
  "alities": 6107,
  "Ġanx": 6108,
  "Ġstream": 6109,
  "Ġsoil": 6110,
  "umn": 6111,
  "Ġgenetic": 6112,
  "Ġsocialists": 6113,
  "Ġrefers": 6114,
  "Ġdiscover": 6115,
  "Ġinterpre": 6116,
  "Ġinstitute": 6117,
  "Ġplays": 6118,
  "Ġtaiwan": 6119,
  "Ġnegotiated": 6120,
  "Ġspeeches": 6121,
  "Ġdeadline": 6122,
  "Ġentrepreneurs": 6123,
  "Ġtimetable": 6124,
  "craft": 6125,
  "ham": 6126,
  "Ġtired": 6127,
  "itably": 6128,
  "Ġcompulsory": 6129,
  "mean": 6130,
  "Ġscar": 6131,
  "Ġdepri": 6132,
  "Ġpursued": 6133,
  "Ġtemper": 6134,
  "Ġstimul": 6135,
  "Ġfalse": 6136,
  "Ġtremend": 6137,
  "gn": 6138,
  "Ġaspir": 6139,
  "Ġunre": 6140,
  "Ġcommand": 6141,
  "Ġ28": 6142,
  "ager": 6143,
  "Ġdistort": 6144,
  "Ġlistened": 6145,
  "Ġpensions": 6146,
  "Ġharmful": 6147,
  "Ġbadly": 6148,
  "Ġetc": 6149,
  "Ġliked": 6150,
  "Ġplat": 6151,
  "Ġforecast": 6152,
  "Ġlibya": 6153,
  "Ġfriendly": 6154,
  "Ġdestroyed": 6155,
  "Ġsong": 6156,
  "Ġdar": 6157,
  "Ġregister": 6158,
  "Ġdemocracies": 6159,
  "Ġscrut": 6160,
  "Ġconsiderations": 6161,
  "Ġrepresentation": 6162,
  "Ġbreach": 6163,
  "Ġcodecision": 6164,
  "Ġpetitions": 6165,
  "Ġvirtually": 6166,
  "Ļ«": 6167,
  "Ġsection": 6168,
  "Ġdemographic": 6169,
  "Ġfoundations": 6170,
  "Ġaffecting": 6171,
  "Ġroads": 6172,
  "known": 6173,
  "Ġbureaucratic": 6174,
  "Ġintervene": 6175,
  "Ġregrettable": 6176,
  "ems": 6177,
  "long": 6178,
  "idden": 6179,
  "che": 6180,
  "atell": 6181,
  "Ġfault": 6182,
  "Ġminim": 6183,
  "Ġfreely": 6184,
  "Ġerror": 6185,
  "Ġrome": 6186,
  "Ġdemonst": 6187,
  "Ġethical": 6188,
  "Ġreinforce": 6189,
  "Ġships": 6190,
  "Ġbelgian": 6191,
  "Ġscandal": 6192,
  "Ġexecutive": 6193,
  "Ġcoffee": 6194,
  "Ġschemes": 6195,
  "nob": 6196,
  "Ġpassion": 6197,
  "rap": 6198,
  "illing": 6199,
  "opard": 6200,
  "Ġken": 6201,
  "Ġmarked": 6202,
  "Ġperce": 6203,
  "Ġclarity": 6204,
  "together": 6205,
  "Ġirre": 6206,
  "Ġwindow": 6207,
  "Ġdisappointed": 6208,
  "Ġreturned": 6209,
  "Ġreservations": 6210,
  "Ġbridge": 6211,
  "bb": 6212,
  "mory": 6213,
  "Ġolymp": 6214,
  "Ġhat": 6215,
  "Ġlith": 6216,
  "Ġunpre": 6217,
  "otherwise": 6218,
  "Ġconstitutes": 6219,
  "Ġthreatened": 6220,
  "Ġpalestine": 6221,
  "Ġfears": 6222,
  "ophob": 6223,
  "Ġbonds": 6224,
  "Ġquarter": 6225,
  "Ġaccompanied": 6226,
  "Ġinfringe": 6227,
  "osis": 6228,
  "cific": 6229,
  "Ġdiss": 6230,
  "Ġsphere": 6231,
  "Ġmarketing": 6232,
  "Ġremed": 6233,
  "Ġcolon": 6234,
  "Ġnegotiate": 6235,
  "Ġjourney": 6236,
  "Ġracism": 6237,
  "Ġnav": 6238,
  "Ġmere": 6239,
  "Ġmemory": 6240,
  "Ġroot": 6241,
  "Ġlasting": 6242,
  "Ġglobalization": 6243,
  "Ġimages": 6244,
  "Ġannivers": 6245,
  "Ġcontradict": 6246,
  "Ġnarrow": 6247,
  "Ġendeavour": 6248,
  "hear": 6249,
  "ko": 6250,
  "ÃŃ": 6251,
  "Ġcash": 6252,
  "antly": 6253,
  "Ġuses": 6254,
  "Ġincident": 6255,
  "Ġthinks": 6256,
  "Ġwhereas": 6257,
  "Ġdisplay": 6258,
  "Ġgeographical": 6259,
  "Ġfashion": 6260,
  "Ġunfortun": 6261,
  "Ġpreserve": 6262,
  "Ġoutstanding": 6263,
  "arer": 6264,
  "Ġmillenn": 6265,
  "Ġshares": 6266,
  "burg": 6267,
  "Ġcert": 6268,
  "Ġmit": 6269,
  "ulous": 6270,
  "Ġdisabled": 6271,
  "Ġrefuse": 6272,
  "luding": 6273,
  "Ġrequests": 6274,
  "Ġcomputers": 6275,
  "Ġchurch": 6276,
  "Ġaugust": 6277,
  "Ġanniversary": 6278,
  "Ġunfortunate": 6279,
  "Ġmillennium": 6280,
  "each": 6281,
  "follow": 6282,
  "inational": 6283,
  "Ġwild": 6284,
  "Ġnotion": 6285,
  "Ġtexts": 6286,
  "Ġgenet": 6287,
  "Ġsmart": 6288,
  "Ġairport": 6289,
  "Ġdevast": 6290,
  "Ġdeterior": 6291,
  "Ġcoalition": 6292,
  "Ġsquare": 6293,
  "Ġmanufacturers": 6294,
  "Ġcas": 6295,
  "Ġunions": 6296,
  "Ġsuitable": 6297,
  "Ġsev": 6298,
  "Ġfails": 6299,
  "Ġfallen": 6300,
  "Ġunemployed": 6301,
  "Ġemployers": 6302,
  "Ġteachers": 6303,
  "Ġvehicle": 6304,
  "Ġpassenger": 6305,
  "Ġvillage": 6306,
  "requ": 6307,
  "eds": 6308,
  "ario": 6309,
  "Ġhaz": 6310,
  "aded": 6311,
  "emic": 6312,
  "Ġexperiencing": 6313,
  "Ġroman": 6314,
  "Ġdenmark": 6315,
  "Ġchapter": 6316,
  ".'": 6317,
  "mic": 6318,
  "wa": 6319,
  "Ġsending": 6320,
  "Ġfate": 6321,
  "also": 6322,
  "Ġstance": 6323,
  "Ġcitizenship": 6324,
  "Ġcease": 6325,
  "Ġcopy": 6326,
  "vi": 6327,
  "Ġwis": 6328,
  "Ġmaced": 6329,
  "Ġatlantic": 6330,
  "erences": 6331,
  "Ġclub": 6332,
  "Ġdesp": 6333,
  "Ġapproaches": 6334,
  "Ġbroke": 6335,
  "Ġbroken": 6336,
  "Ġswift": 6337,
  "Ġjudgment": 6338,
  "Ġexceptional": 6339,
  "Ġcomparison": 6340,
  "Ġequivalent": 6341,
  "oly": 6342,
  "Ġnames": 6343,
  "ray": 6344,
  "Ġshut": 6345,
  "Ġboom": 6346,
  "Ġprovid": 6347,
  "Ġruling": 6348,
  "Ġmultinational": 6349,
  "Ġcycle": 6350,
  "Ġsounds": 6351,
  "Ġasset": 6352,
  "Ġsite": 6353,
  "Ġonline": 6354,
  "Ġyield": 6355,
  "Ġconvers": 6356,
  "Ġshi": 6357,
  "Ġshap": 6358,
  "Ġevident": 6359,
  "Ġindis": 6360,
  "Ġapolog": 6361,
  "Ġbeneficial": 6362,
  "Ġconstrain": 6363,
  "Ġreplaced": 6364,
  "Ġfuels": 6365,
  "Ġlogic": 6366,
  "Ġfifth": 6367,
  "Ġcomponent": 6368,
  "99": 6369,
  "itative": 6370,
  "level": 6371,
  "Ġgross": 6372,
  "Ġaren": 6373,
  "ective": 6374,
  "Ġunderlying": 6375,
  "Ġtransactions": 6376,
  "nex": 6377,
  "Ġneglect": 6378,
  "Ġpharm": 6379,
  "Ġexcluded": 6380,
  "Ġneighbouring": 6381,
  "Ġincentive": 6382,
  "Ġwashington": 6383,
  "Ġbreath": 6384,
  "Ġparallel": 6385,
  "fall": 6386,
  "Ġeating": 6387,
  "Ġstor": 6388,
  "Ġchief": 6389,
  "etor": 6390,
  "Ġrelate": 6391,
  "Ġhelpful": 6392,
  "Ġerad": 6393,
  "liferation": 6394,
  "Ġindicate": 6395,
  "Ġearthqu": 6396,
  "Ġsloven": 6397,
  "Ġchemicals": 6398,
  "Ġdisappear": 6399,
  "Ġinevitable": 6400,
  "rity": 6401,
  "orn": 6402,
  "child": 6403,
  "osing": 6404,
  "Ġmodified": 6405,
  "board": 6406,
  "Ġdivision": 6407,
  "Ġliterally": 6408,
  "Ġsurrounding": 6409,
  "Ġlithu": 6410,
  "Ġtaught": 6411,
  "Ġdan": 6412,
  "pper": 6413,
  "looking": 6414,
  "Ġnecessity": 6415,
  "Ġ35": 6416,
  "Ġdistance": 6417,
  "Ġvisible": 6418,
  "Ġdeclare": 6419,
  "Ġemphasised": 6420,
  "regular": 6421,
  "Ġdemonstrates": 6422,
  "Ġincredibly": 6423,
  "Ġmurd": 6424,
  "Ġelder": 6425,
  "Ġsmoo": 6426,
  "Ġpresenting": 6427,
  "Ġpresentation": 6428,
  "Ġmodest": 6429,
  "Ġgrew": 6430,
  "Ġcapitalism": 6431,
  "Ġpotentially": 6432,
  "Ġobtained": 6433,
  "Ġlogical": 6434,
  "Ġmicro": 6435,
  "Ġrestricted": 6436,
  "oured": 6437,
  "Ġgh": 6438,
  "Ġunp": 6439,
  "Ġraises": 6440,
  "Ġproven": 6441,
  "Ġkeen": 6442,
  "Ġcombination": 6443,
  "Ġargent": 6444,
  "Ġgenerate": 6445,
  "Ġmulti": 6446,
  "Ġchecks": 6447,
  "Ġstreets": 6448,
  "Ġregularly": 6449,
  "Ġintelligent": 6450,
  "Ġreconciliation": 6451,
  "Ġfemale": 6452,
  "10": 6453,
  "Ġbub": 6454,
  "Ġgun": 6455,
  "Ġsomewhere": 6456,
  "Ġliber": 6457,
  "Ġperiods": 6458,
  "exist": 6459,
  "Ġscenario": 6460,
  "ĠâĻ«": 6461,
  "col": 6462,
  "ients": 6463,
  "turn": 6464,
  "inder": 6465,
  "Ġactors": 6466,
  "angible": 6467,
  "Ġbusy": 6468,
  "Ġfrid": 6469,
  "Ġdelays": 6470,
  "Ġcomplaints": 6471,
  "Ġobservers": 6472,
  "Ġmurder": 6473,
  "culation": 6474,
  "Ġast": 6475,
  "astrich": 6476,
  "Ġmart": 6477,
  "Ġfinanced": 6478,
  "Ġfeels": 6479,
  "Ġretire": 6480,
  "Ġvisited": 6481,
  "arko": 6482,
  "Ġjeopard": 6483,
  "astricht": 6484,
  "ka": 6485,
  "ician": 6486,
  "ils": 6487,
  "whe": 6488,
  "Ġbrut": 6489,
  "Ġdistingu": 6490,
  "Ġviolation": 6491,
  "Ġanticip": 6492,
  "Ġuniversities": 6493,
  "Ġestimated": 6494,
  "Ġvariety": 6495,
  "Ġrhetor": 6496,
  "grow": 6497,
  "oy": 6498,
  "Ġic": 6499,
  "Ġpse": 6500,
  "ationally": 6501,
  "versi": 6502,
  "Ġmarried": 6503,
  "Ġrare": 6504,
  "cedented": 6505,
  "Ġdirected": 6506,
  "Ġmaastricht": 6507,
  "Ġgrown": 6508,
  "Ġdiagn": 6509,
  "Ġsatisfaction": 6510,
  "Ġheavily": 6511,
  "Ġunanimously": 6512,
  "Ġsoftware": 6513,
  "Ġprocure": 6514,
  "nobody": 6515,
  "arkozy": 6516,
  "Ġtree": 6517,
  "Ġaward": 6518,
  "Ġbiod": 6519,
  "Ġheat": 6520,
  "Ġsettle": 6521,
  "chnya": 6522,
  "Ġviet": 6523,
  "Ġabsor": 6524,
  "Ġregulated": 6525,
  "Ġvolume": 6526,
  "Ġacquis": 6527,
  "Ġrelief": 6528,
  "Ġinnocent": 6529,
  "Ġunprecedented": 6530,
  "pal": 6531,
  "zen": 6532,
  "isra": 6533,
  "Ġdav": 6534,
  "until": 6535,
  "comings": 6536,
  "Ġfailing": 6537,
  "Ġabsurd": 6538,
  "Ġprevented": 6539,
  "Ġsuggestion": 6540,
  "Ġfunctions": 6541,
  "Ġvictim": 6542,
  "Ġambitions": 6543,
  "Ġecological": 6544,
  "Ġgreenhouse": 6545,
  "Ġultimate": 6546,
  "Ġarrive": 6547,
  "Ġsupervisory": 6548,
  "Ġroute": 6549,
  "Ġvietnam": 6550,
  "ns": 6551,
  "rum": 6552,
  "rous": 6553,
  "Ġfab": 6554,
  "ications": 6555,
  "Ġlaugh": 6556,
  "respect": 6557,
  "Ġexcuse": 6558,
  "Ġkar": 6559,
  "Ġsaudi": 6560,
  "Ġreflection": 6561,
  "Ġextending": 6562,
  "Ġhappiness": 6563,
  "Ġdepression": 6564,
  "Ġshortcomings": 6565,
  "Ġindicators": 6566,
  "Ġaccordingly": 6567,
  "Ġaccomplish": 6568,
  "Ġenhanced": 6569,
  "Ġapproximately": 6570,
  "Ġtremendous": 6571,
  "versial": 6572,
  "dro": 6573,
  "oided": 6574,
  "sm": 6575,
  "uity": 6576,
  "Ġsatell": 6577,
  "Ġox": 6578,
  "room": 6579,
  "icking": 6580,
  "Ġmanaging": 6581,
  "Ġunderline": 6582,
  "Ġregardless": 6583,
  "Ġguess": 6584,
  "Ġsolar": 6585,
  "Ġvalid": 6586,
  "Ġavoided": 6587,
  "Ġarticles": 6588,
  "Ġinequality": 6589,
  "Ġkilling": 6590,
  "person": 6591,
  "uct": 6592,
  "Ġsand": 6593,
  "Ġeco": 6594,
  "Ġfinances": 6595,
  "Ġfrag": 6596,
  "Ġopenly": 6597,
  "Ġ2013": 6598,
  "Ġcoordinate": 6599,
  "Ġdiver": 6600,
  "eva": 6601,
  "Ġreleased": 6602,
  "nonetheless": 6603,
  "Ġtariff": 6604,
  "Ġstimulus": 6605,
  "mal": 6606,
  "stream": 6607,
  "Ġcommend": 6608,
  "Ġplural": 6609,
  "Ġrevised": 6610,
  "Ġshortly": 6611,
  "Ġaccessible": 6612,
  "Ġtraditions": 6613,
  "Ġchechnya": 6614,
  "Ġpieces": 6615,
  "Ġtackling": 6616,
  "Ġfootball": 6617,
  "Ġhoped": 6618,
  "Ġinhab": 6619,
  "Ġfifteen": 6620,
  "contro": 6621,
  "lex": 6622,
  "Ġlend": 6623,
  "Ġstore": 6624,
  "Ġparis": 6625,
  "unction": 6626,
  "Ġintensive": 6627,
  "alling": 6628,
  "Ġconfron": 6629,
  "Ġdifferently": 6630,
  "Ġ31": 6631,
  "Ġfrust": 6632,
  "Ġproductive": 6633,
  "Ġtransformation": 6634,
  "Ġcollaboration": 6635,
  "Ġnigeria": 6636,
  "Ġtorture": 6637,
  "bas": 6638,
  "atisf": 6639,
  "Ġpul": 6640,
  "Ġhair": 6641,
  "Ġallies": 6642,
  "Ġmemor": 6643,
  "Ġpark": 6644,
  "dep": 6645,
  "Ġrecover": 6646,
  "Ġroll": 6647,
  "Ġaccounting": 6648,
  "Ġlacking": 6649,
  "Ġenlar": 6650,
  "Ġpictures": 6651,
  "Ġhoriz": 6652,
  "Ġcompete": 6653,
  "Ġapparently": 6654,
  "celona": 6655,
  "aur": 6656,
  "Ġq": 6657,
  "Ġbang": 6658,
  "Ġhong": 6659,
  "Ġhence": 6660,
  "Ġrecy": 6661,
  "Ġlad": 6662,
  "Ġunit": 6663,
  "Ġeuropol": 6664,
  "Ġagrees": 6665,
  "aph": 6666,
  "Ġeconomists": 6667,
  "Ġaudience": 6668,
  "Ġaustrian": 6669,
  "Ġsilence": 6670,
  "Ġwelcomes": 6671,
  "Ġemerge": 6672,
  "Ġsupplementary": 6673,
  "human": 6674,
  "rec": 6675,
  "Ġmary": 6676,
  "ctic": 6677,
  "Ġneut": 6678,
  "Ġshif": 6679,
  "Ġresort": 6680,
  "Ġlikes": 6681,
  "Ġquiet": 6682,
  "Ġcompassion": 6683,
  "Ġblair": 6684,
  "Ġrecognized": 6685,
  "Ġappeared": 6686,
  "iban": 6687,
  "Ġdetri": 6688,
  "Ġsaddam": 6689,
  "Ġmanufacturing": 6690,
  "Ġdistinction": 6691,
  "Ġecho": 6692,
  "following": 6693,
  "fi": 6694,
  "Ġdur": 6695,
  "Ġhabit": 6696,
  "Ġunequ": 6697,
  "adays": 6698,
  "cience": 6699,
  "Ġchamp": 6700,
  "Ġrand": 6701,
  "Ġkh": 6702,
  "Ġnovel": 6703,
  "Ġroc": 6704,
  "Ġdistur": 6705,
  "Ġveget": 6706,
  "Ġaustral": 6707,
  "Ġdistributed": 6708,
  "Ġsimplification": 6709,
  "Ġprocurement": 6710,
  "inated": 6711,
  "ensible": 6712,
  "Ġannex": 6713,
  "Ġeuros": 6714,
  "Ġenabling": 6715,
  "Ġoutput": 6716,
  "Ġtrave": 6717,
  "Ġpermitted": 6718,
  "Ġstring": 6719,
  "Ġsignals": 6720,
  "Ġrejection": 6721,
  "Ġdeeper": 6722,
  "Ġpenalties": 6723,
  "Ġtrends": 6724,
  "meanwhile": 6725,
  "Ġmacedonia": 6726,
  "omal": 6727,
  "Ġstem": 6728,
  "Ġvoc": 6729,
  "Ġkong": 6730,
  "Ġpled": 6731,
  "Ġfeature": 6732,
  "Ġmole": 6733,
  "Ġhopefully": 6734,
  "Ġbuying": 6735,
  "Ġcontroversial": 6736,
  "Ġirregular": 6737,
  "Ġjoining": 6738,
  "Ġspeaks": 6739,
  "Ġregulate": 6740,
  "Ġairports": 6741,
  "Ġdenied": 6742,
  "Ġperspectives": 6743,
  "Ġoccupation": 6744,
  "maybe": 6745,
  "debate": 6746,
  "Ġbiodiversity": 6747,
  "cow": 6748,
  "sometimes": 6749,
  "organ": 6750,
  "asp": 6751,
  "connect": 6752,
  "Ġ29": 6753,
  "Ġcovers": 6754,
  "cessions": 6755,
  "Ġpoet": 6756,
  "Ġgrave": 6757,
  "Ġbiological": 6758,
  "Ġdoctors": 6759,
  "Ġjournalists": 6760,
  "Ã¤": 6761,
  "ifies": 6762,
  "abe": 6763,
  "ounded": 6764,
  "Ġaccused": 6765,
  "Ġmathe": 6766,
  "mann": 6767,
  "Ġ1994": 6768,
  "Ġstarts": 6769,
  "Ġachievements": 6770,
  "Ġoppon": 6771,
  "Ġdrivers": 6772,
  "Ġfocusing": 6773,
  "Ġtonnes": 6774,
  "Ġmental": 6775,
  "much": 6776,
  "Ġfought": 6777,
  "icated": 6778,
  "soever": 6779,
  "Ġacad": 6780,
  "Ġwhatsoever": 6781,
  "Ġpersec": 6782,
  "anged": 6783,
  "Ġconfident": 6784,
  "Ġdesirable": 6785,
  "Ġemu": 6786,
  "Ġmiles": 6787,
  "Ġbarcelona": 6788,
  "Ġjointly": 6789,
  "Ġhunger": 6790,
  "Ġexamined": 6791,
  "haust": 6792,
  "Ġabstained": 6793,
  "Ġinquiry": 6794,
  "tical": 6795,
  "Ġcf": 6796,
  "Ġfasc": 6797,
  "Ġhes": 6798,
  "Ġstood": 6799,
  "aces": 6800,
  "Ġmanip": 6801,
  "Ġpreca": 6802,
  "Ġtaliban": 6803,
  "Ġcolomb": 6804,
  "Ġartific": 6805,
  "Ġswitch": 6806,
  "Ġapplicant": 6807,
  "life": 6808,
  "Ġefficiently": 6809,
  "Ġcomplexity": 6810,
  "Ġdescribe": 6811,
  "Ġwarmly": 6812,
  "Ġtelephone": 6813,
  "Ġattractive": 6814,
  "Ġsurplus": 6815,
  "hence": 6816,
  "illance": 6817,
  "lihood": 6818,
  "Ġmanif": 6819,
  "Ġexposed": 6820,
  "Ġsports": 6821,
  "Ġcentres": 6822,
  "Ġanswered": 6823,
  "Ġharder": 6824,
  "Ġpreparations": 6825,
  "Ġdiplomacy": 6826,
  "Ġdestroy": 6827,
  "Ġautomatically": 6828,
  "Ġdrafting": 6829,
  "Ġroughly": 6830,
  "Ġpull": 6831,
  "ched": 6832,
  "Ġresc": 6833,
  "akings": 6834,
  "Ġsites": 6835,
  "Ġdesper": 6836,
  "Ġinformal": 6837,
  "Ġbanned": 6838,
  "Ġconventions": 6839,
  "Ġintegrity": 6840,
  "Ġruns": 6841,
  "Ġundertake": 6842,
  "Ġmerc": 6843,
  "Ġcrops": 6844,
  "Ġpipe": 6845,
  "Ġmorocco": 6846,
  "Ġalger": 6847,
  "Ġnoticed": 6848,
  "Ġjur": 6849,
  "Ġliability": 6850,
  "Ġwhereby": 6851,
  "Ġhero": 6852,
  "Ġcompetences": 6853,
  "Ġorganic": 6854,
  "Ġcreativity": 6855,
  "Ġcollection": 6856,
  "Ġdriven": 6857,
  "Ġholds": 6858,
  "Ġlands": 6859,
  "Ġstead": 6860,
  "Ġcoup": 6861,
  "Ġcondemned": 6862,
  "Ġobserved": 6863,
  "Ġmuslims": 6864,
  "Ġslovakia": 6865,
  "Ġsuspic": 6866,
  "Ġaccurate": 6867,
  "Ġelderly": 6868,
  "Ġtribute": 6869,
  "Ġbeat": 6870,
  "iled": 6871,
  "Ġnotably": 6872,
  "Ġimplies": 6873,
  "Ġconsent": 6874,
  "within": 6875,
  "Ġcoherence": 6876,
  "Ġapplicable": 6877,
  "Ġexciting": 6878,
  "book": 6879,
  "Ġdiverse": 6880,
  "Ġdeny": 6881,
  "Ġdiscrimin": 6882,
  "Ġallocation": 6883,
  "appropri": 6884,
  "bors": 6885,
  "iate": 6886,
  "sa": 6887,
  "Ġsn": 6888,
  "Ġsme": 6889,
  "Ġfant": 6890,
  "Ġfool": 6891,
  "Ġconven": 6892,
  "Ġmarine": 6893,
  "Ġinvite": 6894,
  "Ġoffic": 6895,
  "Ġcolor": 6896,
  "Ġorganized": 6897,
  "Ġplayer": 6898,
  "Ġfavourable": 6899,
  "Ġengland": 6900,
  "Ġmotions": 6901,
  "Ġ2012": 6902,
  "iox": 6903,
  "Ġskin": 6904,
  "Ġwording": 6905,
  "Ġillness": 6906,
  "Ġundertakings": 6907,
  "Ġmigrants": 6908,
  "Ġforests": 6909,
  "Ġacknowledged": 6910,
  "Ġsuspended": 6911,
  "da": 6912,
  "elect": 6913,
  "inal": 6914,
  "utical": 6915,
  "otic": 6916,
  "Ġabuses": 6917,
  "agers": 6918,
  "Ġbrok": 6919,
  "Ġreceiving": 6920,
  "Ġteaching": 6921,
  "Ġconservation": 6922,
  "Ġepide": 6923,
  "Ġinevitably": 6924,
  "Ġsurveillance": 6925,
  "Ġgenetically": 6926,
  "ba": 6927,
  "iable": 6928,
  "via": 6929,
  "ita": 6930,
  "oul": 6931,
  "Ġdos": 6932,
  "Ġnamed": 6933,
  "terror": 6934,
  "above": 6935,
  "Ġdispar": 6936,
  "Ġmarks": 6937,
  "aceutical": 6938,
  "Ġeveryday": 6939,
  "Ġfunded": 6940,
  "Ġmoves": 6941,
  "Ġends": 6942,
  "Ġinvesting": 6943,
  "Ġemission": 6944,
  "Ġinitially": 6945,
  "Ġfounded": 6946,
  "Ġtells": 6947,
  "Ġaccountability": 6948,
  "Ġaircraft": 6949,
  "Ġcircle": 6950,
  "Ġundertaking": 6951,
  "Ġwithdrawal": 6952,
  "Ġutmost": 6953,
  "Ġalbania": 6954,
  "Ġyugoslavia": 6955,
  "Ġtunisia": 6956,
  "Ġrhetoric": 6957,
  "Ġmanifest": 6958,
  "Ġtiny": 6959,
  "Ġconve": 6960,
  "christ": 6961,
  "lla": 6962,
  "Ġadverse": 6963,
  "Ġtransit": 6964,
  "Ġfundamentally": 6965,
  "ecd": 6966,
  "Ġsteel": 6967,
  "Ġcampaigns": 6968,
  "Ġrailway": 6969,
  "Ġcommunicate": 6970,
  "Ġhurt": 6971,
  "Ġincorporated": 6972,
  "Ġobservation": 6973,
  "Ġtitle": 6974,
  "Ġsarkozy": 6975,
  "Ġcot": 6976,
  "Ġlag": 6977,
  "Ġimported": 6978,
  "enses": 6979,
  "Ġresponses": 6980,
  "rators": 6981,
  "Ġsooner": 6982,
  "Ġtensions": 6983,
  "law": 6984,
  "Ġdrinking": 6985,
  "communications": 6986,
  "Ġreiterate": 6987,
  "Ġimperative": 6988,
  "Ġolaf": 6989,
  "Ġsympathy": 6990,
  "itzer": 6991,
  "Ġindonesia": 6992,
  "Ġpharmaceutical": 6993,
  "br": 6994,
  "ded": 6995,
  "Ġtangible": 6996,
  "rem": 6997,
  "Ġmouth": 6998,
  "Ġbeef": 6999,
  "Ġgrat": 7000,
  "Ġcontemp": 7001,
  "Ġconscious": 7002,
  "Ġdefault": 7003,
  "Ġprocessing": 7004,
  "Ġtape": 7005,
  "Ġinstability": 7006,
  "sequent": 7007,
  "Ġcongratulations": 7008,
  "Ġfleet": 7009,
  "Ġdisputes": 7010,
  "Ġterritories": 7011,
  "Ġsubstantially": 7012,
  "Ġdefeat": 7013,
  "Ġmoldova": 7014,
  "gans": 7015,
  "matically": 7016,
  "women": 7017,
  "Ġange": 7018,
  "Ġprote": 7019,
  "Ġvent": 7020,
  "Ġjump": 7021,
  "Ġoutset": 7022,
  "Ġentering": 7023,
  "Ġideological": 7024,
  "Ġacceptance": 7025,
  "Ġprivat": 7026,
  "Ġexamination": 7027,
  "Ġsurprising": 7028,
  "Ġhusband": 7029,
  "Ġinhabit": 7030,
  "cur": 7031,
  "good": 7032,
  "pass": 7033,
  "oning": 7034,
  "oration": 7035,
  "Ġing": 7036,
  "Ġcomfort": 7037,
  "Ġoffices": 7038,
  "Ġgenoc": 7039,
  "Ġfarms": 7040,
  "Ġcriminals": 7041,
  "Ġgranting": 7042,
  "Ġmissed": 7043,
  "Ġbillions": 7044,
  "Ġdinner": 7045,
  "naturally": 7046,
  "reaching": 7047,
  "enophob": 7048,
  "Ġbare": 7049,
  "Ġdivers": 7050,
  "Ġitems": 7051,
  "Ġintoler": 7052,
  "Ġinvent": 7053,
  "Ġdefending": 7054,
  "Ġinterim": 7055,
  "Ġsincerely": 7056,
  "Ġlibert": 7057,
  "Ġprofess": 7058,
  "Ġassociations": 7059,
  "Ġpursuing": 7060,
  "Ġconsulted": 7061,
  "Ġclearer": 7062,
  "Ġstruck": 7063,
  "Ġunanimous": 7064,
  "Ġcategories": 7065,
  "Ġdrafted": 7066,
  "american": 7067,
  "itzerland": 7068,
  "emy": 7069,
  "Ġbread": 7070,
  "Ġdna": 7071,
  "three": 7072,
  "Ġenemy": 7073,
  "Ġarbit": 7074,
  "Ġmonit": 7075,
  "Ġtesting": 7076,
  "Ġrelationships": 7077,
  "Ġhydro": 7078,
  "Ġ1970": 7079,
  "Ġpilot": 7080,
  "Ġwisdom": 7081,
  "mans": 7082,
  "rather": 7083,
  "enna": 7084,
  "Ġcens": 7085,
  "Ġreverse": 7086,
  "Ġlending": 7087,
  "Ġprompt": 7088,
  "Ġprescri": 7089,
  "among": 7090,
  "Ġimprison": 7091,
  "Ġappointment": 7092,
  "Ġanyway": 7093,
  "Ġrot": 7094,
  "Ġdangers": 7095,
  "Ġobserve": 7096,
  "Ġguaranteeing": 7097,
  "Ġrecorded": 7098,
  "break": 7099,
  "Ġrescue": 7100,
  "cles": 7101,
  "mis": 7102,
  "Ġcup": 7103,
  "Ġbail": 7104,
  "Ġunilateral": 7105,
  "osy": 7106,
  "istical": 7107,
  "licate": 7108,
  "Ġspot": 7109,
  "Ġ194": 7110,
  "nothing": 7111,
  "Ġenterprise": 7112,
  "Ġappreciation": 7113,
  "Ġtolerance": 7114,
  "Ġfriday": 7115,
  "win": 7116,
  "Ġtall": 7117,
  "Ġwave": 7118,
  "Ġpage": 7119,
  "Ġmich": 7120,
  "Ġnic": 7121,
  "Ġacted": 7122,
  "Ġmonday": 7123,
  "neither": 7124,
  "Ġcenturies": 7125,
  "Ġescape": 7126,
  "Ġerrors": 7127,
  "Ġemployed": 7128,
  "Ġcurrencies": 7129,
  "Ġpainful": 7130,
  "Ġqualifications": 7131,
  "Ġengagement": 7132,
  "Ġestimates": 7133,
  "Ġenlarged": 7134,
  ".,": 7135,
  "mer": 7136,
  "sch": 7137,
  "stuff": 7138,
  "Ġexhaust": 7139,
  "ivered": 7140,
  "Ġfeatures": 7141,
  "Ġbacking": 7142,
  "Ġ150": 7143,
  "Ġwalking": 7144,
  "political": 7145,
  "Ġderog": 7146,
  "Ġhouses": 7147,
  "trans": 7148,
  "Ġmonopoly": 7149,
  "Ġsplit": 7150,
  "Ġmacroeconomic": 7151,
  "Ġscrutiny": 7152,
  "power": 7153,
  "Ġdiox": 7154,
  "Ġsuic": 7155,
  "Ġcook": 7156,
  "Ġsubsequent": 7157,
  "Ġwarrant": 7158,
  "Ġcongratulating": 7159,
  "Ġtelecommunications": 7160,
  "Ġhazard": 7161,
  "Ġearthquake": 7162,
  "cut": 7163,
  "pa": 7164,
  "Ġaz": 7165,
  "isite": 7166,
  "Ġpig": 7167,
  "Ġfoss": 7168,
  "Ġhide": 7169,
  "Ġreward": 7170,
  "Ġgall": 7171,
  "Ġgather": 7172,
  "ounce": 7173,
  "operation": 7174,
  "teg": 7175,
  "Ġinternationally": 7176,
  "Ġbrand": 7177,
  "Ġphr": 7178,
  "Ġaccepting": 7179,
  "Ġiron": 7180,
  "Ġelite": 7181,
  "Ġessence": 7182,
  "Ġtextile": 7183,
  "regulation": 7184,
  "Ġdelivered": 7185,
  "ijing": 7186,
  "Ġxenophob": 7187,
  "Ġimbalances": 7188,
  "Ġoverwhelming": 7189,
  "nish": 7190,
  "Ġfan": 7191,
  "social": 7192,
  "Ġabst": 7193,
  "Ġpromoted": 7194,
  "Ġairlines": 7195,
  "Ġmessages": 7196,
  "Ġisolation": 7197,
  "democratic": 7198,
  "Ġwebsite": 7199,
  "Ġmuse": 7200,
  "Ġstations": 7201,
  "tery": 7202,
  "Ġseats": 7203,
  "Ġsomehow": 7204,
  "Ġreporting": 7205,
  "ounds": 7206,
  "mmet": 7207,
  "Ġmeets": 7208,
  "Ġresearchers": 7209,
  "Ġstars": 7210,
  "Ġcivilians": 7211,
  "Ġargued": 7212,
  "Ġredund": 7213,
  "Ġgains": 7214,
  "Ġworthy": 7215,
  "Ġunderest": 7216,
  "Ġcrazy": 7217,
  "Ġunanimity": 7218,
  "Ġownership": 7219,
  "gue": 7220,
  "hn": 7221,
  "ugg": 7222,
  "Ġowing": 7223,
  "Ġnur": 7224,
  "Ġsees": 7225,
  "Ġvary": 7226,
  "udes": 7227,
  "Ġmarri": 7228,
  "Ġjustification": 7229,
  "Ġroots": 7230,
  "Ġgeneva": 7231,
  "Ġassured": 7232,
  "Ġdonors": 7233,
  "Ġblow": 7234,
  "Ġpostal": 7235,
  "yesterday": 7236,
  "Ġcrash": 7237,
  "Ġjuris": 7238,
  "Ġgenocide": 7239,
  "bly": 7240,
  "friend": 7241,
  "Ġtast": 7242,
  "Ġah": 7243,
  "Ġbow": 7244,
  "Ġhall": 7245,
  "Ġdup": 7246,
  "kel": 7247,
  "aked": 7248,
  "ube": 7249,
  "Ġgrass": 7250,
  "Ġ45": 7251,
  "Ġmisunder": 7252,
  "Ġneighbors": 7253,
  "Ġdeclarations": 7254,
  "Ġscotland": 7255,
  "Ġlithuania": 7256,
  "Ġdossi": 7257,
  "ios": 7258,
  "nis": 7259,
  "vis": 7260,
  "zuel": 7261,
  "Ġtam": 7262,
  "inn": 7263,
  "ensions": 7264,
  "Ġbag": 7265,
  "Ġunh": 7266,
  "ustain": 7267,
  "Ġnationals": 7268,
  "Ġforever": 7269,
  "Ġprotectionism": 7270,
  "Ġcontributing": 7271,
  "Ġsustained": 7272,
  "Ġalongside": 7273,
  "Ġcounterfe": 7274,
  "Ġquota": 7275,
  "Ġobstacle": 7276,
  "turkey": 7277,
  "Ġautonomy": 7278,
  "Ġdiscipline": 7279,
  "Ġargentina": 7280,
  "whether": 7281,
  "Ġrecyc": 7282,
  "Ġsaved": 7283,
  "iph": 7284,
  "Ġreloc": 7285,
  "Ġmoderate": 7286,
  "Ġinspir": 7287,
  "Ġ400": 7288,
  "Ġbankrupt": 7289,
  "Ġrenewed": 7290,
  "Ġabandoned": 7291,
  "trade": 7292,
  "Ġmarginal": 7293,
  "Ġcamera": 7294,
  "Ġplatform": 7295,
  "Ġmuseum": 7296,
  "Ġholid": 7297,
  "Ġhaiti": 7298,
  "Ġsupre": 7299,
  "osure": 7300,
  "istry": 7301,
  "Ġadmitted": 7302,
  "Ġcontam": 7303,
  "Ġassert": 7304,
  "Ġfacility": 7305,
  "Ġnormally": 7306,
  "Ġkorean": 7307,
  "Ġchristians": 7308,
  "Ġenjoyed": 7309,
  "Ġclaimed": 7310,
  "Ġisolated": 7311,
  "Ġexplicitly": 7312,
  "uzz": 7313,
  "Ġcab": 7314,
  "Ġdoha": 7315,
  "Ġpropag": 7316,
  "Ġimmense": 7317,
  "Ġbenefici": 7318,
  "Ġexceptions": 7319,
  "Ġstrictly": 7320,
  "Ġconsolidation": 7321,
  "Ġnewspaper": 7322,
  "limin": 7323,
  "Ġties": 7324,
  "Ġsorts": 7325,
  "Ġcow": 7326,
  "Ġbrow": 7327,
  "thanks": 7328,
  "uled": 7329,
  "opol": 7330,
  "Ġsequ": 7331,
  "conf": 7332,
  "Ġserves": 7333,
  "Ġsubs": 7334,
  "Ġconfusion": 7335,
  "Ġwarn": 7336,
  "Ġrepression": 7337,
  "Ġ1992": 7338,
  "Ġorient": 7339,
  "Ġassessments": 7340,
  "Ġimposing": 7341,
  "Ġsenior": 7342,
  "Ġmeantime": 7343,
  "Ġcontacts": 7344,
  "Ġarrested": 7345,
  "Ġchannel": 7346,
  "Ġmoscow": 7347,
  "Ġexclusively": 7348,
  "Ġhouseholds": 7349,
  "children": 7350,
  "cas": 7351,
  "vent": 7352,
  "Ġinput": 7353,
  "aria": 7354,
  "Ġlunch": 7355,
  "olf": 7356,
  "Ġprerequ": 7357,
  "Ġserved": 7358,
  "Ġirrespon": 7359,
  "Ġstudying": 7360,
  "Ġpostpon": 7361,
  "Ġbroadcast": 7362,
  "Ġclosing": 7363,
  "Ġcatal": 7364,
  "Ġalleged": 7365,
  "Ġliberties": 7366,
  "japan": 7367,
  "vote": 7368,
  "Ġtic": 7369,
  "Ġcere": 7370,
  "Ġancient": 7371,
  "Ġdaughter": 7372,
  "Ġreput": 7373,
  "Ġevil": 7374,
  "Ġfeas": 7375,
  "Ġdiffer": 7376,
  "Ġsubsequently": 7377,
  "Ġdepth": 7378,
  "Ġadvis": 7379,
  "Ġfron": 7380,
  "Ġcongo": 7381,
  "Ġresolving": 7382,
  "Ġfisch": 7383,
  "security": 7384,
  "Ġsimplify": 7385,
  "Ġincomes": 7386,
  "Ġhypoc": 7387,
  "Ġfossil": 7388,
  "erity": 7389,
  "erving": 7390,
  "Ġsnow": 7391,
  "Ġattain": 7392,
  "Ġdisast": 7393,
  "Ġtimely": 7394,
  "Ġtechni": 7395,
  "Ġreductions": 7396,
  "Ġ37": 7397,
  "Ġinstall": 7398,
  "Ġswitzerland": 7399,
  "Ġlocation": 7400,
  "Ġtrees": 7401,
  "Ġobservations": 7402,
  "Ġdumping": 7403,
  "stuffs": 7404,
  "ares": 7405,
  "fur": 7406,
  "Ġstip": 7407,
  "Ġstages": 7408,
  "Ġsuit": 7409,
  "imag": 7410,
  "Ġshot": 7411,
  "Ġvene": 7412,
  "Ġrush": 7413,
  "Ġintense": 7414,
  "Ġque": 7415,
  "Ġknowing": 7416,
  "Ġbegins": 7417,
  "Ġcompromises": 7418,
  "Ġbreast": 7419,
  "Ġdivide": 7420,
  "Ġchristmas": 7421,
  "Ġtypical": 7422,
  "Ġconservatives": 7423,
  "Ġinspired": 7424,
  "Ġsatellite": 7425,
  "ni": 7426,
  "pone": 7427,
  "rical": 7428,
  "Ġfires": 7429,
  "Ġstal": 7430,
  "Ġfinnish": 7431,
  "Ġwhenever": 7432,
  "Ġreluct": 7433,
  "petus": 7434,
  "Ġpopul": 7435,
  "Ġceiling": 7436,
  "Ġparticipants": 7437,
  "shr": 7438,
  "Ġautumn": 7439,
  "Ġigc": 7440,
  "Ġclarification": 7441,
  "Ġauthoritarian": 7442,
  "Ġyeah": 7443,
  "Ġconstraints": 7444,
  "appropriate": 7445,
  "mod": 7446,
  "inter": 7447,
  "itudes": 7448,
  "Ġbes": 7449,
  "ori": 7450,
  "thy": 7451,
  "rapporteur": 7452,
  "Ġunjust": 7453,
  "Ġvit": 7454,
  "Ġenshr": 7455,
  "Ġunderp": 7456,
  "Ġaccum": 7457,
  "Ġsecular": 7458,
  "Ġorganise": 7459,
  "Ġimpetus": 7460,
  "Ġvisual": 7461,
  "Ġparticipating": 7462,
  "Ġpostpone": 7463,
  "Ġwalked": 7464,
  "Ġwinter": 7465,
  "Ġexerc": 7466,
  "Ġadequ": 7467,
  "Ġstimulate": 7468,
  "Ġstakeholders": 7469,
  "Ġattached": 7470,
  "Ġstorage": 7471,
  "lete": 7472,
  "Ġnord": 7473,
  "stop": 7474,
  "Ġtea": 7475,
  "Ġprejud": 7476,
  "Ġprelimin": 7477,
  "Ġminor": 7478,
  "Ġmeasured": 7479,
  "Ġsystematic": 7480,
  "beit": 7481,
  "Ġadvised": 7482,
  "Ġlowest": 7483,
  "Ġinequ": 7484,
  "Ġpartnerships": 7485,
  "Ġcollaps": 7486,
  "everything": 7487,
  "Ġvoices": 7488,
  "Ġhighlights": 7489,
  "Ġvirus": 7490,
  "Ġbirds": 7491,
  "Ġadvocate": 7492,
  "Ġutter": 7493,
  "amendment": 7494,
  "Ġaustralia": 7495,
  "iro": 7496,
  "Ġvers": 7497,
  "Ġms": 7498,
  "Ġflying": 7499,
  "eda": 7500,
  "Ġbeijing": 7501,
  "Ġselling": 7502,
  "Ġselection": 7503,
  "Ġhell": 7504,
  "Ġplain": 7505,
  "Ġbold": 7506,
  "Ġinterventions": 7507,
  "Ġdependence": 7508,
  "Ġcharacteristics": 7509,
  "Ġgeorge": 7510,
  "Ġexpertise": 7511,
  "Ġphilosophy": 7512,
  "country": 7513,
  "Ġjurisd": 7514,
  "aling": 7515,
  "Ġchick": 7516,
  "ussions": 7517,
  "Ġcompatible": 7518,
  "ointing": 7519,
  "ressing": 7520,
  "Ġdebts": 7521,
  "Ġwherever": 7522,
  "Ġdefining": 7523,
  "Ġinvested": 7524,
  "Ġobjections": 7525,
  "Ġplane": 7526,
  "Ġletters": 7527,
  "Ġcamb": 7528,
  "Ġukrain": 7529,
  "Ġconsistently": 7530,
  "Ġconcentration": 7531,
  "Ġcomparable": 7532,
  "Ġdepartment": 7533,
  "israel": 7534,
  "Ġinhabitants": 7535,
  "mi": 7536,
  "public": 7537,
  "Ġtact": 7538,
  "Ġald": 7539,
  "Ġsale": 7540,
  "Ġoecd": 7541,
  "Ġnotes": 7542,
  "Ġdoors": 7543,
  "Ġtrick": 7544,
  "Ġuphold": 7545,
  "Ġguide": 7546,
  "Ġcarri": 7547,
  "Ġviewed": 7548,
  "Ġabsent": 7549,
  "Ġliberals": 7550,
  "Ġconventional": 7551,
  "Ġ75": 7552,
  "Ġweapon": 7553,
  "Ġarabia": 7554,
  "Ġrefugee": 7555,
  "nesday": 7556,
  "Ġcoastal": 7557,
  "Ġmathemat": 7558,
  "Ġpreliminary": 7559,
  "Ġcos": 7560,
  "Ġpose": 7561,
  "Ġdivid": 7562,
  "ilty": 7563,
  "Ġimperial": 7564,
  "Ġplenty": 7565,
  "Ġcope": 7566,
  "Ġtransf": 7567,
  "Ġpublicly": 7568,
  "Ġinstruct": 7569,
  "Ġsocio": 7570,
  "Ġambig": 7571,
  "Ġdevoted": 7572,
  "Ġexchanges": 7573,
  "Ġratify": 7574,
  "Ġprosecut": 7575,
  "Ġspectrum": 7576,
  "Ġdismiss": 7577,
  "Ġproviders": 7578,
  "Ġopponents": 7579,
  "Ġdisastrous": 7580,
  "fast": 7581,
  "Ġtoxic": 7582,
  "Ġincon": 7583,
  "Ġexac": 7584,
  "Ġdisrupt": 7585,
  "Ġoutbreak": 7586,
  "Ġyours": 7587,
  "Ġaccomm": 7588,
  "Ġremote": 7589,
  "Ġformula": 7590,
  "Ġsafer": 7591,
  "Ġfeelings": 7592,
  "Ġcareer": 7593,
  "Ġexpressing": 7594,
  "Ġgenerous": 7595,
  "Ġdamaging": 7596,
  "laim": 7597,
  "Ġsilent": 7598,
  "Ġprotests": 7599,
  "Ġridic": 7600,
  "Ġpatterns": 7601,
  "Ġwednesday": 7602,
  "Ġprecaution": 7603,
  "Ġvenezuel": 7604,
  "Ġexacerb": 7605,
  "Ġaccommod": 7606,
  "hist": 7607,
  "po": 7608,
  "Ġtens": 7609,
  "Ġpity": 7610,
  "Ġbath": 7611,
  "Ġreun": 7612,
  "Ġreaff": 7613,
  "Ġloved": 7614,
  "Ġrock": 7615,
  "Ġcommunism": 7616,
  "Ġ1993": 7617,
  "Ġinterview": 7618,
  "Ġhorse": 7619,
  "Ġbeauty": 7620,
  "Ġmachines": 7621,
  "Ġvigil": 7622,
  "Ġchannels": 7623,
  "Ġashton": 7624,
  "berg": 7625,
  "tered": 7626,
  "Ã¨": 7627,
  "Ġmaster": 7628,
  "ili": 7629,
  "Ġdisarm": 7630,
  "aret": 7631,
  "minent": 7632,
  "ileo": 7633,
  "Ġdonor": 7634,
  "Ġhandle": 7635,
  "Ġpractically": 7636,
  "Ġrepresenting": 7637,
  "Ġexperiments": 7638,
  "Ġbroadly": 7639,
  "Ġsentences": 7640,
  "Ġorganisms": 7641,
  "Ġrestrictive": 7642,
  "Ġ1989": 7643,
  "Ġangry": 7644,
  "regarding": 7645,
  "Ġpersuade": 7646,
  "Ġarchitecture": 7647,
  "Ġrevealed": 7648,
  "Ġretirement": 7649,
  "christian": 7650,
  "bul": 7651,
  "call": 7652,
  "mid": 7653,
  "inet": 7654,
  "Ġstup": 7655,
  "Ġalbeit": 7656,
  "Ġdetain": 7657,
  "Ġenables": 7658,
  "Ġheight": 7659,
  "Ġtrillion": 7660,
  "Ġprecond": 7661,
  "Ġlegacy": 7662,
  "Ġgenerated": 7663,
  "Ġpressing": 7664,
  "Ġpollut": 7665,
  "Ġengineering": 7666,
  "Ġabolition": 7667,
  "america": 7668,
  "Ġflights": 7669,
  "Ġendorsed": 7670,
  "Ġolympic": 7671,
  "Ġingred": 7672,
  "lim": 7673,
  "run": 7674,
  "tes": 7675,
  "ule": 7676,
  "erted": 7677,
  "Ġpapers": 7678,
  "Ġdying": 7679,
  "ulz": 7680,
  "ador": 7681,
  "Ġshel": 7682,
  "Ġreprodu": 7683,
  "llor": 7684,
  "Ġposed": 7685,
  "ogle": 7686,
  "Ġtrace": 7687,
  "Ġsecur": 7688,
  "neg": 7689,
  "Ġsolving": 7690,
  "Ġconviction": 7691,
  "Ġpays": 7692,
  "Ġflat": 7693,
  "Ġpassing": 7694,
  "Ġpushed": 7695,
  "Ġpraise": 7696,
  "Ġmonopol": 7697,
  "Ġliberty": 7698,
  "bi": 7699,
  "glo": 7700,
  "hi": 7701,
  "ores": 7702,
  "Ġpestic": 7703,
  "Ġmir": 7704,
  "Ġfill": 7705,
  "Ġhidden": 7706,
  "Ġdat": 7707,
  "Ġunus": 7708,
  "Ġshop": 7709,
  "ultane": 7710,
  "Ġtroub": 7711,
  "Ġmoon": 7712,
  "Ġadding": 7713,
  "Ġschulz": 7714,
  "Ġcostly": 7715,
  "Ġwholehear": 7716,
  "Ġintegrate": 7717,
  "ography": 7718,
  "Ġcultiv": 7719,
  "Ġthoroughly": 7720,
  "Ġcommodity": 7721,
  "bally": 7722,
  "dens": 7723,
  "initi": 7724,
  "Ġcul": 7725,
  "ales": 7726,
  "ara": 7727,
  "Ġbears": 7728,
  "irds": 7729,
  "Ġseason": 7730,
  "Ġpresents": 7731,
  "auth": 7732,
  "Ġindication": 7733,
  "Ġguilty": 7734,
  "Ġdramatically": 7735,
  "Ġaffair": 7736,
  "too": 7737,
  "Ġsecondly": 7738,
  "Ġlabel": 7739,
  "Ġflaw": 7740,
  "Ġmandatory": 7741,
  "Ġosce": 7742,
  "Ġpunishment": 7743,
  "Ġliquidity": 7744,
  "Ġfragile": 7745,
  "night": 7746,
  "sess": 7747,
  "vity": 7748,
  "ald": 7749,
  "Ġwhol": 7750,
  "idential": 7751,
  "rage": 7752,
  "Ġsubstit": 7753,
  "Ġrealities": 7754,
  "Ġrespective": 7755,
  "Ġequity": 7756,
  "Ġfoods": 7757,
  "Ġkeeps": 7758,
  "Ġstrikes": 7759,
  "Ġausterity": 7760,
  "Ġinvestigate": 7761,
  "anyone": 7762,
  "Ġconcepts": 7763,
  "discri": 7764,
  "Ġtemperature": 7765,
  "xual": 7766,
  "Ġts": 7767,
  "Ġtear": 7768,
  "Ġmale": 7769,
  "Ġnaz": 7770,
  "Ġlists": 7771,
  "establish": 7772,
  "Ġjer": 7773,
  "Ġrarely": 7774,
  "Ġanymore": 7775,
  "Ġoverlook": 7776,
  "Ġtranslation": 7777,
  "Ġgrasp": 7778,
  "Ġprincipal": 7779,
  "Ġadvances": 7780,
  "Ġunderstandable": 7781,
  "mptions": 7782,
  "Ġcombine": 7783,
  "Ġoriginally": 7784,
  "Ġdelayed": 7785,
  "Ġcovering": 7786,
  "Ġdominant": 7787,
  "Ġrevenues": 7788,
  "Ġoptimistic": 7789,
  "Ġsacrif": 7790,
  "Ġdismant": 7791,
  "fourthly": 7792,
  "Ġcolombia": 7793,
  ".)": 7794,
  "medi": 7795,
  "Ġdrast": 7796,
  "Ġegg": 7797,
  "Ġrevers": 7798,
  "stan": 7799,
  "Ġgard": 7800,
  "Ġsoc": 7801,
  "Ġcoinc": 7802,
  "Ġfragment": 7803,
  "Ġfinds": 7804,
  "Ġprogressive": 7805,
  "Ġstudied": 7806,
  "201": 7807,
  "Ġresponded": 7808,
  "Ġreminded": 7809,
  "Ġtreas": 7810,
  "Ġcomponents": 7811,
  "Ġirregularities": 7812,
  "sad": 7813,
  "view": 7814,
  "Ġbond": 7815,
  "Ġmira": 7816,
  "Ġgest": 7817,
  "Ġutil": 7818,
  "Ġenrich": 7819,
  "iously": 7820,
  "Ġsmoke": 7821,
  "Ġfindings": 7822,
  "Ġrevol": 7823,
  "ofuel": 7824,
  "Ġthoughts": 7825,
  "Ġsunday": 7826,
  "Ġrobust": 7827,
  "Ã³n": 7828,
  "Ġfinger": 7829,
  "Ġaspirations": 7830,
  "Ġconversation": 7831,
  "Ġsmooth": 7832,
  "osyste": 7833,
  "ustainable": 7834,
  "ship": 7835,
  "ani": 7836,
  "Ġbreed": 7837,
  "Ġelig": 7838,
  "cture": 7839,
  "Ġgaps": 7840,
  "ids": 7841,
  "ami": 7842,
  "Ġorgans": 7843,
  "ocal": 7844,
  "Ġworker": 7845,
  "Ġpolicymakers": 7846,
  "ollah": 7847,
  "Ġruled": 7848,
  "Ġdepos": 7849,
  "Ġprocedural": 7850,
  "Ġ1991": 7851,
  "Ġisraelis": 7852,
  "Ġvolat": 7853,
  "Ġconsultations": 7854,
  "Ġharmonised": 7855,
  "Ġconsistency": 7856,
  "Ġartificial": 7857,
  "Ġmonitored": 7858,
  "Ġdatab": 7859,
  "fire": 7860,
  "wish": 7861,
  "isen": 7862,
  "Ġband": 7863,
  "stone": 7864,
  "sein": 7865,
  "several": 7866,
  "Ġatom": 7867,
  "Ġnobel": 7868,
  "whatever": 7869,
  "Ġnationalism": 7870,
  "something": 7871,
  "Ġpaul": 7872,
  "Ġecosyste": 7873,
  "Ġdefinitive": 7874,
  "Ġcheaper": 7875,
  "Ġmeaningful": 7876,
  "Ġpoorer": 7877,
  "Ġfavorite": 7878,
  "Ġ1960": 7879,
  "Ġadults": 7880,
  "Ġsuicide": 7881,
  "Ġsupreme": 7882,
  "bun": 7883,
  "vic": 7884,
  "inent": 7885,
  "Ġmun": 7886,
  "Ġlam": 7887,
  "ifor": 7888,
  "rence": 7889,
  "Ġherself": 7890,
  "Ġbacked": 7891,
  "lessly": 7892,
  "Ġdemocratically": 7893,
  "Ġmoments": 7894,
  "Ġdevice": 7895,
  "Ġdimensions": 7896,
  "Ġinvestigations": 7897,
  "Ġgradual": 7898,
  "Ġgalileo": 7899,
  "Ġalde": 7900,
  "fif": 7901,
  "hard": 7902,
  "rass": 7903,
  "ancies": 7904,
  "Ġlingu": 7905,
  "Ġdear": 7906,
  "quar": 7907,
  "Ġgoogle": 7908,
  "agger": 7909,
  "Ġboys": 7910,
  "Ġbran": 7911,
  "Ġsocially": 7912,
  "Ġcriter": 7913,
  "Ġescal": 7914,
  "Ġhomework": 7915,
  "Ġcalm": 7916,
  "prof": 7917,
  "certainly": 7918,
  "Ġhoping": 7919,
  "Ġoccupied": 7920,
  "Ġdisappeared": 7921,
  "Ġparadox": 7922,
  "Ġsimultane": 7923,
  "Ġdemonstration": 7924,
  "Ġperceived": 7925,
  "had": 7926,
  "Ġske": 7927,
  "Ġcath": 7928,
  "essions": 7929,
  "Ġinappropriate": 7930,
  "Ġnomin": 7931,
  "Ġconcessions": 7932,
  "Ġrub": 7933,
  "Ġspecul": 7934,
  "Ġboat": 7935,
  "Ġassurance": 7936,
  "Ġformally": 7937,
  "Ġteams": 7938,
  "Ġemotional": 7939,
  "Ġhussein": 7940,
  "Ġcriterion": 7941,
  "cor": 7942,
  "five": 7943,
  "gs": 7944,
  "enko": 7945,
  "Ġcart": 7946,
  "Ġbearing": 7947,
  "Ġug": 7948,
  "Ġchances": 7949,
  "Ġrice": 7950,
  "outs": 7951,
  "igation": 7952,
  "Ġappla": 7953,
  "Ġconsists": 7954,
  "Ġarctic": 7955,
  "Ġscore": 7956,
  "Ġedge": 7957,
  "Ġexisted": 7958,
  "Ġpreventive": 7959,
  "Ġstatistical": 7960,
  "Ġthreatening": 7961,
  "Ġzones": 7962,
  "Ġveto": 7963,
  "Ġbiofuel": 7964,
  "Ġrobot": 7965,
  "Ġdreams": 7966,
  "Ġcontradiction": 7967,
  "Ġmortg": 7968,
  "Ġlawyer": 7969,
  "fund": 7970,
  "taking": 7971,
  "Ġcards": 7972,
  "Ġbird": 7973,
  "Ġdish": 7974,
  "Ġimpressive": 7975,
  "Ġresign": 7976,
  "Ġnowhere": 7977,
  "Ġinvented": 7978,
  "Ġhandling": 7979,
  "Ġtribun": 7980,
  "Ġadapted": 7981,
  "Ġsymbolic": 7982,
  "Ġincorporate": 7983,
  "Ġregistration": 7984,
  "Ġadequately": 7985,
  "isc": 7986,
  "icks": 7987,
  "olic": 7988,
  "Ġenabled": 7989,
  "Ġdisabilities": 7990,
  "Ġoutlined": 7991,
  "Ġposes": 7992,
  "Ġmothers": 7993,
  "Ġgenes": 7994,
  "Ġending": 7995,
  "icially": 7996,
  "Ġcapabilities": 7997,
  "Ġideology": 7998,
  "Ġbarack": 7999,
  "Ġmomentum": 8000,
  "ugen": 8001,
  "Ġburdens": 8002,
  "Ġprogramming": 8003,
  "Ġverhe": 8004,
  "Ġchancellor": 8005,
  "Ġconvincing": 8006,
  "Ġexploit": 8007,
  "ika": 8008,
  "Ġcustomers": 8009,
  "Ġsimplified": 8010,
  "Ġexplanations": 8011,
  "Ġdecentral": 8012,
  "Ġevaluate": 8013,
  "Ġenthusiasm": 8014,
  "Ġxenophobia": 8015,
  "global": 8016,
  "hr": 8017,
  "Ġpoc": 8018,
  "Ġfilled": 8019,
  "Ġreme": 8020,
  "stat": 8021,
  "irt": 8022,
  "Ġshoot": 8023,
  "ode": 8024,
  "ourse": 8025,
  "coni": 8026,
  "uming": 8027,
  "Ġcompli": 8028,
  "Ġcomposition": 8029,
  "Ġappointed": 8030,
  "Ġarising": 8031,
  "oked": 8032,
  "Ġperiph": 8033,
  "Ġ195": 8034,
  "Ġinteract": 8035,
  "Ġscene": 8036,
  "Ġregulators": 8037,
  "Ġcypri": 8038,
  "Ġdimin": 8039,
  "interest": 8040,
  "lusive": 8041,
  "Ġtendency": 8042,
  "Ġsurvey": 8043,
  "Ġphrase": 8044,
  "Ġtransfers": 8045,
  "Ġprecautionary": 8046,
  "Ġverheugen": 8047,
  "give": 8048,
  "mind": 8049,
  "uously": 8050,
  "Ġpit": 8051,
  "Ġhole": 8052,
  "Ġwished": 8053,
  "Ġseconds": 8054,
  "Ġpersonnel": 8055,
  "Ġborne": 8056,
  "Ġdriver": 8057,
  "everybody": 8058,
  "Ġimagination": 8059,
  "Ġreinforced": 8060,
  "Ġparagraphs": 8061,
  "Ġcruel": 8062,
  "Ġelectorate": 8063,
  "Ġpursuant": 8064,
  "Ġscarce": 8065,
  "Ġreputation": 8066,
  "Ġapplaud": 8067,
  "far": 8068,
  "met": 8069,
  "Ġtac": 8070,
  "Ġtail": 8071,
  "Ġtheme": 8072,
  "Ġmath": 8073,
  "mple": 8074,
  "Ġchile": 8075,
  "apart": 8076,
  "Ġcompare": 8077,
  "Ġpossess": 8078,
  "india": 8079,
  "chnology": 8080,
  "Ġmainstream": 8081,
  "Ġpromising": 8082,
  "Ġfailures": 8083,
  "Ġbrothers": 8084,
  "Ġinnovations": 8085,
  "Ġdestabil": 8086,
  "Ġrecommended": 8087,
  "Ġinherent": 8088,
  "Ġhotel": 8089,
  "incre": 8090,
  "Ġbelongs": 8091,
  "Ġembrace": 8092,
  "Ġpropaganda": 8093,
  "hab": 8094,
  "pens": 8095,
  "za": 8096,
  "Ġtor": 8097,
  "Ġstric": 8098,
  "Ġexemp": 8099,
  "Ġkurd": 8100,
  "Ġplus": 8101,
  "Ġcouncils": 8102,
  "Ġinvitation": 8103,
  "stein": 8104,
  "iann": 8105,
  "Ġpride": 8106,
  "Ġsystematically": 8107,
  "Ġbrill": 8108,
  "Ġinterrupt": 8109,
  "Ġformed": 8110,
  "tenance": 8111,
  "Ġdepl": 8112,
  "Ġsheep": 8113,
  "Ġrestaur": 8114,
  "Ġrussians": 8115,
  "Ġrecognises": 8116,
  "Ġliberalization": 8117,
  "Ġtopics": 8118,
  "likewise": 8119,
  "Ġresponding": 8120,
  "Ġpaint": 8121,
  "Ġmalta": 8122,
  "Ġfulfilled": 8123,
  "Ġpsychological": 8124,
  "Ġundermined": 8125,
  "keeping": 8126,
  "kyo": 8127,
  "Ġrandom": 8128,
  "Ġhesit": 8129,
  "Ġbarely": 8130,
  "Ġrecycling": 8131,
  "Ġprerequisite": 8132,
  "Ġreaffirm": 8133,
  "bby": 8134,
  "iov": 8135,
  "Ġtokyo": 8136,
  "Ġdress": 8137,
  "Ġdrought": 8138,
  "Ġeib": 8139,
  "urg": 8140,
  "unte": 8141,
  "Ġresidence": 8142,
  "def": 8143,
  "Ġarmen": 8144,
  "Ġtrained": 8145,
  "Ġpolitician": 8146,
  "Ġproducer": 8147,
  "Ġcontinuation": 8148,
  "next": 8149,
  "ovina": 8150,
  "Ġthreaten": 8151,
  "Ġveter": 8152,
  "Ġspreading": 8153,
  "holm": 8154,
  "Ġdublin": 8155,
  "25": 8156,
  "great": 8157,
  "high": 8158,
  "Ġtiss": 8159,
  "Ġase": 8160,
  "still": 8161,
  "oty": 8162,
  "seen": 8163,
  "Ġrum": 8164,
  "consider": 8165,
  "Ġshouldn": 8166,
  "Ġmyth": 8167,
  "text": 8168,
  "Ġconscience": 8169,
  "Ġnewly": 8170,
  "Ġbases": 8171,
  "Ġprud": 8172,
  "Ġdesired": 8173,
  "Ġassumed": 8174,
  "Ġmaintenance": 8175,
  "comes": 8176,
  "Ġfright": 8177,
  "Ġcamps": 8178,
  "Ġrailways": 8179,
  "Ġpillars": 8180,
  "Ġseverely": 8181,
  "Ġprecedent": 8182,
  "Ġalarming": 8183,
  "Ġmultiple": 8184,
  "Ġdropped": 8185,
  "Ġfoster": 8186,
  "Ġinequalities": 8187,
  "Ġjurisdiction": 8188,
  "ek": 8189,
  "tal": 8190,
  "wood": 8191,
  "Ġcake": 8192,
  "Ġbact": 8193,
  "Ġsums": 8194,
  "opia": 8195,
  "ander": 8196,
  "Ġrepair": 8197,
  "âĢĻ,": 8198,
  "forward": 8199,
  "Ġprede": 8200,
  "Ġrecital": 8201,
  "ologists": 8202,
  "Ġsigning": 8203,
  "Ġadvent": 8204,
  "Ġimmunity": 8205,
  "Ġdemanded": 8206,
  "Ġjudges": 8207,
  "Ġbreakthrough": 8208,
  "Ġfederation": 8209,
  "Ġdegrees": 8210,
  "Ġboundaries": 8211,
  "Ġmcc": 8212,
  "Ġmixed": 8213,
  "sector": 8214,
  "Ġprofessor": 8215,
  "Ġirresponsible": 8216,
  "ss": 8217,
  "Ġsomal": 8218,
  "Ġreb": 8219,
  "Ġliv": 8220,
  "Ġupper": 8221,
  "olved": 8222,
  "Ġunits": 8223,
  "Ġunex": 8224,
  "Ġring": 8225,
  "Ġadh": 8226,
  "Ġpregn": 8227,
  "Ġnowadays": 8228,
  "Ġperception": 8229,
  "Ġaccus": 8230,
  "Ġinitiated": 8231,
  "Ġcaut": 8232,
  "Ġmisle": 8233,
  "ugabe": 8234,
  "Ġtension": 8235,
  "Ġageing": 8236,
  "rophe": 8237,
  "Ġseparation": 8238,
  "Ġtackled": 8239,
  "Ġmalaria": 8240,
  "Ġshoes": 8241,
  "Ġinjured": 8242,
  "Ġindispens": 8243,
  "Ġbrutal": 8244,
  "Ġdavid": 8245,
  "Ġhazardous": 8246,
  "kind": 8247,
  "writ": 8248,
  "invest": 8249,
  "Ġcau": 8250,
  "Ġowe": 8251,
  "Ġhate": 8252,
  "Ġvague": 8253,
  "Ġresumed": 8254,
  "aker": 8255,
  "Ġours": 8256,
  "Ġspeculation": 8257,
  "anger": 8258,
  "Ġproduces": 8259,
  "Ġrefusal": 8260,
  "Ġattitudes": 8261,
  "Ġdesert": 8262,
  "Ġglobally": 8263,
  "Ġsixth": 8264,
  "Ġbiology": 8265,
  "Ġchaos": 8266,
  "Ġpushing": 8267,
  "Ġtouched": 8268,
  "Ġokay": 8269,
  "Ġgalax": 8270,
  "Ġalike": 8271,
  "Ġremedy": 8272,
  "Ġdioxide": 8273,
  "ipped": 8274,
  "Ġath": 8275,
  "Ġble": 8276,
  "roph": 8277,
  "Ġwear": 8278,
  "Ġstagn": 8279,
  "open": 8280,
  "Ġseas": 8281,
  "akh": 8282,
  "Ġreperc": 8283,
  "ford": 8284,
  "forest": 8285,
  "Ġteeth": 8286,
  "Ġdeciding": 8287,
  "Ġgoverned": 8288,
  "Ġamending": 8289,
  "working": 8290,
  "Ġrespecting": 8291,
  "Ġgrants": 8292,
  "Ġcontrolling": 8293,
  "Ġapproaching": 8294,
  "Ġcontributes": 8295,
  "Ġlocated": 8296,
  "Ġencourages": 8297,
  "Ġconsequently": 8298,
  "Ġweekend": 8299,
  "Ġdamaged": 8300,
  "Ġvolunte": 8301,
  "Ġtotalitarian": 8302,
  "Ġauthorisation": 8303,
  "Ġfreight": 8304,
  "Ġphysics": 8305,
  "Ġfrankly": 8306,
  "Ġscheduled": 8307,
  "Ġindispensable": 8308,
  "vation": 8309,
  "intern": 8310,
  "Ġmel": 8311,
  "ifiable": 8312,
  "rend": 8313,
  "Ġmyster": 8314,
  "Ġincidents": 8315,
  "tell": 8316,
  "okay": 8317,
  "Ġsympt": 8318,
  "Ġobjects": 8319,
  "compet": 8320,
  "Ġsincere": 8321,
  "gged": 8322,
  "Ġpacific": 8323,
  "Ġdiam": 8324,
  "Ġcooperative": 8325,
  "consist": 8326,
  "Ġexpanding": 8327,
  "Ġbirthday": 8328,
  "Ġaggressive": 8329,
  "Ġconfronted": 8330,
  "Ġvenezuela": 8331,
  "Ġstupid": 8332,
  "Ġsecurities": 8333,
  "Ġrepercussions": 8334,
  "aire": 8335,
  "Ġstuck": 8336,
  "lls": 8337,
  "Ġsecuring": 8338,
  "Ġcapita": 8339,
  "emed": 8340,
  "Ġaccountable": 8341,
  "Ġpatten": 8342,
  "Ġweaken": 8343,
  "Ġexamining": 8344,
  "Ġcatastrophe": 8345,
  "Ġdarfur": 8346,
  "Ġoxy": 8347,
  "depth": 8348,
  "Ġpipeline": 8349,
  "Ġalgeria": 8350,
  "Ġepidemic": 8351,
  "tion": 8352,
  "vable": 8353,
  "Ġsli": 8354,
  "Ġsoph": 8355,
  "eness": 8356,
  "Ġhars": 8357,
  "icate": 8358,
  "Ġweigh": 8359,
  "Ġstorm": 8360,
  "lib": 8361,
  "Ġopens": 8362,
  "Ġrose": 8363,
  "Ġsolana": 8364,
  "archy": 8365,
  "Ġensured": 8366,
  "Ġvienna": 8367,
  "Ġurged": 8368,
  "Ġtransportation": 8369,
  "Ġexplore": 8370,
  "century": 8371,
  "Ġbreaking": 8372,
  "Ġ2015": 8373,
  "Ġfocuses": 8374,
  "Ġdevices": 8375,
  "Ġbright": 8376,
  "roportion": 8377,
  "Ġcomplaint": 8378,
  "Ġpreferred": 8379,
  "Ġtowns": 8380,
  "Ġexemption": 8381,
  "Ġlawyers": 8382,
  "Ġslovenia": 8383,
  "Ġhorizont": 8384,
  "author": 8385,
  "Ġlinguistic": 8386,
  "Ġbrilliant": 8387,
  "ell": 8388,
  "nger": 8389,
  "inform": 8390,
  "eded": 8391,
  "pel": 8392,
  "owered": 8393,
  "ola": 8394,
  "Ġrating": 8395,
  "umes": 8396,
  "osevic": 8397,
  "Ġinvasion": 8398,
  "Ġempire": 8399,
  "ngl": 8400,
  "Ġsla": 8401,
  "ergies": 8402,
  "Ġsenti": 8403,
  "Ġstrive": 8404,
  "Ġsafeguards": 8405,
  "Ġabolished": 8406,
  "Ġadaptation": 8407,
  "Ġexclusive": 8408,
  "Ġfloods": 8409,
  "Ġembarrass": 8410,
  "Ġannouncement": 8411,
  "terrorism": 8412,
  "Ġmarriage": 8413,
  "zeg": 8414,
  "Ġoh": 8415,
  "Ġnerv": 8416,
  "omed": 8417,
  "Ġloud": 8418,
  "Ġforb": 8419,
  "Ġyounger": 8420,
  "Ġunres": 8421,
  "ested": 8422,
  "acing": 8423,
  "ieth": 8424,
  "Ġmanagers": 8425,
  "iciency": 8426,
  "Ġtrials": 8427,
  "Ġaddresses": 8428,
  "Ġdetention": 8429,
  "Ġjewish": 8430,
  "Ġclarified": 8431,
  "Ġtransferred": 8432,
  "Ġdisplaced": 8433,
  "welve": 8434,
  "Ġdevastating": 8435,
  "Ġfischler": 8436,
  "Ġpesticides": 8437,
  "eas": 8438,
  "fl": 8439,
  "tail": 8440,
  "Ġtoys": 8441,
  "Ġhu": 8442,
  "Ġshock": 8443,
  "llow": 8444,
  "Ġappalling": 8445,
  "Ġentail": 8446,
  "Ġlift": 8447,
  "Ġcorre": 8448,
  "Ġunderstands": 8449,
  "oval": 8450,
  "Ġemergence": 8451,
  "Ġindicates": 8452,
  "Ġreturns": 8453,
  "Ġdelegations": 8454,
  "class": 8455,
  "Ġconcentrated": 8456,
  "Ġattempted": 8457,
  "Ġwitnessed": 8458,
  "Ġrigorous": 8459,
  "Ġbubble": 8460,
  "Ġacademic": 8461,
  "remlin": 8462,
  "iannual": 8463,
  "11": 8464,
  "bus": 8465,
  "mother": 8466,
  "Ġpap": 8467,
  "Ġiv": 8468,
  "Ġgmos": 8469,
  "Ġdelicate": 8470,
  "unk": 8471,
  "Ġacute": 8472,
  "Ġincur": 8473,
  "tex": 8474,
  "Ġsupporters": 8475,
  "Ġrelax": 8476,
  "Ġsubjected": 8477,
  "Ġartists": 8478,
  "Ġavailability": 8479,
  "strÃ¶": 8480,
  "Ġpackaging": 8481,
  "Ġsanter": 8482,
  "prot": 8483,
  "Ġdistinct": 8484,
  "Ġpursuit": 8485,
  "Ġcolonial": 8486,
  "Ġshipping": 8487,
  "zegovina": 8488,
  "strÃ¶m": 8489,
  "case": 8490,
  "ige": 8491,
  "ipp": 8492,
  "Ġtone": 8493,
  "Ġna": 8494,
  "Ġgue": 8495,
  "rific": 8496,
  "quite": 8497,
  "Ġresidents": 8498,
  "Ġkremlin": 8499,
  "Ġintim": 8500,
  "Ġdisse": 8501,
  "Ġoutcomes": 8502,
  "Ġremit": 8503,
  "Ġgene": 8504,
  "rats": 8505,
  "Ġtrigg": 8506,
  "Ġvisas": 8507,
  "Ġweaker": 8508,
  "Ġclosure": 8509,
  "Ġarrangement": 8510,
  "Ġattempting": 8511,
  "Ġsafeguarding": 8512,
  "Ġadvocates": 8513,
  "Ġconstituency": 8514,
  "Ġembargo": 8515,
  "Ġdedicated": 8516,
  "Ġinfringement": 8517,
  "Ġstringent": 8518,
  "Ġcambod": 8519,
  "Ġstricter": 8520,
  "Ġnervous": 8521,
  "Ãł": 8522,
  "Ġcig": 8523,
  "orously": 8524,
  "Ġmugabe": 8525,
  "ura": 8526,
  "Ġstone": 8527,
  "oper": 8528,
  "Ġleague": 8529,
  "mbered": 8530,
  "conc": 8531,
  "Ġextract": 8532,
  "Ġproblematic": 8533,
  "Ġdepending": 8534,
  "Ġbench": 8535,
  "Ġ48": 8536,
  "Ġlimiting": 8537,
  "Ġretail": 8538,
  "Ġflour": 8539,
  "Ġdeclining": 8540,
  "Ġverts": 8541,
  "Ġdisproportion": 8542,
  "Ġbitter": 8543,
  "Ġpressures": 8544,
  "willing": 8545,
  "Ġpunished": 8546,
  "Ġvirtual": 8547,
  "true": 8548,
  "Ġscreen": 8549,
  "Ġseventh": 8550,
  "Ġaston": 8551,
  "Ġneutral": 8552,
  "Ġconvey": 8553,
  "Ġdossier": 8554,
  "Ġenshrined": 8555,
  "Ġingredients": 8556,
  "mail": 8557,
  "rition": 8558,
  "Ġau": 8559,
  "inct": 8560,
  "atom": 8561,
  "Ġdare": 8562,
  "ille": 8563,
  "rig": 8564,
  "Ġunified": 8565,
  "amount": 8566,
  "Ġjac": 8567,
  "osexual": 8568,
  "seless": 8569,
  "Ġroth": 8570,
  "Ġpointing": 8571,
  "Ġshortage": 8572,
  "Ġcharged": 8573,
  "Ġtested": 8574,
  "Ġconnections": 8575,
  "Ġlimitations": 8576,
  "Ġacquire": 8577,
  "Ġabolish": 8578,
  "Ġnewspapers": 8579,
  "Ġclinton": 8580,
  "Ġhalt": 8581,
  "Ġneighborhood": 8582,
  "Ġenvisaged": 8583,
  "Ġpragmatic": 8584,
  "Ġdistinguish": 8585,
  "friendly": 8586,
  "Ġbrown": 8587,
  "yn": 8588,
  "Ġsin": 8589,
  "energy": 8590,
  "order": 8591,
  "aled": 8592,
  "icious": 8593,
  "esty": 8594,
  "Ġdisregard": 8595,
  "Ġtimor": 8596,
  "Ġarises": 8597,
  "uber": 8598,
  "Ġremoval": 8599,
  "Ġentails": 8600,
  "Ġguine": 8601,
  "Ġsuppose": 8602,
  "Ġlibrary": 8603,
  "afric": 8604,
  "Ġfunny": 8605,
  "Ġmultiannual": 8606,
  "Ġstresses": 8607,
  "Ġbiote": 8608,
  "Ġethi": 8609,
  "Ġsensit": 8610,
  "ridge": 8611,
  "Ġpurchasing": 8612,
  "icycle": 8613,
  "Ġdeprived": 8614,
  "Ġhydrogen": 8615,
  "minded": 8616,
  "Ġcaucas": 8617,
  "aci": 8618,
  "bollah": 8619,
  "lock": 8620,
  "Ġwond": 8621,
  "Ġpand": 8622,
  "anes": 8623,
  "Ġmissions": 8624,
  "Ġinconsist": 8625,
  "Ġster": 8626,
  "Ġunrest": 8627,
  "Ġju": 8628,
  "forcing": 8629,
  "agon": 8630,
  "Ġtransmission": 8631,
  "Ġfactory": 8632,
  "ludes": 8633,
  "Ġestonia": 8634,
  "Ġ36": 8635,
  "Ġexpecting": 8636,
  "financing": 8637,
  "Ġcaution": 8638,
  "Ġrisky": 8639,
  "Ġchallenging": 8640,
  "Ġmassac": 8641,
  "Ġavoiding": 8642,
  "Ġsatisfy": 8643,
  "Ġcriticised": 8644,
  "Ġcollected": 8645,
  "Ġmedicinal": 8646,
  "Ġseekers": 8647,
  "Ġwithdrawn": 8648,
  "Ġunsatisf": 8649,
  "Ġquantities": 8650,
  "Ġmagic": 8651,
  "Ġpurchase": 8652,
  "Ġtranslate": 8653,
  "Ġpostponed": 8654,
  "Ġunusual": 8655,
  "iest": 8656,
  "was": 8657,
  "Ġbid": 8658,
  "Ġmi": 8659,
  "Ġdual": 8660,
  "Ġunknown": 8661,
  "Ġunwilling": 8662,
  "unless": 8663,
  "istribut": 8664,
  "Ġride": 8665,
  "dec": 8666,
  "load": 8667,
  "ordan": 8668,
  "Ġinfl": 8669,
  "Ġhanded": 8670,
  "Ġ32": 8671,
  "Ġclothes": 8672,
  "Ġ65": 8673,
  "Ġidentical": 8674,
  "Ġexcited": 8675,
  "Ġcontaining": 8676,
  "Ġstriking": 8677,
  "Ġrevolutionary": 8678,
  "Ġacquired": 8679,
  "Ġregistered": 8680,
  "Ġdecrease": 8681,
  "Ġwholeheartedly": 8682,
  "Ġgarden": 8683,
  "!\"": 8684,
  "15": 8685,
  "199": 8686,
  "Ġhind": 8687,
  "Ġdile": 8688,
  "Ġbeach": 8689,
  "Ġgiant": 8690,
  "Ġstyle": 8691,
  "oren": 8692,
  "Ġexert": 8693,
  "depend": 8694,
  "agement": 8695,
  "Ġconfused": 8696,
  "Ġguant": 8697,
  "Ġinteraction": 8698,
  "Ġinterconnect": 8699,
  "Ġslaughter": 8700,
  "Ġassessing": 8701,
  "Ġrecords": 8702,
  "Ġmerkel": 8703,
  "Ġtuna": 8704,
  "Ġconsolidate": 8705,
  "Ġexpanded": 8706,
  "Ġcelebrate": 8707,
  "Ġstabilisation": 8708,
  "democracy": 8709,
  "Ġdisadvantage": 8710,
  "Ġodd": 8711,
  "Ġevolved": 8712,
  "viol": 8713,
  "Ġfabric": 8714,
  "aust": 8715,
  "mits": 8716,
  "Ġax": 8717,
  "Ġbunch": 8718,
  "oral": 8719,
  "Ġmu": 8720,
  "Ġfro": 8721,
  "Ġdiction": 8722,
  "Ġalter": 8723,
  "quest": 8724,
  "Ġusd": 8725,
  "Ġincap": 8726,
  "Ġunderway": 8727,
  "Ġentertain": 8728,
  "teneg": 8729,
  "Ġcivilization": 8730,
  "Ġtopical": 8731,
  "Ġweakened": 8732,
  "Ġworthwhile": 8733,
  "gener": 8734,
  "Ġoccurs": 8735,
  "Ġstayed": 8736,
  "Ġfeeding": 8737,
  "Ġstockholm": 8738,
  "Ġoptimism": 8739,
  "Ġdisadvantaged": 8740,
  "Ġindirectly": 8741,
  "Ġinterpreted": 8742,
  "Ġunequiv": 8743,
  "Ġlandscape": 8744,
  "Ġholiday": 8745,
  "imagine": 8746,
  "Ġkurdish": 8747,
  "Ġpredecess": 8748,
  "cks": 8749,
  "Ġthirty": 8750,
  "inations": 8751,
  "Ġtherap": 8752,
  "Ġanger": 8753,
  "Ġgraph": 8754,
  "ounter": 8755,
  "unlike": 8756,
  "estock": 8757,
  "Ġexpenses": 8758,
  "Ġapple": 8759,
  "Ġwanting": 8760,
  "Ġconfirms": 8761,
  "Ġsecre": 8762,
  "Ġdistant": 8763,
  "Ġprivacy": 8764,
  "Ġthreatens": 8765,
  "Ġlatvia": 8766,
  "Ġguidance": 8767,
  "Ġcattle": 8768,
  "Ġdestroying": 8769,
  "Ġstruggling": 8770,
  "Ġdominated": 8771,
  "Ġinspection": 8772,
  "Ġexclude": 8773,
  "Ġcorrespond": 8774,
  "Ġweaknesses": 8775,
  "Ġecofin": 8776,
  "Ġfantastic": 8777,
  "Ġdisarmament": 8778,
  "Ġlivestock": 8779,
  "Ġharsh": 8780,
  "aeda": 8781,
  "bles": 8782,
  "due": 8783,
  "ole": 8784,
  "uum": 8785,
  "vens": 8786,
  "Ġbay": 8787,
  "arians": 8788,
  "icism": 8789,
  "Ġwearing": 8790,
  "Ġstret": 8791,
  "rained": 8792,
  "une": 8793,
  "Ġenact": 8794,
  "Ġabund": 8795,
  "inki": 8796,
  "Ġcountryside": 8797,
  "Ġassumption": 8798,
  "Ġmilosevic": 8799,
  "Ġfoodstuffs": 8800,
  "Ġpromotes": 8801,
  "Ġactivists": 8802,
  "Ġburning": 8803,
  "Ġreviewed": 8804,
  "Ġembry": 8805,
  "Ġembark": 8806,
  "Ġdelivery": 8807,
  "policy": 8808,
  "Ã¡n": 8809,
  "Ġundermining": 8810,
  "Ġcopyright": 8811,
  "Ġvocational": 8812,
  "Ġtechniques": 8813,
  "oriented": 8814,
  "Ġhorizontal": 8815,
  "Ġdilemm": 8816,
  "big": 8817,
  "cultural": 8818,
  "lad": 8819,
  "Ġcoc": 8820,
  "Ġpages": 8821,
  "Ġdry": 8822,
  "Ġconj": 8823,
  "Ġasks": 8824,
  "Ġunst": 8825,
  "Ġlev": 8826,
  "Ġchose": 8827,
  "Ġrw": 8828,
  "Ġofficially": 8829,
  "Ġrequiring": 8830,
  "Ġmah": 8831,
  "ructive": 8832,
  "lessness": 8833,
  "Ġhandled": 8834,
  "Ġinsult": 8835,
  "Ġsuccesses": 8836,
  "Ġ600": 8837,
  "Ġemphasize": 8838,
  "Ġdomain": 8839,
  "Ġposts": 8840,
  "Ġethics": 8841,
  "Ġjews": 8842,
  "Ġtypically": 8843,
  "Ġadjustments": 8844,
  "Ġsettled": 8845,
  "Ġblocked": 8846,
  "Ġiceland": 8847,
  "Ġconfrontation": 8848,
  "Ġpluralism": 8849,
  "Ġdesperate": 8850,
  "Ġsuspicion": 8851,
  "Ġfeasible": 8852,
  "Ġunderpin": 8853,
  "discrimination": 8854,
  "Ġbiofuels": 8855,
  "others": 8856,
  "ĠbÃ¶": 8857,
  "aran": 8858,
  "ica": 8859,
  "Ġstamp": 8860,
  "cile": 8861,
  "âĢľ": 8862,
  "Ġwasted": 8863,
  "Ġjar": 8864,
  "Ġpretext": 8865,
  "Ġdirections": 8866,
  "Ġaffirm": 8867,
  "Ġmodernisation": 8868,
  "Ġharmonise": 8869,
  "Ġsubstantive": 8870,
  "Ġsupposedly": 8871,
  "Ġdelivering": 8872,
  "Ġsymbols": 8873,
  "grace": 8874,
  "Ġroutes": 8875,
  "Ġmagaz": 8876,
  "Ġreturning": 8877,
  "aids": 8878,
  "Ġcorresponding": 8879,
  "Ġschedule": 8880,
  "Ġromanian": 8881,
  "respective": 8882,
  "Ġutterly": 8883,
  "Ġatomic": 8884,
  "Ġsimultaneously": 8885,
  "father": 8886,
  "lades": 8887,
  "sinki": 8888,
  "ione": 8889,
  "Ġinject": 8890,
  "Ġeager": 8891,
  "Ġgases": 8892,
  "Ġhague": 8893,
  "Ġunclear": 8894,
  "Ġshr": 8895,
  "health": 8896,
  "Ġlegs": 8897,
  "Ġpron": 8898,
  "Ġdeflation": 8899,
  "Ġhelsinki": 8900,
  "Ġscan": 8901,
  "Ġlifel": 8902,
  "Ġafterwards": 8903,
  "Ġpersonality": 8904,
  "Ġartist": 8905,
  "Ġintegral": 8906,
  "Ġpatents": 8907,
  "Ġsoul": 8908,
  "Ġlacks": 8909,
  "Ġ95": 8910,
  "Ġplacing": 8911,
  "Ġratio": 8912,
  "Ġillegally": 8913,
  "Ġdivisions": 8914,
  "Ġharvest": 8915,
  "Ġdisappointing": 8916,
  "Ġadvocated": 8917,
  "Ġquantity": 8918,
  "Ġstraightforward": 8919,
  "Ġthrown": 8920,
  "Ġmotivated": 8921,
  "Ġofficers": 8922,
  "Ġorientation": 8923,
  "Ġridiculous": 8924,
  "cend": 8925,
  "zing": 8926,
  "Ġtill": 8927,
  "Ġtheore": 8928,
  "enous": 8929,
  "anas": 8930,
  "Ġhed": 8931,
  "Ġprolong": 8932,
  "Ġprominent": 8933,
  "Ġcancell": 8934,
  "Ġjail": 8935,
  "Ġuser": 8936,
  "Ġworkforce": 8937,
  "Ġproves": 8938,
  "Ġmines": 8939,
  "Ġattribut": 8940,
  "Ġauthors": 8941,
  "Ġrestored": 8942,
  "front": 8943,
  "Ġexploited": 8944,
  "Ġhungry": 8945,
  "Ġdeparture": 8946,
  "ariat": 8947,
  "Ġinfected": 8948,
  "Ġawait": 8949,
  "Ġfranc": 8950,
  "Ġdisparities": 8951,
  "Ġukrainian": 8952,
  "negoti": 8953,
  "Ġmonopolies": 8954,
  "ifornia": 8955,
  "Ġcigaret": 8956,
  "east": 8957,
  "gain": 8958,
  "net": 8959,
  "sl": 8960,
  "vention": 8961,
  "alistic": 8962,
  "Ġshoulder": 8963,
  "six": 8964,
  "sile": 8965,
  "Ġtempt": 8966,
  "Ġmonti": 8967,
  "Ġ1930": 8968,
  "Ġearmark": 8969,
  "Ġsurger": 8970,
  "Ġsecondary": 8971,
  "Ġprofitable": 8972,
  "Ġscientist": 8973,
  "Ġinex": 8974,
  "Ġdeadlines": 8975,
  "Ġfrontiers": 8976,
  "Ġmerit": 8977,
  "tax": 8978,
  "Ġforestry": 8979,
  "Ġfacilitating": 8980,
  "Ġcatastroph": 8981,
  "palest": 8982,
  "quarters": 8983,
  "Ġcaucasus": 8984,
  "bra": 8985,
  "dr": 8986,
  "Ġmas": 8987,
  "Ġdrew": 8988,
  "Ġaltogether": 8989,
  "Ġmep": 8990,
  "Ġunt": 8991,
  "este": 8992,
  "ests": 8993,
  "Ġenforced": 8994,
  "Ġjordan": 8995,
  "Ġpeak": 8996,
  "Ġloan": 8997,
  "Ġtwent": 8998,
  "athers": 8999,
  "Ġfinancially": 9000,
  "Ġassass": 9001,
  "Ġflowers": 9002,
  "Ġresolute": 9003,
  "Ġambass": 9004,
  "account": 9005,
  "Ġdiet": 9006,
  "Ġdivor": 9007,
  "Ġpolls": 9008,
  "Ġbrave": 9009,
  "Ġdictator": 9010,
  "Ġdisappointment": 9011,
  "Ġeliminating": 9012,
  "Ġinspections": 9013,
  "Ġalien": 9014,
  "Ġcrying": 9015,
  "Ġineffective": 9016,
  "Ġbeneficiaries": 9017,
  "Ġbacteria": 9018,
  "liberal": 9019,
  "protect": 9020,
  "Ġguinea": 9021,
  "sah": 9022,
  "top": 9023,
  "yan": 9024,
  "oness": 9025,
  "Ġpuzz": 9026,
  "Ġmush": 9027,
  "Ġdance": 9028,
  "leted": 9029,
  "Ġcontra": 9030,
  "Ġdisin": 9031,
  "Ġpermission": 9032,
  "Ġtransnational": 9033,
  "article": 9034,
  "Ġtreating": 9035,
  "Ġintermedi": 9036,
  "Ġglobe": 9037,
  "Ġbenefited": 9038,
  "Ġairpl": 9039,
  "Ġlisted": 9040,
  "Ġgeopol": 9041,
  "Ġattacked": 9042,
  "Ġwondering": 9043,
  "Ġcriticisms": 9044,
  "Ġappreciated": 9045,
  "proliferation": 9046,
  "Ġspectac": 9047,
  "Ġpersecution": 9048,
  "Ġtribunal": 9049,
  "tenegro": 9050,
  "ius": 9051,
  "ranging": 9052,
  "Ġtab": 9053,
  "Ġtwelve": 9054,
  "Ġpy": 9055,
  "Ġpump": 9056,
  "Ġba": 9057,
  "Ġdil": 9058,
  "rot": 9059,
  "Ġlap": 9060,
  "raf": 9061,
  "thetic": 9062,
  "Ġunch": 9063,
  "Ġexhib": 9064,
  "Ġpartial": 9065,
  "Ġplastic": 9066,
  "Ġdisgrace": 9067,
  "Ġcoins": 9068,
  "Ġcoexist": 9069,
  "Ġprest": 9070,
  "Ġmining": 9071,
  "Ġcontinually": 9072,
  "Ġforesee": 9073,
  "germany": 9074,
  "Ġpatience": 9075,
  "Ġmerits": 9076,
  "Ġprofessionals": 9077,
  "lusconi": 9078,
  "Ġexecution": 9079,
  "Ġcorporations": 9080,
  "sighted": 9081,
  "Ġkenya": 9082,
  "Ġhatred": 9083,
  "Ġunsatisfactory": 9084,
  "fra": 9085,
  "mary": 9086,
  "wer": 9087,
  "Å¡": 9088,
  "inating": 9089,
  "inery": 9090,
  "Ġeg": 9091,
  "liers": 9092,
  "Ġabortion": 9093,
  "apore": 9094,
  "Ġworkplace": 9095,
  "ago": 9096,
  "Ġindiff": 9097,
  "Ġcurious": 9098,
  "ictions": 9099,
  "Ġwarned": 9100,
  "belie": 9101,
  "Ġdownturn": 9102,
  "Ġsimpler": 9103,
  "Ġadvisory": 9104,
  "Ġpoison": 9105,
  "ibi": 9106,
  "Ġcoordinating": 9107,
  "Ġclauses": 9108,
  "Ġpreparatory": 9109,
  "Ġrobert": 9110,
  "Ġpredicted": 9111,
  "Ġtransformed": 9112,
  "Ġaffordable": 9113,
  "Ġegyptian": 9114,
  "Ġpanel": 9115,
  "Ġbalkan": 9116,
  "Ġremoving": 9117,
  "Ġgratitude": 9118,
  "Ġmisleading": 9119,
  "saharan": 9120,
  "40": 9121,
  "gments": 9122,
  "yer": 9123,
  "Ġtong": 9124,
  "Ġtries": 9125,
  "atri": 9126,
  "Ġpin": 9127,
  "Ġpup": 9128,
  "anium": 9129,
  "rol": 9130,
  "ulates": 9131,
  "Ġshocked": 9132,
  "Ġleap": 9133,
  "ometers": 9134,
  "Ġkinn": 9135,
  "Ġinclusive": 9136,
  "whilst": 9137,
  "Ġloyal": 9138,
  "Ġclash": 9139,
  "Ġconfined": 9140,
  "Ġnationalist": 9141,
  "Ġchildhood": 9142,
  "Ġdemocratisation": 9143,
  "Ġaiming": 9144,
  "Ġclothing": 9145,
  "Ġsummar": 9146,
  "Ġslide": 9147,
  "Ġchoosing": 9148,
  "Ġjudged": 9149,
  "Ġfairness": 9150,
  "Ġmistaken": 9151,
  "Ġclasses": 9152,
  "Ġorders": 9153,
  "Ġeliminated": 9154,
  "Ġtolerate": 9155,
  "onym": 9156,
  "Ġinterfere": 9157,
  "Ġmortality": 9158,
  "Ġawaiting": 9159,
  "Ġbanglades": 9160,
  "Ġsubscri": 9161,
  "Ġfrontex": 9162,
  "Ġtsun": 9163,
  "Ġkinnock": 9164,
  "cc": 9165,
  "fold": 9166,
  "Ġtum": 9167,
  "ano": 9168,
  "Ġgang": 9169,
  "Ġshocks": 9170,
  "Ġlikewise": 9171,
  "Ġregain": 9172,
  "Ġincomp": 9173,
  "Ġclimb": 9174,
  "ords": 9175,
  "Ġestimate": 9176,
  "Ġsurge": 9177,
  "Ġcompletion": 9178,
  "Ġfounding": 9179,
  "priv": 9180,
  "made": 9181,
  "employed": 9182,
  "Ġgravity": 9183,
  "Ġjudici": 9184,
  "Ġskill": 9185,
  "regional": 9186,
  "Ġsecretariat": 9187,
  "Ġsalary": 9188,
  "Ġensures": 9189,
  "Ġbrains": 9190,
  "umph": 9191,
  "Ġignor": 9192,
  "Ġcommerce": 9193,
  "accordingly": 9194,
  "Ġwalls": 9195,
  "Ġreactions": 9196,
  "Ġincorrect": 9197,
  "Ġautomatic": 9198,
  "Ġyemen": 9199,
  "Ġyellow": 9200,
  "Ġpremature": 9201,
  "productive": 9202,
  "against": 9203,
  "Ġselected": 9204,
  "Ġliquid": 9205,
  "Ġmartin": 9206,
  "current": 9207,
  "Ġtampe": 9208,
  "Ġsubstitute": 9209,
  "list": 9210,
  "prom": 9211,
  "var": 9212,
  "Ġscept": 9213,
  "Ġsends": 9214,
  "Ġcure": 9215,
  "Ġdread": 9216,
  "Ġnative": 9217,
  "vez": 9218,
  "Ġweren": 9219,
  "idel": 9220,
  "Ġstrain": 9221,
  "Ġproliferation": 9222,
  "iran": 9223,
  "ounted": 9224,
  "Ġchern": 9225,
  "Ġissuing": 9226,
  "Ġroles": 9227,
  "Ġclim": 9228,
  "Ġpublication": 9229,
  "Ġdesk": 9230,
  "Ġ1950": 9231,
  "Ġformulated": 9232,
  "airy": 9233,
  "Ġrulers": 9234,
  "Ġsections": 9235,
  "Ġgermans": 9236,
  "Ġparticipated": 9237,
  "Ġassessed": 9238,
  "Ġpoorly": 9239,
  "Ġsuperf": 9240,
  "Ġgaining": 9241,
  "preh": 9242,
  "Ġcompetitors": 9243,
  "Ġrelevance": 9244,
  "Ġdegrad": 9245,
  "Ġfulfilling": 9246,
  "Ġcompensate": 9247,
  "Ġdogs": 9248,
  "Ġhomosexual": 9249,
  "party": 9250,
  "Ġbombs": 9251,
  "Ġshopping": 9252,
  "Ġpremium": 9253,
  "Ġinterference": 9254,
  "Ġanxious": 9255,
  "Ġminimal": 9256,
  "Ġcontradictory": 9257,
  "Ġtravelling": 9258,
  "Ġchicken": 9259,
  "Ġdictionary": 9260,
  "cot": 9261,
  "gent": 9262,
  "west": 9263,
  "Ġtag": 9264,
  "Ġtied": 9265,
  "Ġpian": 9266,
  "Ġbicycle": 9267,
  "Ġinsight": 9268,
  "ala": 9269,
  "Ġgift": 9270,
  "ider": 9271,
  "Ġally": 9272,
  "Ġallev": 9273,
  "Ġmeal": 9274,
  "antic": 9275,
  "Ġkick": 9276,
  "Ġ120": 9277,
  "Ġoutrage": 9278,
  "Ġuphe": 9279,
  "Ġindig": 9280,
  "Ġlobb": 9281,
  "Ġobjection": 9282,
  "Ġpool": 9283,
  "Ġfloren": 9284,
  "Ġze": 9285,
  "justice": 9286,
  "Ġmetaph": 9287,
  "Ġcalifornia": 9288,
  "Ġwinning": 9289,
  "mediterranean": 9290,
  "Ġsadly": 9291,
  "Ġreferences": 9292,
  "Ġcharacterised": 9293,
  "Ġberlusconi": 9294,
  "Ġengineers": 9295,
  "Ġfrequent": 9296,
  "Ġconstituents": 9297,
  "Ġsharply": 9298,
  "Ġlucky": 9299,
  "Ġcapture": 9300,
  "Ġvacuum": 9301,
  "Ġtariffs": 9302,
  "Ġventure": 9303,
  "Ġarbitrary": 9304,
  "Ġmichel": 9305,
  "initiative": 9306,
  "Ġrestaurant": 9307,
  "Ġcautious": 9308,
  "international": 9309,
  "Ġoxygen": 9310,
  "Ġintimid": 9311,
  "ker": 9312,
  "pan": 9313,
  "zbollah": 9314,
  "Ġly": 9315,
  "inf": 9316,
  "real": 9317,
  "Ġfur": 9318,
  "educ": 9319,
  "Ġdal": 9320,
  "Ġunamb": 9321,
  "Ġleh": 9322,
  "Ġjoy": 9323,
  "iped": 9324,
  "Ġdiscovery": 9325,
  "Ġsmugg": 9326,
  "Ġbehave": 9327,
  "Ġsectoral": 9328,
  "cope": 9329,
  "Ġredistribut": 9330,
  "Ġjean": 9331,
  "Ġfooting": 9332,
  "Ġpreference": 9333,
  "Ġreassure": 9334,
  "Ġautonomous": 9335,
  "Ġduplic": 9336,
  "Ġvigilant": 9337,
  "concern": 9338,
  "Ġincapable": 9339,
  "Ġtwentieth": 9340,
  "Ġjudiciary": 9341,
  "gi": 9342,
  "iety": 9343,
  "ja": 9344,
  "lause": 9345,
  "va": 9346,
  "Ġbio": 9347,
  "Ġinability": 9348,
  "Ġdad": 9349,
  "Ġdairy": 9350,
  "Ġneo": 9351,
  "cif": 9352,
  "Ġenergies": 9353,
  "defin": 9354,
  "Ġappoint": 9355,
  "Ġrecruit": 9356,
  "Ġroof": 9357,
  "Ġnationality": 9358,
  "obyl": 9359,
  "surely": 9360,
  "Ġcritics": 9361,
  "emies": 9362,
  "Ġgotten": 9363,
  "Ġministerial": 9364,
  "Ġbarn": 9365,
  "Ġmorator": 9366,
  "Ġpositively": 9367,
  "Ġreceives": 9368,
  "ervation": 9369,
  "Ġcirculation": 9370,
  "Ġobsc": 9371,
  "Ġcapacities": 9372,
  "Ġharmonization": 9373,
  "Ġ250": 9374,
  "Ġinfrastructures": 9375,
  "Ġwealthy": 9376,
  "Ġautomob": 9377,
  "Ġbarrier": 9378,
  "Ġinspectors": 9379,
  "Ġhospitals": 9380,
  "backs": 9381,
  "Ġodds": 9382,
  "Ġprivilege": 9383,
  "recently": 9384,
  "Ġprotein": 9385,
  "Ġticket": 9386,
  "Ġstalin": 9387,
  "Ġcompliment": 9388,
  "Ġtampere": 9389,
  "Ġchernobyl": 9390,
  "half": 9391,
  "oned": 9392,
  "Ġfrat": 9393,
  "oup": 9394,
  "icing": 9395,
  "lets": 9396,
  "Ġgrain": 9397,
  "Ġumb": 9398,
  "ima": 9399,
  "ams": 9400,
  "Ġages": 9401,
  "Ġjoke": 9402,
  "Ġkitch": 9403,
  "Ġintr": 9404,
  "about": 9405,
  "Ġcomplied": 9406,
  "Ġmadrid": 9407,
  "Ġfacto": 9408,
  "Ġrealised": 9409,
  "Ġattended": 9410,
  "Ġdeployed": 9411,
  "uclear": 9412,
  "Ġspecified": 9413,
  "Ġtriumph": 9414,
  "Ġairline": 9415,
  "Ġbankers": 9416,
  "Ġparent": 9417,
  "Ġfrontier": 9418,
  "ilitary": 9419,
  "irac": 9420,
  "Ġarrival": 9421,
  "Ġtony": 9422,
  "2006": 9423,
  "Ġpetition": 9424,
  "Ġradioactive": 9425,
  "Ġpreferences": 9426,
  "Ġlicence": 9427,
  "support": 9428,
  "Ġforecasts": 9429,
  "Ġreluctant": 9430,
  "Ġtreasury": 9431,
  "Ġveterinary": 9432,
  "bear": 9433,
  "fol": 9434,
  "kh": 9435,
  "tles": 9436,
  "isible": 9437,
  "Ġporn": 9438,
  "Ġfue": 9439,
  "Ġhect": 9440,
  "Ġhang": 9441,
  "ilater": 9442,
  "change": 9443,
  "termination": 9444,
  "Ġworries": 9445,
  "Ġchocol": 9446,
  "Ġjack": 9447,
  "Ġintent": 9448,
  "Ġacced": 9449,
  "Ġrival": 9450,
  "Ġprecious": 9451,
  "Ġtermin": 9452,
  "Ġblocks": 9453,
  "Ġseriousness": 9454,
  "finan": 9455,
  "Ġsummary": 9456,
  "Ġemphasises": 9457,
  "Ġdemonstrations": 9458,
  "Ġsalaries": 9459,
  "Ġcrack": 9460,
  "Ġdoctr": 9461,
  "Ġcourageous": 9462,
  "Ġbabies": 9463,
  "erba": 9464,
  "Ġdeliberately": 9465,
  "countries": 9466,
  "Ġsettlements": 9467,
  "Ġlady": 9468,
  "Ġdetriment": 9469,
  "Ġinspiration": 9470,
  "ilaterally": 9471,
  "cking": 9472,
  "Ã§": 9473,
  "teries": 9474,
  "oded": 9475,
  "Ġupset": 9476,
  "Ġcoverage": 9477,
  "indust": 9478,
  "ernity": 9479,
  "Ġlobby": 9480,
  "Ġclock": 9481,
  "Ġmont": 9482,
  "Ġcarries": 9483,
  "Ġreformed": 9484,
  "Ġannually": 9485,
  "ashed": 9486,
  "Ġidentification": 9487,
  "print": 9488,
  "Ġweakening": 9489,
  "born": 9490,
  "Ġlearnt": 9491,
  "Ġrenewal": 9492,
  "Ġexplosion": 9493,
  "Ġharass": 9494,
  "Ġobserver": 9495,
  "Ġcuban": 9496,
  "Ġcondemnation": 9497,
  "Ġoceans": 9498,
  "Ġpicked": 9499,
  "Ġcalculations": 9500,
  "Ġanxiety": 9501,
  "Ġmurdered": 9502,
  "Ġcfsp": 9503,
  "Ġintolerable": 9504,
  "Ġpromptly": 9505,
  "Ġbankruptcy": 9506,
  "Ġcollapsed": 9507,
  "2013": 9508,
  "Ġmoratorium": 9509,
  "isual": 9510,
  "Ġpris": 9511,
  "Ġdates": 9512,
  "Ġgamb": 9513,
  "search": 9514,
  "cher": 9515,
  "liest": 9516,
  "Ġmars": 9517,
  "pected": 9518,
  "Ġunderlined": 9519,
  "uesday": 9520,
  "Ġconferences": 9521,
  "Ġmontenegro": 9522,
  "Ġentity": 9523,
  "Ġcontinuity": 9524,
  "ailand": 9525,
  "Ġtransplant": 9526,
  "Ġdeput": 9527,
  "Ġrisen": 9528,
  "Ġnorms": 9529,
  "Ġelectrical": 9530,
  "Ġeducated": 9531,
  "Ġindications": 9532,
  "Ġclever": 9533,
  "Ġreconcile": 9534,
  "Ġmutually": 9535,
  "Ġeaten": 9536,
  "Ġmachinery": 9537,
  "Ġprosperous": 9538,
  "Ġmaxim": 9539,
  "Ġquantitative": 9540,
  "speaking": 9541,
  "Ġbeliefs": 9542,
  "community": 9543,
  "usalem": 9544,
  "Ġeligible": 9545,
  "Ġremembered": 9546,
  "Ġcambodia": 9547,
  "Ġbiotechnology": 9548,
  "eenth": 9549,
  "gre": 9550,
  "ii": 9551,
  "Ġthin": 9552,
  "income": 9553,
  "itives": 9554,
  "Ġbeer": 9555,
  "Ġlou": 9556,
  "oles": 9557,
  "Ġdeemed": 9558,
  "Ġexagger": 9559,
  "ours": 9560,
  "Ġcompris": 9561,
  "Ġtiming": 9562,
  "Ġgrows": 9563,
  "Ġbanana": 9564,
  "Ġcapability": 9565,
  "Ġbloc": 9566,
  "Ġears": 9567,
  "Ġbargain": 9568,
  "Ġheaded": 9569,
  "Ġeleph": 9570,
  "Ġlights": 9571,
  "Ġ800": 9572,
  "isticated": 9573,
  "Ġrejecting": 9574,
  "Ġdevote": 9575,
  "Ġdefinitions": 9576,
  "Ġaudiov": 9577,
  "Ġricher": 9578,
  "atson": 9579,
  "Ġbreakfast": 9580,
  "Ġreminds": 9581,
  "clock": 9582,
  "Ġchecked": 9583,
  "governments": 9584,
  "undering": 9585,
  "Ġdetermining": 9586,
  "mony": 9587,
  "Ġroutine": 9588,
  "Ġaccepts": 9589,
  "Ġproclaim": 9590,
  "carbon": 9591,
  "Ġsweet": 9592,
  "Ġmovies": 9593,
  "Ġborrowing": 9594,
  "Ġaccelerate": 9595,
  "rocity": 9596,
  "Ġmultinationals": 9597,
  "tegration": 9598,
  "Ġcounterfeiting": 9599,
  "Ġasean": 9600,
  "Ġearmarked": 9601,
  "Ġunambig": 9602,
  "financial": 9603,
  "Ġaudiovisual": 9604,
  "dri": 9605,
  "fish": 9606,
  "Â·": 9607,
  "Ġbone": 9608,
  "Ġfold": 9609,
  "ioned": 9610,
  "Ġseize": 9611,
  "aint": 9612,
  "Ġhasn": 9613,
  "aming": 9614,
  "Ġkim": 9615,
  "Ġlikelihood": 9616,
  "simp": 9617,
  "Ġdisorder": 9618,
  "Ġoffences": 9619,
  "risy": 9620,
  "Ġmineral": 9621,
  "Ġextrad": 9622,
  "Ġvib": 9623,
  "Ġwriter": 9624,
  "Ġswiss": 9625,
  "Ġwaves": 9626,
  "Ġflee": 9627,
  "Ġdeval": 9628,
  "Ġdemonstrating": 9629,
  "Ġencouragement": 9630,
  "france": 9631,
  "owski": 9632,
  "Ġfilms": 9633,
  "Ġtranslated": 9634,
  "Ġprohibited": 9635,
  "Ġniger": 9636,
  "Ġimbalance": 9637,
  "Ġdeterioration": 9638,
  "Ġdetrimental": 9639,
  "Ġunexpected": 9640,
  "Ġdilemma": 9641,
  "Ġsurgery": 9642,
  "Ġbangladesh": 9643,
  "Ġtsunami": 9644,
  "60": 9645,
  "iated": 9646,
  "orrow": 9647,
  "Ġluc": 9648,
  "oting": 9649,
  "peace": 9650,
  "Ġhab": 9651,
  "Ġunification": 9652,
  "soon": 9653,
  "Ġleon": 9654,
  "ocation": 9655,
  "Ġeconomist": 9656,
  "Ġmarry": 9657,
  "Ġspin": 9658,
  "ips": 9659,
  "Ġcontinuous": 9660,
  "Ġ85": 9661,
  "Ġradiation": 9662,
  "Ġwatched": 9663,
  "Ġpakistani": 9664,
  "ilingual": 9665,
  "Ġunsustainable": 9666,
  "Ġsplend": 9667,
  "Ġupdate": 9668,
  "better": 9669,
  "Ġcertific": 9670,
  "Ġapologise": 9671,
  "Ġprosecutor": 9672,
  "citiz": 9673,
  "lers": 9674,
  "oe": 9675,
  "oes": 9676,
  "Ġtank": 9677,
  "Ġtuesday": 9678,
  "Ġwatson": 9679,
  "Ġsant": 9680,
  "almost": 9681,
  "lements": 9682,
  "Ġnap": 9683,
  "rade": 9684,
  "Ġderegulation": 9685,
  "Ġenemies": 9686,
  "Ġchirac": 9687,
  "Ġimpunity": 9688,
  "Ġkaz": 9689,
  "Ġadj": 9690,
  "Ġadhere": 9691,
  "Ġoutlook": 9692,
  "members": 9693,
  "Ġconcluding": 9694,
  "Ġrecur": 9695,
  "Ġconfidential": 9696,
  "Ġrefund": 9697,
  "world": 9698,
  "Ġnorway": 9699,
  "Ġvalley": 9700,
  "Ġ34": 9701,
  "Ġfurthermore": 9702,
  "Ġprotectionist": 9703,
  "Ġuranium": 9704,
  "Ġsuppliers": 9705,
  "Ġcreatures": 9706,
  "Ġreforming": 9707,
  "Ġappropriately": 9708,
  "Ġdeepening": 9709,
  "Ġanalog": 9710,
  "Ġillusion": 9711,
  "Ġcollecting": 9712,
  "polit": 9713,
  "Ġcreditors": 9714,
  "Ġstaying": 9715,
  "Ġinvestigated": 9716,
  "Ġhostile": 9717,
  "Ġcrush": 9718,
  "Ġinsisted": 9719,
  "Ġrigid": 9720,
  "Ġemotions": 9721,
  "Ġferre": 9722,
  "Ġmagnitude": 9723,
  "Ġvegetables": 9724,
  "Ġhypocrisy": 9725,
  "Ġsophisticated": 9726,
  "Ġethiopia": 9727,
  "Ġgeopolitical": 9728,
  "Ġkitchen": 9729,
  "Ġchocolate": 9730,
  "wash": 9731,
  "Ġtig": 9732,
  "Ġaqu": 9733,
  "Ġalex": 9734,
  "onic": 9735,
  "atories": 9736,
  "Ġped": 9737,
  "Ġfol": 9738,
  "Ġinsect": 9739,
  "Ġanc": 9740,
  "style": 9741,
  "Ġlin": 9742,
  "Ġlake": 9743,
  "Ġforcing": 9744,
  "Ġham": 9745,
  "ounced": 9746,
  "imination": 9747,
  "Ġleverage": 9748,
  "Ġagents": 9749,
  "Ġkne": 9750,
  "Ġpresidencies": 9751,
  "igate": 9752,
  "sia": 9753,
  "Ġrape": 9754,
  "Ġspare": 9755,
  "worthy": 9756,
  "Ġtransposition": 9757,
  "Ġbeha": 9758,
  "uccess": 9759,
  "Ġ38": 9760,
  "Ġcontrovers": 9761,
  "Ġirrespective": 9762,
  "Ġbarbar": 9763,
  "itherto": 9764,
  "employment": 9765,
  "Ġshareholders": 9766,
  "Ġcapitalist": 9767,
  "appy": 9768,
  "Ġsubsidy": 9769,
  "Ġobtaining": 9770,
  "Ġexceptionally": 9771,
  "Ġinher": 9772,
  "Ġpermanently": 9773,
  "Ġcomparative": 9774,
  "Ġhurry": 9775,
  "Ġserbian": 9776,
  "asmus": 9777,
  "Ġextremism": 9778,
  "Ġcontemporary": 9779,
  "Ġsequence": 9780,
  "Ġnordic": 9781,
  "Ġversus": 9782,
  "Ġreunification": 9783,
  "Ġprecondition": 9784,
  "Ġsacrifice": 9785,
  "Ġdatabase": 9786,
  "Ġsensitivity": 9787,
  "aunch": 9788,
  "food": 9789,
  "Ġaver": 9790,
  "Ġmakers": 9791,
  "icts": 9792,
  "Ġrect": 9793,
  "Ġga": 9794,
  "Ġlank": 9795,
  "liances": 9796,
  "weight": 9797,
  "Ġhezbollah": 9798,
  "Ġresid": 9799,
  "ller": 9800,
  "Ġdiffering": 9801,
  "Ġserving": 9802,
  "Ġroyal": 9803,
  "Ġmao": 9804,
  "Ġmail": 9805,
  "Ġsimpl": 9806,
  "Ġrestrain": 9807,
  "Ġcivilisation": 9808,
  "Ġarguing": 9809,
  "Ġpricing": 9810,
  "Ġperformed": 9811,
  "Ġrobots": 9812,
  "Ġtunnel": 9813,
  "Ġfifty": 9814,
  "Ġvirtue": 9815,
  "Ġcompeting": 9816,
  "Ġgolden": 9817,
  "Ġextremists": 9818,
  "developed": 9819,
  "Ġdistortions": 9820,
  "Ġneglected": 9821,
  "Ġaccomplished": 9822,
  "Ġdrastic": 9823,
  "Ġmagazine": 9824,
  "Ġsplendid": 9825,
  "bert": 9826,
  "oil": 9827,
  "vice": 9828,
  "Ġaer": 9829,
  "Ġnons": 9830,
  "sters": 9831,
  "Ġunw": 9832,
  "Ġunite": 9833,
  "ivable": 9834,
  "Ġpartially": 9835,
  "Ġcounts": 9836,
  "tel": 9837,
  "Ġprec": 9838,
  "inking": 9839,
  "ounding": 9840,
  "Ġemph": 9841,
  "Ġsystemic": 9842,
  "Ġsmile": 9843,
  "Ġbanning": 9844,
  "Ġcenters": 9845,
  "Ġlivelihood": 9846,
  "Ġburn": 9847,
  "Ġfarmer": 9848,
  "Ġhonor": 9849,
  "Ġmodernization": 9850,
  "Ġexplains": 9851,
  "yeah": 9852,
  "Ġphoto": 9853,
  "Ġincompreh": 9854,
  "Ġemotion": 9855,
  "Ġdeliberations": 9856,
  "Ġcalculated": 9857,
  "Ġwholly": 9858,
  "Ġprestige": 9859,
  "erbaij": 9860,
  "kov": 9861,
  "math": 9862,
  "Ġsir": 9863,
  "Ġuncle": 9864,
  "Ġshed": 9865,
  "Ġseeds": 9866,
  "Ġkiss": 9867,
  "Ġnoon": 9868,
  "Ġreck": 9869,
  "Ġcloning": 9870,
  "athered": 9871,
  "ologist": 9872,
  "Ġbackwards": 9873,
  "balanced": 9874,
  "Ġforming": 9875,
  "Ġformation": 9876,
  "Ġtechnically": 9877,
  "Ġlifted": 9878,
  "Ġ33": 9879,
  "Ġinstances": 9880,
  "Ġelimination": 9881,
  "Ġsingapore": 9882,
  "Ġ42": 9883,
  "Ġpatri": 9884,
  "Ġtextiles": 9885,
  "Ġfleets": 9886,
  "Ġoccurring": 9887,
  "Ġseparated": 9888,
  "2001": 9889,
  "carious": 9890,
  "Ġtraditionally": 9891,
  "Ġdisagreement": 9892,
  "Ġmountains": 9893,
  "Ġvaccine": 9894,
  "Ġawarded": 9895,
  "Ġabstract": 9896,
  "sadly": 9897,
  "Ġvolatility": 9898,
  "Ġsomalia": 9899,
  "Ġrwanda": 9900,
  "Ġtongue": 9901,
  "citizens": 9902,
  "election": 9903,
  "pat": 9904,
  "Ġthailand": 9905,
  "esity": 9906,
  "Ġhoc": 9907,
  "Ġdirty": 9908,
  "icular": 9909,
  "Ġbee": 9910,
  "Ġstating": 9911,
  "Ġproactive": 9912,
  "Ġeurostat": 9913,
  "oda": 9914,
  "Ġkur": 9915,
  "akis": 9916,
  "Ġparliamentarians": 9917,
  "Ġarisen": 9918,
  "Ġprovince": 9919,
  "Ġaddiction": 9920,
  "ologically": 9921,
  "Ġinterdepend": 9922,
  "Ġrevise": 9923,
  "Ġframeworks": 9924,
  "Ġ55": 9925,
  "Ġintegrating": 9926,
  "Ġregulating": 9927,
  "plete": 9928,
  "cker": 9929,
  "apping": 9930,
  "Ġportfol": 9931,
  "Ġinfluenced": 9932,
  "Ġclosest": 9933,
  "besides": 9934,
  "Ġswimming": 9935,
  "Ġmercury": 9936,
  "Ġgathering": 9937,
  "Ġmirror": 9938,
  "Ġjerusalem": 9939,
  "Ġbarnier": 9940,
  "Ġprisons": 9941,
  "Ġincomprehensible": 9942,
  "ey": 9943,
  "Ãº": 9944,
  "Ġtabling": 9945,
  "Ġinsecurity": 9946,
  "Ġdies": 9947,
  "Ġeve": 9948,
  "Ġease": 9949,
  "thal": 9950,
  "Ġlocked": 9951,
  "Ġneur": 9952,
  "Ġshocking": 9953,
  "essim": 9954,
  "Ġorch": 9955,
  "Ġresume": 9956,
  "Ġoutline": 9957,
  "Ġdecides": 9958,
  "Ġspons": 9959,
  "Ġrow": 9960,
  "Ġgoodwill": 9961,
  "Ġoffset": 9962,
  "Ġconfine": 9963,
  "Ġministry": 9964,
  "Ġindex": 9965,
  "Ġwheel": 9966,
  "Ġstrongest": 9967,
  "Ġescap": 9968,
  "Ġstructured": 9969,
  "Ġviolated": 9970,
  "Ġengaging": 9971,
  "Ġgrab": 9972,
  "Ġexcellence": 9973,
  "Ġcyn": 9974,
  "exper": 9975,
  "Ġcriticise": 9976,
  "Ġcollectively": 9977,
  "Ġconducting": 9978,
  "Ġauthorised": 9979,
  "Ġharbour": 9980,
  "Ġplanets": 9981,
  "Ġderiv": 9982,
  "Ġreferendums": 9983,
  "month": 9984,
  "Ġconsolidated": 9985,
  "Ġprevailing": 9986,
  "Ġanalyse": 9987,
  "personally": 9988,
  "controlled": 9989,
  "Ġgallery": 9990,
  "Ġvitally": 9991,
  "Ġtears": 9992,
  "Ġskept": 9993,
  "Ġpiano": 9994,
  "ben": 9995,
  "jad": 9996,
  "nuclear": 9997,
  "reb": 9998,
  "recent": 9999,
  "Ġsri": 10000,
  "Ġinland": 10001,
  "ali": 10002,
  "along": 10003,
  "Ġhill": 10004,
  "Ġhier": 10005,
  "Ġnit": 10006,
  "Ġrebuild": 10007,
  "Ġgor": 10008,
  "Ġimpart": 10009,
  "Ġpolar": 10010,
  "Ġcooking": 10011,
  "Ġprecarious": 10012,
  "Ġarts": 10013,
  "Ġrooted": 10014,
  "Ġparticles": 10015,
  "Ġgenome": 10016,
  "Ġmayor": 10017,
  "Ġsmith": 10018,
  "Ġscared": 10019,
  "Ġprevents": 10020,
  "Ġearliest": 10021,
  "Ġreduces": 10022,
  "retion": 10023,
  "Ġmentioning": 10024,
  "Ġfundamentalism": 10025,
  "Ġoperates": 10026,
  "Ġstrip": 10027,
  "Ġfunctional": 10028,
  "Ġfriendship": 10029,
  "Ġgirlf": 10030,
  "Ġexcessively": 10031,
  "Ġvulnerability": 10032,
  "Ġiii": 10033,
  "Ġretained": 10034,
  "Ġpersistent": 10035,
  "Ġunrealistic": 10036,
  "Ġfrustration": 10037,
  "Ġdisturbing": 10038,
  "Ġunderestimate": 10039,
  "Ġcarriers": 10040,
  "Ġgesture": 10041,
  "Ġaccusations": 10042,
  "business": 10043,
  "Ġunstable": 10044,
  "brit": 10045,
  "ua": 10046,
  "Ġsak": 10047,
  "orate": 10048,
  "Ġmentions": 10049,
  "Ġlung": 10050,
  "orted": 10051,
  "ching": 10052,
  "Ġven": 10053,
  "Ġpreserving": 10054,
  "Ġpreservation": 10055,
  "Ġexposure": 10056,
  "Ġrefusing": 10057,
  "owned": 10058,
  "obama": 10059,
  "Ġreasonably": 10060,
  "Ġscra": 10061,
  "Ġmedi": 10062,
  "Ġorganising": 10063,
  "Ġelites": 10064,
  "Ġpassport": 10065,
  "Ġadministrations": 10066,
  "Ġbreaks": 10067,
  "Ã©s": 10068,
  "Ġappearance": 10069,
  "Ġjournalist": 10070,
  "Ġwitnessing": 10071,
  "Ġlengthy": 10072,
  "Ġcrowd": 10073,
  "Ġhypo": 10074,
  "Ġkilomet": 10075,
  "Ġperpetrators": 10076,
  "Ġdespair": 10077,
  "Ġdiagnosis": 10078,
  "small": 10079,
  "Ġduration": 10080,
  "Ġinstructions": 10081,
  "Ġcatholic": 10082,
  "Ġmortgage": 10083,
  "Ġtissue": 10084,
  "Ġlifelong": 10085,
  "palestin": 10086,
  "ae": 10087,
  "ymmet": 10088,
  "Ġpir": 10089,
  "ede": 10090,
  "asive": 10091,
  "imension": 10092,
  "osur": 10093,
  "Ġresil": 10094,
  "Ġreplied": 10095,
  "ouses": 10096,
  "Ġcontents": 10097,
  "arest": 10098,
  "Ġpermits": 10099,
  "Ġloves": 10100,
  "Ġrefrain": 10101,
  "Ġdefended": 10102,
  "Ġpointless": 10103,
  "Ġmeasuring": 10104,
  "Ġlifting": 10105,
  "Ġinfin": 10106,
  "Ġinflic": 10107,
  "Ġdeploy": 10108,
  "Ġforeigners": 10109,
  "Ġprofile": 10110,
  "Ġmilitar": 10111,
  "Ġiraqis": 10112,
  "Ġidentifying": 10113,
  "pran": 10114,
  "Ġfishery": 10115,
  "Ġsimilarly": 10116,
  "Ġharmony": 10117,
  "Ġbreakdown": 10118,
  "Ġreconsider": 10119,
  "Ġslowdown": 10120,
  "Ġdescription": 10121,
  "Ġlaying": 10122,
  "Ġexplanatory": 10123,
  "Ġbottle": 10124,
  "Ġpanic": 10125,
  "Ġhonesty": 10126,
  "Ġhonestly": 10127,
  "Ġluxury": 10128,
  "Ġphenomena": 10129,
  "compass": 10130,
  "Ġsurpluses": 10131,
  "development": 10132,
  "Ġscreening": 10133,
  "amendments": 10134,
  "Ġshifting": 10135,
  "Ġazerbaij": 10136,
  "Ġbroadcasting": 10137,
  "Ġinstallations": 10138,
  "Ġmathematics": 10139,
  "Ġeggs": 10140,
  "akhstan": 10141,
  "Ġincompatible": 10142,
  "Ġancest": 10143,
  "mun": 10144,
  "rance": 10145,
  "vo": 10146,
  "western": 10147,
  "zens": 10148,
  "Ġtons": 10149,
  "research": 10150,
  "Ġsque": 10151,
  "Ġpessim": 10152,
  "Ġbless": 10153,
  "Ġhinder": 10154,
  "Ġnom": 10155,
  "Ġreorgan": 10156,
  "ressions": 10157,
  "Ġintu": 10158,
  "step": 10159,
  "orship": 10160,
  "Ġadds": 10161,
  "bean": 10162,
  "Ġschol": 10163,
  "Ġviability": 10164,
  "Ġsuccessive": 10165,
  "gging": 10166,
  "Ġconsume": 10167,
  "Ġafricans": 10168,
  "Ġdestructive": 10169,
  "Ġstepped": 10170,
  "Ġradically": 10171,
  "Ġreactors": 10172,
  "Ġordered": 10173,
  "Ġdrafts": 10174,
  "grade": 10175,
  "Ġextraordinarily": 10176,
  "Ġdepartments": 10177,
  "Ġpriorit": 10178,
  "Ġprivileged": 10179,
  "missible": 10180,
  "Ġredundant": 10181,
  "Ġpopulist": 10182,
  "Ġprejudice": 10183,
  "Ġtraceability": 10184,
  "Ġslavery": 10185,
  "Ġindigenous": 10186,
  "Ġumbre": 10187,
  "ext": 10188,
  "foot": 10189,
  "grad": 10190,
  "iver": 10191,
  "kash": 10192,
  "tini": 10193,
  "Ġak": 10194,
  "Ġastr": 10195,
  "env": 10196,
  "orious": 10197,
  "Ġfathers": 10198,
  "Ġdwell": 10199,
  "asant": 10200,
  "ilation": 10201,
  "Ġuseless": 10202,
  "idently": 10203,
  "Ġconform": 10204,
  "Ġmeters": 10205,
  "Ġsupran": 10206,
  "cipe": 10207,
  "Ġengin": 10208,
  "Ġpreserved": 10209,
  "Ġconcludes": 10210,
  "inejad": 10211,
  "Ġbasel": 10212,
  "Ġentities": 10213,
  "Ġassault": 10214,
  "Ġbudd": 10215,
  "Ġsuccessor": 10216,
  "Ġinitiate": 10217,
  "Ġelev": 10218,
  "Ġeru": 10219,
  "Ġdraws": 10220,
  "Ġsatur": 10221,
  "Ġexplaining": 10222,
  "Ġperforming": 10223,
  "Ã¶der": 10224,
  "Ġlays": 10225,
  "Ġreveals": 10226,
  "Ġvigorously": 10227,
  "Ġrestricting": 10228,
  "Ġdinos": 10229,
  "Ġfortunately": 10230,
  "Ġcasual": 10231,
  "Ġimprisoned": 10232,
  "Ġderogation": 10233,
  "Ġfrattini": 10234,
  "Ġsupranational": 10235,
  "Ġengines": 10236,
  "bat": 10237,
  "map": 10238,
  "Ġlying": 10239,
  "Ġtap": 10240,
  "Ġtends": 10241,
  "Ġcrop": 10242,
  "Ġot": 10243,
  "Ġbans": 10244,
  "Ġanch": 10245,
  "roots": 10246,
  "Ġnie": 10247,
  "Ġgn": 10248,
  "Ġgathered": 10249,
  "urances": 10250,
  "owed": 10251,
  "Ġimply": 10252,
  "Ġquart": 10253,
  "Ġdisability": 10254,
  "meas": 10255,
  "Ġarrog": 10256,
  "Ġtrains": 10257,
  "Ġspaces": 10258,
  "Ġreasoning": 10259,
  "afi": 10260,
  "Ġtennis": 10261,
  "Ġrichest": 10262,
  "namo": 10263,
  "Ġallocate": 10264,
  "Ġreplacing": 10265,
  "Ã¡namo": 10266,
  "Ġlaboratory": 10267,
  "Ġfruitful": 10268,
  "Ġundermines": 10269,
  "Ġevolutionary": 10270,
  "Ġdeliberate": 10271,
  "Ġexemptions": 10272,
  "Ġcommodities": 10273,
  "Ġcomplementary": 10274,
  "Ġchampions": 10275,
  "Ġsteadily": 10276,
  "Ġdismantling": 10277,
  "increasing": 10278,
  "Ġtrigger": 10279,
  "imensional": 10280,
  "environment": 10281,
  "02": 10282,
  "cop": 10283,
  "fat": 10284,
  "ique": 10285,
  "norm": 10286,
  "ran": 10287,
  "vian": 10288,
  "Ġtie": 10289,
  "Ġthri": 10290,
  "Ġwire": 10291,
  "Ġpione": 10292,
  "Ġrehab": 10293,
  "imated": 10294,
  "Ġchris": 10295,
  "Ġcanc": 10296,
  "Ġorange": 10297,
  "umers": 10298,
  "Ġactor": 10299,
  "athy": 10300,
  "Ġempower": 10301,
  "Ġblocking": 10302,
  "Ġrestoration": 10303,
  "Ġreadiness": 10304,
  "avoid": 10305,
  "Ġbalances": 10306,
  "Ġelabor": 10307,
  "Ġexpressly": 10308,
  "Ġvisits": 10309,
  "Ġslower": 10310,
  "crimin": 10311,
  "Ġreligions": 10312,
  "Ġislamist": 10313,
  "Ġmalay": 10314,
  "Ġshipy": 10315,
  "Ġgrandmother": 10316,
  "Ġparalys": 10317,
  "Ġvessel": 10318,
  "Ġscott": 10319,
  "Ġfortune": 10320,
  "harov": 10321,
  "Ġdisproportionate": 10322,
  "Ġtemptation": 10323,
  "Ġgirlfriend": 10324,
  "fts": 10325,
  "pes": 10326,
  "sol": 10327,
  "Ġhorm": 10328,
  "Ġhitherto": 10329,
  "Ġreimb": 10330,
  "chet": 10331,
  "Ġwors": 10332,
  "Ġabd": 10333,
  "licity": 10334,
  "Ġconcert": 10335,
  "Ġunderground": 10336,
  "Ġtrap": 10337,
  "Ġobesity": 10338,
  "Ġworlds": 10339,
  "Ġboats": 10340,
  "itely": 10341,
  "Ġhumane": 10342,
  "Ġdiscrep": 10343,
  "Ġsecured": 10344,
  "Ġcarib": 10345,
  "Ġgrid": 10346,
  "Ġdeployment": 10347,
  "Ġadvise": 10348,
  "Ġexpectation": 10349,
  "Ġbaroness": 10350,
  "Ġindividually": 10351,
  "Ġmissile": 10352,
  "Ġmidst": 10353,
  "Ġsuggesting": 10354,
  "Ġcircles": 10355,
  "Ġantibi": 10356,
  "Ġcrossing": 10357,
  "Ġcooperating": 10358,
  "contin": 10359,
  "Ġprecedence": 10360,
  "Ġfortunate": 10361,
  "thesis": 10362,
  "Ġevolve": 10363,
  "Ġsuspected": 10364,
  "Ġunhappy": 10365,
  "concerning": 10366,
  "Ġsakharov": 10367,
  "Ġumbrella": 10368,
  "\".": 10369,
  "oeu": 10370,
  "sing": 10371,
  "trad": 10372,
  "vard": 10373,
  "Äį": 10374,
  "anen": 10375,
  "orically": 10376,
  "Ġdu": 10377,
  "Ġgear": 10378,
  "ortions": 10379,
  "Ġasymmet": 10380,
  "Ġnets": 10381,
  "imer": 10382,
  "gered": 10383,
  "Ġsemin": 10384,
  "Ġcounting": 10385,
  "Ġexpon": 10386,
  "ignment": 10387,
  "angle": 10388,
  "Ġoffensive": 10389,
  "Ġdirectors": 10390,
  "Ġ193": 10391,
  "racted": 10392,
  "Ġimproves": 10393,
  "Ġwelcoming": 10394,
  "Ġequation": 10395,
  "Ġsinging": 10396,
  "Ġ43": 10397,
  "Ġ44": 10398,
  "Ġkeynes": 10399,
  "Ġgenerating": 10400,
  "someone": 10401,
  "Ġjudgments": 10402,
  "Ġskilled": 10403,
  "Ġversions": 10404,
  "Ġlinking": 10405,
  "space": 10406,
  "Ġbiom": 10407,
  "commer": 10408,
  "Ġcorrected": 10409,
  "Ġimagined": 10410,
  "Ġtourists": 10411,
  "Ġbloody": 10412,
  "erential": 10413,
  "Ġenhancing": 10414,
  "Ã¡vez": 10415,
  "Ġdynamics": 10416,
  "Ġstopping": 10417,
  "consumers": 10418,
  "Ġforgive": 10419,
  "particular": 10420,
  "Ġbombing": 10421,
  "Ġboss": 10422,
  "Ġrender": 10423,
  "Ġliterature": 10424,
  "Ġracist": 10425,
  "turning": 10426,
  "Ġcryst": 10427,
  "Ġclinical": 10428,
  "Ġintensify": 10429,
  "Ġpoettering": 10430,
  "Ġtaste": 10431,
  "Ġmiracle": 10432,
  "ĠguantÃ¡namo": 10433,
  "Ġconjunction": 10434,
  "Ġcatastrophic": 10435,
  "Ġambassador": 10436,
  "Ġrehabilit": 10437,
  "oeuv": 10438,
  "south": 10439,
  "uated": 10440,
  "Ġwil": 10441,
  "enl": 10442,
  "itting": 10443,
  "Ġmud": 10444,
  "Ġnas": 10445,
  "Ġstol": 10446,
  "Ġconvert": 10447,
  "Ġenlight": 10448,
  "istically": 10449,
  "Ġcountless": 10450,
  "abul": 10451,
  "Ġfaire": 10452,
  "Ġplot": 10453,
  "auer": 10454,
  "Ġmanoeuv": 10455,
  "ignific": 10456,
  "Ġtraum": 10457,
  "Ġspur": 10458,
  "Ġinvisible": 10459,
  "Ġprovin": 10460,
  "Ġcourses": 10461,
  "Ġguided": 10462,
  "Ġkeys": 10463,
  "iciencies": 10464,
  "Ġbananas": 10465,
  "beh": 10466,
  "Ġallowances": 10467,
  "Ġawful": 10468,
  "Ġliberation": 10469,
  "Ġsuffers": 10470,
  "Ġoldest": 10471,
  "Ġdeclined": 10472,
  "cooperation": 10473,
  "Ġboring": 10474,
  "Ġhearings": 10475,
  "apped": 10476,
  "domin": 10477,
  "Ġanalyses": 10478,
  "Ġrestriction": 10479,
  "culosis": 10480,
  "Ġsimplifying": 10481,
  "Ġhostage": 10482,
  "Ġpensioners": 10483,
  "Ġvillages": 10484,
  "Ġcorresponds": 10485,
  "Ġsuspension": 10486,
  "Ġreciprocity": 10487,
  "Ġdirectorate": 10488,
  "Ġinefficient": 10489,
  "Ġeradicate": 10490,
  "growth": 10491,
  "Ġcotton": 10492,
  "Ġsymptoms": 10493,
  "uberculosis": 10494,
  "Ġfrozen": 10495,
  "Ġtheoretical": 10496,
  "Ġazerbaijan": 10497,
  "Ġcaribbean": 10498,
  "je": 10499,
  "mese": 10500,
  "sur": 10501,
  "vin": 10502,
  "Ġdg": 10503,
  "uts": 10504,
  "Ġuncond": 10505,
  "Ġparame": 10506,
  "Ġabide": 10507,
  "Ġkal": 10508,
  "occup": 10509,
  "Ġthemes": 10510,
  "Ġdecomm": 10511,
  "Ġsupportive": 10512,
  "Ġoverse": 10513,
  "Ġclust": 10514,
  "Ġinternally": 10515,
  "ountered": 10516,
  "Ġphones": 10517,
  "Ġwishing": 10518,
  "Ġcorrid": 10519,
  "Ġencountered": 10520,
  "Ġheadquarters": 10521,
  "Ġburst": 10522,
  "Ġburmese": 10523,
  "Ġcontempt": 10524,
  "Ġ700": 10525,
  "Ġrecommends": 10526,
  "Ġindicator": 10527,
  "Ġcodes": 10528,
  "Ġexporting": 10529,
  "cules": 10530,
  "Ġdynamism": 10531,
  "Ġhurric": 10532,
  "Ġaccompanying": 10533,
  "product": 10534,
  "Ġprofoundly": 10535,
  "Ġfingers": 10536,
  "Ġswiftly": 10537,
  "Ġpregnant": 10538,
  "Ġcoexistence": 10539,
  "Ġgambling": 10540,
  "Ġhabits": 10541,
  "Ġdecommission": 10542,
  "cost": 10543,
  "keste": 10544,
  "rational": 10545,
  "tar": 10546,
  "Ġtuberculosis": 10547,
  "Ġthrust": 10548,
  "Ġamp": 10549,
  "Ġwolf": 10550,
  "Ġow": 10551,
  "Ġpair": 10552,
  "Ġfib": 10553,
  "Ġhi": 10554,
  "rose": 10555,
  "Ġrecipe": 10556,
  "Ġlamp": 10557,
  "Ġarena": 10558,
  "Ġasp": 10559,
  "Ġparamount": 10560,
  "Ġdozen": 10561,
  "acity": 10562,
  "aks": 10563,
  "igration": 10564,
  "Ġquo": 10565,
  "Ġpredomin": 10566,
  "heres": 10567,
  "Ġfees": 10568,
  "Ġoverl": 10569,
  "Ġsyrian": 10570,
  "actually": 10571,
  "Ġoffence": 10572,
  "Ġmood": 10573,
  "Ġdiscred": 10574,
  "Ġdiscoura": 10575,
  "minister": 10576,
  "Ġattending": 10577,
  "Ġassigned": 10578,
  "Ġneglig": 10579,
  "Ġlifet": 10580,
  "Ġrestoring": 10581,
  "Ġconditional": 10582,
  "Ġoppression": 10583,
  "Ġexpectancy": 10584,
  "Ġrecognising": 10585,
  "Ġsummits": 10586,
  "Ġappeals": 10587,
  "Ġencounter": 10588,
  "Ġentirety": 10589,
  "Ġpotato": 10590,
  "Ġwaited": 10591,
  "Ġmultilingual": 10592,
  "Ġ99": 10593,
  "exp": 10594,
  "Ġhistorically": 10595,
  "Ġspiritual": 10596,
  "Ġlaunching": 10597,
  "Ġbattery": 10598,
  "Ġlayer": 10599,
  "Ġunfold": 10600,
  "intensive": 10601,
  "Ġcleaner": 10602,
  "Ġstrengthens": 10603,
  "speed": 10604,
  "Ġfatal": 10605,
  "Ġparadig": 10606,
  "Ġenvisage": 10607,
  "Ġshaped": 10608,
  "Ġfascinating": 10609,
  "Ġimprisonment": 10610,
  "Ġderogations": 10611,
  "Ġqueen": 10612,
  "Ġinconven": 10613,
  "Ġperipheral": 10614,
  "Ġexempl": 10615,
  "kestein": 10616,
  "12": 10617,
  "eken": 10618,
  "ho": 10619,
  "hope": 10620,
  "mn": 10621,
  "mus": 10622,
  "vial": 10623,
  "Ġcats": 10624,
  "Ġmerg": 10625,
  "Ġfru": 10626,
  "arraf": 10627,
  "Ġgro": 10628,
  "Ġuen": 10629,
  "essed": 10630,
  "Ġencompass": 10631,
  "Ġchronic": 10632,
  "ometer": 10633,
  "Ġrepro": 10634,
  "Ġnose": 10635,
  "Ġcofinancing": 10636,
  "things": 10637,
  "Ġserbs": 10638,
  "taining": 10639,
  "Ġlooph": 10640,
  "Ġsymmet": 10641,
  "Ġsubordin": 10642,
  "Ġdiscretion": 10643,
  "Ġherzegovina": 10644,
  "Ġscul": 10645,
  "Ġemail": 10646,
  "Ġdistortion": 10647,
  "Ġshorter": 10648,
  "Ġimpacts": 10649,
  "Ġredress": 10650,
  "Ġrepublican": 10651,
  "Ġenormously": 10652,
  "annes": 10653,
  "Ġspeedy": 10654,
  "Ġphotos": 10655,
  "Ġsweep": 10656,
  "Ġreplacement": 10657,
  "Ġchapters": 10658,
  "handed": 10659,
  "Ġkilometers": 10660,
  "effective": 10661,
  "Ġscandalous": 10662,
  "Ġcontempl": 10663,
  "Ġmunicip": 10664,
  "Ġairplane": 10665,
  "private": 10666,
  "Ġignorance": 10667,
  "Ġzeal": 10668,
  "Ġdoctrine": 10669,
  "Ġkurds": 10670,
  "Ġimpartial": 10671,
  "enlargement": 10672,
  "Ġstolen": 10673,
  "80": 10674,
  "din": 10675,
  "dimensional": 10676,
  "military": 10677,
  "zbe": 10678,
  "isations": 10679,
  "Ġbin": 10680,
  "icable": 10681,
  "uting": 10682,
  "olas": 10683,
  "Ġmelt": 10684,
  "opoul": 10685,
  "Ġseed": 10686,
  "Ġate": 10687,
  "Ġimpressed": 10688,
  "Ġfeared": 10689,
  "Ġinvention": 10690,
  "ritical": 10691,
  "Ġreminder": 10692,
  "Ġdefer": 10693,
  "oboda": 10694,
  "Ġowned": 10695,
  "Ġlegislators": 10696,
  "Ġrises": 10697,
  "Ġblat": 10698,
  "Ġcorn": 10699,
  "Ġequipped": 10700,
  "Ġletting": 10701,
  "play": 10702,
  "Ġannan": 10703,
  "Ġdesigners": 10704,
  "Ġhearts": 10705,
  "Ġrejects": 10706,
  "Ġpackages": 10707,
  "Ġstops": 10708,
  "Ġreflecting": 10709,
  "Ġhunting": 10710,
  "Ġsanction": 10711,
  "Ġwinner": 10712,
  "Ġconstructed": 10713,
  "Ġ%.": 10714,
  "government": 10715,
  "Ġqualitative": 10716,
  "Ġobstruct": 10717,
  "Ġreacted": 10718,
  "Ġphilipp": 10719,
  "Ġsleeping": 10720,
  "Ġlicences": 10721,
  "Ġinjury": 10722,
  "Ġmotivation": 10723,
  "Ġcornerstone": 10724,
  "Ġunreason": 10725,
  "Ġanticipated": 10726,
  "Ġmisunderstanding": 10727,
  "Ġcontamination": 10728,
  "Ġcosm": 10729,
  "Ġpockets": 10730,
  "Ġentertainment": 10731,
  "Ġdreadful": 10732,
  "Ġdeputy": 10733,
  "Ġkazakhstan": 10734,
  "Ġquartet": 10735,
  "19": 10736,
  "farm": 10737,
  "gle": 10738,
  "non": 10739,
  "tt": 10740,
  "vy": 10741,
  "vit": 10742,
  "Ġpending": 10743,
  "orable": 10744,
  "Ġinjustice": 10745,
  "Ġnepal": 10746,
  "Ġunilaterally": 10747,
  "Ġabbas": 10748,
  "Ġmankind": 10749,
  "Ġfactories": 10750,
  "Ġsignatures": 10751,
  "Ġ2050": 10752,
  "Ġequitable": 10753,
  "Ġimmune": 10754,
  "parts": 10755,
  "Ġswoboda": 10756,
  "Ġtrig": 10757,
  "afe": 10758,
  "whereas": 10759,
  "sharing": 10760,
  "Ġopposing": 10761,
  "thodox": 10762,
  "Ġrepeating": 10763,
  "Ġembod": 10764,
  "Ġrichard": 10765,
  "camb": 10766,
  "Ġspiral": 10767,
  "Ġpainting": 10768,
  "Ġlowering": 10769,
  "Ġcondemning": 10770,
  "Ġsurvived": 10771,
  "Ġlukash": 10772,
  "Ġdrinks": 10773,
  "Ġbelonging": 10774,
  "Ġaggreg": 10775,
  "Ġquarters": 10776,
  "Ġreiterated": 10777,
  "Ġtibetan": 10778,
  "Ġpassionate": 10779,
  "Ġirrelev": 10780,
  "Ġdisplayed": 10781,
  "Ġclubs": 10782,
  "Ġdanube": 10783,
  "Ġmolecules": 10784,
  "Ġsmell": 10785,
  "Ġcomfortable": 10786,
  "Ġdiversification": 10787,
  "Ġtactics": 10788,
  "Ġecosystems": 10789,
  "Ġcontroversy": 10790,
  "Ġlanka": 10791,
  "either": 10792,
  "treat": 10793,
  "repres": 10794,
  "Ġtoy": 10795,
  "Ġfier": 10796,
  "Ġhiding": 10797,
  "Ġdust": 10798,
[...]
