{"<pad>":0,"<s>":1,"</s>":2,"<unk>":3,"<mask>":4,"!":5,"\"":6,"#":7,"$":8,"%":9,"&":10,"'":11,"(":12,")":13,"*":14,"+":15,",":16,"-":17,".":18,"/":19,"0":20,"1":21,"2":22,"3":23,"4":24,"5":25,"6":26,"7":27,"8":28,"9":29,":":30,";":31,"<":32,"=":33,">":34,"?":35,"@":36,"A":37,"B":38,"C":39,"D":40,"E":41,"F":42,"G":43,"H":44,"I":45,"J":46,"K":47,"L":48,"M":49,"N":50,"O":51,"P":52,"Q":53,"R":54,"S":55,"T":56,"U":57,"V":58,"W":59,"X":60,"Y":61,"Z":62,"[":63,"\\":64,"]":65,"^":66,"_":67,"`":68,"a":69,"b":70,"c":71,"d":72,"e":73,"f":74,"g":75,"h":76,"i":77,"j":78,"k":79,"l":80,"m":81,"n":82,"o":83,"p":84,"q":85,"r":86,"s":87,"t":88,"u":89,"v":90,"w":91,"x":92,"y":93,"z":94,"{":95,"|":96,"}":97,"~":98,"¡":99,"¢":100,"£":101,"¤":102,"¥":103,"¦":104,"§":105,"¨":106,"©":107,"ª":108,"«":109,"¬":110,"®":111,"¯":112,"°":113,"±":114,"²":115,"³":116,"´":117,"µ":118,"¶":119,"·":120,"¸":121,"¹":122,"º":123,"»":124,"¼":125,"½":126,"¾":127,"¿":128,"À":129,"Á":130,"Â":131,"Ã":132,"Ä":133,"Å":134,"Æ":135,"Ç":136,"È":137,"É":138,"Ê":139,"Ë":140,"Ì":141,"Í":142,"Î":143,"Ï":144,"Ð":145,"Ñ":146,"Ò":147,"Ó":148,"Ô":149,"Õ":150,"Ö":151,"×":152,"Ø":153,"Ù":154,"Ú":155,"Û":156,"Ü":157,"Ý":158,"Þ":159,"ß":160,"à":161,"á":162,"â":163,"ã":164,"ä":165,"å":166,"æ":167,"ç":168,"è":169,"é":170,"ê":171,"ë":172,"ì":173,"í":174,"î":175,"ï":176,"ð":177,"ñ":178,"ò":179,"ó":180,"ô":181,"õ":182,"ö":183,"÷":184,"ø":185,"ù":186,"ú":187,"û":188,"ü":189,"ý":190,"þ":191,"ÿ":192,"Ā":193,"ā":194,"Ă":195,"ă":196,"Ą":197,"ą":198,"Ć":199,"ć":200,"Ĉ":201,"ĉ":202,"Ċ":203,"ċ":204,"Č":205,"č":206,"Ď":207,"ď":208,"Đ":209,"đ":210,"Ē":211,"ē":212,"Ĕ":213,"ĕ":214,"Ė":215,"ė":216,"Ę":217,"ę":218,"Ě":219,"ě":220,"Ĝ":221,"ĝ":222,"Ğ":223,"ğ":224,"Ġ":225,"ġ":226,"Ģ":227,"ģ":228,"Ĥ":229,"ĥ":230,"Ħ":231,"ħ":232,"Ĩ":233,"ĩ":234,"Ī":235,"ī":236,"Ĭ":237,"ĭ":238,"Į":239,"į":240,"İ":241,"ı":242,"Ĳ":243,"ĳ":244,"Ĵ":245,"ĵ":246,"Ķ":247,"ķ":248,"ĸ":249,"Ĺ":250,"ĺ":251,"Ļ":252,"ļ":253,"Ľ":254,"ľ":255,"Ŀ":256,"ŀ":257,"Ł":258,"ł":259,"Ń":260,"Ġt":261,"Ġth":262,"Ġa":263,"in":264,"re":265,"Ġthe":266,"on":267,"at":268,"Ġw":269,"is":270,"er":271,"Ġs":272,"en":273,"Ġc":274,"Ġo":275,"it":276,"Ġp":277,"an":278,"Ġb":279,"or":280,"Ġm":281,"Ġto":282,"es":283,"Ġf":284,"ou":285,"ion":286,"Ġin":287,"Ġof":288,"al":289,"Ġan":290,"ed":291,"Ġh":292,"ing":293,"ar":294,"Ġd":295,"ro":296,"ic":297,"Ġe":298,"Ġand":299,"ent":300,"le":301,"th":302,"Ġn":303,"Ġre":304,"as":305,"Ġis":306,"ve":307,"om":308,"Ġbe":309,"Ġthat":310,"st":311,"ly":312,"il":313,"Ġi":314,"ct":315,"Ġg":316,"Ġl":317,"Ġu":318,"Ġwh":319,"ation":320,"Ġon":321,"ut":322,"ot":323,"Ġwe":324,"Ġfor":325,"se":326,"pe":327,"ment":328,"id":329,"Ġit":330,"ur":331,"ld":332,"Ġcom":333,"Ġst":334,"ver":335,"ce":336,"Ġpro":337,"ow":338,"Ġha":339,"ol":340,"Ġy":341,"Ġcon":342,"Ġal":343,"Ġthis":344,"ra":345,"Ġde":346,"ri":347,"Ġare":348,"ort":349,"the":350,"ch":351,"Ġas":352,"ith":353,"ul":354,"ke":355,"Ġeu":356,"res":357,"ay":358,"ill":359,"gh":360,"ould":361,"Ġhave":362,"Ġwith":363,"Ġnot":364,"ir":365,"mp":366,"Ġyou":367,"Ġne":368,"Ġme":369,"ate":370,"Ġun":371,"Ġsu":372,"ter":373,"oun":374,"ad":375,"Ġeuro":376,"im":377,"ge":378,"Ġcomm":379,"pp":380,"op":381,"Ġeurope":382,"ore":383,"Ġsh":384,"ble":385,"ity":386,"Ġse":387,"and":388,"Ġex":389,"ive":390,"ust":391,"sion":392,"li":393,"os":394,"Ġwill":395,"ant":396,"ere":397,"ers":398,"Ġpar":399,"un":400,"Ġv":401,"ain":402,"ess":403,"ci":404,"est":405,"ich":406,"Ġhas":407,"we":408,"qu":409,"'s":410,"Ġat":411,"Ġdo":412,"Ġby":413,"Ġen":414,"if":415,"ght":416,"Ġwhich":417,"ies":418,"so":419,"Ġeuropean":420,"Ġle":421,"mb":422,"Ġwor":423,"Ġgo":424,"Ġch":425,"Ġcan":426,"Ġcoun":427,"et":428,"âĢ":429,"ther":430,"ist":431,"Ġpres":432,"am":433,"Ġall":434,"Ġag":435,"us":436,"Ġso":437,"Ġwas":438,"Ġr":439,"ally":440,"od":441,"ure":442,"rom":443,"ome":444,"Ġimp":445,"iv":446,"ission":447,"ect":448,"Ġj":449,"Ġor":450,"Ġhe":451,"Ġres":452,"Ġthere":453,"very":454,"end":455,"Ġab":456,"Ġwould":457,"ions":458,"Ġcommission":459,"Ġli":460,"out":461,"Ġpol":462,"Ġk":463,"Ġint":464,"our":465,"ac":466,"Ġfrom":467,"Ġam":468,"ard":469,"ak":470,"all":471,"ff":472,"Ġpresid":473,"con":474,"Ġalso":475,"Ġour":476,"Ġbut":477,"Ġshould":478,"Ġus":479,"ig":480,"Ġrep":481,"Ġ-":482,"de":483,"ake":484,"Ġpart":485,"ll":486,"um":487,"mber":488,"Ġthey":489,"Ġmust":490,"Ġbeen":491,"der":492,"Ġad":493,"ous":494,"Ġmore":495,"ates":496,"ue":497,"Ġcont":498,"ans":499,"Ġpresident":500,"Ġcount":501,"Ġlike":502,"ations":503,"Ġreg":504,"ree":505,"ab":506,"Ġpe":507,"oc":508,"reat":509,"ast":510,"ish":511,"ult":512,"Ġac":513,"one":514,"ament":515,"Ġfa":516,"Ġabout":517,"si":518,"pport":519,"ud":520,"Ġwhat":521,"ical":522,"ost":523,"this":524,"Ġmr":525,"Ġtheir":526,"Ġone":527,"ary":528,"Ġneed":529,"Ġqu":530,"Ġno":531,"vel":532,"ren":533,"Ġtr":534,"able":535,"lo":536,"ire":537,"ments":538,"ong":539,"ear":540,"Ġpl":541,"ap":542,"Ġits":543,"Ġmy":544,"Ġvery":545,"Ġdis":546,"âĢĻ":547,"Ġ1":548,"ie":549,"Ġout":550,"Ġsome":551,"cial":552,"ance":553,"for":554,"au":555,"Ġwho":556,"Ġri":557,"du":558,"ms":559,"Ġthese":560,"Ġact":561,"Ġcomp":562,"Ġbec":563,"Ġfin":564,"Ġwork":565,"now":566,"Ġinc":567,"cess":568,"Ġtim":569,"ople":570,"liament":571,"Ġ2":572,"Ġthan":573,"00":574,"Ġman":575,"Ġunion":576,"Ġpeople":577,"rou":578,"Ġright":579,"Ġreport":580,"Ġup":581,"Ġparliament":582,"Ġstates":583,"Ġprop":584,"wh":585,"te":586,"Ġyear":587,"Ġimport":588,"but":589,"ry":590,"ag":591,"ru":592,"ence":593,"Ġexp":594,"Ġapp":595,"iz":596,"Ġco":597,"conom":598,"are":599,"tern":600,"fore":601,"Ġcons":602,"me":603,"Ġsa":604,"ose":605,"ition":606,"ries":607,"ice":608,"ts":609,"ause":610,"Ġte":611,"Ġpre":612,"Ġnew":613,"ink":614,"Ġeconom":615,"ational":616,"ens":617,"Ġother":618,"oin":619,"ces":620,"Ġpos":621,"Ġif":622,"ated":623,"el":624,"Ġtime":625,"Ġar":626,"ia":627,"ok":628,"Ġmember":629,"lic":630,"cy":631,"og":632,"Ġev":633,"age":634,"he":635,"Ġmar":636,"Ġsee":637,"Ġthem":638,"Ġcountries":639,"pt":640,"Ġpolic":641,"Ġconc":642,"ach":643,"ack":644,"Ġnow":645,"ise":646,"Ġbet":647,"Ġjust":648,"ign":649,"ame":650,"Ġonly":651,"Ġhow":652,"ine":653,"Ġra":654,"ial":655,"Ġknow":656,"Ġdec":657,"ase":658,"ject":659,"cil":660,"pect":661,"Ġany":662,"Ġunder":663,"ide":664,"Ġpropos":665,"ious":666,"Ġimportant":667,"'t":668,"Ġcouncil":669,"Ġspe":670,"ound":671,"ĠâĢ":672,"ted":673,"Ġwant":674,"Ġtra":675,"velop":676,"Ġwere":677,"Ġdem":678,"ities":679,"ution":680,"Ġsp":681,"ress":682,"Ġfe":683,"Ġeff":684,"Ġsupport":685,"Ġdevelop":686,"Ġbecause":687,"ced":688,"irst":689,"Ġagain":690,"thing":691,"iff":692,"Ġthink":693,"Ġob":694,"eren":695,"ric":696,"ever":697,"Ġwhen":698,"Ġway":699,"ind":700,"Ġpolit":701,"ction":702,"Ġrec":703,"Ġper":704,"Ġworld":705,"ility":706,"Ġind":707,"ip":708,"Ġinto":709,"Ġmake":710,"Ġdiff":711,"ub":712,"Ġsay":713,"Ġpolicy":714,"Ġser":715,"ace":716,"lear":717,"mr":718,"Ġyour":719,"und":720,"Ġinv":721,"form":722,"Ġbo":723,"Ġover":724,"sel":725,"Ġmad":726,"vern":727,"ings":728,"Ġhad":729,"Ġop":730,"Ġiss":731,"ern":732,"Ġproble":733,"tain":734,"Ġlo":735,"ste":736,"Ġro":737,"Ġagree":738,"ular":739,"uch":740,"Ġtake":741,"Ġsy":742,"Ġleg":743,"ight":744,"rit":745,"Ġ--":746,"Ġpartic":747,"ved":748,"Ġpoin":749,"ks":750,"Ġhis":751,"Ġcommit":752,"Ġcl":753,"Ġeconomic":754,"day":755,"Ġtw":756,"igh":757,"Ġgovern":758,"row":759,"ative":760,"there":761,"Ġtrans":762,"Ġvot":763,"Ġintern":764,"that":765,"Ġsuch":766,"Ġfirst":767,"lie":768,"Ġmany":769,"ention":770,"Ġprog":771,"Ġyears":772,"ang":773,"Ġthose":774,"act":775,"Ġmarke":776,"ures":777,"Ġcould":778,"ting":779,"gy":780,"Ġquest":781,"Ġhere":782,"sible":783,"Ġaf":784,"ful":785,"ors":786,"Ġstr":787,"Ġdire":788,"Ġproposal":789,"ite":790,"Ġsub":791,"Ġbelie":792,"Ġgood":793,"Ġter":794,"Ġfact":795,"Ġevery":796,"Ġpolitical":797,"stit":798,"ween":799,"ian":800,"ord":801,"Ġbetween":802,"Ġgreat":803,"Ġfund":804,"pon":805,"Ġprov":806,"mm":807,"ath":808,"Ġtwo":809,"Ġmade":810,"Ġprodu":811,"Ġoff":812,"Ġhum":813,"ives":814,"Ġbeing":815,"ep":816,"Ġmo":817,"Ġacc":818,"ues":819,"xt":820,"ris":821,"ating":822,"ory":823,"ving":824,"Ġtak":825,"Ġeven":826,"Ġcommun":827,"Ġcour":828,"Ġmuch":829,"Ġmost":830,"Ġdoes":831,"Ġdeb":832,"Ġconcern":833,"ild":834,"Ġget":835,"Ġlong":836,"Ġclear":837,"Ġtherefore":838,"arge":839,"ange":840,"Ġrel":841,"lect":842,"Ġwhere":843,"red":844,"Ġmat":845,"Ġho":846,"Ġrem":847,"how":848,"Ġhuman":849,"Ġparticular":850,"Ġbas":851,"cept":852,"Ġgen":853,"Ġconf":854,"ward":855,"roup":856,"ĠâĢĵ":857,"Ġrespon":858,"Ġsyste":859,"Ġ200":860,"Ġrights":861,"Ġgroup":862,"Ġdirect":863,"Ġbelieve":864,"ual":865,"ural":866,"ough":867,"Ġwell":868,"ublic":869,"wn":870,"rat":871,"Ġpri":872,"Ġappro":873,"Ġsaid":874,"Ġsocial":875,"Ġsit":876,"Ġfinan":877,"not":878,"Ġstate":879,"eration":880,"amp":881,"ism":882,"Ġhigh":883,"ass":884,"Ġref":885,"Ġmay":886,"Ġnu":887,"Ġdisc":888,"Ġmon":889,"eral":890,"Ġprot":891,"oll":892,"Ġcountry":893,"Ġmin":894,"Ġtoo":895,"Ġadd":896,"Ġlook":897,"Ġext":898,"read":899,"way":900,"min":901,"ited":902,"iew":903,"Ġamend":904,"Ġfar":905,"Ġthen":906,"Ġput":907,"ves":908,"Ġla":909,"Ġagainst":910,"ency":911,"Ġdemoc":912,"lu":913,"erest":914,"Ġsec":915,"man":916,"Ġsame":917,"Ġgoing":918,"Ġcur":919,"rough":920,"Ġmarket":921,"Ġquestion":922,"Ġtoday":923,"you":924,"Ġpr":925,"Ġincre":926,"olution":927,"art":928,"Ġdid":929,"Ġcall":930,"ision":931,"Ġuse":932,"Ġdef":933,"Ġpoint":934,"Ġrequ":935,"Ġreal":936,"Ġdifferen":937,"ile":938,"Ġend":939,"Ġfut":940,"Ġinterest":941,"own":942,"Ġent":943,"Ġma":944,"Ġcannot":945,"what":946,"Ġatt":947,"rent":948,"Ġfuture":949,"Ġcontin":950,"Ġemp":951,"Ġeffect":952,"get":953,"Ġtreat":954,"Ġdevelopment":955,"Ġpublic":956,"uation":957,"Ġstill":958,"Ġthrough":959,"les":960,"ertain":961,"Ġdes":962,"ific":963,"Ġ(":964,"Ġsi":965,"itiz":966,"Ġ19":967,"Ġcommitte":968,"Ġtur":969,"Ġlast":970,"Ġnational":971,"Ġfinancial":972,"Ġhapp":973,"Ġ\"":974,"alth":975,"mbers":976,"Ġhel":977,"king":978,"Ġass":979,"ob":980,"Ġissue":981,"Ġreally":982,"Ġown":983,"Ġregard":984,"Ġher":985,"ually":986,"Ġcitiz":987,"Ġmeas":988,"Ġgu":989,"Ġprotect":990,"Ġgovernment":991,"Ġprogra":992,"Ġsystem":993,"Ġgrow":994,"Ġlead":995,"they":996,"ents":997,"Ġbud":998,"Ġinternational":999,"Ġcar":1000,"Ġhelp":1001,"ason":1002,"led":1003,"Ġwhy":1004,"'re":1005,"ower":1006,"pet":1007,"loy":1008,"olog":1009,"Ġsm":1010,"Ġinform":1011,"ty":1012,"Ġresult":1013,"iven":1014,"ese":1015,"lement":1016,"Ġcommittee":1017,"Ġmatter":1018,"Ġproblem":1019,"cond":1020,"Ġtal":1021,"ised":1022,"ning":1023,"Ġcourse":1024,"Ġenv":1025,"ruct":1026,"Ġke":1027,"Ġcommissioner":1028,"Ġ'":1029,"Ġconsid":1030,"bility":1031,"Ġbr":1032,"ready":1033,"Ġback":1034,"ail":1035,"Ġlevel":1036,"Ġcitizens":1037,"Ġview":1038,"Ġalready":1039,"Ġsituation":1040,"ood":1041,"Ġinter":1042,"Ġpossible":1043,"Ġreason":1044,"Ġpers":1045,"Ġhope":1046,"Ġsc":1047,"self":1048,"gan":1049,"wor":1050,"ince":1051,"iron":1052,"Ġdebate":1053,"ied":1054,"ulation":1055,"illion":1056,"Ġmembers":1057,"Ġexamp":1058,"Ġboth":1059,"ety":1060,"sure":1061,"ouse":1062,"ict":1063,"Ġprocess":1064,"uth":1065,"Ġcertain":1066,"Ġsign":1067,"Ġcome":1068,"ergy":1069,"Ġorder":1070,"bal":1071,"Ġagreement":1072,"ract":1073,"Ġdra":1074,"uring":1075,"ironment":1076,"hip":1077,"Ġset":1078,"Ġban":1079,"ici":1080,"Ġbu":1081,"Ġwar":1082,"chie":1083,"Ġbefore":1084,"Ġenvironment":1085,"Ġask":1086,"however":1087,"chn":1088,"eric":1089,"lud":1090,"aking":1091,"Ġachie":1092,"cip":1093,"Ġcoop":1094,"ority":1095,"ne":1096,"tle":1097,"Ġhim":1098,"Ġadop":1099,"Ġglo":1100,"Ġdifferent":1101,"Ġcent":1102,"Ġenergy":1103,"Ġable":1104,"Ġful":1105,"other":1106,"Ġsomething":1107,"Ġneg":1108,"ft":1109,"ices":1110,"lish":1111,"Ġbudget":1112,"ically":1113,"Ġaff":1114,"Ġtransp":1115,"Ġinstit":1116,"to":1117,"utions":1118,"Ġthings":1119,"urther":1120,"Ġcommon":1121,"ration":1122,"Ġcompet":1123,"Ġcase":1124,"Ġday":1125,"gin":1126,"Ġcommunity":1127,"Ġcap":1128,"Ġlaw":1129,"Ġcurrent":1130,"Ġhouse":1131,"Ġinvest":1132,"ina":1133,"omen":1134,"Ġcol":1135,"Ġform":1136,"Ġexample":1137,"ten":1138,"Ġwithin":1139,"Ġstand":1140,"be":1141,"Ġdiscus":1142,"Ġprev":1143,"Ġcris":1144,"its":1145,"ribut":1146,"urity":1147,"ately":1148,"Ġchange":1149,"Ġmaj":1150,"Ġide":1151,"Ġpresent":1152,"Ġmeasures":1153,"Ġgive":1154,"Ġserv":1155,"Ġmain":1156,"Ġglobal":1157,"Ġsuc":1158,"eur":1159,"men":1160,"Ġdon":1161,"Ġwithout":1162,"Ġmed":1163,"Ġvote":1164,"Ġhowever":1165,"Ġfore":1166,"Ġdown":1167,"Ġbeh":1168,"ount":1169,"Ġmeans":1170,"Ġplace":1171,"Ġlit":1172,"ef":1173,"Ġtechn":1174,"over":1175,"come":1176,"Ġprin":1177,"ven":1178,"isl":1179,"Ġsol":1180,"Ġtaken":1181,"Ġlif":1182,"Ġproblems":1183,"Ġimpro":1184,"Ġinf":1185,"Ġameric":1186,"Ġsimp":1187,"Ġrespect":1188,"Ġsecurity":1189,"Ġhealth":1190,"stand":1191,"Ġafter":1192,"Ġstrate":1193,"Ġnumber":1194,"Ġmod":1195,"ather":1196,"Ġdeal":1197,"Ġbetter":1198,"Ġauth":1199,"ered":1200,"air":1201,"vers":1202,"Ġfra":1203,"Ġcooperation":1204,"Ġunited":1205,"Ġinformation":1206,"Ġbus":1207,"Ġfind":1208,"Ġthree":1209,"Ġlegisl":1210,"Ġregion":1211,"Ġdirective":1212,"Ġpower":1213,"reed":1214,"ily":1215,"Ġcrisis":1216,"Ġgr":1217,"ital":1218,"Ġorgan":1219,"Ġrul":1220,"Ġsect":1221,"Ġaction":1222,"Ġplay":1223,"Ġobject":1224,"Ġsch":1225,"ently":1226,"Ġnecess":1227,"Ġallow":1228,"itions":1229,"Ġarea":1230,"less":1231,"Ġprincip":1232,"Ġfew":1233,"itive":1234,"ability":1235,"pporteur":1236,"Ġindust":1237,"com":1238,"ollow":1239,"ater":1240,"Ġ20":1241,"land":1242,"Ġcre":1243,"ph":1244,"Ġchild":1245,"Ġdep":1246,"ists":1247,"Ġph":1248,"Ġnor":1249,"Ġris":1250,"Ġnat":1251,"Ġprom":1252,"Ġdone":1253,"Ġelect":1254,"Ġhand":1255,"Ġwel":1256,"work":1257,"no":1258,"Ġap":1259,"Ġbl":1260,"Ġem":1261,"pportun":1262,"Ġmeet":1263,"ute":1264,"ential":1265,"Ġest":1266,"Ġrepres":1267,"Ġopportun":1268,"Ġear":1269,"Ġval":1270,"Ġactually":1271,"icult":1272,"ality":1273,"Ġrapporteur":1274,"Ġshe":1275,"uc":1276,"Ġredu":1277,"Ġinclud":1278,"alf":1279,"orts":1280,"isation":1281,"ds":1282,"Ġ3":1283,"Ġopen":1284,"Ġsince":1285,"Ġsaf":1286,"Ġrest":1287,"Ġlittle":1288,"Ġwomen":1289,"Ġnext":1290,"arch":1291,"Ġta":1292,"Ġtrade":1293,"'m":1294,"oti":1295,"Ġdifficult":1296,"Ġshow":1297,"Ġsur":1298,"Ġwish":1299,"Ġkind":1300,"orities":1301,"Ġav":1302,"Ġimplement":1303,"Ġfav":1304,"eg":1305,"Ġinde":1306,"Ġremain":1307,"Ġincreas":1308,"Ġthank":1309,"Ġfollow":1310,"Ġexper":1311,"Ġcor":1312,"Ġless":1313,"Ġensure":1314,"Ġplan":1315,"ways":1316,"Ġequ":1317,"Ġdemocrat":1318,"ussi":1319,"Ġaccept":1320,"Ġadv":1321,"Ġfurther":1322,"Ġinvol":1323,"ick":1324,"Ġins":1325,"my":1326,"Ġcontro":1327,"Ġnegoti":1328,"she":1329,"als":1330,"iti":1331,"Ġprogram":1332,"Ġtreaty":1333,"Ġcomple":1334,"Ġspeci":1335,"oura":1336,"Ġlife":1337,"Ġwhe":1338,"ying":1339,"Ġissues":1340,"cing":1341,"Ġjob":1342,"Ġfr":1343,"Ġserious":1344,"ics":1345,"Ġmrs":1346,"loyment":1347,"ros":1348,"oney":1349,"Ġthing":1350,"Ġinst":1351,"Ġvi":1352,"Ġunderstand":1353,"Ġcost":1354,"Ġsecond":1355,"Ġgrowth":1356,"lig":1357,"Ġrules":1358,"ided":1359,"Ġconsider":1360,"Ġlet":1361,"ody":1362,"Ġgent":1363,"ared":1364,"Ġir":1365,"Ġgentle":1366,"Ġperson":1367,"Ġanother":1368,"Ġproduct":1369,"Ġben":1370,"Ġgiven":1371,"Ġnecessary":1372,"Ġsmall":1373,"Ġneeds":1374,"Ġrequire":1375,"Ġhappen":1376,"iness":1377,"Ġlegal":1378,"Ġbecome":1379,"Ġwhether":1380,"Ġrole":1381,"ird":1382,"Ġamendments":1383,"adies":1384,"selves":1385,"Ġmoney":1386,"Ġgentlemen":1387,"Ġalways":1388,"per":1389,"cu":1390,"Ġwhole":1391,"Ġread":1392,"Ġproced":1393,"Ġprotection":1394,"Ġrussi":1395,"Ġposition":1396,"ave":1397,"Ġlarge":1398,"Ġimm":1399,"ister":1400,"par":1401,"Ġsuccess":1402,"sibility":1403,"av":1404,"Ġeconomy":1405,"Ġareas":1406,"Ġmove":1407,"Ġconv":1408,"racy":1409,"Ġsoci":1410,"gether":1411,".\"":1412,"gg":1413,"Ġchina":1414,"Ġcrit":1415,"these":1416,"Ġapproach":1417,"Ġparticularly":1418,"Ġconsum":1419,"Ġnever":1420,"sions":1421,"ources":1422,"ness":1423,"em":1424,"Ġused":1425,"Ġproject":1426,"âĢĿ":1427,"Ġrev":1428,"Ġmillion":1429,"ross":1430,"Ġprogress":1431,"Ġaid":1432,"Ġprogramme":1433,"ines":1434,"Ġresolution":1435,"Ġdecision":1436,"Ġiniti":1437,"Ġcond":1438,"Ġmil":1439,"Ġcontribut":1440,"ense":1441,"let":1442,"eng":1443,"Ġbal":1444,"Ġfeel":1445,"Ġpay":1446,"Ġsector":1447,"ys":1448,"Ġstep":1449,"Ġtax":1450,"Ġfish":1451,"Ġrese":1452,"ĠâĢľ":1453,"Ġeffective":1454,"imate":1455,"ablish":1456,"ral":1457,"Ġpresidency":1458,"ably":1459,"Ġpract":1460,"'ve":1461,"Ġcontinue":1462,"Ġopin":1463,"ultural":1464,"wards":1465,"Ġeas":1466,"Ġtogether":1467,"Ġ199":1468,"Ġpur":1469,"Ġcompan":1470,"Ġstrong":1471,"isions":1472,"Ġlot":1473,"Ġdoing":1474,"more":1475,"Ġur":1476,"ought":1477,"Ġbenef":1478,"Ġes":1479,"Ġed":1480,"Ġservices":1481,"Ġspecif":1482,"ned":1483,"Ġworking":1484,"Ġagric":1485,"Ġfree":1486,"Ġrepresent":1487,"ret":1488,"rodu":1489,"Ġterms":1490,"Ġframe":1491,"Ġfail":1492,"Ġel":1493,"ror":1494,"Ġpo":1495,"Ġconstit":1496,"Ġfavour":1497,"Ġestablish":1498,"Ġforward":1499,"Ġmean":1500,"Ġresearch":1501,"Ġinstitutions":1502,"Ġmight":1503,"most":1504,"Ġdist":1505,"Ġstud":1506,"Ġproposals":1507,"ner":1508,"Ġ5":1509,"Ġstar":1510,"Ġstrategy":1511,"Ġpeace":1512,"sw":1513,"Ġchang":1514,"Ġcontrol":1515,"Ġwrit":1516,"iving":1517,"Ġfood":1518,"Ġsupp":1519,"erence":1520,"Ġbasis":1521,"Ġjoin":1522,"Ġladies":1523,"Ġexperi":1524,"Ġpop":1525,"Ġrelations":1526,"Ġspeak":1527,"Ġeach":1528,"Ġaround":1529,"Ġfound":1530,"Ġtechnolog":1531,"Ġaim":1532,"Ġbro":1533,"Ġbusiness":1534,"osed":1535,"Ġfundament":1536,"Ġcreat":1537,"Ġamendment":1538,"Ġsubject":1539,"Ġitself":1540,"Ġyet":1541,"aps":1542,"Ġgeneral":1543,"Ġquite":1544,"Ġtell":1545,"Ġframework":1546,"Ġonce":1547,"Ġfac":1548,"Ġsing":1549,"Ġess":1550,"Ġcare":1551,"Ġbring":1552,"Ġwelcome":1553,"Ġbuild":1554,"Ġachieve":1555,"ible":1556,"Ġopp":1557,"Ġreach":1558,"Ġgot":1559,"Ġshort":1560,"Ġchildren":1561,"Ġdemocracy":1562,"Ġmention":1563,"Ġfam":1564,"Ġexpect":1565,"Ġoften":1566,"Ġtalk":1567,"Ġbest":1568,"Ġansw":1569,"arm":1570,"Ġchall":1571,"Ġduring":1572,"then":1573,"Ġopportunity":1574,"pri":1575,"Ġcri":1576,"light":1577,"Ġopinion":1578,"Ġrather":1579,"Ġ4":1580,"Ġaw":1581,"akes":1582,"ages":1583,"Ġart":1584,"Ġmonth":1585,"Ġdemand":1586,"Ġlib":1587,"Ġlegislation":1588,"ulture":1589,"Ġstruct":1590,"leg":1591,"Ġbig":1592,"Ġimprove":1593,"ances":1594,"Ġple":1595,"Ġabs":1596,"Ġpromot":1597,"Ġclo":1598,"Ġincrease":1599,"Ġago":1600,"Ġextre":1601,"Ġwhile":1602,"Ġexist":1603,"ivid":1604,"Ġbegin":1605,"Ġminister":1606,"fin":1607,"fort":1608,"mpt":1609,"Ġsuff":1610,"Ġforeign":1611,"Ġinteg":1612,"ogn":1613,"reedom":1614,"clear":1615,"Ġsw":1616,"many":1617,"Ġmajor":1618,"Ġca":1619,"Ġtri":1620,"Ġstart":1621,"Ġenough":1622,"Ġlim":1623,"ants":1624,"stain":1625,"Ġim":1626,"ides":1627,"ock":1628,"Ġindustry":1629,"Ġviol":1630,"ases":1631,"Ġtowards":1632,"Ġlab":1633,"ling":1634,"Ġhard":1635,"thers":1636,"Ġconcerned":1637,"ified":1638,"Ġwee":1639,"Ġmaking":1640,"Ġaccount":1641,"Ġfundamental":1642,"eu":1643,"Ġleast":1644,"Ġvar":1645,"Ġadopted":1646,"Ġrecogn":1647,"Ġeng":1648,"Ġidea":1649,"Ġbar":1650,"Ġdemocratic":1651,"Ġresources":1652,"cially":1653,"Ġhist":1654,"Ġprovide":1655,"ences":1656,"atives":1657,"Ġfreedom":1658,"Ġvoted":1659,"sequ":1660,"Ġregulation":1661,"Ġret":1662,"Ġpolicies":1663,"ivers":1664,"ards":1665,"Ġactiv":1666,"Ġger":1667,"Ġreform":1668,"Ġshall":1669,"Ġsumm":1670,"Ġpat":1671,"Ġoc":1672,"with":1673,"Ġciv":1674,"Ġappe":1675,"ending":1676,"Ġsociety":1677,"Ġcong":1678,"Ġafric":1679,"ize":1680,"ners":1681,"when":1682,"Ġrussia":1683,"ged":1684,"Ġdiscuss":1685,"Ġconst":1686,"Ġprinciple":1687,"Ġeduc":1688,"aren":1689,"bon":1690,"mit":1691,"Ġclearly":1692,"ither":1693,"Ġaccess":1694,"Ġregul":1695,"Ġincluding":1696,"ime":1697,"arant":1698,"Ġsignific":1699,"Ġimportance":1700,"Ġfl":1701,"Ġproposed":1702,"Ġthird":1703,"Ġconclu":1704,"Ġcolle":1705,"Ġcivil":1706,"ield":1707,"ined":1708,"Ġconditions":1709,"Ġaddress":1710,"ased":1711,"ib":1712,"Ġtransport":1713,"Ġexpress":1714,"of":1715,"arante":1716,"Ġair":1717,"do":1718,"reng":1719,"Ġold":1720,"Ġresponsibility":1721,"Ġintrodu":1722,"ising":1723,"af":1724,"ove":1725,"Ġprof":1726,"Ġsingle":1727,"Ġguarante":1728,"Ġindivid":1729,"arity":1730,"Ġterror":1731,"Ġnegotiations":1732,"Ġclose":1733,"Ġhome":1734,"oub":1735,"Ġrisk":1736,"raph":1737,"Ġwords":1738,"pecially":1739,"ars":1740,"ordin":1741,"idence":1742,"Ġmom":1743,"Ġstreng":1744,"Ġsure":1745,"Ġexpl":1746,"Ġextreme":1747,"Ġgreater":1748,"Ġsci":1749,"Ġmor":1750,"Ġattention":1751,"ends":1752,"ec":1753,"where":1754,"Ġemployment":1755,"Ġcreate":1756,"Ġenc":1757,"Ġrecent":1758,"Ġtaking":1759,"pl":1760,"Ġaddition":1761,"000":1762,"fortun":1763,"Ġlist":1764,"iod":1765,"mad":1766,"Ġamong":1767,"Ġkeep":1768,"Ġespecially":1769,"Ġnothing":1770,"Ġpoints":1771,"Ġpositive":1772,"Ġindividual":1773,"ger":1774,"pend":1775,"Ġfull":1776,"Ġfight":1777,"Ġleaders":1778,"key":1779,"ov":1780,"Ġpass":1781,"Ġloc":1782,"Ġauthorities":1783,"uge":1784,"Ġmilit":1785,"Ġsustain":1786,"Ġcentral":1787,"Ġcomb":1788,"ool":1789,"Ġprevent":1790,"Ġsafety":1791,"Ġenvironmental":1792,"Ġvis":1793,"Ġsimply":1794,"ons":1795,"Ġpast":1796,"ident":1797,"Ġefforts":1798,"Ġfunds":1799,"Ġrece":1800,"Ġoper":1801,"by":1802,"Ġhaving":1803,"Ġprocedure":1804,"'ll":1805,"til":1806,"old":1807,"Ġbased":1808,"haps":1809,"Ġpartners":1810,"Ġfour":1811,"Ġforce":1812,"Ġcalled":1813,"Ġbehalf":1814,"Ġessential":1815,"Ġchar":1816,"Ġru":1817,"Ġlear":1818,"Ġbel":1819,"ale":1820,"Ġhead":1821,"Ġtrue":1822,"Ġinternal":1823,"Ġann":1824,"Ġspecific":1825,"first":1826,"Ġthought":1827,"Ġquestions":1828,"Ġinterests":1829,"Ġleft":1830,"Ġneeded":1831,"used":1832,"Ġnuclear":1833,"ized":1834,"Ġwater":1835,"Ġkey":1836,"euro":1837,"Ġothers":1838,"Ġproducts":1839,"Ġamerica":1840,"ng":1841,"ata":1842,"Ġsou":1843,"ium":1844,"ceed":1845,"icial":1846,"Ġdet":1847,"Ġbank":1848,"Ġmarkets":1849,"Ġincreasing":1850,"Ġdecl":1851,"ering":1852,"Ġcomplete":1853,"Ġtimes":1854,"Ġfoc":1855,"ark":1856,"body":1857,"Ġmind":1858,"Ġlonger":1859,"Ġsolution":1860,"Ġcertainly":1861,"ond":1862,"Ġmis":1863,"Ġclimate":1864,"Ġsignificant":1865,"ization":1866,"Ġconcerns":1867,"Ġsl":1868,"Ġcompanies":1869,"emp":1870,"go":1871,"Ġturn":1872,"Ġfri":1873,"Ġinstru":1874,"co":1875,"ensive":1876,"Ġgovernments":1877,"Ġperiod":1878,"Ġpriv":1879,"Ġstat":1880,"Ġparty":1881,"Ġseen":1882,"Ġmanage":1883,"Ġlive":1884,"Ġce":1885,"ining":1886,"irm":1887,"Ġmoment":1888,"Ġisra":1889,"Ġgre":1890,"Ġmakes":1891,"Ġrun":1892,"Ġappropri":1893,"Ġname":1894,"Ġever":1895,"fortunately":1896,"ulate":1897,"europe":1898,"has":1899,"Ġmid":1900,"erv":1901,"madam":1902,"Ġdeveloping":1903,"Ġconstitution":1904,"Ġanswer":1905,"Ġmilitary":1906,"Ġproper":1907,"ug":1908,"minist":1909,"term":1910,"Ġthemselves":1911,"Ġworkers":1912,"Ġinvolved":1913,"Ġcho":1914,"Ġmot":1915,"Ġaffect":1916,"Ġthreat":1917,"Ġcompetition":1918,"Ġcred":1919,"Ġpen":1920,"Ġtext":1921,"airs":1922,"Ġbur":1923,"Ġeducation":1924,"icient":1925,"Ġz":1926,"ank":1927,"new":1928,"Ġimpact":1929,"Ġfarm":1930,"Ġyoung":1931,"vious":1932,"Ġwon":1933,"Ġnon":1934,"Ġ10":1935,"Ġseems":1936,"Ġlack":1937,"Ġcomes":1938,"Ġfield":1939,"Ġencoura":1940,"Ġconflic":1941,"cise":1942,"ters":1943,"Ġcourt":1944,"Ġturkey":1945,"Ġdata":1946,"sid":1947,"Ġfall":1948,"Ġaway":1949,"cies":1950,"Ġresol":1951,"Ġarg":1952,"Ġsense":1953,"Ġtot":1954,"Ġcolleag":1955,"Ġadminist":1956,"Ġaspect":1957,"Ġextremely":1958,"Ġregional":1959,"Ġanim":1960,"Ġbor":1961,"Ġaccord":1962,"Ġid":1963,"Ġenl":1964,"Ġcongrat":1965,"Ġmajority":1966,"Ġmonths":1967,"Ġavail":1968,"Ġfully":1969,"Ġnet":1970,"Ġadopt":1971,"Ġele":1972,"Ġvarious":1973,"raq":1974,"ived":1975,"Ġtrad":1976,"Ġgroups":1977,"Ġschool":1978,"ication":1979,"Ġentire":1980,"ech":1981,"Ġty":1982,"rain":1983,"Ġspecial":1984,"Ġinvestment":1985,"Ġshare":1986,"cent":1987,"Ġ6":1988,"Ġcapital":1989,"Ġfun":1990,"Ġthough":1991,"ogue":1992,"erg":1993,"Ġdial":1994,"ggest":1995,"Ġsuggest":1996,"ians":1997,"Ġeverything":1998,"Ġocc":1999,"Ġsoon":2000,"Ġface":2001,"Ġrule":2002,"side":2003,"Ġasked":2004,"atic":2005,"Ġregions":2006,"Ġdecisions":2007,"Ġiraq":2008,"Ġmeeting":2009,"Ġconsequ":2010,"ilities":2011,"Ġjobs":2012,"finally":2013,"Ġagend":2014,"Ġcomprom":2015,"cession":2016,"Ġcoh":2017,"Ġlang":2018,"Ġstrengthen":2019,"arian":2020,"icle":2021,"Ġer":2022,"Ġhon":2023,"omm":2024,"Ġpot":2025,"lies":2026,"az":2027,"Ġdri":2028,"Ġresults":2029,"Ġconte":2030,"Ġopt":2031,"Ġcosts":2032,"Ġaffairs":2033,"Ġpal":2034,"str":2035,"apan":2036,"Ġdang":2037,"ended":2038,"Ġindepend":2039,"ert":2040,"Ġemphas":2041,"veral":2042,"cell":2043,"member":2044,"ators":2045,"stead":2046,"Ġstandards":2047,"Ġprogramm":2048,"Ġbre":2049,"Ġhold":2050,"ification":2051,"Ġlis":2052,"iting":2053,"Ġagricultural":2054,"Ġagenda":2055,"Ġalmost":2056,"Ġquality":2057,"istan":2058,"Ġparticip":2059,"Ġrequest":2060,"Ġsystems":2061,"Ġfive":2062,"Ġtry":2063,"Ġsubst":2064,"den":2065,"ash":2066,"Ġobjective":2067,"Ġeur":2068,"Ġinitiative":2069,"Ġdialogue":2070,"Ġbillion":2071,"Ġindeed":2072,"Ġdoub":2073,"Ġreasons":2074,"up":2075,"nov":2076,"Ġlisbon":2077,"Ġquick":2078,"nect":2079,"Ġ201":2080,"lev":2081,"Ġmodel":2082,"Ġlangu":2083,"Ġcir":2084,"Ġdraw":2085,"Ġstability":2086,"Ġcame":2087,"Ġcoordin":2088,"fully":2089,"Ġuntil":2090,"just":2091,"Ġpopulation":2092,"..":2093,"Ġgener":2094,"ont":2095,"Ġacross":2096,"Ġtas":2097,"Ġwriting":2098,"itor":2099,"Ġavailable":2100,"Ġcut":2101,"ried":2102,"Ġproduction":2103,"Ġaware":2104,"Ġafrica":2105,"ify":2106,"ier":2107,"Ġtook":2108,"Ġinclu":2109,"some":2110,"Ġident":2111,"Ġdesign":2112,"Ġwr":2113,"Ġweek":2114,"Ġhear":2115,"Ġsolid":2116,"Ġbrit":2117,"Ġrom":2118,"Ġori":2119,"Ġwent":2120,"Ġgra":2121,"Ġlight":2122,"Ġlocal":2123,"Ġparties":2124,"Ġdocu":2125,"argement":2126,"Ġwa":2127,"Ġvict":2128,"Ġapplic":2129,"Ġassist":2130,"mor":2131,"ple":2132,"Ġelse":2133,"Ġcoming":2134,"Ġexc":2135,"Ġharm":2136,"dle":2137,"Ġagreements":2138,"Ġfocus":2139,"cri":2140,"Ġamerican":2141,"Ġcontext":2142,"Ġamb":2143,"Ġpric":2144,"Ġfle":2145,"Ġtalking":2146,"Ġge":2147,"Ġcirc":2148,"ims":2149,"Ġmentioned":2150,"Ġjud":2151,"edi":2152,"Ġdom":2153,"inde":2154,"Ġeast":2155,"Ġrefer":2156,"Ġcurrently":2157,"Ġobjectives":2158,"aged":2159,"Ġsummit":2160,"Ġpa":2161,"Ġmult":2162,"Ġinnov":2163,"rict":2164,"Ġcases":2165,"Ġant":2166,"second":2167,"Ġtechnology":2168,"Ġperhaps":2169,"Ġline":2170,"line":2171,"Ġdemon":2172,"Ġfollowing":2173,"ury":2174,"Ġten":2175,"Ġlat":2176,"urn":2177,"Ġassess":2178,"Ġseveral":2179,"Ġbook":2180,"Ġurg":2181,"Ġobs":2182,"ck":2183,"utes":2184,"Ġeveryone":2185,"Ġabsol":2186,"orm":2187,"Ġiran":2188,"Ġjoint":2189,"theless":2190,"Ġliberal":2191,"imes":2192,"Ġapply":2193,"Ġjapan":2194,"Ġjustice":2195,"ring":2196,"Ġexcell":2197,"Ġobvious":2198,"Ġwrong":2199,"ires":2200,"Ġpost":2201,"Ġbroad":2202,"anced":2203,"ush":2204,"Ġwanted":2205,"Ġconvention":2206,"Ġenlargement":2207,"ibility":2208,"Ġhistory":2209,"Ġfinal":2210,"Ġtarge":2211,"iveness":2212,"Ġabsolute":2213,"eria":2214,"Ġcontain":2215,"io":2216,"atory":2217,"Ġdanger":2218,"Ġuk":2219,"ued":2220,"atch":2221,"Ġtop":2222,"Ġmatters":2223,"Ġresponsible":2224,"Ġoil":2225,"Ġnations":2226,"aper":2227,"Ġ7":2228,"Ġhalf":2229,"Ġ8":2230,"imil":2231,"rench":2232,"Ġconsumers":2233,"Ġprogrammes":2234,"omet":2235,"Ġroad":2236,"Ġmaintain":2237,"off":2238,"ane":2239,"istic":2240,"rast":2241,"Ġsaying":2242,"Ġdest":2243,"Ġimplementation":2244,"sib":2245,"'d":2246,"pris":2247,"here":2248,"Ġconsumer":2249,"Ġchanges":2250,"Ġanything":2251,"lf":2252,"Ġappropriate":2253,"Ġbad":2254,"Ġmadam":2255,"Ġcompromise":2256,"Ġreject":2257,"Ġconference":2258,"indeed":2259,"Ġlow":2260,"ises":2261,"ession":2262,"Ġfair":2263,"Ġtrying":2264,"Ġsix":2265,"Ġdeep":2266,"Ġheard":2267,"Ġsat":2268,"Ġdays":2269,"Ġcru":2270,"ledge":2271,"Ġmet":2272,"Ġexperience":2273,"Ġve":2274,"Ġside":2275,"Ġdut":2276,"oid":2277,"Ġprep":2278,"Ġlooking":2279,"Ġmiddle":2280,"Ġprices":2281,"imilar":2282,"Ġpack":2283,"Ġliving":2284,"Ġinstitution":2285,"Ġpoor":2286,"Ġscient":2287,"Ġrecomm":2288,"app":2289,"Ġseem":2290,"bour":2291,"Ġsk":2292,"Ġver":2293,"Ġtest":2294,"Ġresponse":2295,"Ġconnect":2296,"ps":2297,"Ġprob":2298,"overty":2299,"well":2300,"reg":2301,"Ġstop":2302,"Ġchalleng":2303,"Ġisrael":2304,"Ġachieved":2305,"Ġenter":2306,"Ġnature":2307,"rought":2308,"Ġdeath":2309,"ade":2310,"Ġvalues":2311,"Ġpalest":2312,"Ġrate":2313,"Ġmanagement":2314,"Ġmess":2315,"Ġexcellent":2316,"pr":2317,"Ġguarantee":2318,"Ġelections":2319,"Ġorigin":2320,"20":2321,"Ġyes":2322,"sh":2323,"ression":2324,"Ġprinciples":2325,"Ġ9":2326,"Ġfisher":2327,"ban":2328,"Ġoppos":2329,"Ġcommitment":2330,"abled":2331,"Ġeither":2332,"Ġstarted":2333,"Ġprojects":2334,"uel":2335,"ening":2336,"Ġmass":2337,"Ġremains":2338,"Ġgree":2339,"Ġneigh":2340,"mination":2341,"Ġvalue":2342,"Ġourselves":2343,"Ġintegration":2344,"yes":2345,"Ġlink":2346,"Ġpoverty":2347,"Ġfig":2348,"rect":2349,"Ġimmig":2350,"Ġsustainable":2351,"Ġprice":2352,"Ġterm":2353,"pite":2354,"Ġsuper":2355,"Ġsubsid":2356,"Ġusing":2357,"Ġviolence":2358,"Ġfrench":2359,"why":2360,"Ġarticle":2361,"Ġdev":2362,"isf":2363,"Ġland":2364,"Ġactivities":2365,"lied":2366,"Ġcongratulate":2367,"Ġhuge":2368,"Ġsolidarity":2369,"Ġlives":2370,"Ġlos":2371,"acy":2372,"Ġweak":2373,"Ġdise":2374,"Ġcamp":2375,"Ġstrateg":2376,"like":2377,"Ġprivate":2378,"sp":2379,"Ġdidn":2380,"Ġservice":2381,"Ġmus":2382,"Ġdeter":2383,"Ġreports":2384,"Ġquickly":2385,"Ġself":2386,"Ġpros":2387,"Ġpriority":2388,"ler":2389,"uses":2390,"Ġec":2391,"chan":2392,"Ġmonitor":2393,"Ġalong":2394,"Ġsouth":2395,"Ġdecided":2396,"Ġbenefit":2397,"thod":2398,"Ġgermany":2399,"fer":2400,"Ġupon":2401,"Ġ15":2402,"Ġstress":2403,"Ġmechan":2404,"Ġhappened":2405,"Ġconcerning":2406,"Ġconflict":2407,"Ġunemp":2408,"Ġattack":2409,"Ġine":2410,"Ġfell":2411,"Ġsent":2412,"Ġmen":2413,"Ġrecently":2414,"Ġexch":2415,"Ġreduce":2416,"Ġdetail":2417,"therefore":2418,"Ġport":2419,"Ġreflect":2420,"arency":2421,"Ġfunding":2422,"Ġdemonstr":2423,"Ġprobably":2424,"dem":2425,"Ġtomor":2426,"Ġplac":2427,"Ġground":2428,"Ġgl":2429,"etary":2430,"Ġtomorrow":2431,"acc":2432,"rupt":2433,"Ġanal":2434,"aster":2435,"Ġpurp":2436,"Ġconsequences":2437,"Ġdraft":2438,"Ġgoes":2439,"Ġsort":2440,"ternal":2441,"Ġofficial":2442,"Ġdel":2443,"Ġdam":2444,"Ġdue":2445,"Ġabove":2446,"Ġinflu":2447,"Ġprovided":2448,"Ġbecom":2449,"soci":2450,"ured":2451,"Ġword":2452,"unch":2453,"Ġbi":2454,"Ġtold":2455,"vere":2456,"erial":2457,"bo":2458,"hold":2459,"Ġimmedi":2460,"Ġfamily":2461,"Ġdisp":2462,"Ġdefin":2463,"Ġincreased":2464,"iation":2465,"Ġdi":2466,"Ġital":2467,"Ġpotential":2468,"Ġtransparency":2469,"Ġbehind":2470,"Ġred":2471,"Ġbasic":2472,"Ġemploy":2473,"Ġbalance":2474,"Ġnatural":2475,"Ġgreen":2476,"Ġatte":2477,"Ġthinking":2478,"Ġoblig":2479,"ruction":2480,"ograph":2481,"enge":2482,"Ġmodern":2483,"secondly":2484,"Ġbrought":2485,"lif":2486,"Ġrequired":2487,"Ġinclude":2488,"Ġcause":2489,"Ġalone":2490,"Ġfrance":2491,"Ġrelig":2492,"moreover":2493,"Ġcy":2494,"Ġleave":2495,"Ġdiscussion":2496,"Ġcompletely":2497,"cal":2498,"Ġpractice":2499,"Ġagriculture":2500,"Ġmethod":2501,"Ġspeech":2502,"Ġways":2503,"Ġprevious":2504,"ination":2505,"Ġstructural":2506,"uff":2507,"ired":2508,"Ġclos":2509,"after":2510,"Ġpercent":2511,"Ġreality":2512,"Ġchallenge":2513,"ah":2514,"bec":2515,"Ġpromote":2516,"Ġrepe":2517,"though":2518,"Ġoutside":2519,"Ġcrucial":2520,"Ġculture":2521,"comm":2522,"use":2523,"iding":2524,"Ġemerg":2525,"Ġterrorism":2526,"Ġlater":2527,"ometimes":2528,"Ġmonetary":2529,"Ġdoubt":2530,"Ġthus":2531,"Ġaut":2532,"Ġevent":2533,"mar":2534,"owers":2535,"ively":2536,"Ġavoid":2537,"Ġchallenges":2538,"Ġdoll":2539,"forms":2540,"ins":2541,"Ġlar":2542,"Ġmovement":2543,"Ġearly":2544,"uly":2545,"because":2546,"tod":2547,"Ġcross":2548,"Ġexplain":2549,"Ġil":2550,"Ġindic":2551,"Ġsays":2552,"Ġexternal":2553,"Ġagreed":2554,"iversity":2555,"today":2556,"Ġbri":2557,"Ġbuilding":2558,"Ġhun":2559,"Ġhappy":2560,"ateral":2561,"Ġhigher":2562,"Ġbit":2563,"Ġfear":2564,"Ġassoci":2565,"ension":2566,"itarian":2567,"Ġill":2568,"Ġimpos":2569,"Ġcla":2570,"Ġtask":2571,"issions":2572,"Ġindia":2573,"Ġcontribution":2574,"Ġstage":2575,"rug":2576,"Ġste":2577,"Ġcultural":2578,"Ġeffort":2579,"ories":2580,"Ġpurs":2581,"Ġcarry":2582,"Ġgetting":2583,"erve":2584,"Ġroom":2585,"Ġregarding":2586,"tom":2587,"Ġactions":2588,"Ġrecommend":2589,"Ġheld":2590,"imum":2591,"Ġcommunication":2592,"Ġden":2593,"Ġsound":2594,"Ġpalestin":2595,"Ġreview":2596,"Ġtakes":2597,"iter":2598,"gest":2599,"ron":2600,"Ġcolleagues":2601,"ream":2602,"Ġreturn":2603,"Ġcrimin":2604,"Ġlegislative":2605,"lling":2606,"Ġdirection":2607,"Ġexact":2608,"Ġprecise":2609,"Ġpartnership":2610,"Ġvol":2611,"wise":2612,"Ġfarmers":2613,"Ġvoting":2614,"Ġdebt":2615,"Ġrap":2616,"even":2617,"rial":2618,"Ġcand":2619,"Ġpleased":2620,"Ġbeginning":2621,"Ġpressure":2622,"ctions":2623,"Ġrad":2624,"Ġhour":2625,"Ġsatisf":2626,"Ġtechnical":2627,"Ġlanguage":2628,"Ġexcept":2629,"Ġteach":2630,"Ġcorrect":2631,"Ġexisting":2632,"Ġemb":2633,"bor":2634,"Ġlikely":2635,"while":2636,"Ġassistance":2637,"Ġaud":2638,"Ġpaper":2639,"Ġremember":2640,"Ġstory":2641,"arent":2642,"inese":2643,"Ġforces":2644,"Ġabsolutely":2645,"ex":2646,"ousand":2647,"Ġregime":2648,"Ġnorth":2649,"Ġregulations":2650,"ously":2651,"Ġconsult":2652,"ilateral":2653,"terday":2654,"Ġkill":2655,"Ġlove":2656,"Ġlabour":2657,"ior":2658,"Ġasse":2659,"Ġaccession":2660,"Ġorganis":2661,"Ġopportunities":2662,"Ġsan":2663,"Ġalthough":2664,"ton":2665,"Ġdeveloped":2666,"Ġstatement":2667,"Ġlost":2668,"Ġbanks":2669,"rad":2670,"Ġideas":2671,"Ġraised":2672,"Ġcoll":2673,"Ġsimilar":2674,"encies":2675,"Ġjun":2676,"Ġcreated":2677,"Ġnear":2678,"Ġcle":2679,"Ġequal":2680,"ened":2681,"Ġcapac":2682,"Ġtotal":2683,"Ġcreation":2684,"Ġrat":2685,"Ġamount":2686,"Ġthroughout":2687,"Ġvital":2688,"Ġcurren":2689,"Ġrise":2690,"itional":2691,"Ġfinally":2692,"Ġregards":2693,"Ġaspects":2694,"Ġcohes":2695,"lation":2696,"Ġsimple":2697,"Ġpress":2698,"ges":2699,"Ġoffer":2700,"Ġilleg":2701,"Ġfis":2702,"Ġsea":2703,"Ġwaste":2704,"office":2705,"Ġflo":2706,"Ġtraff":2707,"Ġwonder":2708,"can":2709,"Ġreforms":2710,"Ġrates":2711,"Ġconfidence":2712,"Ġthousand":2713,"estern":2714,"Ġeffects":2715,"every":2716,"yond":2717,"Ġage":2718,"Ġreading":2719,"Ġcandid":2720,"Ġmist":2721,"Ġaltern":2722,"Ġchinese":2723,"rist":2724,"Ġdrug":2725,"Ġunemployment":2726,"verse":2727,"Ġgrowing":2728,"Ġlevels":2729,"Ġknowledge":2730,"Ġig":2731,"Ġmedia":2732,"Ġflex":2733,"Ġinstead":2734,"Ġrich":2735,"lt":2736,"ging":2737,"mitted":2738,"rated":2739,"Ġsuccessful":2740,"Ġcarried":2741,"Ġreached":2742,"Ġcritic":2743,"Ġche":2744,"uing":2745,"ator":2746,"Ġprepared":2747,"Ġ30":2748,"Ġstudy":2749,"ished":2750,"Ġcriteria":2751,"Ġlearn":2752,"ially":2753,"por":2754,"pped":2755,"Ġdeli":2756,"Ġinterv":2757,"Ġgain":2758,"Ġinteresting":2759,"oot":2760,"Ġdiv":2761,"Ġeffici":2762,"Ġauthority":2763,"Ġimag":2764,"Ġcomplex":2765,"rop":2766,"Ġcohesion":2767,"aring":2768,"Ġperspect":2769,"Ġindustrial":2770,"lam":2771,"Ġpowers":2772,"Ġmyself":2773,"Ġpresented":2774,"pre":2775,"Ġdoesn":2776,"Ġbritish":2777,"Ġharmon":2778,"Ġdocument":2779,"Ġprocedures":2780,"Ġcircum":2781,"Ġrequires":2782,"Ġcal":2783,"Ġvo":2784,"Ġmaterial":2785,"Ġpackage":2786,"Ġdim":2787,"sels":2788,"Ġswed":2789,"Ġexam":2790,"ological":2791,"Ġrelation":2792,"Ġbenefits":2793,"orders":2794,"Ġ2000":2795,"Ġbudgetary":2796,"Ġchance":2797,"Ġtrust":2798,"estic":2799,"Ġrapid":2800,"Ġeth":2801,"rate":2802,"Ġbody":2803,"Ġwants":2804,"Ġallowed":2805,"Ġworth":2806,"rary":2807,"rely":2808,"ha":2809,"Ġtraffic":2810,"jo":2811,"Ġpersonal":2812,"Ġeconomies":2813,"Ġeasy":2814,"Ġoffice":2815,"Ġrelationship":2816,"Ġexchange":2817,"Ġara":2818,"Ġaccording":2819,"Ġpriorities":2820,"Ġcompetit":2821,"Ġsometimes":2822,"ania":2823,"Ġrespond":2824,"Ġcod":2825,"Ġwhose":2826,"don":2827,"know":2828,"Ġ12":2829,"Ġtraining":2830,"dom":2831,"Ġpati":2832,"Ġstri":2833,"mption":2834,"ats":2835,"Ġmill":2836,"duct":2837,"Ġwest":2838,"ix":2839,"ored":2840,"Ġinternet":2841,"Ġencourage":2842,"Ġmessage":2843,"Ġbeyond":2844,"Ġinstrument":2845,"Ġcapacity":2846,"Ġwal":2847,"Ġknown":2848,"?\"":2849,"Ġ50":2850,"Ġbreak":2851,"Ġ000":2852,"further":2853,"la":2854,"Ġdead":2855,"Ġevents":2856,"Ġaust":2857,"Ġsupported":2858,"Ġwestern":2859,"Ġsecret":2860,"Ġgiving":2861,"Ġrural":2862,"oph":2863,"Ġparliamentary":2864,"Ġcollect":2865,"aff":2866,"Ġled":2867,"Ġearth":2868,"Ġcompany":2869,"Ġfisheries":2870,"gen":2871,"Ġclass":2872,"cer":2873,"ĠâĢĺ":2874,"Ġthanks":2875,"Ġsaw":2876,"Ġscientific":2877,"Ġfunction":2878,"Ġhighlight":2879,"Ġdepend":2880,"Ġemissions":2881,"ource":2882,"Ġprovisions":2883,"Ġinnovation":2884,"Ġ25":2885,"Ġrequirements":2886,"Ġrepublic":2887,"Ġvictims":2888,"Ġrecon":2889,"Ġsal":2890,"Ġnote":2891,"thern":2892,"Ġextra":2893,"Ġgrant":2894,"Ġanimals":2895,"Ġgave":2896,"Ġexactly":2897,"action":2898,"Ġpolice":2899,"Ġfellow":2900,"Ġproduce":2901,"Ġfed":2902,"ourable":2903,"Ġreceived":2904,"Ġpie":2905,"Ġterrit":2906,"Ġremind":2907,"Ġtreatment":2908,"Ġspace":2909,"Ġfamil":2910,"Ġtabled":2911,"Ġgas":2912,"european":2913,"yet":2914,"Ġregret":2915,"Ġminutes":2916,"aut":2917,"Ġpoll":2918,"Ġintel":2919,"Ġformer":2920,"Ġdece":2921,"Ġrenew":2922,"ope":2923,"fect":2924,"Ġcrime":2925,"sibilities":2926,"round":2927,"Ġadvant":2928,"Ġlate":2929,"rison":2930,"'.":2931,"Ġborders":2932,"Ġinstruments":2933,"oke":2934,"Ġheart":2935,"ked":2936,"Ġ11":2937,"Ġfront":2938,"Ġtemp":2939,"Ġsolutions":2940,"head":2941,"ber":2942,"Ġire":2943,"unfortunately":2944,"Ġpolitics":2945,"Ġprime":2946,"Ġcentury":2947,"pres":2948,"Ġyesterday":2949,"reci":2950,"Ġweap":2951,"Ġinitiatives":2952,"Ġcomput":2953,"Ġireland":2954,"lier":2955,"Ġpict":2956,"Ġsubstant":2957,"ote":2958,"Ġshows":2959,"Ġcreating":2960,"Ġhistor":2961,"Ġmonitoring":2962,"Ġshown":2963,"Ġprepar":2964,"val":2965,"Ġrelev":2966,"Ġvir":2967,"icians":2968,".âĢĿ":2969,"Ġneighbour":2970,"Ġcircumst":2971,"Ġexport":2972,"Ġadministration":2973,"aign":2974,"Ġcop":2975,"Ġgerman":2976,"Ġdiscri":2977,"Ġadditional":2978,"iet":2979,"nam":2980,"ghan":2981,"Ġoccur":2982,"Ġlegit":2983,"ca":2984,"Ġsupply":2985,"Ġconclusion":2986,"ades":2987,"fr":2988,"Ġconduct":2989,"Ġundert":2990,"Ġmorning":2991,"Ġindependent":2992,"Ġcampaign":2993,"yl":2994,"sec":2995,"Ġwilling":2996,"Ġsucceed":2997,"liance":2998,"Ġparts":2999,"Ġsens":3000,"Ġislam":3001,"Ġexpressed":3002,"rastruct":3003,"Ġens":3004,"Ġcriminal":3005,"thank":3006,"Ġconsist":3007,"Ġspir":3008,"Ġillegal":3009,"Ġdr":3010,"Ġmeasure":3011,"Ġslow":3012,"Ġargu":3013,"Ġanalys":3014,"Ġwin":3015,"Ġmedium":3016,"Ġsepar":3017,"Ġinfrastruct":3018,"Ġestablished":3019,"Ġdecide":3020,"firstly":3021,"gar":3022,"uine":3023,"Ġinfluence":3024,"accept":3025,"Ġpurpose":3026,"Ġconvin":3027,"Ġstrategic":3028,"verage":3029,"ilit":3030,"Ġrecord":3031,"Ġguid":3032,"Ġarab":3033,"Ġgoods":3034,"Ġnorm":3035,"Ġfishing":3036,"Ġbusinesses":3037,"Ġcurrency":3038,"Ġfirm":3039,"Ġtack":3040,"Ġnight":3041,"Ġseriously":3042,"Ġdeg":3043,"Ġdelay":3044,"Ġcircumstances":3045,"ots":3046,"ude":3047,"Ġasia":3048,"undred":3049,"Ġmand":3050,"Ġrisks":3051,"Ġcompetitiveness":3052,"Ġtool":3053,"ounts":3054,"Ġcounter":3055,"Ġinvolve":3056,"Ġincluded":3057,"Ġorganisations":3058,"last":3059,"ses":3060,"Ġspending":3061,"Ġunaccept":3062,"Ġking":3063,"Ġextent":3064,"Ġwatch":3065,"que":3066,"Ġpractical":3067,"Ġund":3068,"Ġgenuine":3069,"Ġfriends":3070,"Ġrein":3071,"Ġincome":3072,"Ġdefic":3073,"Ġfiscal":3074,"pol":3075,"agraph":3076,"Ġpain":3077,"Ġones":3078,"Ġworked":3079,"Ġlimited":3080,"Ġincreasingly":3081,"ama":3082,"Ġafghan":3083,"Ġweeks":3084,"Ġdescri":3085,"Ġmal":3086,"ilt":3087,"ortion":3088,"anish":3089,"reh":3090,"Ġfriend":3091,"ureau":3092,"lin":3093,").":3094,"osov":3095,"Ġappreci":3096,"Ġdangerous":3097,"Ġviews":3098,"Ġimplemented":3099,"Ġapplication":3100,"furthermore":3101,"Ġmer":3102,"Ġeffectively":3103,"Ġelection":3104,"Ġactive":3105,"Ġlimit":3106,"pro":3107,"Ġanti":3108,"Ġimmigration":3109,"bed":3110,"rative":3111,"Ġbul":3112,"Ġhighly":3113,"Ġmig":3114,"Ġprovides":3115,"Ġunacceptable":3116,"Ġreduction":3117,"Ġcontent":3118,"Ġministers":3119,"Ġcredit":3120,"Ġconsidered":3121,"Ġstay":3122,"ket":3123,"Ġagency":3124,"itude":3125,"since":3126,"entions":3127,"Ġwarm":3128,"Ġchanged":3129,"na":3130,"alled":3131,"Ġapplied":3132,"Ġopposition":3133,"never":3134,"umption":3135,"ology":3136,"Ġmotion":3137,"Ġdisease":3138,"dp":3139,"Ġbureau":3140,"Ġevidence":3141,"Ġrestrict":3142,"Ġbrief":3143,"ones":3144,"Ġconstruct":3145,"ster":3146,"Ġpossibility":3147,"Ġinvestig":3148,"Ġoutcome":3149,"ma":3150,"Ġsen":3151,"Ġimpossible":3152,"Ġperform":3153,"Ġcat":3154,"Ġkosov":3155,"Ġdespite":3156,"ze":3157,"imately":3158,"force":3159,"Ġdiscussions":3160,"Ġrelating":3161,"Ġpaid":3162,"iss":3163,"Ġgives":3164,"such":3165,"Ġkore":3166,"Ġcou":3167,"Ġkid":3168,"Ġanyone":3169,"Ġfailure":3170,"Ġraise":3171,"Ġcommitted":3172,"Ġnamely":3173,"Ġwide":3174,"Ġexer":3175,"Ġbrain":3176,"Ġinstitutional":3177,"hood":3178,"Ġhundred":3179,"Ġprecisely":3180,"Ġforget":3181,"quate":3182,"Ġcha":3183,"Ġefficiency":3184,"omp":3185,"Ġperfect":3186,"Ġtype":3187,"Ġperspective":3188,"Ġdecember":3189,"Ġdeleg":3190,"Ġcell":3191,"Ġoccas":3192,"Ġassessment":3193,"Ġcity":3194,"Ġchoice":3195,"Ġuseful":3196,"Ġfailed":3197,"ivity":3198,"lands":3199,"ump":3200,"ria":3201,"Ġeastern":3202,"Ġdomestic":3203,"parliament":3204,"Ġsectors":3205,"any":3206,"Ġenable":3207,"Ġplease":3208,"rest":3209,"Ġenorm":3210,"Ġaccepted":3211,"Ġsteps":3212,"Ġcoordination":3213,"Ġrelevant":3214,"Ġdiscussed":3215,"Ġunfortunately":3216,"iction":3217,"Ġmut":3218,"Ġchec":3219,"Ġbuy":3220,"Ġstatus":3221,"cl":3222,"Ġchrist":3223,"Ġ2007":3224,"Ġaffected":3225,"Ġhappens":3226,"Ġforms":3227,"Ġactivity":3228,"Ġmiss":3229,"raine":3230,"Ġcomments":3231,"ature":3232,"Ġeuropeans":3233,"ann":3234,"itable":3235,"Ġparagraph":3236,"prises":3237,"Ã©":3238,"Ġhy":3239,"Ġproceed":3240,"Ġplans":3241,"Ġannual":3242,"med":3243,"Ġgir":3244,"mental":3245,"Ġcomment":3246,"Ġtruth":3247,"Ġspeaking":3248,"Ġ%":3249,"Ġcompreh":3250,"Ġdirectly":3251,"set":3252,"Ġcalls":3253,"Ġhappening":3254,"Ġearlier":3255,"Ġhumanitarian":3256,"Ġscope":3257,"Ġdistribut":3258,"ira":3259,"Ġmedic":3260,"ouble":3261,"certain":3262,"Ġnews":3263,"Ġclosely":3264,"Ġje":3265,"Ġcharact":3266,"Ġgreece":3267,"lom":3268,"anu":3269,"ensus":3270,"Ġanimal":3271,"Ġkosovo":3272,"Ġseek":3273,"Ġdealing":3274,"ustom":3275,"Ġ18":3276,"Ġcontribute":3277,"Ġign":3278,"cul":3279,"aging":3280,"Ġtour":3281,"Ġinfrastructure":3282,"Ġult":3283,"Ġready":3284,"ls":3285,"lled":3286,"Ġconnection":3287,"Ġlower":3288,"Ġalternative":3289,"Ġalloc":3290,"Ġrepresentatives":3291,"Ġcaused":3292,"ume":3293,"Ġfinance":3294,"Ġtable":3295,"Ġclar":3296,"Ġdeclar":3297,"govern":3298,"Ġcommer":3299,"Ġpalestinian":3300,"ows":3301,"Ġoverall":3302,"Ġreceive":3303,"Ġcondem":3304,"oint":3305,"Ġconsiderable":3306,"cle":3307,"Ġsad":3308,"Ġhours":3309,"lying":3310,"Ġconcept":3311,"Ġworks":3312,"Ġconcent":3313,"pping":3314,"Ġweapons":3315,"Ġcritical":3316,"Ġarri":3317,"atever":3318,"endit":3319,"Ġrelative":3320,"Ġrefuge":3321,"Ġobviously":3322,"Ġwind":3323,"Ġhor":3324,"Ġdate":3325,"Ġgoal":3326,"ussels":3327,"Ġpret":3328,"Ġtried":3329,"overy":3330,"Ġqual":3331,"Ġexplo":3332,"Ġunderstanding":3333,"Ġaimed":3334,"Ġtyp":3335,"third":3336,"omb":3337,"Ġdifference":3338,"Ġdemands":3339,"will":3340,"elines":3341,"Ġorganisation":3342,"Ġrussian":3343,"Ġchair":3344,"Ġbecame":3345,"Ġspirit":3346,"Ġbeaut":3347,"Ġjune":3348,"dra":3349,"Ġdip":3350,"Ġunivers":3351,"Ġability":3352,"Ġlaunch":3353,"Ġblack":3354,"ik":3355,"making":3356,"Ġ198":3357,"Ġbod":3358,"urally":3359,"Ġenjo":3360,"Ġcover":3361,"Ġbecoming":3362,"Ġeval":3363,"Ġrail":3364,"Ġborder":3365,"oh":3366,"Ġleading":3367,"Ġsurv":3368,"itious":3369,"Ġbra":3370,"Ġ2008":3371,"Ġlooks":3372,"Ġmarch":3373,"...":3374,"Ġcloser":3375,"Ġitem":3376,"Ġstru":3377,"ift":3378,"Ġconfirm":3379,"works":3380,"Ġconstitutional":3381,"Ġpenal":3382,"Ġthousands":3383,"Ġsud":3384,"Ġworse":3385,"Ġrepl":3386,"Ġauthor":3387,"Ġconvinced":3388,"Ġsun":3389,"Ġstandard":3390,"Ġreferen":3391,"Ġuni":3392,"Ġconsensus":3393,"Ġspeed":3394,"Ġimproved":3395,"Ġsend":3396,"aced":3397,"Ġbehav":3398,"Ġscience":3399,"Ġreference":3400,"cup":3401,"lant":3402,"Ġknows":3403,"Ġdifficulties":3404,"Ġadministrative":3405,"dam":3406,"Ġfoot":3407,"those":3408,"Ġgone":3409,"Ġasking":3410,"Ġfacing":3411,"agn":3412,"Ġtravel":3413,"Ġobtain":3414,"Ġlaws":3415,"Ġdamage":3416,"rane":3417,"Ġprison":3418,"arily":3419,"fact":3420,"rants":3421,"Ġpoliticians":3422,"Ġenglish":3423,"Ġdefence":3424,"president":3425,"Ġsil":3426,"Ġpath":3427,"olid":3428,"Ġdiplom":3429,"Ġfre":3430,"Ġadap":3431,"Ġdifferences":3432,"Ġ$":3433,"oking":3434,"Ġspent":3435,"Ġhop":3436,"Ġtechnologies":3437,"Ġhung":3438,"Ġprofession":3439,"Ġship":3440,"Ġcharacter":3441,"ev":3442,"ording":3443,"Ġmother":3444,"Ġukraine":3445,"Ġcompl":3446,"Ġapproved":3447,"please":3448,"Ġ100":3449,"Ġenterprises":3450,"erves":3451,"Ġnegative":3452,"anuary":3453,"Ġslo":3454,"Ġgovernance":3455,"Ġappear":3456,"Ġdiscrimination":3457,"only":3458,"Ġdevelopments":3459,"Ġ2009":3460,"his":3461,"Ġahead":3462,"Ġfuel":3463,"under":3464,"Ġjanuary":3465,"Ġrightly":3466,"Ġafghanistan":3467,"isms":3468,"Ġsitting":3469,"Ġbush":3470,"Ġenormous":3471,"akistan":3472,"Ġcontrary":3473,"Ġconstant":3474,"Ġleadership":3475,"Ġblo":3476,"Ġproduced":3477,"Ġfinancing":3478,"Ġwhite":3479,"urance":3480,"Ġcontract":3481,"Ġmoving":3482,"Ġreduced":3483,"Ġduty":3484,"Ġreligious":3485,"nevertheless":3486,"according":3487,"Ġlu":3488,"Ġsex":3489,"Ġconclude":3490,"Ġproviding":3491,"Ġportug":3492,"although":3493,"Ġphys":3494,"Ġsafe":3495,"Ġsuperv":3496,"Ġdollars":3497,"imin":3498,"Ġguidelines":3499,"Ġhar":3500,"Ġarr":3501,"Ġbrussels":3502,"Ġannoun":3503,"Ġlog":3504,"zed":3505,"Ġjour":3506,"Ġfulf":3507,"Ġrevolution":3508,"Ġbat":3509,"Ġboard":3510,"Ġrepresents":3511,"Ġpicture":3512,"Ġputting":3513,"Ġurgent":3514,"Ġplaces":3515,"ylum":3516,"ufact":3517,"Ġade":3518,"Ġefficient":3519,"Ġwto":3520,"vert":3521,"Ġprovision":3522,"Ġconclusions":3523,"Ġensuring":3524,"ya":3525,"Ġminimum":3526,"Ġbodies":3527,"Ġround":3528,"Ġwall":3529,"Ġconsideration":3530,"Ġ40":3531,"Ġambitious":3532,"ta":3533,"Ġhonourable":3534,"Ġeat":3535,"Ġadoption":3536,"Ġentirely":3537,"Ġfil":3538,"Ġnetwork":3539,"ye":3540,"Ġimproving":3541,"Ġexpected":3542,"Ġclaim":3543,"cers":3544,"Ġobst":3545,"Ġcomprehensive":3546,"Ġcustom":3547,"Ġ14":3548,"Ġrob":3549,"iterrane":3550,"aries":3551,"egu":3552,"vereign":3553,"iterranean":3554,"Ġasylum":3555,"Ġsufficient":3556,"reet":3557,"ames":3558,"Ġexpendit":3559,"Ġspread":3560,"Ġstructure":3561,"Ġpred":3562,"Ġturned":3563,"Ġafrican":3564,"Ġpush":3565,"Ġsha":3566,"wide":3567,"Ġfather":3568,"Ġinterested":3569,"Ġcompetitive":3570,"Ġanalysis":3571,"Ġbegan":3572,"Ġbudge":3573,"Ġvoice":3574,"Ġsep":3575,"tember":3576,"Ġmanufact":3577,"Ġspain":3578,"des":3579,"mes":3580,"Ġheav":3581,"Ġequality":3582,"Ġtotally":3583,"istics":3584,"erent":3585,"Ġbuilt":3586,"Ġ13":3587,"Ġhands":3588,"Ġsafegu":3589,"Ġparticipation":3590,"Ġsomeone":3591,"Ġsovereign":3592,"Ġindependence":3593,"Ġprospect":3594,"Ġton":3595,"elt":3596,"Ġdecades":3597,"Ġimmediately":3598,"Ġitaly":3599,"Ġcolleague":3600,"Ġcorrupt":3601,"Ġirish":3602,"Ġpakistan":3603,"izing":3604,"Ġtre":3605,"Ġcooper":3606,"Ġcombat":3607,"oman":3608,"Ġproperly":3609,"Ġcandidate":3610,"Ġtalks":3611,"ender":3612,"coming":3613,"Ġdemocrats":3614,"Ġtun":3615,"Ġpropose":3616,"Ġcommitments":3617,"Ġscale":3618,"Ġ2010":3619,"Ġattempt":3620,"anim":3621,"Ġnice":3622,"Ġstaff":3623,"Ġforest":3624,"200":3625,"Ġgoals":3626,"Ġinflation":3627,"Ġstated":3628,"Ġacknow":3629,"Ġurge":3630,"Ġintervention":3631,"Ġbear":3632,"Ġadvantage":3633,"Ġseptember":3634,"icles":3635,"Ġ2004":3636,"urd":3637,"ival":3638,"Ġgdp":3639,",\"":3640,"Ġaverage":3641,"Ġsources":3642,"Ġpact":3643,"Ã¶":3644,"Ġnone":3645,"Ġlay":3646,"Ġapplies":3647,"Ġaccomp":3648,"Ġcra":3649,"ocol":3650,"Ġteam":3651,"Ġspend":3652,"Ġsimplif":3653,"Ġplanet":3654,"Ġfigure":3655,"Ġlose":3656,"Ġstreet":3657,"Ġconserv":3658,"Ġlooked":3659,"luded":3660,"Ġveh":3661,"Ġmach":3662,"ught":3663,"Ġsupposed":3664,"ented":3665,"entially":3666,"Ġstarting":3667,"Ġburden":3668,"Ġreferred":3669,"Ġhit":3670,"Ġoccup":3671,"Ġelements":3672,"Ġcomplain":3673,"from":3674,"Ġwhom":3675,"Ġdisaster":3676,"Ġrecovery":3677,"Ġsolve":3678,"Ġgeor":3679,"Ġimagine":3680,"yed":3681,"Ġnation":3682,"Ġreact":3683,"Ġstrongly":3684,"Ġexception":3685,"Ġpiece":3686,"sc":3687,"Ġunf":3688,"Ġsus":3689,"Ġdoct":3690,"Ġquot":3691,"uck":3692,"Ġexcess":3693,"Ġadded":3694,"Ġlea":3695,"Ġcompens":3696,"econom":3697,"xic":3698,"ene":3699,"Ġpra":3700,"Ġinh":3701,"Ġeverybody":3702,"Ġintended":3703,"Ġfeed":3704,"Ġmaybe":3705,"irms":3706,"âĢĵ":3707,"Ġmerely":3708,"Ġcalling":3709,"Ġdiscussing":3710,"Ġturk":3711,"Ġbalanced":3712,"Ġdrawn":3713,"Ġfacilit":3714,"Ġappears":3715,"Ġcommercial":3716,"put":3717,"Ġsource":3718,"unt":3719,"Ġmanaged":3720,"Ġstudents":3721,"Ġeight":3722,"Ġwealth":3723,"Ġenh":3724,"Ġreducing":3725,"Ġintroduced":3726,"Ġmechanism":3727,"Ġkingdom":3728,"ork":3729,"ills":3730,"arents":3731,"called":3732,"Ġsupporting":3733,"Ġelected":3734,"atically":3735,"els":3736,"Ġacceptable":3737,"Ġfloor":3738,"rete":3739,"augh":3740,"Ġreferend":3741,"sy":3742,"Ġstock":3743,"aught":3744,"Ġlargest":3745,"Ġdict":3746,"Ġwithdra":3747,"Ġincent":3748,"Ġbir":3749,"iful":3750,"Ġintroduction":3751,"Ġfast":3752,"Ġforced":3753,"idents":3754,"Ġmembership":3755,"Ġappeal":3756,"Ġtargets":3757,"instead":3758,"Ġopening":3759,"border":3760,"eli":3761,"ocks":3762,"Ġtruly":3763,"Ġtransfer":3764,"Ġexplan":3765,"Ġarrange":3766,"Ġbudgets":3767,"Ġhost":3768,"Ġvisit":3769,"Ġacqu":3770,"Ġcro":3771,"people":3772,"using":3773,"Ġaims":3774,"Ġcr":3775,"Ġsanctions":3776,"Ġought":3777,"Ġsold":3778,"Ġ2005":3779,"Ġpowerful":3780,"Ġfollowed":3781,"Ġsides":3782,"Ġsetting":3783,"Ġsurpris":3784,"lines":3785,"Ġpet":3786,"ulated":3787,"based":3788,"Ġnormal":3789,"int":3790,"itation":3791,"Ġunable":3792,"enced":3793,"Ġproducers":3794,"Ġaccordance":3795,"oon":3796,"Ġtransparent":3797,"Ġconcrete":3798,"Ġgreatest":3799,"Ġcontinues":3800,"Ġsuffering":3801,"Ġclean":3802,"Ġdimension":3803,"Ġpub":3804,"Ġmeant":3805,"Ġintroduce":3806,"lus":3807,"Ġdoor":3808,"Ġaddressed":3809,"Ġda":3810,"Ġincor":3811,"Ġmainly":3812,"Ġbureauc":3813,"year":3814,"Ġwoman":3815,"Ġconsumption":3816,"Ġresponsibilities":3817,"Ġexpenditure":3818,"uations":3819,"Ã¡":3820,"Ġchem":3821,"Ġspecifically":3822,"Ġwhatever":3823,"right":3824,"Ġachieving":3825,"Ġnato":3826,"Ġnetworks":3827,"Ġdetermin":3828,"Ġfamilies":3829,"rep":3830,"Ġord":3831,"Ġagencies":3832,"Ġdestro":3833,"Ġseven":3834,"Ġvul":3835,"commission":3836,"Ġunanim":3837,"Ġmanner":3838,"Ġprefer":3839,"Ġemphasise":3840,"Ġkorea":3841,"bs":3842,"Ġlines":3843,"gypt":3844,"Ġfraud":3845,"Ġinside":3846,"Ġdegree":3847,"respon":3848,"Ġreply":3849,"Ġcommunic":3850,"Ġofficials":3851,"ij":3852,"Ġstra":3853,"Ġworry":3854,"Ġopposed":3855,"Ġcomputer":3856,"Ġdog":3857,"Ġadjust":3858,"Ġdrugs":3859,"Ġflexibility":3860,"ees":3861,"Ġeyes":3862,"Ġneither":3863,"Ġvision":3864,"Ġgradu":3865,"mas":3866,"Ġlies":3867,"Ġgame":3868,"Ġrepresentative":3869,"Ġfif":3870,"Ġfelt":3871,"Ġshared":3872,"Ġspecies":3873,"Ġpublish":3874,"Ġcontact":3875,"Ġmob":3876,"Ġbot":3877,"Ġobser":3878,"Ġoct":3879,"Ġdream":3880,"Ġpromoting":3881,"Ġcomplic":3882,"Ġvulner":3883,"Ġpun":3884,"Ġcompar":3885,"Ġperman":3886,"Ġletter":3887,"Ġcarefully":3888,"Ġpretty":3889,"vember":3890,"Ġcontinent":3891,"Ġbeautiful":3892,"Ġactual":3893,"Ġhimself":3894,"Ġplaying":3895,"Ġromania":3896,"Ġdeclaration":3897,"orry":3898,"Ġcauses":3899,"),":3900,"Ġotherwise":3901,"Ġtransform":3902,"Ġ2006":3903,"Ġsecure":3904,"Ġwait":3905,"Ġcontains":3906,"Ġmethods":3907,"zy":3908,"Ġrele":3909,"Ġforth":3910,"Ġcold":3911,"Ġfactor":3912,"Ġmillions":3913,"fe":3914,"Ġmediterranean":3915,"Ġfigures":3916,"Ġimmediate":3917,"Ġnovember":3918,"50":3919,"abil":3920,"sized":3921,"Ġdelegation":3922,"Ġsize":3923,"Ġdy":3924,"Ġ16":3925,"who":3926,"lantic":3927,"Ġparents":3928,"Ġdisapp":3929,"Ġmeaning":3930,"Ġregular":3931,"Ġattemp":3932,"Ġconstructive":3933,"economic":3934,"roso":3935,"enty":3936,"Ġdesigned":3937,"Ġamericans":3938,"Ġinformed":3939,"Ġprosper":3940,"Ġelement":3941,"Ġcancer":3942,"ourage":3943,"Ġrunning":3944,"aw":3945,"Ġdefend":3946,"Ġintegrated":3947,"Ġbelg":3948,"Ġdocuments":3949,"Ġrejected":3950,"Ġexercise":3951,"Ġii":3952,"ops":3953,"Ġsubstantial":3954,"Ġtend":3955,"Ġwelcom":3956,"Ġstrict":3957,"Ġleader":3958,"ateful":3959,"Ġafford":3960,"Ġprevention":3961,"Ġelectric":3962,"Ġinstance":3963,"Ġrecognition":3964,"ulations":3965,"perhaps":3966,"Ġber":3967,"Ġtele":3968,"Ġstim":3969,"Ġcharter":3970,"Ġrepeat":3971,"may":3972,"urs":3973,"Ġgod":3974,"Ġspanish":3975,"Ġaudit":3976,"nes":3977,"rel":3978,"another":3979,"Ġexec":3980,"mrs":3981,"Ġimprovement":3982,"Ġvirt":3983,"viet":3984,"ery":3985,"Ġder":3986,"ateg":3987,"Ġcommunities":3988,"Ġsensitive":3989,"Ġreferendum":3990,"stood":3991,"Ġsupports":3992,"Ġserve":3993,"Ġfaced":3994,"Ġresolve":3995,"tic":3996,"Ġwid":3997,"Ġparliaments":3998,"Ġdesire":3999,"Ġinsist":4000,"Ġlimits":4001,"Ġmoral":4002,"Ġdisch":4003,"ober":4004,"Ġlargely":4005,"commissioner":4006,"Ġtren":4007,"Ġtouch":4008,"Ġhom":4009,"Ġkept":4010,"Ġdealt":4011,"Ġtraditional":4012,"Ġintention":4013,"Ġ17":4014,"Ġ2003":4015,"Ġsubsidies":4016,"Ġdeliver":4017,"Ġturkish":4018,"Ġyork":4019,"Ġsav":4020,"Ġcars":4021,"Ġstructures":4022,"Ġcouple":4023,"Ġcombating":4024,"Ġstrugg":4025,"Ġresist":4026,"Ġinvestments":4027,"Ġmechanisms":4028,"mark":4029,"Ġstuff":4030,"Ġ2001":4031,"ratic":4032,"Ġrecognise":4033,"Ġengine":4034,"Ġglad":4035,"governmental":4036,"agen":4037,"Ġrelated":4038,"Ġwishes":4039,"Ġoctober":4040,"Ġtarget":4041,"Ġobstac":4042,"matic":4043,"zone":4044,"Ġarms":4045,"Ġprim":4046,"Ġimplementing":4047,"Ġattacks":4048,"Ġhot":4049,"Ġep":4050,"Ġegypt":4051,"Ġexports":4052,"Ġcontinuing":4053,"going":4054,"Ġpoland":4055,"Ġpointed":4056,"Ġchamber":4057,"Ġfactors":4058,"Ġwaiting":4059,"Ġdiversity":4060,"Ġseeing":4061,"Ġobama":4062,"Ġlearned":4063,"Ġrefugees":4064,"Ġsafeguard":4065,"enh":4066,"Ġcontinued":4067,"Ġexamples":4068,"Ġyourself":4069,"Ġindividuals":4070,"Ġisraeli":4071,"Ġsigned":4072,"road":4073,"Ġprotocol":4074,"Ġplayed":4075,"Ġlabor":4076,"Ġeasier":4077,"Ġpasseng":4078,"illed":4079,"Ġpractices":4080,"Ġpan":4081,"orary":4082,"Ġstake":4083,"Ġpositions":4084,"Ġcredibility":4085,"Ġitalian":4086,"Ġcoal":4087,"Ġrapporteurs":4088,"Ġ1999":4089,"Ġbringing":4090,"Ġintellig":4091,"Ġdeficit":4092,"Ġarrest":4093,"Ġlaid":4094,"Ġgrateful":4095,"Ġgreek":4096,"Ġtourism":4097,"Ġcorruption":4098,"mos":4099,"Ġattract":4100,"Ġautom":4101,"Ġcateg":4102,"Ġseries":4103,"Ġhonest":4104,"Ġdefinition":4105,"Ġemerging":4106,"inary":4107,"Ġdynam":4108,"ladies":4109,"Ġbasically":4110,"Ġstrength":4111,"sibly":4112,"nic":4113,"Ġextend":4114,"itch":4115,"Ġbon":4116,"tedly":4117,"Ġ2002":4118,"Ġsett":4119,"fare":4120,"iny":4121,"Ġspeakers":4122,"Ġfederal":4123,"Ġmutual":4124,"cont":4125,"Ġsave":4126,"Ġsweden":4127,"Ġtro":4128,"Ġcities":4129,"Ġpill":4130,"Ġsymb":4131,"standing":4132,"Ġfeeling":4133,"Ġpayments":4134,"rs":4135,"Ġconver":4136,"ables":4137,"Ġ21":4138,"aken":4139,"Ġoperation":4140,"Ġnorthern":4141,"Ġkinds":4142,"Ġsubsidi":4143,"Ġmusl":4144,"ana":4145,"Ġadvoc":4146,"Ġwritten":4147,"Ġpopular":4148,"Ġbarri":4149,"Ġoriginal":4150,"inding":4151,"Ġterri":4152,"Ġincludes":4153,"Ġengage":4154,"Ġassemb":4155,"Ġdrink":4156,"Ġmandate":4157,"Ġmax":4158,"Ġresolutions":4159,"Ġstrengthening":4160,"Ġattitude":4161,"Ġrecommendations":4162,"Ġpartner":4163,"Ġmassive":4164,"Ġmusic":4165,"tw":4166,"arks":4167,"Ġstatements":4168,"Ġhelped":4169,"Ġelimin":4170,"Ġoption":4171,"Ġpassed":4172,"Ġfine":4173,"Ġbecomes":4174,"bit":4175,"iers":4176,"Ġrange":4177,"Ġunderstood":4178,"sequently":4179,"Ġconsultation":4180,"%.":4181,"Ġmeps":4182,"Ġkids":4183,"Ġky":4184,"thirdly":4185,"Ġadequate":4186,"Ġbase":4187,"Ġhous":4188,"lection":4189,"Ġgeneration":4190,"Ġminority":4191,"thus":4192,"Ġsoviet":4193,"Ġ2020":4194,"Ġtaxes":4195,"Ġloss":4196,"Ġcode":4197,"Ġsymbol":4198,"Ġthor":4199,"Ġbill":4200,"vered":4201,"Ġvotes":4202,"ground":4203,"Ġmission":4204,"Ġimplic":4205,"Ġtreaties":4206,"Ġfighting":4207,"prise":4208,"despite":4209,"Ġcourage":4210,"Ġhur":4211,"oses":4212,"Ġchanging":4213,"mon":4214,"rant":4215,"rich":4216,"zil":4217,"ites":4218,"Ġproportion":4219,"Ġbound":4220,"Ġrenewable":4221,"Ġdebates":4222,"Ġdomin":4223,"Ġcub":4224,"Ġgenerally":4225,"etic":4226,"Ġacts":4227,"Ġwithdraw":4228,"enhagen":4229,"Ġsto":4230,"Ġexpression":4231,"Ġremark":4232,"Ġphil":4233,"Ġeasily":4234,"Ġbarroso":4235,"Ġ.":4236,"Ġcompe":4237,"Ġincred":4238,"Ġlanguages":4239,"Ġbritain":4240,"imb":4241,"Ġjuly":4242,"cons":4243,"Ġlatin":4244,"bu":4245,"Ġsubmitted":4246,"Ġpoore":4247,"Ġregulatory":4248,"Ġforg":4249,"appe":4250,"Ġgets":4251,"Ġdirectives":4252,"Ġgrand":4253,"Ġphot":4254,"Ġdischarge":4255,"pret":4256,"assion":4257,"iling":4258,"Ġabol":4259,"Ġclosed":4260,"Ġ...":4261,"Ġfix":4262,"Ġuns":4263,"Ġcondition":4264,"Ġterrorist":4265,"Ġlisten":4266,"Ġlinked":4267,"Ġsorry":4268,"Ġestablishment":4269,"Ġadapt":4270,"asters":4271,"Ġut":4272,"Ġnumbers":4273,"Ġequally":4274,"raid":4275,"Ġcovered":4276,"Ġevening":4277,"Ġdraf":4278,"Ġchoose":4279,"Ġpatients":4280,"Ġfire":4281,"Ġreven":4282,"Ġpresence":4283,"Ġplanning":4284,"Ġafraid":4285,"Ġcontrols":4286,"Ġheads":4287,"Ġmistake":4288,"Ġincorpor":4289,"your":4290,"ken":4291,"Ġuncertain":4292,"Ġknew":4293,"Ġ27":4294,"Ġsignal":4295,"arus":4296,"Ġserb":4297,"Ġaccident":4298,"Ġobserv":4299,"both":4300,"cast":4301,"Ġprove":4302,"look":4303,"ruit":4304,"Ġspok":4305,"Ġprotest":4306,"ronic":4307,"Ġconflicts":4308,"Ġemployees":4309,"Ġrepeated":4310,"part":4311,"Ġunlike":4312,"Ġconstruction":4313,"Ġdrive":4314,"Ġtackle":4315,"Ġdie":4316,"Ġsoft":4317,"Ġrid":4318,"Ġmedical":4319,"Ġrising":4320,"Ġlearning":4321,"Ġchemical":4322,"pir":4323,"oples":4324,"Ġcondemn":4325,"Ġcult":4326,"Ġinsurance":4327,"Ġbooks":4328,"Ġfrequ":4329,"inc":4330,"Ġbalk":4331,"Ġbelong":4332,"Ġlarger":4333,"Ġpeoples":4334,"Ġspoke":4335,"Ġguarantees":4336,"levision":4337,"Ġidentity":4338,"Ġkilled":4339,"ingly":4340,"Ġinvestors":4341,"Ġbiggest":4342,"Ġobligations":4343,"Ġappreciate":4344,"hib":4345,"rid":4346,"Ġelector":4347,"Ġ60":4348,"Ġdiseases":4349,"Ġoccasion":4350,"Ġbomb":4351,"Ġtrain":4352,"Ġglobalisation":4353,"Ġnaturally":4354,"Ġmeetings":4355,"Ġcorpor":4356,"Ġpermanent":4357,"Ġcriticism":4358,"Ġrelatively":4359,"Ġvulnerable":4360,"stitution":4361,"Ġexperts":4362,"orse":4363,"andon":4364,"Ġquant":4365,"Ġcarbon":4366,"Ġreasonable":4367,"Ġemer":4368,"ril":4369,"Ġvast":4370,"Ġbilateral":4371,"Ġsole":4372,"Ġconsolid":4373,"Ġestablishing":4374,"Ġimf":4375,"di":4376,"Ġoce":4377,"umer":4378,"Ġdecis":4379,"Ġboy":4380,"Ġsmes":4381,"Ġwelfare":4382,"Ġcareful":4383,"Ġlux":4384,"ience":4385,"Ġurban":4386,"Ġpension":4387,"Ġgranted":4388,"Ġseparate":4389,"Ġprofessional":4390,"Ġgender":4391,"Ġsevere":4392,"Ġsituations":4393,"Ġ197":4394,"Ġlegitim":4395,"port":4396,"Ġfirms":4397,"eties":4398,"Ġabandon":4399,"Ġprotecting":4400,"Ġtechnological":4401,"ancing":4402,"Ġhelping":4403,"Ġcopenhagen":4404,"Ġisn":4405,"loyed":4406,"Ġbrings":4407,"Ġgeorg":4408,"Ġexists":4409,"ney":4410,"Ġliberalisation":4411,"Ġdig":4412,"Ġsocialist":4413,"Ġexpectations":4414,"Ġtrading":4415,"Ġincom":4416,"Ġeye":4417,"Ġcompared":4418,"Ġtelevision":4419,"Ġinvolvement":4420,"Ġsubsidiarity":4421,"gra":4422,"Ġok":4423,"Ġamaz":4424,"Ġphen":4425,"kes":4426,"Ġye":4427,"Ġbelarus":4428,"Ġparticipate":4429,"Ġblood":4430,"once":4431,"abor":4432,"Ġstronger":4433,"Ġstudies":4434,"Ġalliance":4435,"Ġrout":4436,"Ġplant":4437,"Ġpeaceful":4438,"Ġpollution":4439,"Ġphenomen":4440,"Ġtown":4441,"Ġdisappe":4442,"Ġseeking":4443,"Ġswedish":4444,"Ġworst":4445,"Ġcoast":4446,"Ġ1990":4447,"Ġultimately":4448,"Ġthorough":4449,"Ġstable":4450,"Ġusually":4451,"Ġjapanese":4452,"Ġdefinite":4453,"sk":4454,"Ġdispl":4455,"Ġexpand":4456,"Ġarch":4457,"Ġarmy":4458,"Ġdecade":4459,"Ġminorities":4460,"Ġendorse":4461,"Ġallows":4462,"Ġblock":4463,"Ġtrafficking":4464,"ties":4465,"Ġbos":4466,"Ġanswers":4467,"ifying":4468,"Ġpleas":4469,"Ġsummer":4470,"Ġassembly":4471,"pay":4472,"enary":4473,"Ġdelight":4474,"Ġplants":4475,"Ġapparent":4476,"Ġsport":4477,"Ġapril":4478,"sterdam":4479,"Ġsudden":4480,"itial":4481,"Ġunless":4482,"Ġmobility":4483,"Ġelsewhere":4484,"Ġassociated":4485,"Ġice":4486,"Ġintend":4487,"Ġinterpret":4488,"Ġnearly":4489,"Ġspring":4490,"Ġinspect":4491,"Ġresolved":4492,"Ġinev":4493,"Ġperformance":4494,"given":4495,"Ġinitial":4496,"Ġnether":4497,"osp":4498,"Ġcontrad":4499,"Ġimprovements":4500,"Ġdollar":4501,"Ġterritory":4502,"Ġcells":4503,"Ġcomplicated":4504,"china":4505,"Ġimposed":4506,"Ġexpensive":4507,"ressive":4508,"Ġentit":4509,"Ġwrite":4510,"Ġsignificantly":4511,"Ġconsistent":4512,"quality":4513,"Ġremarks":4514,"Ġcentre":4515,"Ġsocieties":4516,"Ġcrimes":4517,"Ġbrazil":4518,"Ġnetherlands":4519,"Ġtoler":4520,"Ġcapable":4521,"Ġschools":4522,"Ġdriving":4523,"garia":4524,"gment":4525,"hol":4526,"mission":4527,"Ġisol":4528,"their":4529,"Ġstatistics":4530,"have":4531,"iar":4532,"nia":4533,"ison":4534,"Ġang":4535,"Ġbirth":4536,"Ġelectricity":4537,"bur":4538,"nor":4539,"without":4540,"Ġplenary":4541,"Ġattach":4542,"Ġdepends":4543,"Ġestim":4544,"Ġvolunt":4545,"did":4546,"Ġpolitically":4547,"Ġapproval":4548,"Ġcitizen":4549,"Ġexclu":4550,"Ġassociation":4551,"Ġcollective":4552,"Ġhundreds":4553,"Ġenjoy":4554,"Ġarrangements":4555,"during":4556,"Ġsomewhat":4557,"comp":4558,"prus":4559,"Ġsqu":4560,"Ġdign":4561,"cious":4562,"Ġamsterdam":4563,"Ġcommittees":4564,"Ġecb":4565,"Ġargument":4566,"ulating":4567,"Ġtalked":4568,"Ġemphasis":4569,"Ġimmigrants":4570,"Ġplaced":4571,"marily":4572,"Ġradical":4573,",âĢĿ":4574,"Ġx":4575,"Ġtob":4576,"Ġremo":4577,"Ġcompetence":4578,"Ġsche":4579,"engen":4580,"spe":4581,"Ġdied":4582,"Ġpromotion":4583,"does":4584,"usion":4585,"Ġshar":4586,"Ġsmaller":4587,"Ġuniversal":4588,"nal":4589,"Ġprimarily":4590,"Ġbanking":4591,"ient":4592,"Ġsell":4593,"Ġaccounts":4594,"Ġrestruct":4595,"Ġtasks":4596,"Ġevaluation":4597,"enth":4598,"Ġoffers":4599,"Ġimage":4600,"Ġenforce":4601,"mat":4602,"tra":4603,"itness":4604,"leep":4605,"Ġconce":4606,"Ġfacts":4607,"Ġfinding":4608,"Ġdemonstrated":4609,"Ġmaterials":4610,"Ġsavings":4611,"ox":4612,"Ġamounts":4613,"Ġadvert":4614,"Ġworldwide":4615,"Ġcouldn":4616,"Ġbelief":4617,"Ġoperations":4618,"Ġprosperity":4619,"her":4620,"americ":4621,"Ġleads":4622,"Ġpersonally":4623,"Ġabsence":4624,"Ġencouraging":4625,"Ġborn":4626,"Ġarguments":4627,"Ġbab":4628,"Ġjustified":4629,"Ġprotected":4630,"Ġorganised":4631,"Ġsurve":4632,"Ġcontributions":4633,"Ġvari":4634,"Ġreligion":4635,"Ġislamic":4636,"wing":4637,"Ġproved":4638,"actory":4639,"ull":4640,"Ġoptim":4641,"Ġcyprus":4642,"Ġdetermined":4643,"down":4644,"Ġslight":4645,"Ġcast":4646,"Ġgal":4647,"Ġparal":4648,"akers":4649,"ishing":4650,"Ġhighest":4651,"Ġorganization":4652,"Ġdark":4653,"Ġretain":4654,"Ġweight":4655,"apse":4656,"Ġproposing":4657,"Ġoperate":4658,"Ġgeograph":4659,"Ġ80":4660,"Ġdetailed":4661,"Ġlegitimate":4662,"Ġscheme":4663,"Ġeurozone":4664,"ointed":4665,"Ġshowed":4666,"Ġsouthern":4667,"Ġauditors":4668,"would":4669,"Ġcore":4670,"Ġgaz":4671,"Ġentry":4672,"Ġdemonstrate":4673,"Ġextraordin":4674,"Ġbulgaria":4675,"Ġrestrictions":4676,"Ġvehicles":4677,"Ġstraight":4678,"Ġmic":4679,"Ġproposes":4680,"ressed":4681,"Ġdepart":4682,"Ġexistence":4683,"Ġpattern":4684,"Ġdutch":4685,"commun":4686,"Ġspoken":4687,"--":4688,"Ġcard":4689,"Ġren":4690,"Ġreli":4691,"Ġbeings":4692,"Ġadvance":4693,"Ġpersons":4694,"Ġrecognised":4695,"Ġemergency":4696,"Ġtools":4697,"Ġdistribution":4698,"Ġmoun":4699,"Ġintergovernmental":4700,"Ġschengen":4701,"Ġfavor":4702,"Ġtaxation":4703,"Ġportugal":4704,"Ġinvolving":4705,"Ġprimary":4706,"time":4707,"Ġcz":4708,"Ġfaith":4709,"Ġopposite":4710,"Ġmigration":4711,"Ġbinding":4712,"asing":4713,"Ġtransition":4714,"Ġversion":4715,"Ġcam":4716,"Ġreve":4717,"agree":4718,"overed":4719,"Ġbarriers":4720,"30":4721,"uable":4722,"ley":4723,"ilst":4724,"Ġdefined":4725,"Ġapart":4726,"Ġeventually":4727,"Ġtypes":4728,"Ġshape":4729,"fic":4730,"oo":4731,"onia":4732,"Ġmag":4733,"Ġvig":4734,"Ġacce":4735,"Ġextended":4736,"Ġstands":4737,"Ġamongst":4738,"Ġproperty":4739,"Ġdescribed":4740,"bru":4741,"face":4742,"Ġcatch":4743,"Ġsho":4744,"Ġflexible":4745,"Ġannounced":4746,"rees":4747,"Ġuniversity":4748,"Ġsomebody":4749,"Ġcheck":4750,"Ġcompensation":4751,"ugh":4752,"Ġball":4753,"Ġtreated":4754,"Ġpromise":4755,"Ġnegotiating":4756,"Ġtemporary":4757,"Ġlabe":4758,"ondon":4759,"Ġlatter":4760,"Ġrapidly":4761,"Ġheavy":4762,"sych":4763,"Ġlegitimacy":4764,"Ġpsych":4765,"leb":4766,"acco":4767,"Ġprem":4768,"Ġboost":4769,"Ġwonderful":4770,"care":4771,"Ġnos":4772,"Ġequip":4773,"Ġadvanced":4774,"Ġholding":4775,"Ġlatest":4776,"Ġpursue":4777,"Ġwalk":4778,"Ġpure":4779,"Ġhosp":4780,"Ġfort":4781,"Ġimpose":4782,"Ġprior":4783,"Ġrespected":4784,"Ġfunctioning":4785,"Ġintellect":4786,"Ġdelighted":4787,"bruary":4788,"could":4789,"Ġfocused":4790,"Ġpick":4791,"Ġproc":4792,"uds":4793,"Ġmoved":4794,"Ġoptions":4795,"ee":4796,"Ġdisasters":4797,"Ġimports":4798,"anging":4799,"Ġliter":4800,"Ġhealthy":4801,"Ġopinions":4802,"Ġguaranteed":4803,"Ġconstantly":4804,"Ġczech":4805,"Ġson":4806,"ari":4807,"Ġindustries":4808,"Ġsubstances":4809,"Ġmaximum":4810,"car":4811,"Ġfat":4812,"Ġcomply":4813,"Ġovercome":4814,"Ġfreedoms":4815,"Ġbehavior":4816,"Ġsession":4817,"Ġfebruary":4818,"Ġformal":4819,"Ġjudicial":4820,"Ġrecommendation":4821,"Ġhistorical":4822,"Ġjournal":4823,"ife":4824,"Ġoffered":4825,"Ġdistin":4826,"Ġmac":4827,"uted":4828,"adv":4829,"Ġconcluded":4830,"Ġfirstly":4831,"Ġdignity":4832,"Ġhospital":4833,"emb":4834,"Ġoral":4835,"Ġadopting":4836,"Ġpublished":4837,"back":4838,"uous":4839,"Ġwitness":4840,"roud":4841,"Ġassume":4842,"Ġtradition":4843,"gu":4844,"Ġthrow":4845,"Ġpi":4846,"iliation":4847,"Ġmeat":4848,"Ġadvice":4849,"itime":4850,"Ġrecession":4851,"Ġmark":4852,"Ġallowing":4853,"Ġbaltic":4854,"Ġmanufacture":4855,"Ġtobacco":4856,"tr":4857,"onom":4858,"Ġtoward":4859,"through":4860,"Ġstories":4861,"Ġcommissioners":4862,"Ġplayers":4863,"Ġmilk":4864,"areness":4865,"Ġkeeping":4866,"Ġceleb":4867,"Ġmultilateral":4868,"Ġskills":4869,"Ġobligation":4870,"Ġsecretary":4871,"Ġstabil":4872,"Ġcompon":4873,"Ġscand":4874,"Ġphase":4875,"Ġincreases":4876,"two":4877,"Ġppe":4878,"Ġguy":4879,"Ġcenter":4880,"Ġinvolves":4881,"oubtedly":4882,"Ġpalestinians":4883,"Ġdouble":4884,"Ġrig":4885,"Ġpreced":4886,"Ġmargin":4887,"Ġsurround":4888,"Ġmexic":4889,"Ġeverywhere":4890,"Ġpromised":4891,"Ġincentives":4892,"lined":4893,"Ġvill":4894,"Ġjoh":4895,"Ġlie":4896,"Ġblue":4897,"Ġstrategies":4898,"',":4899,"gence":4900,"sub":4901,"Ġwine":4902,"Ġsac":4903,"ingu":4904,"Ġnar":4905,"Ġmaritime":4906,"Ġstanding":4907,"Ġhistoric":4908,"ero":4909,"ays":4910,"abilities":4911,"Ġfirmly":4912,"Ġdiplomatic":4913,"Ġfacilitate":4914,"vak":4915,"oto":4916,"Ġcontrast":4917,"Ġeffectiveness":4918,"Ġtaxpay":4919,"Ġdeeply":4920,"Ġperfectly":4921,"Ġvoluntary":4922,"ding":4923,"ony":4924,"Ġvice":4925,"Ġelectronic":4926,"equ":4927,"rote":4928,"izations":4929,"Ġpossibly":4930,"Ġdecline":4931,"Ġdetails":4932,"Ġcustoms":4933,"Ġexcessive":4934,"Ġexplanation":4935,"Ġdecisive":4936,"ai":4937,"Ġfaster":4938,"Ġnoted":4939,"Ġtraged":4940,"Ġputin":4941,"Ġtheory":4942,"resh":4943,"amed":4944,"Ġaftern":4945,"Ġexpert":4946,"Ġawareness":4947,"Ġbriefly":4948,"Ġfulfil":4949,"ax":4950,"Ġbeg":4951,"Ġwash":4952,"Ġthereby":4953,"Ġcooperate":4954,"Ġentitled":4955,"Ġproud":4956,"Ġmc":4957,"rian":4958,"ada":4959,"anda":4960,"Ġpurch":4961,"Ġhearing":4962,"Ġroma":4963,"Ġreplace":4964,"none":4965,"Ġswe":4966,"Ġasian":4967,"Ġvia":4968,"Ġquar":4969,"Ġassure":4970,"Ġcrises":4971,"Ġinclusion":4972,"Ġdestruction":4973,"Ġphysical":4974,"Ġintellectual":4975,"ception":4976,"Ġdrawing":4977,"umerous":4978,"umb":4979,"Ġomb":4980,"Ġfit":4981,"Ġsyn":4982,"Ġmatch":4983,"Ġopened":4984,"Ġsustainability":4985,"Ġgirl":4986,"Ġallocated":4987,"Ġombuds":4988,"Ġwrote":4989,"Ġinade":4990,"Ġsearch":4991,"Ġagg":4992,"Ġ24":4993,"Ġ500":4994,"ourg":4995,"Ġtransl":4996,"Ġcuts":4997,"Ġcollapse":4998,"Ġretur":4999,"Ġzone":5000,"bourg":5001,"Ġforthcoming":5002,"Ġafternoon":5003,"Ġbed":5004,"asbourg":5005,"which":5006,"Ġbelieves":5007,"Ġchoices":5008,"Ġgrounds":5009,"lastly":5010,"Ġreaction":5011,"Ġgold":5012,"Ġwasn":5013,"Ġethnic":5014,"embourg":5015,"Ġrelates":5016,"Ġblame":5017,"Ġspeaker":5018,"Ġsuffer":5019,"Ġlaunched":5020,"Ġgeorgia":5021,"Ġongoing":5022,"Ġleban":5023,"Ġrac":5024,"Ġmov":5025,"termine":5026,"Ġsatisfied":5027,"Ġundoubtedly":5028,"Ġnobody":5029,"Ġcreates":5030,"Ġshowing":5031,"Ġradio":5032,"imp":5033,"Ġfruit":5034,"Ġdisagree":5035,"ifications":5036,"Ġsuggested":5037,"Ġaustria":5038,"Ġobstacles":5039,"Ġimplications":5040,"build":5041,"amb":5042,"ini":5043,"ato":5044,"Ġflight":5045,"state":5046,"Ġdetermine":5047,"osen":5048,"Ġstrasbourg":5049,"necess":5050,"Ġchairman":5051,"ming":5052,"Ġtough":5053,"Ġabstain":5054,"Ġabuse":5055,"irect":5056,"Ġ1997":5057,"Ġ1998":5058,"Ġbelow":5059,"Ġordinary":5060,"Ġocean":5061,"Ġprosec":5062,"Ġsubmit":5063,"Ġscen":5064,"Ġdispos":5065,"Ġvide":5066,"reneur":5067,"Ġcommunist":5068,"Ġprocesses":5069,"Ġnecessarily":5070,"Ġpatient":5071,"Ġsexual":5072,"repreneur":5073,"Ġbottom":5074,"Ġequipment":5075,"ball":5076,"Ġundermin":5077,"Ġvaluable":5078,"ength":5079,"Ġfarming":5080,"Ġterrible":5081,"dis":5082,"Ġtit":5083,"Ġhus":5084,"Ġusa":5085,"Ġbackground":5086,"Ġemot":5087,"Ġhardly":5088,"Ġdictators":5089,"Ġspect":5090,"Ġnotice":5091,"Ġran":5092,"Ġjudge":5093,"Ġurgently":5094,"Ġchristian":5095,"Ġsovereignty":5096,"Ġluxembourg":5097,"see":5098,"Ġshift":5099,"Ġrealistic":5100,"Ġplanned":5101,"Ġwidely":5102,"Ġserbia":5103,"Ġbalkans":5104,"iles":5105,"Ġdism":5106,"Ġdefinitely":5107,"bes":5108,"Ġtrouble":5109,"Ġpref":5110,"Ġwars":5111,"Ġessentially":5112,"Ġsignificance":5113,"Ġtroops":5114,"Ġrestructuring":5115,"Ġecu":5116,"Ġreserve":5117,"Ġabroad":5118,"Ġacting":5119,"Ġargue":5120,"Ġreconst":5121,"Ġleaving":5122,"Ġlabelling":5123,"Ġgap":5124,"Ġrepresented":5125,"Ġexperienced":5126,"Ġrecognize":5127,"Ġoperating":5128,"Ġturns":5129,"Ġstrengthened":5130,"Ġwelcomed":5131,"aid":5132,"yle":5133,"Ġisland":5134,"Ġshad":5135,"Ġevolution":5136,"Ġapprove":5137,"Ġsupplement":5138,"Ġteacher":5139,"Ġombudsman":5140,"tur":5141,"isory":5142,"Ġnumerous":5143,"Ġyouth":5144,"Ġpartly":5145,"active":5146,"Ġentrepreneur":5147,"Ġrestric":5148,"Ġdaily":5149,"Ġprohib":5150,"Ġali":5151,"Ġfollows":5152,"Ġunnecess":5153,"Ġsugar":5154,"Ġmonop":5155,"Ġsensible":5156,"Ġwider":5157,"outh":5158,"lder":5159,"Ġgreatly":5160,"Ġprepare":5161,"Ġpurposes":5162,"Ġpredict":5163,"orial":5164,"Ġment":5165,"Ġimpression":5166,"Ġvoters":5167,"Ġlesson":5168,"Ġcontained":5169,"aughter":5170,"Ġpresidential":5171,"Ġremove":5172,"Ġinterven":5173,"Ġinnovative":5174,"atures":5175,"ancy":5176,"iced":5177,"Ġchosen":5178,"Ġanybody":5179,"Ġlessons":5180,"Ġcoordinated":5181,"Ġreflects":5182,"Ġmistakes":5183,"Ġharmonisation":5184,"Ġaccompan":5185,"scale":5186,"Ġkyoto":5187,"gos":5188,"Ġbox":5189,"Ġconstitu":5190,"regard":5191,"democ":5192,"Ġunique":5193,"Ġprospects":5194,"urch":5195,"Ġchann":5196,"Ġnevertheless":5197,"Ġfoundation":5198,"Ġsurely":5199,"Ġsubstance":5200,"Ġexamine":5201,"ĠâĢĻ":5202,"Ġsleep":5203,"Ġadmit":5204,"Ġrequested":5205,"Ġscientists":5206,"Ġsupervision":5207,"icip":5208,"astic":5209,"Ġacp":5210,"Ġprize":5211,"ails":5212,"Ġrequirement":5213,"Ġbuildings":5214,"Ġbehavi":5215,"Ġacknowledge":5216,"Ġpoorest":5217,"mo":5218,"son":5219,"Ġves":5220,"Ġreserv":5221,"teen":5222,"Ġsuffered":5223,"Ġvisa":5224,"Ġcollabor":5225,"Ġoccasions":5226,"Ġsurprised":5227,"Ġforgot":5228,"Ġted":5229,"atlantic":5230,"Ġwat":5231,"Ġstocks":5232,"Ġproducing":5233,"Ġpatent":5234,"Ġpenalty":5235,"Ġtrend":5236,"Ġstruggle":5237,"nel":5238,"oted":5239,"Ġrational":5240,"Ġminute":5241,"Ġbrid":5242,"Ġdependent":5243,"Ġsucceeded":5244,"Ġdeficits":5245,"Ġhopes":5246,"rating":5247,"Ġtight":5248,"oms":5249,"ula":5250,"Ġidentified":5251,"Ġassets":5252,"Ġuniverse":5253,"Ġgaza":5254,"lav":5255,"rew":5256,"Ġos":5257,"Ġmos":5258,"Ġlic":5259,"Ġvan":5260,"Ġchap":5261,"Ġended":5262,"Ġinfect":5263,"Ġbattle":5264,"Ġ0":5265,"Ġlived":5266,"Ġlondon":5267,"Ġconciliation":5268,"Ġpayment":5269,"Ġphenomenon":5270,"Ġcry":5271,"Ġlength":5272,"Ġunif":5273,"Ġrh":5274,"Ġrain":5275,"Ġsymp":5276,"Ġ196":5277,"Ġcorrespon":5278,"Ġrevision":5279,"Ġpaying":5280,"Ġurgency":5281,"holders":5282,"Ġunfair":5283,"oud":5284,"Ġimb":5285,"ets":5286,"Ġrecall":5287,"Ġviolations":5288,"Ġadvertising":5289,"gic":5290,"similar":5291,"Ġfal":5292,"Ġdeserves":5293,"Ġfamiliar":5294,"produ":5295,"Ġmap":5296,"Ġflow":5297,"related":5298,"four":5299,"house":5300,"Ġpolish":5301,"phere":5302,"encing":5303,"Ġhamas":5304,"Ġfields":5305,"Ġlosses":5306,"Ġclarify":5307,"Ġrelie":5308,"Ġmountain":5309,"Ġalban":5310,"sight":5311,"Ġarmed":5312,"Ġpersu":5313,"Ġoperational":5314,"Ġthreats":5315,"Ġslovak":5316,"nl":5317,"itect":5318,"Ġspl":5319,"Ġfrank":5320,"Ġmachine":5321,"Ġdynamic":5322,"Ġbought":5323,"oring":5324,"iring":5325,"Ġdecent":5326,"Ġimportantly":5327,"Ġdefine":5328,"Ġdifficulty":5329,"Ġtrial":5330,"ibet":5331,"Ġdoctor":5332,"Ġcroat":5333,"advant":5334,"ware":5335,"erb":5336,"Ġsister":5337,"Ġreiter":5338,"Ġforum":5339,"abling":5340,"Ġpreventing":5341,"Ġtests":5342,"Ġpreparing":5343,"Ġextraordinary":5344,"Ġngos":5345,"Ġprodi":5346,"uls":5347,"Ġsusp":5348,"Ġdisadvant":5349,"Ġera":5350,"Ġidentify":5351,"Ġsentence":5352,"Ġreflected":5353,"general":5354,"cape":5355,"Ġcamer":5356,"war":5357,"erson":5358,"Ġextension":5359,"Ġexclus":5360,"Ġnig":5361,"Ġcharge":5362,"Ġpossibilities":5363,"Ġsuccessfully":5364,"licit":5365,"Ġhousehold":5366,"Ġlots":5367,"Ġprofit":5368,"Ġcoherent":5369,"Ġmodels":5370,"Ġarchitect":5371,"Ġcaught":5372,"Ġnine":5373,"Ġalleg":5374,"Ġash":5375,"Ġcompliance":5376,"viously":5377,"Ġborrow":5378,"Ġ70":5379,"Ġsharp":5380,"ointment":5381,"Ġarrived":5382,"Ġacknowled":5383,"Ġpillar":5384,"stitutional":5385,"Ġreliable":5386,"pread":5387,"ulf":5388,"consequently":5389,"Ġfeet":5390,"Ġdeals":5391,"idespread":5392,"Ġaddressing":5393,"Ġgirls":5394,"Ġmuslim":5395,"free":5396,"oslav":5397,"Ġclaims":5398,"osoph":5399,"Ġpresidents":5400,"Ġaccur":5401,"ibly":5402,"Ġcheap":5403,"Ġmedicine":5404,"Ġprisoners":5405,"Ġinj":5406,"Ġimper":5407,"Ġsyria":5408,"ugoslav":5409,"Ġcandidates":5410,"Ġwarming":5411,"Ġinn":5412,"ung":5413,"Ġ23":5414,"Ġpromises":5415,"Ġexecut":5416,"Ġsettlement":5417,"russi":5418,"asm":5419,"Ġseat":5420,"Ġolder":5421,"Ġdeclared":5422,"Ġtopic":5423,"Ġtragedy":5424,"Ġreconstruction":5425,"vest":5426,"Ġwidespread":5427,"Ġol":5428,"Ġfresh":5429,"Ġextensive":5430,"Ġconsidering":5431,"Ġcharges":5432,"Ġsympath":5433,"bing":5434,"wan":5435,"Ġreass":5436,"idity":5437,"Ġunity":5438,"umed":5439,"iciently":5440,"Ġsurprise":5441,"Ġconcentrate":5442,"Ġflu":5443,"Ġet":5444,"Ġrely":5445,"Ġhaven":5446,"Ġexceed":5447,"Ġexpan":5448,"Ġtelling":5449,"Ġ90":5450,"Ġoccurred":5451,"Ġhousing":5452,"Ġelectoral":5453,"Ġamazing":5454,"Ġpleasure":5455,"Ġdisposal":5456,"%,":5457,"Ġbreat":5458,"Ġmine":5459,"Ġrecip":5460,"before":5461,"Ġaffects":5462,"Ġwillingness":5463,"Ġmissing":5464,"Ġmedicines":5465,"Ġhungarian":5466,"Ġmobil":5467,"Ġphilosoph":5468,"Ġtibet":5469,"Ġwife":5470,"Ġod":5471,"Ġmix":5472,"thly":5473,"Ġstation":5474,"Ġsets":5475,"Ġtwenty":5476,"Ġinfring":5477,"Ġappropriations":5478,"Ġfairly":5479,"Ġterritorial":5480,"pts":5481,"kets":5482,"Ġtimet":5483,"Ġtrack":5484,"Ġopenness":5485,"Ġbrother":5486,"Ġconfirmed":5487,"Ġreveal":5488,"Ġuniform":5489,"ault":5490,"Ġfer":5491,"cel":5492,"osition":5493,"Ġexplicit":5494,"Ġnewsp":5495,"Ġarm":5496,"Ġdebating":5497,"Ġdiscovered":5498,"Ġphone":5499,"Ġflood":5500,"Ġconducted":5501,"Ġfilm":5502,"Ġyugoslav":5503,"Ġorganizations":5504,"Ġ2011":5505,"Ġmexico":5506,"Ġende":5507,"Ġchurch":5508,"Ġusers":5509,"apers":5510,"again":5511,"Ġissued":5512,"Ġaccidents":5513,"Ġdetermination":5514,"ufficient":5515,"Ġdeliber":5516,"Ġcalcul":5517,"Ġattempts":5518,"Ġuncertainty":5519,"Ġreserves":5520,"Ġclin":5521,"Ġblind":5522,"Ġmotor":5523,"Ġmaintaining":5524,"having":5525,"Ġdigital":5526,"Ġproductivity":5527,"Ġflag":5528,"Ġmaintained":5529,"Ġillust":5530,"Ġreconcil":5531,"Ġcontracts":5532,"Ġquotas":5533,"Ġpunish":5534,"Ġshadow":5535,"bel":5536,"Ġcrow":5537,"Ġaviation":5538,"Ġautonom":5539,"Ġsatisfactory":5540,"Ġrelease":5541,"Ġberlin":5542,"Ġbehaviour":5543,"Ġexpansion":5544,"Ġâ":5545,"Ġtv":5546,"Ġgames":5547,"Ġregist":5548,"ague":5549,"Ġtragic":5550,"Ġdemanding":5551,"Ġprofound":5552,"Ġstatute":5553,"national":5554,"ront":5555,"ading":5556,"Ġhumans":5557,"Ġdirector":5558,"Ġinterf":5559,"Ġencouraged":5560,"Ġapplying":5561,"Ġlinks":5562,"Ġratification":5563,"Ġpassengers":5564,"Ġtaxpayers":5565,"eth":5566,"Ġmort":5567,"asc":5568,"Ġstick":5569,"Ġstrange":5570,"uese":5571,"Ġrestore":5572,"Ġprofits":5573,"Ġoperators":5574,"Ġvictory":5575,"Ġregrett":5576,"Ġneighbours":5577,"Ġjohn":5578,"Ġwaters":5579,"take":5580,"xts":5581,"Ġselect":5582,"anges":5583,"Ġstudent":5584,"Ġengaged":5585,"Ġcollege":5586,"ographic":5587,"Ġundertaken":5588,"Ġcuba":5589,"zz":5590,"erved":5591,"itical":5592,"Ġdin":5593,"Ġalarm":5594,"obviously":5595,"Ġfishermen":5596,"Ġdivided":5597,"Ġhighlighted":5598,"Ġinvestigation":5599,"Ġendeav":5600,"Ã¼":5601,"ques":5602,"uman":5603,"ocked":5604,"Ġduties":5605,"Ġembar":5606,"Ġhyp":5607,"Ġexclusion":5608,"Ġvideo":5609,"Ġtort":5610,"keep":5611,"Ġatmos":5612,"Ġtwice":5613,"Ġsurpl":5614,"Ġcombined":5615,"Ġfourth":5616,"Ġlosing":5617,"Ġcarrying":5618,"Ġremoved":5619,"Ġinadequate":5620,"Ġlebanon":5621,"hand":5622,"Ġsought":5623,"Ġdiscip":5624,"Ġfinish":5625,"Ġcourts":5626,"Ġentered":5627,"Ġturning":5628,"Ġideal":5629,"Ġsuggests":5630,"irable":5631,"Ġworrying":5632,"Ġimbal":5633,"count":5634,"att":5635,"Ġsake":5636,"enn":5637,"ington":5638,"Ġliqu":5639,"Ġbelieved":5640,"Ġresulting":5641,"Ġdramatic":5642,"Ġreaching":5643,"Ġterrorists":5644,"Ġmotiv":5645,"Ġzero":5646,"Ġsurvive":5647,"Ġenhance":5648,"Ġstopped":5649,"ports":5650,"Ġtar":5651,"Ġactively":5652,"Ġfinland":5653,"Ġhumanity":5654,"Ġsupplies":5655,"Ġexplained":5656,"Ġportuguese":5657,"icy":5658,"Ġluck":5659,"Ġwhilst":5660,"whel":5661,"Ġputs":5662,"Ġrealise":5663,"Ġowners":5664,"Ġscot":5665,"Ġsurface":5666,"Ġfalls":5667,"Ġbegun":5668,"itz":5669,"Ġexe":5670,"Ġaids":5671,"Ġintroducing":5672,"hus":5673,"rates":5674,"Ġaug":5675,"Ġvacc":5676,"udi":5677,"Ġfinished":5678,"Ġbigger":5679,"Ġgenerations":5680,"Ġdispute":5681,"Ġsuspend":5682,"cs":5683,"iant":5684,"Ġfly":5685,"thes":5686,"Ġresource":5687,"Ġoverwhel":5688,"Ġconsequence":5689,"Ġseemed":5690,"Ġineff":5691,"ino":5692,"institutional":5693,"Ġproof":5694,"Ġcompleted":5695,"Ġfamous":5696,"Ġlistening":5697,"Ġgreens":5698,"Ġresistance":5699,"Ġunlikely":5700,"Ġfortun":5701,"cra":5702,"Ġsight":5703,"Ġkil":5704,"Ġadm":5705,"Ġthanking":5706,"Ġlawy":5707,"Ġfewer":5708,"Ġcontributed":5709,"Ġignore":5710,"Ġmagn":5711,"Ġrough":5712,"Ġevol":5713,"igned":5714,"Ġ1996":5715,"Ġcreative":5716,"Ġsufficiently":5717,"Ġcredible":5718,"Ġbol":5719,"âĢĻ.":5720,"Ġgoverning":5721,"Ġdeserve":5722,"Ġsched":5723,"Ġremaining":5724,"Ġachievement":5725,"Ġwatching":5726,"Ġinterpretation":5727,"ky":5728,"Ġ,":5729,"Ġsick":5730,"Ġdrop":5731,"racies":5732,"oss":5733,"cient":5734,"Ġcoff":5735,"Ġraising":5736,"Ġclause":5737,"Ġdefense":5738,"Ġattend":5739,"Ġfacilities":5740,"Ġoppose":5741,"Ġpursu":5742,"everyone":5743,"Ġproceedings":5744,"Ġvat":5745,"Ġeconomically":5746,"Ġflows":5747,"Ġfalling":5748,"appro":5749,"Ġtunis":5750,"Ġded":5751,"Ġadult":5752,"ashion":5753,"Ġmultip":5754,"Ġbroader":5755,"Ġstrike":5756,"Ġsuspect":5757,"Ġunnecessary":5758,"Ġwise":5759,"Ġhiv":5760,"Ġdub":5761,"Ġrace":5762,"Ġrealize":5763,"Ġprograms":5764,"Ġnegotiation":5765,"Ġweakness":5766,"Ġconvergence":5767,"Ġdro":5768,"add":5769,"forced":5770,"Ġtransitional":5771,"Ġtransatlantic":5772,"Ġdictatorship":5773,"ti":5774,"ional":5775,"Ġchain":5776,"allow":5777,"Ġdefe":5778,"Ġconstitute":5779,"Ġheading":5780,"riend":5781,"ounting":5782,"Ġlegally":5783,"Ġguard":5784,"Ġawa":5785,"Ġadvantages":5786,"Ġcroatia":5787,"rust":5788,"uk":5789,"ws":5790,"Ġinqu":5791,"Ġremained":5792,"clearly":5793,"Ġviolent":5794,"Ġleaves":5795,"Ġhal":5796,"rog":5797,"Ġsum":5798,"Ġparad":5799,"Ġregimes":5800,"market":5801,"Ġcorrectly":5802,"Ġpreparation":5803,"Ġ1980":5804,"Ġevalu":5805,"water":5806,"uries":5807,"abwe":5808,"Ġconfront":5809,"Ġextrem":5810,"Ġeducational":5811,"Ġiraqi":5812,"imbabwe":5813,"ulsory":5814,"iwan":5815,"Ġsim":5816,"Ġmur":5817,"think":5818,"Ġcool":5819,"Ġamended":5820,"phone":5821,"Ġexperiment":5822,"Ġpopulations":5823,"Ġgenuinely":5824,"Ġqualified":5825,"Ġrevenue":5826,"similarly":5827,"Ġpil":5828,"omin":5829,"tering":5830,"Ġintens":5831,"deb":5832,"develop":5833,"Ġindirect":5834,"Ġenvironmentally":5835,"Ġiranian":5836,"usal":5837,"Ġnoise":5838,"Ġ22":5839,"Ġeconomics":5840,"Ġdebated":5841,"Ġguys":5842,"Ġscre":5843,"Ġcivilian":5844,"Ġpreviously":5845,"Ġsudan":5846,"erate":5847,"Ġgar":5848,"Ġweb":5849,"Ġworried":5850,"Ġcanada":5851,"Ġearn":5852,"Ġtonight":5853,"Ġsoldiers":5854,"Ġbaby":5855,"Ġpurely":5856,"Ã³":5857,"orous":5858,"Ġech":5859,"unity":5860,"Ġintentions":5861,"Ġriver":5862,"Ġviable":5863,"Ġprivile":5864,"Ġsky":5865,"Ġcorporate":5866,"Ġinnoc":5867,"ga":5868,"Ġweather":5869,"sect":5870,"Ġseeks":5871,"Ġraw":5872,"actions":5873,"Ġprevail":5874,"har":5875,"Ġhol":5876,"Ġloans":5877,"Ġapprox":5878,"Ġcausing":5879,"Ġconnected":5880,"should":5881,"Ġratified":5882,"Ġbosnia":5883,"band":5884,"makers":5885,"Ġrefused":5886,"Ġinsp":5887,"Ġswim":5888,"Ġhonour":5889,"Ġtargeted":5890,"Ġneighbourhood":5891,"Ġbureaucracy":5892,"Ġmacro":5893,"bre":5894,"cap":5895,"atible":5896,"Ġwood":5897,"Ġaside":5898,"Ġjustify":5899,"Ġregarded":5900,"Ġsolved":5901,"Ġburma":5902,"Ġambition":5903,"ursday":5904,"sen":5905,"Ġ[":5906,"Ġusual":5907,"Ġforemost":5908,"Ġhealthcare":5909,"Ġglass":5910,"Ġgradually":5911,"Ġeliminate":5912,"Ġincredible":5913,"Ġacceler":5914,"su":5915,"Ġdump":5916,"ocking":5917,"ief":5918,"Ġexpense":5919,"aching":5920,"Ġcapt":5921,"Ġfran":5922,"Ġenforcement":5923,"Ġislands":5924,"Ġintends":5925,"Ġmoreover":5926,"Ġreported":5927,"Ġdetect":5928,"sider":5929,"Ġexploitation":5930,"Ġslightly":5931,"Ġparalle":5932,"bar":5933,"irty":5934,"Ġsigns":5935,"Ġ1995":5936,"Ġcutting":5937,"Ġneighbor":5938,"Ġindicated":5939,"Ġhomes":5940,"Ġintelligence":5941,"mine":5942,"Ġpace":5943,"iry":5944,"Ġshame":5945,"Ġmovements":5946,"Ġstressed":5947,"Ġtrem":5948,"Ġadjustment":5949,"Ġcategory":5950,"ny":5951,"wel":5952,"amend":5953,"ption":5954,"Ġenvis":5955,"Ġpersist":5956,"Ġwarning":5957,"Ġ300":5958,"Ġcorner":5959,"Ġequival":5960,"Ġexperiences":5961,"ova":5962,"Ġzimbabwe":5963,"Ġrepeatedly":5964,"Ġbse":5965,"Ġfing":5966,"icted":5967,"Ġwouldn":5968,"Ġconsiders":5969,"Ġinsufficient":5970,"Ġcontrolled":5971,"Ġcongress":5972,"cohol":5973,"Ġanaly":5974,"Ġremarkable":5975,"Ġsolely":5976,"rors":5977,"Ġthursday":5978,"Ġgri":5979,"Ġvac":5980,"Ġ26":5981,"Ġinvited":5982,"Ġmostly":5983,"Ġcertainty":5984,"place":5985,"Ġpercentage":5986,"Ġalternatives":5987,"Ġdanish":5988,"reshold":5989,"Ġarise":5990,"Ġdecre":5991,"Ġperpet":5992,"Ġrealized":5993,"Ġfaces":5994,"asion":5995,"rif":5996,"Ġkn":5997,"Ġanywhere":5998,"ribute":5999,"Ġmoroc":6000,"Ġreferring":6001,"Ġobliged":6002,"Ġsales":6003,"Ġcommunications":6004,"jud":6005,"rations":6006,"sv":6007,"Ġthreshold":6008,"Ġsaving":6009,"Ġsmoking":6010,"Ġphotograph":6011,"Ġemerged":6012,"nat":6013,"Ġwage":6014,"Ġwebs":6015,"Ġquote":6016,"Ġherit":6017,"Ġtrip":6018,"Ġcatast":6019,"Ġgulf":6020,"Ġcommod":6021,"Ġhelps":6022,"Ġjoined":6023,"Ġgained":6024,"Ġignored":6025,"Ġsurvival":6026,"Ġconservative":6027,"subject":6028,"Ġmovie":6029,"russia":6030,"Ġatmosphere":6031,"Ġtom":6032,"Ġfost":6033,"roc":6034,"ctive":6035,"ray":6036,"Ġupd":6037,"Ġspite":6038,"Ġindones":6039,"Ġmold":6040,"Ġendors":6041,"being":6042,"Ġconvince":6043,"Ġannounce":6044,"Ġsuddenly":6045,"bl":6046,"ona":6047,"Ġcli":6048,"Ġnut":6049,"Ġonto":6050,"Ġempty":6051,"Ġinterinstitutional":6052,"Ġcompetent":6053,"cuse":6054,"Ġminds":6055,"Ġapplications":6056,"Ġembra":6057,"Ġforgotten":6058,"Ġheritage":6059,"Ġsharing":6060,"Ġcomplement":6061,"izes":6062,"Ġindian":6063,"Ġsubjects":6064,"Ġslowly":6065,"Ġbelgium":6066,"Ġcultures":6067,"point":6068,"Ġwake":6069,"Ġwages":6070,"Ġports":6071,"lymp":6072,"oler":6073,"Ġalive":6074,"Ġundermine":6075,"Ġfem":6076,"Ġoffering":6077,"Ġrespects":6078,"Ġsuggestions":6079,"Ġdoubts":6080,"Ġmobile":6081,"bet":6082,"eff":6083,"ki":6084,"rut":6085,"session":6086,"erc":6087,"Ġalcohol":6088,"Ġpermit":6089,"Ġschem":6090,"Ġconsiderably":6091,"ecision":6092,"Ġdeaths":6093,"Ġnonetheless":6094,"Ġprag":6095,"Ġfixed":6096,"Ġfrequently":6097,"building":6098,"hu":6099,"Ġwed":6100,"anks":6101,"alities":6102,"Ġsocialists":6103,"Ġrefers":6104,"Ġdiscover":6105,"Ġenthus":6106,"Ġresulted":6107,"Ġinterpre":6108,"Ġplays":6109,"Ġtaiwan":6110,"Ġnegotiated":6111,"Ġhungary":6112,"Ġentrepreneurs":6113,"Ġtimetable":6114,"Ġenthusi":6115,"Ġtired":6116,"itably":6117,"Ġstream":6118,"umn":6119,"Ġcompulsory":6120,"mean":6121,"Ġgenetic":6122,"Ġscar":6123,"Ġinstitute":6124,"Ġdepri":6125,"Ġspeeches":6126,"Ġdeadline":6127,"Ġfalse":6128,"craft":6129,"Ġtremend":6130,"ham":6131,"Ġanx":6132,"ches":6133,"Ġcommand":6134,"Ġsoil":6135,"ager":6136,"Ġlistened":6137,"Ġpensions":6138,"Ġpursued":6139,"Ġtemper":6140,"Ġstimul":6141,"Ġvessels":6142,"gn":6143,"Ġunre":6144,"Ġliked":6145,"Ġplat":6146,"Ġ28":6147,"Ġdistort":6148,"Ġfriendly":6149,"Ġetc":6150,"Ġsong":6151,"Ġdar":6152,"Ġaspir":6153,"Ġscrut":6154,"Ġconsiderations":6155,"Ġrepresentation":6156,"Ġlibya":6157,"Ġbreach":6158,"Ġharmful":6159,"Ġbadly":6160,"Ġpetitions":6161,"Ġdestroyed":6162,"Ġvirtually":6163,"Ļ«":6164,"Ġregister":6165,"Ġdemocracies":6166,"Ġfoundations":6167,"Ġcodecision":6168,"known":6169,"Ġbureaucratic":6170,"long":6171,"Ġsection":6172,"Ġfault":6173,"Ġdemographic":6174,"Ġaffecting":6175,"Ġdemonst":6176,"Ġroads":6177,"Ġships":6178,"Ġexecutive":6179,"Ġregrettable":6180,"Ġschemes":6181,"ems":6182,"nob":6183,"illing":6184,"atell":6185,"Ġmarked":6186,"Ġclarity":6187,"Ġminim":6188,"Ġforecast":6189,"Ġirre":6190,"Ġerror":6191,"Ġrome":6192,"Ġwindow":6193,"Ġbelgian":6194,"Ġscandal":6195,"Ġreturned":6196,"Ġreservations":6197,"bb":6198,"Ġolymp":6199,"Ġpassion":6200,"idden":6201,"rap":6202,"che":6203,"Ġunpre":6204,"opard":6205,"otherwise":6206,"together":6207,"Ġconstitutes":6208,"Ġthreatened":6209,"Ġfears":6210,"Ġethical":6211,"Ġreinforce":6212,"Ġdisappointed":6213,"Ġquarter":6214,"Ġintervene":6215,"Ġaccompanied":6216,"Ġbridge":6217,"Ġinfringe":6218,"Ġcoffee":6219,"Ġhat":6220,"Ġlith":6221,"Ġken":6222,"Ġdiss":6223,"Ġsphere":6224,"Ġperce":6225,"Ġmarketing":6226,"Ġremed":6227,"Ġcolon":6228,"Ġnegotiate":6229,"Ġfreely":6230,"Ġpalestine":6231,"ophob":6232,"Ġbonds":6233,"mory":6234,"Ġnav":6235,"cific":6236,"Ġroot":6237,"Ġlasting":6238,"Ġglobalization":6239,"Ġjourney":6240,"Ġnarrow":6241,"Ġracism":6242,"hear":6243,"Ġcash":6244,"Ġmere":6245,"osis":6246,"Ġuses":6247,"Ġwhereas":6248,"Ġannivers":6249,"Ġdisplay":6250,"Ġcontradict":6251,"Ġgeographical":6252,"Ġendeavour":6253,"ÃŃ":6254,"Ġmemory":6255,"antly":6256,"Ġpreserve":6257,"Ġoutstanding":6258,"Ġincident":6259,"Ġthinks":6260,"Ġmillenn":6261,"Ġshares":6262,"burg":6263,"ko":6264,"Ġcert":6265,"Ġfashion":6266,"ulous":6267,"Ġdisabled":6268,"arer":6269,"Ġrefuse":6270,"luding":6271,"Ġrequests":6272,"Ġcomputers":6273,"Ġmillennium":6274,"inational":6275,"Ġwild":6276,"Ġmit":6277,"Ġunfortun":6278,"Ġtexts":6279,"Ġgenet":6280,"Ġimages":6281,"Ġairport":6282,"Ġcoalition":6283,"Ġsquare":6284,"Ġaugust":6285,"Ġanniversary":6286,"each":6287,"follow":6288,"Ġcas":6289,"Ġnotion":6290,"Ġunions":6291,"Ġsuitable":6292,"Ġsmart":6293,"Ġfails":6294,"Ġdevast":6295,"Ġdeterior":6296,"Ġemployers":6297,"Ġteachers":6298,"Ġunfortunate":6299,"requ":6300,"eds":6301,"ario":6302,"Ġhaz":6303,"aded":6304,"Ġsev":6305,"emic":6306,"Ġexperiencing":6307,"Ġfallen":6308,"Ġroman":6309,"Ġunemployed":6310,"Ġdenmark":6311,"Ġpassenger":6312,"Ġmanufacturers":6313,"Ġchapter":6314,".'":6315,"mic":6316,"Ġsending":6317,"Ġfate":6318,"also":6319,"Ġcitizenship":6320,"Ġcease":6321,"Ġcopy":6322,"Ġvehicle":6323,"Ġvillage":6324,"vi":6325,"wa":6326,"Ġwis":6327,"Ġmaced":6328,"Ġstance":6329,"Ġatlantic":6330,"erences":6331,"Ġapproaches":6332,"Ġbroken":6333,"Ġcomparison":6334,"Ġboom":6335,"Ġclub":6336,"Ġprovid":6337,"Ġdesp":6338,"Ġruling":6339,"Ġbroke":6340,"Ġswift":6341,"Ġmultinational":6342,"Ġexceptional":6343,"Ġequivalent":6344,"yal":6345,"Ġnames":6346,"Ġonline":6347,"Ġyield":6348,"Ġshut":6349,"Ġindis":6350,"Ġapolog":6351,"Ġbeneficial":6352,"Ġconstrain":6353,"Ġjudgment":6354,"Ġcycle":6355,"Ġsounds":6356,"Ġasset":6357,"Ġfuels":6358,"99":6359,"oly":6360,"Ġsite":6361,"level":6362,"Ġgross":6363,"Ġaren":6364,"Ġshi":6365,"Ġevident":6366,"Ġunderlying":6367,"Ġtransactions":6368,"Ġpharm":6369,"Ġexcluded":6370,"Ġneighbouring":6371,"Ġlogic":6372,"Ġfifth":6373,"Ġcomponent":6374,"fall":6375,"itative":6376,"Ġshap":6377,"etor":6378,"ective":6379,"Ġrelate":6380,"Ġhelpful":6381,"nex":6382,"Ġneglect":6383,"Ġerad":6384,"liferation":6385,"Ġearthqu":6386,"Ġreplaced":6387,"Ġincentive":6388,"Ġwashington":6389,"Ġbreath":6390,"Ġparallel":6391,"rity":6392,"orn":6393,"Ġstor":6394,"Ġconvers":6395,"child":6396,"osing":6397,"Ġchief":6398,"Ġdivision":6399,"Ġsloven":6400,"Ġchemicals":6401,"Ġdisappear":6402,"Ġinevitable":6403,"Ġliterally":6404,"Ġeating":6405,"pper":6406,"Ġmodified":6407,"Ġnecessity":6408,"regular":6409,"board":6410,"Ġsurrounding":6411,"Ġlithu":6412,"Ġmurd":6413,"Ġdan":6414,"Ġelder":6415,"looking":6416,"Ġmodest":6417,"Ġ35":6418,"Ġdistance":6419,"Ġdeclare":6420,"Ġgrew":6421,"Ġcapitalism":6422,"Ġpotentially":6423,"Ġdemonstrates":6424,"Ġindicate":6425,"Ġincredibly":6426,"Ġmicro":6427,"Ġrestricted":6428,"Ġtaught":6429,"oured":6430,"Ġunp":6431,"Ġraises":6432,"Ġsmoo":6433,"Ġpresenting":6434,"Ġpresentation":6435,"Ġcombination":6436,"Ġvisible":6437,"Ġemphasised":6438,"Ġgenerate":6439,"Ġmulti":6440,"Ġchecks":6441,"Ġobtained":6442,"Ġregularly":6443,"Ġintelligent":6444,"Ġreconciliation":6445,"Ġfemale":6446,"10":6447,"Ġbub":6448,"Ġgun":6449,"Ġproven":6450,"Ġargent":6451,"exist":6452,"Ġlogical":6453,"Ġstreets":6454,"Ġscenario":6455,"ĠâĻ«":6456,"turn":6457,"inder":6458,"Ġgh":6459,"Ġsomewhere":6460,"Ġkeen":6461,"Ġbusy":6462,"Ġliber":6463,"Ġperiods":6464,"Ġcomplaints":6465,"col":6466,"culation":6467,"Ġactors":6468,"Ġmart":6469,"angible":6470,"Ġfeels":6471,"Ġretire":6472,"Ġvisited":6473,"Ġdelays":6474,"Ġjeopard":6475,"Ġobservers":6476,"ients":6477,"ka":6478,"Ġast":6479,"astrich":6480,"whe":6481,"Ġfrid":6482,"Ġdistingu":6483,"Ġviolation":6484,"arko":6485,"Ġvariety":6486,"Ġrhetor":6487,"astricht":6488,"grow":6489,"oy":6490,"Ġpse":6491,"ician":6492,"ils":6493,"ationally":6494,"Ġmarried":6495,"Ġrare":6496,"cedented":6497,"Ġdirected":6498,"Ġanticip":6499,"Ġuniversities":6500,"Ġheavily":6501,"Ġunanimously":6502,"Ġsoftware":6503,"Ġestimated":6504,"Ġprocure":6505,"nobody":6506,"Ġic":6507,"Ġbiod":6508,"versi":6509,"Ġfinanced":6510,"Ġmaastricht":6511,"chnya":6512,"Ġabsor":6513,"Ġregulated":6514,"Ġdiagn":6515,"Ġvolume":6516,"Ġsatisfaction":6517,"Ġrelief":6518,"Ġinnocent":6519,"Ġunprecedented":6520,"arkozy":6521,"zen":6522,"Ġtree":6523,"Ġaward":6524,"isra":6525,"Ġdav":6526,"until":6527,"Ġheat":6528,"Ġbrut":6529,"Ġsettle":6530,"comings":6531,"Ġviet":6532,"Ġfailing":6533,"Ġabsurd":6534,"Ġprevented":6535,"Ġfunctions":6536,"Ġvictim":6537,"Ġambitions":6538,"Ġecological":6539,"Ġgreenhouse":6540,"Ġultimate":6541,"Ġsupervisory":6542,"Ġacquis":6543,"Ġmurder":6544,"ns":6545,"pal":6546,"Ġfab":6547,"Ġlaugh":6548,"respect":6549,"Ġexcuse":6550,"Ġsaudi":6551,"Ġreflection":6552,"Ġextending":6553,"Ġgrown":6554,"Ġshortcomings":6555,"Ġsuggestion":6556,"Ġarrive":6557,"Ġaccomplish":6558,"Ġenhanced":6559,"Ġroute":6560,"Ġapproximately":6561,"Ġtremendous":6562,"Ġvietnam":6563,"dro":6564,"rum":6565,"rous":6566,"uity":6567,"Ġox":6568,"room":6569,"ications":6570,"icking":6571,"Ġmanaging":6572,"Ġunderline":6573,"Ġhappiness":6574,"Ġregardless":6575,"Ġsolar":6576,"Ġvalid":6577,"Ġinequality":6578,"Ġindicators":6579,"Ġaccordingly":6580,"versial":6581,"person":6582,"sm":6583,"Ġsand":6584,"Ġsatell":6585,"Ġeco":6586,"Ġkar":6587,"Ġdepression":6588,"Ġarticles":6589,"Ġcoordinate":6590,"Ġdiver":6591,"Ġkilling":6592,"nonetheless":6593,"Ġtariff":6594,"oided":6595,"uct":6596,"Ġfinances":6597,"Ġopenly":6598,"Ġavoided":6599,"Ġrevised":6600,"Ġtraditions":6601,"Ġ2013":6602,"Ġchechnya":6603,"Ġpieces":6604,"Ġtackling":6605,"eva":6606,"Ġinhab":6607,"Ġfifteen":6608,"Ġreleased":6609,"contro":6610,"Ġstimulus":6611,"lex":6612,"stream":6613,"Ġlend":6614,"Ġstore":6615,"unction":6616,"alling":6617,"Ġguess":6618,"Ġdifferently":6619,"Ġfrag":6620,"Ġshortly":6621,"Ġfootball":6622,"Ġhoped":6623,"Ġtransformation":6624,"Ġcollaboration":6625,"Ġtorture":6626,"bas":6627,"mal":6628,"atisf":6629,"Ġhair":6630,"Ġallies":6631,"Ġmemor":6632,"Ġcommend":6633,"Ġparis":6634,"Ġintensive":6635,"dep":6636,"Ġplural":6637,"Ġroll":6638,"Ġconfron":6639,"Ġfrust":6640,"Ġproductive":6641,"Ġaccessible":6642,"Ġenlar":6643,"Ġcompete":6644,"celona":6645,"aur":6646,"Ġhence":6647,"Ġlad":6648,"Ġunit":6649,"Ġpark":6650,"Ġagrees":6651,"Ġrecover":6652,"Ġaccounting":6653,"Ġ31":6654,"Ġlacking":6655,"Ġaudience":6656,"Ġhoriz":6657,"Ġsilence":6658,"Ġemerge":6659,"Ġapparently":6660,"human":6661,"Ġq":6662,"rec":6663,"Ġpul":6664,"Ġbang":6665,"Ġrecy":6666,"ctic":6667,"Ġeuropol":6668,"Ġlikes":6669,"Ġcompassion":6670,"Ġrecognized":6671,"Ġdetri":6672,"Ġaustrian":6673,"Ġpictures":6674,"Ġsaddam":6675,"Ġwelcomes":6676,"Ġsupplementary":6677,"Ġnigeria":6678,"Ġecho":6679,"Ġhong":6680,"Ġneut":6681,"Ġunequ":6682,"Ġshif":6683,"cience":6684,"Ġchamp":6685,"Ġrand":6686,"Ġkh":6687,"Ġquiet":6688,"aph":6689,"Ġeconomists":6690,"Ġdistur":6691,"iban":6692,"Ġveget":6693,"Ġaustral":6694,"Ġdistributed":6695,"Ġmanufacturing":6696,"Ġdistinction":6697,"following":6698,"Ġprocurement":6699,"fi":6700,"ensible":6701,"Ġdur":6702,"adays":6703,"Ġresort":6704,"Ġnovel":6705,"Ġoutput":6706,"Ġtrave":6707,"Ġroc":6708,"Ġstring":6709,"Ġappeared":6710,"Ġrejection":6711,"Ġpenalties":6712,"Ġsimplification":6713,"meanwhile":6714,"Ġmacedonia":6715,"inated":6716,"Ġmary":6717,"Ġannex":6718,"Ġstem":6719,"Ġhabit":6720,"Ġeuros":6721,"Ġpled":6722,"Ġfeature":6723,"Ġpermitted":6724,"Ġmole":6725,"Ġhopefully":6726,"Ġsignals":6727,"Ġbuying":6728,"Ġblair":6729,"Ġirregular":6730,"Ġairports":6731,"Ġdeeper":6732,"Ġdenied":6733,"Ġperspectives":6734,"Ġoccupation":6735,"maybe":6736,"Ġtrends":6737,"debate":6738,"Ġbiodiversity":6739,"cow":6740,"organ":6741,"asp":6742,"omal":6743,"Ġvoc":6744,"Ġenabling":6745,"Ġcovers":6746,"cessions":6747,"Ġcontroversial":6748,"Ġjoining":6749,"Ġspeaks":6750,"Ġregulate":6751,"Ġjournalists":6752,"Ã¤":6753,"Ġkong":6754,"connect":6755,"Ġ29":6756,"Ġaccused":6757,"mann":6758,"Ġ1994":6759,"Ġpoet":6760,"Ġstarts":6761,"Ġoppon":6762,"Ġdrivers":6763,"Ġgrave":6764,"Ġfocusing":6765,"Ġdoctors":6766,"Ġmental":6767,"much":6768,"sometimes":6769,"abe":6770,"Ġacad":6771,"Ġpersec":6772,"anged":6773,"Ġdesirable":6774,"Ġmiles":6775,"Ġbarcelona":6776,"Ġjointly":6777,"Ġhunger":6778,"Ġexamined":6779,"haust":6780,"Ġinquiry":6781,"tical":6782,"Ġfought":6783,"Ġfasc":6784,"Ġhes":6785,"icated":6786,"Ġstood":6787,"ifies":6788,"soever":6789,"aces":6790,"Ġwhatsoever":6791,"Ġmanip":6792,"Ġpreca":6793,"ounded":6794,"Ġmathe":6795,"Ġconfident":6796,"Ġcolomb":6797,"Ġachievements":6798,"Ġartific":6799,"Ġswitch":6800,"Ġapplicant":6801,"Ġbiological":6802,"Ġefficiently":6803,"Ġdescribe":6804,"Ġtelephone":6805,"Ġattractive":6806,"Ġabstained":6807,"Ġsurplus":6808,"hence":6809,"Ġcf":6810,"lihood":6811,"Ġmanif":6812,"Ġexposed":6813,"Ġtaliban":6814,"Ġemu":6815,"Ġanswered":6816,"life":6817,"Ġpreparations":6818,"Ġwarmly":6819,"Ġtonnes":6820,"Ġdestroy":6821,"Ġresc":6822,"akings":6823,"Ġsports":6824,"Ġsites":6825,"Ġdesper":6826,"Ġinformal":6827,"Ġcentres":6828,"Ġconventions":6829,"Ġintegrity":6830,"Ġruns":6831,"Ġcomplexity":6832,"Ġundertake":6833,"Ġmerc":6834,"Ġdiplomacy":6835,"Ġautomatically":6836,"Ġdrafting":6837,"Ġpipe":6838,"Ġroughly":6839,"Ġpull":6840,"Ġalger":6841,"illance":6842,"Ġjur":6843,"Ġwhereby":6844,"Ġhero":6845,"Ġbanned":6846,"Ġcompetences":6847,"Ġorganic":6848,"Ġcreativity":6849,"Ġharder":6850,"Ġholds":6851,"Ġlands":6852,"Ġstead":6853,"Ġcoup":6854,"Ġcondemned":6855,"Ġmuslims":6856,"Ġaccurate":6857,"Ġmorocco":6858,"Ġelderly":6859,"Ġtribute":6860,"Ġnotably":6861,"Ġnoticed":6862,"Ġimplies":6863,"Ġcollection":6864,"Ġcoherence":6865,"Ġdriven":6866,"Ġexciting":6867,"book":6868,"Ġdiverse":6869,"Ġdeny":6870,"Ġallocation":6871,"Ġcrops":6872,"bors":6873,"iate":6874,"sa":6875,"Ġfool":6876,"iled":6877,"Ġconven":6878,"Ġliability":6879,"Ġconsent":6880,"Ġinvite":6881,"Ġoffic":6882,"Ġcolor":6883,"Ġorganized":6884,"Ġplayer":6885,"Ġengland":6886,"within":6887,"Ġmotions":6888,"Ġ2012":6889,"Ġapplicable":6890,"iox":6891,"Ġwording":6892,"Ġillness":6893,"Ġundertakings":6894,"Ġmigrants":6895,"Ġforests":6896,"Ġobserved":6897,"Ġslovakia":6898,"Ġsuspic":6899,"Ġacknowledged":6900,"appropri":6901,"da":6902,"elect":6903,"inal":6904,"Ġsn":6905,"Ġfant":6906,"utical":6907,"Ġabuses":6908,"agers":6909,"Ġmarine":6910,"Ġfavourable":6911,"Ġbrok":6912,"Ġteaching":6913,"Ġdiscrimin":6914,"Ġconservation":6915,"Ġepide":6916,"Ġinevitably":6917,"Ġgenetically":6918,"ba":6919,"via":6920,"Ġsme":6921,"oul":6922,"Ġnamed":6923,"Ġbeat":6924,"otic":6925,"ched":6926,"terror":6927,"above":6928,"aceutical":6929,"Ġeveryday":6930,"Ġmoves":6931,"Ġends":6932,"Ġinvesting":6933,"Ġinitially":6934,"Ġfounded":6935,"Ġaccountability":6936,"Ġreceiving":6937,"Ġcircle":6938,"Ġskin":6939,"Ġwithdrawal":6940,"Ġutmost":6941,"Ġalbania":6942,"Ġyugoslavia":6943,"Ġsuspended":6944,"Ġrhetoric":6945,"Ġmanifest":6946,"iable":6947,"Ġtiny":6948,"Ġdos":6949,"christ":6950,"Ġadverse":6951,"Ġmarks":6952,"Ġtransit":6953,"Ġfunded":6954,"Ġemission":6955,"Ġfundamentally":6956,"Ġtells":6957,"Ġaircraft":6958,"ecd":6959,"Ġsteel":6960,"Ġundertaking":6961,"Ġrailway":6962,"Ġcommunicate":6963,"Ġobservation":6964,"Ġsurveillance":6965,"Ġtunisia":6966,"Ġlag":6967,"lla":6968,"Ġdispar":6969,"enses":6970,"rators":6971,"Ġsooner":6972,"Ġcampaigns":6973,"Ġhurt":6974,"Ġtitle":6975,"Ġreiterate":6976,"Ġimperative":6977,"Ġolaf":6978,"Ġsympathy":6979,"Ġindonesia":6980,"Ġpharmaceutical":6981,"br":6982,"Ġsarkozy":6983,"Ġcot":6984,"ita":6985,"Ġconve":6986,"Ġcontemp":6987,"Ġimported":6988,"Ġconscious":6989,"Ġresponses":6990,"Ġdefault":6991,"Ġprocessing":6992,"Ġtape":6993,"sequent":6994,"Ġcongratulations":6995,"Ġfleet":6996,"Ġtensions":6997,"Ġdisputes":6998,"Ġsubstantially":6999,"Ġdrinking":7000,"communications":7001,"itzer":7002,"Ġmoldova":7003,"gans":7004,"women":7005,"Ġtangible":7006,"Ġmouth":7007,"Ġange":7008,"Ġbeef":7009,"Ġgrat":7010,"Ġvent":7011,"Ġjump":7012,"Ġentering":7013,"Ġideological":7014,"Ġacceptance":7015,"Ġinstability":7016,"Ġprivat":7017,"law":7018,"Ġterritories":7019,"Ġsurprising":7020,"Ġincorporated":7021,"Ġhusband":7022,"Ġdefeat":7023,"Ġinhabit":7024,"ded":7025,"good":7026,"matically":7027,"pass":7028,"rem":7029,"Ġcomfort":7030,"Ġprote":7031,"Ġoutset":7032,"Ġoffices":7033,"Ġgenoc":7034,"Ġfarms":7035,"Ġgranting":7036,"Ġbillions":7037,"Ġdinner":7038,"naturally":7039,"cur":7040,"reaching":7041,"Ġbare":7042,"oration":7043,"Ġinvent":7044,"Ġdefending":7045,"Ġinterim":7046,"Ġsincerely":7047,"Ġprofess":7048,"Ġassociations":7049,"Ġcriminals":7050,"Ġconsulted":7051,"Ġexamination":7052,"Ġmissed":7053,"Ġunanimous":7054,"Ġcategories":7055,"Ġdrafted":7056,"american":7057,"emy":7058,"oning":7059,"enophob":7060,"Ġbread":7061,"Ġing":7062,"Ġdivers":7063,"three":7064,"Ġitems":7065,"Ġenemy":7066,"Ġintoler":7067,"Ġmonit":7068,"Ġlibert":7069,"Ġpursuing":7070,"Ġclearer":7071,"Ġrelationships":7072,"Ġhydro":7073,"Ġ1970":7074,"Ġwisdom":7075,"itzerland":7076,"rather":7077,"Ġdna":7078,"Ġreverse":7079,"Ġlending":7080,"Ġprompt":7081,"Ġimprison":7082,"Ġarbit":7083,"Ġanyway":7084,"Ġrot":7085,"Ġdangers":7086,"Ġobserve":7087,"Ġtesting":7088,"Ġguaranteeing":7089,"Ġrecorded":7090,"Ġstruck":7091,"Ġpilot":7092,"Ġrescue":7093,"cles":7094,"mis":7095,"enna":7096,"Ġcens":7097,"Ġbail":7098,"Ġunilateral":7099,"osy":7100,"Ġprescri":7101,"among":7102,"Ġappointment":7103,"Ġspot":7104,"Ġ194":7105,"nothing":7106,"Ġappreciation":7107,"break":7108,"Ġfriday":7109,"mans":7110,"Ġtall":7111,"Ġwave":7112,"Ġcup":7113,"Ġpage":7114,"Ġmich":7115,"Ġnic":7116,"Ġacted":7117,"licate":7118,"neither":7119,"Ġcenturies":7120,"Ġescape":7121,"Ġemployed":7122,"Ġcurrencies":7123,"Ġpainful":7124,"Ġengagement":7125,"Ġtolerance":7126,"Ġestimates":7127,"Ġenlarged":7128,".,":7129,"mer":7130,"sch":7131,"win":7132,"stuff":7133,"Ġexhaust":7134,"ivered":7135,"istical":7136,"Ġfeatures":7137,"Ġmonday":7138,"Ġbacking":7139,"Ġenterprise":7140,"Ġwalking":7141,"political":7142,"Ġqualifications":7143,"trans":7144,"Ġscrutiny":7145,"Ġdiox":7146,"Ġsuic":7147,"Ġcook":7148,"Ġsubsequent":7149,"Ġwarrant":7150,"Ġcongratulating":7151,"Ġerrors":7152,"Ġmonopoly":7153,"Ġsplit":7154,"Ġhazard":7155,"Ġearthquake":7156,"pa":7157,"power":7158,"Ġaz":7159,"isite":7160,"Ġpig":7161,"Ġfoss":7162,"Ġhide":7163,"Ġinternationally":7164,"Ġphr":7165,"Ġaccepting":7166,"Ġiron":7167,"Ġtextile":7168,"regulation":7169,"Ġ150":7170,"Ġdelivered":7171,"ijing":7172,"Ġtelecommunications":7173,"Ġderog":7174,"Ġhouses":7175,"Ġoverwhelming":7176,"Ġmacroeconomic":7177,"cut":7178,"nish":7179,"Ġreward":7180,"Ġgather":7181,"ounce":7182,"operation":7183,"teg":7184,"Ġelite":7185,"Ġessence":7186,"Ġpromoted":7187,"Ġairlines":7188,"Ġmessages":7189,"Ġisolation":7190,"Ġxenophob":7191,"Ġwebsite":7192,"Ġmuse":7193,"Ġfan":7194,"Ġgall":7195,"Ġstations":7196,"Ġseats":7197,"social":7198,"Ġabst":7199,"Ġsomehow":7200,"ounds":7201,"Ġmeets":7202,"Ġresearchers":7203,"Ġstars":7204,"Ġargued":7205,"Ġworthy":7206,"Ġunderest":7207,"Ġcrazy":7208,"Ġunanimity":7209,"democratic":7210,"Ġimbalances":7211,"Ġownership":7212,"gue":7213,"ugg":7214,"tery":7215,"Ġsees":7216,"Ġvary":7217,"Ġmarri":7218,"Ġroots":7219,"Ġassured":7220,"Ġbrand":7221,"Ġdonors":7222,"Ġblow":7223,"Ġcivilians":7224,"Ġpostal":7225,"Ġredund":7226,"Ġgains":7227,"Ġcrash":7228,"Ġjuris":7229,"Ġgenocide":7230,"bly":7231,"friend":7232,"hn":7233,"Ġowing":7234,"Ġbow":7235,"Ġhall":7236,"Ġdup":7237,"kel":7238,"aked":7239,"udes":7240,"Ġreporting":7241,"Ġjustification":7242,"ube":7243,"mmet":7244,"Ġgeneva":7245,"Ġ45":7246,"Ġmisunder":7247,"Ġneighbors":7248,"yesterday":7249,"Ġdossi":7250,"ios":7251,"nis":7252,"vis":7253,"zuel":7254,"Ġtam":7255,"Ġtast":7256,"Ġah":7257,"inn":7258,"Ġbag":7259,"Ġunh":7260,"Ġnationals":7261,"Ġforever":7262,"Ġprotectionism":7263,"Ġcontributing":7264,"Ġsustained":7265,"Ġcounterfe":7266,"Ġquota":7267,"Ġobstacle":7268,"Ġautonomy":7269,"Ġdiscipline":7270,"Ġscotland":7271,"Ġlithuania":7272,"whether":7273,"Ġrecyc":7274,"ensions":7275,"ustain":7276,"Ġsaved":7277,"iph":7278,"Ġreloc":7279,"Ġmoderate":7280,"Ġgrass":7281,"Ġinspir":7282,"Ġalongside":7283,"Ġdeclarations":7284,"trade":7285,"Ġmarginal":7286,"turkey":7287,"Ġplatform":7288,"Ġargentina":7289,"Ġmuseum":7290,"Ġnur":7291,"Ġsupre":7292,"istry":7293,"Ġadmitted":7294,"Ġcontam":7295,"Ġfacility":7296,"Ġbankrupt":7297,"Ġrenewed":7298,"Ġnormally":7299,"Ġkorean":7300,"Ġclaimed":7301,"Ġabandoned":7302,"Ġhaiti":7303,"osure":7304,"Ġdoha":7305,"Ġassert":7306,"Ġimmense":7307,"Ġbenefici":7308,"Ġ400":7309,"Ġexceptions":7310,"Ġchristians":7311,"Ġenjoyed":7312,"Ġstrictly":7313,"Ġconsolidation":7314,"Ġisolated":7315,"Ġcamera":7316,"Ġexplicitly":7317,"limin":7318,"uzz":7319,"Ġties":7320,"Ġcow":7321,"Ġcab":7322,"Ġbrow":7323,"Ġholid":7324,"thanks":7325,"uled":7326,"opol":7327,"Ġsequ":7328,"conf":7329,"Ġpropag":7330,"Ġsubs":7331,"Ġwarn":7332,"Ġ1992":7333,"Ġorient":7334,"Ġassessments":7335,"Ġimposing":7336,"Ġmeantime":7337,"Ġcontacts":7338,"Ġchannel":7339,"Ġmoscow":7340,"Ġexclusively":7341,"Ġnewspaper":7342,"children":7343,"cas":7344,"Ġsorts":7345,"aria":7346,"Ġlunch":7347,"olf":7348,"Ġprerequ":7349,"Ġserved":7350,"Ġserves":7351,"Ġconfusion":7352,"Ġirrespon":7353,"Ġbroadcast":7354,"Ġclosing":7355,"Ġcatal":7356,"Ġarrested":7357,"Ġhouseholds":7358,"Ġliberties":7359,"japan":7360,"vent":7361,"vote":7362,"Ġinput":7363,"Ġancient":7364,"Ġdaughter":7365,"Ġreput":7366,"Ġevil":7367,"Ġfeas":7368,"Ġdiffer":7369,"Ġsubsequently":7370,"Ġdepth":7371,"Ġrepression":7372,"Ġadvis":7373,"Ġfron":7374,"Ġstudying":7375,"Ġcongo":7376,"Ġresolving":7377,"Ġpostpon":7378,"security":7379,"Ġsenior":7380,"Ġsimplify":7381,"Ġincomes":7382,"Ġalleged":7383,"Ġhypoc":7384,"Ġfossil":7385,"Ġtic":7386,"Ġcere":7387,"Ġtimely":7388,"Ġtechni":7389,"Ġ37":7390,"Ġinstall":7391,"Ġlocation":7392,"Ġfisch":7393,"Ġtrees":7394,"stuffs":7395,"ares":7396,"fur":7397,"erving":7398,"Ġstages":7399,"imag":7400,"Ġvene":7401,"Ġattain":7402,"Ġrush":7403,"Ġintense":7404,"Ġque":7405,"Ġdisast":7406,"Ġbegins":7407,"Ġswitzerland":7408,"Ġbreast":7409,"Ġdivide":7410,"Ġchristmas":7411,"Ġconservatives":7412,"Ġobservations":7413,"pone":7414,"rical":7415,"Ġsnow":7416,"Ġfires":7417,"Ġstal":7418,"Ġstip":7419,"Ġsuit":7420,"Ġshot":7421,"Ġfinnish":7422,"Ġknowing":7423,"Ġreductions":7424,"Ġpopul":7425,"Ġcompromises":7426,"Ġparticipants":7427,"shr":7428,"Ġautumn":7429,"Ġigc":7430,"Ġtypical":7431,"Ġauthoritarian":7432,"Ġinspired":7433,"Ġdumping":7434,"Ġconstraints":7435,"Ġsatellite":7436,"mod":7437,"ni":7438,"inter":7439,"erity":7440,"Ġbes":7441,"ori":7442,"Ġunjust":7443,"Ġenshr":7444,"Ġunderp":7445,"Ġwhenever":7446,"Ġaccum":7447,"Ġreluct":7448,"Ġsecular":7449,"petus":7450,"Ġvisual":7451,"Ġceiling":7452,"Ġpostpone":7453,"Ġexerc":7454,"Ġclarification":7455,"Ġstimulate":7456,"Ġstakeholders":7457,"Ġyeah":7458,"Ġattached":7459,"Ġstorage":7460,"appropriate":7461,"itudes":7462,"lete":7463,"thy":7464,"stop":7465,"Ġvit":7466,"Ġtea":7467,"Ġprejud":7468,"Ġprelimin":7469,"Ġminor":7470,"Ġsystematic":7471,"beit":7472,"Ġorganise":7473,"Ġadvised":7474,"Ġimpetus":7475,"Ġparticipating":7476,"Ġinequ":7477,"Ġpartnerships":7478,"Ġcollaps":7479,"everything":7480,"Ġwalked":7481,"Ġhighlights":7482,"Ġvirus":7483,"Ġwinter":7484,"Ġadequ":7485,"Ġadvocate":7486,"amendment":7487,"Ġaustralia":7488,"iro":7489,"Ġvers":7490,"eda":7491,"Ġnord":7492,"Ġbeijing":7493,"rapporteur":7494,"Ġselling":7495,"Ġselection":7496,"Ġhell":7497,"Ġbold":7498,"Ġmeasured":7499,"Ġlowest":7500,"Ġinterventions":7501,"Ġcharacteristics":7502,"Ġgeorge":7503,"Ġbirds":7504,"Ġutter":7505,"Ġexpertise":7506,"country":7507,"Ġjurisd":7508,"Ġflying":7509,"aling":7510,"Ġplain":7511,"ointing":7512,"ressing":7513,"Ġdebts":7514,"Ġdefining":7515,"Ġinvested":7516,"Ġplane":7517,"Ġletters":7518,"Ġcamb":7519,"Ġvoices":7520,"Ġdependence":7521,"Ġcomparable":7522,"Ġdepartment":7523,"Ġphilosophy":7524,"israel":7525,"Ġinhabitants":7526,"mi":7527,"public":7528,"Ġtact":7529,"Ġsale":7530,"Ġoecd":7531,"Ġms":7532,"Ġnotes":7533,"Ġdoors":7534,"ussions":7535,"Ġtrick":7536,"Ġcompatible":7537,"Ġuphold":7538,"Ġguide":7539,"Ġcarri":7540,"Ġviewed":7541,"Ġobjections":7542,"Ġliberals":7543,"Ġukrain":7544,"Ġconsistently":7545,"Ġarabia":7546,"Ġconcentration":7547,"nesday":7548,"Ġcoastal":7549,"Ġpreliminary":7550,"Ġald":7551,"Ġcos":7552,"Ġpose":7553,"Ġdivid":7554,"ilty":7555,"Ġchick":7556,"Ġimperial":7557,"Ġcope":7558,"Ġtransf":7559,"Ġwherever":7560,"Ġpublicly":7561,"Ġsocio":7562,"Ġabsent":7563,"Ġambig":7564,"Ġconventional":7565,"Ġexchanges":7566,"Ġweapon":7567,"Ġrefugee":7568,"Ġdismiss":7569,"Ġproviders":7570,"Ġopponents":7571,"fast":7572,"Ġtoxic":7573,"Ġincon":7574,"Ġdisrupt":7575,"Ġaccomm":7576,"Ġremote":7577,"Ġsafer":7578,"Ġfeelings":7579,"Ġcareer":7580,"Ġexpressing":7581,"Ġ75":7582,"Ġdevoted":7583,"laim":7584,"Ġsilent":7585,"Ġprotests":7586,"Ġridic":7587,"Ġpatterns":7588,"Ġprosecut":7589,"Ġspectrum":7590,"Ġwednesday":7591,"Ġprecaution":7592,"Ġmathemat":7593,"Ġvenezuel":7594,"Ġdisastrous":7595,"Ġaccommod":7596,"hist":7597,"po":7598,"Ġtens":7599,"Ġpity":7600,"Ġbath":7601,"Ġreun":7602,"Ġreaff":7603,"Ġexac":7604,"Ġplenty":7605,"Ġoutbreak":7606,"Ġloved":7607,"Ġrock":7608,"Ġcommunism":7609,"Ġinstruct":7610,"Ġ1993":7611,"Ġgenerous":7612,"Ġdamaging":7613,"Ġratify":7614,"Ġinterview":7615,"Ġmachines":7616,"Ġvigil":7617,"Ġchannels":7618,"Ġexacerb":7619,"berg":7620,"tered":7621,"Ã¨":7622,"Ġmaster":7623,"Ġdisarm":7624,"aret":7625,"Ġyours":7626,"minent":7627,"Ġformula":7628,"Ġdonor":7629,"Ġhandle":7630,"Ġrepresenting":7631,"Ġexperiments":7632,"Ġbroadly":7633,"Ġsentences":7634,"Ġorganisms":7635,"Ġbeauty":7636,"Ġ1989":7637,"Ġangry":7638,"regarding":7639,"Ġpersuade":7640,"Ġashton":7641,"Ġretirement":7642,"christian":7643,"bul":7644,"call":7645,"mid":7646,"ili":7647,"Ġstup":7648,"Ġalbeit":7649,"Ġdetain":7650,"Ġenables":7651,"Ġheight":7652,"Ġtrillion":7653,"Ġprecond":7654,"Ġlegacy":7655,"ileo":7656,"Ġpractically":7657,"Ġpressing":7658,"Ġpollut":7659,"Ġrestrictive":7660,"Ġhorse":7661,"Ġengineering":7662,"Ġabolition":7663,"america":7664,"Ġarchitecture":7665,"Ġrevealed":7666,"Ġendorsed":7667,"Ġolympic":7668,"run":7669,"tes":7670,"ule":7671,"inet":7672,"erted":7673,"Ġreprodu":7674,"llor":7675,"Ġposed":7676,"ogle":7677,"neg":7678,"Ġsolving":7679,"Ġconviction":7680,"Ġpays":7681,"Ġflat":7682,"Ġpassing":7683,"Ġgenerated":7684,"Ġpushed":7685,"Ġpraise":7686,"Ġmonopol":7687,"bi":7688,"glo":7689,"hi":7690,"lim":7691,"ores":7692,"Ġpestic":7693,"Ġpapers":7694,"Ġfill":7695,"Ġdying":7696,"ulz":7697,"Ġunus":7698,"ador":7699,"Ġshop":7700,"ultane":7701,"Ġtroub":7702,"Ġtrace":7703,"Ġmoon":7704,"Ġcostly":7705,"Ġwholehear":7706,"Ġintegrate":7707,"ography":7708,"Ġcultiv":7709,"Ġthoroughly":7710,"Ġflights":7711,"Ġcommodity":7712,"Ġliberty":7713,"Ġingred":7714,"initi":7715,"Ġcul":7716,"Ġmir":7717,"Ġhidden":7718,"ara":7719,"Ġdat":7720,"Ġseason":7721,"Ġadding":7722,"Ġguilty":7723,"Ġaffair":7724,"too":7725,"Ġschulz":7726,"Ġsecondly":7727,"Ġlabel":7728,"Ġflaw":7729,"Ġosce":7730,"Ġpunishment":7731,"Ġliquidity":7732,"Ġfragile":7733,"bally":7734,"dens":7735,"night":7736,"vity":7737,"ald":7738,"ales":7739,"Ġbears":7740,"Ġwhol":7741,"idential":7742,"rage":7743,"irds":7744,"Ġpresents":7745,"auth":7746,"Ġindication":7747,"Ġrealities":7748,"Ġdramatically":7749,"Ġrespective":7750,"Ġequity":7751,"Ġfoods":7752,"Ġkeeps":7753,"Ġmandatory":7754,"Ġinvestigate":7755,"Ġconcepts":7756,"discri":7757,"Ġtemperature":7758,"sess":7759,"xual":7760,"Ġts":7761,"Ġmale":7762,"Ġnaz":7763,"Ġlists":7764,"Ġshel":7765,"establish":7766,"Ġjer":7767,"Ġanymore":7768,"Ġoverlook":7769,"Ġtranslation":7770,"Ġsubstit":7771,"Ġsecur":7772,"Ġgrasp":7773,"Ġprincipal":7774,"Ġadvances":7775,"Ġunderstandable":7776,"mptions":7777,"Ġcombine":7778,"Ġoriginally":7779,"Ġstrikes":7780,"Ġdelayed":7781,"anyone":7782,"Ġcovering":7783,"Ġdominant":7784,"Ġoptimistic":7785,"Ġsacrif":7786,"Ġdismant":7787,"Ġcolombia":7788,".)":7789,"medi":7790,"Ġtear":7791,"Ġdrast":7792,"Ġrevers":7793,"Ġgard":7794,"Ġsoc":7795,"Ġcoinc":7796,"Ġrarely":7797,"Ġfragment":7798,"Ġfinds":7799,"Ġprogressive":7800,"Ġstudied":7801,"Ġresponded":7802,"Ġausterity":7803,"Ġreminded":7804,"Ġrevenues":7805,"Ġcomponents":7806,"fourthly":7807,"Ġirregularities":7808,"sad":7809,"view":7810,"Ġbond":7811,"Ġegg":7812,"Ġutil":7813,"Ġenrich":7814,"Ġrevol":7815,"Ġthoughts":7816,"201":7817,"Ġsunday":7818,"Ġtreas":7819,"Ã³n":7820,"osyste":7821,"ship":7822,"ani":7823,"Ġbreed":7824,"Ġelig":7825,"stan":7826,"cture":7827,"Ġgest":7828,"Ġgaps":7829,"ids":7830,"ami":7831,"Ġorgans":7832,"ocal":7833,"Ġworker":7834,"iously":7835,"Ġpolicymakers":7836,"ollah":7837,"Ġsmoke":7838,"Ġfindings":7839,"Ġdepos":7840,"Ġprocedural":7841,"ofuel":7842,"Ġvolat":7843,"Ġconsultations":7844,"Ġharmonised":7845,"Ġconsistency":7846,"Ġfinger":7847,"Ġaspirations":7848,"Ġconversation":7849,"Ġsmooth":7850,"Ġartificial":7851,"Ġmonitored":7852,"ustainable":7853,"fire":7854,"wish":7855,"isen":7856,"Ġband":7857,"Ġmira":7858,"sein":7859,"Ġnobel":7860,"whatever":7861,"Ġruled":7862,"Ġ1991":7863,"something":7864,"Ġpaul":7865,"Ġisraelis":7866,"Ġecosyste":7867,"Ġmeaningful":7868,"Ġpoorer":7869,"Ġ1960":7870,"Ġadults":7871,"Ġsuicide":7872,"Ġsupreme":7873,"Ġdatab":7874,"bun":7875,"inent":7876,"Ġmun":7877,"stone":7878,"Ġlam":7879,"several":7880,"rence":7881,"Ġnationalism":7882,"Ġdemocratically":7883,"Ġmoments":7884,"Ġdevice":7885,"Ġdefinitive":7886,"Ġrobust":7887,"Ġgradual":7888,"Ġfavorite":7889,"hard":7890,"vic":7891,"Ġdear":7892,"Ġatom":7893,"ifor":7894,"Ġgoogle":7895,"Ġbran":7896,"Ġbacked":7897,"Ġsocially":7898,"Ġescal":7899,"Ġhomework":7900,"Ġcheaper":7901,"Ġcalm":7902,"Ġdimensions":7903,"prof":7904,"Ġinvestigations":7905,"Ġgalileo":7906,"Ġparadox":7907,"Ġsimultane":7908,"Ġdemonstration":7909,"Ġalde":7910,"fif":7911,"had":7912,"rass":7913,"Ġske":7914,"Ġcath":7915,"ancies":7916,"essions":7917,"Ġnomin":7918,"Ġlingu":7919,"Ġconcessions":7920,"quar":7921,"Ġrub":7922,"agger":7923,"Ġspecul":7924,"Ġboat":7925,"Ġboys":7926,"Ġassurance":7927,"Ġformally":7928,"lessly":7929,"Ġcriter":7930,"Ġhoping":7931,"Ġoccupied":7932,"Ġdisappeared":7933,"Ġhussein":7934,"Ġemotional":7935,"Ġperceived":7936,"five":7937,"gs":7938,"Ġcart":7939,"Ġinappropriate":7940,"Ġbearing":7941,"Ġchances":7942,"outs":7943,"igation":7944,"Ġappla":7945,"Ġarctic":7946,"Ġherself":7947,"Ġedge":7948,"Ġexisted":7949,"Ġpreventive":7950,"Ġzones":7951,"Ġveto":7952,"Ġrobot":7953,"Ġteams":7954,"Ġdreams":7955,"Ġcontradiction":7956,"Ġlawyer":7957,"Ġcriterion":7958,"cor":7959,"fund":7960,"taking":7961,"Ġcards":7962,"Ġbird":7963,"Ġdish":7964,"Ġrice":7965,"Ġresign":7966,"Ġconsists":7967,"Ġinvented":7968,"Ġscore":7969,"Ġtribun":7970,"Ġthreatening":7971,"Ġbiofuel":7972,"certainly":7973,"Ġadapted":7974,"Ġincorporate":7975,"Ġmortg":7976,"Ġadequately":7977,"isc":7978,"enko":7979,"icks":7980,"Ġug":7981,"olic":7982,"Ġenabled":7983,"Ġimpressive":7984,"Ġdisabilities":7985,"Ġoutlined":7986,"Ġposes":7987,"Ġnowhere":7988,"Ġmothers":7989,"Ġgenes":7990,"Ġending":7991,"icially":7992,"Ġcapabilities":7993,"Ġideology":7994,"Ġhandling":7995,"Ġbarack":7996,"Ġstatistical":7997,"Ġmomentum":7998,"ugen":7999,"Ġverhe":8000,"Ġchancellor":8001,"ika":8002,"Ġsimplified":8003,"Ġexplanations":8004,"Ġsymbolic":8005,"Ġdecentral":8006,"Ġregistration":8007,"Ġevaluate":8008,"Ġenthusiasm":8009,"global":8010,"Ġpoc":8011,"Ġfilled":8012,"Ġreme":8013,"irt":8014,"ode":8015,"coni":8016,"uming":8017,"Ġcompli":8018,"Ġcomposition":8019,"Ġappointed":8020,"oked":8021,"Ġperiph":8022,"Ġ195":8023,"Ġregulators":8024,"Ġburdens":8025,"Ġprogramming":8026,"Ġcypri":8027,"Ġdimin":8028,"Ġconvincing":8029,"Ġexploit":8030,"interest":8031,"lusive":8032,"Ġphrase":8033,"Ġxenophobia":8034,"Ġtransfers":8035,"Ġprecautionary":8036,"Ġverheugen":8037,"give":8038,"mind":8039,"Ġpit":8040,"stat":8041,"Ġshoot":8042,"ourse":8043,"Ġarising":8044,"Ġhole":8045,"Ġwished":8046,"Ġseconds":8047,"Ġborne":8048,"Ġimagination":8049,"Ġreinforced":8050,"Ġparagraphs":8051,"Ġcustomers":8052,"Ġcruel":8053,"Ġtendency":8054,"Ġelectorate":8055,"Ġsurvey":8056,"Ġpursuant":8057,"Ġscarce":8058,"Ġreputation":8059,"Ġapplaud":8060,"far":8061,"hr":8062,"met":8063,"uously":8064,"Ġtac":8065,"Ġtail":8066,"Ġtheme":8067,"Ġmath":8068,"apart":8069,"Ġcompare":8070,"india":8071,"Ġinteract":8072,"Ġscene":8073,"Ġmainstream":8074,"Ġpromising":8075,"Ġpersonnel":8076,"Ġbrothers":8077,"Ġdriver":8078,"Ġinnovations":8079,"everybody":8080,"incre":8081,"Ġbelongs":8082,"Ġembrace":8083,"hab":8084,"pens":8085,"za":8086,"Ġtor":8087,"urg":8088,"mple":8089,"Ġexemp":8090,"Ġchile":8091,"Ġkurd":8092,"Ġpossess":8093,"stein":8094,"iann":8095,"Ġpride":8096,"Ġdepl":8097,"Ġrestaur":8098,"Ġrussians":8099,"Ġfailures":8100,"Ġliberalization":8101,"Ġdestabil":8102,"Ġrecommended":8103,"Ġpaint":8104,"Ġmalta":8105,"Ġinherent":8106,"Ġhotel":8107,"Ġpsychological":8108,"Ġundermined":8109,"keeping":8110,"Ġrandom":8111,"Ġhesit":8112,"Ġbarely":8113,"Ġrecycling":8114,"Ġpropaganda":8115,"Ġprerequisite":8116,"Ġreaffirm":8117,"bby":8118,"iov":8119,"Ġdress":8120,"Ġdrought":8121,"Ġeib":8122,"Ġstric":8123,"unte":8124,"Ġresidence":8125,"def":8126,"Ġarmen":8127,"Ġcouncils":8128,"Ġtrained":8129,"Ġinvitation":8130,"Ġcontinuation":8131,"Ġsystematically":8132,"Ġbrill":8133,"chnology":8134,"next":8135,"Ġformed":8136,"tenance":8137,"Ġsheep":8138,"ovina":8139,"Ġthreaten":8140,"Ġveter":8141,"likewise":8142,"Ġresponding":8143,"Ġfulfilled":8144,"Ġspreading":8145,"holm":8146,"kyo":8147,"Ġdublin":8148,"high":8149,"Ġtiss":8150,"Ġase":8151,"Ġtokyo":8152,"still":8153,"oty":8154,"consider":8155,"Ġshouldn":8156,"Ġplus":8157,"Ġmyth":8158,"Ġconscience":8159,"Ġnewly":8160,"Ġpolitician":8161,"Ġproducer":8162,"Ġbases":8163,"Ġdesired":8164,"Ġassumed":8165,"comes":8166,"Ġrecognises":8167,"Ġfright":8168,"Ġtopics":8169,"Ġrailways":8170,"Ġpillars":8171,"Ġseverely":8172,"Ġfoster":8173,"Ġinequalities":8174,"Ġjurisdiction":8175,"ek":8176,"great":8177,"tal":8178,"Ġcake":8179,"Ġbact":8180,"seen":8181,"Ġsums":8182,"opia":8183,"ander":8184,"Ġrum":8185,"âĢĻ,":8186,"forward":8187,"text":8188,"Ġprede":8189,"Ġrecital":8190,"Ġprud":8191,"Ġinterrupt":8192,"Ġsigning":8193,"Ġmaintenance":8194,"Ġimmunity":8195,"Ġdemanded":8196,"Ġcamps":8197,"Ġbreakthrough":8198,"Ġfederation":8199,"Ġdegrees":8200,"Ġprecedent":8201,"Ġmcc":8202,"Ġmixed":8203,"Ġalarming":8204,"Ġmultiple":8205,"Ġdropped":8206,"sector":8207,"Ġprofessor":8208,"Ġirresponsible":8209,"25":8210,"ss":8211,"wood":8212,"Ġliv":8213,"Ġupper":8214,"olved":8215,"Ġunex":8216,"Ġring":8217,"Ġrepair":8218,"Ġnowadays":8219,"Ġperception":8220,"Ġaccus":8221,"ologists":8222,"Ġadvent":8223,"Ġinitiated":8224,"Ġcaut":8225,"Ġmisle":8226,"ugabe":8227,"Ġjudges":8228,"Ġtension":8229,"rophe":8230,"Ġmalaria":8231,"Ġboundaries":8232,"Ġinjured":8233,"Ġindispens":8234,"Ġdavid":8235,"Ġhazardous":8236,"kind":8237,"writ":8238,"Ġsomal":8239,"Ġcau":8240,"Ġhate":8241,"Ġreb":8242,"Ġunits":8243,"Ġours":8244,"Ġadh":8245,"Ġpregn":8246,"Ġspeculation":8247,"anger":8248,"Ġproduces":8249,"Ġrefusal":8250,"Ġdesert":8251,"Ġsixth":8252,"Ġbiology":8253,"Ġageing":8254,"Ġseparation":8255,"Ġtackled":8256,"Ġpushing":8257,"Ġgalax":8258,"Ġshoes":8259,"Ġalike":8260,"Ġremedy":8261,"Ġdioxide":8262,"ipped":8263,"invest":8264,"Ġowe":8265,"Ġble":8266,"roph":8267,"Ġwear":8268,"Ġstagn":8269,"Ġseas":8270,"Ġvague":8271,"Ġresumed":8272,"akh":8273,"ford":8274,"forest":8275,"Ġdeciding":8276,"Ġgoverned":8277,"Ġamending":8278,"Ġattitudes":8279,"working":8280,"Ġglobally":8281,"Ġrespecting":8282,"Ġgrants":8283,"Ġapproaching":8284,"Ġcontributes":8285,"Ġlocated":8286,"Ġencourages":8287,"Ġvolunte":8288,"Ġtotalitarian":8289,"Ġchaos":8290,"Ġauthorisation":8291,"Ġfreight":8292,"Ġphysics":8293,"Ġtouched":8294,"Ġokay":8295,"Ġfrankly":8296,"Ġscheduled":8297,"Ġbrutal":8298,"Ġindispensable":8299,"vation":8300,"Ġath":8301,"intern":8302,"aker":8303,"Ġreperc":8304,"rend":8305,"Ġmyster":8306,"Ġincidents":8307,"Ġteeth":8308,"okay":8309,"Ġobjects":8310,"compet":8311,"Ġsincere":8312,"Ġcontrolling":8313,"Ġdiam":8314,"Ġcooperative":8315,"Ġexpanding":8316,"Ġbirthday":8317,"Ġconfronted":8318,"Ġvenezuela":8319,"Ġstupid":8320,"aire":8321,"Ġstuck":8322,"open":8323,"ifiable":8324,"tell":8325,"Ġsympt":8326,"Ġsecuring":8327,"gged":8328,"Ġaccountable":8329,"Ġpacific":8330,"Ġweaken":8331,"Ġdamaged":8332,"Ġexamining":8333,"consist":8334,"Ġcatastrophe":8335,"Ġdarfur":8336,"Ġoxy":8337,"depth":8338,"Ġpipeline":8339,"Ġalgeria":8340,"Ġepidemic":8341,"Ġrepercussions":8342,"tion":8343,"vable":8344,"Ġsoph":8345,"eness":8346,"Ġhars":8347,"icate":8348,"Ġweigh":8349,"Ġstorm":8350,"Ġmel":8351,"lib":8352,"lls":8353,"Ġrose":8354,"archy":8355,"Ġensured":8356,"Ġvienna":8357,"Ġurged":8358,"Ġexplore":8359,"century":8360,"Ġconsequently":8361,"Ġfocuses":8362,"Ġbright":8363,"Ġpreferred":8364,"Ġtowns":8365,"Ġaggressive":8366,"Ġexemption":8367,"Ġlawyers":8368,"ell":8369,"nger":8370,"inform":8371,"Ġsli":8372,"eded":8373,"pel":8374,"ola":8375,"Ġrating":8376,"umes":8377,"osevic":8378,"Ġinvasion":8379,"Ġempire":8380,"Ġsolana":8381,"emed":8382,"Ġpatten":8383,"Ġtransportation":8384,"ngl":8385,"Ġsla":8386,"ergies":8387,"Ġbreaking":8388,"Ġ2015":8389,"Ġdevices":8390,"Ġsenti":8391,"roportion":8392,"Ġsafeguards":8393,"Ġexclusive":8394,"Ġfloods":8395,"Ġannouncement":8396,"Ġslovenia":8397,"Ġhorizont":8398,"terrorism":8399,"Ġmarriage":8400,"author":8401,"Ġlinguistic":8402,"Ġbrilliant":8403,"zeg":8404,"Ġnerv":8405,"Ġloud":8406,"owered":8407,"Ġyounger":8408,"Ġunres":8409,"acing":8410,"ieth":8411,"Ġmanagers":8412,"Ġopens":8413,"iciency":8414,"Ġcapita":8415,"Ġtrials":8416,"Ġaddresses":8417,"Ġdetention":8418,"Ġweekend":8419,"Ġstrive":8420,"Ġjewish":8421,"Ġcomplaint":8422,"Ġtransferred":8423,"Ġabolished":8424,"Ġadaptation":8425,"Ġdisplaced":8426,"Ġembarrass":8427,"welve":8428,"Ġfischler":8429,"Ġpesticides":8430,"Ġsecurities":8431,"eas":8432,"Ġoh":8433,"Ġtoys":8434,"Ġhu":8435,"omed":8436,"Ġforb":8437,"Ġshock":8438,"ested":8439,"llow":8440,"Ġappalling":8441,"Ġlift":8442,"oval":8443,"Ġemergence":8444,"Ġreturns":8445,"class":8446,"Ġclarified":8447,"Ġconcentrated":8448,"Ġwitnessed":8449,"Ġdevastating":8450,"Ġbubble":8451,"Ġacademic":8452,"iannual":8453,"bus":8454,"fl":8455,"Ġdelicate":8456,"unk":8457,"Ġacute":8458,"tex":8459,"Ġsupporters":8460,"Ġrelax":8461,"Ġentail":8462,"Ġcorre":8463,"Ġunderstands":8464,"Ġsubjected":8465,"Ġartists":8466,"Ġavailability":8467,"Ġpackaging":8468,"Ġindicates":8469,"prot":8470,"Ġdelegations":8471,"Ġattempted":8472,"Ġdistinct":8473,"Ġrigorous":8474,"Ġpursuit":8475,"Ġcolonial":8476,"Ġshipping":8477,"remlin":8478,"zegovina":8479,"11":8480,"case":8481,"ipp":8482,"mother":8483,"tail":8484,"Ġtone":8485,"Ġpap":8486,"Ġna":8487,"Ġiv":8488,"Ġgue":8489,"Ġgmos":8490,"quite":8491,"Ġintim":8492,"Ġdisse":8493,"Ġoutcomes":8494,"Ġincur":8495,"Ġremit":8496,"Ġgene":8497,"rats":8498,"Ġtrigg":8499,"Ġvisas":8500,"strÃ¶":8501,"Ġweaker":8502,"Ġclosure":8503,"Ġsanter":8504,"Ġarrangement":8505,"Ġattempting":8506,"Ġsafeguarding":8507,"Ġadvocates":8508,"Ġconstituency":8509,"Ġembargo":8510,"Ġinfringement":8511,"Ġstringent":8512,"Ġcambod":8513,"Ġnervous":8514,"strÃ¶m":8515,"ige":8516,"Ãł":8517,"Ġcig":8518,"orously":8519,"Ġmugabe":8520,"ura":8521,"Ġstone":8522,"Ġleague":8523,"mbered":8524,"Ġresidents":8525,"Ġkremlin":8526,"conc":8527,"Ġextract":8528,"Ġdepending":8529,"Ġbench":8530,"Ġlimiting":8531,"Ġretail":8532,"Ġdeclining":8533,"Ġverts":8534,"Ġbitter":8535,"Ġpressures":8536,"Ġpunished":8537,"Ġvirtual":8538,"true":8539,"Ġdedicated":8540,"Ġscreen":8541,"Ġseventh":8542,"Ġaston":8543,"Ġneutral":8544,"Ġdossier":8545,"Ġenshrined":8546,"Ġstricter":8547,"mail":8548,"Ġau":8549,"inct":8550,"atom":8551,"Ġdare":8552,"ille":8553,"rific":8554,"Ġunified":8555,"oper":8556,"amount":8557,"Ġjac":8558,"osexual":8559,"Ġroth":8560,"Ġpointing":8561,"Ġproblematic":8562,"Ġshortage":8563,"Ġflour":8564,"Ġcharged":8565,"Ġtested":8566,"Ġdisproportion":8567,"Ġlimitations":8568,"Ġacquire":8569,"Ġabolish":8570,"Ġnewspapers":8571,"Ġhalt":8572,"Ġneighborhood":8573,"Ġenvisaged":8574,"Ġpragmatic":8575,"Ġdistinguish":8576,"Ġconvey":8577,"friendly":8578,"Ġbrown":8579,"Ġingredients":8580,"rition":8581,"yn":8582,"Ġsin":8583,"energy":8584,"order":8585,"aled":8586,"icious":8587,"esty":8588,"Ġarises":8589,"Ġremoval":8590,"Ġentails":8591,"Ġguine":8592,"Ġsuppose":8593,"Ġ48":8594,"afric":8595,"Ġfunny":8596,"Ġmultiannual":8597,"Ġconnections":8598,"Ġstresses":8599,"Ġethi":8600,"Ġsensit":8601,"ridge":8602,"Ġpurchasing":8603,"Ġclinton":8604,"Ġdeprived":8605,"Ġhydrogen":8606,"minded":8607,"Ġcaucas":8608,"bollah":8609,"lock":8610,"Ġwond":8611,"Ġpand":8612,"anes":8613,"Ġmissions":8614,"Ġster":8615,"rig":8616,"Ġunrest":8617,"Ġju":8618,"Ġdisregard":8619,"forcing":8620,"Ġtimor":8621,"agon":8622,"uber":8623,"Ġtransmission":8624,"Ġexpecting":8625,"Ġlibrary":8626,"financing":8627,"Ġcaution":8628,"Ġchallenging":8629,"Ġmassac":8630,"Ġavoiding":8631,"Ġsatisfy":8632,"Ġcriticised":8633,"Ġcollected":8634,"Ġmedicinal":8635,"Ġseekers":8636,"willing":8637,"Ġunsatisf":8638,"Ġquantities":8639,"Ġmagic":8640,"Ġtranslate":8641,"icycle":8642,"Ġunusual":8643,"aci":8644,"iest":8645,"Ġbid":8646,"Ġmi":8647,"Ġinconsist":8648,"Ġdual":8649,"Ġunknown":8650,"unless":8651,"istribut":8652,"Ġride":8653,"dec":8654,"load":8655,"seless":8656,"Ġfactory":8657,"ludes":8658,"Ġinfl":8659,"Ġhanded":8660,"Ġestonia":8661,"Ġ36":8662,"Ġclothes":8663,"Ġrisky":8664,"Ġ65":8665,"Ġcontaining":8666,"Ġbiote":8667,"Ġrevolutionary":8668,"Ġacquired":8669,"Ġpurchase":8670,"Ġregistered":8671,"Ġdecrease":8672,"Ġpostponed":8673,"Ġwholeheartedly":8674,"Ġgarden":8675,"!\"":8676,"199":8677,"was":8678,"Ġhind":8679,"Ġbeach":8680,"Ġgiant":8681,"Ġstyle":8682,"Ġexert":8683,"depend":8684,"agement":8685,"ordan":8686,"Ġconfused":8687,"Ġinteraction":8688,"Ġinterconnect":8689,"Ġ32":8690,"Ġslaughter":8691,"Ġidentical":8692,"Ġexcited":8693,"Ġstriking":8694,"Ġrecords":8695,"Ġmerkel":8696,"Ġtuna":8697,"Ġwithdrawn":8698,"Ġconsolidate":8699,"Ġexpanded":8700,"Ġstabilisation":8701,"democracy":8702,"Ġdisadvantage":8703,"Ġevolved":8704,"viol":8705,"Ġfabric":8706,"15":8707,"aust":8708,"mits":8709,"Ġbunch":8710,"oral":8711,"Ġfro":8712,"Ġdile":8713,"Ġalter":8714,"quest":8715,"Ġincap":8716,"Ġunderway":8717,"Ġguant":8718,"teneg":8719,"Ġcivilization":8720,"Ġassessing":8721,"Ġweakened":8722,"gener":8723,"Ġoccurs":8724,"Ġstockholm":8725,"Ġoptimism":8726,"Ġcelebrate":8727,"Ġdisadvantaged":8728,"Ġodd":8729,"Ġindirectly":8730,"Ġinterpreted":8731,"Ġunequiv":8732,"Ġlandscape":8733,"imagine":8734,"Ġkurdish":8735,"Ġpredecess":8736,"Ġax":8737,"Ġtherap":8738,"Ġmu":8739,"Ġanger":8740,"Ġdiction":8741,"Ġgraph":8742,"Ġunwilling":8743,"oren":8744,"unlike":8745,"estock":8746,"Ġusd":8747,"Ġexpenses":8748,"Ġapple":8749,"Ġconfirms":8750,"Ġsecre":8751,"Ġentertain":8752,"Ġdistant":8753,"Ġprivacy":8754,"Ġlatvia":8755,"Ġworthwhile":8756,"Ġstayed":8757,"Ġcattle":8758,"Ġfeeding":8759,"Ġstruggling":8760,"Ġdominated":8761,"Ġexclude":8762,"Ġecofin":8763,"Ġfantastic":8764,"Ġholiday":8765,"Ġdisarmament":8766,"Ġlivestock":8767,"Ġharsh":8768,"aeda":8769,"bles":8770,"cks":8771,"due":8772,"ole":8773,"uum":8774,"vens":8775,"Ġthirty":8776,"inations":8777,"Ġbay":8778,"arians":8779,"Ġwearing":8780,"Ġstret":8781,"ounter":8782,"Ġabund":8783,"inki":8784,"Ġwanting":8785,"Ġcountryside":8786,"Ġassumption":8787,"Ġmilosevic":8788,"Ġfoodstuffs":8789,"Ġpromotes":8790,"Ġthreatens":8791,"Ġburning":8792,"Ġtopical":8793,"Ġreviewed":8794,"Ġembry":8795,"Ġembark":8796,"Ġdelivery":8797,"Ġguidance":8798,"Ã¡n":8799,"Ġdestroying":8800,"Ġinspection":8801,"Ġundermining":8802,"Ġweaknesses":8803,"Ġcopyright":8804,"Ġvocational":8805,"Ġtechniques":8806,"oriented":8807,"lad":8808,"Ġcoc":8809,"Ġpages":8810,"Ġconj":8811,"rained":8812,"Ġasks":8813,"Ġunst":8814,"une":8815,"Ġenact":8816,"Ġlev":8817,"Ġchose":8818,"Ġrw":8819,"Ġofficially":8820,"Ġrequiring":8821,"Ġmah":8822,"ructive":8823,"lessness":8824,"Ġhandled":8825,"Ġinsult":8826,"Ġsuccesses":8827,"Ġactivists":8828,"Ġdomain":8829,"Ġposts":8830,"Ġethics":8831,"policy":8832,"Ġjews":8833,"Ġtypically":8834,"Ġsettled":8835,"Ġblocked":8836,"Ġiceland":8837,"Ġcorrespond":8838,"Ġconfrontation":8839,"Ġdesperate":8840,"Ġfeasible":8841,"Ġunderpin":8842,"discrimination":8843,"Ġhorizontal":8844,"Ġdilemm":8845,"big":8846,"others":8847,"ĠbÃ¶":8848,"aran":8849,"Ġdry":8850,"ica":8851,"icism":8852,"Ġstamp":8853,"cile":8854,"âĢľ":8855,"Ġjar":8856,"Ġdirections":8857,"Ġaffirm":8858,"Ġ600":8859,"Ġmodernisation":8860,"Ġharmonise":8861,"Ġsubstantive":8862,"Ġsupposedly":8863,"Ġadjustments":8864,"Ġdelivering":8865,"grace":8866,"Ġroutes":8867,"Ġmagaz":8868,"Ġreturning":8869,"aids":8870,"Ġcorresponding":8871,"Ġschedule":8872,"Ġromanian":8873,"respective":8874,"Ġsuspicion":8875,"Ġutterly":8876,"Ġsimultaneously":8877,"Ġbiofuels":8878,"cultural":8879,"father":8880,"lades":8881,"sinki":8882,"Ġinject":8883,"Ġeager":8884,"Ġhague":8885,"Ġunclear":8886,"Ġwasted":8887,"Ġpretext":8888,"health":8889,"Ġlegs":8890,"Ġhelsinki":8891,"Ġscan":8892,"Ġafterwards":8893,"Ġartist":8894,"Ġintegral":8895,"Ġsoul":8896,"Ġlacks":8897,"Ġemphasize":8898,"Ġ95":8899,"Ġplacing":8900,"Ġratio":8901,"Ġillegally":8902,"Ġdisappointing":8903,"Ġadvocated":8904,"Ġsymbols":8905,"Ġquantity":8906,"Ġstraightforward":8907,"Ġthrown":8908,"Ġmotivated":8909,"Ġpluralism":8910,"Ġofficers":8911,"Ġorientation":8912,"Ġridiculous":8913,"cend":8914,"zing":8915,"Ġtill":8916,"Ġtheore":8917,"anas":8918,"Ġhed":8919,"Ġgases":8920,"Ġprolong":8921,"Ġprominent":8922,"Ġshr":8923,"Ġjail":8924,"Ġuser":8925,"Ġworkforce":8926,"Ġproves":8927,"Ġmines":8928,"Ġattribut":8929,"Ġauthors":8930,"Ġrestored":8931,"Ġpersonality":8932,"Ġpatents":8933,"Ġdivisions":8934,"front":8935,"Ġexploited":8936,"Ġhungry":8937,"Ġharvest":8938,"Ġdeparture":8939,"ariat":8940,"Ġawait":8941,"Ġfranc":8942,"negoti":8943,"Ġmonopolies":8944,"Ġatomic":8945,"Ġcigaret":8946,"east":8947,"gain":8948,"net":8949,"sl":8950,"vention":8951,"enous":8952,"alistic":8953,"Ġcancell":8954,"Ġshoulder":8955,"six":8956,"Ġmonti":8957,"Ġpron":8958,"Ġdeflation":8959,"Ġ1930":8960,"Ġearmark":8961,"Ġsecondary":8962,"Ġprofitable":8963,"Ġinex":8964,"Ġdeadlines":8965,"Ġfrontiers":8966,"Ġmerit":8967,"tax":8968,"Ġfacilitating":8969,"Ġinfected":8970,"Ġcatastroph":8971,"palest":8972,"Ġukrainian":8973,"ifornia":8974,"Ġcaucasus":8975,"dr":8976,"Ġmas":8977,"ione":8978,"Ġdrew":8979,"Ġmep":8980,"Ġunt":8981,"este":8982,"ests":8983,"Ġenforced":8984,"Ġtempt":8985,"Ġloan":8986,"Ġtwent":8987,"athers":8988,"Ġfinancially":8989,"Ġassass":8990,"Ġflowers":8991,"Ġresolute":8992,"Ġscientist":8993,"account":8994,"Ġdivor":8995,"Ġpolls":8996,"Ġbrave":8997,"Ġdictator":8998,"Ġdisappointment":8999,"Ġeliminating":9000,"Ġinspections":9001,"Ġalien":9002,"Ġcrying":9003,"Ġdisparities":9004,"Ġbeneficiaries":9005,"quarters":9006,"Ġbacteria":9007,"liberal":9008,"protect":9009,"Ġguinea":9010,"sah":9011,"top":9012,"yan":9013,"Ġmush":9014,"Ġdance":9015,"Ġaltogether":9016,"Ġjordan":9017,"Ġcontra":9018,"Ġpeak":9019,"sile":9020,"Ġpermission":9021,"Ġtreating":9022,"Ġintermedi":9023,"Ġglobe":9024,"Ġbenefited":9025,"Ġairpl":9026,"Ġambass":9027,"Ġgeopol":9028,"Ġattacked":9029,"Ġdiet":9030,"Ġwondering":9031,"Ġcriticisms":9032,"Ġappreciated":9033,"proliferation":9034,"Ġforestry":9035,"Ġineffective":9036,"Ġpersecution":9037,"Ġtribunal":9038,"tenegro":9039,"bra":9040,"ranging":9041,"Ġtab":9042,"Ġtwelve":9043,"inf":9044,"oness":9045,"Ġpy":9046,"Ġpump":9047,"Ġpuzz":9048,"Ġba":9049,"Ġdil":9050,"rot":9051,"leted":9052,"Ġlap":9053,"raf":9054,"Ġunch":9055,"Ġpartial":9056,"Ġplastic":9057,"Ġdisgrace":9058,"Ġcoins":9059,"Ġcoexist":9060,"Ġtransnational":9061,"Ġmining":9062,"article":9063,"Ġforesee":9064,"Ġlifel":9065,"Ġsurger":9066,"germany":9067,"Ġpatience":9068,"Ġmerits":9069,"Ġprofessionals":9070,"lusconi":9071,"Ġexecution":9072,"Ġcorporations":9073,"Ġspectac":9074,"sighted":9075,"Ġhatred":9076,"Ġunsatisfactory":9077,"fra":9078,"ius":9079,"mary":9080,"Å¡":9081,"inating":9082,"inery":9083,"Ġeg":9084,"thetic":9085,"liers":9086,"Ġabortion":9087,"apore":9088,"ago":9089,"Ġprest":9090,"Ġindiff":9091,"Ġcurious":9092,"Ġcontinually":9093,"ictions":9094,"belie":9095,"Ġdownturn":9096,"Ġsimpler":9097,"Ġadvisory":9098,"ibi":9099,"Ġlisted":9100,"Ġcoordinating":9101,"Ġclauses":9102,"Ġpreparatory":9103,"Ġpredicted":9104,"Ġtransformed":9105,"Ġaffordable":9106,"Ġegyptian":9107,"Ġremoving":9108,"Ġkenya":9109,"Ġgratitude":9110,"Ġmisleading":9111,"saharan":9112,"gments":9113,"yer":9114,"Ġtong":9115,"integ":9116,"atri":9117,"Ġpup":9118,"anium":9119,"ulates":9120,"Ġshocked":9121,"Ġexhib":9122,"Ġleap":9123,"ometers":9124,"Ġkinn":9125,"Ġworkplace":9126,"Ġinclusive":9127,"whilst":9128,"Ġloyal":9129,"Ġclash":9130,"Ġconfined":9131,"Ġnationalist":9132,"Ġwarned":9133,"Ġaiming":9134,"Ġslide":9135,"Ġchoosing":9136,"Ġjudged":9137,"Ġmistaken":9138,"Ġclasses":9139,"Ġrobert":9140,"Ġpanel":9141,"Ġeliminated":9142,"Ġbalkan":9143,"Ġtolerate":9144,"onym":9145,"Ġinterfere":9146,"Ġmortality":9147,"Ġawaiting":9148,"Ġbanglades":9149,"Ġsubscri":9150,"Ġfrontex":9151,"Ġtsun":9152,"Ġkinnock":9153,"40":9154,"cc":9155,"fold":9156,"wer":9157,"Ġtum":9158,"Ġpin":9159,"rol":9160,"Ġlikewise":9161,"Ġregain":9162,"Ġincomp":9163,"Ġclimb":9164,"Ġchildhood":9165,"Ġestimate":9166,"Ġdemocratisation":9167,"Ġcompletion":9168,"Ġpoison":9169,"Ġfounding":9170,"priv":9171,"Ġclothing":9172,"Ġsummar":9173,"made":9174,"employed":9175,"Ġgravity":9176,"Ġjudici":9177,"Ġfairness":9178,"Ġskill":9179,"regional":9180,"Ġsecretariat":9181,"Ġsalary":9182,"Ġensures":9183,"Ġbrains":9184,"umph":9185,"Ġwalls":9186,"Ġreactions":9187,"Ġincorrect":9188,"Ġorders":9189,"Ġyellow":9190,"productive":9191,"against":9192,"Ġliquid":9193,"Ġmartin":9194,"Ġtampe":9195,"prom":9196,"var":9197,"Ġtries":9198,"Ġsends":9199,"Ġcure":9200,"ano":9201,"Ġnative":9202,"vez":9203,"Ġgang":9204,"Ġweren":9205,"Ġstrain":9206,"Ġproliferation":9207,"iran":9208,"ounted":9209,"Ġshocks":9210,"Ġchern":9211,"Ġissuing":9212,"Ġroles":9213,"ords":9214,"Ġpublication":9215,"Ġdesk":9216,"Ġ1950":9217,"Ġformulated":9218,"airy":9219,"Ġsections":9220,"Ġsurge":9221,"Ġparticipated":9222,"Ġassessed":9223,"Ġpoorly":9224,"Ġsuperf":9225,"Ġgaining":9226,"preh":9227,"Ġrelevance":9228,"Ġdegrad":9229,"Ġignor":9230,"Ġcommerce":9231,"accordingly":9232,"Ġfulfilling":9233,"Ġdogs":9234,"Ġhomosexual":9235,"Ġautomatic":9236,"party":9237,"Ġbombs":9238,"Ġyemen":9239,"Ġshopping":9240,"Ġpremium":9241,"Ġselected":9242,"Ġminimal":9243,"Ġcontradictory":9244,"Ġtravelling":9245,"current":9246,"Ġsubstitute":9247,"cot":9248,"gent":9249,"list":9250,"west":9251,"Ġpian":9252,"Ġinsight":9253,"ala":9254,"Ġgift":9255,"ider":9256,"Ġallev":9257,"Ġmeal":9258,"antic":9259,"Ġkick":9260,"Ġ120":9261,"Ġoutrage":9262,"Ġuphe":9263,"Ġlobb":9264,"Ġclim":9265,"Ġrulers":9266,"Ġobjection":9267,"Ġpool":9268,"Ġgermans":9269,"Ġze":9270,"justice":9271,"Ġcompetitors":9272,"Ġwinning":9273,"mediterranean":9274,"Ġsadly":9275,"Ġreferences":9276,"Ġcharacterised":9277,"Ġberlusconi":9278,"Ġengineers":9279,"Ġfrequent":9280,"Ġpremature":9281,"Ġconstituents":9282,"Ġsharply":9283,"Ġlucky":9284,"Ġcapture":9285,"Ġvacuum":9286,"Ġanxious":9287,"Ġtariffs":9288,"Ġventure":9289,"Ġarbitrary":9290,"Ġmichel":9291,"initiative":9292,"Ġrestaurant":9293,"Ġcautious":9294,"international":9295,"Ġoxygen":9296,"Ġintimid":9297,"Ġdictionary":9298,"ker":9299,"pan":9300,"zbollah":9301,"Ġtag":9302,"Ġscept":9303,"Ġbicycle":9304,"Ġdread":9305,"Ġally":9306,"Ġunamb":9307,"Ġleh":9308,"Ġjoy":9309,"Ġindig":9310,"iped":9311,"Ġdiscovery":9312,"Ġsmugg":9313,"Ġbehave":9314,"Ġsectoral":9315,"Ġfloren":9316,"cope":9317,"Ġredistribut":9318,"Ġcalifornia":9319,"Ġjean":9320,"Ġfooting":9321,"Ġcompensate":9322,"Ġpreference":9323,"Ġautonomous":9324,"Ġduplic":9325,"Ġchicken":9326,"Ġvigilant":9327,"concern":9328,"Ġincapable":9329,"Ġtwentieth":9330,"Ġjudiciary":9331,"ja":9332,"lause":9333,"va":9334,"Ġly":9335,"Ġtied":9336,"real":9337,"Ġbio":9338,"Ġfur":9339,"Ġinability":9340,"Ġdal":9341,"Ġdad":9342,"Ġdairy":9343,"Ġneo":9344,"Ġenergies":9345,"defin":9346,"Ġappoint":9347,"Ġnationality":9348,"obyl":9349,"surely":9350,"emies":9351,"Ġgotten":9352,"Ġministerial":9353,"Ġmorator":9354,"Ġpositively":9355,"ervation":9356,"Ġobsc":9357,"Ġmetaph":9358,"Ġcapacities":9359,"Ġ250":9360,"Ġinfrastructures":9361,"Ġwealthy":9362,"Ġbarrier":9363,"Ġinspectors":9364,"backs":9365,"Ġreassure":9366,"Ġodds":9367,"Ġinterference":9368,"Ġprivilege":9369,"recently":9370,"Ġstalin":9371,"Ġcompliment":9372,"Ġtampere":9373,"Ġchernobyl":9374,"gi":9375,"half":9376,"iety":9377,"oned":9378,"Ġfrat":9379,"oup":9380,"educ":9381,"icing":9382,"Ġgrain":9383,"Ġumb":9384,"ima":9385,"cif":9386,"ams":9387,"Ġjoke":9388,"Ġkitch":9389,"Ġintr":9390,"about":9391,"Ġcomplied":9392,"Ġrecruit":9393,"Ġmadrid":9394,"Ġroof":9395,"Ġfacto":9396,"Ġattended":9397,"uclear":9398,"Ġcritics":9399,"Ġspecified":9400,"Ġtriumph":9401,"Ġbarn":9402,"Ġreceives":9403,"Ġbankers":9404,"Ġcirculation":9405,"Ġharmonization":9406,"Ġfrontier":9407,"ilitary":9408,"irac":9409,"2006":9410,"Ġpetition":9411,"Ġautomob":9412,"Ġhospitals":9413,"Ġradioactive":9414,"Ġpreferences":9415,"Ġlicence":9416,"support":9417,"Ġprotein":9418,"Ġticket":9419,"Ġveterinary":9420,"bear":9421,"fol":9422,"kh":9423,"tles":9424,"isible":9425,"Ġporn":9426,"Ġfue":9427,"Ġhect":9428,"Ġhang":9429,"lets":9430,"ilater":9431,"change":9432,"termination":9433,"Ġworries":9434,"Ġchocol":9435,"Ġages":9436,"Ġjack":9437,"Ġintent":9438,"Ġrival":9439,"Ġprecious":9440,"Ġtermin":9441,"Ġrealised":9442,"Ġdeployed":9443,"Ġseriousness":9444,"finan":9445,"Ġemphasises":9446,"Ġsalaries":9447,"Ġarrival":9448,"Ġtony":9449,"Ġcrack":9450,"Ġdoctr":9451,"Ġcourageous":9452,"Ġbabies":9453,"erba":9454,"Ġdeliberately":9455,"countries":9456,"Ġforecasts":9457,"Ġlady":9458,"Ġdetriment":9459,"Ġinspiration":9460,"Ġreluctant":9461,"Ġtreasury":9462,"ilaterally":9463,"Ã§":9464,"teries":9465,"oded":9466,"Ġacced":9467,"Ġupset":9468,"Ġcoverage":9469,"indust":9470,"ernity":9471,"Ġlobby":9472,"Ġcarries":9473,"Ġblocks":9474,"Ġreformed":9475,"Ġsummary":9476,"Ġairline":9477,"ashed":9478,"Ġparent":9479,"print":9480,"Ġdemonstrations":9481,"born":9482,"Ġrenewal":9483,"Ġexplosion":9484,"Ġharass":9485,"Ġcuban":9486,"Ġcondemnation":9487,"Ġoceans":9488,"Ġpicked":9489,"Ġcalculations":9490,"Ġmurdered":9491,"Ġsettlements":9492,"Ġpromptly":9493,"Ġcollapsed":9494,"2013":9495,"Ġmoratorium":9496,"cking":9497,"isual":9498,"Ġpris":9499,"Ġdates":9500,"Ġgamb":9501,"search":9502,"cher":9503,"Ġmars":9504,"pected":9505,"Ġunderlined":9506,"Ġclock":9507,"uesday":9508,"Ġconferences":9509,"Ġmont":9510,"Ġmontenegro":9511,"Ġcontinuity":9512,"ailand":9513,"Ġtransplant":9514,"Ġnorms":9515,"Ġelectrical":9516,"Ġeducated":9517,"Ġannually":9518,"Ġidentification":9519,"Ġweakening":9520,"Ġindications":9521,"Ġclever":9522,"Ġlearnt":9523,"Ġreconcile":9524,"Ġmutually":9525,"Ġeaten":9526,"Ġmachinery":9527,"Ġobserver":9528,"Ġprosperous":9529,"Ġquantitative":9530,"speaking":9531,"community":9532,"usalem":9533,"Ġanxiety":9534,"Ġcfsp":9535,"Ġintolerable":9536,"Ġbankruptcy":9537,"Ġeligible":9538,"Ġremembered":9539,"Ġcambodia":9540,"ii":9541,"Ġthin":9542,"income":9543,"itives":9544,"Ġlou":9545,"Ġexagger":9546,"Ġcompris":9547,"Ġtiming":9548,"Ġentity":9549,"Ġbanana":9550,"Ġdeput":9551,"Ġbloc":9552,"Ġears":9553,"Ġbargain":9554,"Ġeleph":9555,"Ġlights":9556,"isticated":9557,"Ġrejecting":9558,"Ġdefinitions":9559,"Ġaudiov":9560,"Ġricher":9561,"atson":9562,"Ġbreakfast":9563,"Ġreminds":9564,"Ġchecked":9565,"governments":9566,"Ġmaxim":9567,"mony":9568,"Ġroutine":9569,"Ġaccepts":9570,"Ġproclaim":9571,"carbon":9572,"Ġsweet":9573,"Ġmovies":9574,"Ġborrowing":9575,"Ġaccelerate":9576,"rocity":9577,"Ġmultinationals":9578,"Ġcounterfeiting":9579,"Ġasean":9580,"Ġearmarked":9581,"Ġunambig":9582,"financial":9583,"Ġaudiovisual":9584,"dri":9585,"eenth":9586,"fish":9587,"Â·":9588,"Ġbone":9589,"Ġfold":9590,"ioned":9591,"oles":9592,"Ġseize":9593,"liest":9594,"Ġhasn":9595,"aming":9596,"Ġkim":9597,"ours":9598,"Ġlikelihood":9599,"simp":9600,"Ġdisorder":9601,"Ġoffences":9602,"risy":9603,"Ġmineral":9604,"Ġextrad":9605,"Ġgrows":9606,"Ġcapability":9607,"Ġrisen":9608,"Ġvib":9609,"Ġwriter":9610,"Ġswiss":9611,"Ġheaded":9612,"Ġwaves":9613,"Ġflee":9614,"Ġ800":9615,"Ġdeval":9616,"Ġdevote":9617,"Ġdemonstrating":9618,"Ġencouragement":9619,"france":9620,"owski":9621,"undering":9622,"Ġfilms":9623,"Ġdetermining":9624,"Ġbeliefs":9625,"Ġniger":9626,"Ġdeterioration":9627,"Ġdetrimental":9628,"Ġunexpected":9629,"Ġbiotechnology":9630,"Ġbangladesh":9631,"Ġtsunami":9632,"60":9633,"gre":9634,"iated":9635,"Ġbeer":9636,"Ġluc":9637,"oting":9638,"peace":9639,"Ġhab":9640,"Ġdeemed":9641,"Ġunification":9642,"aint":9643,"soon":9644,"ocation":9645,"Ġeconomist":9646,"Ġmarry":9647,"Ġspin":9648,"Ġcontinuous":9649,"Ġ85":9650,"Ġradiation":9651,"Ġwatched":9652,"Ġpakistani":9653,"ilingual":9654,"Ġunsustainable":9655,"Ġtranslated":9656,"Ġprohibited":9657,"Ġsplend":9658,"Ġimbalance":9659,"Ġupdate":9660,"better":9661,"Ġcertific":9662,"Ġapologise":9663,"Ġprosecutor":9664,"Ġdilemma":9665,"citiz":9666,"lers":9667,"oe":9668,"oes":9669,"Ġtank":9670,"Ġtuesday":9671,"Ġwatson":9672,"Ġsant":9673,"orrow":9674,"lements":9675,"rade":9676,"Ġderegulation":9677,"Ġenemies":9678,"Ġleon":9679,"Ġchirac":9680,"Ġimpunity":9681,"Ġkaz":9682,"Ġadj":9683,"Ġadhere":9684,"Ġoutlook":9685,"Ġconcluding":9686,"Ġrecur":9687,"ips":9688,"Ġconfidential":9689,"Ġrefund":9690,"world":9691,"Ġnorway":9692,"Ġvalley":9693,"Ġ34":9694,"Ġfurthermore":9695,"Ġprotectionist":9696,"Ġuranium":9697,"Ġsuppliers":9698,"Ġreforming":9699,"Ġdeepening":9700,"Ġanalog":9701,"Ġillusion":9702,"Ġcreditors":9703,"Ġstaying":9704,"Ġinvestigated":9705,"clock":9706,"Ġhostile":9707,"Ġcrush":9708,"Ġrigid":9709,"Ġferre":9710,"Ġmagnitude":9711,"Ġvegetables":9712,"Ġhypocrisy":9713,"Ġsophisticated":9714,"Ġethiopia":9715,"Ġgeopolitical":9716,"Ġkitchen":9717,"Ġchocolate":9718,"wash":9719,"Ġtig":9720,"Ġaqu":9721,"Ġalex":9722,"onic":9723,"atories":9724,"Ġfol":9725,"Ġinsect":9726,"almost":9727,"Ġnap":9728,"style":9729,"Ġlake":9730,"Ġforcing":9731,"Ġham":9732,"imination":9733,"Ġagents":9734,"Ġpresidencies":9735,"igate":9736,"sia":9737,"members":9738,"Ġspare":9739,"uccess":9740,"Ġ38":9741,"Ġirrespective":9742,"Ġcreatures":9743,"Ġbarbar":9744,"itherto":9745,"employment":9746,"Ġappropriately":9747,"Ġshareholders":9748,"appy":9749,"Ġsubsidy":9750,"polit":9751,"Ġobtaining":9752,"Ġexceptionally":9753,"Ġinher":9754,"Ġcomparative":9755,"Ġpermanently":9756,"Ġinsisted":9757,"Ġhurry":9758,"Ġemotions":9759,"asmus":9760,"Ġcontemporary":9761,"Ġsequence":9762,"Ġversus":9763,"Ġreunification":9764,"Ġprecondition":9765,"Ġsacrifice":9766,"Ġsensitivity":9767,"Ġsurgery":9768,"food":9769,"Ġaver":9770,"Ġped":9771,"Ġmakers":9772,"Ġanc":9773,"icts":9774,"Ġga":9775,"Ġlin":9776,"Ġlank":9777,"ounced":9778,"liances":9779,"weight":9780,"Ġleverage":9781,"Ġhezbollah":9782,"Ġresid":9783,"Ġkne":9784,"ller":9785,"Ġrape":9786,"Ġdiffering":9787,"Ġserving":9788,"Ġmao":9789,"worthy":9790,"Ġtransposition":9791,"Ġbeha":9792,"Ġsimpl":9793,"Ġrestrain":9794,"Ġcontrovers":9795,"Ġcivilisation":9796,"Ġcapitalist":9797,"Ġfifty":9798,"Ġvirtue":9799,"Ġcompeting":9800,"Ġserbian":9801,"Ġgolden":9802,"Ġextremism":9803,"Ġextremists":9804,"developed":9805,"Ġaccomplished":9806,"Ġnordic":9807,"Ġdrastic":9808,"Ġdatabase":9809,"Ġmagazine":9810,"Ġsplendid":9811,"aunch":9812,"oil":9813,"Ġaer":9814,"Ġnons":9815,"Ġrect":9816,"sters":9817,"Ġunw":9818,"Ġunite":9819,"ivable":9820,"Ġpartially":9821,"Ġcounts":9822,"tel":9823,"inking":9824,"ounding":9825,"Ġroyal":9826,"Ġmail":9827,"Ġemph":9828,"Ġsystemic":9829,"Ġsmile":9830,"Ġbanning":9831,"Ġcenters":9832,"Ġlivelihood":9833,"Ġburn":9834,"Ġfarmer":9835,"Ġarguing":9836,"Ġhonor":9837,"Ġpricing":9838,"Ġmodernization":9839,"Ġexplains":9840,"Ġcollecting":9841,"Ġperformed":9842,"yeah":9843,"Ġtunnel":9844,"Ġincompreh":9845,"Ġcalculated":9846,"Ġdistortions":9847,"Ġneglected":9848,"Ġwholly":9849,"erbaij":9850,"bert":9851,"math":9852,"vice":9853,"Ġsir":9854,"Ġuncle":9855,"Ġshed":9856,"Ġseeds":9857,"Ġkiss":9858,"Ġnoon":9859,"Ġprec":9860,"Ġreck":9861,"athered":9862,"ologist":9863,"Ġbackwards":9864,"balanced":9865,"Ġforming":9866,"Ġformation":9867,"Ġtechnically":9868,"Ġlifted":9869,"Ġ33":9870,"Ġinstances":9871,"Ġelimination":9872,"Ġsingapore":9873,"Ġ42":9874,"Ġpatri":9875,"Ġfleets":9876,"Ġrobots":9877,"2001":9878,"Ġphoto":9879,"carious":9880,"Ġtraditionally":9881,"Ġdisagreement":9882,"Ġemotion":9883,"Ġmountains":9884,"Ġdeliberations":9885,"Ġvaccine":9886,"Ġawarded":9887,"sadly":9888,"Ġvolatility":9889,"Ġrwanda":9890,"Ġprestige":9891,"Ġtongue":9892,"citizens":9893,"election":9894,"kov":9895,"pat":9896,"Ġthailand":9897,"esity":9898,"Ġhoc":9899,"Ġdirty":9900,"icular":9901,"Ġbee":9902,"Ġstating":9903,"Ġproactive":9904,"oda":9905,"Ġkur":9906,"Ġparliamentarians":9907,"eline":9908,"Ġarisen":9909,"Ġprovince":9910,"Ġaddiction":9911,"ologically":9912,"Ġinterdepend":9913,"Ġrevise":9914,"Ġ55":9915,"Ġtextiles":9916,"plete":9917,"cker":9918,"apping":9919,"Ġportfol":9920,"Ġinfluenced":9921,"Ġclosest":9922,"Ġoccurring":9923,"Ġseparated":9924,"besides":9925,"Ġswimming":9926,"Ġmercury":9927,"Ġgathering":9928,"Ġabstract":9929,"Ġjerusalem":9930,"Ġsomalia":9931,"Ġprisons":9932,"Ġincomprehensible":9933,"ey":9934,"Ãº":9935,"Ġtabling":9936,"Ġinsecurity":9937,"Ġdies":9938,"Ġeve":9939,"Ġease":9940,"thal":9941,"Ġlocked":9942,"Ġneur":9943,"Ġeurostat":9944,"Ġshocking":9945,"essim":9946,"Ġorch":9947,"akis":9948,"Ġoutline":9949,"Ġdecides":9950,"Ġspons":9951,"Ġcloning":9952,"Ġgoodwill":9953,"Ġoffset":9954,"Ġconfine":9955,"Ġministry":9956,"Ġindex":9957,"Ġwheel":9958,"Ġstrongest":9959,"Ġescap":9960,"Ġframeworks":9961,"Ġstructured":9962,"Ġintegrating":9963,"Ġviolated":9964,"Ġregulating":9965,"Ġgrab":9966,"Ġexcellence":9967,"exper":9968,"Ġcriticise":9969,"Ġcollectively":9970,"Ġconducting":9971,"Ġauthorised":9972,"Ġharbour":9973,"Ġplanets":9974,"Ġderiv":9975,"Ġreferendums":9976,"month":9977,"Ġconsolidated":9978,"Ġprevailing":9979,"personally":9980,"controlled":9981,"Ġgallery":9982,"Ġmirror":9983,"Ġtears":9984,"Ġskept":9985,"Ġpiano":9986,"Ġbarnier":9987,"ben":9988,"jad":9989,"nuclear":9990,"reb":9991,"recent":9992,"Ġsri":9993,"Ġinland":9994,"ali":9995,"along":9996,"Ġhill":9997,"Ġhier":9998,"Ġnit":9999,"Ġgor":10000,"Ġimpart":10001,"Ġresume":10002,"Ġpolar":10003,"Ġcooking":10004,"Ġprecarious":10005,"Ġarts":10006,"Ġrow":10007,"Ġrooted":10008,"Ġparticles":10009,"Ġgenome":10010,"Ġmayor":10011,"Ġscared":10012,"Ġprevents":10013,"Ġreduces":10014,"retion":10015,"Ġmentioning":10016,"Ġfundamentalism":10017,"Ġengaging":10018,"Ġoperates":10019,"Ġcyn":10020,"Ġstrip":10021,"Ġfunctional":10022,"Ġexcessively":10023,"Ġvulnerability":10024,"Ġiii":10025,"Ġanalyse":10026,"Ġunrealistic":10027,"Ġdisturbing":10028,"Ġunderestimate":10029,"Ġvitally":10030,"Ġcarriers":10031,"Ġgesture":10032,"Ġaccusations":10033,"business":10034,"Ġunstable":10035,"brit":10036,"ua":10037,"Ġsak":10038,"Ġmentions":10039,"Ġrebuild":10040,"Ġlung":10041,"orted":10042,"Ġven":10043,"Ġpreserving":10044,"Ġpreservation":10045,"Ġrefusing":10046,"owned":10047,"obama":10048,"Ġsmith":10049,"Ġreasonably":10050,"Ġscra":10051,"Ġmedi":10052,"Ġorganising":10053,"Ġelites":10054,"Ġpassport":10055,"Ġadministrations":10056,"Ġbreaks":10057,"Ġfriendship":10058,"Ġgirlf":10059,"Ġretained":10060,"Ġjournalist":10061,"Ġwitnessing":10062,"Ġlengthy":10063,"Ġcrowd":10064,"Ġhypo":10065,"Ġpersistent":10066,"Ġperpetrators":10067,"Ġdespair":10068,"Ġfrustration":10069,"Ġduration":10070,"Ġcatholic":10071,"Ġtissue":10072,"palestin":10073,"Ġlifelong":10074,"ae":10075,"ymmet":10076,"ede":10077,"asive":10078,"ching":10079,"imension":10080,"osur":10081,"Ġreplied":10082,"ouses":10083,"Ġexposure":10084,"arest":10085,"Ġpermits":10086,"Ġloves":10087,"Ġrefrain":10088,"Ġpointless":10089,"Ġmeasuring":10090,"Ġlifting":10091,"Ġinfin":10092,"Ġinflic":10093,"Ġdeploy":10094,"Ġearliest":10095,"Ġforeigners":10096,"Ġprofile":10097,"Ġmilitar":10098,"Ġiraqis":10099,"Ġidentifying":10100,"Ġfishery":10101,"Ġharmony":10102,"Ġbreakdown":10103,"Ġreconsider":10104,"Ġslowdown":10105,"Ġdescription":10106,"Ã©s":10107,"Ġappearance":10108,"Ġlaying":10109,"Ġexplanatory":10110,"Ġpanic":10111,"Ġhonesty":10112,"Ġhonestly":10113,"Ġluxury":10114,"Ġphenomena":10115,"compass":10116,"development":10117,"Ġscreening":10118,"Ġdiagnosis":10119,"small":10120,"Ġazerbaij":10121,"Ġbroadcasting":10122,"Ġinstallations":10123,"Ġmathematics":10124,"Ġmortgage":10125,"akhstan":10126,"Ġincompatible":10127,"mun":10128,"vo":10129,"western":10130,"Ġtons":10131,"research":10132,"Ġsque":10133,"Ġpir":10134,"Ġpessim":10135,"orate":10136,"Ġhinder":10137,"Ġnom":10138,"Ġreorgan":10139,"Ġcontents":10140,"step":10141,"orship":10142,"Ġschol":10143,"Ġviability":10144,"Ġsuccessive":10145,"gging":10146,"Ġconsume":10147,"Ġafricans":10148,"Ġdestructive":10149,"pran":10150,"Ġstepped":10151,"Ġsimilarly":10152,"Ġreactors":10153,"Ġordered":10154,"Ġbottle":10155,"Ġdrafts":10156,"Ġdepartments":10157,"Ġpriorit":10158,"Ġkilomet":10159,"Ġshifting":10160,"missible":10161,"Ġredundant":10162,"Ġpopulist":10163,"Ġprejudice":10164,"Ġinstructions":10165,"Ġeggs":10166,"Ġslavery":10167,"Ġumbre":10168,"Ġancest":10169,"foot":10170,"grad":10171,"iver":10172,"tini":10173,"zens":10174,"Ġak":10175,"Ġastr":10176,"env":10177,"Ġbless":10178,"orious":10179,"Ġfathers":10180,"asant":10181,"ilation":10182,"idently":10183,"Ġconform":10184,"ressions":10185,"Ġmeters":10186,"cipe":10187,"Ġpreserved":10188,"Ġintu":10189,"inejad":10190,"Ġadds":10191,"Ġdefended":10192,"Ġentities":10193,"Ġassault":10194,"Ġbudd":10195,"bean":10196,"Ġinitiate":10197,"Ġsatur":10198,"Ġradically":10199,"Ġperforming":10200,"grade":10201,"Ġextraordinarily":10202,"Ġreveals":10203,"Ġvigorously":10204,"Ġrestricting":10205,"Ġdinos":10206,"Ġsurpluses":10207,"Ġfortunately":10208,"Ġprivileged":10209,"amendments":10210,"Ġcasual":10211,"Ġimprisoned":10212,"Ġderogation":10213,"Ġtraceability":10214,"Ġindigenous":10215,"Ġfrattini":10216,"bat":10217,"ext":10218,"kash":10219,"map":10220,"Ġtap":10221,"Ġtends":10222,"Ġcrop":10223,"Ġot":10224,"Ġanch":10225,"Ġdwell":10226,"Ġnie":10227,"Ġgathered":10228,"urances":10229,"owed":10230,"Ġsupran":10231,"Ġengin":10232,"Ġimply":10233,"Ġresil":10234,"Ġquart":10235,"Ġdisability":10236,"meas":10237,"Ġarrog":10238,"Ġconcludes":10239,"Ġtrains":10240,"Ġspaces":10241,"Ġreasoning":10242,"Ġsuccessor":10243,"Ġeru":10244,"Ġdraws":10245,"Ġtennis":10246,"Ġexplaining":10247,"Ġrichest":10248,"Ġreplacing":10249,"Ã¶der":10250,"Ġlays":10251,"Ġlaboratory":10252,"Ġfruitful":10253,"Ġundermines":10254,"Ġevolutionary":10255,"Ġdeliberate":10256,"Ġexemptions":10257,"Ġcommodities":10258,"Ġcomplementary":10259,"Ġchampions":10260,"Ġsteadily":10261,"Ġdismantling":10262,"increasing":10263,"Ġtrigger":10264,"imensional":10265,"environment":10266,"Ġsupranational":10267,"Ġengines":10268,"02":10269,"cop":10270,"fat":10271,"ique":10272,"norm":10273,"ran":10274,"rance":10275,"Ġlying":10276,"Ġtie":10277,"Ġthri":10278,"Ġbans":10279,"roots":10280,"Ġrehab":10281,"Ġgn":10282,"Ġuseless":10283,"imated":10284,"Ġchris":10285,"Ġcanc":10286,"Ġorange":10287,"umers":10288,"Ġactor":10289,"athy":10290,"Ġblocking":10291,"Ġreadiness":10292,"Ġbalances":10293,"Ġelabor":10294,"Ġexpressly":10295,"afi":10296,"Ġvisits":10297,"Ġelev":10298,"crimin":10299,"Ġreligions":10300,"namo":10301,"Ġislamist":10302,"Ġmalay":10303,"Ġallocate":10304,"Ġshipy":10305,"Ã¡namo":10306,"Ġgrandmother":10307,"Ġvessel":10308,"Ġscott":10309,"Ġfortune":10310,"harov":10311,"fts":10312,"pes":10313,"sol":10314,"vian":10315,"Ġwire":10316,"Ġpione":10317,"Ġhitherto":10318,"chet":10319,"Ġwors":10320,"licity":10321,"Ġconcert":10322,"Ġunderground":10323,"Ġtrap":10324,"Ġobesity":10325,"Ġboats":10326,"itely":10327,"Ġdiscrep":10328,"Ġsecured":10329,"Ġempower":10330,"Ġrestoration":10331,"Ġadvise":10332,"avoid":10333,"Ġexpectation":10334,"Ġindividually":10335,"Ġslower":10336,"Ġmidst":10337,"Ġcircles":10338,"Ġantibi":10339,"Ġcrossing":10340,"Ġcooperating":10341,"contin":10342,"Ġparalys":10343,"Ġprecedence":10344,"thesis":10345,"Ġevolve":10346,"Ġsuspected":10347,"Ġunhappy":10348,"Ġdisproportionate":10349,"Ġtemptation":10350,"concerning":10351,"Ġsakharov":10352,"Ġgirlfriend":10353,"Ġumbrella":10354,"\".":10355,"oeu":10356,"trad":10357,"vard":10358,"Äį":10359,"anen":10360,"Ġhorm":10361,"Ġdu":10362,"Ġreimb":10363,"Ġgear":10364,"Ġasymmet":10365,"Ġnets":10366,"imer":10367,"gered":10368,"Ġsemin":10369,"Ġabd":10370,"Ġexpon":10371,"ignment":10372,"Ġworlds":10373,"Ġoffensive":10374,"Ġhumane":10375,"Ġdirectors":10376,"Ġ193":10377,"Ġcarib":10378,"racted":10379,"Ġimproves":10380,"Ġgrid":10381,"Ġdeployment":10382,"Ġwelcoming":10383,"Ġequation":10384,"Ġsinging":10385,"Ġ43":10386,"Ġ44":10387,"Ġbaroness":10388,"Ġkeynes":10389,"Ġsuggesting":10390,"Ġgenerating":10391,"someone":10392,"Ġjudgments":10393,"Ġskilled":10394,"Ġlinking":10395,"space":10396,"Ġbiom":10397,"commer":10398,"Ġcorrected":10399,"Ġimagined":10400,"Ġtourists":10401,"erential":10402,"Ġenhancing":10403,"Ã¡vez":10404,"Ġstopping":10405,"consumers":10406,"particular":10407,"Ġbombing":10408,"Ġboss":10409,"Ġliterature":10410,"Ġracist":10411,"turning":10412,"Ġcryst":10413,"Ġintensify":10414,"Ġpoettering":10415,"Ġconjunction":10416,"Ġcatastrophic":10417,"Ġrehabilit":10418,"oeuv":10419,"sing":10420,"south":10421,"uated":10422,"Ġwil":10423,"enl":10424,"itting":10425,"orically":10426,"Ġnas":10427,"Ġstol":10428,"ortions":10429,"istically":10430,"Ġcountless":10431,"Ġfaire":10432,"auer":10433,"Ġmanoeuv":10434,"ignific":10435,"Ġtraum":10436,"Ġspur":10437,"Ġinvisible":10438,"angle":10439,"Ġprovin":10440,"Ġcourses":10441,"Ġguided":10442,"Ġkeys":10443,"Ġbananas":10444,"beh":10445,"Ġallowances":10446,"Ġawful":10447,"Ġsuffers":10448,"Ġdeclined":10449,"Ġmissile":10450,"Ġboring":10451,"Ġhearings":10452,"apped":10453,"Ġversions":10454,"domin":10455,"Ġrestriction":10456,"Ġbloody":10457,"Ġsimplifying":10458,"Ġhostage":10459,"Ġdynamics":10460,"Ġforgive":10461,"Ġpensioners":10462,"Ġrender":10463,"Ġvillages":10464,"Ġcorresponds":10465,"Ġsuspension":10466,"Ġreciprocity":10467,"Ġclinical":10468,"Ġdirectorate":10469,"Ġfortunate":10470,"Ġeradicate":10471,"growth":10472,"Ġcotton":10473,"Ġtaste":10474,"Ġmiracle":10475,"Ġfrozen":10476,"ĠguantÃ¡namo":10477,"Ġtheoretical":10478,"Ġambassador":10479,"Ġazerbaijan":10480,"je":10481,"mese":10482,"sur":10483,"vin":10484,"Ġmud":10485,"Ġdg":10486,"uts":10487,"Ġconvert":10488,"Ġuncond":10489,"Ġenlight":10490,"Ġabide":10491,"Ġcounting":10492,"abul":10493,"Ġplot":10494,"Ġthemes":10495,"Ġdecomm":10496,"Ġoverse":10497,"Ġclust":10498,"Ġinternally":10499,"Ġphones":10500,"Ġwishing":10501,"Ġcorrid":10502,"Ġliberation":10503,"Ġoldest":10504,"cooperation":10505,"Ġburst":10506,"Ġburmese":10507,"Ġcontempt":10508,"Ġ700":10509,"Ġrecommends":10510,"Ġindicator":10511,"Ġcodes":10512,"Ġexporting":10513,"Ġanalyses":10514,"cules":10515,"culosis":10516,"Ġdynamism":10517,"Ġhurric":10518,"Ġaccompanying":10519,"product":10520,"Ġprofoundly":10521,"Ġinefficient":10522,"Ġsymptoms":10523,"uberculosis":10524,"Ġcoexistence":10525,"Ġgambling":10526,"Ġhabits":10527,"Ġcaribbean":10528,"Ġdecommission":10529,"cost":10530,"keste":10531,"rational":10532,"Ġthrust":10533,"Ġwolf":10534,"Ġsid":10535,"Ġow":10536,"Ġpair":10537,"Ġfib":10538,"Ġhi":10539,"rose":10540,"Ġrecipe":10541,"Ġlamp":10542,"Ġarena":10543,"Ġasp":10544,"Ġparame":10545,"Ġparamount":10546,"Ġdozen":10547,"Ġkal":10548,"acity":10549,"igration":10550,"occup":10551,"Ġquo":10552,"Ġpredomin":10553,"heres":10554,"Ġfees":10555,"Ġsupportive":10556,"Ġoverl":10557,"Ġsyrian":10558,"actually":10559,"Ġoffence":10560,"Ġmood":10561,"Ġdiscred":10562,"Ġdiscoura":10563,"minister":10564,"Ġattending":10565,"Ġassigned":10566,"iciencies":10567,"Ġlifet":10568,"Ġconditional":10569,"Ġexpectancy":10570,"Ġrecognising":10571,"Ġsummits":10572,"Ġappeals":10573,"Ġheadquarters":10574,"Ġentirety":10575,"Ġpotato":10576,"Ġmultilingual":10577,"Ġ99":10578,"exp":10579,"Ġlaunching":10580,"Ġbattery":10581,"Ġunfold":10582,"intensive":10583,"Ġcleaner":10584,"Ġstrengthens":10585,"speed":10586,"Ġparadig":10587,"Ġenvisage":10588,"Ġswiftly":10589,"Ġfascinating":10590,"Ġimprisonment":10591,"Ġqueen":10592,"Ġinconven":10593,"Ġperipheral":10594,"Ġexempl":10595,"Ġpregnant":10596,"kestein":10597,"12":10598,"eken":10599,"hope":10600,"mus":10601,"tar":10602,"Ġtuberculosis":10603,"Ġamp":10604,"Ġcats":10605,"Ġmerg":10606,"Ġfru":10607,"arraf":10608,"Ġgro":10609,"Ġuen":10610,"Ġencompass":10611,"Ġchronic":10612,"ometer":10613,"aks":10614,"Ġrepro":10615,"Ġnose":10616,"Ġcofinancing":10617,"things":10618,"Ġserbs":10619,"taining":10620,"Ġlooph":10621,"Ġsubordin":10622,"Ġdiscretion":10623,"Ġherzegovina":10624,"Ġscul":10625,"Ġneglig":10626,"ountered":10627,"Ġrestoring":10628,"Ġdistortion":10629,"Ġoppression":10630,"Ġencounter":10631,"Ġencountered":10632,"Ġimpacts":10633,"Ġwaited":10634,"Ġredress":10635,"Ġrepublican":10636,"Ġhistorically":10637,"Ġenormously":10638,"annes":10639,"Ġspiritual":10640,"Ġspeedy":10641,"Ġphotos":10642,"Ġreplacement":10643,"Ġsweep":10644,"Ġchapters":10645,"handed":10646,"Ġkilometers":10647,"Ġfingers":10648,"effective":10649,"Ġscandalous":10650,"Ġshaped":10651,"Ġcontempl":10652,"Ġmunicip":10653,"Ġairplane":10654,"private":10655,"Ġzeal":10656,"Ġdoctrine":10657,"Ġkurds":10658,"Ġimpartial":10659,"enlargement":10660,"Ġstolen":10661,"80":10662,"din":10663,"dimensional":10664,"ho":10665,"mn":10666,"military":10667,"vial":10668,"zbe":10669,"Ġbin":10670,"uting":10671,"olas":10672,"Ġmelt":10673,"opoul":10674,"Ġseed":10675,"essed":10676,"Ġate":10677,"Ġfeared":10678,"Ġinvention":10679,"ritical":10680,"Ġreminder":10681,"Ġdefer":10682,"oboda":10683,"Ġowned":10684,"Ġlegislators":10685,"Ġrises":10686,"Ġblat":10687,"Ġemail":10688,"Ġequipped":10689,"Ġletting":10690,"Ġshorter":10691,"play":10692,"Ġannan":10693,"Ġdesigners":10694,"Ġhearts":10695,"Ġrejects":10696,"Ġstops":10697,"Ġreflecting":10698,"Ġhunting":10699,"Ġsanction":10700,"Ġwinner":10701,"Ġconstructed":10702,"Ġ%.":10703,"government":10704,"Ġobstruct":10705,"Ġlayer":10706,"Ġreacted":10707,"Ġphilipp":10708,"Ġfatal":10709,"Ġsleeping":10710,"Ġlicences":10711,"Ġinjury":10712,"Ġunreason":10713,"Ġanticipated":10714,"Ġderogations":10715,"Ġmisunderstanding":10716,"Ġcontamination":10717,"Ġcosm":10718,"Ġpockets":10719,"Ġignorance":10720,"Ġdeputy":10721,"Ġkazakhstan":10722,"Ġquartet":10723,"19":10724,"gle":10725,"non":10726,"tt":10727,"isations":10728,"Ġpending":10729,"orable":10730,"Ġinjustice":10731,"icable":10732,"Ġnepal":10733,"Ġunilaterally":10734,"Ġimpressed":10735,"Ġabbas":10736,"Ġmankind":10737,"Ġsymmet":10738,"Ġfactories":10739,"Ġsignatures":10740,"Ġcorn":10741,"Ġequitable":10742,"parts":10743,"Ġswoboda":10744,"Ġtrig":10745,"afe":10746,"whereas":10747,"Ġpackages":10748,"sharing":10749,"Ġopposing":10750,"thodox":10751,"Ġrepeating":10752,"Ġembod":10753,"Ġrichard":10754,"camb":10755,"Ġpainting":10756,"Ġlowering":10757,"Ġcondemning":10758,"Ġqualitative":10759,"Ġsurvived":10760,"Ġdrinks":10761,"Ġbelonging":10762,"Ġquarters":10763,"Ġaggreg":10764,"Ġtibetan":10765,"Ġmotivation":10766,"Ġcornerstone":10767,"Ġirrelev":10768,"Ġpassionate":10769,"Ġdisplayed":10770,"Ġclubs":10771,"Ġdanube":10772,"Ġmolecules":10773,"Ġcomfortable":10774,"Ġdiversification":10775,"Ġtactics":10776,"Ġecosystems":10777,"Ġentertainment":10778,"Ġlanka":10779,"farm":10780,"treat":10781,"vy":10782,"vit":10783,"repres":10784,"Ġtoy":10785,"Ġhiding":10786,"Ġdust":10787,"Ġeld":10788,"thirds":10789,"Ġreception":10790,"idal":10791,"urate":10792,"Ġdeeds":10793,"Ġabused":10794,"Ġtruck":10795,"rup":10796,"Ġteen":10797,"Ġovernight":10798,"Ġadditives":10799,"Ġlaeken":10800,"Ġprince":10801,"Ġaftermath":10802,"Ġ2050":10803,"Ġindefin":10804,"cule":10805,"Ġimmune":10806,"Ġapproached":10807,"Ġsupplied":10808,"Ġpopulated":10809,"Ġprofessions":10810,"Ġemphasized":10811,"Ġdestination":10812,"Ġdestiny":10813,"Ġmasses":10814,"Ġsalt":10815,"Ġspiral":10816,"Ġignoring":10817,"lson":10818,"Ġlukash":10819,"Ġsurprisingly":10820,"Ġpredictable":10821,"Ġpersuaded":10822,"Ġreiterated":10823,"Ġvaccines":10824,"Ġboliv":10825,"Ġguardian":10826,"between":10827,"growing":10828,"Ġmercosur":10829,"Ġsmell":10830,"Ġconsciousness":10831,"Ġoverlooked":10832,"africa":10833,"Ġfrancis":10834,"Ġspectacular":10835,"Ġdreadful":10836,"Ġcontroversy":10837,"Ġnonsense":10838,"70":10839,"either":10840,"function":10841,"hel":10842,"iat":10843,"make":10844,"Ġtan":10845,"Ġsis":10846,"Ġfier":10847,"Ġinner":10848,"throp":10849,"Ġrelying":10850,"Ġbees":10851,"lywood":10852,"Ġhaw":10853,"Ġexcise":10854,"Ġvicious":10855,"Ġaging":10856,"Ġimpover":10857,"dez":10858,"Ġrivers":10859,"Ġtimber":10860,"Ġsahar":10861,"Ġpossel":10862,"ogen":10863,"Ġrab":10864,"ubar":10865,"Ġinval":10866,"Ġagreeing":10867,"ollar":10868,"Ġcurtain":10869,"owners":10870,"Ġmaur":10871,"Ġelectron":10872,"Ġtrivial":10873,"Ġintroduces":10874,"atah":10875,"Ġmisery":10876,"Ġspecialist":10877,"Ġembass":10878,"Ġseparately":10879,"Ġballot":10880,"equally":10881,"Ġprosecution":10882,"Ġillustrates":10883,"addafi":10884,"Ġchampion":10885,"Ġdeposit":10886,"Ġcypriot":10887,"Ġscarcely":10888,"operability":10889,"Ġwondered":10890,"Ġdivorce":10891,"Ġpornography":10892,"Ġexemplary":10893,"Ġtriggered":10894,"Ġposselt":10895,"bted":10896,"cular":10897,"faced":10898,"mill":10899,"wal":10900,"rez":10901,"era":10902,"Ġsar":10903,"Ġhoney":10904,"around":10905,"otal":10906,"Ġprox":10907,"raction":10908,"Ġneu":10909,"Ġcommem":10910,"quit":10911,"usive":10912,"Ġorte":10913,"Ġku":10914,"access":10915,"Ġbutter":10916,"determination":10917,"Ġadmission":10918,"abet":10919,"ocratic":10920,"ultimately":10921,"Ġpla":10922,"Ġcoin":10923,"Ġcogn":10924,"Ġconsp":10925,"Ġmarking":10926,"Ġspell":10927,"Ġspends":10928,"Ġproving":10929,"angered":10930,"Ġrefuses":10931,"Ġassurances":10932,"Ġtalent":10933,"Ġbrink":10934,"Ġscri":10935,"Ġscour":10936,"Ġforefront":10937,"Ġinsol":10938,"letion":10939,"Ġcairo":10940,"german":10941,"Ġcharles":10942,"europeans":10943,"Ġindependently":10944,"Ġdoubled":10945,"Ġcoordinator":10946,"Ġqualities":10947,"Ġphysically":10948,"Ġexpenditures":10949,"Ġquoted":10950,"Ġfrequency":10951,"Ġoccasionally":10952,"Ġpleasant":10953,"Ġrend":10954,"Ġpiracy":10955,"Ġsurrounded":10956,"Ġtaxpayer":10957,"Ġpreferential":10958,"Ġalbanian":10959,"Ġacknowledges":10960,"Ġbreathe":10961,"Ġbolkestein":10962,"Ġinspire":10963,"Ġslovenian":10964,"basically":10965,"Ġmanipulation":10966,"Ġdesperately":10967,"Ġsteady":10968,"Ġcensure":10969,"Ġnurt":10970,"Ġbesides":10971,"limited":10972,"Ġspeculative":10973,"Ġtacis":10974,"acio":10975,"palestinian":10976,"Ġfairer":10977,"Ġoverseas":10978,"Ġsculpt":10979,"zbek":10980,"ubarak":10981,"dict":10982,"sum":10983,"try":10984,"umber":10985,"usions":10986,"Ġsam":10987,"ora":10988,"Ġfile":10989,"Ġdrow":10990,"pered":10991,"Ġhaul":10992,"Ġyen":10993,"Ġalert":10994,"theast":10995,"Ġvain":10996,"ĠrÃ¼":10997,"Ġintra":10998,"Ġadvers":10999,"Ġrecourse":11000,"Ġovert":11001,"Ġovercoming":11002,"Ġlaundering":11003,"Ġendangered":11004,"Ġassuming":11005,"Ġservants":11006,"Ġnegotiators":11007,"Ġ46":11008,"Ġpasses":11009,"Ġpassive":11010,"Ġenlarge":11011,"Ġeleven":11012,"Ġroadmap":11013,"Ġmetal":11014,"Ġseemingly":11015,"Ġtrusted":11016,"Ġwinners":11017,"Ġbulk":11018,"Ġsenate":11019,"Ġadapting":11020,"Ġsafely":11021,"Ġharvard":11022,"Ġpreferable":11023,"Ġwidening":11024,"Ġepis":11025,"Ġproportionality":11026,"Ġboosting":11027,"Ġscandals":11028,"Ġaggression":11029,"Ġprohibit":11030,"Ġallegations":11031,"Ġexceeded":11032,"Ġdubious":11033,"Ġclients":11034,"Ġshaping":11035,"Ġabsorb":11036,"Ġvegetable":11037,"Ġofficer":11038,"Ġreproductive":11039,"information":11040,"Ġjacques":11041,"Ġrecruitment":11042,"Ġautomobile":11043,"Ġortega":11044,"gree":11045,"ras":11046,"tan":11047,"Ġtrop":11048,"reck":11049,"Ġmism":11050,"Ġbell":11051,"Ġgm":11052,"Ġforge":11053,"Ġstro":11054,"ads":11055,"ĠchÃ¡vez":11056,"ocaust":11057,"Ġfines":11058,"ensity":11059,"lick":11060,"Ġthematic":11061,"Ġpercept":11062,"Ġloose":11063,"Ġcloud":11064,"Ġminors":11065,"Ġprocessed":11066,"Ġideals":11067,"Ġsheet":11068,"Ġimminent":11069,"Ġbenefiting":11070,"withstanding":11071,"plan":11072,"Ġopted":11073,"Ġpalacio":11074,"Ġsentenced":11075,"Ġtourist":11076,"Ġpretend":11077,"few":11078,"Ġgrandfather":11079,"Ġincomplete":11080,"Ġcastro":11081,"Ġmargins":11082,"Ġcameras":11083,"Ġdarwin":11084,"Ġbubbles":11085,"Ġunequal":11086,"Ġproteins":11087,"Ġdismissed":11088,"Ġstagnation":11089,"forestation":11090,"Ġunresolved":11091,"currently":11092,"green":11093,"Ġlukashenko":11094,"18":11095,"500":11096,"bg":11097,"best":11098,"cris":11099,"garian":11100,"iably":11101,"mble":11102,"pos":11103,"uy":11104,"Ġ`":11105,"Ġsab":11106,"itan":11107,"Ġpas":11108,"Ġfert":11109,"Ġindu":11110,"omas":11111,"versible":11112,"geor":11113,"Ġdozens":11114,"amble":11115,"Ġmann":11116,"agan":11117,"Ġunderlines":11118,"ighter":11119,"Ġrelatives":11120,"Ġcontinuously":11121,"Ġinforming":11122,"Ġdrag":11123,"Ġdealings":11124,"Ġestate":11125,"Ġconvictions":11126,"Ġreaches":11127,"prime":11128,"Ġhardest":11129,"Ġflower":11130,"Ġexpresses":11131,"prin":11132,"Ġreding":11133,"john":11134,"Ġclassic":11135,"Ġclassroom":11136,"Ġexporters":11137,"Ġarabs":11138,"Ġkidn":11139,"Ġwindows":11140,"Ġbatteries":11141,"ĠwallstrÃ¶m":11142,"Ġfastest":11143,"Ġappealing":11144,"Ġderived":11145,"Ġvigorous":11146,"Ġsynthetic":11147,"Ġashamed":11148,"Ġfranco":11149,"Ġnavigation":11150,"Ġcertification":11151,"wait":11152,"Ġpledged":11153,"elected":11154,"Ġnazi":11155,"Ġfragmented":11156,"Ġlobbying":11157,"Ġsquee":11158,"Ġphilippines":11159,"14":11160,"bank":11161,"diff":11162,"freedom":11163,"gl":11164,"mir":11165,"rality":11166,"Ġaus":11167,"instein":11168,"Ġsle":11169,"Ġbones":11170,"Ġtoll":11171,"Ġfits":11172,"eding":11173,"Ġnaked":11174,"Ġninet":11175,"asse":11176,"Ġgon":11177,"otive":11178,"Ġford":11179,"ram":11180,"oping":11181,"uss":11182,"Ġadam":11183,"Ġquit":11184,"Ġoutright":11185,"forces":11186,"Ġincin":11187,"Ġdecoup":11188,"Ġspr":11189,"Ġtransaction":11190,"angu":11191,"redict":11192,"Ġextends":11193,"Ġlaure":11194,"Ġcontinents":11195,"Ġguiding":11196,"Ġbuff":11197,"beyond":11198,"Ġrests":11199,"Ġmilest":11200,"rett":11201,"Ġestablishes":11202,"Ġshortages":11203,"legal":11204,"Ġretreat":11205,"Ġgreet":11206,"Ġcredits":11207,"regulated":11208,"Ġimposition":11209,"Ġrooms":11210,"Ġharmonising":11211,"prov":11212,"Ġbulgarian":11213,"Ġcomplac":11214,"Ġattaches":11215,"Ġinadequ":11216,"Ġselective":11217,"Ġcontradictions":11218,"Ġendeavours":11219,"Ġceasefire":11220,"Ġanticipate":11221,"Ġpulled":11222,"Ġexhausted":11223,"Ġaccommodate":11224,"Ġbreeding":11225,"Ġarmenia":11226,"greater":11227,"Ġforbidden":11228,"Ġinconsistent":11229,"Ġforeseeable":11230,"cambridge":11231,"100":11232,"dated":11233,"gress":11234,"hy":11235,"oa":11236,"Ġbric":11237,"Ġfatah":11238,"arab":11239,"Ġrewards":11240,"Ġgreed":11241,"Ġlama":11242,"Ġstir":11243,"Ġstere":11244,"Ġprostitution":11245,"rium":11246,"ulsion":11247,"illa":11248,"Ġexit":11249,"Ġdoomed":11250,"amin":11251,"Ġkash":11252,"Ġcontest":11253,"temp":11254,"agric":11255,"ĠâĢĿ":11256,"risk":11257,"Ġcurtail":11258,"Ġendless":11259,"Ġinterior":11260,"Ġtransposed":11261,"Ġformulate":11262,"Ġdepressed":11263,"Ġnatura":11264,"Ġindebted":11265,"Ġresemb":11266,"Ġmeanwhile":11267,"Ġcohn":11268,"Ġexported":11269,"Ġcounterparts":11270,"Ġcharacteristic":11271,"2009":11272,"Ġoccupying":11273,"elson":11274,"Ġstimulating":11275,"Ġjohannes":11276,"Ġsacrific":11277,"Ġfluct":11278,"rocities":11279,"Ġahmad":11280,"Ġcultivation":11281,"Ġreversed":11282,"Ġdeplore":11283,"Ġgalaxy":11284,"Ġunequivocal":11285,"Ġtherapy":11286,"Ġsecrecy":11287,"Ġmetaphor":11288,"Ġparameters":11289,"dad":11290,"een":11291,"nesty":11292,"vol":11293,"Ġarose":11294,"rea":11295,"Ġmouse":11296,"Ġmaps":11297,"Ġanonym":11298,"Ġhits":11299,"Ġgy":11300,"otics":11301,"Ġwet":11302,"Ġpromp":11303,"Ġunc":11304,"Ġuncom":11305,"Ġundemocratic":11306,"erers":11307,"Ġlecture":11308,"odes":11309,"Ġorthodox":11310,"Ġreserved":11311,"ardo":11312,"iel":11313,"Ġevasion":11314,"Ġindul":11315,"undi":11316,"Ġlegality":11317,"Ġmaternity":11318,"olland":11319,"minute":11320,"Ġattent":11321,"Ġturbul":11322,"Ġcarl":11323,"Ġbrush":11324,"Ġdrain":11325,"Ġmode":11326,"Ġauthent":11327,"Ġearned":11328,"Ġtaj":11329,"Ġlesser":11330,"Ġreadily":11331,"paragraph":11332,"Ġexpects":11333,"Ġviolate":11334,"Ġvaried":11335,"Ġcivic":11336,"Ġdesignated":11337,"Ġdamages":11338,"Ġdenial":11339,"Ġvoiced":11340,"Ġhighlighting":11341,"Ġdependency":11342,"Ġmigrant":11343,"iki":11344,"Ġenjoying":11345,"design":11346,"Ġtune":11347,"Ġoccupy":11348,"Ġattracted":11349,"Ġadvocating":11350,"Ġdecisively":11351,"arios":11352,"Ġsacred":11353,"Ġscenarios":11354,"Ġranks":11355,"Ġboxes":11356,"Ġinfection":11357,"Ġillustrate":11358,"Ġvaccination":11359,"ukraine":11360,"Ġextremist":11361,"Ġholocaust":11362,"Ġcaptured":11363,"Ġdistinguished":11364,"Ġpledge":11365,"Ġambiguity":11366,"Ġdetained":11367,"Ġpredecessor":11368,"Ġhedge":11369,"Ġalleviate":11370,"Ġdalai":11371,"Ġextradition":11372,"?'":11373,"ael":11374,"aven":11375,"drop":11376,"fail":11377,"nr":11378,"nar":11379,"oft":11380,"pers":11381,"Ġpitch":11382,"Ġfled":11383,"Ġnab":11384,"mentioned":11385,"Ġstun":11386,"Ġasleep":11387,"weg":11388,"Ġacid":11389,"Ġdisgu":11390,"Ġros":11391,"Ġcommitting":11392,"ratory":11393,"Ġextin":11394,"Ġcurb":11395,"Ġquestioned":11396,"Ġprotective":11397,"Ġbacks":11398,"Ġinteroperability":11399,"Ġblan":11400,"Ġdistress":11401,"Ġfamine":11402,"Ġpassage":11403,"Ġmaintains":11404,"Ġchallenged":11405,"common":11406,"Ġeventual":11407,"Ġdenying":11408,"Ġvirgin":11409,"Ġtraveling":11410,"Ġprisoner":11411,"Ġreferenda":11412,"Ġimplicit":11413,"Ġshameful":11414,"Ġdemonstrators":11415,"Ġinfringements":11416,"iosity":11417,"Ġrelocation":11418,"Ġecosystem":11419,"Ġauction":11420,"Ġredistribution":11421,"Ãºn":11422,"Ġgnp":11423,"Ġrehabilitation":11424,"Ġlifetime":11425,"Ġirrelevant":11426,"ao":11427,"aired":11428,"culate":11429,"ias":11430,"lining":11431,"oons":11432,"rand":11433,"sided":11434,"vency":11435,"Ġtheories":11436,"oni":11437,"onou":11438,"Ġozone":11439,"Ġbund":11440,"Ġbern":11441,"Ġdol":11442,"asy":11443,"Ġwhist":11444,"Ġcondu":11445,"Ġeurojust":11446,"estyle":11447,"Ġatrocities":11448,"Ġchad":11449,"Ġaggra":11450,"Ġjos":11451,"Ġkat":11452,"Ġrepressive":11453,"early":11454,"tech":11455,"oints":11456,"heimer":11457,"Ġconcerted":11458,"Ġspa":11459,"itement":11460,"Ġrelaunch":11461,"Ġdeficiencies":11462,"Ġrealism":11463,"Ġturmo":11464,"Ġinterl":11465,"Ġlifestyle":11466,"Ġorganize":11467,"Ġirrational":11468,"engu":11469,"Ġpeacekeeping":11470,"Ġbarrel":11471,"Ġretention":11472,"Ġhomeland":11473,"Ġmorality":11474,"Ġheadlines":11475,"azz":11476,"Ġcircu":11477,"Ġemployee":11478,"Ġilo":11479,"Ġembed":11480,"Ġhorri":11481,"Ġhorror":11482,"Ġ140":11483,"Ġmanufacturer":11484,"Ġsynergy":11485,"Ġjudgement":11486,"Ġaccelerated":11487,"Ġolympics":11488,"Ġdissatisf":11489,"Ġincidentally":11490,"Ġmemories":11491,"Ġqaeda":11492,"Ġprivatisation":11493,"Ġcontaminated":11494,"Ġcabinet":11495,"Ġwarnings":11496,"Ġuganda":11497,"Ġmusharraf":11498,"Ġorchest":11499,"Ġderivatives":11500,"Ġscottish":11501,"Ġturmoil":11502,"bro":11503,"eba":11504,"field":11505,"gor":11506,"lit":11507,"poll":11508,"trodu":11509,"Ġari":11510,"Ġtheater":11511,"eries":11512,"Ġcited":11513,"anmar":11514,"Ġfurn":11515,"arat":11516,"Ġreef":11517,"Ġrethink":11518,"aside":11519,"sts":11520,"Ġgay":11521,"rayed":11522,"iration":11523,"Ġshy":11524,"Ġparking":11525,"Ġvlad":11526,"rome":11527,"Ġji":11528,"llers":11529,"Ġcomposed":11530,"Ġworkable":11531,"Ġteles":11532,"Ġarray":11533,"okes":11534,"Ġobli":11535,"Ġbother":11536,"Ġhumili":11537,"Ġconfusing":11538,"Ġscream":11539,"Ġstandpoint":11540,"Ġlegislate":11541,"Ġphare":11542,"Ġconvicted":11543,"Ġ47":11544,"Ġlocally":11545,"Ġvisiting":11546,"Ġproperties":11547,"Ġburned":11548,"Ġeuratom":11549,"Ġselfish":11550,"Ġinfluential":11551,"tomorrow":11552,"Ġdeadlock":11553,"Ġtempor":11554,"Ġreintrodu":11555,"Ġdescribes":11556,"climate":11557,"Ġstandardisation":11558,"Ġdiplomats":11559,"Ġhitler":11560,"Ġtendencies":11561,"Ġconversion":11562,"Ġreservation":11563,"Ġtighten":11564,"Ġdisadvantages":11565,"Ġrecipient":11566,"Ġprivileges":11567,"Ġnuts":11568,"ÃŃn":11569,"Ġdisturb":11570,"Ġrocket":11571,"Ġcotonou":11572,"Ġexercised":11573,"Ġpandemic":11574,"Ġaxis":11575,"various":11576,"Ġemphatically":11577,"Ġmalaysia":11578,"Ġunreasonable":11579,"zbekistan":11580,"Ġauthentic":11581,"bendit":11582,"gone":11583,"lat":11584,"show":11585,"upp":11586,"Ġthrew":11587,"Ġslu":11588,"Ġmubarak":11589,"Ġfiction":11590,"Ġhin":11591,"Ġhub":11592,"icago":11593,"Ġlion":11594,"Ġhamp":11595,"Ġaltered":11596,"Ġunle":11597,"Ġunavoid":11598,"Ġchan":11599,"Ġjames":11600,"Ġkla":11601,"Ġdisinteg":11602,"Ġoutdated":11603,"Ġinclined":11604,"izar":11605,"foreign":11606,"Ġramp":11607,"vedev":11608,"Ġtooth":11609,"Ġdefect":11610,"Ġentrust":11611,"Ġassent":11612,"Ġmodes":11613,"Ġblamed":11614,"Ġ39":11615,"Ġcompleting":11616,"Ġdistances":11617,"Ġrecognizing":11618,"novation":11619,"regrett":11620,"Ġdevised":11621,"Ġhugely":11622,"Ġemerges":11623,"Ġstriving":11624,"Ġclassified":11625,"Ġclassification":11626,"ieties":11627,"Ġmandelson":11628,"Ġinvestigating":11629,"Ġarriving":11630,"Ġsupervis":11631,"Ġderive":11632,"Ġengineer":11633,"Ġdominate":11634,"Ġangle":11635,"Ġlebanese":11636,"moving":11637,"Ġmobilise":11638,"Ġattendance":11639,"Ġvacation":11640,"Ġphotographs":11641,"Ġentrepreneurship":11642,"Ġfoolish":11643,"Ġcounterfeit":11644,"Ġbranch":11645,"Ġsuperflu":11646,"Ġantibiotics":11647,"Ġmanoeuvre":11648,"ignificant":11649,"hopefully":11650,"crisis":11651,"regrettably":11652,"03":11653,"away":11654,"gas":11655,"mare":11656,"van":11657,"zheimer":11658,"Ĥ¬":11659,"ref":11660,"atibility":11661,"Ġcite":11662,"Ġolig":11663,"Ġbills":11664,"Ġfox":11665,"Ġinad":11666,"Ġdressed":11667,"Ġef":11668,"ilib":11669,"Ġgates":11670,"Ġlud":11671,"Ġstub":11672,"owing":11673,"Ġdelete":11674,"Ġunden":11675,"imm":11676,"imir":11677,"Ġcanad":11678,"enders":11679,"Ġplun":11680,"Ġmarsh":11681,"Ġracial":11682,"Ġspill":11683,"Ġconfed":11684,"Ġapproving":11685,"Ġdiscl":11686,"Ġcurric":11687,"Ġhopeful":11688,"Ġinsists":11689,"Ġpoly":11690,"Ġpoem":11691,"Ġ52":11692,"thenburg":11693,"Ġexplos":11694,"Ġmotives":11695,"Ġerasmus":11696,"Ġassisting":11697,"Ġgeared":11698,"ushch":11699,"Ġfigured":11700,"Ġindicating":11701,"Ġtraffick":11702,"Ġigno":11703,"Ġdrunk":11704,"Ġcounterproductive":11705,"annual":11706,"Ġblackmail":11707,"Ġclaiming":11708,"Ġmanufactured":11709,"Ġfeedback":11710,"sky":11711,"burgh":11712,"compliance":11713,"Ġsharon":11714,"atoeba":11715,"Ġaccurately":11716,"Ġimperfect":11717,"ĠâĤ¬":11718,"Ġintensified":11719,"Ġupdated":11720,"Ġeradication":11721,"Ġdiscriminatory":11722,"modern":11723,"Ġrevolutions":11724,"Ġhesitate":11725,"Ġassassination":11726,"industrial":11727,"Ġharassment":11728,"Ġadjour":11729,"environmental":11730,"Ġsahara":11731,"Ġ``":11732,"Ġnineteenth":11733,"Ġjohannesburg":11734,"Ġaggrav":11735,"Ġsuperfluous":11736,"aurs":11737,"city":11738,"creat":11739,"london":11740,"ping":11741,"rne":11742,"scient":11743,"youn":11744,"Ġcres":11745,"Ġcia":11746,"Ġbible":11747,"Ġmam":11748,"Ġanno":11749,"stay":11750,"stud":11751,"Ġgolf":11752,"Ġlen":11753,"Ġlul":11754,"Ġlone":11755,"Ġdeaf":11756,"Ġunthink":11757,"Ġsever":11758,"Ġseized":11759,"Ġjim":11760,"Ġheed":11761,"aculture":11762,"nowadays":11763,"Ġincumb":11764,"Ġcoach":11765,"itionally":11766,"Ġprerog":11767,"hey":11768,"Ġrains":11769,"Ġundergoing":11770,"Ġspots":11771,"Ġresponds":11772,"ologies":11773,"Ġenviron":11774,"Ġpreval":11775,"Ġdownward":11776,"Ġfraction":11777,"Ġpowerless":11778,"Ġinstinct":11779,"Ġcondol":11780,"Ġpope":11781,"Ġcombining":11782,"Ġvisibility":11783,"Ġmindset":11784,"Ġargues":11785,"central":11786,"Ġwaiver":11787,"ometric":11788,"Ġdevise":11789,"Ġmodernise":11790,"Ġcrossed":11791,"Ġdenomin":11792,"Ġdenounce":11793,"Ġcleared":11794,"Ġrenewables":11795,"Ġunders":11796,"Ġchecking":11797,"ustomed":11798,"Ġcomplained":11799,"Ġvisitors":11800,"Ġchemistry":11801,"Ġgraduate":11802,"Ġterribly":11803,"Ġspokes":11804,"Ġconceal":11805,"Ġgeography":11806,"Ġmobilisation":11807,"Ġchurches":11808,"Ġdefeated":11809,"developing":11810,"Ġholes":11811,"capital":11812,"Ġdecreased":11813,"Ġnutrition":11814,"Ġbreaches":11815,"Ġconversations":11816,"Ġmurders":11817,"Ġunpredict":11818,"Ġcfp":11819,"Ġcataly":11820,"history":11821,"Ġflawed":11822,"Ġsocrates":11823,"profit":11824,"Ġcypriots":11825,"Ġnaive":11826,"Ġincurred":11827,"Ġmassacre":11828,"Ġinflows":11829,"violence":11830,"Ġsmuggling":11831,"Ġunambiguous":11832,"Ġkilometres":11833,"Ġdecommissioning":11834,"Ġparadigm":11835,"Ġtropical":11836,"Ġuncomfort":11837,"cred":11838,"Ġbizar":11839,"Ġfo":11840,"oure":11841,"Ġhanging":11842,"Ġeman":11843,"star":11844,"Ġforty":11845,"Ġhamm":11846,"Ġbyrne":11847,"sofar":11848,"Ġgothenburg":11849,"Ġorph":11850,"Ġliik":11851,"aste":11852,"agog":11853,"ache":11854,"Ġoversight":11855,"actor":11856,"Ġmini":11857,"Ġdefines":11858,"Ġcolumn":11859,"Ġprevails":11860,"Ġmeda":11861,"Ġmedina":11862,"Ġsheets":11863,"Ġflash":11864,"Ġdrives":11865,"Ġdeepen":11866,"Ġcrude":11867,"Ġverification":11868,"Ġstepping":11869,"Ġarafat":11870,"Ġtempted":11871,"frank":11872,"Ġundes":11873,"Ġreinteg":11874,"progress":11875,"Ġhygi":11876,"Ġslogan":11877,"Ġ130":11878,"Ã¶r":11879,"Ġterrif":11880,"Ġcompelling":11881,"americans":11882,"Ġslightest":11883,"Ġcelebrated":11884,"impro":11885,"Ġfertil":11886,"Ġadmire":11887,"Ġwebsites":11888,"Ġirreversible":11889,"Ġshapes":11890,"Ġsmoothly":11891,"Ġghost":11892,"control":11893,"Ġacadem":11894,"Ġredundancies":11895,"Ġmisunderstand":11896,"Ġadvisers":11897,"Ġlamy":11898,"Ġmystery":11899,"education":11900,"Ġelephant":11901,"Ġrefunds":11902,"Ġneurons":11903,"Ġbiomass":11904,"Ġfrancisco":11905,"Ġfierce":11906,"Ġahmadinejad":11907,"Ġenvironments":11908,"Ġliikanen":11909,"brid":11910,"hour":11911,"moud":11912,"wind":11913,"Ġthr":11914,"redu":11915,"Ġsink":11916,"Ġcents":11917,"Ġoomen":11918,"itual":11919,"Ġmild":11920,"Ġeinstein":11921,"Ġlord":11922,"Ġhavens":11923,"rians":11924,"irs":11925,"Ġsuited":11926,"admitted":11927,"Ġvested":11928,"solete":11929,"Ġrank":11930,"Ġjam":11931,"Ġhege":11932,"Ġheated":11933,"Ġheating":11934,"Ġabilities":11935,"Ġpoles":11936,"Ġintact":11937,"Ġpeters":11938,"render":11939,"Ġsamp":11940,"Ġpreoccup":11941,"Ġgovernor":11942,"mming":11943,"rator":11944,"Ġmonu":11945,"Ġquestionable":11946,"Ġassu":11947,"Ġbackward":11948,"neys":11949,"Ġinvestor":11950,"Ġvalidity":11951,"Ġreads":11952,"Ġrevive":11953,"Ġburied":11954,"Ġconflicting":11955,"Ġrequesting":11956,"Ġski":11957,"Ġprobability":11958,"Ġorigins":11959,"Ġcycles":11960,"Ġindicative":11961,"Ġanalysed":11962,"linary":11963,"anny":11964,"Ġconfirmation":11965,"Ġsunni":11966,"Ġhitting":11967,"Ġbureaucrats":11968,"Ġtransforming":11969,"rosoft":11970,"Ġcorporation":11971,"Ġboycot":11972,"Ġabandoning":11973,"ullah":11974,"Ġparaly":11975,"Ġscandina":11976,"Ġpurchases":11977,"Ġunnecessarily":11978,"Ġlicens":11979,"Ġolive":11980,"Ġflags":11981,"Ġoverwhelm":11982,"Ġdictatorships":11983,"Ġevaluating":11984,"Ġintensity":11985,"Ġsudanese":11986,"Ġicc":11987,"Ġheroes":11988,"Ġintolerance":11989,"Ġunjustified":11990,"Ġdividing":11991,"Ġgalaxies":11992,"Ġsentiment":11993,"Ġcorrection":11994,"Ġdissemin":11995,"Ġflourish":11996,"ĠbÃ¶ge":11997,"Ġvladimir":11998,"Ġtemporarily":11999,"Ġignores":12000,"admittedly":12001,"ser":12002,"Ã±":12003,"Ġtender":12004,"Ġaven":12005,"Ġbour":12006,"roat":12007,"rooms":12008,"Ġrehn":12009,"struct":12010,"Ġlan":12011,"Ġlament":12012,"sement":12013,"Ġdeleted":12014,"Ġunlimited":12015,"lip":12016,"Ġcharity":12017,"Ġheaven":12018,"Ġkor":12019,"Ġrepay":12020,"Ġrio":12021,"Ġapples":12022,"Ġfee":12023,"Ġpolite":12024,"Ġindians":12025,"Ġmoz":12026,"Ġholy":12027,"Ġsignature":12028,"overall":12029,"islam":12030,"Ġsimplicity":12031,"Ġmodification":12032,"Ġschr":12033,"commit":12034,"Ġhandic":12035,"Ġesp":12036,"Ġpole":12037,"Ġstark":12038,"legisl":12039,"Ġrecognizes":12040,"Ġflav":12041,"iberal":12042,"Ġmiser":12043,"Ġzo":12044,"strong":12045,"Ġmethodology":12046,"Ġassociate":12047,"Ġreviewing":12048,"exam":12049,"Ġmaln":12050,"Ġexploiting":12051,"ijten":12052,"Ġinsisting":12053,"Ġautomotive":12054,"twenty":12055,"Ġdominance":12056,"Ġabolishing":12057,"Ġgeorgian":12058,"Ġinterpretations":12059,"Ġgeographic":12060,"Ġreliability":12061,"attered":12062,"efficient":12063,"Ġshifted":12064,"Ġillnesses":12065,"Ġcensorship":12066,"Ġtaller":12067,"Ġvarying":12068,"Ġimperialist":12069,"Ġshelter":12070,"Ġbranches":12071,"Ġresignation":12072,"Ġportfolio":12073,"Ġsaturday":12074,"Ġdinosaurs":12075,"Ġerupt":12076,"Ġfruits":12077,"Ġbolivia":12078,"Ġcognitive":12079,"Ġstereoty":12080,"ez":12081,"god":12082,"group":12083,"ih":12084,"lor":12085,"mouth":12086,"Ġtide":12087,"Ġthomas":12088,"reform":12089,"Ġwines":12090,"itter":12091,"iture":12092,"Ġpiv":12093,"Ġpengu":12094,"Ġholland":12095,"Ġreap":12096,"Ġrena":12097,"Ġlas":12098,"Ġlock":12099,"Ġwhis":12100,"otted":12101,"pelled":12102,"ldom":12103,"Ġsty":12104,"Ġalt":12105,"chi":12106,"ules":12107,"ulum":12108,"ounder":12109,"anted":12110,"Ġvitor":12111,"mbowski":12112,"Ġritual":12113,"Ġliable":12114,"Ġkir":12115,"Ġamnesty":12116,"Ġcontag":12117,"Ġpecul":12118,"ireland":12119,"techn":12120,"Ġcoat":12121,"Ġsample":12122,"Ġprecip":12123,"Ġtrapped":12124,"Ġobsolete":12125,"Ġperu":12126,"Ġoverview":12127,"Ġtwin":12128,"Ġaccustomed":12129,"Ġbasel":12130,"Ġ192":12131,"Ġlasted":12132,"Ġprotects":12133,"need":12134,"Ġsuccession":12135,"Ġprint":12136,"Ġhealthier":12137,"Ġinsurg":12138,"Ġcontributors":12139,"Ġshortfall":12140,"Ġvaries":12141,"Ġpencil":12142,"Ġsuperpower":12143,"Ġmuscle":12144,"Ġexchanging":12145,"Ġbias":12146,"Ġobligatory":12147,"Ġcycl":12148,"Ġilliter":12149,"Ġislamists":12150,"Ġanalysing":12151,"Ġreinforces":12152,"Ġdescribing":12153,"zembowski":12154,"Ġproceeding":12155,"Ġultra":12156,"ikh":12157,"Ġtelecom":12158,"Ġsporting":12159,"Ġpsychology":12160,"Ġthrowing":12161,"Ġrigour":12162,"Ġtragedies":12163,"Ġtougher":12164,"Ġprohibition":12165,"Ġbridges":12166,"Ġtightening":12167,"Ġinjuries":12168,"Ġexempt":12169,"Ġearnings":12170,"Ġthresholds":12171,"Ġyields":12172,"Ġlaughing":12173,"Ġpostponement":12174,"Ġfragmentation":12175,"Ġnominal":12176,"Ġastonishing":12177,"Ġmahmoud":12178,"Ġjarzembowski":12179,"Ġpuzzle":12180,"Ġpupils":12181,"Ġduplication":12182,"Ġalexander":12183,"Ġastronom":12184,"ĠcancÃºn":12185,"Ġparalysis":12186,"Ġhurricane":12187,"Ġaggregate":12188,"Ġscourge":12189,"Ġkashmir":12190,"ilibrium":12191,"Ġunthinkable":12192,"dog":12193,"iries":12194,"sud":12195,"serv":12196,"tings":12197,"Ã´":12198,"remember":12199,"Ġwik":12200,"isons":12201,"Ġsket":12202,"Ġcock":12203,"Ġpounds":12204,"Ġank":12205,"oming":12206,"otion":12207,"otism":12208,"Ġweird":12209,"Ġstif":12210,"Ġstakes":12211,"ramid":12212,"Ġnotification":12213,"Ġunlaw":12214,"opular":12215,"Ġshore":12216,"ichet":12217,"Ġresent":12218,"umably":12219,"Ġtrichet":12220,"Ġmanager":12221,"ruijten":12222,"Ġraining":12223,"Ġoverr":12224,"Ġbasque":12225,"Ġgeneric":12226,"Ġconfer":12227,"Ġprototy":12228,"Ġtreatments":12229,"Ġrespectively":12230,"Ġsurrender":12231,"Ġcoral":12232,"Ġcritically":12233,"Ġbali":12234,"Ġfreeze":12235,"Ġplea":12236,"Ġappearing":12237,"Ġtransported":12238,"Ġairspace":12239,"Ġcongratulated":12240,"Ġspecialists":12241,"Ġurging":12242,"Ġlanding":12243,"Ġlosers":12244,"Ġecr":12245,"Ġinflux":12246,"Ġbike":12247,"marks":12248,"inson":12249,"Ġcriticized":12250,"Ġcalculation":12251,"Ġclassical":12252,"Ġpainted":12253,"2004":12254,"Ġcomplaining":12255,"Ġcontinental":12256,"Ġsafeguarded":12257,"roads":12258,"Ġarrests":12259,"Ġcatches":12260,"Ġmentality":12261,"Ġinfectious":12262,"Ġarchitects":12263,"Ġaccelerating":12264,"supp":12265,"Ġdetection":12266,"Ġfostering":12267,"Ġdistorted":12268,"Ġperceive":12269,"Ġbreathing":12270,"Ġjeopardise":12271,"Ġladen":12272,"Ġpersecuted":12273,"Ġlagging":12274,"Ġtroubles":12275,"Ġtroubled":12276,"Ġperiphery":12277,"Ġpyramid":12278,"greece":12279,"Ġbizarre":12280,"Ġvitorino":12281,"2000":12282,"card":12283,"post":12284,"uate":12285,"Ġtenth":12286,"rey":12287,"erts":12288,"Ġcine":12289,"Ġbh":12290,"Ġdent":12291,"Ġdense":12292,"Ġduly":12293,"lez":12294,"Ġrelies":12295,"Ġrebel":12296,"Ġgate":12297,"Ġgsp":12298,"Ġlakes":12299,"Ġstig":12300,"Ġnotable":12301,"Ġseldom":12302,"Ġlean":12303,"Ġgoe":12304,"Ġlip":12305,"reevy":12306,"Ġwhoever":12307,"cycl":12308,"Ġrecovered":12309,"Ġoverdue":12310,"rising":12311,"Ġgenius":12312,"Ġsocialism":12313,"Ġmarketplace":12314,"Ġenters":12315,"Ġassumes":12316,"Ġguilt":12317,"Ġcarc":12318,"Ġcolors":12319,"Ġcolumb":12320,"Ġformat":12321,"Ġinfer":12322,"Ġmodifications":12323,"Ġdepreci":12324,"Ġsurf":12325,"Ġedf":12326,"Ġdistrict":12327,"swed":12328,"Ġcivilised":12329,"Ġlocations":12330,"Ġiranians":12331,"Ġmetals":12332,"Ġverdict":12333,"Ġlandf":12334,"Ġloses":12335,"ahu":12336,"Ġteaches":12337,"Ġnightmare":12338,"Ġreinforcing":12339,"2002":12340,"Ġdawn":12341,"Ġdefenders":12342,"Ġbelgrade":12343,"Ġpopularity":12344,"Ġkyi":12345,"Ġconditionality":12346,"Ġconsolidating":12347,"Ġangola":12348,"Ġmicrosoft":12349,"throughout":12350,"Ġsisters":12351,"Ġprofitability":12352,"Ġknife":12353,"Ġghana":12354,"Ġambiguous":12355,"Ġpreconditions":12356,"Ġsoccer":12357,"Ġcoincidence":12358,"Ġescalation":12359,"Ġathlet":12360,"competitive":12361,"Ġembryos":12362,"Ġcigarette":12363,"protection":12364,"inflation":12365,"Ġrestraint":12366,"Ġhierarchy":12367,"Ġcynical":12368,"Ġcrystal":12369,"Ġembedded":12370,"Ġuncomfortable":12371,"low":12372,"were":12373,"wage":12374,"Ġtables":12375,"isan":12376,"erra":12377,"Ġpou":12378,"Ġmile":12379,"Ġinsofar":12380,"icit":12381,"Ġrebuilding":12382,"ulent":12383,"Ġunbelie":12384,"Ġsuu":12385,"opening":12386,"Ġsemi":12387,"osity":12388,"Ġvisions":12389,"asty":12390,"lose":12391,"Ġimporting":12392,"agg":12393,"ernal":12394,"Ġrolling":12395,"Ġtakeover":12396,"Ġstrand":12397,"Ġbelieving":12398,"Ġclearing":12399,"Ġresponsibly":12400,"lude":12401,"Ġglobalised":12402,"Ġmedvedev":12403,"Ġschmid":12404,"lander":12405,"Ġcrew":12406,"Ġshell":12407,"Ġdemocratization":12408,"Ġgentleman":12409,"Ġconsumed":12410,"Ġprojected":12411,"Ġtaxi":12412,"Ġcreature":12413,"ĠbarÃ³n":12414,"doing":12415,"Ġexploration":12416,"Ġsciences":12417,"Ġruin":12418,"Ġdrift":12419,"offs":12420,"2010":12421,"Ġimmigrant":12422,"Ġstressing":12423,"Ġdoubtful":12424,"Ġvolcan":12425,"garians":12426,"Ġmigratory":12427,"Ã©n":12428,"Ġsunlight":12429,"Ġcontractual":12430,"Ġphysic":12431,"Ġmeaningless":12432,"aware":12433,"Ġbaseball":12434,"Ġproportionate":12435,"Ġamazed":12436,"Ġpremise":12437,"Ġmatched":12438,"Ġrecipients":12439,"Ġprevailed":12440,"welcome":12441,"Ġupdating":12442,"Ġprague":12443,"Ġenthusiastic":12444,"Ġnaval":12445,"Ġprovider":12446,"Ġindiscrimin":12447,"aphne":12448,"Ġangel":12449,"Ġfronts":12450,"Ã¨s":12451,"Ġpollutants":12452,"Ġmccreevy":12453,"Ġresolutely":12454,"Ġexhibition":12455,"Ġoutrageous":12456,"Ġupheld":12457,"Ġexaggerated":12458,"Ġnigerian":12459,"Ġferrero":12460,"Ġinsects":12461,"measures":12462,"Ġmultilingualism":12463,"Ġmisman":12464,"Ġmilestone":12465,"Ġhorrible":12466,"Ġunavoidable":12467,"Ġcanadian":12468,"young":12469,"bone":12470,"gb":12471,"hes":12472,"hundred":12473,"nato":12474,"zero":12475,"ĠÅ¡":12476,"Ġsessions":12477,"oria":12478,"arctic":12479,"omes":12480,"Ġbeating":12481,"section":12482,"semit":12483,"urt":12484,"Ġconqu":12485,"Ġalliances":12486,"Ġalzheimer":12487,"char":12488,"irts":12489,"Ġleve":12490,"Ġleaf":12491,"Ġcharm":12492,"Ġagent":12493,"usible":12494,"Ġko":12495,"aki":12496,"consid":12497,"Ġshoulders":12498,"Ġpeer":12499,"rene":12500,"Ġtru":12501,"Ġdisorders":12502,"Ġmanual":12503,"agues":12504,"rule":12505,"Ġexpressions":12506,"Ġapplause":12507,"Ġapparat":12508,"Ġconcur":12509,"Ġspark":12510,"Ġspont":12511,"Ġyourselves":12512,"Ġremun":12513,"Ġconfuse":12514,"Ġinterface":12515,"Ġallowance":12516,"Ġblank":12517,"Ġvalued":12518,"Ġ350":12519,"Ġpeacefully":12520,"Ġfundamentals":12521,"Ġlabels":12522,"Ġbars":12523,"Ġpassports":12524,"Ġcentralised":12525,"Ġmotto":12526,"Ġpenet":12527,"Ġtextbook":12528,"Ġero":12529,"Ġdesigning":12530,"Ġexcluding":12531,"Ġlanded":12532,"Ġattacking":12533,"Ġillusions":12534,"Ġjuncture":12535,"Ġcalend":12536,"Ġexporter":12537,"Ġslowing":12538,"Ġenjoys":12539,"Ġfulfill":12540,"Ġpray":12541,"Ġsoldier":12542,"Ġcleaning":12543,"Ġgladly":12544,"Ġtroika":12545,"Ġwithdrawing":12546,"Ġcompelled":12547,"track":12548,"Ġrent":12549,"Ġpreceded":12550,"disc":12551,"Ġentrepreneurial":12552,"Ġmagnific":12553,"Ġwoods":12554,"Ġapologize":12555,"Ġguns":12556,"Ġhorizon":12557,"Ġpulling":12558,"Ġneutrality":12559,"school":12560,"Ġgrassroots":12561,"conflic":12562,"Ġflaws":12563,"Ġugly":12564,"Ġpocket":12565,"rendt":12566,"Ġprolonged":12567,"Ġlyn":12568,"defined":12569,"washington":12570,"Ġescaped":12571,"Ġunconditional":12572,"Ġmergers":12573,"Ġindefinitely":12574,"Ġnabuc":12575,"Ġcondolences":12576,"Ġassumptions":12577,"Ġspontane":12578,"04":12579,"eight":12580,"fam":12581,"hor":12582,"iri":12583,"iance":12584,"kward":12585,"rgy":12586,"suff":12587,"success":12588,"wald":12589,"ĠÂ":12590,"Ġtip":12591,"Ġwi":12592,"Ġwing":12593,"Ġcows":12594,"Ġpave":12595,"Ġplight":12596,"Ġpnr":12597,"Ġfusion":12598,"Ġants":12599,"Ġanomal":12600,"roed":12601,"Ġepp":12602,"Ġerect":12603,"Ġnich":12604,"Ġngo":12605,"ask":12606,"stad":12607,"Ġgut":12608,"Ġuzbekistan":12609,"Ġsticking":12610,"Ġyard":12611,"qual":12612,"Ġatoms":12613,"Ġbypass":12614,"Ġchimp":12615,"usa":12616,"Ġreson":12617,"aka":12618,"Ġbutt":12619,"Ġproportions":12620,"Ġexped":12621,"Ġarsen":12622,"Ġfeat":12623,"Ġrecre":12624,"orses":12625,"Ġcuriosity":12626,"Ġquestioning":12627,"Ġdefensive":12628,"Ġrealm":12629,"Ġempowered":12630,"Ġachievable":12631,"comb":12632,"Ġeste":12633,"Ġequals":12634,"Ġbalancing":12635,"Ġwriters":12636,"Ġexperimental":12637,"Ġmisuse":12638,"Ġslim":12639,"Ġfried":12640,"Ġ2014":12641,"Ġtargeting":12642,"Ġhalfway":12643,"Ġdeepest":12644,"Ġweakest":12645,"Ġemployer":12646,"Ġstems":12647,"Ġlovely":12648,"anyway":12649,"Ġhyper":12650,"Ġtraveled":12651,"evident":12652,"Ġinhuman":12653,"Ġpublishing":12654,"specific":12655,"Ġcelebrating":12656,"Ġmexican":12657,"implement":12658,"Ġsubmitting":12659,"Ġillustrated":12660,"Ġtunisian":12661,"Ġmolecule":12662,"Ġbeneficiary":12663,"hardt":12664,"Ġfrightening":12665,"investment":12666,"Ġembarrassing":12667,"brazil":12668,"Ġlaptop":12669,"Ġindifferent":12670,"Ġbargaining":12671,"simply":12672,"Ġtiger":12673,"Ġaquaculture":12674,"Ġlivelihoods":12675,"Ġcasualties":12676,"Ġcrespo":12677,"actorily":12678,"ĠschrÃ¶der":12679,"Ġpeculiar":12680,"Ġerosion":12681,"Ġnabucco":12682,"rgyz":12683,"17":12684,"bish":12685,"bach":12686,"dist":12687,"direct":12688,"fia":12689,"money":12690,"rin":12691,"tun":12692,"Ġwound":12693,"Ġmes":12694,"Ġmol":12695,"Ġfles":12696,"Ġflies":12697,"Ġinsure":12698,"Ġhen":12699,"Ġhans":12700,"Ġdensity":12701,"Ġdaphne":12702,"ctors":12703,"Ġgi":12704,"Ġwhale":12705,"Ġdeforestation":12706,"chinese":12707,"atemal":12708,"imity":12709,"Ġenqu":12710,"Ġenforcing":12711,"Ġchech":12712,"igence":12713,"Ġplate":12714,"aug":12715,"teenth":12716,"Ġtex":12717,"Ġoverly":12718,"Ġaccounted":12719,"Ġcommunists":12720,"Ġguer":12721,"Ġcaring":12722,"Ġintercultural":12723,"Ġadopts":12724,"Ġmoderation":12725,"Ġschroed":12726,"Ġhandful":12727,"ucks":12728,"egal":12729,"Ġequilibrium":12730,"Ġwheat":12731,"Ġrevising":12732,"Ġeasing":12733,"Ġspecify":12734,"Ġtribes":12735,"Ġoperator":12736,"Ġidi":12737,"Ġemphasising":12738,"Ġantarctic":12739,"Ġurges":12740,"Ġverify":12741,"Ġconsulting":12742,"Ġjuncker":12743,"Ġratings":12744,"Ġpressed":12745,"ltry":12746,"Ġindustrialised":12747,"Ġlimitation":12748,"anyahu":12749,"Ġdistribute":12750,"Ġcharacters":12751,"Ġsilver":12752,"2008":12753,"Ġexecuted":12754,"Ġobservatory":12755,"Ġadvertise":12756,"fourth":12757,"Ġexceeds":12758,"keepers":12759,"Ġadmiration":12760,"Ġglasses":12761,"Ġinterpreters":12762,"Ġsongs":12763,"Ġmolecular":12764,"Ġpigs":12765,"Ġunderestimated":12766,"Ġcereals":12767,"poor":12768,"Ġexacerbated":12769,"Ġdetainees":12770,"Ġscoreboard":12771,"Ġprudent":12772,"Ġinterrupted":12773,"Ġsentiments":12774,"Ġlehne":12775,"Ġscholars":12776,"particularly":12777,"Ġprovinces":12778,"Ġadjourned":12779,"Ġlulling":12780,"Ġhygiene":12781,"fishing":12782,"hen":12783,"Ġthick":12784,"Ġwary":12785,"enza":12786,"Ġcord":12787,"itt":12788,"Ġpound":12789,"especially":12790,"inge":12791,"Ġdc":12792,"Ġlor":12793,"Ġascertain":12794,"ghdad":12795,"Ġunple":12796,"Ġwilli":12797,"ainted":12798,"Ġchairs":12799,"Ġimplied":12800,"Ġbutton":12801,"Ġrepatri":12802,"ums":12803,"umane":12804,"Ġregen":12805,"Ġouter":12806,"Ġcomplying":12807,"Ġtransmitted":12808,"Ġmature":12809,"Ġbasket":12810,"Ġsittings":12811,"Ġsierra":12812,"Ġhappily":12813,"Ġhappier":12814,"Ġscare":12815,"balance":12816,"hips":12817,"took":12818,"Ġformulation":12819,"Ġdonations":12820,"Ġorganism":12821,"Ġirrit":12822,"perform":12823,"Ġprogressively":12824,"Ġ54":12825,"Ġgenerals":12826,"financed":12827,"Ġtribal":12828,"Ġmiscon":12829,"Ġgrey":12830,"Ġhonoured":12831,"ups":12832,"Ġapplicants":12833,"Ġassistants":12834,"Ġobsessed":12835,"Ġsuperior":12836,"spain":12837,"Ġportion":12838,"Ġcollateral":12839,"secure":12840,"Ġcounterpart":12841,"Ġconstructively":12842,"Ġshipbuilding":12843,"Ġharness":12844,"Ġarranged":12845,"Ġoccupational":12846,"aughters":12847,"Ġadjusted":12848,"Ġobserving":12849,"feld":12850,"Ġinsistence":12851,"Ġdischar":12852,"Ġkyrgyz":12853,"Ġfixing":12854,"Ġunsafe":12855,"Ġincorporation":12856,"Ġcondemns":12857,"Ġmicros":12858,"guided":12859,"Ġmultilateralism":12860,"Ġchristianity":12861,"Ġ1967":12862,"Ġexecutives":12863,"Ġembraced":12864,"Ġabsorbed":12865,"Ġbeaten":12866,"Ġbailout":12867,"Ġstipulated":12868,"Ġsacrifices":12869,"Ġdrastically":12870,"Ġdeposits":12871,"Ġdissemination":12872,"question":12873,"Ġembarked":12874,"Ġattributed":12875,"Ġcigarettes":12876,"Ġbaghdad":12877,"Ġproclaimed":12878,"driven":12879,"Ġknees":12880,"benef":12881,"Ġdecoupling":12882,"Ġextinction":12883,"Ġincumbent":12884,"Ġunpredictable":12885,"Ġundesirable":12886,"Ġpoultry":12887,"waldner":12888,"cive":12889,"cod":12890,"main":12891,"voc":12892,"Ġay":12893,"Ġavert":12894,"Ġwins":12895,"Ġwiped":12896,"isa":12897,"Ġcave":12898,"Ġbits":12899,"Ġfake":12900,"Ġfence":12901,"omy":12902,"otti":12903,"Ġalgor":12904,"chair":12905,"mping":12906,"Ġsuits":12907,"opian":12908,"erer":12909,"unting":12910,"estion":12911,"Ġcher":12912,"Ġranging":12913,"Ġhelic":12914,"Ġevidently":12915,"Ġindign":12916,"Ġinviting":12917,"Ġoverha":12918,"Ġhadn":12919,"Ġsyner":12920,"ighting":12921,"Ġsubmission":12922,"xty":12923,"Ġenduring":12924,"Ġguatemal":12925,"Ġgrowers":12926,"Ġinteractive":12927,"Ġbeforehand":12928,"Ġcaptain":12929,"Ġdonation":12930,"Ġlegislature":12931,"Ġrevital":12932,"Ġ51":12933,"Ġcareers":12934,"Ġawkward":12935,"Ġvariation":12936,"Ġspecifications":12937,"Ġcredential":12938,"Ġerika":12939,"Ġgenerates":12940,"Ġimposes":12941,"Ġsatisfactorily":12942,"Ġfloating":12943,"Ġcheese":12944,"Ġ110":12945,"Ġmissiles":12946,"Ġconcentrating":12947,"Ġsurviv":12948,"Ġcustomer":12949,"Ġpredic":12950,"relations":12951,"Ġtolerated":12952,"Ġsurveys":12953,"Ġlicense":12954,"Ġflooding":12955,"Ġevolving":12956,"Ġevaluated":12957,"Ġendorses":12958,"Ġscrutin":12959,"Ġdeteriorating":12960,"Ġcoupled":12961,"Ġtickets":12962,"Ġfrightened":12963,"Ġunreserved":12964,"frame":12965,"bearing":12966,"Ġinfinite":12967,"Ġworsening":12968,"Ġreimbur":12969,"behrendt":12970,"Ġproximity":12971,"often":12972,"Ġconducive":12973,"Ġapparatus":12974,"stadt":12975,"Ġunpleasant":12976,"Ġalgorith":12977,"Ġhelicop":12978,"35":12979,"bc":12980,"bow":12981,"gia":12982,"iating":12983,"ji":12984,"poverty":12985,"vil":12986,"word":12987,"rets":12988,"onian":12989,"Ġsau":12990,"itated":12991,"Ġmast":12992,"Ġfract":12993,"Ġhut":12994,"Ġnerve":12995,"Ġgif":12996,"Ġmeth":12997,"Ġeurobon":12998,"Ġshake":12999,"Ġshark":13000,"Ġshops":13001,"Ġlever":13002,"Ġchrom":13003,"Ġchicago":13004,"Ġrang":13005,"ivo":13006,"decl":13007,"umi":13008,"Ġnoble":13009,"Ġupcoming":13010,"Ġexpose":13011,"mexic":13012,"Ġpert":13013,"Ġinventions":13014,"Ġclou":13015,"atively":13016,"Ġstrang":13017,"Ġprovoc":13018,"Ġaccent":13019,"Ġdeserved":13020,"worse":13021,"Ġmoder":13022,"Ġsheer":13023,"Ġadvancing":13024,"emerg":13025,"Ġrevival":13026,"Ġprogressing":13027,"Ġlottery":13028,"Ġeditor":13029,"Ġ49":13030,"Ġartistic":13031,"Ġfinalised":13032,"Ġjunta":13033,"Ġscientifically":13034,"Ġoccurrence":13035,"Ġproceeds":13036,"Ġunfounded":13037,"Ġdictate":13038,"Ġtransferring":13039,"Ġteleph":13040,"Ġtouches":13041,"Ġattracting":13042,"Ġremarkably":13043,"Ġrevenge":13044,"Ġbrazilian":13045,"Ġvariations":13046,"Ġsearching":13047,"Ġaggress":13048,"Ġrhy":13049,"Ġrevealing":13050,"Ġregrettably":13051,"Ġperpetrated":13052,"bett":13053,"Ġwedding":13054,"Ġdissent":13055,"Ġmitigate":13056,"Ġdisappearance":13057,"Ġconfronting":13058,"Ġconvenience":13059,"Ġ1945":13060,"confidence":13061,"Ġhypocritical":13062,"Ġexacerbate":13063,"Ġvolatile":13064,"fifth":13065,"Ġrebels":13066,"Ġvolunteers":13067,"Ġathens":13068,"generally":13069,"Ġmulder":13070,"Ġunchanged":13071,"Ġindifference":13072,"Ġsubscribe":13073,"Ġtumor":13074,"Ġflorence":13075,"Ġobscure":13076,"Ġjackson":13077,"Ġsimplistic":13078,"Ġresilience":13079,"Ġshipyards":13080,"farmers":13081,"Ġoverwhelmingly":13082,"hundreds":13083,"Ġcredentials":13084,"27":13085,"dy":13086,"large":13087,"missions":13088,"solid":13089,"uay":13090,"Ġtanks":13091,"Ġaster":13092,"Ġample":13093,"Ġthess":13094,"Ġcu":13095,"Ġcad":13096,"Ġcous":13097,"Ġfals":13098,"Ġfond":13099,"alon":13100,"Ġhired":13101,"Ġeats":13102,"Ġnass":13103,"Ġip":13104,"Ġlod":13105,"Ġvag":13106,"soft":13107,"Ġcanary":13108,"Ġpresumably":13109,"oding":13110,"Ġrescu":13111,"Ġabu":13112,"Ġliver":13113,"Ġpolio":13114,"accession":13115,"const":13116,"Ġreplies":13117,"Ġpeter":13118,"oston":13119,"Ġupgrad":13120,"tsin":13121,"eltsin":13122,"Ġpolicing":13123,"Ġproposition":13124,"Ġdemise":13125,"Ġrecru":13126,"Ġload":13127,"Ġhook":13128,"Ġentrench":13129,"Ġdesires":13130,"Ġviewpoint":13131,"Ġcolour":13132,"Ġmediation":13133,"Ġforeseen":13134,"Ġprinted":13135,"Ġphased":13136,"Ġcorbett":13137,"Ġbene":13138,"Ġrepresentations":13139,"Ġfavours":13140,"Ġmorally":13141,"Ġpenins":13142,"Ġtyr":13143,"Ġspecialised":13144,"Ġcompromised":13145,"Ġerit":13146,"Ġidentities":13147,"Ġgrade":13148,"Ġconnecting":13149,"Ġdevil":13150,"Ġdelhi":13151,"Ġinfluenza":13152,"markets":13153,"Ġorganisational":13154,"Ġsenses":13155,"anything":13156,"Ġpaths":13157,"2003":13158,"Ġinflationary":13159,"Ġaccompany":13160,"communist":13161,"Ġrationale":13162,"Ġclient":13163,"Ġdiscoveries":13164,"Ġtemperatures":13165,"Ġpoetry":13166,"Ġhesitation":13167,"Ġalgerian":13168,"Ġangela":13169,"Ġinspiring":13170,"Ġadmittedly":13171,"Ġallegedly":13172,"established":13173,"funded":13174,"Ġdeplorable":13175,"Ġadhered":13176,"Ġcorrelation":13177,"Ġintrins":13178,"Ġunwanted":13179,"experience":13180,"Ġancestors":13181,"Ġelaborate":13182,"Ġdolph":13183,"Ġexplosive":13184,"Ġtraffickers":13185,"frankly":13186,"sudden":13187,"Ġunlawful":13188,"Ġmagnificent":13189,"bring":13190,"jer":13191,"len":13192,"lab":13193,"saf":13194,"tically":13195,"Ã£":13196,"Ġ?":13197,"Ġwounded":13198,"Ġwreck":13199,"isive":13200,"erget":13201,"Ġcute":13202,"itate":13203,"angh":13204,"Ġbange":13205,"Ġboston":13206,"Ġmd":13207,"Ġtoile":13208,"ester":13209,"esters":13210,"Ġinert":13211,"alus":13212,"Ġhorses":13213,"Ġdaughters":13214,"rocal":13215,"Ġrejo":13216,"states":13217,"Ġgb":13218,"utrition":13219,"Ġforwards":13220,"uration":13221,"Ġsta":13222,"keys":13223,"Ġseaf":13224,"Ġvivid":13225,"Ġlee":13226,"Ġaged":13227,"llo":13228,"ocally":13229,"Ġmarx":13230,"ached":13231,"Ġundertook":13232,"Ġspheres":13233,"Ġindo":13234,"Ġguards":13235,"Ġenvoy":13236,"Ġscrap":13237,"needed":13238,"Ġprinting":13239,"Ġblunt":13240,"Ġsmallest":13241,"Ġ53":13242,"Ġ59":13243,"Ġbuilds":13244,"Ġ450":13245,"Ġsuffice":13246,"Ġtrips":13247,"Ġfundamentalist":13248,"identally":13249,"Ġmisguided":13250,"Ġslave":13251,"Ġturnover":13252,"Ġnetanyahu":13253,"Ġ62":13254,"Ġfacebook":13255,"Ġbroadband":13256,"Ġbiometric":13257,"Ġjunior":13258,"Ġmistrust":13259,"Ġsalmon":13260,"Ġviruses":13261,"Ġseparat":13262,"parliamentary":13263,"Ġhorrific":13264,"Ġqualify":13265,"Ġspeeding":13266,"Ġsilk":13267,"Ġreactor":13268,"Ġinhumane":13269,"Ġhostility":13270,"Ġacquiring":13271,"Ġprotocols":13272,"Ġstrengths":13273,"Ġfulfilment":13274,"Ġswept":13275,"Ġmatches":13276,"Ġosset":13277,"Ġphilosopher":13278,"Ġtortured":13279,"Ġdrove":13280,"Ġindonesian":13281,"Ġremedies":13282,"Ġdevastated":13283,"Ġeuroscept":13284,"Ġnurse":13285,"Ġexercising":13286,"Ġslip":13287,"Ġintimidation":13288,"Ġflorenz":13289,"Ġleonardo":13290,"Ġnielson":13291,"Ġloopholes":13292,"Ġimpoverished":13293,"Ġmisunderstandings":13294,"Ã´te":13295,"Ġcalendar":13296,"Ġsynerg":13297,"Ġthessalon":13298,"Ġbangemann":13299,"acies":13300,"date":13301,"div":13302,"dac":13303,"dollar":13304,"egypt":13305,"harm":13306,"iqu":13307,"ipping":13308,"lis":13309,"mass":13310,"nn":13311,"pract":13312,"smes":13313,"sorry":13314,"sustainable":13315,"woman":13316,"Ġtent":13317,"Ġthirds":13318,"Ġathe":13319,"Ġaung":13320,"inos":13321,"Ġost":13322,"Ġbog":13323,"Ġfid":13324,"Ġhire":13325,"Ġdots":13326,"Ġrepet":13327,"Ġlula":13328,"mented":13329,"Ġprover":13330,"oline":13331,"rams":13332,"chris":13333,"Ġnotwithstanding":13334,"Ġneat":13335,"administ":13336,"Ġsharks":13337,"Ġseal":13338,"Ġenerget":13339,"Ġleis":13340,"Ġworsen":13341,"Ġchat":13342,"Ġallotted":13343,"Ġimpl":13344,"Ġjan":13345,"Ġresumption":13346,"Ġker":13347,"oused":13348,"Ġconting":13349,"ocracy":13350,"ensen":13351,"Ġfever":13352,"Ġdevelops":13353,"Ġtranscend":13354,"ceptive":13355,"Ġgovernmental":13356,"Ġdrama":13357,"Ġmodulation":13358,"Ġappet":13359,"Ġesdp":13360,"Ġstarvation":13361,"Ġ41":13362,"Ġheadway":13363,"Ġsoutheast":13364,"Ġtraders":13365,"Ġlangen":13366,"Ġholders":13367,"Ġromantic":13368,"Ġflew":13369,"shore":13370,"Ġpoliceman":13371,"Ġmerger":13372,"Ġpenalised":13373,"Ġrounds":13374,"Ġcompensatory":13375,"Ġturkmen":13376,"Ġquantum":13377,"specif":13378,"Ġvariable":13379,"Ġmounting":13380,"Ġpsychiat":13381,"Ġnarrative":13382,"Ġscenes":13383,"Ġpredictions":13384,"producing":13385,"Ġtimetables":13386,"Ġchains":13387,"Ġgrip":13388,"Ġmoroccan":13389,"Ġclip":13390,"Ġunpopular":13391,"existent":13392,"Ġmemorand":13393,"Ġshifts":13394,"Ġnicolas":13395,"transp":13396,"Ġfanat":13397,"Ġholidays":13398,"Ġpopulism":13399,"Ġwholes":13400,"Ġenrichment":13401,"Ġarmenian":13402,"negotiations":13403,"Ġtaboo":13404,"Ġsceptical":13405,"Ġinterdependence":13406,"british":13407,"Ġnomination":13408,"Ġanchor":13409,"Ġscript":13410,"Ġlicensing":13411,"needless":13412,"Ġankara":13413,"sweden":13414,"ivoire":13415,"Ġclouds":13416,"''":13417,"bers":13418,"iraq":13419,"kland":13420,"ois":13421,"qaeda":13422,"tour":13423,"vals":13424,"words":13425,"Ġthumb":13426,"inate":13427,"Ġwings":13428,"already":13429,
[...]
