{"<s>":0,"<pad>":1,"</s>":2,"<unk>":3,"<mask>":4,"!":5,"\"":6,"#":7,"$":8,"%":9,"&":10,"'":11,"(":12,")":13,"*":14,"+":15,",":16,"-":17,".":18,"/":19,"0":20,"1":21,"2":22,"3":23,"4":24,"5":25,"6":26,"7":27,"8":28,"9":29,":":30,";":31,"<":32,"=":33,">":34,"?":35,"@":36,"A":37,"B":38,"C":39,"D":40,"E":41,"F":42,"G":43,"H":44,"I":45,"J":46,"K":47,"L":48,"M":49,"N":50,"O":51,"P":52,"Q":53,"R":54,"S":55,"T":56,"U":57,"V":58,"W":59,"X":60,"Y":61,"Z":62,"[":63,"\\":64,"]":65,"^":66,"_":67,"`":68,"a":69,"b":70,"c":71,"d":72,"e":73,"f":74,"g":75,"h":76,"i":77,"j":78,"k":79,"l":80,"m":81,"n":82,"o":83,"p":84,"q":85,"r":86,"s":87,"t":88,"u":89,"v":90,"w":91,"x":92,"y":93,"z":94,"{":95,"|":96,"}":97,"~":98,"¡":99,"¢":100,"£":101,"¤":102,"¥":103,"¦":104,"§":105,"¨":106,"©":107,"ª":108,"«":109,"¬":110,"®":111,"¯":112,"°":113,"±":114,"²":115,"³":116,"´":117,"µ":118,"¶":119,"·":120,"¸":121,"¹":122,"º":123,"»":124,"¼":125,"½":126,"¾":127,"¿":128,"À":129,"Á":130,"Â":131,"Ã":132,"Ä":133,"Å":134,"Æ":135,"Ç":136,"È":137,"É":138,"Ê":139,"Ë":140,"Ì":141,"Í":142,"Î":143,"Ï":144,"Ð":145,"Ñ":146,"Ò":147,"Ó":148,"Ô":149,"Õ":150,"Ö":151,"×":152,"Ø":153,"Ù":154,"Ú":155,"Û":156,"Ü":157,"Ý":158,"Þ":159,"ß":160,"à":161,"á":162,"â":163,"ã":164,"ä":165,"å":166,"æ":167,"ç":168,"è":169,"é":170,"ê":171,"ë":172,"ì":173,"í":174,"î":175,"ï":176,"ð":177,"ñ":178,"ò":179,"ó":180,"ô":181,"õ":182,"ö":183,"÷":184,"ø":185,"ù":186,"ú":187,"û":188,"ü":189,"ý":190,"þ":191,"ÿ":192,"Ā":193,"ā":194,"Ă":195,"ă":196,"Ą":197,"ą":198,"Ć":199,"ć":200,"Ĉ":201,"ĉ":202,"Ċ":203,"ċ":204,"Č":205,"č":206,"Ď":207,"ď":208,"Đ":209,"đ":210,"Ē":211,"ē":212,"Ĕ":213,"ĕ":214,"Ė":215,"ė":216,"Ę":217,"ę":218,"Ě":219,"ě":220,"Ĝ":221,"ĝ":222,"Ğ":223,"ğ":224,"Ġ":225,"ġ":226,"Ģ":227,"ģ":228,"Ĥ":229,"ĥ":230,"Ħ":231,"ħ":232,"Ĩ":233,"ĩ":234,"Ī":235,"ī":236,"Ĭ":237,"ĭ":238,"Į":239,"į":240,"İ":241,"ı":242,"Ĳ":243,"ĳ":244,"Ĵ":245,"ĵ":246,"Ķ":247,"ķ":248,"ĸ":249,"Ĺ":250,"ĺ":251,"Ļ":252,"ļ":253,"Ľ":254,"ľ":255,"Ŀ":256,"ŀ":257,"Ł":258,"ł":259,"Ń":260,"Ġt":261,"Ġth":262,"Ġa":263,"in":264,"re":265,"Ġthe":266,"on":267,"at":268,"Ġw":269,"is":270,"Ġs":271,"er":272,"en":273,"Ġc":274,"Ġo":275,"it":276,"Ġp":277,"an":278,"Ġb":279,"or":280,"Ġm":281,"Ġto":282,"es":283,"Ġf":284,"ou":285,"Ġin":286,"ion":287,"Ġof":288,"al":289,"Ġan":290,"ed":291,"Ġh":292,"ing":293,"Ġd":294,"ar":295,"ro":296,"ic":297,"Ġe":298,"Ġand":299,"ent":300,"Ġn":301,"le":302,"th":303,"Ġre":304,"as":305,"Ġis":306,"ve":307,"om":308,"Ġbe":309,"Ġthat":310,"st":311,"ly":312,"il":313,"Ġg":314,"Ġi":315,"ct":316,"Ġl":317,"Ġu":318,"Ġwh":319,"Ġon":320,"ation":321,"ut":322,"Ġwe":323,"ot":324,"Ġfor":325,"se":326,"pe":327,"ment":328,"id":329,"Ġit":330,"ur":331,"ld":332,"Ġcom":333,"Ġst":334,"ver":335,"ce":336,"Ġpro":337,"Ġha":338,"ow":339,"Ġy":340,"Ġcon":341,"ol":342,"Ġal":343,"Ġde":344,"Ġthis":345,"ra":346,"ri":347,"Ġare":348,"ort":349,"Ġ-":350,"the":351,"ch":352,"Ġas":353,"ith":354,"ul":355,"Ġeu":356,"ke":357,"Ġnot":358,"res":359,"ay":360,"ill":361,"gh":362,"ould":363,"Ġhave":364,"Ġwith":365,"ir":366,"mp":367,"Ġyou":368,"Ġne":369,"Ġme":370,"Ġ'":371,"ate":372,"Ġun":373,"Ġsu":374,"Ġeuro":375,"oun":376,"ad":377,"ter":378,"Ġcomm":379,"im":380,"ge":381,"pp":382,"Ġeurope":383,"op":384,"ore":385,"Ġsh":386,"ble":387,"Ġse":388,"ity":389,"Ġex":390,"and":391,"ive":392,"ust":393,"sion":394,"os":395,"li":396,"Ġwill":397,"ant":398,"ere":399,"ers":400,"Ġpar":401,"Ġdo":402,"Ġv":403,"un":404,"ain":405,"ess":406,"ci":407,"est":408,"ich":409,"Ġhas":410,"qu":411,"we":412,"Ġat":413,"Ġen":414,"Ġby":415,"if":416,"ght":417,"Ġwhich":418,"Ġeuropean":419,"ies":420,"Ġle":421,"so":422,"mb":423,"Ġwor":424,"Ġgo":425,"Ġch":426,"Ġcoun":427,"et":428,"âĢ":429,"Ġpres":430,"ther":431,"ist":432,"Ġall":433,"Ġr":434,"am":435,"Ġso":436,"Ġag":437,"Ġcan":438,"us":439,"Ġwas":440,"ĠâĢ":441,"ally":442,"ure":443,"od":444,"rom":445,"Ġli":446,"Ġimp":447,"ome":448,"ission":449,"Ġj":450,"ect":451,"Ġhe":452,"Ġor":453,"Ġres":454,"Ġthere":455,"very":456,"Ġab":457,"end":458,"Ġwould":459,"Ġpol":460,"ions":461,"Ġcommission":462,"Ġk":463,"Ġint":464,"iv":465,"out":466,"our":467,"ac":468,"Ġfrom":469,"Ġam":470,"ard":471,"ak":472,"all":473,"Ġpresid":474,"Ġalso":475,"Ġour":476,"Ġus":477,"Ġbut":478,"Ġshould":479,"con":480,"ig":481,"Ġrep":482,"ff":483,"Ġpart":484,"ake":485,"ll":486,"um":487,"ud":488,"Ġad":489,"mber":490,"Ġthey":491,"Ġmust":492,"Ġbeen":493,"der":494,"ous":495,"Ġmore":496,"Ġpresident":497,"ates":498,"ue":499,"Ġcont":500,"Ġcount":501,"ans":502,"Ġlike":503,"Ġreg":504,"ations":505,"ree":506,"Ġpe":507,"Ġac":508,"ab":509,"oc":510,"reat":511,"ast":512,"ish":513,"ult":514,"Ġfa":515,"ament":516,"Ġabout":517,"one":518,"pport":519,"Ġwhat":520,"ical":521,"Ġno":522,"Ġqu":523,"Ġone":524,"ost":525,"this":526,"Ġtheir":527,"si":528,"Ġneed":529,"ary":530,"Ġtr":531,"vel":532,"able":533,"Ġpl":534,"ren":535,"Ġmr":536,"ire":537,"ments":538,"ong":539,"Ġ1":540,"lo":541,"ear":542,"Ġdis":543,"Ġmy":544,"Ġout":545,"ap":546,"Ġits":547,"Ġvery":548,"em":549,"ie":550,"Ġsome":551,"ance":552,"cial":553,"Ġri":554,"Ġwho":555,"au":556,"Ġ2":557,"for":558,"du":559,"Ġcomp":560,"Ġact":561,"Ġthese":562,"Ġfin":563,"Ġbec":564,"Ġinc":565,"ĠâĢĻ":566,"Ġwork":567,"Ġtim":568,"now":569,"cess":570,"ople":571,"liament":572,"Ġup":573,"de":574,"Ġthan":575,"00":576,"Ġman":577,"Ġright":578,"Ġunion":579,"Ġpeople":580,"rou":581,"Ġreport":582,"Ġparliament":583,"Ġyear":584,"Ġstates":585,"Ġprop":586,"iz":587,"Ġimport":588,"ry":589,"but":590,"ence":591,"te":592,"ag":593,"Ġexp":594,"ru":595,"Ġco":596,"Ġapp":597,"wh":598,"Ġsa":599,"conom":600,"Ġcons":601,"are":602,"tern":603,"fore":604,"ose":605,"Ġte":606,"ition":607,"ries":608,"ts":609,"Ġpre":610,"Ġeconom":611,"ice":612,"ause":613,"Ġnew":614,"ink":615,"ational":616,"ens":617,"Ġother":618,"Ġtime":619,"Ġpo":620,"Ġif":621,"me":622,"ces":623,"Ġpos":624,"Ġar":625,"ated":626,"el":627,"ia":628,"Ġmar":629,"Ġev":630,"Ġmember":631,"lic":632,"cy":633,"og":634,"ok":635,"age":636,"Ġpolic":637,"Ġthem":638,"Ġcountries":639,"pt":640,"ms":641,"Ġconc":642,"ach":643,"ack":644,"Ġnow":645,"Ġbet":646,"Ġjust":647,"ise":648,"Ġhow":649,"ign":650,"he":651,"Ġra":652,"ame":653,"Ġonly":654,"Ġknow":655,"ial":656,"ine":657,"Ġdec":658,"Ġspe":659,"ase":660,"ject":661,"Ġany":662,"cil":663,"Ġunder":664,"Ġtra":665,"Ġpropos":666,"ious":667,"pect":668,"Ġimportant":669,"Ġdem":670,"'t":671,"Ġcouncil":672,"ide":673,"ound":674,"Ġwere":675,"ted":676,"Ġsp":677,"Ġwant":678,"velop":679,"Ġeff":680,"ities":681,"ution":682,"ress":683,"Ġdevelop":684,"Ġsupport":685,"Ġbecause":686,"ced":687,"irst":688,"Ġagain":689,"thing":690,"iff":691,"Ġfe":692,"Ġthink":693,"Ġob":694,"Ġwhen":695,"Ġway":696,"eren":697,"ric":698,"ever":699,"Ġpolit":700,"Ġper":701,"Ġworld":702,"Ġrec":703,"Ġind":704,"ind":705,"ction":706,"mr":707,"ility":708,"ip":709,"Ġinto":710,"Ġmake":711,"Ġdiff":712,"ub":713,"Ġpolicy":714,"Ġsay":715,"Ġser":716,"lear":717,"ace":718,"Ġyour":719,"Ġbo":720,"Ġinv":721,"und":722,"Ġover":723,"Ġter":724,"form":725,"Ġop":726,"sel":727,"Ġmad":728,"Ġlo":729,"int":730,"vern":731,"Ġhad":732,"ings":733,"Ġiss":734,"Ġro":735,"ern":736,"Ġsee":737,"Ġproble":738,"tain":739,"Ġ--":740,"ved":741,"Ġagree":742,"ular":743,"uch":744,"Ġtake":745,"Ġsy":746,"ight":747,"Ġleg":748,"Ġeconomic":749,"Ġcl":750,"Ġoff":751,"Ġinst":752,"rit":753,"Ġpartic":754,"ving":755,"Ġgovern":756,"ks":757,"Ġvot":758,"Ġhis":759,"Ġcommit":760,"Ġtw":761,"Ġtrans":762,"igh":763,"Ġfirst":764,"row":765,"ative":766,"Ġintern":767,"Ġsuch":768,"there":769,"Ġmarke":770,"day":771,"lie":772,"that":773,"Ġmany":774,"ention":775,"Ġprog":776,"Ġyears":777,"ang":778,"Ġthose":779,"Ġcould":780,"ures":781,"act":782,"gy":783,"Ġaf":784,"Ġquest":785,"Ġhere":786,"sible":787,"Ġstr":788,"Ġdire":789,"ors":790,"ful":791,"Ġsub":792,"Ġgood":793,"Ġproposal":794,"ite":795,"Ġbelie":796,"Ġpolitical":797,"Ġevery":798,"Ġfact":799,"ath":800,"ween":801,"ting":802,"ian":803,"Ġfund":804,"Ġgreat":805,"Ġbetween":806,"Ġprodu":807,"ord":808,"pon":809,"ves":810,"Ġbeing":811,"ep":812,"Ġmade":813,"Ġtwo":814,"mm":815,"Ġhum":816,"Ġmo":817,"Ġacc":818,"Ġbas":819,"Ġprov":820,"Ġdeb":821,"ues":822,"ating":823,"xt":824,"Ġcommun":825,"Ġtak":826,"ris":827,"ory":828,"Ġgen":829,"Ġeven":830,"Ġrel":831,"Ġcour":832,"Ġmuch":833,"Ġmost":834,"Ġdoes":835,"Ġconcern":836,"ild":837,"Ġget":838,"Ġlong":839,"Ġ200":840,"Ġclear":841,"stem":842,"Ġtherefore":843,"arge":844,"Ġwhere":845,"Ġho":846,"ange":847,"Ġhuman":848,"Ġwell":849,"lect":850,"Ġrem":851,"Ġconf":852,"red":853,"Ġparticular":854,"cept":855,"ward":856,"Ġrespon":857,"roup":858,"Ġsystem":859,"Ġrights":860,"wn":861,"Ġstate":862,"Ġmat":863,"Ġgroup":864,"Ġdirect":865,"Ġpri":866,"Ġbelieve":867,"how":868,"Ġfinan":869,"ual":870,"ural":871,"Ġsocial":872,"ough":873,"ublic":874,"Ġappro":875,"ĠâĢĵ":876,"rat":877,"Ġsaid":878,"Ġdisc":879,"Ġjo":880,"Ġsit":881,"Ġhigh":882,"eration":883,"amp":884,"ism":885,"Ġcall":886,"Ġmon":887,"lud":888,"Ġnu":889,"Ġref":890,"Ġcountry":891,"Ġlook":892,"Ġmay":893,"ass":894,"Ġprot":895,"eral":896,"Ġmin":897,"Ġtoo":898,"Ġadd":899,"Ġext":900,"low":901,"read":902,"Ġla":903,"ited":904,"Ġfar":905,"Ġamend":906,"iew":907,"Ġdemoc":908,"way":909,"Ġthen":910,"Ġput":911,"ives":912,"Ġagainst":913,"min":914,"ency":915,"Ġmarket":916,"Ġsec":917,"erest":918,"Ġpoint":919,"Ġcur":920,"Ġgoing":921,"Ġsame":922,"Ġpr":923,"Ġdef":924,"Ġincre":925,"rough":926,"Ġquestion":927,"Ġend":928,"Ġuse":929,"Ġtoday":930,"Ġsol":931,"Ġdid":932,"ision":933,"Ġreal":934,"Ġinterest":935,"Ġrequ":936,"Ġdifferen":937,"Ġemp":938,"man":939,"ile":940,"Ġma":941,"Ġent":942,"Ġfut":943,"Ġeffect":944,"Ġatt":945,"you":946,"rent":947,"Ġfuture":948,"art":949,"Ġcontin":950,"Ġtreat":951,"Ġdes":952,"Ġdevelopment":953,"Ġpublic":954,"get":955,"Ġsi":956,"Ġthrough":957,"uation":958,"Ġ19":959,"Ġstill":960,"ertain":961,"les":962,"own":963,"ific":964,"Ġtur":965,"Ġnational":966,"itiz":967,"Ġlast":968,"what":969,"Ġcommitte":970,"Ġown":971,"Ġgovernment":972,"Ġfinancial":973,"Ġass":974,"Ġcol":975,"Ġhapp":976,"Ġhel":977,"Ġher":978,"mbers":979,"alth":980,"Ġissue":981,"king":982,"Ġreally":983,"Ġgu":984,"Ġcitiz":985,"Ġregard":986,"ually":987,"Ġgrow":988,"Ġmeas":989,"Ġprotect":990,"Ġcar":991,"Ġwhy":992,"Ġprogra":993,"Ġsc":994,"Ġlead":995,"Ġbud":996,"Ġinternational":997,"Ġsm":998,"Ġhelp":999,"ents":1000,"they":1001,"Ġ%":1002,"ason":1003,"Ġinform":1004,"Ġlevel":1005,"pet":1006,"loy":1007,"Ġcommittee":1008,"Ġresult":1009,"iven":1010,"lement":1011,"olog":1012,"Ġproblem":1013,"Ġmatter":1014,"ese":1015,"Ġke":1016,"Ġtal":1017,"ty":1018,"Ġenv":1019,"led":1020,"ised":1021,"Ġconst":1022,"ning":1023,"cond":1024,"Ġcourse":1025,"Ġbr":1026,"ruct":1027,"Ġcommissioner":1028,"Ġconsid":1029,"Ġpow":1030,"bility":1031,"Ġback":1032,"ready":1033,"Ġmak":1034,"Ġdebate":1035,"Ġcitizens":1036,"Ġinter":1037,"Ġview":1038,"Ġpers":1039,"Ġalready":1040,"Ġsituation":1041,"Ġpossible":1042,"Ġreason":1043,"Ġhope":1044,"ail":1045,"ood":1046,"gan":1047,"self":1048,"ince":1049,"Ġinclud":1050,"Ġmembers":1051,"iron":1052,"ied":1053,"uth":1054,"illion":1055,"Ġboth":1056,"Ġprocess":1057,"ulation":1058,"Ġbu":1059,"Ġexamp":1060,"ety":1061,"sure":1062,"Ġsign":1063,"ouse":1064,"ict":1065,"Ġwar":1066,"Ġcertain":1067,"Ġresol":1068,"Ġcome":1069,"Ġener":1070,"wor":1071,"Ġdra":1072,"Ġorder":1073,"Ġagreement":1074,"ract":1075,"Ġcent":1076,"Ġban":1077,"uring":1078,"Ġenviron":1079,"Ġset":1080,"hip":1081,"ici":1082,"Ġbefore":1083,"Ġenvironment":1084,"bal":1085,"Ġach":1086,"Ġask":1087,"however":1088,"chn":1089,"Ġcoop":1090,"eric":1091,"Ġachie":1092,"cip":1093,"ority":1094,"Ġglo":1095,"Ġenergy":1096,"Ġhim":1097,"tle":1098,"Ġadop":1099,"Ġful":1100,"Ġday":1101,"Ġdifferent":1102,"Ġneg":1103,"Ġable":1104,"Ġsomething":1105,"other":1106,"ices":1107,"Ġtransp":1108,"Ġbudget":1109,"Ġinstit":1110,"Ġaff":1111,"ft":1112,"lish":1113,"Ġcase":1114,"Ġcompet":1115,"ically":1116,"Ġcommon":1117,"utions":1118,"Ġcap":1119,"Ġthings":1120,"Ġlaw":1121,"Ġcommunity":1122,"urther":1123,"ration":1124,"gin":1125,"Ġvote":1126,"Ġstand":1127,"Ġhouse":1128,"ne":1129,"Ġinvest":1130,"Ġcurrent":1131,"Ġmed":1132,"Ġform":1133,"Ġcris":1134,"ina":1135,"omen":1136,"Ġexample":1137,"Ġprev":1138,"Ġdown":1139,"Ġwithin":1140,"ten":1141,"Ġchange":1142,"Ġdiscus":1143,"Ġmaj":1144,"Ġserv":1145,"its":1146,"ribut":1147,"Ġglobal":1148,"Ġide":1149,"urity":1150,"ately":1151,"Ġbeh":1152,"Ġpresent":1153,"Ġgive":1154,"Ġmeasures":1155,"Ġmain":1156,"Ġsuc":1157,"Ġca":1158,"Ġwithout":1159,"Ġfore":1160,"eur":1161,"Ġhowever":1162,"Ġameric":1163,"lu":1164,"Ġmeans":1165,"Ġplace":1166,"Ġtechn":1167,"Ġlit":1168,"Ġlif":1169,"Ġinf":1170,"ef":1171,"men":1172,"Ġtaken":1173,"Ġproblems":1174,"Ġimpro":1175,"Ġmod":1176,"Ġsecurity":1177,"Ġrespect":1178,"Ġsimp":1179,"Ġhealth":1180,"isl":1181,"Ġstrate":1182,"Ġafter":1183,"Ġsect":1184,"vers":1185,"Ġnumber":1186,"Ġbetter":1187,"ount":1188,"Ġfra":1189,"to":1190,"Ġauth":1191,"Ġ20":1192,"Ġbus":1193,"Ġdeal":1194,"come":1195,"ather":1196,"be":1197,"Ġprin":1198,"Ġunited":1199,"Ġcooperation":1200,"Ġinformation":1201,"Ġpower":1202,"ered":1203,"Ġregion":1204,"Ġfind":1205,"Ġcrisis":1206,"Ġsch":1207,"Ġgr":1208,"Ġorgan":1209,"Ġthree":1210,"Ġlegisl":1211,"stand":1212,"Ġdep":1213,"Ġdirective":1214,"air":1215,"Ġrul":1216,"reed":1217,"Ġplay":1218,"ily":1219,"Ġaction":1220,"ital":1221,"Ġobject":1222,"Ġnecess":1223,"ently":1224,"Ġhand":1225,"Ġarea":1226,"itions":1227,"Ġallow":1228,"Ġprincip":1229,"Ġindust":1230,"less":1231,"Ġfew":1232,"ability":1233,"Ġest":1234,"itive":1235,"land":1236,"ven":1237,"pporteur":1238,"ollow":1239,"Ġelect":1240,"Ġ3":1241,"Ġris":1242,"Ġcre":1243,"Ġcond":1244,"Ġem":1245,"ater":1246,"ph":1247,"Ġnor":1248,"Ġnat":1249,"Ġchild":1250,"Ġph":1251,"Ġwel":1252,"Ġprom":1253,"ists":1254,"Ġdone":1255,"Ġap":1256,"Ġear":1257,"Ġrepres":1258,"Ġval":1259,"Ġshe":1260,"work":1261,"pportun":1262,"ov":1263,"Ġmeet":1264,"Ġta":1265,"ute":1266,"Ġactually":1267,"Ġopen":1268,"Ġopportun":1269,"Ġtrade":1270,"ential":1271,"Ġredu":1272,"icult":1273,"Ġrapporteur":1274,"ality":1275,"Ġfr":1276,"Ġsaf":1277,"Ġrest":1278,"Ġwomen":1279,"Ġshow":1280,"ds":1281,"alf":1282,"orts":1283,"isation":1284,"Ġsince":1285,"uc":1286,"Ġnext":1287,"Ġlittle":1288,"Ġdemocrat":1289,"Ġincreas":1290,"Ġsur":1291,"Ġdifficult":1292,"arch":1293,"Ġcor":1294,"oti":1295,"Ġfav":1296,"Ġinde":1297,"Ġimplement":1298,"Ġav":1299,"Ġkind":1300,"Ġwish":1301,"orities":1302,"Ġplan":1303,"Ġfollow":1304,"Ġequ":1305,"Ġthank":1306,"Ġins":1307,"Ġremain":1308,"Ġless":1309,"Ġinit":1310,"Ġexper":1311,"eg":1312,"Ġcontro":1313,"Ġbl":1314,"Ġensure":1315,"Ġadv":1316,"ways":1317,"Ġspeak":1318,"ussi":1319,"Ġaccept":1320,"Ġlife":1321,"Ġspeci":1322,"ick":1323,"Ġemploy":1324,"Ġfurther":1325,"Ġinvol":1326,"Ġnegoti":1327,"Ġtreaty":1328,"Ġcomple":1329,"als":1330,"Ġprogram":1331,"Ġwhe":1332,"oura":1333,"she":1334,"Ġvi":1335,"Ġcost":1336,"Ġlet":1337,"ying":1338,"Ġjob":1339,"Ġissues":1340,"Ġserious":1341,"cing":1342,"Ġgrowth":1343,"ics":1344,"Ġmrs":1345,"Ġthing":1346,"Ġsecond":1347,"oney":1348,"ros":1349,"Ġproduct":1350,"Ġunderstand":1351,"Ġir":1352,"Ġrules":1353,"Ġperson":1354,"lig":1355,"Ġben":1356,"Ġconsider":1357,"ided":1358,"Ġgent":1359,"ody":1360,"ared":1361,"com":1362,"Ġgentle":1363,"Ġsmall":1364,"Ġanother":1365,"Ġnecessary":1366,"Ġrussi":1367,"Ġgiven":1368,"Ġneeds":1369,"Ġrequire":1370,"Ġhappen":1371,"Ġlegal":1372,"iness":1373,"Ġrole":1374,"Ġwhether":1375,"Ġbecome":1376,"ird":1377,"Ġmoney":1378,"Ġamendments":1379,"adies":1380,"selves":1381,"Ġread":1382,"Ġalways":1383,"Ġgentlemen":1384,"Ġprotection":1385,"Ġimm":1386,"Ġwhole":1387,"cu":1388,"Ġproced":1389,"Ġlarge":1390,"Ġseem":1391,"Ġposition":1392,"Ġsuccess":1393,"ister":1394,"Ġeconomy":1395,"Ġchina":1396,"sibility":1397,"my":1398,"Ġareas":1399,"Ġmove":1400,"Ġconv":1401,"Ġaid":1402,"Ġsoci":1403,"racy":1404,"gether":1405,"Ġcrit":1406,"Ġconsum":1407,"gg":1408,"Ġiniti":1409,"par":1410,"ĠâĢĿ":1411,"per":1412,"Ġparticularly":1413,"ave":1414,"Ġsector":1415,"Ġapproach":1416,"these":1417,"av":1418,"Ġfree":1419,"Ġnever":1420,"Ġrev":1421,"Ġused":1422,"Ġbal":1423,"ness":1424,"Ġmil":1425,"sions":1426,"Ġmillion":1427,"Ġproject":1428,"ources":1429,"Ġdecision":1430,"Ġprogress":1431,"ross":1432,"Ġresolution":1433,"Ġprogramme":1434,"Ġpay":1435,"ines":1436,"ense":1437,"Ġcontribut":1438,"Ġstep":1439,"Ġtax":1440,"Ġeffective":1441,"Ġfeel":1442,"Ġmaking":1443,"ys":1444,"Ġfish":1445,"Ġ199":1446,"do":1447,"eng":1448,"Ġrese":1449,"ĠâĢľ":1450,"Ġes":1451,"Ġed":1452,"imate":1453,"Ġpract":1454,"Ġpresidency":1455,"Ġeas":1456,"ablish":1457,"ably":1458,"ral":1459,"let":1460,"Ġcontinue":1461,"Ġopin":1462,"Ġgeneral":1463,"ultural":1464,"wards":1465,"Ġbenef":1466,"Ġpur":1467,"Ġestablish":1468,"Ġtogether":1469,"Ġstrong":1470,"Ġ5":1471,"Ġcompan":1472,"Ġspecif":1473,"isions":1474,"Ġlot":1475,"Ġur":1476,"Ġdoing":1477,"Ġworking":1478,"Ġservices":1479,"ought":1480,"Ġel":1481,"Ġrepresent":1482,"ned":1483,"Ġagric":1484,"Ġfail":1485,"Ġframe":1486,"more":1487,"Ġconstit":1488,"ner":1489,"Ġdist":1490,"Ġterms":1491,"ror":1492,"Ġforward":1493,"ret":1494,"lar":1495,"Ġfavour":1496,"Ġmean":1497,"Ġstar":1498,"Ġresearch":1499,"Ġterm":1500,"Ġinstitutions":1501,"Ġpeace":1502,"Ġfood":1503,"Ġmight":1504,"Ġchang":1505,"Ġcontrol":1506,"Ġreach":1507,"Ġstud":1508,"Ġproposals":1509,"Ġwrit":1510,"Ġstrategy":1511,"most":1512,"Ġsupp":1513,"Ġpop":1514,"Ġfound":1515,"Ġbasis":1516,"sw":1517,"erence":1518,"Ġexperi":1519,"Ġrelations":1520,"Ġtechnolog":1521,"Ġladies":1522,"Ġbusiness":1523,"Ġaround":1524,"Ġeach":1525,"Ġbuild":1526,"Ġbro":1527,"over":1528,"Ġaim":1529,"Ġcreat":1530,"Ġpoin":1531,"Ġcare":1532,"Ġamendment":1533,"Ġfundament":1534,"osed":1535,"Ġ4":1536,"rodu":1537,"Ġsubject":1538,"Ġcalled":1539,"Ġyet":1540,"Ġtell":1541,"Ġitself":1542,"aps":1543,"Ġfac":1544,"Ġquite":1545,"Ġframework":1546,"Ġsing":1547,"Ġonce":1548,"Ġess":1549,"Ġwelcome":1550,"Ġlib":1551,"Ġbring":1552,"Ġachieve":1553,"Ġmonth":1554,"Ġdemocracy":1555,"ible":1556,"Ġopp":1557,"Ġbased":1558,"Ġfam":1559,"Ġgot":1560,"Ġshort":1561,"Ġmention":1562,"Ġart":1563,"ined":1564,"Ġexist":1565,"Ġoften":1566,"Ġchildren":1567,"Ġaw":1568,"Ġbest":1569,"Ġexpect":1570,"Ġansw":1571,"Ġtalk":1572,"Ġcri":1573,"Ġchall":1574,"Ġduring":1575,"Ġbig":1576,"Ġopportunity":1577,"Ġopinion":1578,"Ġstruct":1579,"Ġsuff":1580,"Ġrather":1581,"then":1582,"Ġple":1583,"ages":1584,"Ġdemand":1585,"light":1586,"Ġold":1587,"ized":1588,"Ġlegislation":1589,"ulture":1590,"Ġabs":1591,"Ġpromot":1592,"Ġimprove":1593,"arm":1594,"ances":1595,"Ġaccount":1596,"Ġclo":1597,"ged":1598,"Ġincrease":1599,"Ġextre":1600,"Ġago":1601,"Ġviol":1602,"Ġwhile":1603,"Ġdemocratic":1604,"Ġsw":1605,"ivid":1606,"Ġlim":1607,"Ġlab":1608,"Ġstart":1609,"Ġminister":1610,"clear":1611,"Ġtri":1612,"Ġbegin":1613,"stain":1614,"Ġinteg":1615,"Ġforeign":1616,"fort":1617,"Ġenough":1618,"ogn":1619,"reedom":1620,"Ġim":1621,"Ġmajor":1622,"many":1623,"Ġeng":1624,"Ġindustry":1625,"pri":1626,"ants":1627,"Ġregulation":1628,"ock":1629,"Ġhard":1630,"Ġger":1631,"ides":1632,"Ġwee":1633,"ases":1634,"Ġbar":1635,"Ġtowards":1636,"thers":1637,"mpt":1638,"Ġrecogn":1639,"Ġconcerned":1640,"Ġfundamental":1641,"Ġadopted":1642,"ling":1643,"ified":1644,"Ġleast":1645,"Ġvar":1646,"Ġidea":1647,"Ġresources":1648,"cially":1649,"Ġprovide":1650,"Ġhist":1651,"Ġrussia":1652,"Ġret":1653,"atives":1654,"Ġfreedom":1655,"Ġbor":1656,"ences":1657,"Ġreform":1658,"Ġafric":1659,"Ġpat":1660,"Ġvoted":1661,"sequ":1662,"Ġstandard":1663,"ize":1664,"Ġactiv":1665,"ivers":1666,"Ġpolicies":1667,"Ġthird":1668,"Ġoc":1669,"Ġsumm":1670,"Ġshall":1671,"Ġsociety":1672,"Ġappe":1673,"Ġciv":1674,"Ġcong":1675,"Ġeduc":1676,"Ġregul":1677,"Ġincluding":1678,"ners":1679,"ending":1680,"Ġcolle":1681,"Ġdiscuss":1682,"Ġprinciple":1683,"Ġterror":1684,"Ġprof":1685,"Ġaccess":1686,"Ġclearly":1687,"ither":1688,"bon":1689,"Ġsignific":1690,"arant":1691,"aren":1692,"with":1693,"Ġimportance":1694,"when":1695,"Ġconditions":1696,"Ġproposed":1697,"Ġcivil":1698,"fin":1699,"Ġair":1700,"ib":1701,"ield":1702,"Ġaddress":1703,"mit":1704,"Ġrisk":1705,"Ġtransport":1706,"Ġguarant":1707,"leg":1708,"Ġexpress":1709,"Ġresponsibility":1710,"Ġintrodu":1711,"reng":1712,"ising":1713,"Ġsingle":1714,"Ġguarante":1715,"Ġhome":1716,"Ġindivid":1717,"ove":1718,"arity":1719,"Ġexpl":1720,"Ġclose":1721,"Ġnegotiations":1722,"Ġmom":1723,"Ġlow":1724,"Ġsci":1725,"oub":1726,"Ġtaking":1727,"Ġstreng":1728,"Ġwords":1729,"Ġmor":1730,"Ġsure":1731,"pecially":1732,"Ġgreater":1733,"raph":1734,"Ġvis":1735,"idence":1736,"Ġextreme":1737,"Ġkeep":1738,"Ġemployment":1739,"Ġmilit":1740,"Ġlist":1741,"Ġenc":1742,"Ġattention":1743,"ends":1744,"Ġcreate":1745,"ordin":1746,"Ġaddition":1747,"Ġrecent":1748,"body":1749,"Ġann":1750,"fortun":1751,"Ġpositive":1752,"Ġespecially":1753,"iod":1754,"Ġnothing":1755,"Ġamong":1756,"Ġfight":1757,"000":1758,"Ġfull":1759,"Ġpoints":1760,"Ġindividual":1761,"ering":1762,"where":1763,"ining":1764,"Ġsustain":1765,"Ġpass":1766,"af":1767,"Ġleaders":1768,"Ġloc":1769,"ons":1770,"Ġru":1771,"ool":1772,"Ġcomb":1773,"Ġcentral":1774,"mad":1775,"key":1776,"Ġenvironmental":1777,"pend":1778,"ime":1779,"Ġauthorities":1780,"Ġfour":1781,"Ġsafety":1782,"uge":1783,"Ġprevent":1784,"Ġmind":1785,"Ġoper":1786,"Ġsimply":1787,"Ġhead":1788,"ck":1789,"Ġpast":1790,"Ġefforts":1791,"Ġrece":1792,"Ġfunds":1793,"Ġspecific":1794,"Ġhaving":1795,"Ġpartners":1796,"Ġforce":1797,"Ġprocedure":1798,"til":1799,"Ġchar":1800,"Ġneeded":1801,"Ġfri":1802,"Ġessential":1803,"Ġlear":1804,"haps":1805,"Ġbehalf":1806,"of":1807,"Ġsou":1808,"Ġtrue":1809,"Ġinternal":1810,"Ġnuclear":1811,"Ġwater":1812,"Ġleft":1813,"Ġthought":1814,"Ġincreasing":1815,"ger":1816,"Ġoffice":1817,"Ġquestions":1818,"Ġproducts":1819,"Ġinterests":1820,"Ġparty":1821,"by":1822,"Ġkey":1823,"Ġothers":1824,"Ġbank":1825,"Ġrun":1826,"Ġamerica":1827,"ata":1828,"ium":1829,"used":1830,"Ġdet":1831,"ceed":1832,"Ġmarkets":1833,"icial":1834,"Ġfoc":1835,"Ġisra":1836,"Ġpriv":1837,"Ġgre":1838,"Ġcomplete":1839,"Ġmis":1840,"Ġtimes":1841,"Ġclimate":1842,"Ġsolution":1843,"Ġyoun":1844,"Ġlonger":1845,"Ġz":1846,"ark":1847,"Ġcertainly":1848,"Ġturn":1849,"Ġsignificant":1850,"Ġmanage":1851,"ond":1852,"ization":1853,"Ġconcerns":1854,"Ġcompanies":1855,"madam":1856,"Ġstat":1857,"Ġce":1858,"Ġperiod":1859,"Ġgovernments":1860,"Ġinstru":1861,"ensive":1862,"Ġlive":1863,"Ġseen":1864,"Ġever":1865,"Ġmoment":1866,"Ġmilitary":1867,"first":1868,"ale":1869,"Ġname":1870,"irm":1871,"Ġappropri":1872,"Ġmakes":1873,"Ġmid":1874,"ug":1875,"Ġche":1876,"Ġconstitution":1877,"fortunately":1878,"Ġdeveloping":1879,"Ġbur":1880,"ulate":1881,"Ġcred":1882,"Ġ10":1883,"Ġanswer":1884,"has":1885,"Ġmot":1886,"co":1887,"no":1888,"Ġproper":1889,"ead":1890,"Ġnon":1891,"Ġthreat":1892,"Ġconte":1893,"Ġcho":1894,"Ġworkers":1895,"Ġthemselves":1896,"Ġaffect":1897,"Ġcompetition":1898,"Ġinvolved":1899,"ber":1900,"Ġeducation":1901,"Ġtext":1902,"Ġpen":1903,"Ġadmin":1904,"Ġconflic":1905,"icient":1906,"Ġsubst":1907,"airs":1908,"Ġfarm":1909,"erv":1910,"Ġinn":1911,"Ġimpact":1912,"Ġele":1913,"Ġturkey":1914,"Ġregional":1915,"Ġyoung":1916,"Ġtrad":1917,"Ġ6":1918,"Ġfield":1919,"vious":1920,"pl":1921,"Ġcourt":1922,"Ġseems":1923,"Ġlack":1924,"Ġdata":1925,"Ġencoura":1926,"Ġcomes":1927,"Ġarg":1928,"cise":1929,"ters":1930,"Ġquality":1931,"line":1932,"ank":1933,"Ġfall":1934,"Ġaway":1935,"Ġsense":1936,"Ġtot":1937,"Ġadminist":1938,"equ":1939,"sid":1940,"Ġanim":1941,"Ġcolleag":1942,"cies":1943,"Ġmajority":1944,"Ġschool":1945,"Ġaspect":1946,"Ġextremely":1947,"Ġnet":1948,"Ġaccord":1949,"new":1950,"Ġty":1951,"Ġ201":1952,"Ġcongrat":1953,"Ġmonths":1954,"Ġavail":1955,"Ġfully":1956,"Ġid":1957,"Ġadopt":1958,"Ġfun":1959,"Ġgroups":1960,"Ġinvestment":1961,"raq":1962,"Ġvarious":1963,"Ġspecial":1964,"Ġcapital":1965,"ication":1966,"Ġdri":1967,"Ġdeter":1968,"Ġthough":1969,"Ġentire":1970,"Ġpal":1971,"Ġer":1972,"Ġshare":1973,"Ġinitiative":1974,"ident":1975,"Ġgra":1976,"Ġface":1977,"Ġeverything":1978,"Ġrule":1979,"ho":1980,"ians":1981,"Ġdial":1982,"ogue":1983,"ggest":1984,"Ġsuggest":1985,"ased":1986,"Ġocc":1987,"Ġregions":1988,"Ġfive":1989,"Ġiraq":1990,"Ġori":1991,"Ġsoon":1992,"atic":1993,"Ġasked":1994,"Ġdecisions":1995,"la":1996,"Ġcoh":1997,"Ġmeeting":1998,"Ġlang":1999,"Ġconsequ":2000,"Ġagend":2001,"Ġjobs":2002,"ilities":2003,"Ġstrengthen":2004,"Ġopt":2005,"Ġcomprom":2006,"Ġemer":2007,"cession":2008,"finally":2009,"arian":2010,"icle":2011,"large":2012,"Ġhon":2013,"Ġpot":2014,"Ġindepend":2015,"omm":2016,"side":2017,"Ġhold":2018,"Ġemphas":2019,"Ġbre":2020,"ech":2021,"Ġamerican":2022,"Ġcosts":2023,"Ġresults":2024,"Ġaffairs":2025,"Ġlis":2026,"lies":2027,"Ġdang":2028,"ging":2029,"apan":2030,"veral":2031,"Ġagricultural":2032,"Ġcut":2033,"Ġstandards":2034,"ators":2035,"Ġprogramm":2036,"Ġeur":2037,"Ġagenda":2038,"ification":2039,"Ġparticip":2040,"Ġalmost":2041,"go":2042,"Ġdesign":2043,"iting":2044,"istan":2045,"Ġtry":2046,"Ġsystems":2047,"Ġbillion":2048,"Ġrequest":2049,"Ġobjective":2050,"cell":2051,"az":2052,"Ġlisbon":2053,"Ġdialogue":2054,"Ġdoub":2055,"Ġgener":2056,"Ġindeed":2057,"str":2058,"ended":2059,"Ġhear":2060,"Ġquick":2061,"Ġeast":2062,"member":2063,"Ġcir":2064,"Ġlangu":2065,"Ġreasons":2066,"Ġafrica":2067,"Ġmodel":2068,"nect":2069,"Ġstability":2070,"ash":2071,"den":2072,"lusion":2073,"lev":2074,"ier":2075,"Ġyes":2076,"Ġdraw":2077,"Ġbra":2078,"Ġpopulation":2079,"Ġcame":2080,"Ġcoordin":2081,"Ġuntil":2082,"Ġproduction":2083,"fully":2084,"Ġpa":2085,"Ġacross":2086,"Ġtas":2087,"ont":2088,"Ġwriting":2089,"Ġaware":2090,"itor":2091,"Ġbrit":2092,"Ġavailable":2093,"Ġweek":2094,"Ġwr":2095,"ify":2096,"Ġtook":2097,"Ġline":2098,"Ġrom":2099,"Ġsolid":2100,"ried":2101,"Ġident":2102,"Ġwa":2103,"Ġune":2104,"Ġlight":2105,"Ġvict":2106,"Ġlocal":2107,"Ġenlarge":2108,"Ġdocu":2109,"Ġapplic":2110,"Ġliberal":2111,"Ġharm":2112,"Ġassist":2113,"Ġwent":2114,"Ġparties":2115,"just":2116,"Ġ7":2117,"Ġge":2118,"some":2119,"Ġexc":2120,"eu":2121,"Ġtom":2122,"Ġcoming":2123,"Ġjud":2124,"Ġelse":2125,"Ġmentioned":2126,"Ġamb":2127,"Ġdom":2128,"dle":2129,"Ġpric":2130,"Ġfocus":2131,"Ġcirc":2132,"Ġagreements":2133,"Ġcontext":2134,"Ġfle":2135,"Ġtalking":2136,"ims":2137,"Ġinnov":2138,"Ġlooking":2139,"Ġmult":2140,"Ġlat":2141,"Ġtechnology":2142,"Ġant":2143,"Ġ8":2144,"Ġcurrently":2145,"edi":2146,"Ġobjectives":2147,"Ġsummit":2148,"Ġjapan":2149,"cent":2150,"Ġrefer":2151,"Ġten":2152,"Ġhalf":2153,"Ġobs":2154,"Ġrate":2155,"Ġperhaps":2156,"Ġfollowing":2157,"ple":2158,"rict":2159,"Ġassess":2160,"Ġcases":2161,"Ġiran":2162,"Ġabsol":2163,"Ġbook":2164,"Ġdemon":2165,"Ġseveral":2166,"ury":2167,"Ġretur":2168,"Ġpost":2169,"Ġjustice":2170,"utes":2171,"Ġjoint":2172,"Ġeveryone":2173,"imes":2174,"aged":2175,"Ġapply":2176,"theless":2177,"Ġexcell":2178,"Ġconvention":2179,"Ġoil":2180,"Ġenlargement":2181,"Ġwrong":2182,"Ġuk":2183,"second":2184,"Ġobvious":2185,"Ġbroad":2186,"Ġtarge":2187,"ires":2188,"Ġcontain":2189,"Ġtop":2190,"Ġfinal":2191,"ibility":2192,"Ġwanted":2193,"Ġabsolute":2194,"Ġsk":2195,"orm":2196,"Ġhistory":2197,"inde":2198,"Ġdest":2199,"Ġroad":2200,"Ġresponsible":2201,"Ġdanger":2202,"ring":2203,"iveness":2204,"atory":2205,"io":2206,"ars":2207,"ush":2208,"aper":2209,"ued":2210,"Ġmatters":2211,"atch":2212,"Ġnations":2213,"Ġconsumers":2214,"rench":2215,"Ġsix":2216,"omet":2217,"imil":2218,"Ġmaintain":2219,"Ġprogrammes":2220,"Ġbad":2221,"istic":2222,"Ġimplementation":2223,"anced":2224,"Ġconsumer":2225,"Ġ9":2226,"pid":2227,"Ġpalest":2228,"Ġsaying":2229,"rast":2230,"ane":2231,"Ġfair":2232,"sib":2233,"Ġanything":2234,"eria":2235,"Ġurg":2236,"lf":2237,"Ġappropriate":2238,"pris":2239,"Ġwon":2240,"Ġreject":2241,"Ġconference":2242,"Ġchanges":2243,"Ġcompromise":2244,"Ġdeep":2245,"Ġside":2246,"Ġsat":2247,"ises":2248,"Ġtrying":2249,"indeed":2250,"ession":2251,"Ġinstitution":2252,"Ġdut":2253,"Ġve":2254,"Ġprep":2255,"here":2256,"Ġheard":2257,"Ġstop":2258,"ert":2259,"Ġpack":2260,"ived":2261,"Ġdays":2262,"Ġisrael":2263,"Ġliving":2264,"Ġpoor":2265,"Ġscient":2266,"Ġmiddle":2267,"Ġmet":2268,"Ġexperience":2269,"ledge":2270,"Ġver":2271,"Ġmanagement":2272,"Ġprices":2273,"Ġtest":2274,"Ġconnect":2275,"imilar":2276,"oid":2277,"Ġrecomm":2278,"Ġenter":2279,"Ġec":2280,"Ġresponse":2281,"mploy":2282,"bour":2283,"Ġprob":2284,"Ġmadam":2285,"Ġchalleng":2286,"Ġdeath":2287,"Ġorigin":2288,"Ġnature":2289,"cri":2290,"Ġachieved":2291,"Ġguarantee":2292,"Ġexcellent":2293,"Ġmess":2294,"rought":2295,"Ġvalues":2296,"Ġelections":2297,"Ġprice":2298,"ression":2299,"Ġfisher":2300,"orrow":2301,"Ġprinciples":2302,"Ġvalue":2303,"Ġprojects":2304,"ps":2305,"Ġstarted":2306,"Ġoppos":2307,"Ġeither":2308,"Ġneigh":2309,"Ġcommitment":2310,"Ġsustainable":2311,"iving":2312,"abled":2313,"Ġprivate":2314,"Ġmass":2315,"Ġlink":2316,"Ġcru":2317,"Ġgree":2318,"Ġviolence":2319,"Ġfig":2320,"Ġremains":2321,"Ġimmig":2322,"Ġsuper":2323,"Ġsubsid":2324,"verty":2325,"Ġpoverty":2326,"mination":2327,"ban":2328,"Ġusing":2329,"Ġourselves":2330,"Ġarticle":2331,"Ġintegration":2332,"Ġsouth":2333,"Ġfrench":2334,"Ġborder":2335,"rect":2336,"ins":2337,"Ġmus":2338,"pite":2339,"Ġbenefit":2340,"Ġdev":2341,"ening":2342,"Ġ15":2343,"Ġland":2344,"Ġsolidarity":2345,"Ġstrateg":2346,"Ġlos":2347,"Ġservice":2348,"Ġactivities":2349,"isf":2350,"Ġweak":2351,"Ġcongratulate":2352,"lied":2353,"Ġcamp":2354,"Ġhuge":2355,"Ġlives":2356,"Ġexch":2357,"Ġdise":2358,"Ġself":2359,"acy":2360,"Ġconflict":2361,"ler":2362,"Ġpros":2363,"Ġquickly":2364,"Ġreports":2365,"Ġmonitor":2366,"Ġpriority":2367,"uses":2368,"Ġgermany":2369,"Ġalong":2370,"chan":2371,"Ġdecided":2372,"thod":2373,"Ġattack":2374,"Ġupon":2375,"Ġstress":2376,"Ġmechan":2377,"Ġport":2378,"pr":2379,"Ġdol":2380,"app":2381,"Ġfl":2382,"Ġgreen":2383,"Ġhappened":2384,"Ġconcerning":2385,"Ġconclud":2386,"Ġunemploy":2387,"euro":2388,"fer":2389,"ls":2390,"Ġmen":2391,"Ġfell":2392,"Ġdetail":2393,"Ġsent":2394,"Ġground":2395,"Ġrecently":2396,"Ġfunding":2397,"Ġreduce":2398,"arency":2399,"Ġreflect":2400,"therefore":2401,"Ġdemonstr":2402,"Ġplac":2403,"aster":2404,"Ġpurp":2405,"Ġprobably":2406,"Ġdam":2407,"Ġtomorrow":2408,"Ġanal":2409,"etary":2410,"Ġabove":2411,"rupt":2412,"Ġofficial":2413,"Ġbuilding":2414,"Ġdel":2415,"Ġdraft":2416,"Ġconsequences":2417,"Ġword":2418,"Ġgoes":2419,"Ġcy":2420,"Ġdue":2421,"Ġred":2422,"Ġsort":2423,"Ġterrorism":2424,"Ġbi":2425,"Ġbecom":2426,"Ġprovided":2427,"Ġdi":2428,"Ġinflu":2429,"Ġfamily":2430,"erial":2431,"Ġbalance":2432,"ured":2433,"ternal":2434,"Ġmodern":2435,"Ġtold":2436,"unch":2437,"vere":2438,"Ġital":2439,"Ġdisp":2440,"Ġimmedi":2441,"Ġnatural":2442,"Ġrelig":2443,"Ġdefin":2444,"Ġthinking":2445,"Ġtransparency":2446,"Ġpotential":2447,"Ġincreased":2448,"iation":2449,"Ġbehind":2450,"Ġoblig":2451,"Ġbasic":2452,"Ġbel":2453,"soci":2454,"why":2455,"ories":2456,"Ġfrance":2457,"europe":2458,"Ġalone":2459,"Ġatte":2460,"ograph":2461,"enge":2462,"ruction":2463,"Ġbrought":2464,"secondly":2465,"Ġrequired":2466,"Ġstructural":2467,"Ġcause":2468,"Ġinclude":2469,"Ġpractice":2470,"Ġleave":2471,"Ġclos":2472,"Ġagriculture":2473,"moreover":2474,"Ġcompletely":2475,"ination":2476,"Ġways":2477,"Ġdiscussion":2478,"Ġmethod":2479,"Ġspeech":2480,"cal":2481,"Ġprevious":2482,"hold":2483,"Ġil":2484,"Ġpercent":2485,"Ġlar":2486,"Ġculture":2487,"ired":2488,"Ġpalestin":2489,"Ġhun":2490,"Ġoutside":2491,"Ġchallenge":2492,"reg":2493,"Ġrepe":2494,"Ġreality":2495,"Ġpromote":2496,"Ġcrucial":2497,"Ġaut":2498,"like":2499,"Ġcla":2500,"ometimes":2501,"Ġlater":2502,"iding":2503,"Ġdoubt":2504,"Ġmonetary":2505,"Ġindia":2506,"Ġcultural":2507,"Ġevent":2508,"bo":2509,"Ġcross":2510,"after":2511,"Ġthus":2512,"Ġearly":2513,"bec":2514,"Ġavoid":2515,"though":2516,"Ġchallenges":2517,"Ġexternal":2518,"ively":2519,"Ġexplain":2520,"ec":2521,"forms":2522,"Ġmovement":2523,"Ġdollar":2524,"uly":2525,"Ġindic":2526,"Ġagreed":2527,"Ġsays":2528,"sp":2529,"tod":2530,"Ġbit":2531,"Ġbri":2532,"Ġsound":2533,"Ġden":2534,"ges":2535,"Ġstage":2536,"Ġimpos":2537,"today":2538,"Ġill":2539,"Ġhigher":2540,"iversity":2541,"Ġhappy":2542,"Ġfear":2543,"Ġassoci":2544,"Ġemission":2545,"Ġgl":2546,"because":2547,"ateral":2548,"itarian":2549,"Ġcontribution":2550,"Ġtask":2551,"ension":2552,"Ġhour":2553,"Ġdebt":2554,"Ġheld":2555,"Ġpurs":2556,"rug":2557,"Ġeffort":2558,"arily":2559,"Ġcarry":2560,"Ġroom":2561,"Ġgetting":2562,"lling":2563,"Ġregarding":2564,"Ġlegislative":2565,"Ġreview":2566,"lif":2567,"Ġactions":2568,"Ġrecommend":2569,"Ġreturn":2570,"acc":2571,"Ġcommunication":2572,"erve":2573,"Ġdeveloped":2574,"20":2575,"imum":2576,"Ġaccession":2577,"tom":2578,"Ġvol":2579,"Ġtakes":2580,"Ġpartnership":2581,"gest":2582,"Ġcolleagues":2583,"Ġcrimin":2584,"ron":2585,"ev":2586,"Ġdecad":2587,"Ġprecise":2588,"Ġdirection":2589,"ream":2590,"iter":2591,"Ġrad":2592,"Ġcorrect":2593,"uff":2594,"Ġfarmers":2595,"Ġexact":2596,"Ġbreak":2597,"use":2598,"Ġvoting":2599,"Ġexcept":2600,"Ġtechnical":2601,"Ġlanguage":2602,"Ġsatisf":2603,"Ġpressure":2604,"wise":2605,"Ġcand":2606,"well":2607,"Ġpleased":2608,"Ġbeginning":2609,"Ġemb":2610,"Ġexisting":2611,"Ġasse":2612,"Ġnorth":2613,"Ġstory":2614,"Ġteach":2615,"Ġpaper":2616,"rial":2617,"Ġremember":2618,"Ġaud":2619,"Ġassistance":2620,"Ġforces":2621,"olution":2622,"Ġgrowing":2623,"Ġlost":2624,"Ġlikely":2625,"Ġlove":2626,"Ġabsolutely":2627,"inese":2628,"Ġcle":2629,"ctions":2630,"Ġregime":2631,"Ġsan":2632,"Ġkill":2633,"while":2634,"ousand":2635,"yes":2636,"Ġconsult":2637,"Ġorganis":2638,"Ġopportunities":2639,"Ġregulations":2640,"ously":2641,"Ġlabour":2642,"Ġfo":2643,"terday":2644,"arent":2645,"ilateral":2646,"ior":2647,"Ġalthough":2648,"Ġcurren":2649,"Ġstatement":2650,"Ġrich":2651,"Ġcapac":2652,"Ġcreation":2653,"Ġdim":2654,"Ġsea":2655,"une":2656,"Ġraised":2657,"Ġideas":2658,"Ġbanks":2659,"Ġled":2660,"Ġtotal":2661,"Ġnear":2662,"Ġequal":2663,"Ġ/":2664,"Ġknown":2665,"Ġcreated":2666,"Ġconfidence":2667,"Ġsimilar":2668,"encies":2669,"Ġrat":2670,"Ġage":2671,"Ġrise":2672,"Ġpress":2673,"Ġamount":2674,"Ġvital":2675,"Ġcohes":2676,"Ġthroughout":2677,"lam":2678,"ened":2679,"Ġtraff":2680,"Ġfinally":2681,"Ġclass":2682,"lation":2683,"itional":2684,"Ġeffects":2685,"Ġsimple":2686,"Ġilleg":2687,"mission":2688,"Ġfis":2689,"Ġregards":2690,"Ġaspects":2691,"Ġwaste":2692,"even":2693,"inst":2694,"Ġflo":2695,"Ġens":2696,"Ġoffer":2697,"Ġ30":2698,"ially":2699,"Ġexam":2700,"Ġchinese":2701,"Ġreading":2702,"jo":2703,"Ġreforms":2704,"Ġthousand":2705,"Ġknowledge":2706,"Ġcoll":2707,"Ġdrug":2708,"Ġextra":2709,"Ġrates":2710,"Ġwonder":2711,"Ġcentury":2712,"Ġindustrial":2713,"Ġdiscri":2714,"Ġmist":2715,"estern":2716,"Ġmedia":2717,"Ġcritic":2718,"yond":2719,"Ġprepared":2720,"Ġcandid":2721,"Ġaltern":2722,"Ġflex":2723,"Ġunemployment":2724,"Ġig":2725,"Ġinstead":2726,"Ġlevels":2727,"Ġeth":2728,"rist":2729,"verse":2730,"Ġdiv":2731,"Ġintegr":2732,"mitted":2733,"Ġwal":2734,"Ġwest":2735,"Ġsuccessful":2736,"Ġreached":2737,"Ġinterv":2738,"Ġwide":2739,"pped":2740,"Ġeffici":2741,"Ġlearn":2742,"Ġcarried":2743,"uing":2744,"por":2745,"Ġdeli":2746,"Ġexchange":2747,"ator":2748,"Ġgain":2749,"Ġstudy":2750,"Ġbritish":2751,"Ġcriteria":2752,"Ġimag":2753,"Ġcohesion":2754,"Ġinteresting":2755,"Ġara":2756,"ished":2757,"Ġcomplex":2758,"Ġ50":2759,"Ġauthority":2760,"Ġharmon":2761,"Ġwestern":2762,"Ġmyself":2763,"Ġpowers":2764,"Ġperspect":2765,"Ġcod":2766,"Ġ2000":2767,"Ġtrust":2768,"Ġpresented":2769,"Ġcal":2770,"Ġdocument":2771,"Ġmaterial":2772,"itud":2773,"Ġvo":2774,"Ġworth":2775,"Ġswed":2776,"rop":2777,"Ġcircum":2778,"Ġrequires":2779,"Ġprocedures":2780,"Ġtraffic":2781,"Ġbody":2782,"Ġ12":2783,"Ġbenefits":2784,"lt":2785,"sels":2786,"Ġpackage":2787,"every":2788,"Ġrelation":2789,"Ġslow":2790,"Ġchance":2791,"dict":2792,"Ġbudgetary":2793,"Ġrapid":2794,"orders":2795,"ological":2796,"Ġcompetit":2797,"estic":2798,"Ġpersonal":2799,"rely":2800,"Ġsometimes":2801,"Ġwants":2802,"Ġallowed":2803,"Ġscale":2804,"Ġfunction":2805,"rary":2806,"Ġstri":2807,"Ġtraining":2808,"Ġeasy":2809,"Ġpati":2810,"Ġeconomies":2811,"Ġaccording":2812,"ania":2813,"can":2814,"Ġrespond":2815,"Ġrelationship":2816,"Ġwhose":2817,"Ġpriorities":2818,"ats":2819,"Ġcapacity":2820,"Ġmill":2821,"Ġfriend":2822,"Ġinternet":2823,"Ġprim":2824,"Ġ000":2825,"Ġbeyond":2826,"Ġ25":2827,"Ġdepend":2828,"Ġcondu":2829,"ored":2830,"mption":2831,"Ġdead":2832,"Ġmessage":2833,"Ġsupported":2834,"ix":2835,"Ġaust":2836,"Ġinstrument":2837,"Ġencourage":2838,"Ġparliamentary":2839,"Ġearth":2840,"Ġrural":2841,"Ġsecret":2842,"Ġcollect":2843,"ha":2844,"Ġscientific":2845,"Ġgiving":2846,"further":2847,"Ġevents":2848,"Ġgerman":2849,"Ġinnovation":2850,"reh":2851,"Ġsal":2852,"Ġfed":2853,"Ġcompany":2854,"Ġfisheries":2855,"Ġterrit":2856,"Ġthanks":2857,"Ġtreatment":2858,"Ġrenew":2859,"ĠâĢĺ":2860,"Ġincome":2861,"Ġgas":2862,"Ġsaw":2863,"cer":2864,"Ġrepublic":2865,"Ġhighlight":2866,"Ġemissions":2867,"Ġintel":2868,"dom":2869,"Ġnote":2870,"ource":2871,"Ġproduce":2872,"Ġvictims":2873,"Ġchrist":2874,"Ġspace":2875,"Ġprovisions":2876,"Ġrequirements":2877,"Ġfamil":2878,"Ġrecon":2879,"Ġgrant":2880,"Ġanimals":2881,"Ġtabled":2882,"thern":2883,"Ġformer":2884,"Ġfellow":2885,"ton":2886,"Ġremind":2887,"Ġgave":2888,"Ġ11":2889,"Ġreceived":2890,"Ġexactly":2891,"Ġpie":2892,"Ġund":2893,"Ġfront":2894,"ourable":2895,"aff":2896,"Ġmer":2897,"Ġprime":2898,"Ġregret":2899,"Ġislam":2900,"Ġdece":2901,"Ġminutes":2902,"Ġweap":2903,"Ġtemp":2904,"yet":2905,"Ġwin":2906,"Ġcrime":2907,"rison":2908,"Ġsens":2909,"action":2910,"Ġestablished":2911,"Ġheart":2912,"Ġadvant":2913,"sibilities":2914,"aring":2915,"Ġitem":2916,"Ġlate":2917,"Ġsolutions":2918,"Ġexport":2919,"Ġinstruments":2920,"Ġborders":2921,"Ġcomput":2922,"Ġpolitics":2923,"Ġcreating":2924,"fect":2925,"Ġcop":2926,"Ġelection":2927,"Ġire":2928,"unfortunately":2929,"Ġyesterday":2930,"bia":2931,"Ġdeg":2932,"ots":2933,"Ġinitiatives":2934,"Ġhistor":2935,"Ġmonitoring":2936,"Ġpict":2937,"reci":2938,"Ġvir":2939,"Ġsubstant":2940,"Ġireland":2941,"Ġprepar":2942,"Ġshows":2943,"lier":2944,"Ġneighbour":2945,"Ġshown":2946,"icians":2947,"ca":2948,"Ġrelev":2949,"Ġadditional":2950,"aign":2951,"Ġlegit":2952,"Ġsupply":2953,"Ġadministration":2954,"Ġoccur":2955,"Ġindependent":2956,"Ġcircumst":2957,"ghan":2958,"Ġcampaign":2959,"Ġspir":2960,"Ġconduct":2961,"Ġmorning":2962,"Ġconclusion":2963,"Ġundert":2964,"aut":2965,"Ġdr":2966,"Ġnorm":2967,"Ġwilling":2968,"Ġsucceed":2969,"Ġillegal":2970,"iet":2971,"Ġexpressed":2972,"Ġukra":2973,"nam":2974,"Ġparts":2975,"Ġcurrency":2976,"Ġstrategic":2977,"liance":2978,"Ġconsist":2979,"rastruct":2980,"Ġcriminal":2981,"omp":2982,"Ġsepar":2983,"Ġargu":2984,"Ġquot":2985,"Ġmedium":2986,"Ġcounter":2987,"gar":2988,"Ġsco":2989,"Ġanalys":2990,"Ġmeasure":2991,"thank":2992,"Ġinfrastruct":2993,"Ġfishing":2994,"Ġpurpose":2995,"firstly":2996,"Ġnight":2997,"round":2998,"Ġdecide":2999,"Ġinfluence":3000,"Ġconvin":3001,"uine":3002,"Ġrecord":3003,"Ġbusinesses":3004,"Ġcompetitiveness":3005,"verage":3006,"accept":3007,"Ġasia":3008,"Ġactive":3009,"Ġgoods":3010,"Ġguid":3011,"Ġdelay":3012,"Ġtack":3013,"Ġmand":3014,"head":3015,"Ġfirm":3016,"Ġseriously":3017,"Ġtool":3018,"Ġcircumstances":3019,"Ġrisks":3020,"Ġpolice":3021,"Ġspending":3022,"undred":3023,"sh":3024,"Ġfiscal":3025,"Ġwatch":3026,"ounts":3027,"Ġking":3028,"Ġinvolve":3029,"Ġincluded":3030,"Ġpractical":3031,"Ġunaccept":3032,"Ġfriends":3033,"Ġorganisations":3034,"Ġgenuine":3035,"Ġdefic":3036,"Ġlimited":3037,"Ġcredit":3038,"Ġafghan":3039,"Ġextent":3040,"Ġmal":3041,"Ġstay":3042,"Ġpain":3043,"Ġpoll":3044,"Ġfue":3045,"ama":3046,"Ġworked":3047,"agraph":3048,"Ġanti":3049,"val":3050,"Ġones":3051,"Ġdescri":3052,"Ġreduction":3053,"Ġincreasingly":3054,"Ġbul":3055,"Ġconsidered":3056,"Ġimplemented":3057,"ilt":3058,"que":3059,"Ġperform":3060,"Ġlimit":3061,"Ġdangerous":3062,"anish":3063,"ortion":3064,"Ġweeks":3065,"not":3066,"Ġmig":3067,"ureau":3068,"Ġappreci":3069,"Ġviews":3070,"Ġapplication":3071,"Ġimmigration":3072,"ump":3073,"osov":3074,"Ġhighly":3075,"Ġeffectively":3076,"Ġpaid":3077,"furthermore":3078,"oint":3079,"Ġcontent":3080,"Ġbureau":3081,"Ġagency":3082,"Ġtype":3083,"Ġunacceptable":3084,"bed":3085,"rative":3086,"sec":3087,"Ġprovides":3088,"Ġministers":3089,"Ġwarm":3090,"Ġeastern":3091,"Ġmotion":3092,"Ġchanged":3093,"Ġannual":3094,"pre":3095,"ses":3096,"Ġflow":3097,"itude":3098,"know":3099,"entions":3100,"Ġinstitutional":3101,"Ġsen":3102,"Ġopposition":3103,"Ġdisease":3104,"umption":3105,"Ġapplied":3106,"Ġconstruct":3107,"Ġspeaking":3108,"Ġimpossible":3109,"Ġcommer":3110,"Ġinvestig":3111,"since":3112,"Ġevidence":3113,"Ġrestrict":3114,"Ġbrief":3115,"dp":3116,"ones":3117,"Ġcat":3118,"ilit":3119,"Ġkore":3120,"Ġpossibility":3121,"bs":3122,"Ġoutcome":3123,"Ġcell":3124,"Ġdespite":3125,"Ġefficiency":3126,"Ġplease":3127,"last":3128,"Ġcou":3129,"Ġkosov":3130,"Ġfailure":3131,"Ġhundred":3132,"ster":3133,"Ġste":3134,"Ġ2007":3135,"na":3136,"Ġsl":3137,"Ġkid":3138,"Ġdiscussions":3139,"oke":3140,"imately":3141,"Ġexer":3142,"Ġanyone":3143,"Ġdiscrimination":3144,"Ġforget":3145,"Ġrelating":3146,"Ġpalestinian":3147,"Ġgives":3148,"Ġnamely":3149,"lin":3150,"Ġraise":3151,"Ġcommitted":3152,"Ġcha":3153,"Ġdeclar":3154,"Ġfailed":3155,"Ġassessment":3156,"hood":3157,"Ġdeleg":3158,"Ġprecisely":3159,"Ġdecember":3160,"Ġperfect":3161,"ology":3162,"never":3163,"equate":3164,"Ġperspective":3165,"Ġcity":3166,"Ġchoice":3167,"Ġoccas":3168,"Ġspeed":3169,"force":3170,"Ġuseful":3171,"Ġbuy":3172,"Ġeuropeans":3173,"Ġsectors":3174,"Ġdomestic":3175,"iss":3176,"Ġdate":3177,"ria":3178,"Ġenorm":3179,"lands":3180,"Ġmut":3181,"Ġenable":3182,"Ġsteps":3183,"Ġdiscussed":3184,"Ġstatus":3185,"Ġcoordination":3186,"pping":3187,"ivity":3188,"Ġseek":3189,"Ġrelated":3190,"Ġaccepted":3191,"Ġrelevant":3192,"Ġhy":3193,"Ġunfortunately":3194,"Ġaffected":3195,"ked":3196,"Ġ18":3197,"Ġmiss":3198,"Ġparagraph":3199,"Ġactivity":3200,"Ġforms":3201,"yl":3202,"Ġtruth":3203,"Ġdecl":3204,"Ġhappens":3205,"Ġcomments":3206,"Ġtour":3207,"Ġhumanitarian":3208,"such":3209,"Ġcalls":3210,"prises":3211,"itable":3212,"Ġproceed":3213,"Ġje":3214,"Ġboard":3215,"Ġdistribut":3216,"ah":3217,"Ã©":3218,"Ġplans":3219,"Ġcompreh":3220,"âĢĵ":3221,"Ġanimal":3222,"any":3223,"Ġgir":3224,"Ġdirectly":3225,"ature":3226,"Ġcomment":3227,"Ġhappening":3228,"Ġscope":3229,"Ġfinance":3230,"Ġmedic":3231,"anu":3232,"Ġchair":3233,"Ġnews":3234,"parliament":3235,"Ġgreece":3236,"Ġearlier":3237,"ira":3238,"Ġcharact":3239,"ze":3240,"ouble":3241,"Ġdealing":3242,"Ġclosely":3243,"ensus":3244,"certain":3245,"lom":3246,"ustom":3247,"rest":3248,"Ġkosovo":3249,"cul":3250,"Ġjoin":3251,"Ġign":3252,"Ġcontribute":3253,"Ġsad":3254,"Ġult":3255,"Ġinfrastructure":3256,"Ġcaused":3257,"Ġblack":3258,"Ġrussian":3259,"Ġtable":3260,"Ġsun":3261,"Ġalloc":3262,"Ġrepresentatives":3263,"Ġready":3264,"Ġcritical":3265,"Ġconnection":3266,"ob":3267,"Ġalternative":3268,"Ġ100":3269,"lled":3270,"Ġdip":3271,"aging":3272,"Ġeval":3273,"Ġ2008":3274,"Ġwind":3275,"Ġhor":3276,"ume":3277,"Ġqual":3278,"Ġclar":3279,"Ġexplo":3280,"Ġconcent":3281,"Ġoverall":3282,"Ġweapons":3283,"Ġconsiderable":3284,"Ġcondem":3285,"Ġreceive":3286,"Ġworks":3287,"Ġhours":3288,"Ġlaunch":3289,"Ġtyp":3290,"Ġarri":3291,"Ġauthor":3292,"Ġdict":3293,"Ġconcept":3294,"Ġunivers":3295,"endit":3296,"Ġtried":3297,"Ġefficient":3298,"Ġrefuge":3299,"Ġaimed":3300,"Ġspirit":3301,"Ġgoal":3302,"Ġpret":3303,"uard":3304,"lying":3305,"atever":3306,"Ġrelative":3307,"Ġunderstanding":3308,"Ġobviously":3309,"Ġcloser":3310,"ik":3311,"overy":3312,"Ġbod":3313,"set":3314,"ussels":3315,"Ġorganisation":3316,"Ġbeaut":3317,"Ġjune":3318,"Ġ198":3319,"Ġdemands":3320,"Ġconstitutional":3321,"Ġdifference":3322,"Ġbecame":3323,"Ġguidel":3324,"Ġenjo":3325,"Ġmarch":3326,"Ġrail":3327,"Ġreferen":3328,"Ġscience":3329,"Ġfoot":3330,"Ġ2009":3331,"Ġbecoming":3332,"Ġability":3333,"Ġleading":3334,"itious":3335,"Ġsurv":3336,"urally":3337,"Ġcover":3338,"Ġhung":3339,"Ġrein":3340,"Ġlooks":3341,"Ġ$":3342,"Ġsud":3343,"Ġfinancing":3344,"Ġstru":3345,"Ġrepl":3346,"ift":3347,"Ġconsensus":3348,"Ġthousands":3349,"Ġsil":3350,"Ġfre":3351,"Ġuni":3352,"Ġadap":3353,"Ġconfirm":3354,"Ġenterprises":3355,"Ġconvinced":3356,"Ġworse":3357,"works":3358,"Ġpenal":3359,"cle":3360,"Ġdefence":3361,"Ġimproved":3362,"Ġfacing":3363,"Ġadministrative":3364,"Ġbehav":3365,"Ġ40":3366,"Ġprison":3367,"cup":3368,"Ġasking":3369,"Ġsex":3370,"Ġreference":3371,"Ġdamage":3372,"lant":3373,"Ġsend":3374,"Ġukraine":3375,"Ġdiplom":3376,"will":3377,"ann":3378,"Ġgone":3379,"Ġknows":3380,"Ġtravel":3381,"Ġlaws":3382,"Ġdifficulties":3383,"Ġenglish":3384,"Ġpath":3385,"Ġwhite":3386,"Ġstra":3387,"agn":3388,"Ġspent":3389,"Ġobtain":3390,"Ġpoliticians":3391,"Ġapproved":3392,"Ġhar":3393,"those":3394,"Ġship":3395,"Ġtechnologies":3396,"Ġprofession":3397,"rane":3398,"rants":3399,"Ġblo":3400,"Ġnegative":3401,"dra":3402,"dam":3403,"ma":3404,"Ġhop":3405,"lusions":3406,"Ġreligious":3407,"Ġcontract":3408,"Ġmother":3409,"Ġdifferences":3410,"Ġsafe":3411,"Ġahead":3412,"Ġslo":3413,"Ġcharacter":3414,"Ġround":3415,"Ġmoving":3416,"aced":3417,"Ġgovernance":3418,"Ġrevolution":3419,"Ġcompl":3420,"ording":3421,"Ġduty":3422,"fact":3423,"olid":3424,"Ġproduced":3425,"Ġbush":3426,"Ġsufficient":3427,"Ġbrain":3428,"erves":3429,"anuary":3430,"Ġfulf":3431,"Ġappear":3432,"Ġafghanistan":3433,"Ġdevelopments":3434,"Ġcompetitive":3435,"Ġenormous":3436,"Ġjanuary":3437,"Ġportug":3438,"Ġrightly":3439,"Ġbrussels":3440,"ex":3441,"akistan":3442,"Ġleadership":3443,"Ġsitting":3444,"Ġbat":3445,"Ġconstant":3446,"Ġreduced":3447,"his":3448,"Ġwto":3449,"Ġlu":3450,"Ġcontrary":3451,"Ġproviding":3452,"Ġannoun":3453,"Ġphys":3454,"Ġlog":3455,"mental":3456,"urance":3457,"according":3458,"nevertheless":3459,"pol":3460,"isms":3461,"âĢĻ":3462,"Ġarr":3463,"Ġsuperv":3464,"Ġafrican":3465,"Ġconclude":3466,"Ġdollars":3467,"Ġundertak":3468,"imin":3469,"Ġjour":3470,"Ġputting":3471,"Ġguidelines":3472,"although":3473,"Ġwall":3474,"Ġpicture":3475,"ya":3476,"Ġrepresents":3477,"Ġambitious":3478,"Ġurgent":3479,"Ġ14":3480,"Ġprovision":3481,"ylum":3482,"ufact":3483,"Ġfil":3484,"vert":3485,"Ġplaces":3486,"Ġensuring":3487,"Ġminimum":3488,"please":3489,"rate":3490,"Ġconclusions":3491,"Ġbodies":3492,"Ġcustom":3493,"under":3494,"Ġ13":3495,"Ġinterested":3496,"Ġdimension":3497,"up":3498,"Ġconsideration":3499,"Ġ2010":3500,"Ġeat":3501,"Ġimproving":3502,"Ġadoption":3503,"Ġentirely":3504,"only":3505,"Ġlower":3506,"Ġnetwork":3507,"oph":3508,"Ġexpected":3509,"Ġhonourable":3510,"Ġclaim":3511,"Ġcomprehensive":3512,"Ġcr":3513,"unt":3514,"Ġbuilt":3515,"ames":3516,"Ġinflation":3517,"cers":3518,"Ġpush":3519,"Ġasylum":3520,"Ġsha":3521,"Ġobst":3522,"Ġbudge":3523,"Ġcorrupt":3524,"vereign":3525,"iterrane":3526,"reet":3527,"Ġfather":3528,"Ġsep":3529,"Ġmanufact":3530,"Ġexpendit":3531,"Ġspread":3532,"Ġturned":3533,"Ġindependence":3534,"iterranean":3535,"aries":3536,"eguard":3537,"Ġstructure":3538,"med":3539,"Ġton":3540,"Ġmediterranean":3541,"Ġbegan":3542,"Ġgdp":3543,"Ġspain":3544,"Ġpakistan":3545,"tember":3546,"Ġhands":3547,"Ġequality":3548,"Ġanalysis":3549,"Ġsovereign":3550,"Ġheav":3551,"Ġ2004":3552,"Ġirish":3553,"Ġparticipation":3554,"Ġbalanced":3555,"istics":3556,"Ġadded":3557,"Ġvoice":3558,"Ġcooper":3559,"Ġsafeguard":3560,"Ġtotally":3561,"Ġitaly":3562,"Ġarab":3563,"Ġsomeone":3564,"Ġcombat":3565,"Ġprospect":3566,"Ġcolleague":3567,"Ġelected":3568,"Ġimmediately":3569,"Ġtre":3570,"Ġdecades":3571,"elt":3572,"erent":3573,"izing":3574,"Ġconserv":3575,"Ġschem":3576,"Ġdemocrats":3577,"Ġproperly":3578,"Ġnice":3579,"Ġforest":3580,"Ġintervention":3581,"Ġstaff":3582,"Ġcommitments":3583,"Ġcandidate":3584,"Ġhit":3585,"oman":3586,"Ġtalks":3587,"Ġcra":3588,"Ġpropose":3589,"ender":3590,"Ġseptember":3591,"Ġpra":3592,"Ġstated":3593,"Ġfigure":3594,"Ġattempt":3595,"Ġ0":3596,"Ġbear":3597,"Ġgoals":3598,"Ġsimplif":3599,"Ġoccup":3600,"Ġaverage":3601,"Ġmach":3602,"Ġurge":3603,"Ġadvantage":3604,"Ġlay":3605,"Ġacknow":3606,"Ġpact":3607,"ival":3608,"Ġteam":3609,"Ġstarting":3610,"Ġveh":3611,"Ġcommercial":3612,"icles":3613,"coming":3614,"Ã¶":3615,"Ġgeor":3616,"Ġsources":3617,"Ġnone":3618,"Ġlose":3619,"urd":3620,"Ġstreet":3621,"Ġturk":3622,"Ġburden":3623,"Ġnation":3624,"Ġreact":3625,"Ġspend":3626,"Ġfeed":3627,"Ġexception":3628,"Ġdoct":3629,"Ġapplies":3630,"Ġaccomp":3631,"Ġlooked":3632,"Ġplanet":3633,"Ġsource":3634,"ocol":3635,"mes":3636,"ught":3637,"Ġmanaged":3638,"uck":3639,"Ġsupposed":3640,"Ġlargest":3641,"Ġwhom":3642,"Ġunf":3643,"Ġdisaster":3644,"entially":3645,"Ġcompens":3646,"Ġsolve":3647,"Ġelements":3648,"ene":3649,"third":3650,"ket":3651,"Ġsus":3652,"Ġlea":3653,"Ġstrongly":3654,"anim":3655,"Ġeight":3656,"akes":3657,"Ġcomplain":3658,"yed":3659,"Ġenh":3660,"Ġmaybe":3661,"Ġreferred":3662,"Ġpiece":3663,"Ġda":3664,"Ġimagine":3665,"Ġrecovery":3666,"ye":3667,"Ġinh":3668,"Ġexcess":3669,"Ġeverybody":3670,"Ġord":3671,"Ġopening":3672,"Ġmission":3673,"Ġ2005":3674,"Ġ2006":3675,"xic":3676,"Ġstock":3677,"Ġmerely":3678,"Ġintended":3679,"Ġsupporting":3680,"fr":3681,"Ġreducing":3682,"Ġintroduced":3683,"Ġnormal":3684,"irms":3685,"Ġfacilit":3686,"mine":3687,"Ġcalling":3688,"Ġdrawn":3689,"Ġappears":3690,"Ġdiscussing":3691,"Ġreferend":3692,"Ġwealth":3693,"Ġbir":3694,"ented":3695,"ills":3696,"Ġmechanism":3697,"Ġkingdom":3698,"Ġstudents":3699,"eli":3700,"Ġfast":3701,"atically":3702,"ork":3703,"Ġintroduction":3704,"arents":3705,"Ġwithdra":3706,"Ġsetting":3707,"Ġpowerful":3708,"Ġacceptable":3709,"Ġexplan":3710,"Ġfloor":3711,"rete":3712,"Ġforced":3713,"aught":3714,"Ġincent":3715,"els":3716,"Ġtransfer":3717,"augh":3718,"Ġbudgets":3719,"from":3720,"lus":3721,"Ġacqu":3722,"Ġappeal":3723,"Ġclean":3724,"Ġhost":3725,"Ġseven":3726,"Ġmembership":3727,"Ġtargets":3728,"Ġtun":3729,"Ġcro":3730,"Ġdoor":3731,"iful":3732,"Ġnato":3733,"Ġfif":3734,"Ġsold":3735,"ocks":3736,"des":3737,"rep":3738,"Ġtruly":3739,"Ġarrange":3740,"Ġpet":3741,"Ġtransparent":3742,"Ġvisit":3743,"instead":3744,"Ġought":3745,"Ġconsumption":3746,"Ġbureauc":3747,"Ġaims":3748,"Ġemerg":3749,"Ġadjust":3750,"Ġfollowed":3751,"Ġsanctions":3752,"lines":3753,"Ġoperation":3754,"Ġsurpris":3755,"Ġsuffering":3756,"Ġsides":3757,"Ġsize":3758,"itation":3759,"Ġproducers":3760,"Ġunable":3761,"Ġfraud":3762,"enced":3763,"Ġmeant":3764,"Ġchem":3765,"Ġaccordance":3766,"Ġdetermin":3767,"Ġconcrete":3768,"Ġcontinues":3769,"Ġaddressed":3770,"Ġpub":3771,"Ġwhatever":3772,"Ġincor":3773,"Ġgreatest":3774,"Ġwoman":3775,"Ġmainly":3776,"Ġintroduce":3777,"Ġnetworks":3778,"Ġresponsibilities":3779,"Ġdestro":3780,"Ġfamilies":3781,"idents":3782,"using":3783,"Ġachieving":3784,"Ġexpenditure":3785,"put":3786,"Ã¡":3787,"ulated":3788,"Ġspecifically":3789,"uations":3790,"Ġemphasise":3791,"Ġbot":3792,"Ġvul":3793,"Ġcomputer":3794,"Ġkorea":3795,"Ġdon":3796,"oking":3797,"ees":3798,"Ġagencies":3799,"Ġdrugs":3800,"Ġmob":3801,"Ġcommunic":3802,"Ġlines":3803,"Ġreply":3804,"Ġunanim":3805,"Ġinformed":3806,"Ġneither":3807,"Ġprefer":3808,"gypt":3809,"Ġinside":3810,"Ġspecies":3811,"Ġpromoting":3812,"Ġflexibility":3813,"Ġdegree":3814,"oon":3815,"Ġdog":3816,"Ġmanner":3817,"Ġofficials":3818,"Ġvision":3819,"Ġgradu":3820,"Ġworry":3821,"Ġperman":3822,"Ġopposed":3823,"Ġeyes":3824,"ij":3825,"Ġgame":3826,"Ġsession":3827,"Ġlies":3828,"Ġshared":3829,"Ġrob":3830,"Ġletter":3831,"Ġobser":3832,"sy":3833,"Ġoct":3834,"Ġcold":3835,"Ġwait":3836,"Ġfelt":3837,"Ġdream":3838,"Ġcontact":3839,"Ġrepresentative":3840,"Ġdesigned":3841,"Ġromania":3842,"Ġpublish":3843,"Ġcomplic":3844,"Ġcontinent":3845,"Ġamericans":3846,"Ġplaying":3847,"Ġ16":3848,"Ġvulner":3849,"Ġmeaning":3850,"Ġcard":3851,"Ġsensitive":3852,"people":3853,"commission":3854,"Ġdeclaration":3855,"Ġpretty":3856,"mas":3857,"Ġcompar":3858,"Ġactual":3859,"Ġcarefully":3860,"Ġber":3861,"rog":3862,"Ġotherwise":3863,"Ġtransform":3864,"Ġrele":3865,"Ġgod":3866,"Ġhimself":3867,"Ġcauses":3868,"Ġsecure":3869,"Ġrunning":3870,"Ġbeautiful":3871,"zy":3872,"orry":3873,"Ġdy":3874,"arks":3875,"vember":3876,"Ġnovember":3877,"Ġii":3878,"Ġforth":3879,"Ġcontains":3880,"Ġpun":3881,"Ġfactor":3882,"Ġmethods":3883,"Ġmillions":3884,"govern":3885,"Ġfigures":3886,"Ġimmediate":3887,"Ġdelegation":3888,"Ġintention":3889,"abil":3890,"Ġconstructive":3891,"enty":3892,"Ġstim":3893,"Ġcancer":3894,"Ġregular":3895,"Ġintegrated":3896,"Ġ17":3897,"Ġattemp":3898,"roso":3899,"Ġdisapp":3900,"Ġisraeli":3901,"lantic":3902,"Ġparents":3903,"Ġengine":3904,"Ġder":3905,"Ġprevention":3906,"Ġexercise":3907,"Ġprosper":3908,"Ġsubstantial":3909,"respon":3910,"Ġwelcom":3911,"Ġrecognition":3912,"Ġtraditional":3913,"Ġrejected":3914,"Ġbelg":3915,"Ġturkish":3916,"Ġelement":3917,"Ġdefend":3918,"Ġelectric":3919,"ourage":3920,"Ġtend":3921,"Ġsized":3922,"Ġresist":3923,"Ġ2001":3924,"Ġleader":3925,"Ġdocuments":3926,"Ġcontra":3927,"Ġmoral":3928,"Ġstrict":3929,"Ġsho":3930,"Ġtele":3931,"Ġspanish":3932,"ateful":3933,"Ġ2003":3934,"Ġafford":3935,"Ġlimits":3936,"Ġreferendum":3937,"Ġwid":3938,"ery":3939,"Ġtouch":3940,"ulations":3941,"Ġinstance":3942,"Ġexec":3943,"Ġfaced":3944,"Ġcharter":3945,"Ġhom":3946,"urs":3947,"ops":3948,"Ġimprovement":3949,"Ġrepeat":3950,"Ġtren":3951,"Ġserve":3952,"Ġaudit":3953,"nes":3954,"mrs":3955,"Ġcommunities":3956,"Ġvirt":3957,"cl":3958,"Ġsav":3959,"Ġsupports":3960,"Ġdesire":3961,"Ġmusl":3962,"tic":3963,"Ġparliaments":3964,"Ġkept":3965,"Ġlargely":3966,"Ġresolve":3967,"Ġinsist":3968,"perhaps":3969,"Ġ1999":3970,"Ġsubsidies":3971,"stood":3972,"Ġdeliver":3973,"Ġcouple":3974,"ober":3975,"Ġhot":3976,"Ġegypt":3977,"Ġdisch":3978,"Ġarms":3979,"Ġstructures":3980,"Ġcombating":3981,"Ġoctober":3982,"another":3983,"Ġcars":3984,"Ġdealt":3985,"Ġmechanisms":3986,"Ġstrugg":3987,"viet":3988,"Ġyork":3989,"Ġinvestments":3990,"Ġattacks":3991,"fare":3992,"Ġstuff":3993,"Ġrecognise":3994,"Ġtarget":3995,"commissioner":3996,"Ġsigned":3997,"Ġwaiting":3998,"Ġglad":3999,"agen":4000,"Ġgeneration":4001,"Ġimplementing":4002,"Ġwishes":4003,"Ġpointed":4004,"Ġdiversity":4005,"ateg":4006,"Ġobstac":4007,"Ġcorruption":4008,"Ġpoland":4009,"Ġseeing":4010,"Ġexports":4011,"Ġfactors":4012,"Ġcontinuing":4013,"Ġlearned":4014,"Ġemerging":4015,"Ġintellig":4016,"Ġcoal":4017,"Ġlabor":4018,"Ġchamber":4019,"Ġuns":4020,"Ġobama":4021,"Ġyourself":4022,"Ġcontinued":4023,"Ġexamples":4024,"Ġrefugees":4025,"Ġ2002":4026,"Ġindividuals":4027,"Ġtourism":4028,"br":4029,"Ġrange":4030,"Ġsoviet":4031,"Ġplayed":4032,"Ġpasseng":4033,"Ġitalian":4034,"Ġpan":4035,"Ġbon":4036,"Ġfire":4037,"Ġdeficit":4038,"enh":4039,"Ġautom":4040,"Ġpill":4041,"Ġprotocol":4042,"Ġfederal":4043,"may":4044,"Ġstake":4045,"illed":4046,"Ġcarbon":4047,"Ġeasier":4048,"Ġpositions":4049,"Ġrapporteurs":4050,"Ġpractices":4051,"Ġcredibility":4052,"orary":4053,"Ġarrest":4054,"Ġlaid":4055,"Ġwritten":4056,"Ġdynam":4057,"ladies":4058,"Ġcateg":4059,"Ġgrateful":4060,"Ġbringing":4061,"Ġgreek":4062,"Ġdefinition":4063,"Ġassemb":4064,"inary":4065,"Ġstrength":4066,"Ġattract":4067,"Ġengage":4068,"Ġhonest":4069,"mos":4070,"Ġok":4071,"Ġ2020":4072,"ta":4073,"who":4074,"Ġsave":4075,"Ġseries":4076,"Ġbasically":4077,"Ġchanging":4078,"Ġterrorist":4079,"Ġmutual":4080,"Ġ21":4081,"Ġsett":4082,"sibly":4083,"fe":4084,"mark":4085,"nic":4086,"iny":4087,"itch":4088,"Ġconver":4089,"tedly":4090,"Ġextend":4091,"Ġspeakers":4092,"Ġpayments":4093,"Ġtro":4094,"Ġky":4095,"ables":4096,"Ġsymb":4097,"Ġsubsidi":4098,"Ġsweden":4099,"Ġcities":4100,"ana":4101,"Ġfeeling":4102,"Ġdomin":4103,"Ġrenewable":4104,"Ġsoft":4105,"Ġmax":4106,"Ġstrengthening":4107,"rs":4108,"Ġadvoc":4109,"Ġpopular":4110,"Ġbarri":4111,"Ġfighting":4112,"Ġ60":4113,"Ġmassive":4114,"Ġbound":4115,"Ġterri":4116,"Ġnorthern":4117,"Ġkinds":4118,"Ġpassed":4119,"Ġoriginal":4120,"Ġdrink":4121,"Ġmandate":4122,"Ġpartner":4123,"Ġfine":4124,"Ġincludes":4125,"Ġresolutions":4126,"Ġrecommendations":4127,"Ġbom":4128,"Ġhous":4129,"oin":4130,"Ġelimin":4131,"Ġcheck":4132,"Ġmusic":4133,"Ġbase":4134,"Ġstatements":4135,"Ġattitude":4136,"Ġoption":4137,"Ġwo":4138,"Ġhelped":4139,"Ġconsultation":4140,"Ġlatin":4141,"Ġbecomes":4142,"Ġcode":4143,"bit":4144,"Ġmeps":4145,"Ġunderstood":4146,"Ġminority":4147,"Ġgrand":4148,"Ġkids":4149,"Ġadequate":4150,"iers":4151,"vered":4152,"Ġtaxes":4153,"sequently":4154,"Ġheads":4155,"Ġloss":4156,"Ġcondition":4157,"Ġchristian":4158,"thirdly":4159,"thus":4160,"Ġexpression":4161,"going":4162,"Ġsymbol":4163,"Ġbill":4164,"Ġhur":4165,"Ġvotes":4166,"Ġregulatory":4167,"road":4168,"matic":4169,"Ġthor":4170,"Ġcourage":4171,"prise":4172,"zil":4173,"ites":4174,"Ġfix":4175,"Ġcompe":4176,"Ġimplic":4177,"Ġproportion":4178,"Ġtreaties":4179,"Ġphil":4180,"Ġestablishment":4181,"despite":4182,"oses":4183,"Ġbarroso":4184,"Ġjuly":4185,"Ġlisten":4186,"Ġgenerally":4187,"Ġlinked":4188,"Ġcub":4189,"Ġsto":4190,"Ġrid":4191,"Ġdebates":4192,"Ġbritain":4193,"Ġfuel":4194,"Ġwithdraw":4195,"Ġremark":4196,"ony":4197,"etic":4198,"enhagen":4199,"zone":4200,"Ġacts":4201,"Ġplanning":4202,"Ġlanguages":4203,"Ġsorry":4204,"ingly":4205,"Ġforg":4206,"Ġincred":4207,"Ġclosed":4208,"Ġsubmitted":4209,"Ġdraf":4210,"Ġphot":4211,"Ġinsurance":4212,"Ġeasily":4213,"tur":4214,"Ġadapt":4215,"Ġabol":4216,"Ġpoore":4217,"Ġgets":4218,"raid":4219,"imb":4220,"Ġcovered":4221,"Ġdirectives":4222,"50":4223,"Ġreven":4224,"assion":4225,"iling":4226,"Ġut":4227,"ote":4228,"Ġ27":4229,"inding":4230,"Ġchoose":4231,"Ġdischarge":4232,"ade":4233,"Ġafraid":4234,"Ġwelfare":4235,"Ġpatients":4236,"pir":4237,"Ġnumbers":4238,"Ġsmes":4239,"Ġequally":4240,"pret":4241,"asters":4242,"Ġtelev":4243,"Ġevening":4244,"Ġfrequ":4245,"Ġpresence":4246,"Ġrising":4247,"Ġmistake":4248,"Ġincorpor":4249,"ground":4250,"Ġdig":4251,"Ġspok":4252,"aking":4253,"appe":4254,"Ġaccident":4255,"Ġcontrols":4256,"Ġobserv":4257,"Ġcriticism":4258,"Ġuncertain":4259,"Ġbalk":4260,"Ġestablishing":4261,"Ġtrading":4262,"Ġdrive":4263,"Ġknew":4264,"Ġlearning":4265,"Ġchemical":4266,"Ġpermanent":4267,"Ġprove":4268,"Ġprotest":4269,"Ġconstruction":4270,"Ġsignal":4271,"Ġmedical":4272,"Ġemployees":4273,"ronic":4274,"hn":4275,"Ġeye":4276,"Ġmem":4277,"ruit":4278,"Ġconflicts":4279,"Ġrepeated":4280,"Ġtackle":4281,"sk":4282,"Ġunlike":4283,"Ġbiggest":4284,"Ġcondemn":4285,"Ġcult":4286,"Ġpeop":4287,"Ġcorpor":4288,"Ġidentity":4289,"Ġlarger":4290,"Ġdie":4291,"Ġglobalisation":4292,"Ġimf":4293,"Ġguarantees":4294,"Ġbooks":4295,"ken":4296,"Ġelector":4297,"Ġpeoples":4298,"hib":4299,"Ġquant":4300,"Ġdiseases":4301,"Ġobligations":4302,"Ġbelong":4303,"Ġkilled":4304,"Ġtrain":4305,"Ġspoke":4306,"Ġboy":4307,"Ġnaturally":4308,"Ġexperts":4309,"Ġurban":4310,"both":4311,"Ġoccasion":4312,"Ġoce":4313,"Ġseeking":4314,"Ġinvestors":4315,"Ġappreciate":4316,"bor":4317,"di":4318,"Ġconsolid":4319,"Ġdecis":4320,"Ġprofessional":4321,"Ġtelevision":4322,"cast":4323,"Ġbilateral":4324,"Ġmeetings":4325,"Ġrelatively":4326,"Ġblood":4327,"Ġgeorg":4328,"Ġvulnerable":4329,"andon":4330,"Ġreasonable":4331,"Ġcopenhagen":4332,"Ġlux":4333,"orse":4334,"Ġsevere":4335,"Ġsocialist":4336,"Ġ197":4337,"Ġtechnological":4338,"Ġcareful":4339,"Ġtrafficking":4340,"Ġlegitim":4341,"your":4342,"Ġgender":4343,"right":4344,"Ġvast":4345,"Ġsole":4346,"Ġpension":4347,"Ġjapanese":4348,"Ġprotecting":4349,"Ġgranted":4350,"eties":4351,"Ġseparate":4352,"ril":4353,"Ġng":4354,"Ġbelar":4355,"Ġabandon":4356,"Ġarch":4357,"Ġfirms":4358,"Ġexists":4359,"Ġsituations":4360,"Ġhelping":4361,"Ġreaching":4362,"ding":4363,"ience":4364,"Ġbrings":4365,"Ġblock":4366,"Ġpeaceful":4367,"kes":4368,"tw":4369,"Ġplant":4370,"Ġcompared":4371,"Ġliberalisation":4372,"Ġrout":4373,"Ġexpectations":4374,"Ġsubsidiarity":4375,"Ġbelarus":4376,"Ġdisappe":4377,"Ġexpand":4378,"ratic":4379,"Ġswedish":4380,"Ġinvolvement":4381,"Ġdecade":4382,"Ġalliance":4383,"umer":4384,"Ġstronger":4385,"Ġstudies":4386,"Ġimposed":4387,"Ġamaz":4388,"Ġphen":4389,"Ġperformance":4390,"Ġren":4391,"Ġusually":4392,"Ġarmy":4393,"Ġparticipate":4394,"Ġpollution":4395,"wide":4396,"Ġtown":4397,"Ġstable":4398,"Ġstanding":4399,"Ġassembly":4400,"Ġcoast":4401,"Ġ1990":4402,"Ġphenomen":4403,"Ġbos":4404,"Ġworst":4405,"Ġsport":4406,"Ġendorse":4407,"Ġbrazil":4408,"Ġdefinite":4409,"Ġultimately":4410,"rant":4411,"Ġdispl":4412,"Ġapril":4413,"Ġanswers":4414,"Ġpleas":4415,"Ġthorough":4416,"once":4417,"Ġagg":4418,"Ġminorities":4419,"Ġattach":4420,"Ġsummer":4421,"Ġdelight":4422,"Ġapproval":4423,"Ġallows":4424,"Ġwrite":4425,"Ġsudden":4426,"Ġunless":4427,"ifying":4428,"Ġapparent":4429,"Ġexclud":4430,"enary":4431,"abor":4432,"Ġcrimes":4433,"Ġairp":4434,"Ġassociated":4435,"Ġtoler":4436,"Ġinev":4437,"Ġang":4438,"Ġintend":4439,"Ġmobility":4440,"Ġelsewhere":4441,"Ġ80":4442,"sterdam":4443,"hol":4444,"Ġplants":4445,"Ġexpensive":4446,"Ġentit":4447,"Ġresolved":4448,"Ġinspect":4449,"Ġdriving":4450,"Ġcomplicated":4451,"pres":4452,"rich":4453,"ties":4454,"Ġice":4455,"Ġnether":4456,"Ġspring":4457,"Ġfinding":4458,"Ġterritory":4459,"Ġinterpret":4460,"Ġsignificantly":4461,"Ġnearly":4462,"Ġinad":4463,"Ġisol":4464,"osp":4465,"Ġinitial":4466,"Ġecb":4467,"Ġconsistent":4468,"Ġcentre":4469,"ney":4470,"Ġestim":4471,"Ġsocieties":4472,"Ġimprovements":4473,"Ġcells":4474,"Ġnetherlands":4475,"Ġremarks":4476,"standing":4477,"Ġschools":4478,"garia":4479,"given":4480,"Ġsqu":4481,"ressive":4482,"Ġvolunt":4483,"Ġbirth":4484,"gment":4485,"Ġcapable":4486,"Ġstatistics":4487,"Ġbinding":4488,"Ġplaced":4489,"Ġislamic":4490,"Ġelectricity":4491,"Ġx":4492,"ison":4493,"itution":4494,"Ġplenary":4495,"Ġdefined":4496,"Ġorganised":4497,"Ġhundreds":4498,"iar":4499,"nia":4500,"Ġtob":4501,"Ġshar":4502,"Ġamsterdam":4503,"Ġcitizen":4504,"Ġbanking":4505,"Ġborn":4506,"Ġcollective":4507,"Ġpolitically":4508,"Ġfunctioning":4509,"Ġexe":4510,"Ġdepends":4511,"Ġrestruct":4512,"Ġexistence":4513,"Ġradical":4514,"Ġevaluation":4515,"Ġuniversal":4516,"Ġarrangements":4517,"mar":4518,"Ġcatch":4519,"Ġcommittees":4520,"Ġtalked":4521,"prus":4522,"Ġassociation":4523,"Ġargument":4524,"Ġenjoy":4525,"during":4526,"Ġsomewhat":4527,"Ġdign":4528,"Ġconce":4529,"their":4530,"engen":4531,"Ġpromotion":4532,"Ġemphasis":4533,"cious":4534,"Ġenforce":4535,"Ġsmaller":4536,"Ġoptim":4537,"nal":4538,"ancing":4539,"Ġremo":4540,"Ġimmigrants":4541,"Ġcore":4542,"Ġmic":4543,"Ġdied":4544,"leep":4545,"Ġweight":4546,"Ġsell":4547,"Ġprotected":4548,"Ġcompetence":4549,"Ġadvert":4550,"Ġoffers":4551,"Ġtasks":4552,"have":4553,"Ġorganization":4554,"Ġimage":4555,"Ġprimarily":4556,"Ġcast":4557,"Ġbab":4558,"Ġaccounts":4559,"does":4560,"Ġsavings":4561,"look":4562,"Ġbelief":4563,"Ġreligion":4564,"Ġarguments":4565,"enth":4566,"lection":4567,"Ġamounts":4568,"Ġfacts":4569,"Ġentry":4570,"Ġleads":4571,"Ġsurve":4572,"Ġoperate":4573,"Ġencouraging":4574,"Ġmaterials":4575,"Ġprosperity":4576,"itness":4577,"ulating":4578,"Ġpersonally":4579,"Ġabsence":4580,"Ġlabe":4581,"Ġvari":4582,"without":4583,"Ġdemonstrated":4584,"Ġbulgaria":4585,"Ġpul":4586,"Ġeurozone":4587,"Ġjustified":4588,"Ġworldwide":4589,"Ġcontributions":4590,"Ġoperations":4591,"Ġdutch":4592,"Ġdetailed":4593,"Ġdark":4594,"Ġgal":4595,"Ġparal":4596,"Ġhighest":4597,"Ġtreated":4598,"Ġschengen":4599,"Ġsouthern":4600,"Ġcyprus":4601,"Ġextraordin":4602,"Ġgaz":4603,"Ġproved":4604,"Ġquar":4605,"Ġpattern":4606,"Ġlegitimate":4607,"Ġdetermined":4608,"did":4609,"onia":4610,"Ġretain":4611,"actory":4612,"Ġemergency":4613,"Ġspoken":4614,"Ġmoun":4615,"Ġrecognised":4616,"Ġkeeping":4617,"nor":4618,"Ġslight":4619,"apse":4620,"Ġproposing":4621,"Ġgeograph":4622,"Ġmigration":4623,"Ġdistribution":4624,"Ġstraight":4625,"Ġportugal":4626,"Ġscheme":4627,"Ġdepart":4628,"Ġdemonstrate":4629,"Ġreli":4630,"Ġtransition":4631,"Ġintergovern":4632,"Ġshowed":4633,"Ġadvance":4634,"Ġauditors":4635,"Ġfaith":4636,"Ġproposes":4637,"Ġfavor":4638,"Ġtaxation":4639,"Ġrestrictions":4640,"Ġvehicles":4641,"Ġintergovernmental":4642,"usion":4643,"Ġcz":4644,"Ġcam":4645,"Ġproc":4646,"Ġzone":4647,"Ġtools":4648,"cks":4649,"Ġbeings":4650,"Ġpersons":4651,"Ġprimary":4652,"ointed":4653,"Ġfort":4654,"Ġinvolving":4655,"Ġopposite":4656,"Ġeventually":4657,"sych":4658,"Ġpsych":4659,"Ġfat":4660,"Ġacce":4661,"Ġtemporary":4662,"Ġshape":4663,"bur":4664,"pay":4665,"uable":4666,"ley":4667,"Ġprem":4668,"Ġapart":4669,"Ġversion":4670,"Ġbarriers":4671,"Ġmag":4672,"Ġreve":4673,"Ġprior":4674,"Ġextended":4675,"Ġstands":4676,"ilst":4677,"ishing":4678,"Ġsomebody":4679,"Ġfocused":4680,"Ġannounced":4681,"bru":4682,"ugh":4683,"vest":4684,"Ġpick":4685,"Ġball":4686,"Ġuniversity":4687,"Ġvig":4688,"comm":4689,"Ġproperty":4690,"Ġdescribed":4691,"Ġtypes":4692,"Ġcompensation":4693,"Ġamongst":4694,"Ġflexible":4695,"Ġpure":4696,"Ġadvanced":4697,"Ġnegotiating":4698,"overed":4699,"Ġholding":4700,"Ġintellect":4701,"Ġheavy":4702,"rees":4703,"Ġpromise":4704,"Ġrapidly":4705,"bing":4706,"ient":4707,"rated":4708,"Ġhosp":4709,"rain":4710,"Ġequip":4711,"Ġlatter":4712,"ee":4713,"Ġnos":4714,"agree":4715,"Ġethnic":4716,"adow":4717,"acco":4718,"Ġimports":4719,"Ġboost":4720,"Ġrespected":4721,"ondon":4722,"Ġjudicial":4723,"Ġpursue":4724,"Ġwalk":4725,"Ġlegitimacy":4726,"Ġdelighted":4727,"orial":4728,"emic":4729,"Ġliter":4730,"Ġwonderful":4731,"bruary":4732,"Ġmac":4733,"Ġimpose":4734,"Ġlatest":4735,"Ġczech":4736,"200":4737,"hr":4738,"ming":4739,"Ġreb":4740,"ressed":4741,"Ġmoved":4742,"Ġminute":4743,"Ġguaranteed":4744,"Ġoptions":4745,"president":4746,"Ġcomply":4747,"Ġfebruary":4748,"Ġhealthy":4749,"uds":4750,"Ġdisasters":4751,"Ġindustries":4752,"Ġopinions":4753,"Ġbehavior":4754,"Ġconstantly":4755,"econom":4756,"pro":4757,"would":4758,"Ġrecession":4759,"Ġformal":4760,"Ġfreedoms":4761,"Ġsubstances":4762,"Ġhospital":4763,"ero":4764,"Ġnar":4765,"Ġmeat":4766,"Ġmexic":4767,"Ġovercome":4768,"Ġblue":4769,"Ġaids":4770,"Ġconcluded":4771,"Ġrecommendation":4772,"Ġhistorical":4773,"Ġjournal":4774,"Ġmaximum":4775,"Ġwitness":4776,"Ġstabil":4777,"Ġoffered":4778,"Ġmilk":4779,"Ġ500":4780,"Ġdistin":4781,"Ġppe":4782,"Ġdouble":4783,"uted":4784,"Ġwash":4785,"Ġsac":4786,"ari":4787,"ife":4788,"Ġcommunist":4789,"Ġadopting":4790,"Ġplayers":4791,"Ġallowing":4792,"Ġbaltic":4793,"Ġtradition":4794,"Ġmanufacture":4795,"Ġpublished":4796,"Ġdignity":4797,"uous":4798,"Ġthrow":4799,"Ġpi":4800,"iced":4801,"Ġoral":4802,"Ġcenter":4803,"Ġcontradict":4804,"roud":4805,"Ġphase":4806,"Ġadvice":4807,"Ġmultilateral":4808,"Ġskills":4809,"oo":4810,"iliation":4811,"idge":4812,"Ġmark":4813,"Ġfirstly":4814,"Ġeffectiveness":4815,"Ġassume":4816,"Ġ1998":4817,"Ġsecretary":4818,"Ġtobacco":4819,"itime":4820,"Ġstories":4821,"rif":4822,"Ġcommissioners":4823,"Ġscand":4824,"areness":4825,"Ġcele":4826,"onom":4827,"Ġtoward":4828,"Ġproducing":4829,"tin":4830,"Ġson":4831,"Ġasian":4832,"resh":4833,"Ġcompon":4834,"Ġpromised":4835,"Ġincreases":4836,"Ġobligation":4837,"Ġinequ":4838,"Ġye":4839,"Ġrig":4840,"Ġ24":4841,"Ġpreced":4842,"Ġmargin":4843,"Ġinvolves":4844,"oubtedly":4845,"Ġpalestinians":4846,"Ġhistoric":4847,"Ġcustoms":4848,"Ġvoluntary":4849,"ato":4850,"ingu":4851,"Ġvill":4852,"Ġran":4853,"Ġguy":4854,"Ġsurround":4855,"Ġincentives":4856,"ays":4857,"Ġlie":4858,"cons":4859,"Ġeverywhere":4860,"Ġelectronic":4861,"Ġstrategies":4862,"gence":4863,"Ġfaster":4864,"Ġsearch":4865,"Ġvice":4866,"Ġmaritime":4867,"Ġtaxpay":4868,"Ġdetermination":4869,"Ġchairman":4870,"Ġdiplomatic":4871,"Ġdecisive":4872,"could":4873,"emb":4874,"Ġputin":4875,"Ġawareness":4876,"vak":4877,"Ġswe":4878,"Ġsight":4879,"Ġpossibly":4880,"Ġpurch":4881,"Ġdestruction":4882,"Ġfirmly":4883,"Ġfacilitate":4884,"Ġexplanation":4885,"lined":4886,"ware":4887,"Ġfit":4888,"abilities":4889,"Ġperfectly":4890,"Ġwine":4891,"oto":4892,"china":4893,"Ġcontrast":4894,"Ġdecline":4895,"Ġdeeply":4896,"Ġdetails":4897,"Ġintellectual":4898,"ai":4899,"izations":4900,"Ġpredict":4901,"Ġrecall":4902,"Ġexcessive":4903,"eff":4904,"face":4905,"Ġtheory":4906,"Ġos":4907,"Ġmc":4908,"rote":4909,"Ġbeg":4910,"Ġnoted":4911,"amed":4912,"Ġcompliance":4913,"Ġrac":4914,"Ġtraged":4915,"Ġexpert":4916,"Ġroma":4917,"Ġfulfil":4918,"Ġgold":4919,"Ġinclusion":4920,"Ġaftern":4921,"Ġbriefly":4922,"rian":4923,"anda":4924,"Ġthereby":4925,"Ġmatch":4926,"Ġhearing":4927,"Ġphysical":4928,"Ġentitled":4929,"umb":4930,"Ġproud":4931,"ada":4932,"Ġvia":4933,"ards":4934,"Ġdrawing":4935,"Ġcollapse":4936,"Ġfriendly":4937,"Ġreplace":4938,"Ġcooperate":4939,"Ġbottom":4940,"umerous":4941,"inc":4942,"through":4943,"Ġassure":4944,"Ġcrises":4945,"Ġopened":4946,"Ġsustainability":4947,"Ġlabelling":4948,"Ġflight":4949,"ourg":4950,"anging":4951,"Ġreaction":4952,"Ġcuts":4953,"none":4954,"Ġwrote":4955,"Ġomb":4956,"Ġbed":4957,"Ġleban":4958,"Ġtransl":4959,"Ġblame":4960,"Ġprofit":4961,"Ġgirl":4962,"Ġallocated":4963,"Ġgeorgia":4964,"Ġombuds":4965,"bourg":4966,"Ġforthcoming":4967,"asbourg":4968,"lder":4969,"Ġended":4970,"Ġscen":4971,"Ġsatisfied":4972,"Ġlaunched":4973,"Ġafternoon":4974,"Ġyouth":4975,"Ġbelieves":4976,"Ġchoices":4977,"Ġgrounds":4978,"ws":4979,"Ġlived":4980,"Ġexamine":4981,"lastly":4982,"Ġluxemb":4983,"30":4984,"Ġfruit":4985,"Ġusa":4986,"Ġstrasbourg":4987,"Ġrelates":4988,"Ġplanned":4989,"Ġ1997":4990,"Ġsuggested":4991,"Ġradio":4992,"Ġpatient":4993,"Ġtough":4994,"Ġnobody":4995,"Ġmov":4996,"ifications":4997,"Ġspeaker":4998,"Ġrepresented":4999,"Ġsuffer":5000,"Ġfarming":5001,"Ġundoubtedly":5002,"Ġocean":5003,"Ġongoing":5004,"Ġincom":5005,"Ġdetermine":5006,"Ġaustria":5007,"Ġsexual":5008,"har":5009,"Ġtit":5010,"Ġmath":5011,"Ġabuse":5012,"Ġdisagree":5013,"ception":5014,"Ġcreates":5015,"Ġshowing":5016,"Ġordinary":5017,"Ġobstacles":5018,"Ġimplications":5019,"Ġprosec":5020,"adv":5021,"osen":5022,"Ġabstain":5023,"Ġemot":5024,"Ġvaluable":5025,"Ġdispos":5026,"Ġdictators":5027,"Ġspect":5028,"Ġjudge":5029,"Ġrestructuring":5030,"ball":5031,"Ġbelow":5032,"Ġsubmit":5033,"european":5034,"Ġreconst":5035,"Ġequipment":5036,"Ġvide":5037,"Ġnecessarily":5038,"Ġterrible":5039,"Ġhus":5040,"asing":5041,"Ġnotice":5042,"reneur":5043,"Ġundermin":5044,"Ġserbia":5045,"Ġprocesses":5046,"Ġessentially":5047,"repreneur":5048,"Ġluxembourg":5049,"Ġgap":5050,"Ġshift":5051,"Ġacp":5052,"Ġacting":5053,"Ġbackground":5054,"necess":5055,"ength":5056,"Ġsovereignty":5057,"Ġleaving":5058,"Ġbox":5059,"Ġroot":5060,"Ġmonop":5061,"Ġrealistic":5062,"Ġhardly":5063,"Ġdependent":5064,"bes":5065,"Ġecu":5066,"Ġabroad":5067,"Ġdism":5068,"Ġpref":5069,"Ġstrengthened":5070,"Ġ70":5071,"Ġurgently":5072,"Ġwidely":5073,"Ġali":5074,"Ġpresidential":5075,"Ġtroops":5076,"Ġkyoto":5077,"Ġbalkans":5078,"iles":5079,"Ġreserve":5080,"Ġtrouble":5081,"Ġwars":5082,"Ġsupplement":5083,"Ġsignificance":5084,"Ġargue":5085,"Ġteacher":5086,"Ġdefinitely":5087,"economic":5088,"Ġnumerous":5089,"Ġevolution":5090,"Ġentrepreneur":5091,"iction":5092,"Ġexperienced":5093,"Ġoperating":5094,"Ġturns":5095,"Ġcontained":5096,"gic":5097,"yle":5098,"Ġep":5099,"Ġsugar":5100,"Ġrecognize":5101,"Ġwelcomed":5102,"two":5103,"Ġisland":5104,"Ġpartly":5105,"Ġrestric":5106,"Ġwider":5107,"Ġprohib":5108,"Ġtrack":5109,"Ġapprove":5110,"Ġdaily":5111,"Ġombudsman":5112,"isory":5113,"Ġunnecess":5114,"Ġvan":5115,"Ġimpression":5116,"Ġfollows":5117,"Ġchosen":5118,"Ġarmed":5119,"Ġvoters":5120,"Ġsensible":5121,"Ġsleep":5122,"Ġment":5123,"Ġgreatly":5124,"Ġinterven":5125,"Ġprepare":5126,"Ġpurposes":5127,"Ġharmonisation":5128,"Ġtight":5129,"Ġremove":5130,"Ġlesson":5131,"Ġpayment":5132,"Ġcoordinated":5133,"Ġinnovative":5134,"ox":5135,"Ġchann":5136,"Ġlessons":5137,"Ġfoundation":5138,"Ġmistakes":5139,"Ġunique":5140,"Ġprospects":5141,"aughter":5142,"atures":5143,"Ġshadow":5144,"Ġreflects":5145,"ancy":5146,"irect":5147,"Ġanybody":5148,"Ġnevertheless":5149,"Ġconstitu":5150,"Ġsurely":5151,"Ġsubstance":5152,"Ġaccompan":5153,"Ġtrend":5154,"amb":5155,"gen":5156,"Ġves":5157,"Ġrational":5158,"Ġera":5159,"Ġmuslim":5160,"Ġfal":5161,"ung":5162,"Ġadmit":5163,"Ġprize":5164,"Ġinfect":5165,"Ġrequirement":5166,"Ġpatent":5167,"Ġscientists":5168,"Ġsupervision":5169,"gra":5170,"Ġted":5171,"astic":5172,"Ġsuffered":5173,"Ġvisa":5174,"Ġrequested":5175,"Ġcollabor":5176,"Ġoccasions":5177,"Ġbehavi":5178,"Ġbattle":5179,"Ġforgot":5180,"Ġwat":5181,"Ġhol":5182,"Ġreserv":5183,"Ġpolish":5184,"Ġbuildings":5185,"Ġacknowledge":5186,"Ġpoorest":5187,"Ġgaza":5188,"Ġlic":5189,"Ġlength":5190,"Ġstocks":5191,"ula":5192,"Ġsum":5193,"Ġappoint":5194,"regard":5195,"Ġhopes":5196,"Ġsurprised":5197,"Ġstruggle":5198,"back":5199,"Ġimb":5200,"Ġchap":5201,"teen":5202,"Ġ196":5203,"Ġpaying":5204,"Ġzero":5205,"Ġuniverse":5206,"Ġpenalty":5207,"sub":5208,"oms":5209,"Ġpresidents":5210,"Ġidentified":5211,"Ġassets":5212,"Ġsucceeded":5213,"Ġdeficits":5214,"her":5215,"nel":5216,"Ġmos":5217,"urch":5218,"Ġrain":5219,"Ġprevail":5220,"Ġfamiliar":5221,"Ġunfair":5222,"Ġadvertising":5223,"car":5224,"care":5225,"Ġcry":5226,"Ġlondon":5227,"Ġunif":5228,"Ġrh":5229,"Ġconciliation":5230,"Ġcorrespon":5231,"Ġmap":5232,"Ġrevision":5233,"Ġurgency":5234,"Ġphenomenon":5235,"lav":5236,"Ġhamas":5237,"Ġsymp":5238,"Ġviolations":5239,"Ġslovak":5240,"Ġdoctor":5241,"oud":5242,"icip":5243,"Ġalban":5244,"Ġfrank":5245,"Ġfields":5246,"Ġmachine":5247,"Ġmountain":5248,"similar":5249,"Ġrelie":5250,"uel":5251,"Ġspl":5252,"Ġdeserves":5253,"Ġtrial":5254,"Ġsuffici":5255,"Ġlosses":5256,"Ġngos":5257,"Ġdecent":5258,"Ġpersu":5259,"Ġ90":5260,"Ġpillar":5261,"Ġdynamic":5262,"Ġextraordinary":5263,"son":5264,"encing":5265,"Ġnine":5266,"Ġdefine":5267,"phere":5268,"Ġdifficulty":5269,"Ġoperational":5270,"Ġclarify":5271,"Ġnig":5272,"Ġthreats":5273,"Ġcroat":5274,"itect":5275,"Ġsharing":5276,"Ġcamer":5277,"Ġbought":5278,"Ġreiter":5279,"Ġforum":5280,"Ġsusp":5281,"ets":5282,"abling":5283,"ibet":5284,"Ġpreventing":5285,"Ġsentence":5286,"Ġterritorial":5287,"Ġpreparing":5288,"Ġsister":5289,"Ġimportantly":5290,"Ġexclus":5291,"Ġtests":5292,"Ġsharp":5293,"oring":5294,"Ġrecip":5295,"Ġdisadv":5296,"Ġextension":5297,"Ġdisadvant":5298,"Ġcaught":5299,"Ġprodi":5300,"Ġcharge":5301,"Ġidentify":5302,"Ġreflected":5303,"Ġwindow":5304,"down":5305,"rew":5306,"Ġod":5307,"Ġpossibilities":5308,"licit":5309,"Ġhousehold":5310,"Ġsuccessfully":5311,"Ġmodels":5312,"Ġarchitect":5313,"Ġet":5314,"Ġash":5315,"Ġ23":5316,"Ġfeet":5317,"Ġlots":5318,"Ġborrow":5319,"Ġcoherent":5320,"cape":5321,"Ġreliable":5322,"uls":5323,"Ġarm":5324,"Ġarrived":5325,"Ġfresh":5326,"Ġstem":5327,"viously":5328,"Ġhungarian":5329,"Ġprisoners":5330,"ax":5331,"ulf":5332,"unity":5333,"Ġraising":5334,"Ġdefense":5335,"Ġdeals":5336,"Ġaddressing":5337,"Ġcheap":5338,"Ġwarming":5339,"Ġacknowled":5340,"ba":5341,"pread":5342,"zer":5343,"Ġinj":5344,"iring":5345,"osoph":5346,"oslav":5347,"consequently":5348,"Ġsyria":5349,"Ġinterf":5350,"idespread":5351,"Ġgirls":5352,"Ġmix":5353,"Ġunity":5354,"Ġseat":5355,"ibly":5356,"Ġ2011":5357,"Ġclaims":5358,"Ġdeclared":5359,"Ġmedicine":5360,"Ġexecut":5361,"Ġmexico":5362,"Ġtar":5363,"Ġol":5364,"Ġfer":5365,"Ġflu":5366,"Ġimper":5367,"Ġaccur":5368,"Ġpromises":5369,"comp":5370,"ugoslav":5371,"holders":5372,"Ġcandidates":5373,"Ġsettlement":5374,"Ġfly":5375,"Ġexpan":5376,"active":5377,"Ġhousing":5378,"Ġtibet":5379,"Ġmine":5380,"Ġtwenty":5381,"Ġextensive":5382,"Ġ2013":5383,"Ġtopic":5384,"Ġelectoral":5385,"Ġtragedy":5386,"old":5387,"Ġwidespread":5388,"Ġbreat":5389,"Ġreass":5390,"Ġregist":5391,"Ġblind":5392,"Ġolder":5393,"Ġoccurred":5394,"Ġconcentrate":5395,"Ġmobil":5396,"Ġpleasure":5397,"Ġreconstruction":5398,"Ġexceed":5399,"Ġconsidering":5400,"Ġcharges":5401,"Ġdisposal":5402,"Ġsympath":5403,"wan":5404,"Ġfem":5405,"Ġrely":5406,"Ġstation":5407,"Ġselect":5408,"umed":5409,"Ġdiscip":5410,"Ġdiscovered":5411,"Ġdepth":5412,"Ġsurprise":5413,"Ġtelling":5414,"Ġviolent":5415,"Ġwillingness":5416,"Ġphilosoph":5417,"Ġdump":5418,"Ġyugoslav":5419,"Ġaside":5420,"Ġsets":5421,"Ġaccidents":5422,"Ġproductivity":5423,"Ġbrother":5424,"Ġfourth":5425,"Ġaffects":5426,"Ġfairly":5427,"Ġflood":5428,"Ġmedicines":5429,"Ġamazing":5430,"Ġwife":5431,"Ġusers":5432,"Ġexplicit":5433,"Ġscot":5434,"Ġphone":5435,"Ġmaintaining":5436,"Ġmissing":5437,"Ġfilm":5438,"Ġuniform":5439,"Ġsyn":5440,"Ġdebating":5441,"Ġinfring":5442,"Ġopenness":5443,"Ġappropriations":5444,"Ġflag":5445,"Ġconfirmed":5446,"Ġreveal":5447,"pts":5448,"Ġcrow":5449,"asm":5450,"cif":5451,"Ġtimet":5452,"Ġnewsp":5453,"Ġvictory":5454,"Ġconducted":5455,"ault":5456,"Ġdin":5457,"Ġstick":5458,"which":5459,"Ġissued":5460,"Ġorganizations":5461,"Ġdeliber":5462,"Ġcalcul":5463,"Ġattempts":5464,"Ġuncertainty":5465,"Ġexpansion":5466,"part":5467,"Ġgames":5468,"cel":5469,"osition":5470,"Ġchurch":5471,"apers":5472,"Ġmotor":5473,"Ġautonom":5474,"having":5475,"Ġberlin":5476,"Ġdigital":5477,"Ġprofits":5478,"Ġmaintained":5479,"Ġillust":5480,"Ġreconcil":5481,"Ġcontracts":5482,"Ġpunish":5483,"Ġmort":5484,"Ġreserves":5485,"Ġpred":5486,"Ġtragic":5487,"Ġowners":5488,"Ġdemanding":5489,"Ġrelease":5490,"Ġtv":5491,"Ġproof":5492,"kets":5493,"Ġaviation":5494,"Ġcontrolled":5495,"Ġstatute":5496,"Ġencouraged":5497,"Ġapplying":5498,"Ġquotas":5499,"Ġtaxpayers":5500,"Ġbehaviour":5501,"Ġvacc":5502,"Ġhumans":5503,"Ġsurpl":5504,"Ġprofound":5505,"Ġlinks":5506,"Ġsatisfactory":5507,"Ġratification":5508,"house":5509,"ront":5510,"Ġâ":5511,"Ġenem":5512,"ague":5513,"Ġregrett":5514,"Ġpassengers":5515,"Ġbol":5516,"Ġalarm":5517,"Ġende":5518,"Ġresource":5519,"uese":5520,"Ġdirector":5521,"Ġjohn":5522,"Ġrestore":5523,"Ġfishermen":5524,"Ġcarrying":5525,"Ġhyp":5526,"Ġwaters":5527,"Ġendeav":5528,"tr":5529,"Ã¼":5530,"Ġthir":5531,"anges":5532,"Ġstrange":5533,"Ġideal":5534,"before":5535,"Ġemployed":5536,"Ġoperators":5537,"Ġmotiv":5538,"Ġlosing":5539,"ographic":5540,"Ġdivided":5541,"Ġneighbours":5542,"obviously":5543,"Ġundertaken":5544,"Ġcuba":5545,"Ġimbal":5546,"xts":5547,"Ġsought":5548,"thly":5549,"asc":5550,"quid":5551,"cont":5552,"Ġsaving":5553,"Ġstudent":5554,"Ġengaged":5555,"Ġcollege":5556,"Ġcombined":5557,"Ġexclusion":5558,"Ġembar":5559,"Ġhighlighted":5560,"Ġinvestigation":5561,"Ġlebanon":5562,"zz":5563,"outh":5564,"Ġsurface":5565,"Ġcreative":5566,"Ġvideo":5567,"Ġq":5568,"Ġtort":5569,"ading":5570,"ques":5571,"Ġatmos":5572,"Ġfinish":5573,"Ġtwice":5574,"Ġsuggests":5575,"Ġduties":5576,"Ġportuguese":5577,"Ġremoved":5578,"ns":5579,"atlantic":5580,"Ġcourts":5581,"Ġturning":5582,"Ġresulting":5583,"Ġstopped":5584,"Ġinadequate":5585,"Ġaug":5586,"enn":5587,"ington":5588,"ief":5589,"Ġfinland":5590,"Ġbelieved":5591,"Ġentered":5592,"Ġfamous":5593,"Ġawa":5594,"ocked":5595,"Ġterrorists":5596,"irable":5597,"Ġenhance":5598,"Ġworrying":5599,"Ġsake":5600,"Ġblow":5601,"Ġluck":5602,"Ġkil":5603,"Ġactively":5604,"Ġdramatic":5605,"Ġsurvive":5606,"Ġsuspend":5607,"Ġineff":5608,"Ġfinished":5609,"again":5610,"Ġhumanity":5611,"Ġdeploy":5612,"Ġsupplies":5613,"Ġfalls":5614,"Ġexplained":5615,"Ġbegun":5616,"Ġwhilst":5617,"Ġrough":5618,"whel":5619,"Ġgoverning":5620,"Ġputs":5621,"Ġdefe":5622,"Ġrealise":5623,"Ġseemed":5624,"Ġintroducing":5625,"Ġcutting":5626,"aw":5627,"hus":5628,"Ġsick":5629,"Ġ1996":5630,"Ġlistening":5631,"Ġwatching":5632,"Ġresistance":5633,"iant":5634,"Ġwise":5635,"erved":5636,"see":5637,"Ġparad":5638,"Ġadm":5639,"Ġevol":5640,"Ġevident":5641,"Ġrace":5642,"Ġfewer":5643,"Ġbigger":5644,"Ġconsequence":5645,"Ġgenerations":5646,"Ġdispute":5647,"Ġstrike":5648,"Ġtunis":5649,"itutional":5650,"mo":5651,"thes":5652,"Ġoverwhel":5653,"Ġeconomically":5654,"Ġsched":5655,"Ġcompleted":5656,"Ġgreens":5657,"Ġmultip":5658,"Ġevalu":5659,"Ġunlikely":5660,"rel":5661,"udi":5662,"Ġthanking":5663,"Ġcoff":5664,"Ġguard":5665,"Ġcredible":5666,"Ġmagn":5667,"Ġded":5668,"Ġdro":5669,"Ġcanada":5670,"Ġlawy":5671,"Ġcontributed":5672,"Ġignore":5673,"Ġsufficiently":5674,"Ġdrop":5675,"Ġdeserve":5676,"Ġremaining":5677,"Ġachievement":5678,"Ġdictatorship":5679,"Ġfash":5680,"racies":5681,"Ġintensive":5682,"allow":5683,"Ġtransitional":5684,"Ġtransatlantic":5685,"Ġ300":5686,"Ġinsuff":5687,"Ġfalling":5688,"Ġproceedings":5689,"Ġinterpretation":5690,"ino":5691,"Ġhiv":5692,"Ġvat":5693,"Ġadult":5694,"Ġclause":5695,"Ġattend":5696,"Ġfacilities":5697,"Ġoppose":5698,"Ġweakness":5699,"Ġpursu":5700,"Ġflows":5701,"Ġqualified":5702,"Ġdisappoint":5703,"Ġconvergence":5704,"Ġunnecessary":5705,"cra":5706,"four":5707,"Ġ22":5708,"Ġscre":5709,"Ġnegotiation":5710,"Ġheading":5711,"Ġbroader":5712,"Ġliquid":5713,"Ġrealize":5714,"Ġvalid":5715,"Ġinsp":5716,"Ġextrem":5717,"everyone":5718,"Ġsuspect":5719,"Ġbomb":5720,"ti":5721,"Ġhal":5722,"Ġdub":5723,"Ġchain":5724,"Ġprograms":5725,"Ġsmoking":5726,"Ġiranian":5727,"gu":5728,"Ġconstitute":5729,"Ġconnected":5730,"Ġadvantages":5731,"Ġcroatia":5732,"Ġwage":5733,"Ġmur":5734,"oss":5735,"Ġintens":5736,"Ġlegally":5737,"Ġrevenue":5738,"take":5739,"Ġinqu":5740,"Ġcompuls":5741,"Ġiraqi":5742,"Ġtargeted":5743,"Ġpreparation":5744,"Ġleaves":5745,"Ġsim":5746,"Ġech":5747,"forced":5748,"Ġremained":5749,"Ġpopulations":5750,"rust":5751,"uries":5752,"ounting":5753,"Ġregimes":5754,"Ġindirect":5755,"Ġconfront":5756,"Ġguys":5757,"Ġenvironmentally":5758,"clearly":5759,"Ġeducational":5760,"Ġcorrectly":5761,"Ġ1980":5762,"Ġcorporate":5763,"Ġfashion":5764,"Ġpil":5765,"Ġatlantic":5766,"abwe":5767,"Ġcool":5768,"Ġdebated":5769,"Ġapprox":5770,"Ġamended":5771,"Ġcivilian":5772,"Ġpreviously":5773,"Ġgenuinely":5774,"imbabwe":5775,"iwan":5776,"Ġnoise":5777,"Ġraw":5778,"Ġeconomics":5779,"Ġwarning":5780,"Ġexperiment":5781,"Ġbaby":5782,"similarly":5783,"tering":5784,"Ġriver":5785,"Ġloans":5786,"Ġviable":5787,"Ġneighbor":5788,"Ġsudan":5789,"Ġsoldiers":5790,"Ġmacro":5791,"Ġweb":5792,"usal":5793,"Ġintentions":5794,"Ġprivile":5795,"Ġburma":5796,"Ġsky":5797,"Ġneighbourhood":5798,"Ġpurely":5799,"Ã³":5800,"orous":5801,"Ġgar":5802,"Ġweather":5803,"opho":5804,"Ġworried":5805,"Ġusual":5806,"Ġlasting":5807,"Ġcausing":5808,"phone":5809,"Ġexploitation":5810,"Ġtonight":5811,"Ġcompulsory":5812,"Ġinnoc":5813,"Ġbureaucracy":5814,"Ġenforcement":5815,"Ġacceler":5816,"ky":5817,"Ġwood":5818,"erson":5819,"cient":5820,"Ġseeks":5821,"Ġcolon":5822,"Ġfran":5823,"Ġ1995":5824,"Ġratified":5825,"Ġfing":5826,"omin":5827,"Ġjustify":5828,"Ġrefused":5829,"Ġcapt":5830,"Ġhonour":5831,"Ġglass":5832,"Ġbosnia":5833,"atible":5834,"actions":5835,"Ġmostly":5836,"Ġregarded":5837,"Ġswim":5838,"institutional":5839,"ursday":5840,"Ġeliminate":5841,"rates":5842,"uild":5843,"Ġow":5844,"ils":5845,"Ġkn":5846,"Ġ26":5847,"Ġreported":5848,"Ġsolved":5849,"Ġforemost":5850,"Ġhealthcare":5851,"Ġambition":5852,"Ġtrem":5853,"Ġadjustment":5854,"Ġgradually":5855,"Ġintelligence":5856,"Ġparalle":5857,"Ġislands":5858,"americ":5859,"Ġintends":5860,"Ġsigns":5861,"Ġequival":5862,"Ġstressed":5863,"Ġconservative":5864,"Ġincredible":5865,"erate":5866,"che":5867,"Ġshame":5868,"ocking":5869,"Ġexpense":5870,"Ġperpet":5871,"Ġcorner":5872,"Ġdetect":5873,"Ġpercentage":5874,"band":5875,"Ġpace":5876,"Ġsection":5877,"Ġmoreover":5878,"Ġpersist":5879,"Ġmovements":5880,"Ġsales":5881,"Ġcategory":5882,"Ġslightly":5883,"Ġconsiders":5884,"ova":5885,"Ġmoroc":5886,"Ġemerged":5887,"Ġanaly":5888,"Ġindicated":5889,"Ġhomes":5890,"mon":5891,"Ġthursday":5892,"iry":5893,"Ġempty":5894,"Ġentail":5895,"Ġenvis":5896,"Ġexperiences":5897,"Ġcongress":5898,"Ġzimbabwe":5899,"Ġfifth":5900,"Ġinsufficient":5901,"rors":5902,"icted":5903,"Ġgri":5904,"ption":5905,"cohol":5906,"Ġmobile":5907,"Ġremarkable":5908,"Ġrepeatedly":5909,"Ġbse":5910,"Ġvac":5911,"igned":5912,"Ġinvited":5913,"Ġcertainty":5914,"Ġsolely":5915,"sen":5916,"Ġoh":5917,"Ġdanish":5918,"Ġanywhere":5919,"Ġembra":5920,"Ġalternatives":5921,"Ġquarter":5922,"ga":5923,"ny":5924,"Ġthres":5925,"Ġcli":5926,"asion":5927,"Ġarise":5928,"Ġdecre":5929,"Ġmold":5930,"Ġrealized":5931,"Ġfaces":5932,"Ġtrip":5933,"Ġbreach":5934,"Ġpalestine":5935,"Ġobliged":5936,"Ġcatast":5937,"Ġcommunications":5938,"Ġphotograph":5939,"Ġthreshold":5940,"Ġdriven":5941,"Ġreferring":5942,"Ġsurvival":5943,"Ġannounce":5944,"imp":5945,"Ġgulf":5946,"Ġ28":5947,"Ġherit":5948,"sider":5949,"Ġale":5950,"Ġwake":5951,"Ġwebs":5952,"rad":5953,"Ġjoined":5954,"Ġscar":5955,"ribute":5956,"Ġgained":5957,"Ġquote":5958,"Ġsuddenly":5959,"Ġmovie":5960,"Ġatmosphere":5961,"Ġfost":5962,"Ġnut":5963,"keep":5964,"Ġcommod":5965,"wel":5966,"Ġindian":5967,"Ġendors":5968,"Ġhelps":5969,"Ġcompetent":5970,"Ġearn":5971,"Ġsubjects":5972,"Ġignored":5973,"Ġprag":5974,"Ġfalse":5975,"Ġonto":5976,"Ġalcohol":5977,"Ġupd":5978,"Ġspite":5979,"Ġindones":5980,"Ġconvince":5981,"Ġslowly":5982,"Ġhungary":5983,"Ġstimul":5984,"Ġbelgium":5985,"Ġemotion":5986,"Ġforgotten":5987,"Ġheritage":5988,"uk":5989,"yal":5990,"ona":5991,"Ġwages":5992,"Ġports":5993,"Ġstream":5994,"Ġalive":5995,"Ġshap":5996,"akers":5997,"Ġundermine":5998,"Ġgenetic":5999,"Ġfinanced":6000,"Ġinterinstitutional":6001,"Ġtaiwan":6002,"cuse":6003,"Ġrepresentation":6004,"Ġdistort":6005,"Ġminds":6006,"Ġdoubts":6007,"Ġapplications":6008,"Ġfrequently":6009,"rid":6010,"Ġwed":6011,"Ġcas":6012,"Ġcomplement":6013,"izes":6014,"Ġpermit":6015,"Ġenthus":6016,"Ġinterpre":6017,"Ġrespects":6018,"Ġdeadline":6019,"Ġcultures":6020,"commun":6021,"Ġenthusi":6022,"Ġanx":6023,"lymp":6024,"Ġoffering":6025,"Ġdistance":6026,"Ġlibya":6027,"place":6028,"Ġsuggestions":6029,"ecision":6030,"Ġbureaucratic":6031,"Ġfixed":6032,"Ġvessels":6033,"subject":6034,"Ġmouth":6035,"Ġresulted":6036,"Ġinstitute":6037,"Ġconsiderably":6038,"Ġharmful":6039,"Ġdeaths":6040,"Ġnonetheless":6041,"Ġentrepreneurs":6042,"Ġtired":6043,"att":6044,"Ġsong":6045,"alities":6046,"Ġcommand":6047,"Ġplat":6048,"Ġsocialists":6049,"Ġrefers":6050,"Ġscr":6051,"Ġdepri":6052,"Ġplays":6053,"Ġnegotiated":6054,"Ġspeeches":6055,"Ġtemper":6056,"Ġmicro":6057,"Ġetc":6058,"Ġtimetable":6059,"craft":6060,"itably":6061,"Ġaspir":6062,"Ġacad":6063,"Ġdemocracies":6064,"Ġforecast":6065,"Ġrome":6066,"Ġbadly":6067,"Ġpursued":6068,"should":6069,"Ġracism":6070,"Ġtremend":6071,"ham":6072,"amend":6073,"Ġliked":6074,"ager":6075,"Ġlistened":6076,"Ġpensions":6077,"Ġships":6078,"Ġdestroyed":6079,"Ġregister":6080,"Ġdemographic":6081,"Ġbridge":6082,"appro":6083,"Ġexecutive":6084,"bb":6085,"lad":6086,"Ġic":6087,"Ġpassion":6088,"Ġhat":6089,"Ġdar":6090,"think":6091,"Ġhaz":6092,"Ġwhereas":6093,"Ġsmart":6094,"Ġglobalization":6095,"Ġconsiderations":6096,"Ġfoundations":6097,"Ġaffecting":6098,"Ġroads":6099,"Ġethical":6100,"Ġcodecision":6101,"Ġfuels":6102,"Ġpetitions":6103,"Ġvirtually":6104,"Ġscrut":6105,"Ļ«":6106,"Ġcash":6107,"anks":6108,"oler":6109,"Ġunp":6110,"uman":6111,"Ġdiss":6112,"Ġminim":6113,"Ġerror":6114,"Ġschemes":6115,"Ġintervene":6116,"Ġregrettable":6117,"Ġcoffee":6118,"bre":6119,"Ġolymp":6120,"idden":6121,"atell":6122,"Ġfault":6123,"Ġperce":6124,"Ġirre":6125,"Ġfreely":6126,"Ġdemonst":6127,"Ġreinforce":6128,"Ġbelgian":6129,"Ġscandal":6130,"eth":6131,"jud":6132,"Ġcow":6133,"Ġlith":6134,"Ġyield":6135,"ches":6136,"Ġunre":6137,"opard":6138,"Ġken":6139,"Ġmarked":6140,"Ġclarity":6141,"Ġreturned":6142,"Ġcycle":6143,"Ġdisappointed":6144,"Ġsquare":6145,"Ġreservations":6146,"gn":6147,"Ġsite":6148,"illing":6149,"Ġunpre":6150,"Ġsphere":6151,"Ġmarketing":6152,"Ġremed":6153,"Ġdiscover":6154,"Ġnegotiate":6155,"Ġconstitutes":6156,"Ġthreatened":6157,"Ġfears":6158,"Ġbonds":6159,"Ġaccompanied":6160,"Ġinfringe":6161,"Ġendeavour":6162,"Ġwild":6163,"Ġcert":6164,"Ġmere":6165,"osis":6166,"otherwise":6167,"Ġmodified":6168,"Ġ35":6169,"Ġannivers":6170,"Ġjourney":6171,"Ġnarrow":6172,"iti":6173,"Ġnav":6174,"Ġsev":6175,"Ġdisabled":6176,"Ġoutstanding":6177,"Ġimages":6178,"Ġvehicle":6179,"Ġexceptional":6180,"Ġcoalition":6181,"Ġmemory":6182,"Ġaugust":6183,"ÃŃ":6184,"Ġmit":6185,"Ġchief":6186,"Ġuses":6187,"Ġincident":6188,"Ġthinks":6189,"Ġboom":6190,"Ġproductive":6191,"Ġshares":6192,"Ġdisplay":6193,"Ġgeographical":6194,"Ġwashington":6195,"Ġmanufacturers":6196,"Ġunfortun":6197,"antly":6198,"Ġpreserve":6199,"arer":6200,"Ġinstall":6201,"Ġfunded":6202,"Ġgenet":6203,"Ġdevast":6204,"Ġmillenn":6205,"burg":6206,"Ġsacrif":6207,"Ġtariff":6208,"Ġanniversary":6209,"nat":6210,"itical":6211,"ulous":6212,"Ġnotion":6213,"Ġtexts":6214,"Ġrefuse":6215,"together":6216,"Ġdeterior":6217,"Ġrequests":6218,"Ġcomputers":6219,"Ġpassenger":6220,"Ġairport":6221,"Ġunfortunate":6222,"Ġmillennium":6223,"inational":6224,"Ġsuitable":6225,"Ġcolom":6226,"Ġbroke":6227,"Ġdiscrimin":6228,"Ġcopy":6229,"Ġchapter":6230,"Ġequivalent":6231,"ini":6232,"erc":6233,"Ġmaced":6234,"Ġunions":6235,"Ġclub":6236,"Ġruling":6237,"Ġemployers":6238,"Ġfails":6239,"Ġswift":6240,"Ġfallen":6241,"Ġunemployed":6242,"Ġasset":6243,"Ġteachers":6244,"Ġvillage":6245,"bel":6246,"year":6247,"ario":6248,"Ġshi":6249,"Ġjun":6250,"Ġkar":6251,"Ġdesp":6252,"Ġgrown":6253,"Ġcitizenship":6254,"Ġbeneficial":6255,"Ġexperiencing":6256,"Ġroman":6257,"Ġdenmark":6258,"each":6259,"Ġsending":6260,"Ġfate":6261,"Ġanne":6262,"Ġstance":6263,"aded":6264,"Ġshut":6265,"Ġprovid":6266,"Ġbroken":6267,"Ġcease":6268,"bar":6269,"Ġwis":6270,"Ġeating":6271,"Ġnames":6272,"Ġgun":6273,"Ġonline":6274,"sight":6275,"Ġapproaches":6276,"Ġjudgment":6277,"Ġsounds":6278,"Ġcomparison":6279,"Ġintelligent":6280,"water":6281,"Ġgross":6282,"Ġstor":6283,"Ġprolif":6284,"add":6285,"umn":6286,"Ġindis":6287,"Ġneglect":6288,"lah":6289,"Ġmulti":6290,"Ġmultinational":6291,"Ġreplaced":6292,"Ġlogic":6293,"Ġinevitable":6294,"Ġbreath":6295,"ein":6296,"ko":6297,"roc":6298,"Ġconvers":6299,"erences":6300,"Ġpharm":6301,"Ġapolog":6302,"Ġemphasised":6303,"Ġdiagn":6304,"Ġdisappear":6305,"Ġexcluded":6306,"Ġcomponent":6307,"Ġparallel":6308,"itative":6309,"ower":6310,"Ġneut":6311,"Ġunderlying":6312,"Ġtransactions":6313,"Ġliber":6314,"Ġerad":6315,"law":6316,"Ġdivision":6317,"Ġneighbouring":6318,"Ġincentive":6319,"Ġtaught":6320,"Ġdan":6321,"Ġgh":6322,"ctive":6323,"etor":6324,"Ġsoil":6325,"Ġrelate":6326,"Ġhelpful":6327,"Ġabsor":6328,"Ġregulated":6329,"Ġlands":6330,"Ġindicate":6331,"Ġearthqu":6332,"Ġsloven":6333,"Ġchemicals":6334,"Ġliterally":6335,"Ġlithu":6336,"inn":6337,"Ġbub":6338,"pper":6339,"mean":6340,"Ġproven":6341,"Ġpresentation":6342,"Ġsurrounding":6343,"follow":6344,"national":6345,"Ġmurd":6346,"eds":6347,"Ġdirected":6348,"Ġsmoo":6349,"Ġnecessity":6350,"Ġvisible":6351,"Ġchecks":6352,"Ġcapitalism":6353,"Ġpotentially":6354,"Ġdemonstrates":6355,"Ġdeclare":6356,"Ġincredibly":6357,"spe":6358,"also":6359,"Ġelder":6360,"Ġpresenting":6361,"Ġmodest":6362,"Ġviet":6363,"Ġretire":6364,"Ġcombination":6365,"Ġgrew":6366,"Ġargent":6367,"Ġexamined":6368,"Ġobtained":6369,"Ġlogical":6370,"Ġstreets":6371,"Ġrestricted":6372,"Ġfemale":6373,"Ġreconciliation":6374,"Ġcf":6375,"orn":6376,"oured":6377,"Ġraises":6378,"Ġkeen":6379,"Ġgenerate":6380,"Ġsatisfaction":6381,"Ġregularly":6382,"Ġestimated":6383,"Ġvietnam":6384,"cap":6385,"Ġast":6386,"Ġpse":6387,"emoc":6388,"Ġsomewhere":6389,"Ġfounded":6390,"Ġperiods":6391,"regular":6392,"Ġsoftware":6393,"Ġscenario":6394,"ĠâĻ«":6395,"inder":6396,"Ġeco":6397,"ctic":6398,"Ġstyle":6399,"osing":6400,"Ġactors":6401,"Ġrare":6402,"angible":6403,"Ġbrut":6404,"Ġbusy":6405,"Ġvisited":6406,"Ġdelays":6407,"Ġcomplaints":6408,"Ġobservers":6409,"Ġvariety":6410,"Ġmurder":6411,"Ġapproximately":6412,"fall":6413,"Ġdav":6414,"oted":6415,"astrich":6416,"Ġmarried":6417,"Ġdepression":6418,"Ġfeels":6419,"arko":6420,"Ġanticip":6421,"Ġvolume":6422,"Ġjeopard":6423,"Ġacquis":6424,"Ġrhetor":6425,"Ġrelief":6426,"astricht":6427,"Ġtree":6428,"Ġox":6429,"ician":6430,"Ġheat":6431,"Ġsaudi":6432,"Ġguess":6433,"Ġ31":6434,"Ġdistingu":6435,"Ġviolation":6436,"Ġemerge":6437,"Ġuniversities":6438,"Ġprocure":6439,"Ġstimulus":6440,"ients":6441,"Ġbiod":6442,"versi":6443,"rap":6444,"Ġexcuse":6445,"aken":6446,"cedented":6447,"Ġmaastricht":6448,"Ġsettle":6449,"Ġvictim":6450,"Ġgreenhouse":6451,"Ġheavily":6452,"Ġunanimously":6453,"Ġproliferation":6454,"arkozy":6455,"cs":6456,"iable":6457,"Ġaward":6458,"ationally":6459,"Ġmanaging":6460,"Ġroll":6461,"Ġreflection":6462,"Ġhappiness":6463,"chnya":6464,"Ġambitions":6465,"Ġultimate":6466,"Ġsupervisory":6467,"Ġinnocent":6468,"Ġunprecedented":6469,"ded":6470,"ka":6471,"zen":6472,"Ġsand":6473,"Ġlaugh":6474,"Ġparis":6475,"Ġ29":6476,"comings":6477,"Ġfailing":6478,"Ġabsurd":6479,"Ġprevented":6480,"nobody":6481,"Ġfunctions":6482,"Ġsuggestion":6483,"Ġecological":6484,"Ġarrive":6485,"Ġenhanced":6486,"Ġroute":6487,"culation":6488,"oly":6489,"russi":6490,"Ġsatell":6491,"Ġfab":6492,"Ġhair":6493,"Ġextending":6494,"Ġsolar":6495,"Ġfrag":6496,"Ġshortcomings":6497,"Ġarticles":6498,"Ġindicators":6499,"Ġaccordingly":6500,"Ġsaddam":6501,"Ġhoriz":6502,"Ġaccomplish":6503,"Ġreleased":6504,"Ġtremendous":6505,"versial":6506,"oided":6507,"uct":6508,"uity":6509,"requ":6510,"ications":6511,"Ġstore":6512,"Ġresort":6513,"Ġunderline":6514,"Ġregardless":6515,"Ġavoided":6516,"Ġdiver":6517,"Ġkilling":6518,"Ġtackling":6519,"Ġinequality":6520,"Ġdumping":6521,"wa":6522,"Ġlad":6523,"Ġshif":6524,"Ġpark":6525,"Ġplural":6526,"Ġaccounting":6527,"Ġfinances":6528,"Ġopenly":6529,"Ġfrid":6530,"Ġrevised":6531,"Ġaccessible":6532,"Ġchechnya":6533,"Ġcoordinate":6534,"eva":6535,"Ġpieces":6536,"Ġfootball":6537,"Ġinhab":6538,"Ġtransformation":6539,"nonetheless":6540,"time":6541,"Ġbang":6542,"Ġrecy":6543,"Ġlend":6544,"Ġcommend":6545,"Ġconfident":6546,"Ġdifferently":6547,"Ġfrust":6548,"Ġblair":6549,"Ġdistur":6550,"Ġshortly":6551,"Ġtraditions":6552,"Ġpacif":6553,"Ġaustrian":6554,"Ġhyd":6555,"Ġhoped":6556,"Ġsimplification":6557,"Ġfifteen":6558,"Ġwelcomes":6559,"Ġnigeria":6560,"Ġmary":6561,"Ġallies":6562,"Ġunit":6563,"until":6564,"Ġenlar":6565,"Ġcompassion":6566,"Ġincomp":6567,"Ġconfron":6568,"Ġmerc":6569,"Ġpictures":6570,"Ġmanufacturing":6571,"Ġcompete":6572,"Ġcollaboration":6573,"Ġtorture":6574,"Ġannex":6575,"Ġhong":6576,"Ġhence":6577,"Ġdur":6578,"Ġhabit":6579,"child":6580,"Ġeuropol":6581,"Ġquiet":6582,"Ġhero":6583,"Ġemu":6584,"Ġregulate":6585,"Ġlacking":6586,"Ġapparently":6587,"celona":6588,"Ġecho":6589,"Ġeuros":6590,"Ġrand":6591,"Ġagrees":6592,"Ġlikes":6593,"Ġoutput":6594,"Ġeconomists":6595,"Ġtrave":6596,"Ġbuying":6597,"Ġaudience":6598,"Ġdistributed":6599,"Ġsilence":6600,"Ġmuslims":6601,"Ġyeah":6602,"Ġsupplementary":6603,"room":6604,"stream":6605,"Ġenabling":6606,"Ġchamp":6607,"Ġstring":6608,"Ġcontroversial":6609,"Ġirregular":6610,"Ġ1994":6611,"Ġrecognized":6612,"Ġappeared":6613,"iban":6614,"Ġdetri":6615,"Ġmotions":6616,"Ġveget":6617,"Ġaustral":6618,"Ġoccupation":6619,"Ġdistinction":6620,"Ġprocurement":6621,"bet":6622,"rous":6623,"Ġfasc":6624,"Ġunequ":6625,"adays":6626,"Ġnovel":6627,"Ġpled":6628,"Ġrejection":6629,"Ġdeeper":6630,"Ġmacedonia":6631,"cow":6632,"Ġsn":6633,"ensible":6634,"Ġkong":6635,"Ġpermitted":6636,"Ġmole":6637,"Ġhopefully":6638,"Ġsignals":6639,"Ġorganized":6640,"Ġpenalties":6641,"Ġtrends":6642,"Ġairports":6643,"Ġsurplus":6644,"meanwhile":6645,"Ġbow":6646,"Ġfought":6647,"omal":6648,"Ġvoc":6649,"Ġcovers":6650,"Ġpoet":6651,"Ġfeature":6652,"Ġroots":6653,"Ġjoining":6654,"Ġcolor":6655,"Ġspeaks":6656,"Ġ2012":6657,"Ġfocusing":6658,"Ġbiological":6659,"Ġdenied":6660,"Ġperspectives":6661,"Ġdoctors":6662,"Ġjournalists":6663,"Ġroughly":6664,"Ġbiodiversity":6665,"makers":6666,"nl":6667,"Ġwing":6668,"Ġpreca":6669,"cessions":6670,"Ġpersec":6671,"Ġtaliban":6672,"Ġprocessing":6673,"Ġorganic":6674,"Ġartific":6675,"Ġswitch":6676,"Ġbarcelona":6677,"Ġdrivers":6678,"Ġgrave":6679,"Ġhunger":6680,"Ġpull":6681,"Ġmental":6682,"iate":6683,"Ã¤":6684,"Ġpage":6685,"ifies":6686,"Ġresc":6687,"Ġmanif":6688,"Ġconscious":6689,"Ġaccused":6690,"Ġstarts":6691,"Ġachievements":6692,"Ġoppon":6693,"Ġapplicant":6694,"Ġcomplexity":6695,"Ġdescribe":6696,"Ġcoup":6697,"Ġtonnes":6698,"Ġtelephone":6699,"Ġmathem":6700,"Ġinquiry":6701,"following":6702,"point":6703,"rum":6704,"otic":6705,"Ġstood":6706,"Ġalger":6707,"soever":6708,"Ġwhatsoever":6709,"Ġspot":6710,"Ġdesirable":6711,"Ġmiles":6712,"Ġjointly":6713,"haust":6714,"Ġallocation":6715,"Ġcelebr":6716,"Ġabstained":6717,"tical":6718,"Ġhes":6719,"icated":6720,"aces":6721,"Ġmanip":6722,"Ġexposed":6723,"Ġsports":6724,"Ġinformal":6725,"Ġcentres":6726,"Ġhanded":6727,"Ġharder":6728,"Ġcollection":6729,"Ġexamination":6730,"Ġefficiently":6731,"Ġwarmly":6732,"Ġdiplomacy":6733,"Ġattractive":6734,"Ġdrafting":6735,"Ġmorocco":6736,"mal":6737,"atisf":6738,"Ġbeat":6739,"Ġconven":6740,"illance":6741,"lihood":6742,"Ġliability":6743,"Ġjur":6744,"Ġrecover":6745,"Ġanswered":6746,"Ġruns":6747,"Ġholds":6748,"Ġskin":6749,"Ġpreparations":6750,"Ġdestroy":6751,"Ġobserved":6752,"Ġautomatically":6753,"Ġtunisia":6754,"bas":6755,"hence":6756,"much":6757,"Ġfant":6758,"Ġnotably":6759,"anged":6760,"Ġsites":6761,"Ġdesper":6762,"Ġbanned":6763,"Ġconventions":6764,"Ġcreativity":6765,"Ġcoherence":6766,"Ġapplicable":6767,"Ġillness":6768,"Ġintegrity":6769,"Ġundertake":6770,"Ġcrops":6771,"Ġpipe":6772,"aur":6773,"Ġtribute":6774,"Ġstead":6775,"Ġnoticed":6776,"Ġtransit":6777,"Ġwhereby":6778,"Ġdefault":6779,"Ġcompetences":6780,"Ġinvesting":6781,"Ġiron":6782,"Ġdiverse":6783,"Ġcondemned":6784,"maybe":6785,"Ġfortun":6786,"Ġslovakia":6787,"Ġsuspic":6788,"Ġaccurate":6789,"Ġelderly":6790,"rations":6791,"sometimes":6792,"Ġtic":6793,"inated":6794,"Ġsme":6795,"icy":6796,"Ġnamed":6797,"Ġimplies":6798,"Ġconsent":6799,"Ġinvite":6800,"Ġplayer":6801,"Ġengland":6802,"Ġexciting":6803,"Ġdeny":6804,"Ġteaching":6805,"Ġsteel":6806,"Ġundertakings":6807,"Ġconservation":6808,"Ġyugoslavia":6809,"Ġsuspended":6810,"Ġmanifest":6811,"bors":6812,"Ġah":6813,"Ġfool":6814,"alling":6815,"Ġmarine":6816,"Ġinvent":6817,"Ġoffic":6818,"Ġgenoc":6819,"Ġtape":6820,"Ġfavourable":6821,"Ġbrok":6822,"Ġcircle":6823,"iox":6824,"Ġ150":6825,"Ġwording":6826,"Ġmigrants":6827,"Ġforests":6828,"Ġdrafted":6829,"Ġsurveillance":6830,"Ġacknowledged":6831,"Ġgenetically":6832,"hear":6833,"Ġsarkozy":6834,"Ġcens":6835,"Ġepid":6836,"utical":6837,"Ġabuses":6838,"Ġadverse":6839,"agers":6840,"Ġeveryday":6841,"Ġideological":6842,"Ġinitially":6843,"Ġaccountability":6844,"Ġaircraft":6845,"Ġreceiving":6846,"Ġprivat":6847,"Ġrailway":6848,"Ġhurt":6849,"Ġwithdrawal":6850,"Ġinevitably":6851,"Ġtitle":6852,"Ġalbania":6853,"appropri":6854,"inal":6855,"isc":6856,"Ġcot":6857,"Ġing":6858,"Ġdos":6859,"iled":6860,"cience":6861,"Ġdispar":6862,"Ġmarks":6863,"aceutical":6864,"Ġmoves":6865,"Ġends":6866,"Ġtells":6867,"Ġorient":6868,"Ġundertaking":6869,"Ġutmost":6870,"Ġolaf":6871,"Ġmoldova":6872,"Ġhazard":6873,"Ġrhetoric":6874,"nish":6875,"via":6876,"Ġtiny":6877,"Ġlag":6878,"Ġprote":6879,"Ġconve":6880,"Ġalle":6881,"Ġjump":6882,"lla":6883,"Ġimported":6884,"Ġsahar":6885,"Ġfundamentally":6886,"within":6887,"Ġsooner":6888,"Ġtesting":6889,"Ġcampaigns":6890,"Ġcommunicate":6891,"Ġdrinking":6892,"Ġincorporated":6893,"Ġobservation":6894,"Ġtangible":6895,"itzer":6896,"oration":6897,"Ġbeef":6898,"ray":6899,"Ġvent":6900,"above":6901,"enses":6902,"Ġresponses":6903,"rators":6904,"mann":6905,"Ġprofess":6906,"Ġcongratulations":6907,"Ġtensions":6908,"Ġdisputes":6909,"book":6910,"Ġreiterate":6911,"Ġimperative":6912,"Ġsympathy":6913,"Ġdefeat":6914,"Ġindonesia":6915,"Ġpharmaceutical":6916,"cking":6917,"war":6918,"ita":6919,"oul":6920,"Ġange":6921,"Ġdivers":6922,"Ġgrat":6923,"Ġinstability":6924,"Ġfarms":6925,"Ġacceptance":6926,"sequent":6927,"Ġcontemp":6928,"Ġfleet":6929,"Ġterritories":6930,"Ġsubstantially":6931,"Ġsurprising":6932,"Ġtelecommun":6933,"Ġhusband":6934,"Ġenemy":6935,"gans":6936,"Ġbare":6937,"Ġcomfort":6938,"Ġprescri":6939,"connect":6940,"Ġoutset":6941,"Ġdefending":6942,"Ġentering":6943,"Ġpollut":6944,"Ġunanimous":6945,"Ġbillions":6946,"raints":6947,"Ġmonopoly":6948,"Ġfriday":6949,"Ġinhabit":6950,"Ġrescue":6951,"Ġwave":6952,"Ġbail":6953,"Ġdna":6954,"Ġlending":6955,"Ġintoler":6956,"aph":6957,"Ġposs":6958,"Ġoffices":6959,"Ġgrass":6960,"Ġlibert":6961,"ecd":6962,"Ġcriminals":6963,"Ġconsulted":6964,"Ġgranting":6965,"Ġmissed":6966,"Ġengagement":6967,"Ġtolerance":6968,"Ġdinner":6969,"enopho":6970,"Ġdiox":6971,"Ġnord":6972,"Ġrot":6973,"Ġ194":6974,"Ġinterim":6975,"Ġsincerely":6976,"Ġassociations":6977,"Ġpursuing":6978,"Ġclearer":6979,"Ġwalking":6980,"Ġitems":6981,"Ġstruck":6982,"Ġcategories":6983,"Ġdiscipline":6984,"Ġpilot":6985,"itzerland":6986,"long":6987,"Ġbread":6988,"Ġreverse":6989,"Ġexhaust":6990,"Ġarbit":6991,"Ġmonit":6992,"Ġvisual":6993,"Ġdangers":6994,"Ġenterprise":6995,"Ġguaranteeing":6996,"Ġrelationships":6997,"Ġrecorded":6998,"Ġ1970":6999,"Ġappointment":7000,"naturally":7001,"Ġwisdom":7002,"Ġtall":7003,"enna":7004,"Ġpig":7005,"Ġmich":7006,"Ġprompt":7007,"ched":7008,"respect":7009,"Ġimprison":7010,"Ġcook":7011,"Ġanyway":7012,"Ġbrand":7013,"Ġescape":7014,"bert":7015,"Ġobserve":7016,"Ġisolation":7017,"Ġestimates":7018,"cles":7019,"oh":7020,"rather":7021,"Ġts":7022,"Ġunilateral":7023,"osy":7024,"istical":7025,"licate":7026,"Ġelite":7027,"Ġ400":7028,"Ġcounterfe":7029,"Ġpainful":7030,"Ġappreciation":7031,"Ġhouses":7032,"Ġsplit":7033,"Ġownership":7034,"Ġmacroeconomic":7035,"Ġenlarged":7036,"oning":7037,"Ġnic":7038,"Ġreward":7039,"Ġsuic":7040,"among":7041,"abe":7042,"Ġacted":7043,"Ġmonday":7044,"Ġbacking":7045,"Ġcenturies":7046,"Ġtextile":7047,"Ġerrors":7048,"Ġcurrencies":7049,"Ġqualifications":7050,"Ġgenocide":7051,"gies":7052,"gue":7053,"Ġtast":7054,"Ġgather":7055,"ivered":7056,"Ġkh":7057,"Ġfeatures":7058,"Ġphr":7059,"Ġessence":7060,"Ġargued":7061,"Ġdelivered":7062,"board":7063,"Ġderog":7064,"Ġattached":7065,"Ġscrutiny":7066,"Ġfoss":7067,"Ġstu":7068,"develop":7069,"Ġinternationally":7070,"Ġsubsequent":7071,"Ġwarrant":7072,"Ġ45":7073,"Ġcongratulating":7074,"Ġgains":7075,"Ġinspired":7076,"Ġearthquake":7077,"Ġtelecommunications":7078,"su":7079,"rem":7080,"isite":7081,"Ġhu":7082,"Ġhide":7083,"stuff":7084,"whe":7085,"Ġgovernmental":7086,"Ġmoderate":7087,"Ġadvised":7088,"Ġaccepting":7089,"Ġairlines":7090,"ijing":7091,"Ġxenopho":7092,"Ġimbalances":7093,"Ġoverwhelming":7094,"aid":7095,"Ġtail":7096,"Ġmuse":7097,"Ġfan":7098,"Ġgall":7099,"Ġvary":7100,"Ġabst":7101,"Ġreporting":7102,"Ġresearchers":7103,"Ġpromoted":7104,"Ġmessages":7105,"Ġredund":7106,"Ġworthy":7107,"Ġunderest":7108,"Ġcrazy":7109,"Ġwebsite":7110,"Ġnur":7111,"Ġstations":7112,"tery":7113,"Ġseats":7114,"Ġhell":7115,"Ġcontam":7116,"Ġsomehow":7117,"Ġmarri":7118,"Ġjustification":7119,"mmet":7120,"Ġassured":7121,"Ġmeets":7122,"Ġinspir":7123,"Ġstars":7124,"Ġcivilians":7125,"Ġcrash":7126,"Ġdonors":7127,"Ġunanimity":7128,"port":7129,"erb":7130,"asp":7131,"kel":7132,"Ġsees":7133,"Ġdoha":7134,"Ġgeneva":7135,"neither":7136,"Ġforever":7137,"Ġpostal":7138,"Ġkorean":7139,"Ġceleb":7140,"Ġowing":7141,"Ġjuris":7142,"bly":7143,"matically":7144,"Ġbag":7145,"essions":7146,"Ġfur":7147,"Ġhall":7148,"Ġdup":7149,"ounce":7150,"Ġimperial":7151,"aked":7152,"Ġsaved":7153,"Ġevil":7154,"ounds":7155,"ube":7156,"Ġserved":7157,"Ġreloc":7158,"Ġprotectionism":7159,"Ġ1992":7160,"Ġmisunder":7161,"Ġneighbors":7162,"yesterday":7163,"Ġquota":7164,"Ġdeclarations":7165,"Ġconsolidation":7166,"Ġmarginal":7167,"Ġscotland":7168,"Ġlithuania":7169,"russia":7170,"Ġdossi":7171,"ios":7172,"mer":7173,"nis":7174,"tra":7175,"Ġtam":7176,"ensions":7177,"Ġselling":7178,"rown":7179,"Ġnationals":7180,"Ġcontributing":7181,"Ġbenefici":7182,"Ġsustained":7183,"Ġbankrupt":7184,"Ġconventional":7185,"Ġalongside":7186,"Ġobstacle":7187,"Ġchannel":7188,"Ġautonomy":7189,"Ġplatform":7190,"Ġargentina":7191,"Ġrecyc":7192,"Ġmuseum":7193,"Ġcab":7194,"Ġholid":7195,"ounded":7196,"Ġassert":7197,"Ġpersonnel":7198,"Ġdivide":7199,"Ġrenewed":7200,"Ġweapon":7201,"Ġauthoritarian":7202,"Ġclaimed":7203,"rogen":7204,"Ġabandoned":7205,"Ġcamera":7206,"Ġsv":7207,"Ġsupre":7208,"Ġsequ":7209,"osure":7210,"istry":7211,"Ġadmitted":7212,"Ġknowing":7213,"iph":7214,"Ġsubs":7215,"Ġfacility":7216,"Ġbroadcast":7217,"Ġimposing":7218,"Ġchristians":7219,"Ġnormally":7220,"Ġenjoyed":7221,"Ġconservatives":7222,"Ġokay":7223,"Ġisolated":7224,"Ġexplicitly":7225,"break":7226,"uzz":7227,"Ġvit":7228,"Ġpropag":7229,"Ġconfusion":7230,"Ġwarn":7231,"Ġimmense":7232,"Ġpostpon":7233,"Ġexceptions":7234,"Ġsenior":7235,"Ġstrictly":7236,"Ġarrested":7237,"Ġmoscow":7238,"Ġnewspaper":7239,"limin":7240,"ni":7241,"Ġties":7242,"Ġsorts":7243,"Ġflying":7244,"Ġdaughter":7245,"Ġque":7246,"Ġserves":7247,"Ġsecular":7248,"Ġrepression":7249,"Ġirrespon":7250,"Ġswitzerland":7251,"Ġassessments":7252,"Ġclosing":7253,"Ġmeantime":7254,"Ġcontacts":7255,"Ġexclusively":7256,"Ġhouseholds":7257,"Ġalleged":7258,"mans":7259,"Ġvers":7260,"Ġsnow":7261,"Ġcere":7262,"Ġfires":7263,"Ġinput":7264,"Ġancient":7265,"Ġlunch":7266,"Ġstal":7267,"Ġshot":7268,"Ġattain":7269,"Ġprerequ":7270,"Ġdiffer":7271,"Ġclin":7272,"Ġmoon":7273,"Ġresolving":7274,"Ġ37":7275,"Ġfron":7276,"Ġstudying":7277,"Ġcongo":7278,"nothing":7279,"Ġ75":7280,"Ġigc":7281,"Ġchristmas":7282,"Ġcatal":7283,"Ġtypical":7284,"Ġhypoc":7285,"Ġpacific":7286,"children":7287,"Ġliberties":7288,"Ġfossil":7289,"pass":7290,"olf":7291,"uled":7292,"opol":7293,"Ġselection":7294,"Ġvene":7295,"Ġrush":7296,"ective":7297,"Ġreput":7298,"Ġdisast":7299,"Ġtimely":7300,"Ġfeas":7301,"Ġsubsequently":7302,"Ġadvis":7303,"Ġedge":7304,"Ġpopul":7305,"Ġlocation":7306,"Ġceiling":7307,"Ġparticipating":7308,"Ġfisch":7309,"Ġdependence":7310,"Ġsimplify":7311,"Ġincomes":7312,"whether":7313,"hu":7314,"off":7315,"Ġsale":7316,"erity":7317,"aria":7318,"icking":7319,"Ġtechni":7320,"Ġreductions":7321,"Ġlabel":7322,"Ġlowest":7323,"Ġbreast":7324,"Ġliberals":7325,"Ġpartnerships":7326,"Ġtrees":7327,"Ġobservations":7328,"Ġsatellite":7329,"stuffs":7330,"fur":7331,"Ġcul":7332,"Ġcos":7333,"Ġstip":7334,"Ġstages":7335,"Ġhaiti":7336,"Ġsuit":7337,"unction":7338,"Ġintense":7339,"Ġadequ":7340,"Ġtrick":7341,"Ġfinnish":7342,"Ġbold":7343,"Ġreluct":7344,"Ġconstraints":7345,"Ġbacked":7346,"Ġbegins":7347,"Ġcompromises":7348,"Ġgenerated":7349,"Ġwinter":7350,"Ġexerc":7351,"Ġengineering":7352,"Ġstorage":7353,"pone":7354,"rical":7355,"ugg":7356,"Ġbes":7357,"Ġmaster":7358,"thanks":7359,"Ġchick":7360,"Ġcompatible":7361,"Ġtea":7362,"Ġunderp":7363,"Ġwhenever":7364,"Ġaccum":7365,"Ġsystematic":7366,"Ġmeasured":7367,"petus":7368,"Ġcamb":7369,"Ġparticipants":7370,"Ġvirus":7371,"Ġukrain":7372,"Ġclarification":7373,"Ġbirds":7374,"Ġstimulate":7375,"Ġstakeholders":7376,"Ġcup":7377,"Ġoecd":7378,"Ġnaz":7379,"Ġbeijing":7380,"Ġunjust":7381,"teg":7382,"Ġroc":7383,"Ġdefining":7384,"Ġowned":7385,"Ġorganise":7386,"Ġimpetus":7387,"Ġpostpone":7388,"Ġautumn":7389,"Ġorganisms":7390,"Ġenshr":7391,"Ġcollaps":7392,"Ġwalked":7393,"itudes":7394,"Ġgeorge":7395,"Ġaustralia":7396,"Ġms":7397,"Ġtoxic":7398,"lete":7399,"rapporteur":7400,"Ġunh":7401,"Ġplain":7402,"Ġprejud":7403,"Ġprelimin":7404,"Ġminor":7405,"Ġviewed":7406,"beit":7407,"Ġ1993":7408,"roductive":7409,"Ġvoices":7410,"Ġhighlights":7411,"Ġconcentration":7412,"Ġadvocate":7413,"Ġutter":7414,"Ġdepartment":7415,"Ġexpertise":7416,"appropriate":7417,"iro":7418,"ule":7419,"Ġald":7420,"eda":7421,"Ġnotes":7422,"imag":7423,"Ġranging":7424,"Ġwherever":7425,"Ġsolving":7426,"Ġsafer":7427,"Ġplane":7428,"Ġletters":7429,"berg":7430,"Ġinterventions":7431,"Ġbeauty":7432,"Ġsilent":7433,"Ġcharacteristics":7434,"Ġmachines":7435,"Ġspectrum":7436,"Ġphilosophy":7437,"Ġjurisdict":7438,"Ġtact":7439,"Ġincon":7440,"Ġdoors":7441,"ussions":7442,"Ġjer":7443,"Ġdisrupt":7444,"Ġtrained":7445,"Ġdebts":7446,"Ġguide":7447,"Ġcarri":7448,"Ġinvested":7449,"Ġobjections":7450,"Ġabsent":7451,"Ġexchanges":7452,"Ġdamaging":7453,"Ġconsistently":7454,"Ġcomparable":7455,"Ġprecaution":7456,"Ġmathemat":7457,"Ġinhabitants":7458,"Ġvenez":7459,"Ġdivid":7460,"Ġalbeit":7461,"Ġuphold":7462,"Ġcope":7463,"ressing":7464,"Ġloved":7465,"Ġcommunism":7466,"Ġambig":7467,"Ġarabia":7468,"Ġhorse":7469,"Ġrefugee":7470,"nesday":7471,"Ġcoastal":7472,"Ġdisastrous":7473,"Ġpreliminary":7474,"rec":7475,"Ġpose":7476,"Ġna":7477,"Ġreaff":7478,"ilty":7479,"ram":7480,"Ġplenty":7481,"Ġdisarm":7482,"Ġrock":7483,"Ġinstruct":7484,"Ġtransf":7485,"Ġremote":7486,"Ġpublicly":7487,"Ġsocio":7488,"Ġpays":7489,"Ġcareer":7490,"Ġexpressing":7491,"Ġdevoted":7492,"Ġratify":7493,"Ġdonor":7494,"Ġosce":7495,"Ġprosecut":7496,"Ġdismiss":7497,"Ġwednesday":7498,"Ġproviders":7499,"Ġretirement":7500,"Ġopponents":7501,"bol":7502,"women":7503,"Ġbath":7504,"three":7505,"Ġreun":7506,"state":7507,"Ġgard":7508,"Ġshop":7509,"Ġexac":7510,"ude":7511,"Ġtrillion":7512,"Ġoutbreak":7513,"Ġyours":7514,"Ġaccomm":7515,"Ġending":7516,"Ġformula":7517,"Ġfeelings":7518,"Ġgenerous":7519,"Ġbroadly":7520,"Ġinterview":7521,"Ġridic":7522,"Ġprotests":7523,"Ġpatterns":7524,"Ġstupid":7525,"Ġexacerb":7526,"Ġaccommod":7527,"Ġtens":7528,"Ġpity":7529,"Ġhidden":7530,"Ġutil":7531,"ids":7532,"Ġdetain":7533,"Ġshel":7534,"Ġseason":7535,"Ġtrace":7536,"Ġhandle":7537,"Ġequity":7538,"Ġpractically":7539,"Ġrepresenting":7540,"Ġflat":7541,"Ġrestrictive":7542,"Ġ1989":7543,"Ġpraise":7544,"Ġoptimistic":7545,"Ġvigil":7546,"Ġchannels":7547,"Ġarchitecture":7548,"Ġashton":7549,"Ġolympic":7550,"mis":7551,"tered":7552,"Ã¨":7553,"Ġpestic":7554,"esh":7555,"aling":7556,"Ġbearing":7557,"Ġheight":7558,"aret":7559,"Ġsecur":7560,"ileo":7561,"Ġexperiments":7562,"Ġpassing":7563,"laim":7564,"Ġsentences":7565,"turn":7566,"Ġangry":7567,"Ġflights":7568,"Ġmonopol":7569,"Ġpersuade":7570,"Ġrevealed":7571,"Ġendorsed":7572,"Ġliberty":7573,"person":7574,"ss":7575,"tes":7576,"inet":7577,"erted":7578,"Ġpromin":7579,"Ġenables":7580,"Ġenrich":7581,"Ġprecond":7582,"Ġposed":7583,"Ġlegacy":7584,"Ġpressing":7585,"Ġintegrate":7586,"Ġausterity":7587,"Ġmandatory":7588,"Ġabolition":7589,"Ġcultiv":7590,"Ġingred":7591,"da":7592,"Ġpapers":7593,"Ġmira":7594,"Ġdying":7595,"ili":7596,"Ġwhol":7597,"ulz":7598,"ador":7599,"llor":7600,"ogle":7601,"Ġguilty":7602,"Ġconviction":7603,"Ġpushed":7604,"Ġpunishment":7605,"Ġfragile":7606,"erving":7607,"Ġmir":7608,"Ġfill":7609,"Ġdat":7610,"thy":7611,"Ġunus":7612,"ultane":7613,"Ġtroub":7614,"Ġadding":7615,"Ġmakers":7616,"Ġschulz":7617,"Ġcostly":7618,"Ġsecondly":7619,"Ġwholehear":7620,"Ġprogressive":7621,"Ġoccupied":7622,"turkey":7623,"Ġthoroughly":7624,"regarding":7625,"Ġliquidity":7626,"Ġcommodity":7627,"Ġcolombia":7628,"bally":7629,"vity":7630,"Ġmale":7631,"Ġbears":7632,"Ġlists":7633,"Ġpresents":7634,"Ġindication":7635,"Ġcontinuation":7636,"Ġdramatically":7637,"Ġaffair":7638,"Ġescal":7639,"Ġthreatening":7640,"Ġsubstit":7641,"Ġdelayed":7642,"Ġadapted":7643,"lusive":7644,"cas":7645,"human":7646,"Ġtear":7647,"Ġase":7648,"Ġske":7649,"Ġelig":7650,"Ġrevers":7651,"Ġappointed":7652,"Ġrarely":7653,"Ġoverlook":7654,"Ġrealities":7655,"Ġrespective":7656,"Ġgrasp":7657,"Ġfoods":7658,"Ġkeeps":7659,"Ġthoughts":7660,"Ġoriginally":7661,"ography":7662,"Ġharmonised":7663,"Ġstrikes":7664,"Ġcommerce":7665,"Ġinvestigate":7666,"Ġcovering":7667,"Ġdominant":7668,"Ġconcepts":7669,"Ġfinger":7670,"Ġtemperature":7671,"bi":7672,"vent":7673,"ani":7674,"Ġband":7675,"Ġbreed":7676,"Ġbond":7677,"rage":7678,"Ġanymore":7679,"Ġtranslation":7680,"Ġfragment":7681,"Ġprincipal":7682,"Ġadvances":7683,"Ġunderstandable":7684,"mptions":7685,"Ġcombine":7686,"Ġcheaper":7687,"Ġcypri":7688,"Ġjew":7689,"Ġtreas":7690,"Ġrevenues":7691,"Ġrebuild":7692,"Ġdismant":7693,"fourthly":7694,"america":7695,"amendment":7696,"Ġartificial":7697,"dens":7698,"hist":7699,"making":7700,"rating":7701,"Ġfilled":7702,"Ġdrast":7703,"ara":7704,"Ġegg":7705,"Ġug":7706,"Ġplus":7707,"Ġcompli":7708,"Ġcoinc":7709,"Ġherz":7710,"Ġbran":7711,"Ġfinds":7712,"Ġdepos":7713,"Ġruled":7714,"Ġrevol":7715,"Ġstudied":7716,"Ġpaul":7717,"Ġisraelis":7718,"Ġresponded":7719,"Ġreminded":7720,"anyone":7721,"Ġrobust":7722,"Ġcomponents":7723,"Ġcolonial":7724,"Ġaspirations":7725,"Ġsmooth":7726,"Ġirregularities":7727,"cur":7728,"mat":7729,"medi":7730,"Ġmun":7731,"stan":7732,"Ġgest":7733,"Ġgaps":7734,"Ġworker":7735,"iously":7736,"Ġsmoke":7737,"Ġfindings":7738,"Ġhandling":7739,"Ġprocedural":7740,"Ġ1991":7741,"Ġvolat":7742,"Ġconsistency":7743,"Ġsunday":7744,"Ġ1960":7745,"Ġevaluate":7746,"Ã³n":7747,"Ġconversation":7748,"osystem":7749,"Ġsuicide":7750,"sm":7751,"Ġcath":7752,"Ġeib":7753,"cture":7754,"Ġlingu":7755,"Ġdear":7756,"Ġatom":7757,"Ġorgans":7758,"Ġpolicymakers":7759,"Ġboys":7760,"Ġassurance":7761,"Ġdefinitive":7762,"Ġconsultations":7763,"Ġgradual":7764,"Ġpoorer":7765,"Ġdisappeared":7766,"Ġadults":7767,"Ġmonitored":7768,"Ġdatab":7769,"isen":7770,"Ġlam":7771,"sein":7772,"Ġenabled":7773,"Ġnobel":7774,"Ġnationalism":7775,"Ġherself":7776,"Ġtrib":7777,"Ġborne":7778,"Ġpreventive":7779,"Ġecosystem":7780,"Ġinvestigations":7781,"Ġmeaningful":7782,"ski":7783,"Ġgalileo":7784,"Ġfavorite":7785,"Ġparadox":7786,"Ġsupreme":7787,"Ġalde":7788,"bul":7789,"icks":7790,"Ġnomin":7791,"oting":7792,"several":7793,"ifor":7794,"Ġrub":7795,"ami":7796,"uela":7797,"rence":7798,"lessly":7799,"Ġdemocratically":7800,"Ġsocially":7801,"Ġmoments":7802,"Ġstatistical":7803,"Ġdevice":7804,"Ġdimensions":7805,"Ġcalm":7806,"Ġregistration":7807,"Ġemotional":7808,"Ġperceived":7809,"vic":7810,"xual":7811,"zed":7812,"ancies":7813,"Ġinappropriate":7814,"rol":7815,"ustain":7816,"Ġgoogle":7817,"Ġspecul":7818,"Ġboat":7819,"Ġformed":7820,"Ġcriter":7821,"Ġhomework":7822,"Ġseekers":7823,"Ġhoping":7824,"Ġsimplified":7825,"Ġteams":7826,"Ġdreams":7827,"Ġsimultane":7828,"Ġdemonstration":7829,"Ġcosm":7830,"ales":7831,"Ġstric":7832,"Ġconcessions":7833,"Ġchances":7834,"ocal":7835,"Ġarctic":7836,"Ġprud":7837,"Ġmail":7838,"Ġformally":7839,"Ġveto":7840,"Ġbiof":7841,"Ġhussein":7842,"Ġscarce":7843,"Ġhazardous":7844,"Ġcriterion":7845,"bian":7846,"col":7847,"gs":7848,"enko":7849,"Ġcart":7850,"Ġunclear":7851,"Ġrice":7852,"igation":7853,"Ġappla":7854,"Ġconsists":7855,"Ġnowhere":7856,"Ġinvented":7857,"Ġhole":7858,"Ġscore":7859,"Ġexisted":7860,"Ġzones":7861,"Ġsixth":7862,"Ġchancellor":7863,"certainly":7864,"Ġexplanations":7865,"Ġrobot":7866,"Ġcards":7867,"Ġcontradiction":7868,"Ġdecentral":7869,"Ġmortg":7870,"Ġlawyer":7871,"Ġprecautionary":7872,"isra":7873,"Ġpoc":7874,"Ġbird":7875,"Ġdish":7876,"Ġreme":7877,"Ġimpressive":7878,"Ġresign":7879,"Ġmothers":7880,"Ġmomentum":7881,"ugen":7882,"Ġburdens":7883,"Ġconvincing":7884,"Ġsymbolic":7885,"Ġincorporate":7886,"Ġenthusiasm":7887,"Ġneutral":7888,"Ġadequately":7889,"ares":7890,"had":7891,"ki":7892,"night":7893,"Ġtac":7894,"Ġinsec":7895,"idential":7896,"Ġchile":7897,"Ġdisabilities":7898,"Ġoutlined":7899,"Ġposes":7900,"Ġperiph":7901,"Ġgenes":7902,"Ġ195":7903,"icially":7904,"Ġcapabilities":7905,"Ġideology":7906,"Ġbarack":7907,"Ġprogramming":7908,"Ġverhe":7909,"Ġparagraphs":7910,"Ġexploit":7911,"ika":7912,"Ġcustomers":7913,"Ġpsychological":7914,"Ġphrase":7915,"Ġxenophobia":7916,"lock":7917,"ship":7918,"Ġpit":7919,"Ġrum":7920,"Ġkurd":7921,"ourse":7922,"coni":7923,"Ġcomposition":7924,"whatever":7925,"Ġarising":7926,"Ġscene":7927,"Ġinteract":7928,"Ġrespecting":7929,"Ġwished":7930,"Ġseconds":7931,"Ġbrothers":7932,"Ġregulators":7933,"Ġdriver":7934,"something":7935,"Ġinnovations":7936,"Ġbreaking":7937,"Ġdimin":7938,"Ġimagination":7939,"Ġtendency":7940,"Ġsurvey":7941,"Ġmultiple":7942,"Ġtransfers":7943,"Ġverheugen":7944,"bby":7945,"ell":7946,"fast":7947,"uously":7948,"stone":7949,"riend":7950,"Ġcompare":7951,"Ġarmen":7952,"Ġinterrupt":7953,"Ġreinforced":7954,"Ġelectorate":7955,"Ġmixed":7956,"Ġpursuant":7957,"Ġembrace":7958,"Ġrandom":7959,"Ġreputation":7960,"Ġapplaud":7961,"za":7962,"Ġ`":7963,"Ġtor":7964,"Ġtheme":7965,"Ġsla":7966,"organ":7967,"Ġalleg":7968,"irt":7969,"Ġring":7970,"Ġproducer":7971,"rats":7972,"Ġmainstream":7973,"Ġdepl":7974,"Ġpromising":7975,"Ġsheep":7976,"Ġfailures":7977,"Ġrecognises":7978,"Ġdestabil":7979,"Ġrecommended":7980,"everything":7981,"Ġmalta":7982,"Ġcooperative":7983,"Ġinherent":7984,"Ġhotel":7985,"Ġbelongs":7986,"Ġundermined":7987,"Ġprofessor":7988,"Ġbarely":7989,"Ġpossess":7990,"Ġdioxide":7991,"Ġpropaganda":7992,"iov":7993,"pens":7994,"ĠÃ":7995,"Ġrede":7996,"mple":7997,"Ġrepair":7998,"Ġmyth":7999,"Ġcouncils":8000,"Ġrecital":8001,"Ġinvitation":8002,"iann":8003,"Ġsystematically":8004,"Ġpride":8005,"Ġbrill":8006,"tenance":8007,"Ġcaut":8008,"ovina":8009,"Ġrestaur":8010,"Ġrussians":8011,"Ġliberalization":8012,"Ġtopics":8013,"likewise":8014,"Ġresponding":8015,"Ġpaint":8016,"Ġfulfilled":8017,"Ġexpanding":8018,"Ġexemp":8019,"kyo":8020,"Ġdavid":8021,"Ġhesit":8022,"Ġrecycling":8023,"Ġprerequisite":8024,"Ġreaffirm":8025,"good":8026,"Ġtiss":8027,"Ġtokyo":8028,"Ġhate":8029,"Ġdress":8030,"Ġdrought":8031,"Ġdeem":8032,"unte":8033,"Ġresidence":8034,"apart":8035,"emen":8036,"oked":8037,"Ġpolitician":8038,"Ġbases":8039,"Ġdesired":8040,"Ġassumed":8041,"Ġmaintenance":8042,"Ġadvent":8043,"Ġimmunity":8044,"Ġthreaten":8045,"Ġveter":8046,"everybody":8047,"Ġfederation":8048,"Ġspreading":8049,"Ġpillars":8050,"holm":8051,"Ġprecedent":8052,"Ġmcc":8053,"Ġdublin":8054,"hi":8055,"inter":8056,"Ġsomal":8057,"ener":8058,"Ġbact":8059,"Ġeg":8060,"oty":8061,"Ġconscience":8062,"Ġnewly":8063,"Ġgoverned":8064,"Ġaccus":8065,"Ġsigning":8066,"Ġcapita":8067,"Ġfright":8068,"Ġ2015":8069,"Ġjudges":8070,"Ġcamps":8071,"life":8072,"Ġbreakthrough":8073,"Ġmalaria":8074,"Ġrailways":8075,"Ġcruel":8076,"Ġseverely":8077,"Ġinequalities":8078,"Ġalike":8079,"Ġalarming":8080,"Ġdropped":8081,"Ġfoster":8082,"Ġbrutal":8083,"Ġirresponsible":8084,"Ġjurisdiction":8085,"sad":8086,"vi":8087,"Ġcake":8088,"ionary":8089,"roph":8090,"Ġwear":8091,"seen":8092,"Ġsums":8093,"opia":8094,"ander":8095,"unk":8096,"Ġadh":8097,"Ġprede":8098,"Ġassum":8099,"ologists":8100,"Ġdemanded":8101,"Ġbiology":8102,"Ġageing":8103,"Ġdegrees":8104,"Ġseparation":8105,"Ġauthorisation":8106,"Ġdominated":8107,"Ġboundaries":8108,"Ġaggressive":8109,"Ġscheduled":8110,"Ġindispens":8111,"Ġjewish":8112,"Ġax":8113,"Ġcau":8114,"Ġowe":8115,"Ġupper":8116,"olic":8117,"Ġunits":8118,"Ġrating":8119,"Ġours":8120,"Ġpregn":8121,"Ġnowadays":8122,"Ġspeculation":8123,"Ġperception":8124,"Ġproduces":8125,"Ġinitiated":8126,"Ġmisle":8127,"ugabe":8128,"Ġunex":8129,"Ġtension":8130,"Ġvolunte":8131,"Ġexamining":8132,"rophe":8133,"Ġtackled":8134,"Ġchaos":8135,"Ġfreight":8136,"Ġpushing":8137,"Ġemergence":8138,"Ġshoes":8139,"Ġinjured":8140,"pa":8141,"rass":8142,"wood":8143,"Ġath":8144,"Ġpt":8145,"Ġstagn":8146,"Ġstuck":8147,"irty":8148,"Ġseas":8149,"Ġvague":8150,"Ġsoc":8151,"Ġresumed":8152,"Ġdisse":8153,"Ġrose":8154,"Ġsympt":8155,"Ġrefusal":8156,"Ġattitudes":8157,"Ġdesert":8158,"Ġglobally":8159,"Ġminded":8160,"Ġencourages":8161,"Ġdamaged":8162,"Ġdiam":8163,"Ġtouched":8164,"Ġgalax":8165,"Ġfrankly":8166,"Ġcatastrophe":8167,"Ġremedy":8168,"Ġhorizont":8169,"Ġalgeria":8170,"Ġvenezuela":8171,"Ġindispensable":8172,"far":8173,"hab":8174,"ipped":8175,"japan":8176,"vable":8177,"Ġsli":8178,"Ġble":8179,"still":8180,"Ġmel":8181,"Ġreperc":8182,"llow":8183,"ford":8184,"Ġincidents":8185,"Ġteeth":8186,"Ġdeciding":8187,"Ġamending":8188,"Ġgrants":8189,"Ġcontrolling":8190,"Ġvienna":8191,"gged":8192,"Ġapproaching":8193,"Ġcontributes":8194,"Ġlocated":8195,"Ġconsequently":8196,"Ġweekend":8197,"Ġtotalitarian":8198,"Ġrevolutionary":8199,"Ġphysics":8200,"otechn":8201,"Ġannouncement":8202,"Ġtribun":8203,"democ":8204,"kind":8205,"po":8206,"pal":8207,"vation":8208,"Ġfi":8209,"stat":8210,"Ġiv":8211,"urg":8212,"Ġstone":8213,"Ġshock":8214,"Ġexag":8215,"ifiable":8216,"Ġjail":8217,"Ġmyster":8218,"next":8219,"Ġlift":8220,"Ġobjects":8221,"Ġsincere":8222,"comes":8223,"Ġtransportation":8224,"Ġbirthday":8225,"Ġoxy":8226,"Ġconfronted":8227,"Ġsecurities":8228,"Ġrepercussions":8229,"give":8230,"pel":8231,"olved":8232,"Ġresidents":8233,"consider":8234,"Ġinvasion":8235,"Ġsecuring":8236,"Ġsolana":8237,"Ġ32":8238,"Ġcorre":8239,"Ġaccountable":8240,"Ġpatten":8241,"Ġweaken":8242,"Ġadaptation":8243,"Ġtowns":8244,"Ġexemption":8245,"Ġexclusive":8246,"Ġdarfur":8247,"Ġpipeline":8248,"Ġepidemic":8249,"Ġlinguistic":8250,"tion":8251,"Ġsoph":8252,"eness":8253,"Ġhars":8254,"icate":8255,"Ġweigh":8256,"Ġforb":8257,"Ġstorm":8258,"Ġunknow":8259,"ode":8260,"Ġjac":8261,"lls":8262,"text":8263,"Ġopens":8264,"inton":8265,"Ġempire":8266,"archy":8267,"Ġensured":8268,"Ġurged":8269,"Ġexplore":8270,"Ġfocuses":8271,"Ġdevices":8272,"Ġbright":8273,"Ġcomplaint":8274,"Ġpreferred":8275,"consist":8276,"Ġembarrass":8277,"Ġlawyers":8278,"Ġacademic":8279,"Ġslovenia":8280,"Ġmarriage":8281,"Ġpesticides":8282,"Ġbrilliant":8283,"Ġau":8284,"icing":8285,"Ġloud":8286,"Ġunres":8287,"rend":8288,"osevic":8289,"Ġartists":8290,"Ġyounger":8291,"Ġsenti":8292,"Ġdisprop":8293,"Ġstrive":8294,"Ġsafeguards":8295,"Ġabolished":8296,"Ġdisplaced":8297,"Ġfloods":8298,"Ġscreen":8299,"Ġdevastating":8300,"Ġbubble":8301,"ustainable":8302,"Ġnerv":8303,"thor":8304,"omed":8305,"Ġgmos":8306,"ull":8307,"akh":8308,"ieth":8309,"Ġmanagers":8310,"forest":8311,"Ġbench":8312,"Ġtrials":8313,"Ġtrigg":8314,"Ġaddresses":8315,"Ġcharged":8316,"Ġdetention":8317,"Ġtested":8318,"Ġclarified":8319,"exist":8320,"Ġtransferred":8321,"Ġwitnessed":8322,"Ġthirds":8323,"welve":8324,"Ġfischler":8325,"hard":8326,"oral":8327,"Ġtoys":8328,"Ġdereg":8329,"Ġappalling":8330,"Ġtransmission":8331,"Ġgene":8332,"oval":8333,"Ġunderstands":8334,"Ġ48":8335,"Ġavailability":8336,"Ġoriented":8337,"Ġpackaging":8338,"Ġindicates":8339,"Ġreturns":8340,"Ġfold":8341,"Ġdelegations":8342,"Ġconcentrated":8343,"Ġattempted":8344,"Ġdistinct":8345,"Ġrigorous":8346,"Ġpurchase":8347,"Ġregistered":8348,"Ġseventh":8349,"remlin":8350,"Ġcambod":8351,"iannual":8352,"fi":8353,"ipp":8354,"public":8355,"Ġtone":8356,"Ġdelicate":8357,"Ġleague":8358,"Ġintim":8359,"Ġacute":8360,"Ġincur":8361,"Ġsupporters":8362,"Ġrelax":8363,"Ġpointing":8364,"Ġdepending":8365,"egovina":8366,"Ġsubjected":8367,"Ġ600":8368,"strÃ¶":8369,"Ġweaker":8370,"Ġsanter":8371,"Ġsafeguarding":8372,"Ġfeeding":8373,"Ġadvocates":8374,"Ġconstituency":8375,"Ġpursuit":8376,"Ġshipping":8377,"Ġaston":8378,"israel":8379,"Ġdisproportion":8380,"strÃ¶m":8381,"oy":8382,"power":8383,"view":8384,"Ġsin":8385,"Ġbrown":8386,"stop":8387,"Ġgue":8388,"Ġshr":8389,"quite":8390,"Ġkremlin":8391,"Ġoutcomes":8392,"tex":8393,"Ġremit":8394,"Ġextract":8395,"Ġproblematic":8396,"Ġlimiting":8397,"Ġvisas":8398,"Ġcontaining":8399,"Ġconnections":8400,"Ġclosure":8401,"Ġpressures":8402,"Ġdeclining":8403,"Ġarrangement":8404,"Ġattempting":8405,"Ġvirtual":8406,"Ġabolish":8407,"Ġembargo":8408,"Ġdedicated":8409,"Ġneighborhood":8410,"Ġinfringement":8411,"Ġstringent":8412,"Ġstricter":8413,"Ġnervous":8414,"Ġcig":8415,"Ġpap":8416,"Ġbid":8417,"orously":8418,"Ġmugabe":8419,"ura":8420,"ola":8421,"mbered":8422,"outs":8423,"Ġuser":8424,"Ġprint":8425,"Ġguine":8426,"Ġdistant":8427,"Ġlibrary":8428,"Ġshortage":8429,"Ġretail":8430,"Ġrisky":8431,"Ġ65":8432,"Ġverts":8433,"Ġflour":8434,"Ġbitter":8435,"willing":8436,"Ġacquired":8437,"Ġpunished":8438,"Ġpragmatic":8439,"Ġconvey":8440,"Ġdossier":8441,"Ġenshrined":8442,"Ġingredients":8443,"Ġherzegovina":8444,"11":8445,"rition":8446,"tal":8447,"yn":8448,"Ġfro":8449,"Ġinse":8450,"aled":8451,"Ġdare":8452,"ille":8453,"Ġster":8454,"Ġstamp":8455,"Ġunified":8456,"ested":8457,"amount":8458,"acing":8459,"Ġdisregard":8460,"osexual":8461,"seless":8462,"Ġroth":8463,"Ġclinton":8464,"Ġfactory":8465,"Ġestonia":8466,"Ġ36":8467,"Ġsuppose":8468,"Ġheaded":8469,"Ġidentical":8470,"Ġbiotechn":8471,"Ġreviewed":8472,"Ġcriticised":8473,"Ġsensit":8474,"Ġlimitations":8475,"Ġacquire":8476,"Ġunsatisf":8477,"onym":8478,"Ġpurchasing":8479,"Ġodd":8480,"Ġnewspapers":8481,"Ġqa":8482,"Ġhalt":8483,"Ġenvisaged":8484,"Ġdeprived":8485,"Ġecofin":8486,"Ġdistinguish":8487,"Ġpostponed":8488,"Ġcaucas":8489,"inct":8490,"atom":8491,"Ġwond":8492,"Ġpand":8493,"icious":8494,"rig":8495,"Ġride":8496,"Ġju":8497,"uels":8498,"Ġtimor":8499,"Ġarises":8500,"uber":8501,"Ġsyner":8502,"anger":8503,"Ġremoval":8504,"Ġfunny":8505,"Ġmultiannual":8506,"Ġstresses":8507,"Ġavoiding":8508,"Ġethi":8509,"Ġreinfor":8510,"Ġmissions":8511,"Ġmagic":8512,"true":8513,"Ġentails":8514,"Ġhydrogen":8515,"icycle":8516,"anes":8517,"Ġinconsist":8518,"Ġhind":8519,"Ġdual":8520,"Ġbeach":8521,"Ġunst":8522,"Ġunrest":8523,"esty":8524,"Ġshoulder":8525,"agon":8526,"Ġcaution":8527,"Ġexpecting":8528,"Ġeducated":8529,"Ġexcited":8530,"Ġsatur":8531,"Ġchallenging":8532,"Ġmassac":8533,"Ġsatisfy":8534,"Ġcollected":8535,"Ġmedicinal":8536,"Ġstockholm":8537,"Ġwithdrawn":8538,"Ġdestroying":8539,"Ġquantities":8540,"Ġexpanded":8541,"Ġtranslate":8542,"bollah":8543,"Ġunusual":8544,"count":8545,"ek":8546,"mother":8547,"Ġmu":8548,"Ġnl":8549,"Ġgiant":8550,"Ġunwilling":8551,"Ġabund":8552,"tell":8553,"Ġspons":8554,"ordan":8555,"neg":8556,"Ġfoodstuffs":8557,"Ġclothes":8558,"Ġcivilization":8559,"Ġburning":8560,"Ġstriking":8561,"political":8562,"Ġconsolidate":8563,"Ġdisadvantage":8564,"Ġinterference":8565,"Ġevolved":8566,"Ġdecrease":8567,"Ġwholeheartedly":8568,"Ġkurdish":8569,"Ġhorizontal":8570,"iest":8571,"Ġtherap":8572,"Ġdile":8573,"Ġstret":8574,"Ġalter":8575,"oren":8576,"Ġexert":8577,"forward":8578,"Ġrap":8579,"Ġconfused":8580,"Ġguant":8581,"Ġinteraction":8582,"Ġinterconnect":8583,"Ġmilosevic":8584,"Ġprivacy":8585,"Ġweakened":8586,"Ġredist":8587,"Ġmerkel":8588,"Ġrecords":8589,"Ġguidance":8590,"Ġslaughter":8591,"Ġtypically":8592,"Ġtuna":8593,"Ġngl":8594,"Ġoptimism":8595,"vestock":8596,"Ġstabilisation":8597,"Ġindirectly":8598,"Ġinterpreted":8599,"Ġlandscape":8600,"Ġfabric":8601,"Ġfantastic":8602,"Ġcelebrate":8603,"Ġholiday":8604,"Ġdisarmament":8605,"Ġbunch":8606,"Ġgraph":8607,"unless":8608,"Ġenact":8609,"Ġusd":8610,"Ġincap":8611,"Ġexpenses":8612,"Ġapple":8613,"Ġunderway":8614,"Ġwanting":8615,"Ġentertain":8616,"Ġaffirm":8617,"teneg":8618,"Ġassessing":8619,"Ġtopical":8620,"Ġdelivery":8621,"Ġworthwhile":8622,"Ġoccurs":8623,"Ġstayed":8624,"Ġcattle":8625,"Ġinspection":8626,"Ġinfected":8627,"Ġdisadvantaged":8628,"Ġcopyright":8629,"Ġunequiv":8630,"imagine":8631,"Ġpredecess":8632,"Ġunknown":8633,"mits":8634,"inations":8635,"Ġcoc":8636,"Ġinject":8637,"Ġdry":8638,"Ġgases":8639,"Ġlev":8640,"Ġlivestock":8641,"Ġdisin":8642,"Ġconfirms":8643,"Ġsecre":8644,"Ġlifel":8645,"Ġthreatens":8646,"Ġemphasize":8647,"Ġlatvia":8648,"Ġ95":8649,"Ġembark":8650,"rehensible":8651,"Ġjews":8652,"Ġhungry":8653,"Ġfulfilling":8654,"Ġstruggling":8655,"Ġexclude":8656,"Ġcorrespond":8657,"Ġthirty":8658,"Ġmotivated":8659,"Ġweaknesses":8660,"Ġharsh":8661,"uum":8662,"Ġscept":8663,"Ġbay":8664,"arians":8665,"Ġwearing":8666,"unlike":8667,"Ġrw":8668,"inki":8669,"Ġofficially":8670,"Ġcountryside":8671,"Ġdeflation":8672,"Ġassumption":8673,"Ġscan":8674,"Ġinsult":8675,"Ġpromotes":8676,"Ġactivists":8677,"Ġsoul":8678,"Ġembry":8679,"Ġharvest":8680,"Ġadjustments":8681,"Ã¡n":8682,"Ġundermining":8683,"Ġvocational":8684,"Ġtechniques":8685,"Ġukrainian":8686,"Ġqaeda":8687,"Ġdilemm":8688,"hand":8689,"sch":8690,"zing":8691,"Ġpages":8692,"Ġanger":8693,"Ġhed":8694,"Ġconj":8695,"Ġasks":8696,"Ġchose":8697,"Ġjordan":8698,"Ġpeak":8699,"load":8700,"Ġdisor":8701,"Ġmining":8702,"Ġrequiring":8703,"Ġhandled":8704,"lessness":8705,"Ġsuccesses":8706,"Ġpatents":8707,"Ġdomain":8708,"Ġposts":8709,"Ġmodernisation":8710,"Ġethics":8711,"Ġdivisions":8712,"Ġ250":8713,"Ġexploited":8714,"Ġdictator":8715,"Ġsupposedly":8716,"Ġdelivering":8717,"Ġsettled":8718,"Ġblocked":8719,"Ġiceland":8720,"Ġconfrontation":8721,"Ġpluralism":8722,"Ġdesperate":8723,"Ġsuspicion":8724,"Ġorientation":8725,"Ġsaharan":8726,"Ġfeasible":8727,"Ġunderpin":8728,"Ġgarden":8729,"Ġatomic":8730,"Ġbiofuels":8731,"10":8732,"cot":8733,"due":8734,"sinki":8735,"ĠbÃ¶":8736,"Ġunt":8737,"cile":8738,"Ġwasted":8739,"Ġjar":8740,"conc":8741,"Ġpretext":8742,"Ġclash":8743,"Ġdirections":8744,"Ġmah":8745,"Ġhelsinki":8746,"Ġauthors":8747,"Ġlacks":8748,"Ġreturning":8749,"Ġratio":8750,"Ġharmonise":8751,"Ġwinning":8752,"Ġsubstantive":8753,"Ġsymbols":8754,"Ġquantity":8755,"Ġroutes":8756,"Ġstraightforward":8757,"Ġmagaz":8758,"grace":8759,"Ġcorresponding":8760,"trans":8761,"Ġschedule":8762,"Ġromanian":8763,"Ġnordic":8764,"respective":8765,"Ġutterly":8766,"Ġsimultaneously":8767,"cut":8768,"glo":8769,"Ġtill":8770,"Ġtheore":8771,"Ġfla":8772,"ione":8773,"Ġeager":8774,"Ġprolong":8775,"Ġhague":8776,"Ġmartin":8777,"Ġlegs":8778,"Ġtwent":8779,"Ġmines":8780,"Ġpron":8781,"Ġafterwards":8782,"too":8783,"Ġpersonality":8784,"Ġartist":8785,"Ġintegral":8786,"Ġprofitable":8787,"Ġambass":8788,"Ġplacing":8789,"Ġillegally":8790,"Ġmerit":8791,"Ġappreciated":8792,"Ġadvocated":8793,"Ġthrown":8794,"Ġyellow":8795,"Ġofficers":8796,"Ġridiculous":8797,"Ġmonopolies":8798,"cend":8799,"others":8800,"Ġtong":8801,"enous":8802,"anas":8803,"ica":8804,"Ġproves":8805,"rained":8806,"ests":8807,"Ġenforced":8808,"Ġcancell":8809,"Ġabortion":8810,"Ġworkforce":8811,"Ġmart":8812,"Ġpermission":8813,"Ġloan":8814,"Ġattribut":8815,"Ġ1930":8816,"Ġnationalist":8817,"ructive":8818,"Ġearmark":8819,"Ġrestored":8820,"Ġsurger":8821,"Ġsecondary":8822,"Ġsectoral":8823,"Ġlisted":8824,"Ġskill":8825,"Ġforestry":8826,"Ġdeparture":8827,"Ġproclaim":8828,"ariat":8829,"Ġrigid":8830,"Ġawait":8831,"Ġfranc":8832,"Ġdisparities":8833,"Ġprominent":8834,"ifornia":8835,"Ġcigaret":8836,"Ġguinea":8837,"ius":8838,"Ġpump":8839,"sile":8840,"Ġinclusive":8841,"Ġtempt":8842,"Ġprest":8843,"Ġmonti":8844,"Ġresolute":8845,"Ġscientist":8846,"Ġdeadlines":8847,"Ġfrontiers":8848,"Ġfacilitating":8849,"Ġeliminating":8850,"Ġalien":8851,"Ġcrying":8852,"Ġineffective":8853,"Ġcatastroph":8854,"Ġbeneficiaries":8855,"Ġcaucasus":8856,"aire":8857,"fif":8858,"writ":8859,"Ġmush":8860,"Ġinex":8861,"alistic":8862,"Ġdrew":8863,"Ġaltogether":8864,"Ġmep":8865,"quest":8866,"Ġpolls":8867,"alled":8868,"Ġpoison":8869,"athers":8870,"Ġfinancially":8871,"Ġtreating":8872,"Ġassass":8873,"Ġintermedi":8874,"Ġbrave":8875,"Ġgeopol":8876,"Ġdiet":8877,"Ġdivor":8878,"Ġfrontier":8879,"Ġpreparatory":8880,"Ġflowers":8881,"Ġegyptian":8882,"Ġinspections":8883,"Ġdisappointment":8884,"ladesh":8885,"Ġpersecution":8886,"Ġbacteria":8887,"Ġtribunal":8888,"Ġunsatisfactory":8889,"25":8890,"99":8891,"yer":8892,"yan":8893,"oness":8894,"Ġpuzz":8895,"Ġba":8896,"Ġmas":8897,"Ġdil":8898,"Ġdance":8899,"leted":8900,"Ġexhib":8901,"Ġ120":8902,"author":8903,"india":8904,"Ġtransnational":8905,"Ġmonteneg":8906,"Ġglobe":8907,"Ġforesee":8908,"Ġwheel":8909,"Ġbenefited":8910,"Ġprofile":8911,"Ġairpl":8912,"Ġencoun":8913,"Ġ800":8914,"Ġattacked":8915,"Ġwondering":8916,"Ġcriticisms":8917,"Ġexecution":8918,"Ġpanel":8919,"Ġautomatic":8920,"Ġspectac":8921,"Ġasean":8922,"aust":8923,"father":8924,"ige":8925,"tail":8926,"was":8927,"Ġtum":8928,"Ġtab":8929,"Ġtwelve":8930,"Ġpy":8931,"Ġnative":8932,"Ġlap":8933,"thetic":8934,"Ġshocks":8935,"antic":8936,"Ġpartial":8937,"Ġplastic":8938,"Ġdisgrace":8939,"Ġcofin":8940,"Ġcoins":8941,"Ġcoexist":8942,"Ġindiff":8943,"Ġcontinually":8944,"Ġsimpler":8945,"Ġsections":8946,"Ġsurge":8947,"Ġadvisory":8948,"Ġcompletion":8949,"Ġfounding":8950,"Ġgravity":8951,"Ġjudged":8952,"Ġpatience":8953,"Ġmerits":8954,"Ġprofessionals":8955,"lusconi":8956,"Ġhomosexual":8957,"Ġbalkan":8958,"Ġcorporations":8959,"Ġselected":8960,"keeping":8961,"Ġhatred":8962,"Ġkenya":8963,"ridge":8964,"win":8965,"Å¡":8966,"Ġtag":8967,"inating":8968,"inery":8969,"Ġpin":8970,"Ġdad":8971,"Ġdread":8972,"raf":8973,"rade":8974,"Ġshocked":8975,"liers":8976,"âĢľ":8977,"Ġintr":8978,"apore":8979,"Ġworkplace":8980,"whilst":8981,"Ġcurious":8982,"Ġwarned":8983,"Ġestimate":8984,"ibi":8985,"Ġze":8986,"Ġchoosing":8987,"Ġcoordinating":8988,"Ġparent":8989,"Ġclauses":8990,"Ġclasses":8991,"Ġreactions":8992,"Ġorders":8993,"Ġtransformed":8994,"Ġshopping":8995,"Ġaffordable":8996,"Ġremoving":8997,"Ġpredicted":8998,"Ġawaiting":8999,"Ġdisappointing":9000,"Ġcfsp":9001,"Ġgratitude":9002,"Ġtsun":9003,"Ġfrontex":9004,"Ġchicken":9005,"Ġcautious":9006,"Ġmisleading":9007,"ae":9008,"gments":9009,"iety":9010,"ker":9011,"Ġtries":9012,"Ġaqu":9013,"oned":9014,"anium":9015,"Ġbone":9016,"rot":9017,"stal":9018,"Ġgang":9019,"Ġlin":9020,"ulates":9021,"Ġleap":9022,"ometers":9023,"Ġpolar":9024,"Ġkinn":9025,"Ġloyal":9026,"Ġrobert":9027,"Ġclimb":9028,"Ġconfined":9029,"Ġdesk":9030,"Ġpublication":9031,"being":9032,"Ġchildhood":9033,"Ġdemocratisation":9034,"Ġaiming":9035,"Ġclothing":9036,"Ġsummar":9037,"Ġcirculation":9038,"Ġfairness":9039,"Ġmistaken":9040,"Ġrelevance":9041,"Ġslide":9042,"Ġwalls":9043,"Ġincorrect":9044,"Ġbombs":9045,"Ġeliminated":9046,"Ġtolerate":9047,"Ġcontradictory":9048,"Ġrooted":9049,"Ġinterfere":9050,"Ġautonomous":9051,"Ġmortality":9052,"Ġsubscri":9053,"Ġkinnock":9054,"Ġcure":9055,"ano":9056,"Ġyemen":9057,"Ġlikewise":9058,"Ġregain":9059,"ago":9060,"Ġserving":9061,"Ġclim":9062,"Ġ1950":9063,"Ġsmugg":9064,"working":9065,"Ġformulated":9066,"Ġbarn":9067,"Ġbrains":9068,"Ġjudici":9069,"Ġassessed":9070,"Ġmetaph":9071,"Ġensures":9072,"Ġcompetitors":9073,"Ġsecretariat":9074,"Ġsalary":9075,"umph":9076,"Ġignor":9077,"Ġreferences":9078,"accordingly":9079,"Ġpremium":9080,"Ġpremature":9081,"Ġcapture":9082,"Ġanxious":9083,"Ġminimal":9084,"Ġcounterfeiting":9085,"Ġtampe":9086,"Ġstalin":9087,"Ġsubstitute":9088,"gain":9089,"mi":9090,"Ġly":9091,"Ġtied":9092,"intern":9093,"isible":9094,"Ġsends":9095,"Ġpup":9096,"vez":9097,"Ġgift":9098,"Ġneo":9099,"Ġmeal":9100,"ima":9101,"Ġleh":9102,"Ġchern":9103,"Ġkick":9104,"Ġoutrage":9105,"Ġpool":9106,"Ġrecruit":9107,"Ġindig":9108,"Ġissuing":9109,"Ġroles":9110,"Ġdiscovery":9111,"Ġjoy":9112,"Ġrulers":9113,"Ġestate":9114,"Ġgotten":9115,"Ġgermans":9116,"Ġparticipated":9117,"Ġpoorly":9118,"Ġsuperf":9119,"Ġgaining":9120,"Ġdictionary":9121,"Ġcompensate":9122,"Ġdogs":9123,"Ġberlusconi":9124,"Ġengineers":9125,"Ġfrequent":9126,"Ġquarters":9127,"Ġacadem":9128,"Ġtravelling":9129,"Ġprotein":9130,"Ġmichel":9131,"Ġoxygen":9132,"Ġintimid":9133,"Ġpian":9134,"Ġbio":9135,"Ġbicycle":9136,"Ġinsight":9137,"Ġdal":9138,"asy":9139,"Ġga":9140,"idel":9141,"Ġally":9142,"Ġallev":9143,"Ġuphe":9144,"Ġtermin":9145,"Ġlobb":9146,"Ġroof":9147,"Ġfacto":9148,"Ġattended":9149,"Ġnationality":9150,"airy":9151,"Ġobjection":9152,"Ġ34":9153,"Ġministerial":9154,"Ġobsc":9155,"Ġfloren":9156,"Ġcapacities":9157,"Ġharmonization":9158,"Ġcalifornia":9159,"Ġsadly":9160,"Ġcharacterised":9161,"Ġpicked":9162,"Ġsharply":9163,"Ġreassure":9164,"Ġlucky":9165,"Ġvacuum":9166,"Ġtariffs":9167,"Ġbangladesh":9168,"Ġventure":9169,"Ġarbitrary":9170,"Ġrestaurant":9171,"mary":9172,"oby":9173,"var":9174,"zbollah":9175,"Ġfrat":9176,"Ġhang":9177,"Ġlou":9178,"Ġluc":9179,"Ġunamb":9180,"ounted":9181,"oper":9182,"iped":9183,"Ġrow":9184,"Ġclock":9185,"ords":9186,"Ġjoke":9187,"Ġbehave":9188,"Ġtriumph":9189,"Ġairline":9190,"Ġmorator":9191,"Ġjean":9192,"Ġfooting":9193,"Ġpreference":9194,"Ġconstituents":9195,"Ġlicence":9196,"Ġdeployed":9197,"Ġduplic":9198,"Ġvigilant":9199,"Ġredistribut":9200,"Ġincapable":9201,"global":9202,"Ġtwentieth":9203,"Ġjudiciary":9204,"bles":9205,"build":9206,"ja":9207,"lause":9208,"Ġthin":9209,"Ġfol":9210,"Ġfled":9211,"Ġinability":9212,"Ġinjust":9213,"Ġhect":9214,"Ġdairy":9215,"lets":9216,"Ġunification":9217,"social":9218,"oded":9219,"Ġrival":9220,"Ġenergies":9221,"belie":9222,"Ġemail":9223,"Ġcritics":9224,"Ġspecified":9225,"Ġpositively":9226,"Ġreceives":9227,"germany":9228,"Ġcapitalist":9229,"Ġrenewal":9230,"Ġinfrastructures":9231,"Ġwealthy":9232,"Ġpetition":9233,"Ġautomob":9234,"Ġbarrier":9235,"Ġquantitative":9236,"Ġinspectors":9237,"Ġhospitals":9238,"tini":9239,"Ġodds":9240,"Ġprivilege":9241,"Ġforecasts":9242,"Ġticket":9243,"Ġtreasury":9244,"Ġcompliment":9245,"Ġtampere":9246,"Ġchernoby":9247,"Ġchernobyl":9248,"gent":9249,"wer":9250,"atri":9251,"Ġumb":9252,"Ġages":9253,"Ġjack":9254,"Ġkitch":9255,"Ġacced":9256,"Ġcomplied":9257,"Ġmars":9258,"Ġmadrid":9259,"Ġrealised":9260,"surely":9261,"Ġtransplant":9262,"Ġreformed":9263,"Ġsummary":9264,"Ġbankers":9265,"print":9266,"Ġperforming":9267,"irac":9268,"Ġarrival":9269,"Ġtony":9270,"Ġmaxim":9271,"Ġcourageous":9272,"Ġradioactive":9273,"Ġpreferences":9274,"Ġreciproc":9275,"Ġdeliberately":9276,"Ġreluctant":9277,"recently":9278,"Ġeligible":9279,"Ġveterinary":9280,"Ġmontenegro":9281,"fire":9282,"lim":9283,"top":9284,"tles":9285,"Ġporn":9286,"Ġhoc":9287,"Ġdates":9288,"ilater":9289,"Ġgamb":9290,"Ġham":9291,"ades":9292,"Ġworries":9293,"Ġchocol":9294,"Ġpreserv":9295,"Ġintent":9296,"Ġfaire":9297,"Ġcoverage":9298,"Ġprecious":9299,"Ġentity":9300,"Ġforming":9301,"Ġblocks":9302,"Ġseriousness":9303,"Ġbargain":9304,"Ġregulating":9305,"Ġemphasises":9306,"Ġskilled":9307,"Ġdeepening":9308,"Ġdemonstrations":9309,"Ġclever":9310,"Ġlearnt":9311,"Ġsalaries":9312,"Ġcrack":9313,"Ġdoctr":9314,"Ġobserver":9315,"Ġoceans":9316,"Ġroutine":9317,"Ġbabies":9318,"Ġanxiety":9319,"Ġsettlements":9320,"Ġlady":9321,"Ġdetriment":9322,"Ġinspiration":9323,"Ġcollapsed":9324,"current":9325,"Ġremembered":9326,"Ġmoratorium":9327,"ilaterally":9328,"fol":9329,"taking":9330,"invest":9331,"isual":9332,"ider":9333,"teries":9334,"Ġleon":9335,"ams":9336,"Ġupset":9337,"Ġlobby":9338,"Ġmont":9339,"Ġcarries":9340,"Ġdeput":9341,"Ġelectrical":9342,"Ġbloc":9343,"Ġswiss":9344,"Ġannually":9345,"cope":9346,"Ġidentification":9347,"Ġweakening":9348,"Ġexplosion":9349,"Ġharass":9350,"Ġchecked":9351,"Ġcuban":9352,"Ġcondemnation":9353,"Ġsweet":9354,"Ġborrowing":9355,"Ġcalculations":9356,"against":9357,"Ġshaped":9358,"Ġmurdered":9359,"Ġintolerable":9360,"Ġpromptly":9361,"Ġbankruptcy":9362,"Ġexagger":9363,"Ġbiotechnology":9364,"..":9365,"dr":9366,"pan":9367,"Ġtank":9368,"Ġpris":9369,"ald":9370,"step":9371,"Ġhav":9372,"raint":9373,"liest":9374,"aming":9375,"Ġkaz":9376,"looking":9377,"Ġtiming":9378,"Ġunderlined":9379,"ernity":9380,"uesday":9381,"Ġconferences":9382,"Ġcontinuity":9383,"ailand":9384,"Ġbanana":9385,"Ġinflic":9386,"Ġsimpl":9387,"Ġ33":9388,"Ġ38":9389,"Ġrisen":9390,"Ġnorms":9391,"Ġears":9392,"ashed":9393,"Ġ85":9394,"Ġindications":9395,"Ġaudiov":9396,"Ġricher":9397,"Ġcollecting":9398,"Ġreconcile":9399,"Ġmutually":9400,"Ġeaten":9401,"Ġmachinery":9402,"Ġdetermining":9403,"Ġprosperous":9404,"Ġcompeting":9405,"Ġbeliefs":9406,"Ġniger":9407,"Ġscott":9408,"Ġimbalance":9409,"usalem":9410,"Ġdeemed":9411,"Ġcambodia":9412,"concern":9413,"Ġearmarked":9414,"Ġaudiovisual":9415,"eenth":9416,"mony":9417,"itives":9418,"Ġmi":9419,"ala":9420,"Ġbeer":9421,"Ġcompris":9422,"pected":9423,"Ġspin":9424,"Ġmineral":9425,"Ġmao":9426,"Ġgrows":9427,"Ġcapability":9428,"Ġeleph":9429,"Ġlights":9430,"Ġflee":9431,"isticated":9432,"Ġrejecting":9433,"Ġdefinitions":9434,"Ġbreakfast":9435,"atson":9436,"Ġreminds":9437,"undering":9438,"Ġunsustainable":9439,"Ġaccepts":9440,"Ġsighted":9441,"Ġtranslated":9442,"Ġmovies":9443,"Ġenemies":9444,"Ġaccelerate":9445,"Ġsacrifice":9446,"Ġdiscriminatory":9447,"Ġmultinationals":9448,"countries":9449,"Ġsurgery":9450,"Ġtsunami":9451,"Ġunambig":9452,"cc":9453,"Â·":9454,"Ġtuesday":9455,"Ġcs":9456,"oup":9457,"icism":9458,"lex":9459,"Ġgath":9460,"owski":9461,"Ġseize":9462,"aint":9463,"Ġleverage":9464,"Ġimpunity":9465,"Ġkim":9466,"ours":9467,"Ġlikelihood":9468,"Ġeconomist":9469,"Ġoffences":9470,"risy":9471,"article":9472,"Ġprotectionist":9473,"Ġwriter":9474,"Ġreforming":9475,"Ġpatri":9476,"Ġshareholders":9477,"Ġwaves":9478,"Ġpricing":9479,"Ġsubsidy":9480,"Ġdeval":9481,"Ġdemonstrating":9482,"Ġradiation":9483,"Ġextrad":9484,"Ġencouragement":9485,"Ġfilms":9486,"governments":9487,"Ġprohibited":9488,"Ġdeterioration":9489,"Ġdetrimental":9490,"Ġunexpected":9491,"Ġdilemma":9492,"Ġdisorder":9493,"gi":9494,"lers":9495,"Ġtig":9496,"Ġsir":9497,"Ġped":9498,"Ġdirty":9499,"Ġnap":9500,"Ġhab":9501,"oles":9502,"cher":9503,"Ġkne":9504,"Ġoutlook":9505,"Ġmarry":9506,"Ġrecur":9507,"ips":9508,"Ġconfidential":9509,"Ġcontinuous":9510,"Ġuranium":9511,"Ġsuppliers":9512,"Ġdevote":9513,"Ġwatched":9514,"Ġstaying":9515,"Ġpakistani":9516,"ilingual":9517,"Ġgolden":9518,"Ġsplend":9519,"Ġextremists":9520,"Ġupdate":9521,"Ġcertific":9522,"Ġapologise":9523,"Ġversus":9524,"Ġhypocrisy":9525,"Ġprosecutor":9526,"ĠÃł":9527,"bra":9528,"Ġaver":9529,"Ġwatson":9530,"Ġsant":9531,"Ġnons":9532,"Ġchirac":9533,"Ġadhere":9534,"depend":9535,"Ġrape":9536,"Ġspare":9537,"Ġsystemic":9538,"Ġrefund":9539,"Ġdownturn":9540,"Ġbeha":9541,"Ġnorway":9542,"Ġvalley":9543,"Ġfurthermore":9544,"Ġcreatures":9545,"Ġbarbar":9546,"Ġmissile":9547,"Ġappropriately":9548,"Ġgrain":9549,"Ġdestructive":9550,"Ġconcluding":9551,"Ġanalog":9552,"Ġillusion":9553,"Ġcreditors":9554,"Ġinvestigated":9555,"Ġcrush":9556,"Ġinher":9557,"Ġhostile":9558,"Ġfifty":9559,"Ġinsisted":9560,"Ġemotions":9561,"backs":9562,"Ġferre":9563,"Ġmagnitude":9564,"Ġextremism":9565,"Ġalex":9566,"Ġneglected":9567,"Ġvegetables":9568,"Ġskept":9569,"Ġsophisticated":9570,"Ġderegulation":9571,"Ġsensitivity":9572,"Ġethiopia":9573,"Ġtongue":9574,"Ġprestige":9575,"Ġgeopolitical":9576,"Ġkitchen":9577,"Ġchocolate":9578,"Ġpreservation":9579,"math":9580,"sa":9581,"Ġlying":9582,"onic":9583,"atories":9584,"Ġanc":9585,"icts":9586,"lements":9587,"Ġrect":9588,"Ġlake":9589,"Ġforcing":9590,"Ġunw":9591,"imination":9592,"Ġagents":9593,"Ġresid":9594,"Ġpresidencies":9595,"igate":9596,"ller":9597,"sia":9598,"Ġserbian":9599,"Ġtransposition":9600,"Ġcontrovers":9601,"Ġirrespective":9602,"Ġ55":9603,"Ġstructured":9604,"itherto":9605,"Ġburn":9606,"Ġhonor":9607,"Ġperformed":9608,"Ġobtaining":9609,"Ġexceptionally":9610,"Ġenhancing":9611,"Ġpermanently":9612,"Ġcomparative":9613,"Ġiii":9614,"clock":9615,"Ġhurry":9616,"asmus":9617,"Ġdiagnosis":9618,"Ġcontemporary":9619,"Ġsequence":9620,"tegration":9621,"Ġreunification":9622,"Ġprecondition":9623,"Ġdatabase":9624,"aunch":9625,"sv":9626,"Ġak":9627,"Ġflaw":9628,"Ġeve":9629,"Ġlank":9630,"Ġproactive":9631,"Ġunite":9632,"Ġseeds":9633,"liances":9634,"cio":9635,"soon":9636,"Ġhezbollah":9637,"aker":9638,"Ġpartially":9639,"okay":9640,"Ġdiffering":9641,"Ġroyal":9642,"Ġprovoc":9643,"Ġentities":9644,"worthy":9645,"Ġcenters":9646,"Ġmedi":9647,"Ġcivilisation":9648,"Ġfarmer":9649,"Ġarguing":9650,"Ġgrab":9651,"appy":9652,"Ġmodernization":9653,"Ġoccurring":9654,"Ġordered":9655,"front":9656,"Ġtunnel":9657,"Ġrobots":9658,"Ġvirtue":9659,"Ġphoto":9660,"Ġtraditionally":9661,"Ġcalculated":9662,"Ġdistortions":9663,"Ġaccomplished":9664,"Ġwholly":9665,"Ġdrastic":9666,"Ġmagazine":9667,"Ġsplendid":9668,"Ġtabling":9669,"Ġaer":9670,"Ġshed":9671,"Ġkiss":9672,"ivable":9673,"Ġcounts":9674,"Ġprec":9675,"Ġcloning":9676,"Ġdefici":9677,"Ġemph":9678,"Ġsmile":9679,"Ġbanning":9680,"Ġformation":9681,"Ġsingapore":9682,"Ġlivelihood":9683,"Ġtextiles":9684,"Ġexplains":9685,"Ġmemor":9686,"Ġdisagreement":9687,"baij":9688,"Ġdeliberations":9689,"Ġvaccine":9690,"Ġsomalia":9691,"kov":9692,"list":9693,"Ġpir":9694,"Ġreop":9695,"Ġprost":9696,"Ġuncle":9697,"ounced":9698,"Ġorch":9699,"Ġnoon":9700,"Ġreck":9701,"Ġinstances":9702,"Ġprovince":9703,"Ġaddiction":9704,"ologist":9705,"Ġbackwards":9706,"Ġinterdepend":9707,"Ġtechnically":9708,"Ġlifted":9709,"Ġindex":9710,"Ġelimination":9711,"Ġ42":9712,"cker":9713,"hope":9714,"Ġgenerating":9715,"Ġfleets":9716,"Ġexcellence":9717,"Ġportfol":9718,"Ġinfluenced":9719,"Ġintegrating":9720,"Ġseparated":9721,"Ġhorrif":9722,"Ġvulnerability":9723,"carious":9724,"Ġmountains":9725,"contro":9726,"Ġawarded":9727,"Ġdisturbing":9728,"Ġgathering":9729,"Ġabstract":9730,"Ġjerusalem":9731,"Ġvolatility":9732,"sadly":9733,"Ġunstable":9734,"negoti":9735,"Ġlifelong":9736,"Ġrwanda":9737,"cor":9738,"fo":9739,"Ġthailand":9740,"Ġot":9741,"esity":9742,"Ġindu":9743,"almost":9744,"Ġbee":9745,"Ġgor":9746,"Ġlocked":9747,"Ġstating":9748,"Ġeurostat":9749,"Ġorange":9750,"Ġkur":9751,"akis":9752,"Ġparliamentarians":9753,"Ġarisen":9754,"ologically":9755,"Ġrevise":9756,"Ġframeworks":9757,"Ġmilitar":9758,"Ġpassport":9759,"Ġclosest":9760,"Ġfunctional":9761,"Ġconducting":9762,"polit":9763,"Ġexplanatory":9764,"Ġderiv":9765,"Ġconsolidated":9766,"prot":9767,"Ġcrowd":9768,"Ġswimming":9769,"Ġshifting":9770,"Ġincomprehensible":9771,"Ġmercury":9772,"Ġmirror":9773,"Ġcatholic":9774,"Ġbarnier":9775,"Ġprisons":9776,"bus":9777,"ey":9778,"fish":9779,"met":9780,"net":9781,"Ã§":9782,"Ãº":9783,"Ġazer":9784,"Ġsink":9785,"Ġhill":9786,"Ġhier":9787,"Ġdies":9788,"Ġease":9789,"Ġnit":9790,"thal":9791,"Ġneur":9792,"Ġuncom":9793,"Ġshocking":9794,"essim":9795,"Ġimped":9796,"Ġimpart":9797,"Ġresume":9798,"Ġintu":9799,"Ġoutline":9800,"Ġprecarious":9801,"Ġdecides":9802,"Ġoffset":9803,"Ġparticles":9804,"Ġgoodwill":9805,"Ġconfine":9806,"Ġministry":9807,"Ġscared":9808,"Ġsmith":9809,"Ġbrid":9810,"gging":9811,"Ġescap":9812,"Ġstrongest":9813,"Ġviolated":9814,"Ġengaging":9815,"Ġfundamentalism":9816,"Ġcyn":9817,"Ġcriticise":9818,"Ġstrip":9819,"Ġcollectively":9820,"Ġfriendship":9821,"Ġstepped":9822,"Ġauthorised":9823,"Ġharbour":9824,"Ġplanets":9825,"Ġreferendums":9826,"Ġpriorit":9827,"besides":9828,"Ġprevailing":9829,"Ġanalyse":9830,"Ġduration":9831,"Ġchampion":9832,"Ġgallery":9833,"Ġbroadcasting":9834,"Ġvitally":9835,"Ġcarriers":9836,"Ġtears":9837,"Ġinsecurity":9838,"Ġaccusations":9839,"Ġshrink":9840,"Ġpiano":9841,"ext":9842,"great":9843,"jad":9844,"lary":9845,"vice":9846,"recent":9847,"Ġsri":9848,"itz":9849,"Ġinland":9850,"Ġlung":9851,"Ġconform":9852,"Ġasy":9853,"iran":9854,"Ġunb":9855,"Ġexposure":9856,"Ġcooking":9857,"Ġarts":9858,"Ġgenome":9859,"Ġmayor":9860,"Ġmeasuring":9861,"Ġbacks":9862,"Ġprevents":9863,"Ġinfin":9864,"Ġorganising":9865,"Ġearliest":9866,"Ġreduces":9867,"Ġelites":9868,"Ġ44":9869,"Ġmentioning":9870,"Ġoperates":9871,"Ġiraqis":9872,"plete":9873,"Ġbreaks":9874,"Ġislamist":9875,"Ġgirlf":9876,"Ġexcessively":9877,"france":9878,"Ġretained":9879,"Ġjournalist":9880,"Ġkilomet":9881,"Ġscreening":9882,"Ġpersistent":9883,"Ġunrealistic":9884,"Ġfrustration":9885,"Ġincompatible":9886,"Ġunderestimate":9887,"Ġpopulist":9888,"personally":9889,"Ġgesture":9890,"Ġtissue":9891,"democracy":9892,"building":9893,"iver":9894,"jour":9895,"Ġaz":9896,"reb":9897,"Ġsak":9898,"Ġpessim":9899,"orate":9900,"Ġmentions":9901,"Ġnom":9902,"sters":9903,"Ġpreserving":9904,"Ġresil":9905,"Ġsyrian":9906,"Ġrefusing":9907,"Ġreasonably":9908,"Ġforeigners":9909,"Ġadministrations":9910,"Ġidentifying":9911,"Ġfishery":9912,"pran":9913,"Ġexporting":9914,"Ġappearance":9915,"Ġreactors":9916,"Ġbottle":9917,"Ġhonesty":9918,"Ġwitnessing":9919,"Ġlengthy":9920,"Ġhypo":9921,"Ġperpetrators":9922,"Ġdespair":9923,"Ġmathematics":9924,"Ġinstructions":9925,"Ġtraceability":9926,"Ġmortgage":9927,"Ġslavery":9928,"Ġkazakh":9929,"Ġazerbaij":9930,"ua":9931,"Ġwire":9932,"Ġsque":9933,"Ġfib":9934,"Ġanch":9935,"asive":9936,"osur":9937,"Ġencomp":9938,"Ġreplied":9939,"Ġcontents":9940,"arest":9941,"Ġpermits":9942,"Ġloves":9943,"introdu":9944,"Ġbasel":9945,"Ġpointless":9946,"Ġdefended":9947,"Ġ193":9948,"Ġbudd":9949,"Ġlifting":9950,"Ġrestoration":9951,"uccess":9952,"Ġ700":9953,"Ġcrossing":9954,"Ġbreakdown":9955,"Ġsimilarly":9956,"Ġharmony":9957,"Ġslowdown":9958,"Ġreconsider":9959,"Ġdescription":9960,"obama":9961,"Ġlaying":9962,"Ġpanic":9963,"Ġhonestly":9964,"Ġluxury":9965,"Ġphenomena":9966,"Ġdepartments":9967,"Ġrestricting":9968,"Ġsurpluses":9969,"Ġprivileged":9970,"Ġinstallations":9971,"Ġredundant":9972,"Ġeggs":9973,"Ġindigenous":9974,"Ġancest":9975,"Ġencompass":9976,"ique":9977,"rance":9978,"zens":9979,"Ġtap":9980,"Ġtons":9981,"Ġastr":9982,"Ġbless":9983,"along":9984,"Ġhi":9985,"Ġhinder":9986,"Ġreorgan":9987,"Ġgn":9988,"ressions":9989,"Ġmeters":9990,"Ġchris":9991,"about":9992,"Ġpoem":9993,"health":9994,"Ġrab":9995,"Ġtraum":9996,"orship":9997,"Ġdiscret":9998,"Ġadds":9999,"Ġempow":10000,"Ġassault":10001,"bean":10002,"Ġschol":10003,"Ġequipped":10004,"Ġviability":10005,"Ġsuccessive":10006,"Ġconsume":10007,"Ġafricans":10008,"Ġkeynes":10009,"Ġelev":10010,"Ġeru":10011,"Ġexplaining":10012,"Ġradically":10013,"Ã©s":10014,"Ġextraordinarily":10015,"Ġdinos":10016,"Ġcasual":10017,"Ġprejudice":10018,"missible":10019,"Ġmiracle":10020,"Ġumbre":10021,"pranational":10022,"kash":10023,"mod":10024,"orious":10025,"Ġfathers":10026,"Ġnie":10027,"asant":10028,"ilation":10029,"Ġuseless":10030,"idently":10031,"ching":10032,"Ġunch":10033,"Ġsupranational":10034,"terror":10035,"quar":10036,"Ġengin":10037,"Ġpreserved":10038,"Ġbutter":10039,"ouses":10040,"Ġtech":10041,"Ġarrog":10042,"inejad":10043,"Ġtrains":10044,"Ġspaces":10045,"Ġhumane":10046,"Ġrefrain":10047,"Ġsheet":10048,"Ġvibr":10049,"Ġsuccessor":10050,"Ġinitiate":10051,"Ġdraws":10052,"Ġ99":10053,"Ġconcludes":10054,"Ġcorrected":10055,"Ġmalay":10056,"Ġlays":10057,"Ã¶der":10058,"Ġdrafts":10059,"Ġreveals":10060,"Ġvigorously":10061,"Ġevolutionary":10062,"Ġfortunately":10063,"Ġimprisoned":10064,"Ġtaste":10065,"Ġderogation":10066,"Ġtrigger":10067,"Ġdisproportionate":10068,"Ġfrattini":10069,"Ġreciprocity":10070,"Ġasymmet":10071,"Ġengines":10072,"Ġtie":10073,"Ġtends":10074,"Ġsis":10075,"Ġsessions":10076,"Ġcrop":10077,"Ġpione":10078,"Ġbans":10079,"Ġfits":10080,"ali":10081,"roach":10082,"urances":10083,"essed":10084,"cipe":10085,"Ġwors":10086,"Ġimply":10087,"Ġcounting":10088,"Ġquart":10089,"Ġdisability":10090,"Ġtrap":10091,"Ġinvisible":10092,"Ġlaundering":10093,"Ġcarib":10094,"Ġreasoning":10095,"Ġgrid":10096,"Ġblocking":10097,"Ġ46":10098,"afi":10099,"Ġtennis":10100,"Ġlinking":10101,"Ġreligions":10102,"Ġrichest":10103,"namo":10104,"Ġallocate":10105,"Ġreplacing":10106,"Ã¡namo":10107,"Ġlaboratory":10108,"Ġbombing":10109,"born":10110,"Ġexemptions":10111,"Ġfortune":10112,"Ġracist":10113,"incre":10114,"Ġfruitful":10115,"Ġundermines":10116,"Ġdeliberate":10117,"Ġcommodities":10118,"Ġcomplementary":10119,"Ġchampions":10120,"Ġsteadily":10121,"Ġdismantling":10122,"Ġfrozen":10123,"Ġgathered":10124,"cultural":10125,"dis":10126,"fts":10127,"fund":10128,"high":10129,"prom":10130,"vo":10131,"vian":10132,"ĠÂ":10133,"Ġthri":10134,"Ġhorm":10135,"Ġdu":10136,"Ġdwell":10137,"Ġrehab":10138,"Ġalign":10139,"rav":10140,"orted":10141,"Ġenlight":10142,"istically":10143,"Ġcanc":10144,"Ġactor":10145,"Ġobesity":10146,"Ġoffensive":10147,"athy":10148,"Ġguided":10149,"Ġreadiness":10150,"Ġbalances":10151,"Ġelabor":10152,"Ġ43":10153,"Ġexpressly":10154,"Ġvisits":10155,"Ġslower":10156,"Ġwinner":10157,"Ġshipy":10158,"Ġterrif":10159,"Ġgrandmother":10160,"Ġparalys":10161,"harov":10162,"Ġvessel":10163,"amendments":10164,"Ġmercosur":10165,"Ġfortunate":10166,"Ġunderestim":10167,"Ġcypriot":10168,"Ġambassador":10169,"Ġtemptation":10170,"Ġzeal":10171,"international":10172,"Ġgirlfriend":10173,"ao":10174,"mun":10175,"map":10176,"ores":10177,"inform":10178,"Ġwil":10179,"Ġmol":10180,"Ġhitherto":10181,"Ġreimb":10182,"Ġgro":10183,"chet":10184,"Ġnets":10185,"Ġven":10186,"weight":10187,"oda":10188,"Ġabd":10189,"Ġadmission":10190,"Ġups":10191,"Ġmano":10192,"licity":10193,"Ġconcert":10194,"Ġunderground":10195,"Ġworlds":10196,"Ġboats":10197,"itely":10198,"Ġdiscrep":10199,"Ġsecured":10200,"Ġlifet":10201,"Ġconditional":10202,"Ġadvise":10203,"Ġliberation":10204,"Ġexpectation":10205,"Ġbaroness":10206,"Ġindividually":10207,"Ġmidst":10208,"Ġgrade":10209,"Ġsuggesting":10210,"Ġcircles":10211,"Ġantibi":10212,"Ġtourists":10213,"Ġlaunching":10214,"Ġbloody":10215,"Ġcooperating":10216,"Ġsimplifying":10217,"Ġboss":10218,"Ġliterature":10219,"Ġprecedence":10220,"Ġdeployment":10221,"Ġevolve":10222,"thesis":10223,"Ġsuspected":10224,"Ġunhappy":10225,"Ġinsect":10226,"Ġsakharov":10227,"Ġumbrella":10228,"quarters":10229,"Ġcaribbean":10230,"15":10231,"pes":10232,"vard":10233,"Äį":10234,"anen":10235,"Ġmud":10236,"Ġgear":10237,"ortions":10238,"gered":10239,"Ġsemin":10240,"Ġdozen":10241,"Ġkal":10242,"Ġquo":10243,"Ġexpon":10244,"Ġspur":10245,"Ġprovin":10246,"Ġdirectors":10247,"lows":10248,"petition":10249,"racted":10250,"Ġimproves":10251,"Ġallowances":10252,"Ġwelcoming":10253,"Ġequation":10254,"Ġpopulated":10255,"Ġsinging":10256,"Ġoldest":10257,"Ġboring":10258,"euv":10259,"Ġjudgments":10260,"Ġversions":10261,"crimin":10262,"Ġbiom":10263,"Ġdenomin":10264,"Ġimagined":10265,"erential":10266,"Ã¡vez":10267,"Ġdynamics":10268,"Ġhurric":10269,"Ġstopping":10270,"Ġforgive":10271,"Ġfrequency":10272,"Ġrender":10273,"Ġinefficient":10274,"Ġintensify":10275,"Ġpoettering":10276,"Ġclinical":10277,"Ġsymptoms":10278,"ĠguantÃ¡namo":10279,"Ġconjunction":10280,"Ġcatastrophic":10281,"Ġrehabilit":10282,"Ġmanoeuv":10283,"don":10284,"uy":10285,"Ġwolf":10286,"orically":10287,"Ġdg":10288,"Ġnas":10289,"Ġstol":10290,"Ġconvert":10291,"Ġunav":10292,"Ġseed":10293,"Ġparame":10294,"conf":10295,"Ġcountless":10296,"abul":10297,"Ġplot":10298,"auer":10299,"Ġsymmet":10300,"Ġcourses":10301,"Ġkeys":10302,"ictions":10303,"Ġbananas":10304,"Ġlegislators":10305,"Ġawful":10306,"Ġsuffers":10307,"Ġhearings":10308,"Ġindicator":10309,"Ġcodes":10310,"Ġanalyses":10311,"Ġrestriction":10312,"Ġdeclined":10313,"culosis":10314,"exper":10315,"Ġdimensional":10316,"Ġcleaner":10317,"Ġhostage":10318,"Ġderived":10319,"turning":10320,"Ġpensioners":10321,"Ġfatal":10322,"Ġvillages":10323,"Ġcorresponds":10324,"Ġsuspension":10325,"Ġparadig":10326,"Ġeradicate":10327,"Ġcotton":10328,"Ġaxis":10329,"uberculosis":10330,"Ġtheoretical":10331,"concerning":10332,"Ġazerbaijan":10333,"big":10334,"gers":10335,"kest":10336,"mese":10337,"real":10338,"Ġef":10339,"Ġuen":10340,"uts":10341,"Ġhaul":10342,"Ġalt":10343,"Ġuncond":10344,"imer":10345,"Ġaging":10346,"Ġabide":10347,"umers":10348,"Ġpredom":10349,"Ġthemes":10350,"Ġdecomm":10351,"Ġsupportive":10352,"Ġoverse":10353,"Ġclust":10354,"Ġinternally":10355,"angle":10356,"Ġmood":10357,"Ġprince":10358,"Ġneglig":10359,"ountered":10360,"Ġphones":10361,"Ġcorrid":10362,"Ġwishing":10363,"Ġsummits":10364,"Ġappeals":10365,"Ġencountered":10366,"Ġheadquarters":10367,"Ġburst":10368,"Ġburmese":10369,"Ġcontempt":10370,"someone":10371,"Ġrecommends":10372,"Ġsanction":10373,"Ġrepublican":10374,"Ġhistorically":10375,"cules":10376,"Ġspiritual":10377,"Ġbattery":10378,"Ġdynamism":10379,"Ġaccompanying":10380,"Ġtibetan":10381,"Ġprofoundly":10382,"Ġfingers":10383,"Ġenvisage":10384,"Ġswiftly":10385,"Ġqueen":10386,"Ġinconven":10387,"Ġmunicip":10388,"Ġpregnant":10389,"Ġencounter":10390,"Ġcoexistence":10391,"Ġgambling":10392,"Ġhabits":10393,"protect":10394,"Ġkazakhstan":10395,"Ġdecommission":10396,"hann":10397,"Ġtuberculosis":10398,"Ġthrust":10399,"Ġamp":10400,"rese":10401,"isations":10402,"Ġpair":10403,"Ġrecipe":10404,"Ġlamp":10405,"Ġhaw":10406,"Ġarena":10407,"Ġasp":10408,"Ġparamount":10409,"Ġheed":10410,"aks":10411,"Ġreprodu":10412,"Ġnose":10413,"members":10414,"Ġfees":10415,"Ġserbs":10416,"Ġoverr":10417,"Ġoffence":10418,"Ġsubordin":10419,"Ġdiscred":10420,"Ġdiscoura":10421,"Ġattending":10422,"Ġassigned":10423,"Ġrestoring":10424,"Ġoppression":10425,"Ġexpectancy":10426,"Ġrecognising":10427,"Ġentirety":10428,"Ġpotato":10429,"Ġhearts":10430,"Ġwaited":10431,"Ġmultilingual":10432,"Ġrejects":10433,"Ġsupermar":10434,"Ġlayer":10435,"Ġunfold":10436,"Ġstrengthens":10437,"Ġsweep":10438,"Ġreplacement":10439,"Ġsleeping":10440,"Ġchapters":10441,"Ġcornerstone":10442,"Ġfascinating":10443,"Ġimprisonment":10444,"Ġderogations":10445,"Ġnazi":10446,"Ġperipheral":10447,"Ġimpartial":10448,"kestein":10449,"Ġpredomin":10450,"research":10451,"eken":10452,"ii":10453,"ias":10454,"ports":10455,"sc":10456,"uated":10457,"vial":10458,"vention":10459,"wash":10460,"inent":10461,"Ġcats":10462,"Ġpending":10463,"Ġtoy":10464,"Ġfru":10465,"Ġfile":10466,"arraf":10467,"Ġmelt":10468,"Ġatroc":10469,"Ġchronic":10470,"ometer":10471,"simp":10472,"Ġtruck":10473,"heres":10474,"Ġinvention":10475,"Ġdefer":10476,"Ġscra":10477,"Ġscri":10478,"Ġscul":10479,"Ġrises":10480,"Ġcorn":10481,"Ġletting":10482,"Ġdistortion":10483,"Ġsupplied":10484,"Ġshorter":10485,"Ġcredits":10486,"Ġimpacts":10487,"Ġpackages":10488,"Ġredress":10489,"Ġhunting":10490,"Ġpainting":10491,"Ġspeedy":10492,"Ġenormously":10493,"Ġphotos":10494,"consumers":10495,"Ġlicences":10496,"Ġdirectorate":10497,"Ġmotivation":10498,"Ġkilometers":10499,"Ġpassionate":10500,"Ġscandalous":10501,"Ġunreason":10502,"Ġanticipated":10503,"Ġdiversification":10504,"Ġcontempl":10505,"Ġairplane":10506,"Ġcofinancing":10507,"Ġdreadful":10508,"Ġignorance":10509,"Ġdoctrine":10510,"Ġdeputy":10511,"Ġnonsense":10512,"Ġkurds":10513,"Ġstolen":10514,"iated":10515,"mn":10516,"zbe":10517,"anz":10518,"Ġbin":10519,"Ġeld":10520,"Ġgm":10521,"Ġgol":10522,"opoul":10523,"Ġate":10524,"Ġimpressed":10525,"Ġreproductive":10526,"six":10527,"dec":10528,"agement":10529,"ignific":10530,"Ġfeared":10531,"actually":10532,"Ġreminder":10533,"Ġ2050":10534,"Ġequitable":10535,"Ġblat":10536,"finan":10537,"Ġannan":10538,"Ġemphasized":10539,"Ġdesigners":10540,"Ġdestination":10541,"Ġstops":10542,"Ġreflecting":10543,"Ġsalt":10544,"Ġconstructed":10545,"oboda":10546,"Ġqualitative":10547,"Ġobstruct":10548,"Ġreacted":10549,"Ġwidening":10550,"Ġphilipp":10551,"Ġaggreg":10552,"Ġalbanian":10553,"Ġinjury":10554,"Ġbolkestein":10555,"Ġirrelev":10556,"Ġdanube":10557,"emocratic":10558,"Ġconsciousness":10559,"Ġcontamination":10560,"Ġmisunderstanding":10561,"Ġpockets":10562,"energy":10563,"Ġentertainment":10564,"Ġquartet":10565,"din":10566,"tt":10567,"va":10568,"vy":10569,"vin":10570,"Ġsar":10571,"orable":10572,"idal":10573,"Ġnepal":10574,"Ġunilaterally":10575,"Ġabused":10576,"Ġabbas":10577,"Ġupgra":10578,"Ġmankind":10579,"Ġteen":10580,"things":10581,"Ġovernight":10582,"Ġfactories":10583,"Ġlaeken":10584,"Ġsignatures":10585,"Ġcairo":10586,"Ġimmune":10587,"Ġswoboda":10588,"Ġtrig":10589,"Ġlowering":10590,"Ġopposing":10591,"thodox":10592,"apped":10593,"Ġrepeating":10594,"Ġembod":10595,"Ġrichard":10596,"Ġwinners":10597,"Ġspiral":10598,"Ġquoted":10599,"Ġcondemning":10600,"Ġsurvived":10601,"Ġlukash":10602,"Ġdrinks":10603,"Ġgrandfather":10604,"Ġbelonging":10605,"Ġcastro":10606,"Ġreiterated":10607,"Ġselective":10608,"Ġvaccination":10609,"Ġboliv":10610,"Ġdisplayed":10611,"Ġclubs":10612,"Ġmolecules":10613,"Ġsmell":10614,"Ġcomfortable":10615,"Ġtactics":10616,"Ġoverlooked":10617,"Ġecosystems":10618,"Ġinjustice":10619,"Ġcontroversy":10620,"Ġlanka":10621,"elect":10622,"mid":10623,"prog":10624,"Ġsam":10625,"Ġpas":10626,"Ġfier":10627,"Ġhoney":10628,"Ġhiding":10629,"Ġdust":10630,"rose":10631,"Ġreception":10632,"Ġbees":10633,"lywood":10634,"urate":10635,"Ġstro":10636,"Ġdeeds":10637,"Ġcommem":10638,"operation":10639,"uss":10640,"contin":10641,"Ġquit":10642,"rup":10643,"Ġrecourse":10644,"Ġindul":10645,"Ġmini":10646,"Ġadditives":10647,"Ġmaur":10648,"Ġaftermath":10649,"Ġelectron":10650,"Ġindefin":10651,"Ġinsol":10652,"cule":10653,"parts":10654,"Ġapproached":10655,"Ġtrivial":10656,"Ġprofessions":10657,"Ġpassive":10658,"Ġcharles":10659,"Ġdestiny":10660,"Ġmasses":10661,"lson":10662,"space":10663,"Ġignoring":10664,"Ġsurprisingly":10665,"Ġrend":10666,"Ġaggression":10667,"Ġballot":10668,"Ġpiracy":10669,"Ġpredictable":10670,"Ġpreferential":10671,"Ġpersuaded":10672,"Ġvaccines":10673,"Ġguardian":10674,"addafi":10675,"Ġnurt":10676,"Ġdeposit":10677,"Ġjacques":10678,"Ġfrancis":10679,"Ġspectacular":10680,"hannes":10681,"Ġtune":10682,"Ġtenth":10683,"Ġinner":10684,"icable":10685,"throp":10686,"Ġrelying":10687,"Ġyen":10688,"Ġalert":10689,"Ġexit":10690,"Ġexcise":10691,"Ġvicious":10692,"ĠâĢĶ":10693,"Ġimpover":10694,"Ġku":10695,"Ġpla":10696,"ema":10697,"Ġrivers":10698,"Ġincin":10699,"Ġtimber":10700,"dez":10701,"tel":10702,"Ġcogn":10703,"Ġconsp":10704,"meas":10705,"Ġpossel":10706,"ogen":10707,"Ġray":10708,"ubar":10709,"Ġinval":10710,"Ġagreeing":10711,"Ġrefuses":10712,"Ġcurtain":10713,"Ġcurtail":10714,"Ġsolv":10715,"Ġscour":10716,"Ġinteroper":10717,"Ġdrag":10718,"Ġearned":10719,"Ġintroduces":10720,"atah":10721,"Ġmisery":10722,"equally":10723,"Ġspecialist":10724,"mployment":10725,"Ġembass":10726,"Ġseparately":10727,"Ġbulk":10728,"Ġtourist":10729,"Ġexpenditures":10730,"Ġtaxpayer":10731,"Ġprosecution":10732,"Ġwindows":10733,"Ġbreathe":10734,"Ġillustrates":10735,"Ġclients":10736,"Ġshaping":10737,"Ġcensure":10738,"Ġbesides":10739,"Ġspeculative":10740,"Ġscarcely":10741,"Ġtacis":10742,"Ġexemplary":10743,"Ġassuming":10744,"Ġwondered":10745,"Ġdivorce":10746,"Ġpornography":10747,"financial":10748,"Ġtriggered":10749,"Ġposselt":10750,"acio":10751,"bted":10752,"produ":10753,"rational":10754,"rez":10755,"Ġsided":10756,"icular":10757,"Ġninet":10758,"Ġprox":10759,"Ġproving":10760,"Ġneu":10761,"quit":10762,"ĠrÃ¼":10763,"Ġorte":10764,"abet":10765,"ultimately":10766,"Ġcoin":10767,"Ġmarking":10768,"Ġspell":10769,"Ġspends":10770,"angered":10771,"Ġendangered":10772,"Ġassurances":10773,"Ġtalent":10774,"Ġbrink":10775,"Ġprocessed":10776,"Ġforefront":10777,"Ġimminent":10778,"Ġ47":10779,"Ġopted":10780,"Ġindependently":10781,"Ġdoubled":10782,"Ġcoordinator":10783,"Ġroadmap":10784,"Ġsenate":10785,"Ġqualities":10786,"Ġsafely":10787,"Ġphysically":10788,"Ġpreferable":10789,"Ġstimulating":10790,"Ġoccasionally":10791,"Ġpleasant":10792,"Ġboosting":10793,"2001":10794,"Ġsurrounded":10795,"Ġcameras":10796,"Ġacknowledges":10797,"Ġexceeded":10798,"Ġinspire":10799,"Ġslovenian":10800,"Ġbubbles":10801,"Ġmanipulation":10802,"basically":10803,"Ġdesperately":10804,"Ġsteady":10805,"Ġrecruitment":10806,"Ġautomobile":10807,"Ġfairer":10808,"Ġoverseas":10809,"Ġsculpt":10810,"zbek":10811,"ubarak":10812,"ser":10813,"tan":10814,"usions":10815,"reck":10816,"Ġsab":10817,"Ġnaked":10818,"Ġgreed":10819,"pered":10820,"raction":10821,"theast":10822,"oping":10823,"Ġvain":10824,"Ġintra":10825,"Ġadvers":10826,"Ġmann":10827,"Ġdecoup":10828,"Ġovert":10829,"Ġovercoming":10830,"Ġload":10831,"Ġloose":10832,"Ġrelatives":10833,"Ġassign":10834,"Ġservants":10835,"Ġindebted":10836,"Ġnegotiators":10837,"Ġseemingly":10838,"Ġestablishes":10839,"Ġpasses":10840,"Ġeleven":10841,"Ġpalacio":10842,"Ġcycl":10843,"Ġilo":10844,"Ġtrusted":10845,"camb":10846,"Ġadapting":10847,"Ġharvard":10848,"Ġappealing":10849,"Ġproportionality":10850,"Ġscandals":10851,"Ġincomplete":10852,"Ġepis":10853,"Ġprohibit":10854,"Ġdubious":10855,"Ġfranco":10856,"Ġcertification":10857,"Ġabsorb":10858,"Ġvegetable":10859,"Ġofficer":10860,"Ġallegations":10861,"Ġforbidden":10862,"Ġunresolved":10863,"Ġlukashenko":10864,"Ġortega":10865,"een":10866,"either":10867,"mir":10868,"mail":10869,"Ġtrop":10870,"Ġmism":10871,"Ġfert":10872,"Ġdens":10873,"Ġbell":10874,"Ġgy":10875,"Ġforge":10876,"Ġuncontro":10877,"Ġdozens":10878,"ĠchÃ¡vez":10879,"amble":10880,"Ġabdu":10881,"ocaust":10882,"Ġfines":10883,"Ġthematic":10884,"Ġpercept":10885,"Ġcloud":10886,"Ġtransaction":10887,"Ġminors":10888,"Ġcontinuously":10889,"Ġbuff":10890,"Ġideals":10891,"Ġdealings":10892,"Ġblan":10893,"Ġbenefiting":10894,"withstanding":10895,"Ġexpresses":10896,"cooperation":10897,"Ġmetal":10898,"Ġsentenced":10899,"Ġarabs":10900,"Ġexported":10901,"Ġexporters":10902,"Ġkidn":10903,"Ġpretend":10904,"Ġbatteries":10905,"ĠwallstrÃ¶m":10906,"Ġfastest":10907,"Ġshoot":10908,"Ġpulled":10909,"Ġvigorous":10910,"Ġmargins":10911,"Ġboxes":10912,"Ġsynthetic":10913,"Ġdarwin":10914,"Ġunequal":10915,"Ġproteins":10916,"Ġdismissed":10917,"Ġbreeding":10918,"Ġstagnation":10919,"Ġsquee":10920,"fat":10921,"garian":10922,"iably":10923,"rality":10924,"try":10925,"Ġomission":10926,"Ġpitch":10927,"Ġbric":10928,"ional":10929,"omas":10930,"Ġwet":10931,"Ġstere":10932,"versible":10933,"Ġorthodox":10934,"Ġkash":10935,"Ġacid":10936,"agan":10937,"lick":10938,"Ġunderlines":10939,"ounding":10940,"Ġspr":10941,"ighter":10942,"Ġguiding":10943,"Ġinforming":10944,"Ġbrush":10945,"Ġinterior":10946,"Ġconvictions":10947,"letion":10948,"Ġreaches":10949,"Ġhardest":10950,"Ġdesignated":10951,"Ġreding":10952,"Ġdenial":10953,"Ġclassic":10954,"Ġclassroom":10955,"Ġstrain":10956,"Ġoccupying":10957,"few":10958,"Ġattaches":10959,"Ġashamed":10960,"Ġnavigation":10961,"Ġpledged":10962,"Ġahmad":10963,"Ġexhausted":10964,"Ġfragmented":10965,"forestation":10966,"Ġinconsistent":10967,"Ġforeseeable":10968,"Ġmetaphor":10969,"Ġlobbying":10970,"currently":10971,"Ġprostitution":10972,"Ġlifetime":10973,"Ġphilippines":10974,"cular":10975,"five":10976,"kh":10977,"ras":10978,"Ġaus":10979,"Ġsle":10980,"itan":10981,"Ġbones":10982,"Ġtoll":10983,"Ġfatah":10984,"Ġgon":10985,"Ġlama":10986,"otive":10987,"otics":10988,"Ġford":10989,"ulsion":10990,"illa":10991,"Ġunc":10992,"Ġaged":10993,"Ġreserved":10994,"Ġadam":10995,"Ġcontest":10996,"Ġoutright":10997,"redict":10998,"Ġtooth":10999,"Ġextends":11000,"Ġlaure":11001,"Ġcontinents":11002,"Ġdrain":11003,"Ġmode":11004,"Ġdepressed":11005,"Ġrests":11006,"Ġmilest":11007,"rett":11008,"Ġmeanwhile":11009,"Ġshortages":11010,"Ġbarrel":11011,"Ġretreat":11012,"whereas":11013,"afric":11014,"Ġgreet":11015,"Ġcohn":11016,"Ġeuratom":11017,"Ġimposition":11018,"Ġrooms":11019,"instein":11020,"john":11021,"Ġharmonising":11022,"Ġbulgarian":11023,"Ġprisoner":11024,"Ġcharacteristic":11025,"Ġcomplac":11026,"Ġinadequ":11027,"Ġsacred":11028,"Ġcontradictions":11029,"Ġholocaust":11030,"Ġillustrate":11031,"Ġextremist":11032,"Ġcaptured":11033,"Ġendeavours":11034,"Ġceasefire":11035,"Ġanticipate":11036,"Ġaccommodate":11037,"Ġcultivation":11038,"Ġreversed":11039,"small":11040,"Ġarmenia":11041,"Ġdeplore":11042,"Ġtherapy":11043,"Ġparameters":11044,"Ġinteroperability":11045,"bl":11046,"Ġmouse":11047,"Ġmaps":11048,"Ġfiction":11049,"Ġrewards":11050,"otal":11051,"Ġstir":11052,"rium":11053,"Ġshy":11054,"Ġsever":11055,"Ġdoomed":11056,"Ġaller":11057,"Ġhey":11058,"Ġkat":11059,"acity":11060,"Ġdisgu":11061,"iel":11062,"Ġevasion":11063,"Ġlegality":11064,"Ġjohannes":11065,"Ġendless":11066,"Ġturbul":11067,"Ġtransposed":11068,"Ġformulate":11069,"Ġauthent":11070,"Ġnatura":11071,"Ġtaj":11072,"Ġinsurg":11073,"Ġlesser":11074,"Ġresemb":11075,"Ġchallenged":11076,"Ġvoiced":11077,"Ġdependency":11078,"Ġhighlighting":11079,"Ġcounterparts":11080,"Ġmigrant":11081,"Ġ140":11082,"Ġ130":11083,"Ġhitler":11084,"elson":11085,"Ġadjusted":11086,"Ġengineer":11087,"Ġadvocating":11088,"Ġdecisively":11089,"arios":11090,"Ġscenarios":11091,"Ġrecipient":11092,"Ġfluct":11093,"Ġaccelerated":11094,"Ġcfp":11095,"Ġpledge":11096,"support":11097,"Ġcontaminated":11098,"Ġambiguity":11099,"Ġdetained":11100,"Ġbranch":11101,"Ġgalaxy":11102,"Ġunequivocal":11103,"Ġsecrecy":11104,"Ġgnp":11105,"cambridge":11106,"fra":11107,"nesty":11108,"umber":11109,"Ġarose":11110,"rea":11111,"Ġcu":11112,"Ġpn":11113,"Ġbund":11114,"Ġbendit":11115,"Ġanonym":11116,"Ġhits":11117,"around":11118,"uting":11119,"Ġpromp":11120,"erers":11121,"weg":11122,"Ġlecture":11123,"amin":11124,"Ġji":11125,"const":11126,"umes":11127,"Ġcoach":11128,"Ġmaternity":11129,"Ġcurb":11130,"Ġquestioned":11131,"Ġrealism":11132,"Ġattent":11133,"Ġprotective":11134,"Ġemployee":11135,"Ġreadily":11136,"Ġ52":11137,"Ġdistress":11138,"Ġfamine":11139,"Ġexpects":11140,"Ġviolate":11141,"Ġvaried":11142,"Ġcivic":11143,"Ġcircu":11144,"Ġdamages":11145,"Ġembed":11146,"Ġundemocratic":11147,"Ġvirgin":11148,"Ġhorror":11149,"iki":11150,"Ġenjoying":11151,"Ġtraveling":11152,"Ġoccupy":11153,"Ġreferenda":11154,"Ġattracted":11155,"Ġranks":11156,"Ġlebanese":11157,"Ġinfection":11158,"Ġdistinguished":11159,"Ġrelocation":11160,"Ġhypocrit":11161,"Ġauction":11162,"Ġpredecessor":11163,"Ġhedge":11164,"Ġdalai":11165,"Ġalleviate":11166,"Ġextradition":11167,"Ġdeficiencies":11168,"Ġorchest":11169,"Ġunavoid":11170,"ael":11171,"brit":11172,"dated":11173,"faced":11174,"fold":11175,"ole":11176,"wing":11177,"onou":11178,"Ġcited":11179,"itting":11180,"Ġbills":11181,"Ġmubarak":11182,"Ġhub":11183,"Ġnab":11184,"Ġreef":11185,"Ġrethink":11186,"Ġgay":11187,"Ġlen":11188,"Ġwhist":11189,"Ġstun":11190,"Ġdeaf":11191,"Ġasleep":11192,"Ġeurojust":11193,"Ġparking":11194,"estyle":11195,"Ġchad":11196,"odes":11197,"Ġjos":11198,"ardo":11199,"Ġrepressive":11200,"Ġconcerted":11201,"Ġspa":11202,"Ġcommitting":11203,"Ġrelaunch":11204,"ratory":11205,"Ġextin":11206,"Ġlifestyle":11207,"Ġorganize":11208,"Ġirrational":11209,"Ġmorality":11210,"Ġpassage":11211,"Ġchecking":11212,"Ġmaintains":11213,"Ġeventual":11214,"Ġdenying":11215,"Ġdegrad":11216,"Ġdiplomats":11217,"Ã¶r":11218,"Ġimplicit":11219,"Ġcatches":11220,"Ġjudgement":11221,"Ġshameful":11222,"Ġdemonstrators":11223,"Ġinfringements":11224,"Ġdisturb":11225,"better":11226,"between":11227,"Ġprivatisation":11228,"Ġcotonou":11229,"Ġimperialist":11230,"iosity":11231,"Ġcabinet":11232,"Ġwarnings":11233,"Ġrocket":11234,"Ġuganda":11235,"Ġsynergy":11236,"Ġmusharraf":11237,"Ġredistribution":11238,"Ġderivatives":11239,"Ãºn":11240,"Ġrehabilitation":11241,"Ġirrelevant":11242,"Ġnineteenth":11243,"aven":11244,"cop":11245,"culate":11246,"gor":11247,"je":11248,"oons":11249,"Ġtheater":11250,"Ġtheories":11251,"oni":11252,"enlarge":11253,"Ġozone":11254,"anne":11255,"Ġbern":11256,"Ġdressed":11257,"olas":11258,"igration":11259,"Ġrepay":11260,"Ġpeters":11261,"occup":11262,"heimer":11263,"Ġracial":11264,"Ġspill":11265,"Ġbother":11266,"undi":11267,"taining":11268,"itement":11269,"Ġdiscl":11270,"Ġturmo":11271,"Ġinterl":11272,"Ġlegislate":11273,"Ġeste":11274,"Ġfavoured":11275,"engu":11276,"Ġpeacekeeping":11277,"Ġretention":11278,"Ġstandardisation":11279,"Ġhomeland":11280,"Ġexplos":11281,"Ġvisiting":11282,"Ġheadlines":11283,"Ġerasmus":11284,"azz":11285,"Ġselfish":11286,"Ġautoc":11287,"Ġtempor":11288,"Ġcounterp":11289,"Ġdescribes":11290,"Ġblackmail":11291,"Ġhorri":11292,"Ġhitting":11293,"Ġconversion":11294,"Ġmemories":11295,"Ġangle":11296,"Ġmanufacturer":11297,"Ġreservation":11298,"Ġdissatisf":11299,"Ġolympics":11300,"Ġincidentally":11301,"Ġcensorship":11302,"viol":11303,"Ġproclaimed":11304,"limited":11305,"Ġscottish":11306,"Ġmalaysia":11307,"Ġatrocities":11308,"Ġunreasonable":11309,"Ġturmoil":11310,"aired":11311,"gree":11312,"lining":11313,"mill":11314,"Ġari":11315,"Ġolig":11316,"anmar":11317,"Ġmile":11318,"arat":11319,"Ġreintrodu":11320,"sts":11321,"Ġlion":11322,"Ġuzbek":11323,"Ġsty":11324,"Ġdelete":11325,"Ġvlad":11326,"Ġjames":11327,"Ġko":11328,"Ġoutdated":11329,"Ġcomposed":11330,"Ġinclined":11331,"Ġworkable":11332,"Ġteles":11333,"Ġarray":11334,"Ġobli":11335,"Ġsubmission":11336,"Ġhumili":11337,"Ġconfusing":11338,"Ġdefect":11339,"Ġempower":11340,"Ġassent":11341,"Ġscream":11342,"Ġstandpoint":11343,"Ġdownward":11344,"beyond":11345,"Ġ39":11346,"Ġphare":11347,"Ġinsists":11348,"Ġconvicted":11349,"Ġconsuming":11350,"Ġlocally":11351,"Ġburned":11352,"Ġproperties":11353,"Ġ2014":11354,"Ġemerges":11355,"Ġassisting":11356,"Ġportra":11357,"Ġinfluential":11358,"Ġobligatory":11359,"Ġclassified":11360,"Ġclassification":11361,"Ġdeadlock":11362,"Ġsupervis":11363,"Ġgraduate":11364,"Ġtendencies":11365,"Ġdominate":11366,"Ġtighten":11367,"gener":11368,"Ġdisadvantages":11369,"Ġprivileges":11370,"Ġnuts":11371,"Ġicc":11372,"ÃŃn":11373,"Ġsahara":11374,"Ġexercised":11375,"Ġpandemic":11376,"various":11377,"Ġemphatically":11378,"terrorism":11379,"Ġauthentic":11380,"enlargement":11381,"citiz":11382,"ez":11383,"eba":11384,"oa":11385,"pers":11386,"rne":11387,"Ġthrew":11388,"Ġslu":11389,"Ġhanging":11390,"icago":11391,"stein":11392,"Ġgates":11393,"Ġstub":11394,"Ġhamp":11395,"Ġaltered":11396,"Ġunle":11397,"Ġunthink":11398,"Ġshore":11399,"Ġseized":11400,"Ġjim":11401,"Ġkla":11402,"llers":11403,"Ġincumb":11404,"izar":11405,"Ġramp":11406,"vedev":11407,"Ġcurric":11408,"Ġentrust":11409,"Ġassad":11410,"Ġmodes":11411,"uclear":11412,"Ġblamed":11413,"Ġcompleting":11414,"Ġdistances":11415,"Ġlabels":11416,"Ġrecognizing":11417,"Ġzo":11418,"Ġholders":11419,"Ġgeared":11420,"ushch":11421,"Ġdevised":11422,"Ġhugely":11423,"regrett":11424,"Ġpressed":11425,"Ġtraffick":11426,"Ġstriving":11427,"Ġrenewables":11428,"ieties":11429,"Ġmandelson":11430,"Ġinvestigating":11431,"Ġarriving":11432,"Ġclaiming":11433,"Ġchemistry":11434,"Ġderive":11435,"Ġaggrav":11436,"Ġimperfect":11437,"Ġmobilise":11438,"particular":11439,"related":11440,"Ġattendance":11441,"Ġintensity":11442,"Ġvacation":11443,"Ġphotographs":11444,"Ġentrepreneurship":11445,"Ġeradication":11446,"specif":11447,"Ġfoolish":11448,"Ġcounterfeit":11449,"Ġsuperflu":11450,"foot":11451,"Ġantibiotics":11452,"Ġmanoeuvre":11453,"Ġpnr":11454,"citizens":11455,"regrettably":11456,"bg":11457,"grow":11458,"pat":11459,"upp":11460,"zheimer":11461,"Ĥ¬":11462,"Ġthro":11463,"atibility":11464,"Ġcia":11465,"Ġcite":11466,"Ġpound":11467,"Ġmam":11468,"educ":11469,"ilib":11470,"Ġgsp":11471,"Ġgolf":11472,"Ġlul":11473,"Ġlud":11474,"Ġlone":11475,"Ġlord":11476,"Ġlock":11477,"peace":11478,"iration":11479,"Ġunden":11480,"imir":11481,"Ġbyrne":11482,"Ġcharity":11483,"Ġrank":11484,"Ġcanad":11485,"Ġjam":11486,"Ġheated":11487,"Ġorph":11488,"Ġadjour":11489,"Ġplun":11490,"Ġmyanmar":11491,"nowadays":11492,"Ġpoly":11493,"Ġmarsh":11494,"Ġspots":11495,"Ġtwin":11496,"Ġconfed":11497,"Ġsocialism":11498,"Ġapproving":11499,"owners":11500,"Ġhopeful":11501,"Ġpowerless":11502,"Ġcondol":11503,"Ġrestraint":11504,"thenburg":11505,"Ġvisibility":11506,"Ġcombining":11507,"Ġmindset":11508,"Ġmiser":11509,"Ġmotives":11510,"Ġargues":11511,"Ġwaiver":11512,"Ġprobability":11513,"Ġfigured":11514,"Ġimmigrant":11515,"Ġcrossed":11516,"Ġindicating":11517,"Ġdenounce":11518,"tomorrow":11519,"Ġfox":11520,"Ġigno":11521,"Ġunders":11522,"Ġdrunk":11523,"Ġsunni":11524,"Ġcrude":11525,"Ġmanufactured":11526,"Ġfeedback":11527,"oints":11528,"Ġsharon":11529,"Ġgeography":11530,"burgh":11531,"atoeba":11532,"Ġtightening":11533,"Ġfertil":11534,"Ġaccurately":11535,"Ġmobilisation":11536,"Ġchurches":11537,"ĠâĤ¬":11538,"Ġdefeated":11539,"Ġintensified":11540,"Ġnutrition":11541,"Ġupdated":11542,"Ġunpredict":11543,"Ġconversations":11544,"Ġcypriots":11545,"Ġrevolutions":11546,"Ġhesitate":11547,"Ġegf":11548,"Ġsocrates":11549,"Ġcorrection":11550,"Ġassassination":11551,"Ġsmuggling":11552,"Ġharassment":11553,"hopefully":11554,"Ġkilometres":11555,"Ġparadigm":11556,"Ġjohannesburg":11557,"Ġcounterproductive":11558,"Ġsuperfluous":11559,"aurs":11560,"case":11561,"dad":11562,"freedom":11563,"gone":11564,"mare":11565,"sing":11566,"ints":11567,"Ġcres":11568,"Ġbible":11569,"Ġunlimited":11570,"Ġgothenburg":11571,"Ġhege":11572,"enders":11573,"access":11574,"aculture":11575,"Ġpeter":11576,"eman":11577,"agog":11578,"Ġpreach":11579,"Ġprerog":11580,"Ġpope":11581,"okes":11582,"Ġbetra":11583,"Ġrains":11584,"Ġundergoing":11585,"Ġfee":11586,"Ġinstinct":11587,"Ġresponds":11588,"lude":11589,"Ġcarl":11590,"Ġpowered":11591,"Ġsignature":11592,"Ġmeda":11593,"Ġpreval":11594,"Ġinflows":11595,"Ġfraction":11596,"Ġschmid":11597,"Ġsheets":11598,"Ġrevive":11599,"Ġdrives":11600,"ometric":11601,"Ġverification":11602,"Ġdevise":11603,"Ġflash":11604,"Ġcycles":11605,"Ġmodernise":11606,"Ġcleared":11607,"Ġclassical":11608,"Ġarafat":11609,"Ġstepping":11610,"Ġhygi":11611,"ustomed":11612,"Ġslogan":11613,"Ġcomplained":11614,"Ġcleaning":11615,"Ġvisitors":11616,"tax":11617,"Ġterribly":11618,"Ġcompelling":11619,"Ġspokes":11620,"sky":11621,"Ġgeorgian":11622,"Ġconceal":11623,"Ġscandina":11624,"Ġholes":11625,"Ġolive":11626,"Ġadmire":11627,"Ġdecreased":11628,"Ġbreaches":11629,"Ġirreversible":11630,"Ġmurders":11631,"Ġheroes":11632,"Ġredundancies":11633,"Ġcataly":11634,"Ġnaive":11635,"Ġshelter":11636,"Ġescalation":11637,"Ġincurred":11638,"Ġmassacre":11639,"Ġunambiguous":11640,"Ġflawed":11641,"Ġuncomfort":11642,"Ġdecommissioning":11643,"Ġfierce":11644,"Ġtropical":11645,"Ġahmadinejad":11646,"farm":11647,"london":11648,"Ġthr":11649,"Ġpiv":11650,"Ġbizar":11651,"Ġmd":11652,"Ġmild":11653,"oure":11654,"Ġeman":11655,"Ġlt":11656,"Ġwhis":11657,"Ġforty":11658,"Ġstakes":11659,"Ġhamm":11660,"Ġconqu":11661,"chen":11662,"irs":11663,"Ġsuited":11664,"Ġlean":11665,"sofar":11666,"rome":11667,"Ġliik":11668,"Ġheating":11669,"Ġabilities":11670,"Ġintact":11671,"render":11672,"Ġrio":11673,"Ġsamp":11674,"Ġpreoccup":11675,"ache":11676,"Ġoversight":11677,"Ġoverdue":11678,"Ġstrand":11679,"Ġgeneric":11680,"Ġholy":11681,"Ġmonu":11682,"Ġdefines":11683,"Ġquestionable":11684,"Ġbackward":11685,"Ġenvironments":11686,"Ġmedina":11687,"Ġsimplicity":11688,"Ġschr":11689,"Ġreads":11690,"Ġburied":11691,"Ġdeepen":11692,"Ġflav":11693,"Ġindicative":11694,"Ġundes":11695,"Ġtempted":11696,"Ġanalysed":11697,"Ġcontinental":11698,"Ġcorporation":11699,"Ġboycot":11700,"Ġangola":11701,"Ġslightest":11702,"Ġsearching":11703,"Ġprevails":11704,"Ġwebsites":11705,"Ġearnings":11706,"Ġshapes":11707,"Ġghost":11708,"Ġsmoothly":11709,"wait":11710,"Ġladen":11711,"Ġcelebrated":11712,"Ġmisunderstand":11713,"Ġadvisers":11714,"Ġlamy":11715,"Ġmystery":11716,"Ġflourish":11717,"Ġhavens":11718,"Ġelephant":11719,"Ġrefunds":11720,"Ġneurons":11721,"Ġerupt":11722,"Ġbiomass":11723,"Ġfrancisco":11724,"Ġstereoty":11725,"Ġtemporarily":11726,"Ġliikanen":11727,"14":11728,"lor":11729,"mble":11730,"moud":11731,"wal":11732,"Ã±":11733,"Ġcents":11734,"Ġoomen":11735,"Ġfli":11736,"Ġeinstein":11737,"Ġrehn":11738,"Ġlas":11739,"Ġlament":11740,"owed":11741,"rians":11742,"chi":11743,"ullah":11744,"admitted":11745,"geor":11746,"Ġvested":11747,"Ġenfor":11748,"solete":11749,"Ġpoles":11750,"Ġkg":11751,"Ġqua":11752,"early":11753,"Ġouts":11754,"itionally":11755,"Ġtrapped":11756,"Ġgovernor":11757,"actor":11758,"Ġmoz":11759,"rator":11760,"Ġassu":11761,"neys":11762,"Ġinvestor":11763,"Ġmodification":11764,"Ġhandic":11765,"Ġ350":11766,"Ġsurrender":11767,"Ġesp":11768,"Ġ54":11769,"afe":11770,"Ġconflicting":11771,"Ġrequesting":11772,"Ġski":11773,"Ġorigins":11774,"Ġmethodology":11775,"Ġassociate":11776,"Ġreviewing":11777,"linary":11778,"Ġexploiting":11779,"Ġconfirmation":11780,"anny":11781,"Ġbureaucrats":11782,"Ġtransforming":11783,"rosoft":11784,"Ġtelecom":11785,"Ġabandoning":11786,"Ġparaly":11787,"Ġpurchases":11788,"Ġunnecessarily":11789,"Ġlicens":11790,"Ġflags":11791,"Ġoverwhelm":11792,"Ġevaluating":11793,"Ġdictatorships":11794,"Ġvalidity":11795,"Ġsudanese":11796,"Ġintolerance":11797,"Ġunjustified":11798,"Ġdividing":11799,"history":11800,"Ġdissemin":11801,"Ġgalaxies":11802,"Ġsentiment":11803,"ĠbÃ¶ge":11804,"Ġportfolio":11805,"Ġhurricane":11806,"ignificant":11807,"Ġbolivia":11808,"Ġcognitive":11809,"Ġkashmir":11810,"Ġvladimir":11811,"Ġunthinkable":11812,"Ġignores":11813,"admittedly":11814,"bear":11815,"drop":11816,"norm":11817,"ping":11818,"sol":11819,"Ġtender":11820,"Ġaven":11821,"Ġwines":11822,"itual":11823,"Ġpengu":11824,"ioned":11825,"Ġdrow":11826,"roots":11827,"rooms":11828,"Ġee":11829,"Ġrena":11830,"sement":11831,"Ġdeleted":11832,"ulum":11833,"Ġunlaw":11834,"ounder":11835,"ichet":11836,"Ġlethal":11837,"usive":11838,"Ġheaven":11839,"Ġkor":11840,"Ġpeer":11841,"Ġtrichet":11842,"Ġcoat":11843,"Ġapples":11844,"Ġsample":11845,"Ġpole":11846,"Ġobsolete":11847,"Ġpolite":11848,"Ġperu":11849,"Ġindians":11850,"Ġbasque":11851,"Ġlasted":11852,"ologies":11853,"Ġvalued":11854,"Ġequilib":11855,"Ġbali":11856,"Ġstark":11857,"Ġrecognizes":11858,"iberal":11859,"Ġruij":11860,"Ġpencil":11861,"Ġdesignate":11862,"Ġsuperpower":11863,"Ġlanding":11864,"regional":11865,"Ġilliter":11866,"Ġislamists":11867,"Ġanalysing":11868,"Ġmaln":11869,"Ġpainted":11870,"Ġflower":11871,"Ġproceeding":11872,"Ġcontractual":11873,"Ġinsisting":11874,"Ġautomotive":11875,"Ġdominance":11876,"Ġabolishing":11877,"Ġsporting":11878,"Ġexcluding":11879,"Ġinterpretations":11880,"Ġexempt":11881,"Ġgeographic":11882,"Ġreliability":11883,"Ġthrowing":11884,"Ġtougher":11885,"Ġprohibition":11886,"Ġinjuries":11887,"Ġaccelerating":11888,"Ġlaughing":11889,"Ġshifted":11890,"Ġillnesses":11891,"Ġtaller":11892,"Ġvarying":11893,"Ġfragmentation":11894,"Ġbranches":11895,"Ġnominal":11896,"Ġresignation":11897,"Ġastonishing":11898,"Ġreinforcing":11899,"Ġsaturday":11900,"Ġpuzzle":11901,"Ġastronom":11902,"Ġdinosaurs":11903,"Ġfruits":11904,"Ġscourge":11905,"Ġunavoidable":11906,"Ġruijten":11907,"bat":11908,"city":11909,"diff":11910,"ih":11911,"show":11912,"Ġtide":11913,"Ġthomas":11914,"Ġcin":11915,"itter":11916,"iture":11917,"ora":11918,"Ġdense":11919,"icit":11920,"Ġreap":11921,"Ġrejo":11922,"ctors":11923,"ldom":11924,"Ġstif":11925,"Ġnotable":11926,"Ġnotification":11927,"Ġshirt":11928,"Ġvitor":11929,"mbowski":11930,"Ġritual":11931,"Ġlip":11932,"Ġliable":11933,"Ġkir":11934,"Ġamnesty":11935,"Ġcontag":11936,"Ġpecul":11937,"ireland":11938,"Ġprecip":11939,"Ġoverview":11940,"Ġaccustomed":11941,"Ġ192":11942,"Ġprotects":11943,"Ġcarc":11944,"Ġsuccession":11945,"Ġhealthier":11946,"Ġdemocratization":11947,"Ġcoral":11948,"Ġcritically":11949,"Ġcontributors":11950,"overall":11951,"Ġshortfall":11952,"Ġvaries":11953,"Ġappearing":11954,"Ġairspace":11955,"Ġtransported":11956,"Ġexploration":11957,"Ġcongratulated":11958,"Ġspecialists":11959,"Ġmuscle":11960,"Ġlosers":11961,"Ġexchanging":11962,"Ġbias":11963,"Ġdescribing":11964,"ilitary":11965,"zembowski":11966,"ikh":11967,"Ġsafeguarded":11968,"Ġconditionality":11969,"Ġpsychology":11970,"Ġrigour":11971,"Ġtragedies":11972,"Ġmatched":11973,"Ġholland":11974,"Ġthresholds":11975,"Ġfostering":11976,"Ġdistorted":11977,"attered":11978,"Ġperceive":11979,"Ġyields":11980,"Ġghana":11981,"Ġpersecuted":11982,"development":11983,"trade":11984,"Ġpostponement":11985,"Ġperiphery":11986,"rendt":11987,"Ġreinforces":11988,"Ġjarzembowski":11989,"Ġmahmoud":11990,"Ġpupils":11991,"Ġduplication":11992,"Ġinflicted":11993,"Ġalexander":11994,"Ġbridges":11995,"Ġempowered":11996,"ĠcancÃºn":11997,"Ġparalysis":11998,"Ġaggregate":11999,"Ġembedded":12000,"field":12001,"hy":12002,"iries":12003,"tings":12004,"youn":12005,"Ã´":12006,"Ġtables":12007,"rey":12008,"Ġwik":12009,"isons":12010,"Ġsket":12011,"eries":12012,"env":12013,"Ġcock":12014,"Ġpounds":12015,"Ġbh":12016,"Ġank":12017,"Ġdent":12018,"Ġduly":12019,"Ġemin":12020,"Ġlan":12021,"Ġweird":12022,"otted":12023,"otism":12024,"pelled":12025,"Ġstig":12026,"Ġsemi":12027,"Ġseldom":12028,"anted":12029,"Ġresent":12030,"umably":12031,"Ġwhoever":12032,"Ġmanual":12033,"Ġmanager":12034,"Ġimporting":12035,"Ġraining":12036,"Ġspo":12037,"Ġrolling":12038,"Ġgenius":12039,"Ġclearing":12040,"Ġconfer":12041,"Ġprototy":12042,"Ġmarketplace":12043,"Ġtreatments":12044,"Ġcolumb":12045,"Ġformat":12046,"Ġglobalised":12047,"Ġinfer":12048,"Ġmodifications":12049,"Ġrespectively":12050,"Ġdepreci":12051,"Ġsurf":12052,"Ġblank":12053,"Ġgentleman":12054,"paragraph":12055,"Ġfreeze":12056,"Ġedf":12057,"Ġ51":12058,"Ġurging":12059,"Ġplea":12060,"Ġecr":12061,"inson":12062,"Ġloses":12063,"Ġbike":12064,"Ġinflux":12065,"Ġteaches":12066,"Ġcriticized":12067,"Ġcalculation":12068,"garians":12069,"Ġnightmare":12070,"Ġ02":12071,"Ġcomplaining":12072,"Ġdawn":12073,"repres":12074,"Ġdefenders":12075,"Ġarrests":12076,"roads":12077,"Ġfixing":12078,"Ġrebel":12079,"throughout":12080,"Ġprofitability":12081,"Ġmentality":12082,"Ġinfectious":12083,"Ġarchitects":12084,"Ġknife":12085,"Ġdetection":12086,"Ġprague":12087,"Ġprovider":12088,"Ġguns":12089,"Ġbreathing":12090,"Ġjeopardise":12091,"Ġlagging":12092,"Ġtroubles":12093,"Ġtroubled":12094,"Ġathlet":12095,"Ġsoccer":12096,"Ġpyram":12097,"Ġexaggerated":12098,"Ġnigerian":12099,"Ġhierarchy":12100,"Ġcynical":12101,"information":12102,"Ġbizarre":12103,"Ġvitorino":12104,"hel":12105,"rgy":12106,"isan":12107,"erts":12108,"Ġpou":12109,"Ġbour":12110,"Ġfence":12111,"lez":12112,"Ġrelies":12113,"oming":12114,"Ġbeating":12115,"stud":12116,"Ġgate":12117,"Ġlakes":12118,"raine":12119,"Ġunbelie":12120,"Ġsemit":12121,"Ġleaf":12122,"Ġgoe":12123,"Ġcharm":12124,"Ġagent":12125,"Ġbutt":12126,"reevy":12127,"temp":12128,"Ġevidently":12129,"Ġrecovered":12130,"Ġcommunists":12131,"Ġremun":12132,"Ġenters":12133,"Ġcolors":12134,"Ġguilt":12135,"Ġgrowers":12136,"need":12137,"Ġmedvedev":12138,"Ġconsumed":12139,"Ġbalancing":12140,"Ġdistrict":12141,"Ġcivilised":12142,"Ġlocations":12143,"Ġfried":12144,"Ġgrey":12145,"Ġmotto":12146,"Ġpenet":12147,"Ġdrift":12148,"Ġiranians":12149,"Ġtargeting":12150,"Ġmetals":12151,"Ġverdict":12152,"Ġlandf":12153,"Ġslowing":12154,"Ġcounterpart":12155,"ahu":12156,"Ġsunlight":12157,"Ġmeaningless":12158,"Ġbelgrade":12159,"Ġresistant":12160,"Ġkyi":12161,"Ġpopularity":12162,"Ġconsolidating":12163,"Ġrent":12164,"Ġmicrosoft":12165,"prof":12166,"Ġcrystal":12167,"Ġsisters":12168,"Ġrecipients":12169,"Ġenthusiastic":12170,"Ġangel":12171,"developing":12172,"Ġambiguous":12173,"Ġpreconditions":12174,"Ġrebuilding":12175,"Ġcoincidence":12176,"Ġmccreevy":12177,"Ġassumes":12178,"Ġembryos":12179,"Ġcigarette":12180,"Ġresolutely":12181,"Ġexhibition":12182,"Ġoutrageous":12183,"Ġdensity":12184,"Ġuzbekistan":12185,"Ġuncomfortable":12186,"rgyz":12187,"bic":12188,"bach":12189,"dy":12190,"dner":12191,"iri":12192,"sud":12193,"Ġthick":12194,"Ġwi":12195,"erra":12196,"Ġfired":12197,"Ġinsofar":12198,"Ġhen":12199,"Ġepp":12200,"Ġgut":12201,"Ġalzheimer":12202,"rams":12203,"ulent":12204,"Ġsuu":12205,"opular":12206,"osity":12207,"Ġvisions":12208,"Ġleve":12209,"Ġbutton":12210,"Ġexpressions":12211,"Ġapplause":12212,"foreign":12213,"Ġmarx":12214,"Ġyourselves":12215,"ernal":12216,"Ġbelieving":12217,"Ġresponsibly":12218,"lander":12219,"Ġcrew":12220,"Ġshell":12221,"Ġprojected":12222,"Ġtaxi":12223,"Ġexperimental":12224,"Ġcreature":12225,"ĠbarÃ³n":12226,"Ġsciences":12227,"Ġruin":12228,"Ġcentralised":12229,"Ġobsessed":12230,"Ġ96":12231,"Ġlanded":12232,"Ġattacking":12233,"Ġstressing":12234,"Ġdoubtful":12235,"Ġvolcan":12236,"Ġlovely":12237,"Ġcalend":12238,"Ġmigratory":12239,"Ġhyper":12240,"Ã©n":12241,"Ġfulfill":12242,"Ġphysic":12243,"unta":12244,"Ġinflationary":12245,"Ġkyrgyz":12246,"Ġbaseball":12247,"Ġcompelled":12248,"Ġproportionate":12249,"twenty":12250,"Ġamazed":12251,"Ġpremise":12252,"Ġentrepreneurial":12253,"Ġprevailed":12254,"Ġnaval":12255,"Ġindiscrimin":12256,"Ġneutrality":12257,"Ġabsorbed":12258,"Ġhorizon":12259,"Ġepidem":12260,"Ġpollutants":12261,"aphne":12262,"Ġgrassroots":12263,"Ġbeneficiary":12264,"Ġfronts":12265,"Ã¨s":12266,"Ġugly":12267,"Ġpocket":12268,"Ġredef":12269,"Ġlyn":12270,"Ġupheld":12271,"Ġtiger":12272,"Ġferrero":12273,"greater":12274,"Ġinsects":12275,"Ġmultilingualism":12276,"Ġmisman":12277,"Ġmilestone":12278,"Ġhorrible":12279,"Ġcanadian":12280,"Ġcondolences":12281,"ĠschrÃ¶der":12282,"Ġequilibrium":12283,"away":12284,"kward":12285,"ĠÅ¡":12286,"Ġtb":12287,"inate":12288,"Ġwins":12289,"isa":12290,"Ġsidel":12291,"itate":12292,"Ġbust":12293,"oria":12294,"Ġfles":12295,"Ġinsure":12296,"Ġerect":12297,"Ġeec":12298,"Ġngo":12299,"omes":12300,"Ġalliances":12301,"irts":12302,"Ġbypass":12303,"Ġchairs":12304,"usible":12305,"Ġshoulders":12306,"Ġtru":12307,"Ġdisorders":12308,"Ġproportions":12309,"agues":12310,"Ġapparat":12311,"Ġconcur":12312,"Ġspark":12313,"Ġspont":12314,"Ġconfuse":12315,"Ġmature":12316,"Ġcuriosity":12317,"Ġquestioning":12318,"Ġempt":12319,"Ġinterface":12320,"Ġintercultural":12321,"Ġbehrendt":12322,"Ġallowance":12323,"Ġequals":12324,"Ġemployer":12325,"Ġpeacefully":12326,"Ġfundamentals":12327,"Ġbars":12328,"Ġpassports":12329,"Ġtextbook":12330,"Ġero":12331,"Ġerika":12332,"Ġdesigning":12333,"europeans":12334,"Ġillusions":12335,"Ġindustrialised":12336,"Ġwaldner":12337,"Ġmergers":12338,"Ġexporter":12339,"Ġslim":12340,"Ġdistribute":12341,"anyway":12342,"Ġenjoys":12343,"Ġsilver":12344,"Ġtraveled":12345,"Ġpray":12346,"frank":12347,"Ġsoldier":12348,"Ġgladly":12349,"Ġtroika":12350,"Ġwithdrawing":12351,"Ġadvertise":12352,"Ġpulling":12353,"Ġmexican":12354,"Ġpreceded":12355,"Ġscenes":12356,"Ġsubmitting":12357,"Ġmagnific":12358,"Ġwoods":12359,"american":12360,"impro":12361,"Ġupdating":12362,"Ġjuncture":12363,"Ġapologize":12364,"Ġbeaten":12365,"Ġpigs":12366,"Ġprudent":12367,"Ġflaws":12368,"Ġprolonged":12369,"Ġbargaining":12370,"Ġescaped":12371,"Ġunconditional":12372,"progress":12373,"Ġindefinitely":12374,"Ġnabuc":12375,"actorily":12376,"Ġassumptions":12377,"Ġspontane":12378,"12":12379,"best":12380,"dog":12381,"fia":12382,"hen":12383,"iat":12384,"nar":12385,"oth":12386,"oft":12387,"Ġ00":12388,"Ġtip":12389,"remember":12390,"Ġwary":12391,"Ġpave":12392,"Ġplight":12393,"Ġfusion":12394,"Ġinch":12395,"Ġants":12396,"Ġanomal":12397,"Ġhans":12398,"arctic":12399,"roed":12400,"Ġnich":12401,"stad":12402,"Ġlor":12403,"Ġsticking":12404,"Ġyard":12405,"Ġeuph":12406,"atemal":12407,"Ġatoms":12408,"Ġcher":12409,"Ġchimp":12410,"Ġreson":12411,"Ġker":12412,"aka":12413,"aki":12414,"ums":12415,"asty":12416,"Ġquad":12417,"Ġplate":12418,"Ġexped":12419,"Ġtex":12420,"Ġarsen":12421,"Ġfeat":12422,"Ġrecre":12423,"orses":12424,"Ġbasket":12425,"Ġdefensive":12426,"Ġrealm":12427,"Ġachievable":12428,"Ġmoder":12429,"Ġorganism":12430,"egal":12431,"Ġrevising":12432,"Ġspecify":12433,"Ġwriters":12434,"Ġawkward":12435,"Ġmisuse":12436,"Ġidi":12437,"Ġemphasising":12438,"Ġhalfway":12439,"Ġdeepest":12440,"Ġweakest":12441,"Ġfloating":12442,"Ġcollateral":12443,"Ġ110":12444,"Ġsilk":12445,"yeah":12446,"Ġinhuman":12447,"Ġpublishing":12448,"Ġchristianity":12449,"Ġcondemns":12450,"Ġstems":12451,"Ġexceeds":12452,"Ġillustrated":12453,"Ġevolving":12454,"Ġtunisian":12455,"Ġevaluated":12456,"ukraine":12457,"Ġcows":12458,"Ġjuncker":12459,"Ġhydro":12460,"Ġmolecule":12461,"Ġmolecular":12462,"Ġcelebrating":12463,"Ġscoreboard":12464,"Ġinterrupted":12465,"Ġfrightening":12466,"Ġembarrassing":12467,"hardt":12468,"Ġprinting":12469,"Ġlaptop":12470,"Ġindifferent":12471,"Ġaquaculture":12472,"Ġlivelihoods":12473,"Ġdiscretion":12474,"Ġcasualties":12475,"Ġunderestimated":12476,"Ġprovinces":12477,"greece":12478,"Ġincumbent":12479,"Ġlulling":12480,"Ġcrespo":12481,"Ġhygiene":12482,"Ġpeculiar":12483,"Ġerosion":12484,"Ġnabucco":12485,"iance":12486,"ipping":12487,"make":12488,"overs":12489,"Ġwound":12490,"era":12491,"Ġcord":12492,"itated":12493,"Ġbog":12494,"Ġmast":12495,"Ġfake":12496,"Ġflies":12497,"Ġdaphne":12498,"Ġgi":12499,"Ġip":12500,"Ġlom":12501,"Ġwhale":12502,"Ġdeforestation":12503,"imity":12504,"Ġshops":12505,"Ġenqu":12506,"Ġlever":12507,"Ġchicago":12508,"ĠâĢ¦":12509,"Ġimplied":12510,"igence":12511,"Ġupris":12512,"teenth":12513,"Ġindign":12514,"Ġoverly":12515,"Ġaccounted":12516,"Ġdeserved":12517,"Ġhappily":12518,"Ġguer":12519,"Ġguatemal":12520,"Ġcaring":12521,"Ġadopts":12522,"Ġformulation":12523,"Ġmoderation":12524,"Ġschroed":12525,"Ġhandful":12526,"ucks":12527,"Ġwheat":12528,"Ġeasing":12529,"Ġgenerals":12530,"Ġ53":12531,"Ġswallow":12532,"Ġtribal":12533,"Ġtribes":12534,"Ġoperator":12535,"Ġmiscon":12536,"Ġtraded":12537,"play":12538,"Ġantarctic":12539,"Ġurges":12540,"Ġverify":12541,"Ġsuperior":12542,"Ġportion":12543,"Ġconsulting":12544,"Ġratings":12545,"ltry":12546,"Ġlimitation":12547,"anyahu":12548,"Ġcharacters":12549,"Ġharness":12550,"Ġarranged":12551,"Ġ04":12552,"Ġexecuted":12553,"Ġobservatory":12554,"Ġbrazilian":12555,"Ġconceived":12556,"Ġmicros":12557,"Ġmultilateralism":12558,"Ġflooding":12559,"Ġadmiration":12560,"Ġglasses":12561,"Ġclient":12562,"welcome":12563,"Ġinterpreters":12564,"Ġsongs":12565,"Ġdeteriorating":12566,"Ġcoupled":12567,"Ġbailout":12568,"Ġfurn":12569,"Ġcereals":12570,"Ġexacerbated":12571,"Ġdetainees":12572,"Ġdeposits":12573,"Ġsentiments":12574,"Ġlehne":12575,"Ġsimplistic":12576,"Ġknees":12577,"Ġinfinite":12578,"Ġscholars":12579,"Ġworsening":12580,"Ġdecoupling":12581,"Ġadjourned":12582,"Ġunpredictable":12583,"Ġenforcing":12584,"Ġpoultry":12585,"bish":12586,"ĠÎ":12587,"Ġay":12588,"inos":12589,"enza":12590,"Ġbits":12591,"inge":12592,"Ġdc":12593,"Ġnail":12594,"ask":12595,"urt":12596,"Ġhaven":12597,"Ġascertain":12598,"ithm":12599,"ghdad":12600,"Ġunple":12601,"Ġexile":12602,"Ġwilli":12603,"Ġvag":12604,"Ġchrom":12605,"Ġrang":12606,"Ġrepatri":12607,"Ġnoble":12608,"Ġdissid":12609,"Ġouter":12610,"Ġcomplying":12611,"techn":12612,"Ġtracking":12613,"Ġtransmitted":12614,"Ġsittings":12615,"Ġenduring":12616,"Ġsierra":12617,"Ġhappier":12618,"Ġscare":12619,"Ġbeforehand":12620,"Ġcave":12621,"took":12622,"Ġirrit":12623,"Ġprogressively":12624,"Ġ58":12625,"Ġcareers":12626,"Ġ49":12627,"Ġ450":12628,"Ġmonthly":12629,"Ġvariation":12630,"Ġhonoured":12631,"Ġromantic":12632,"Ġapplicants":12633,"Ġliberalism":12634,"Ġassistants":12635,"Ġsatisfactorily":12636,"Ġseparat":12637,"Ġconstructively":12638,"Ġconcentrating":12639,"Ġsurviv":12640,"Ġshipbuilding":12641,"Ġoccupational":12642,"aughters":12643,"Ġdonations":12644,"Ġobserving":12645,"Ġinsistence":12646,"Ġdischar":12647,"Ġunsafe":12648,"feld":12649,"Ġremarkably":12650,"Ġincorporation":12651,"Ġ1967":12652,"Ġexecutives":12653,"Ġembraced":12654,"Ġsacrifices":12655,"Ġconvenience":12656,"Ġinspiring":12657,"Ġstipulated":12658,"Ġenrichment":12659,"Ġdrastically":12660,"Ġdissemination":12661,"Ġembarked":12662,"Ġattributed":12663,"Ġcigarettes":12664,"Ġbaghdad":12665,"Ġleonardo":12666,"Ġreimbur":12667,"simply":12668,"measures":12669,"Ġextinction":12670,"Ġundesirable":12671,"cive":12672,"nuclear":12673,"Ġavert":12674,"onian":12675,"Ġwiped":12676,"Ġcad":12677,"Ġfta":12678,"Ġhut":12679,"Ġreinst":12680,"asse":12681,"otti":12682,"Ġalgor":12683,"Ġsuits":12684,"opian":12685,"Ġshark":12686,"erer":12687,"estion":12688,"Ġhelic":12689,"Ġrescu":12690,"umi":12691,"def":12692,"Ġexpose":12693,"Ġmarg":12694,"Ġpolicing":12695,"Ġinviting":12696,"Ġoverha":12697,"Ġclou":12698,"Ġstrang":12699,"xty":12700,"Ġcolour":12701,"Ġscrap":12702,"Ġinteractive":12703,"Ġcaptain":12704,"Ġtechnoc":12705,"Ġlegislature":12706,"ovation":12707,"Ġrevital":12708,"Ġrevival":12709,"Ġesdp":12710,"Ġeditor":12711,"Ġ56":12712,"swed":12713,"Ġ41":12714,"priv":12715,"Ġspecifications":12716,"Ġcheese":12717,"Ġcredential":12718,"Ġ62":12719,"Ġgenerates":12720,"Ġfinalised":12721,"Ġdevil":12722,"Ġdolph":12723,"Ġimposes":12724,"Ġconducive":12725,"Ġmissiles":12726,"Ġcustomer":12727,"Ġtransferring":12728,"Ġdonation":12729,"Ġaggress":12730,"Ġtolerated":12731,"Ġsurveys":12732,"common":12733,"prov":12734,"Ġnarrative":12735,"Ġlicense":12736,"Ġpredic":12737,"Ġregrettably":12738,"Ġendorses":12739,"Ġscrutin":12740,"speaking":12741,"Ġconfronting":12742,"Ġtickets":12743,"Ġpolluter":12744,"Ġ1945":12745,"Ġnurse":12746,"Ġallegedly":12747,"Ġvolatile":12748,"Ġfrightened":12749,"Ġvolunteers":12750,"Ġcorrelation":12751,"Ġunreserved":12752,"Ġtumor":12753,"Ġindifference":12754,"Ġobscure":12755,"Ġflorence":12756,"business":12757,"Ġproximity":12758,"Ġexplosive":12759,"education":12760,"Ġunlawful":12761,"young":12762,"environ":12763,"Ġapparatus":12764,"stadt":12765,"Ġunpleasant":12766,"Ġhelicop":12767,"han":12768,"Ġvel":12769,"Ġtanks":12770,"Ġtorn":12771,"Ġaster":12772,"Ġample":12773,"rets":12774,"Ġsau":12775,"Ġcute":12776,"itt":12777,"Ġpicking":12778,"Ġfract":12779,"icon":12780,"Ġnest":12781,"Ġnpt":12782,"Ġnass":12783,"Ġnerve":12784,"omy":12785,"Ġgif":12786,"Ġlod":12787,"ules":12788,"Ġmeth":12789,"Ġeurobon":12790,"Ġshake":12791,"Ġshia":12792,"unting":12793,"ainted":12794,"Ġlee":12795,"Ġchat":12796,"Ġliver":12797,"Ġjung":12798,"Ġjunta":12799,"Ġabu":12800,"ivo":12801,"Ġreplies":12802,"aug":12803,"Ġupcoming":12804,"agg":12805,"agric":12806,"Ġdemise":12807,"Ġspheres":12808,"Ġfever":12809,"Ġpertin":12810,"Ġrecru":12811,"Ġinventions":12812,"atively":12813,"Ġaccent":12814,"Ġentrench":12815,"Ġsmok":12816,"Ġconstrained":12817,"worse":12818,"balanced":12819,"Ġmediation":12820,"Ġsheer":12821,"Ġadvancing":12822,"Ġbene":12823,"Ġprogressing":12824,"Ġ57":12825,"Ġlottery":12826,"Ġartistic":12827,"Ġtrips":12828,"Ġfundamentalist":12829,"Ġmorally":12830,"Ġspecialised":12831,"Ġerit":12832,"Ġconnecting":12833,"Ġscientifically":12834,"Ġoccurrence":12835,"Ġproceeds":12836,"Ġdictate":12837,"Ġ03":12838,"Ġreactor":12839,"Ġunfounded":12840,"Ġcontrad":12841,"Ġteleph":12842,"Ġtouches":12843,"climate":12844,"Ġattracting":12845,"Ġrevenge":12846,"Ġcatching":12847,"Ġvariations":12848,"Ġrebels":12849,"Ġfulfilment":12850,"Ġrhy":12851,"Ġrevealing":12852,"Ġperpetrated":12853,"Ġmoroccan":12854,"Ġwedding":12855,"Ġtemperatures":12856,"Ġdissent":12857,"Ġdiscoveries":12858,"Ġmitigate":12859,"Ġdisappearance":12860,"bett":12861,"Ġpoetry":12862,"Ġalgerian":12863,"Ġexercising":12864,"Ġexacerbate":12865,"Ġarmenian":12866,"Ġathens":12867,"Ġmulder":12868,"question":12869,"Ġlinear":12870,"Ġsubscribe":12871,"Ġjackson":12872,"Ġunwanted":12873,"Ġresilience":12874,"Ġancestors":12875,"Ġunchanged":12876,"Ġshipyards":12877,"Ġhypocritical":12878,"Ġtraffickers":12879,"Ġoverwhelmingly":12880,"Ġcredentials":12881,"bc":12882,"free":12883,"fail":12884,"hor":12885,"iating":12886,"len":12887,"uay":12888,"uate":12889,"ref":12890,"Ġthess":12891,"Ġwounded":12892,"Ġwreck":12893,"Ġcous":12894,"Ġost":12895,"angh":12896,"Ġfals":12897,"Ġfond":12898,"Ġinert":12899,"alon":12900,"Ġhire":12901,"Ġhired":12902,"Ġhorses":12903,"Ġeats":12904,"Ġgb":12905,"Ġlula":12906,"Ġforwards":12907,"Ġunint":12908,"lib":12909,"Ġpresumably":12910,"Ġcanary":12911,"Ġjan":12912,"Ġpolio":12913,"umane":12914,"oston":12915,"tsin":12916,"eltsin":12917,"Ġproposition":12918,"indust":12919,"Ġhook":12920,"Ġdesires":12921,"Ġenvoy":12922,"Ġviewpoint":12923,"Ġforeseen":12924,"Ġprinted":12925,"Ġphased":12926,"Ġcorbett":12927,"Ġblunt":12928,"doing":12929,"Ġrepresentations":12930,"Ġfavours":12931,"Ġexistent":12932,"prime":12933,"Ġpenins":12934,"Ġtyr":12935,"Ġcompromised":12936,"Ġidentities":12937,"Ġbroadband":12938,"Ġ92":12939,"Ġdelhi":12940,"Ġinfluenza":12941,"Ġorganisational":12942,"Ġsenses":12943,"Ġviruses":12944,"Ġmalt":12945,"Ġfueled":12946,"Ġqualify":12947,"Ġpaths":12948,"Ġaccompany":12949,"Ġinhumane":12950,"brid":12951,"Ġstrengths":12952,"Ġswept":12953,"Ġrationale":12954,"Ġfemin":12955,"Ġtortured":12956,"guided":12957,"Ġdevastated":12958,"Ġhesitation":12959,"Ġangela":12960,"Ġadmittedly":12961,"Ġwholes":12962,"Ġdeplorable":12963,"Ġadhered":12964,"Ġslip":12965,"Ġsponsored":12966,"Ġintrins":12967,"aea":12968,"Ġhorrific":12969,"Ġelaborate":12970,"Ġscript":12971,"Ġesteem":12972,"farmers":12973,"Ġpyramid":12974,"Ġcalendar":12975,"Ġflesh":12976,"Ġmagnificent":12977,"based":12978,"fl":12979,"food":12980,"lit":12981,"marks":12982,"scient":12983,"tically":12984,"vol":12985,"were":12986,"wind":12987,"Ã£":12988,"Ġathe":12989,"Ġther":12990,"Ġwings":12991,"Ġsul":12992,"Ġcort":12993,"Ġbange":12994,"Ġboston":12995,"Ġtoile":12996,"ester":12997,"esters":12998,"Ġfats":12999,"alus":13000,"Ġdaughters":13001,"rocal":13002,"Ġrear":13003,"Ġiaea":13004,"utrition":13005,"Ġsta":13006,"keys":13007,"Ġneat":13008,"Ġuna":13009,"imm":13010,"Ġseaf":13011,"Ġvivid":13012,"Ġleis":13013,"oding":13014,"Ġresumption":13015,"Ġconting":13016,"ocally":13017,"Ġproph":13018,"ensen":13019,"Ġundertook":13020,"Ġrecast":13021,"Ġindo":13022,"Ġlooph":13023,"Ġguards":13024,"Ġscrat":13025,"Ġenerget":13026,"hips":13027,"iciency":13028,"Ġimprov":13029,"Ġcream":13030,"Ġsmallest":13031,"Ġ59":13032,"Ġbuilds":13033,"Ġsuffice":13034,"Ġmisguided":13035,"Ġturnover":13036,"Ġnetanyahu":13037,"identally":13038,"Ġfacebook":13039,"Ġ98":13040,"Ġbiometric":13041,"Ġbelt":13042,"spain":13043,"Ġmistrust":13044,"Ġsalmon":13045,"Ġmerger":13046,"Ġslave":13047,"Ġspeeding":13048,"Ġcontracting":13049,"Ġrounds":13050,"Ġspreads":13051,"Ġturkmen":13052,"Ġacquiring":13053,"Ġhostility":13054,"Ġpetrol":13055,"Ġprotocols":13056,"Ġvariable":13057,"Ġosset":13058,"Ġmatches":13059,"Ġincompet":13060,"Ġphilosopher":13061,"moving":13062,"Ġdrove":13063,"keepers":13064,"Ġindonesian":13065,"Ġremedies":13066,"Ġjunior":13067,"Ġshifts":13068,"Ġeuroscept":13069,"Ġprivatization":13070,"Ġholidays":13071,"Ġversa":13072,"Ġsceptical":13073,"Ġintimidation":13074,"Ġflorenz":13075,"Ġmemorand":13076,"Ġinterdependence":13077,"Ġanchor":13078,"Ġnielson":13079,"Ġimpoverished":13080,"Ġincineration":13081,"Ġcircuit":13082,"Ġmisunderstandings":13083,"Ġcinema":13084,"Ã´te":13085,"frankly":13086,"Ġclouds":13087,"Ġthessalon":13088,"Ġbangemann":13089,"Ġloopholes":13090,"acies":13091,"bers":13092,"dac":13093,"hundred":13094,"ji":13095,"nn":13096,"Ġtent":13097,"Ġthumb":13098,"Ġai":13099,"Ġaung":13100,"ĠcÃ´te":13101,"Ġpv":13102,"Ġdots":13103,"Ġreagan":13104,"Ġstored":13105,"Ġprover":13106,"oline":13107,"Ġnotwithstanding":13108,"open":13109,"Ġsharks":13110,"Ġseal":13111,"Ġworsen":13112,"Ġchanne":13113,"Ġallotted":13114,"Ġimpl":13115,"Ġjul":13116,"oused":13117,"ocation":13118,"Ġpoliceman":13119,"Ġram":13120,"Ġdevelops":13121,"Ġtranscend":13122,"ceptive":13123,"Ġlaud":13124,"Ġowner":13125,"Ġdrama":13126,"Ġmodulation":13127,"Ġappet":13128,"Ġstarvation":13129,"Ġartic":13130,"Ġanswering":13131,"Ġoperated":13132,"Ġheadings":13133,"Ġheadway":13134,"Ġsoutheast":13135,"Ġtraders":13136,"Ġerr":13137,"Ġlangen":13138,"Ġflew":13139,"Ġsenegal":13140,"Ġpenalised":13141,"Ġprovisional":13142,"Ġcompensatory":13143,"Ġsuscept":13144,"Ġfacilitation":13145,"Ġfraudulent":13146,"Ġquantum":13147,"Ġmounting":13148,"Ġpsychiat":13149,"community":13150,"Ġintellectuals":13151,"Ġpredictions":13152,"Ġsupplemented":13153,"Ġrelieved":13154,"Ġreciprocal":13155,"Ġtimetables":13156,"Ġblowing":13157,"relations":13158,"Ġgrip":13159,"Ġclip":13160,"Ġunpopular":13161,"Ġcommendable":13162,"Ġnicolas":13163,"Ġfanat":13164,"Ġpopulism":13165,"Ġchickens":13166,"Ġrocard":13167,"Ġmathematical":13168,"Ġsymptom":13169,"Ġintermediate":13170,"Ġtaboo":13171,"Ġnomination":13172,"Ġsupermarket":13173,"ĠrÃ¼big":13174,"generally":13175,"Ġlicensing":13176,"Ġankara":13177,"sudden":13178,"ivoire":13179,"Ġleisure":13180,"hundreds":13181,"500":13182,"bring":13183,"call":13184,"gia":13185,"kland":13186,"success":13187,"vals":13188,"Ġtatoeba":13189,"inf":13190,"Ġcum":13191,"Ġpile":13192,"Ġhug":13193,"Ġanderson":13194,"Ġrelied":13195,"Ġthatcher":13196,"otion":13197,"uration":13198,"urable":13199,"Ġaligned":13200,"Ġdelic":13201,"Ġunfore":13202,"Ġshout":13203,"Ġshield":13204,"unted":13205,"weigh":13206,"Ġleone":13207,"Ġchess":13208,"Ġrally":13209,"Ġresur":13210,"Ġresigned":13211,"lles":13212,"lose":13213,"Ġcompatibility":13214,"Ġupward":13215,"izoph":13216,"Ġperse":13217,"Ġboast":13218,"ighters":13219,"Ġstranger":13220,"Ġaccuse":13221,"Ġdiscard":13222,"Ġlax":13223,"Ġmafia":13224,"Ġfutures":13225,"Ġcarte":13226,"Ġinfant":13227,"Ġschizoph":13228,"Ġdeport":13229,"Ġdepleted":13230,"comb":13231,"Ġlibr":13232,"Ġeducate":13233,"legal":13234,"ofi":13235,"Ġ64":13236,"Ġcoordinators":13237,"Ġuneven":13238,"Ġ77":13239,"central":13240,"Ġgreeks":13241,"prints":13242,"Ġdocumentation":13243,"Ġsalv":13244,"Ġmalm":13245,"Ġsteer":13246,"Ġdelegated":13247,"Ġcomprehensible":13248,"Ġultra":13249,"Ġallocating":13250,"Ġconcentrations":13251,"Ġsilly":13252,"Ġcharacterized":13253,"Ġjourneys":13254,"Ġfiles":13255,"Ġfeeds":13256,"Ġcardiff":13257,"Ġshooting":13258,"Ġstruggles":13259,"Ġfederalist":13260,"Ġstores":13261,"Ġvoluntarily":13262,"Ġfortress":13263,"Ġballoon":13264,"Ġintervening":13265,"Ġconstituent":13266,"Ġblown":13267,"Ġanalysts":13268,"Ġscarcity":13269,"Ġdiscriminated":13270,"Ġkaras":13271,"Ġbowis":13272,"Ġconvenient":13273,"Ġpolluting":13274,"Ġfeasibility":13275,"Ġculp":13276,"Ġstipulates":13277,"Ġaccumulation":13278,"Ġabundant":13279,"Ġenacted":13280,"Ġpredecessors":13281,"Ġcancelled":13282,"Ġdisgraceful":13283,"Ġhectares":13284,"Ġmixt":13285,"Ġcertificates":13286,"negotiations":13287,"Ġdraftsman":13288,"Ġzealand":13289,"experience":13290,"Ġcluster":13291,"Ġmeltdown":13292,"Ġstroke":13293,"Ġfluctuations":13294,"Ġcurriculum":13295,"Ġorphan":13296,"needless":13297,"Ġlorries":13298,"Ġasteroid":13299,"Ġeurobonds":13300,"Ġschizophren":13301,"18":13302,"bro":13303,"bank":13304,"dled":13305,"sur":13306,"inth":13307,"inity":13308,"Ġcun":13309,"Ġpour":13310,"Ġpier":13311,"anke":13312,"Ġtower":13313,"Ġfu":13314,"already":13315,"Ġrebal":13316,"Ġreliance":13317,"Ġgore":13318,"Ġgand":13319,"Ġlately":13320,"mentioned":13321,"rape":13322,"Ġmeg":13323,"Ġeurodac":13324,"Ġchip":13325,"usa":13326,"Ġwasting":13327,"Ġimpat":13328,"Ġregrets":13329,"aste":13330,"Ġtran":13331,"Ġplug":13332,"Ġdisg":13333,"iev":13334,"Ġincidence":13335,"Ġcoerc":13336,"Ġsail":13337,"ogene":13338,"Ġoverl":13339,"Ġcommunal":13340,"Ġprotesters":13341,"Ġturks":13342,"Ġbackdrop":13343,"Ġbuck":13344,"Ġpresently":13345,"Ġbuses":13346,"Ġorganizing":13347,"Ġcosta":13348,"Ġresett":13349,"Ġpractise":13350,"Ġconstitutions":13351,"Ġsuppression":13352,"Ġolds":13353,"whenever":13354,"Ġlowered":13355,"Ġcharging":13356,"Ġcapitals":13357,"Ġdesigner":13358,"Ġverge":13359,"Ġtestim":13360,"Ġcrucially":13361,"apping":13362,"Ġkills":13363,"Ġmerch":13364,"Ġpollen":13365,"Ġcontentious":13366,"Ġslaught":13367,"Ġboards":13368,"Ġclarifying":13369,"Ġcraft":13370,"Ġpetro":13371,"Ġpunct":13372,"Ġbonino":13373,"Ġgrandchildren":13374,"Ġboyf":13375,"Ġapartment":13376,"ambique":13377,"Ġsynd":13378,"Ġcrowded":13379,"Ġdetected":13380,"Ġabsorption":13381,"Ġacquisition":13382,"Ġfrustrated":13383,"Ġjumped":13384,"Ġprescribed":13385,
[...]
