#version: 0.2 - Trained by `huggingface/tokenizers`
Ġ t
Ġt h
Ġ a
i n
r e
Ġth e
o n
a t
Ġ w
i s
Ġ s
e r
Ġ .
e n
Ġ c
Ġ ,
Ġ o
i t
Ġ p
a n
Ġ b
Ġ m
o r
Ġt o
e s
Ġ f
o u
Ġ in
i on
Ġo f
a l
Ġa n
e d
Ġ h
in g
Ġ d
a r
r o
i c
Ġ e
Ġan d
en t
Ġ n
l e
t h
Ġ re
a s
Ġ is
v e
o m
Ġb e
Ġth at
s t
l y
i l
Ġ g
Ġ i
c t
Ġ l
Ġ u
Ġw h
Ġ on
at ion
u t
Ġw e
o t
Ġf or
s e
p e
m ent
i d
Ġ it
u r
l d
Ġc om
Ġs t
v er
c e
Ġp ro
Ġh a
o w
Ġ y
Ġc on
o l
Ġa l
Ġd e
Ġth is
r a
r i
Ġa re
or t
Ġ -
th e
c h
Ġa s
Ġ '
it h
u l
Ġe u
k e
Ġn ot
re s
a y
il l
g h
ou ld
Ġha ve
Ġw ith
i r
m p
Ġy ou
Ġn e
Ġm e
at e
Ġu n
Ġs u
Ġeu ro
ou n
a d
t er
Ġcom m
i m
g e
p p
Ġeuro pe
o p
o re
Ġs h
b le
Ġs e
it y
Ġe x
an d
i ve
u st
s ion
o s
l i
Ġw ill
an t
e re
er s
Ġp ar
Ġd o
Ġ v
u n
a in
es s
c i
es t
ic h
Ġh as
q u
w e
Ġa t
Ġ en
Ġb y
i f
gh t
Ġwh ich
Ġeurope an
i es
Ġ le
s o
m b
Ġw or
Ġg o
Ġc h
Ġc oun
e t
â Ģ
Ġp res
th er
is t
Ġal l
Ġ r
a m
Ġs o
Ġa g
Ġc an
u s
Ġ âĢ
Ġw as
al ly
u re
o d
ro m
Ġl i
Ġi mp
om e
Ġ j
is sion
e ct
Ġh e
Ġo r
Ġre s
Ġthe re
Ġa b
ver y
en d
Ġw ould
Ġp ol
ion s
Ġ k
Ġcomm ission
Ġin t
i v
ou t
ou r
Ġf rom
a c
Ġa m
ar d
a k
al l
Ġpres id
Ġ ?
Ġal so
Ġo ur
Ġu s
Ġb ut
Ġsh ould
c on
i g
Ġre p
f f
Ġpar t
a ke
l l
u m
u d
Ġa d
mb er
Ġthe y
Ġm ust
Ġbe en
d er
ou s
Ġm ore
Ġpresid ent
at es
u e
Ġcon t
Ġcoun t
an s
Ġli ke
Ġre g
ation s
re e
Ġp e
Ġa c
a b
o c
is h
re at
as t
ul t
Ġf a
a ment
Ġab out
on e
pp ort
Ġwh at
ic al
Ġn o
Ġ qu
Ġon e
o st
Ġm r
Ġp l
th is
Ġthe ir
Ġne ed
s i
ar y
Ġt r
ve l
a ble
re n
i re
ment s
on g
Ġ 1
l o
e ar
Ġd is
Ġm y
a p
Ġo ut
Ġit s
Ġ very
e m
Ġs ome
i e
ci al
an ce
Ġ ri
a u
Ġwh o
d u
f or
Ġ 2
Ġcom p
Ġthe se
Ġa ct
Ġf in
Ġbe c
ĠâĢ Ļ
Ġin c
Ġwor k
Ġt im
n ow
op le
c ess
Ġu p
li ament
Ġth an
0 0
Ġm an
Ġri ght
Ġpe ople
Ġun ion
r ou
Ġrep ort
d e
Ġpar liament
Ġy ear
Ġst ates
Ġpro p
i z
Ġimp ort
r y
en ce
b ut
t e
a g
Ġex p
r u
Ġa pp
Ġc o
Ġs a
con om
w h
ter n
a re
Ġcon s
f ore
o se
it ion
ri es
Ġt e
Ġp re
t s
Ġe conom
au se
ic e
Ġne w
in k
ation al
en s
Ġp o
Ġo ther
Ġi f
Ġtim e
m e
c es
Ġp os
Ġa r
at ed
i a
Ġm ar
e l
Ġe v
Ġme mber
l ic
c y
o g
o k
a ge
Ġpol ic
Ġthe m
Ġcount ries
m s
Ġcon c
a ch
Ġn ow
ac k
Ġj ust
p t
Ġbe t
is e
Ġh ow
Ġ :
ig n
h e
Ġon ly
am e
Ġ ra
Ġ "
Ġk now
i al
in e
Ġde c
Ġs pe
as e
j ect
Ġan y
c il
Ġun der
Ġt ra
Ġprop os
i ous
Ġimport ant
pe ct
' t
Ġde m
id e
oun d
Ġcoun cil
Ġwe re
t ed
Ġw ant
Ġs p
Ġe ff
vel op
it ies
ut ion
res s
Ġde velop
Ġsu pport
Ġbec ause
c ed
ir st
Ġag ain
th ing
if f
Ġf e
Ġth ink
Ġo b
Ġwh en
ere n
r ic
Ġw ay
e ver
Ġpol it
Ġp er
Ġre c
Ġwor ld
Ġin d
in d
ct ion
il ity
i p
Ġm ake
Ġint o
Ġd iff
u b
Ġpolic y
Ġs ay
Ġs er
le ar
a ce
Ġyou r
Ġb o
m r
Ġin v
un d
Ġo ver
Ġo p
Ġt er
for m
Ġ ro
Ġm ad
se l
Ġ )
Ġl o
in t
ver n
Ġha d
ing s
Ġis s
er n
Ġse e
Ġpro ble
t ain
Ġ- -
v ed
Ġag ree
ul ar
Ġt ake
u ch
i ght
Ġs y
Ġle g
Ġeconom ic
Ġof f
Ġc l
Ġpart ic
Ġin st
v ing
r it
Ġgo vern
k s
Ġv ot
Ġh is
Ġcomm it
Ġt w
Ġf irst
Ġin tern
Ġtr ans
i gh
at ive
ro w
Ġsu ch
Ġmar ke
the re
li e
d ay
th at
Ġman y
Ġpro g
ent ion
an g
Ġyear s
Ġth ose
u res
Ġc ould
a ct
g y
Ġqu est
Ġa f
Ġh ere
si ble
Ġst r
Ġd ire
or s
Ġsu b
f ul
Ġpropos al
Ġbe lie
Ġpolit ical
Ġgo od
it e
Ġe very
at h
Ġfa ct
we en
t ing
i an
Ġg reat
Ġf und
Ġpro du
Ġbet ween
or d
p on
e p
v es
Ġbe ing
m m
Ġmad e
Ġh um
Ġtw o
Ġm o
Ġac c
Ġb as
Ġpro v
Ġde b
u es
at ing
Ġcomm un
x t
r is
Ġt ak
Ġg en
Ġev en
or y
Ġre l
Ġc our
Ġm ost
Ġm uch
Ġdo es
Ġconc ern
il d
Ġg et
Ġl ong
Ġ2 00
Ġc lear
Ġwh ere
Ġh o
ar ge
st em
Ġthere fore
an ge
Ġwe ll
Ġhum an
le ct
Ġcon f
Ġpartic ular
Ġre m
re d
ĠâĢ ĵ
w ard
ce pt
Ġres pon
Ġright s
rou p
Ġsy stem
w n
Ġst ate
Ġm at
Ġp ri
Ġg roup
Ġdire ct
Ġbelie ve
Ġfin an
u al
ur al
ub lic
h ow
Ġapp ro
ou gh
Ġso cial
Ġj o
r at
Ġs it
Ġdis c
Ġsa id
Ġh igh
Ġc all
a mp
is m
er ation
Ġm on
l ud
Ġm ay
Ġre f
Ġcount ry
Ġn u
Ġlo ok
as s
Ġpro t
Ġm in
er al
Ġto o
Ġad d
Ġex t
ol l
it ed
Ġf ar
re ad
Ġam end
Ġl a
ie w
Ġdem oc
w ay
Ġthe n
Ġp ut
iv es
m in
Ġagain st
Ġmarke t
en cy
Ġse c
ere st
Ġpo int
Ġgo ing
Ġc ur
Ġs ame
Ġp r
Ġde f
Ġquest ion
Ġen d
rou gh
Ġto day
Ġinc re
Ġu se
Ġs ol
Ġd id
Ġre al
Ġint erest
is ion
Ġre qu
Ġdiff eren
Ġ ;
Ġe mp
i le
m an
Ġm a
Ġ ent
Ġf ut
Ġeff ect
Ġat t
ren t
Ġfut ure
ar t
y ou
ow n
Ġd es
Ġcont in
Ġ (
Ġp ublic
Ġt reat
ge t
Ġdevelop ment
Ġs i
Ġ1 9
Ġst ill
u ation
Ġth rough
l es
er tain
if ic
Ġt ur
Ġn ational
it iz
Ġl ast
Ġo wn
Ġcommit te
wh at
Ġfinan cial
Ġgovern ment
Ġas s
Ġh er
Ġha pp
Ġhe l
mb ers
Ġre ally
al th
Ġg u
Ġiss ue
k ing
Ġreg ard
Ġc itiz
Ġg row
Ġme as
u ally
Ġprot ect
Ġc ar
Ġwh y
Ġprog ra
Ġb ud
Ġs c
Ġintern ational
Ġle ad
Ġs m
Ġhel p
ent s
as on
Ġ %
the y
Ġin form
Ġle vel
pe t
ow er
ol og
lo y
Ġres ult
es e
le ment
Ġmat ter
iv en
Ġproble m
Ġcommitte e
t y
Ġt al
Ġ ke
Ġen v
l ed
Ġcon st
is ed
con d
Ġcour se
n ing
Ġcommission er
Ġcons id
Ġb r
ru ct
b ility
Ġb ack
read y
Ġdeb ate
Ġm ak
Ġcitiz ens
Ġin ter
Ġsit uation
Ġal ready
Ġv iew
Ġp ers
Ġre ason
Ġpos sible
Ġho pe
o od
a il
in ce
sel f
g an
on ment
Ġinc lud
Ġme mbers
u th
i ed
ul ation
Ġex amp
Ġbo th
ou se
ill ion
ic t
Ġpro cess
s ure
Ġs ign
et y
Ġw ar
Ġc ertain
Ġb u
Ġd ra
Ġres ol
Ġcom e
Ġor der
Ġagree ment
Ġc ent
Ġen er
ra ct
Ġse t
Ġenv ir
Ġb an
ur ing
w or
h ip
ic i
Ġenvir onment
Ġbe fore
Ġa ch
b al
how ever
ch n
Ġas k
Ġco op
ci p
er ic
Ġach ie
or ity
Ġh im
t le
Ġg lo
Ġad op
Ġdifferen t
Ġener gy
Ġf ul
Ġa ble
Ġd ay
Ġsome thing
Ġne g
ic es
o ther
Ġbud get
l ish
f t
Ġtrans p
Ġinst it
Ġcom pet
Ġa ff
ic ally
Ġc ase
Ġcomm on
Ġc ap
ur ther
r ation
ut ions
Ġth ings
Ġcommun ity
Ġla w
Ġc ol
g in
Ġst and
Ġh ouse
Ġvot e
n e
Ġcur rent
Ġinv est
Ġm ed
Ġfor m
Ġc ris
om en
in a
Ġpre v
Ġexamp le
Ġd own
Ġch ange
Ġwith in
t en
Ġser v
Ġdisc us
Ġma j
ate ly
it s
ur ity
ri but
Ġpres ent
Ġg ive
Ġi de
Ġmeas ures
Ġbe h
Ġglo bal
Ġsu c
Ġm ain
Ġwith out
Ġc a
Ġf ore
Ġhow ever
e ur
Ġam eric
l u
Ġme ans
Ġpl ace
Ġl it
Ġl if
Ġte chn
Ġin f
e f
m en
Ġimp ro
Ġm od
Ġres pect
Ġtak en
Ġsec urity
Ġsi mp
Ġproble ms
Ġhe alth
Ġstr ate
is l
Ġse ct
ver s
Ġaf ter
Ġa uth
oun t
Ġbet ter
Ġde al
Ġnu mber
Ġb us
Ġun ited
Ġ2 0
t o
Ġf ra
ath er
Ġpr in
c ome
b e
Ġreg ion
Ġfin d
Ġg r
ere d
Ġinform ation
Ġp ower
Ġcoop eration
Ġcris is
Ġth ree
Ġor gan
Ġleg isl
st and
Ġde p
Ġs ch
Ġf r
i ly
Ġdirect ive
re ed
Ġr ul
Ġact ion
a ir
Ġpl ay
Ġb l
Ġob ject
Ġare a
ent ly
it al
Ġne cess
Ġh and
Ġall ow
it ions
Ġ est
Ġprin cip
Ġfe w
Ġind ust
it ive
ab ility
pport eur
v en
oll ow
Ġe lect
Ġr is
Ġc re
Ġ 3
at er
Ġn or
Ġcon d
Ġn at
Ġpro m
l and
Ġch ild
p h
Ġwe l
l ess
Ġe m
Ġp h
ist s
Ġd one
Ġa p
Ġe ar
Ġv al
pport un
Ġrep res
Ġt a
Ġo pportun
Ġsh e
Ġme et
ut e
Ġre du
Ġop en
o v
Ġtra de
ent ial
Ġact ually
Ġra pporteur
wor k
al ity
ic ult
Ġre st
Ġw omen
ort s
Ġsa f
d s
Ġs ince
al f
is ation
Ġlit tle
Ġne xt
Ġdemoc rat
u c
Ġsh ow
Ġincre as
Ġs ur
Ġk ind
Ġfa v
Ġimp lement
Ġdiff icult
Ġa v
ar ch
Ġin de
Ġe qu
ot i
Ġc or
Ġf ollow
Ġl ess
Ġpl an
Ġw ish
or ities
e g
Ġrem ain
Ġthan k
Ġin s
Ġcont ro
Ġin it
Ġexp er
Ġen sure
Ġspe ak
Ġad v
us si
way s
Ġf urther
Ġac cept
Ġlif e
Ġemp loy
ic k
Ġinv ol
Ġspe ci
Ġneg oti
Ġcomp le
al s
Ġtreat y
Ġprogra m
Ġwh e
ou ra
Ġjo b
Ġc ost
s he
Ġv i
Ġle t
Ġiss ues
Ġ !
y ing
Ġgrow th
ic s
c ing
Ġser ious
Ġse cond
Ġth ing
one y
Ġmr s
Ġprodu ct
ro s
Ġunder stand
Ġi r
Ġrul es
Ġconsid er
are d
Ġb en
id ed
Ġpers on
li g
Ġg ent
od y
c om
Ġgent le
Ġsm all
Ġr ussi
Ġan other
Ġnecess ary
Ġg iven
Ġrequ ire
Ġneed s
Ġleg al
in ess
Ġhapp en
Ġbec ome
ir d
Ġro le
Ġwhe ther
Ġm oney
Ġamend ments
ad ies
Ġi mm
Ġal ways
sel ves
Ġgentle men
Ġre ad
Ġl arge
Ġpro ced
c u
Ġprotect ion
Ġwho le
Ġse em
Ġeconom y
Ġpos ition
is ter
Ġsuc cess
Ġare as
Ġch ina
si bility
Ġa id
Ġmo ve
Ġcon v
Ġso ci
ra cy
Ġcons um
m y
ge ther
Ġc rit
a ve
Ġinit i
Ġparticular ly
Ġsect or
p er
ĠâĢ Ŀ
g g
Ġ es
th ese
Ġappro ach
Ġne ver
a v
Ġre v
Ġm il
Ġus ed
Ġf ree
Ġpro ject
Ġb al
Ġprog ress
sion s
Ġdec ision
Ġm illion
our ces
p ar
ros s
n ess
Ġresol ution
Ġta x
Ġe l
Ġeffect ive
Ġprogram me
in es
Ġp ay
Ġcont ribut
Ġst ep
Ġfe el
Ġmak ing
en se
Ġf ish
Ġ19 9
y s
en g
r al
d o
ab lish
Ġp ract
Ġe as
Ġ ed
ĠâĢ ľ
Ġre se
im ate
ab ly
Ġpresid ency
Ġop in
ult ural
le t
Ġest ablish
Ġcontin ue
ward s
Ġgen eral
Ġben ef
Ġto gether
Ġp ur
Ġstr ong
Ġcomp an
Ġl ot
Ġ 5
Ġu r
is ions
Ġspeci f
Ġdo ing
Ġserv ices
ou ght
Ġwork ing
n ed
Ġag ric
Ġrepres ent
n er
Ġfa il
Ġconst it
Ġter ms
m ore
Ġd ist
Ġfor ward
Ġfra me
Ġst ar
Ġfav our
Ġme an
re t
Ġch ang
r or
Ġpe ace
Ġinstit utions
Ġcontro l
Ġm ight
Ġf ood
Ġrese arch
Ġter m
Ġstrate gy
Ġproposal s
Ġre ach
m ost
Ġst ud
Ġw rit
Ġsu pp
Ġbas is
Ġp op
Ġf ound
eren ce
Ġrel ations
s w
Ġl adies
Ġexper i
Ġbus iness
Ġtechn olog
Ġar ound
Ġb ro
Ġe ach
Ġc reat
o ver
Ġbu ild
Ġa im
Ġpo in
Ġc are
ro du
Ġ 4
Ġsub ject
Ġfund ament
Ġamend ment
os ed
Ġs ing
Ġy et
Ġte ll
ap s
Ġcall ed
Ġit self
Ġqu ite
Ġ ess
Ġf ac
Ġwel come
Ġon ce
Ġbr ing
Ġframe work
Ġachie ve
Ġli b
Ġdemoc racy
Ġf am
Ġbas ed
i ble
Ġmon th
Ġo pp
Ġsh ort
Ġg ot
Ġar t
Ġchild ren
in ed
Ġm ention
Ġof ten
Ġa w
Ġb est
Ġex ist
Ġex pect
Ġc ri
Ġch all
Ġan sw
Ġtal k
Ġb ig
Ġopportun ity
Ġd uring
Ġp le
Ġopin ion
ult ure
Ġr ather
Ġst ruct
iz ed
Ġsu ff
Ġo ld
th en
Ġprom ot
Ġdem and
Ġab s
li ght
ag es
Ġlegisl ation
Ġimpro ve
ar m
Ġext re
an ces
Ġacc ount
Ġc lo
g ed
Ġwh ile
Ġincre ase
Ġs w
Ġdemocrat ic
Ġint eg
Ġvi ol
Ġbe gin
Ġag o
Ġfore ign
id es
Ġl ab
c lear
Ġt ri
Ġmin ister
Ġst art
og n
Ġl im
st ain
Ġen ough
Ġen g
Ġmaj or
reed om
Ġi m
f ort
p ri
man y
Ġindust ry
Ġh ard
Ġreg ulation
Ġrec ogn
ant s
oc k
Ġg er
Ġto wards
iv id
as es
Ġwe e
th ers
Ġb ar
Ġadop ted
Ġv ar
Ġle ast
mp t
Ġfundament al
if ied
Ġconcern ed
Ġrussi a
Ġh ist
l ing
ci ally
Ġide a
Ġb or
Ġre t
Ġres ources
Ġprov ide
at ives
Ġf reedom
Ġpolic ies
en ces
Ġre form
Ġaf ric
iz e
Ġvot ed
Ġstand ard
Ġth ird
Ġp at
se qu
Ġo c
i vers
Ġsu mm
Ġact iv
Ġsh all
Ġc iv
Ġsoci ety
Ġap pe
Ġed uc
Ġcon g
Ġinclud ing
n ers
Ġreg ul
end ing
Ġprincip le
Ġdiscus s
Ġcol le
Ġf l
Ġpro f
ith er
Ġclear ly
Ġac cess
Ġter ror
Ġsign ific
a ren
ar ant
Ġciv il
Ġimport ance
f in
b on
Ġcond itions
w ith
Ġa ir
i b
Ġadd ress
wh en
m it
Ġpropos ed
Ġris k
ie ld
Ġexp ress
Ġgu arant
le g
Ġint rodu
Ġsing le
Ġrespon sibility
Ġtransp ort
ren g
is ing
Ġh ome
Ġguarant e
ar ity
Ġind ivid
o ve
Ġexp l
Ġm om
id ence
Ġwor ds
Ġclo se
Ġextre me
pe cially
Ġs ci
ou b
Ġst reng
Ġm or
Ġsu re
Ġtak ing
Ġgreat er
Ġv is
Ġnegoti ations
ra ph
ar s
Ġmil it
Ġke ep
Ġemploy ment
Ġcre ate
end s
Ġatt ention
Ġen c
Ġrec ent
Ġl ist
ord in
Ġadd ition
Ġes pecially
Ġpos itive
b ody
fort un
i od
Ġam ong
00 0
Ġan n
Ġful l
Ġno thing
Ġf ight
Ġpoin ts
Ġindivid ual
Ġp ass
in ing
Ġcent ral
wh ere
Ġlead ers
a f
Ġsu stain
Ġenvironment al
Ġl oc
on s
Ġr u
ke y
Ġcom b
Ġop er
Ġauth orities
im e
Ġprev ent
Ġsaf ety
u ge
p end
Ġf our
Ġeff orts
Ġm ind
Ġhe ad
c k
o ol
Ġre ce
Ġsimp ly
Ġp ast
g er
Ġproced ure
Ġfor ce
Ġfund s
Ġpart ners
Ġspecif ic
Ġch ar
Ġha ving
t il
Ġf ri
Ġess ential
m ad
h aps
Ġintern al
Ġw ater
Ġneed ed
Ġbe l
Ġle ar
Ġs ou
Ġle ft
Ġnu clear
Ġbeh alf
o f
Ġth ought
Ġinterest s
Ġtr ue
Ġproduct s
Ġincreas ing
Ġpart y
Ġquest ions
Ġoff ice
b y
Ġs l
Ġo thers
Ġban k
Ġke y
Ġr un
i um
Ġameric a
us ed
ce ed
Ġmarke ts
at a
Ġm is
Ġdec l
Ġg re
ic ial
Ġis ra
Ġyou n
Ġf oc
er ing
Ġde t
Ġpri v
ar k
Ġcomple te
Ġcl imate
Ġsol ution
Ġtim es
Ġ z
Ġman age
Ġsignific ant
Ġcertain ly
Ġlong er
Ġtur n
iz ation
Ġconcern s
Ġcompan ies
on d
Ġinst ru
Ġc e
ens ive
Ġper iod
Ġgovern ments
al e
ir m
Ġmom ent
Ġst at
Ġse en
Ġmilit ary
Ġl ive
Ġe ver
Ġn ame
Ġappro pri
Ġconstit ution
f irst
Ġm id
Ġb ur
Ġch e
Ġmak es
u g
fortun ately
Ġ1 0
mad am
Ġc red
h as
Ġdevelop ing
ul ate
Ġansw er
Ġm ot
c o
Ġch o
Ġprop er
Ġn on
Ġad min
Ġcompet ition
Ġwork ers
e ad
Ġcont e
Ġfar m
n o
Ġth reat
Ġp en
Ġaff ect
b er
Ġthem selves
Ġinvol ved
Ġeduc ation
Ġconf lic
Ġyoun g
Ġsub st
Ġte xt
air s
er v
Ġimp act
Ġtur key
ici ent
Ġin n
v ious
Ġcom es
Ġregion al
Ġe le
Ġ 6
Ġcour t
Ġl ack
Ġseem s
Ġenc oura
Ġd ata
Ġtra d
Ġf ield
Ġqu ality
Ġadmin ist
Ġf all
Ġar g
Ġa way
c ise
ter s
s id
Ġan im
ci es
Ġextreme ly
e qu
Ġto t
Ġas pect
Ġcolle ag
Ġt y
an k
Ġen l
Ġacc ord
Ġmaj ority
Ġs ense
ne w
Ġsch ool
Ġcong rat
Ġ20 1
Ġav ail
Ġful ly
Ġmonth s
Ġi d
Ġne t
Ġadop t
Ġf un
Ġcap ital
Ġinvest ment
ra q
ic ation
Ġgroup s
Ġvar ious
Ġspe cial
Ġent ire
Ġp al
Ġth ough
Ġevery thing
Ġde ter
Ġiniti ative
Ġg ra
Ġfa ce
Ġd ri
id ent
Ġsh are
Ġru le
i ans
Ġd ial
og ue
Ġ er
as ed
gg est
Ġsu ggest
h o
Ġf ive
Ġo ri
Ġreg ions
Ġi raq
Ġoc c
Ġjob s
Ġso on
Ġl ang
at ic
Ġdec isions
Ġcon sequ
Ġo pt
Ġask ed
Ġmeet ing
fin ally
Ġco h
Ġstreng then
Ġcomp rom
Ġemp has
Ġp ot
il ities
Ġag end
Ġem er
ces sion
ar ian
ic le
Ġdis p
Ġho ld
Ġb re
om m
Ġh on
s ide
Ġcost s
e ch
Ġresult s
Ġinde pend
li es
ap an
Ġaff airs
Ġagric ultural
g ing
a z
at ors
Ġl is
Ġd ang
g o
Ġc ut
Ġameric an
Ġstandard s
ver al
Ġprogra mm
Ġpartic ip
Ġrequ est
ific ation
Ġobject ive
Ġal most
Ġdes ign
Ġe ur
Ġdial ogue
Ġagend a
Ġtr y
Ġgen er
ist an
Ġsystem s
end ed
st r
ce ll
Ġb illion
it ing
Ġlang u
Ġd oub
Ġinde ed
Ġlis bon
Ġreason s
Ġe ast
Ġc ir
Ġqu ick
Ġmod el
Ġafric a
Ġy es
me mber
Ġdra w
n ect
d en
Ġpop ulation
Ġb ra
Ġst ability
Ġc ame
as h
ful ly
Ġhe ar
le v
Ġco ordin
Ġun til
i er
Ġt as
on t
Ġac ross
lu sion
Ġprodu ction
Ġaw are
Ġavail able
Ġw r
Ġp a
Ġwrit ing
Ġs k
Ġwee k
Ġto ok
if y
Ġb rit
Ġl ine
Ġsol id
Ġ rom
it or
Ġun e
Ġli ght
Ġapp lic
Ġw a
ri ed
Ġid ent
Ġdo cu
Ġw ent
Ġh arm
Ġv ict
Ġenl arge
Ġpart ies
Ġloc al
Ġg e
Ġass ist
Ġex c
Ġ 7
Ġd om
e u
Ġcom ing
Ġlib eral
Ġtal king
Ġel se
s ome
Ġp ric
Ġfoc us
Ġj ud
j ust
Ġto m
Ġcir c
d le
Ġf le
Ġagree ments
Ġa mb
Ġmention ed
Ġconte xt
Ġj apan
Ġm ult
Ġl at
im s
Ġsumm it
c ent
ed i
Ġtechnolog y
Ġr ate
Ġh alf
Ġlook ing
Ġfollow ing
Ġt en
Ġper haps
Ġinn ov
Ġ 8
ric t
Ġan t
Ġcurrent ly
Ġdem on
Ġref er
Ġobject ives
Ġbo ok
Ġc ases
Ġir an
ur y
Ġob s
Ġass ess
Ġabs ol
Ġp ost
the less
Ġjust ice
Ġjo int
Ġse veral
ut es
Ġbro ad
Ġret ur
Ġu k
Ġevery one
se cond
Ġwr ong
p le
Ġo il
im es
Ġob vious
ag ed
Ġex cell
Ġcont ain
Ġapp ly
Ġconv ention
Ġenlarge ment
Ġhist ory
Ġt arge
i res
Ġwant ed
Ġrespon sible
or m
Ġto p
us h
Ġabsol ute
i bility
Ġro ad
in de
Ġmatter s
im il
ap er
u ed
iven ess
Ġd est
Ġfin al
Ġn ations
Ġdang er
Ġconsum ers
r ing
Ġb ad
ren ch
i o
Ġl ow
Ġprogramm es
om et
at ch
an ced
Ġsi x
Ġmain tain
Ġimplement ation
Ġpal est
at ory
an e
Ġconsum er
ist ic
Ġsay ing
Ġany thing
r ast
Ġconf erence
Ġur g
p ris
Ġfa ir
si b
Ġchang es
Ġ 9
Ġpre p
er ia
Ġw on
l ine
p id
Ġre ject
Ġmad am
Ġcomprom ise
Ġde ep
Ġappropri ate
is es
Ġs ide
Ġtr ying
Ġs at
Ġd ut
inde ed
Ġme t
Ġ ve
er t
Ġpo or
h ere
es sion
Ġst op
Ġhe ard
Ġday s
Ġisra el
l f
Ġsci ent
led ge
Ġmanage ment
Ġinstit ution
Ġ ver
Ġmid dle
imil ar
iv ed
Ġent er
Ġp ack
Ġexperi ence
Ġpric es
Ġli ving
o id
Ġrec omm
Ġcon nect
mp loy
Ġt est
Ġrespon se
Ġe c
Ġpro b
Ġchall eng
Ġde ath
Ġnat ure
b our
Ġori gin
Ġval ues
Ġguarante e
Ġachie ved
c ri
rou ght
Ġexcell ent
Ġfish er
Ġelect ions
Ġm ess
Ġval ue
Ġproject s
Ġc ru
Ġe ither
iv ing
Ġprincip les
Ġstar ted
p s
res sion
Ġne igh
Ġpriv ate
Ġcommit ment
Ġpr ice
ab led
Ġopp os
Ġimm ig
Ġg ree
ue l
Ġremain s
Ġm ass
Ġsub sid
Ġl ink
ver ty
Ġpo verty
or row
Ġinteg ration
Ġsustain able
b an
Ġviol ence
Ġart icle
Ġf ig
Ġour selves
Ġsu per
min ation
Ġus ing
Ġbor der
Ġsou th
in s
Ġf rench
en ing
Ġl and
Ġde v
Ġ1 5
Ġl os
re ct
p ite
Ġm us
Ġsolid arity
l er
li ed
Ġbenef it
Ġli ves
Ġstrate g
is f
Ġserv ice
Ġwe ak
Ġcongrat ulate
Ġc amp
Ġactiv ities
Ġex ch
Ġh uge
Ġpro s
Ġdis e
Ġconflic t
Ġpri ority
Ġse lf
ch an
ac y
us es
Ġal ong
Ġquick ly
Ġme chan
Ġreport s
Ġger many
Ġdec ided
Ġatt ack
Ġmon itor
Ġgre en
Ġst ress
Ġup on
th od
Ġune mploy
Ġgr ound
Ġp ort
p r
Ġs ent
a pp
Ġconc lud
Ġconcern ing
Ġhappen ed
eu ro
f er
Ġfe ll
Ġm en
Ġg l
Ġredu ce
Ġrec ently
Ġdemon str
l ay
et ary
as ter
Ġref lect
Ġdet ail
Ġprob ably
aren cy
Ġpl ac
Ġpur p
Ġoff icial
Ġfund ing
Ġconsequ ences
Ġd am
there fore
Ġdra ft
ru pt
Ġre d
Ġd i
Ġab ove
Ġan al
Ġs ort
Ġinf lu
Ġgo es
Ġc y
Ġd ue
er ial
Ġmod ern
Ġfam ily
Ġprov ided
Ġbuild ing
Ġtom orrow
tern al
Ġb i
Ġto ld
Ġterror ism
Ġbec om
ve re
Ġwor d
Ġnat ural
Ġimm edi
Ġbal ance
Ġpot ential
Ġdef in
Ġit al
Ġbas ic
Ġbeh ind
ure d
Ġtransp arency
Ġob lig
or ies
un ch
Ġthink ing
so ci
Ġincreas ed
Ġre lig
Ġle ave
second ly
i ation
Ġal one
Ġat te
euro pe
wh y
Ġagric ulture
en ge
Ġrequire d
Ġc ause
Ġb rought
ru ction
Ġpract ice
Ġdiscus sion
Ġspe ech
Ġcl os
Ġfr ance
Ġd oll
Ġprev ious
Ġc ulture
in ation
Ġstruct ural
Ġcomplete ly
c al
og raph
Ġper cent
Ġinclud e
more over
Ġme thod
Ġway s
Ġpromot e
Ġpalest in
Ġ il
Ġh un
ho ld
ire d
Ġl ar
Ġcru cial
Ġre pe
Ġout side
Ġreal ity
id ing
Ġcl a
Ġmon etary
Ġchall enge
Ġa ut
Ġind ia
Ġdoub t
re g
omet imes
af ter
Ġl ater
li ke
Ġc ultural
th ough
Ġav oid
Ġchalleng es
Ġth us
ive ly
Ġear ly
b o
ow ers
Ġex ternal
for ms
Ġev ent
e c
be c
Ġc ross
u ly
Ġag reed
Ġf ear
g es
Ġexpl ain
Ġs ound
Ġd en
Ġind ic
Ġsay s
Ġhigh er
Ġhapp y
Ġb it
Ġst age
Ġmove ment
Ġb ri
Ġtas k
en sion
ivers ity
Ġ ill
Ġas soci
Ġimp os
Ġhe ld
Ġcontribut ion
s p
it arian
Ġh our
at eral
li f
ru g
Ġget ting
bec ause
t od
ar ily
Ġdeb t
Ġem ission
Ġpur s
im um
Ġcar ry
tod ay
Ġro om
Ġdevelop ed
Ġcommun ication
Ġregard ing
Ġeff ort
Ġrecomm end
er ve
ll ing
Ġac cession
Ġrev iew
ac c
Ġact ions
Ġlegisl ative
Ġretur n
g est
Ġpartners hip
r on
Ġcri min
Ġcolleag ues
Ġdire ction
Ġfarm ers
2 0
t om
e v
Ġv ol
Ġbre ak
Ġdec ad
Ġtak es
Ġlangu age
u se
it er
Ġra d
Ġe mb
u ff
Ġtechn ical
re am
Ġex act
Ġpre cise
Ġnor th
Ġple ased
Ġbegin ning
Ġex cept
Ġcor rect
Ġexist ing
Ġsat isf
Ġst ory
Ġas se
Ġc and
Ġp aper
Ġte ach
w ise
ol ution
Ġlike ly
Ġreg ime
Ġa ud
Ġre member
Ġvot ing
Ġc le
Ġpres sure
Ġabsolute ly
ri al
Ġk ill
ous and
Ġf o
Ġgrow ing
a rent
i or
Ġl ost
ct ions
Ġassist ance
Ġe y
Ġal though
Ġs an
Ġfor ces
we ll
Ġopportun ities
Ġlo ve
in ese
Ġc oll
Ġl ed
Ġr ich
Ġstate ment
Ġorgan is
Ġne ar
ous ly
Ġcur ren
Ġlab our
il ateral
Ġd im
ter day
wh ile
Ġcons ult
Ġcre ation
Ġregul ations
Ġra ised
Ġconf idence
Ġequ al
un e
Ġcap ac
Ġide as
Ġs imilar
Ġa ge
Ġr at
Ġban ks
en cies
Ġcreat ed
Ġknow n
Ġse a
Ġtot al
Ġ /
Ġd iv
Ġfin ally
Ġam ount
Ġwas te
Ġeffect s
Ġthrough out
Ġpres s
en ed
Ġtra ff
in st
Ġcoh es
Ġf is
Ġsimp le
Ġr ise
Ġcl ass
Ġregard s
Ġil leg
l ation
Ġaspect s
i ally
Ġf lo
Ġv ital
s h
Ġre forms
Ġex am
ition al
Ġoff er
m ission
Ġknow ledge
Ġread ing
Ġth ousand
Ġr ates
Ġ3 0
Ġm ist
Ġd rug
Ġprep ared
Ġwon der
j o
Ġal tern
Ġch inese
e ven
Ġext ra
Ġcent ury
Ġunemploy ment
es tern
Ġindust rial
Ġcrit ic
Ġcand id
l am
Ġinteg r
y ond
Ġdisc ri
Ġfle x
Ġlevel s
Ġw est
Ġi g
Ġinter v
Ġmed ia
mit ted
a h
r ist
Ġw ide
Ġe th
Ġw al
ver se
Ġinst ead
Ġreach ed
Ġg ain
Ġeff ici
Ġsuccess ful
Ġcrit eria
Ġexch ange
at or
u ing
Ġa ra
Ġcar ried
ar ing
Ġharm on
Ġstud y
Ġlear n
Ġbrit ish
Ġauth ority
Ġcomple x
p or
Ġde li
pp ed
Ġmy self
Ġim ag
ish ed
Ġinterest ing
Ġ5 0
Ġp owers
Ġ200 0
Ġpresent ed
Ġcohes ion
Ġw estern
Ġc al
Ġmat erial
Ġtr ust
Ġdocu ment
Ġc od
Ġpers pect
it ud
Ġproced ures
ro p
Ġwor th
Ġch ance
Ġsw ed
Ġb ody
Ġrequ ires
Ġtraff ic
Ġv o
Ġcirc um
Ġ1 2
e very
Ġbenef its
sel s
Ġrel ation
Ġsc ale
Ġpack age
est ic
Ġbudget ary
d ict
Ġcompet it
olog ical
re ly
ord ers
Ġs ometimes
Ġallow ed
Ġperson al
Ġwant s
Ġeas y
Ġfun ction
Ġeconom ies
Ġaccord ing
Ġst ri
Ġra pid
r ary
Ġtra ining
Ġpri m
c an
an ia
Ġrelations hip
Ġpat i
Ġwho se
Ġintern et
Ġrespon d
Ġfri end
Ġpri orities
Ġcapac ity
Ġ 000
Ġm ill
Ġsupport ed
i x
Ġdep end
Ġbe yond
Ġencoura ge
at s
Ġpol l
Ġinstru ment
Ġa ust
ore d
du ct
Ġear th
mpt ion
Ġev ents
Ġcol lect
re h
Ġg iving
Ġr ural
Ġparliament ary
Ġscient ific
Ġmess age
Ġ2 5
Ġs al
f urther
Ġde ad
Ġfisher ies
Ġf ed
Ġcompan y
l t
Ġger man
ĠâĢ ĺ
Ġsa w
Ġter rit
Ġinnov ation
Ġsec ret
Ġre new
Ġthan ks
Ġint el
Ġg as
Ġinc ome
Ġrequire ments
our ce
Ġrep ublic
Ġprov isions
Ġhigh light
Ġtreat ment
Ġprodu ce
Ġun d
Ġsp ace
Ġfam il
Ġg ave
d om
c er
Ġp ie
Ġch rist
ther n
Ġemission s
Ġrem ind
Ġanim als
Ġreg ret
h a
Ġnot e
Ġvict ims
Ġm er
Ġform er
Ġfell ow
t on
Ġt abled
Ġw in
Ġde ce
Ġ1 1
Ġgr ant
Ġfr ont
a ff
Ġcri me
Ġre con
Ġexact ly
Ġpri me
Ġrece ived
y et
Ġestablish ed
Ġinstru ments
Ġmin utes
oura ble
Ġhe art
Ġadv ant
Ġte mp
Ġsol utions
sib ilities
Ġs ens
Ġis lam
Ġl ate
Ġcomp ut
Ġit em
a ction
Ġwe ap
Ġv ir
Ġb orders
Ġexp ort
Ġpolit ics
Ġcreat ing
a ut
Ġc op
f ect
Ġhist or
Ġyes terday
Ġi re
Ġpre par
Ġiniti atives
Ġp ict
Ġadminist ration
Ġde g
ot s
re ci
li er
un fortunately
Ġsubst ant
Ġara b
Ġire land
Ġshow s
Ġsupp ly
Ġele ction
p l
Ġsh own
Ġmonitor ing
Ġleg it
a ign
c a
Ġocc ur
Ġneigh bour
Ġre lev
Ġconc lusion
Ġcircum st
i et
ici ans
Ġuk ra
Ġcon duct
Ġaddition al
Ġcamp aign
gh an
Ġsuc ceed
Ġmor ning
Ġcurren cy
Ġunder t
Ġd r
Ġindepend ent
li ance
Ġqu ot
Ġsp ir
om p
Ġpart s
Ġnor m
Ġilleg al
Ġcoun ter
Ġarg u
n am
Ġwill ing
Ġen s
Ġmed ium
Ġexpress ed
Ġcons ist
Ġcrimin al
Ġsl ow
Ġmeas ure
g ar
Ġsc o
rast ruct
Ġdec ide
Ġfish ing
Ġstrateg ic
r ound
first ly
Ġanal ys
Ġinflu ence
Ġpurp ose
Ġf irm
Ġrec ord
Ġinf rastruct
Ġse par
Ġgu id
Ġbusiness es
ver age
Ġgood s
Ġconv in
Ġcompetit iveness
Ġn ight
u ine
Ġt ack
Ġto ol
ac cept
Ġde lay
Ġris ks
Ġas ia
und red
Ġact ive
he ad
Ġfis cal
. .
Ġm and
oun ts
Ġpol ice
Ġcircumst ances
th ank
Ġpract ical
Ġinvol ve
Ġfri ends
Ġsp ending
Ġcred it
Ġdef ic
Ġk ing
Ġext ent
Ġserious ly
Ġun accept
Ġw atch
ag raph
Ġorganis ations
Ġgen uine
Ġlim ited
Ġapplic ation
Ġinclud ed
am a
Ġaf ghan
Ġdes cri
v al
Ġwork ed
Ġst ay
ort ion
Ġredu ction
Ġp ain
Ġb ul
Ġimplement ed
u mp
Ġon es
Ġm al
Ġm ig
Ġwee ks
Ġimmig ration
il t
ris on
Ġapp reci
Ġconsid ered
Ġincreasing ly
Ġant i
n ot
ure au
Ġper form
l a
Ġeffective ly
further more
r ative
qu e
Ġlim it
Ġdanger ous
Ġty pe
an ish
os ov
Ġb ureau
Ġag ency
Ġwar m
Ġpa id
b ed
Ġview s
Ġminister s
s es
Ġapp lied
Ġhigh ly
Ġchang ed
itud e
Ġunaccept able
p re
se c
Ġev idence
Ġeas tern
Ġprov ides
k now
ent ions
Ġspeak ing
Ġmot ion
o int
Ġoppos ition
s ince
Ġs en
Ġconst ruct
Ġdise ase
Ġrest rict
Ġcomm er
Ġk ore
Ġinstitution al
Ġcont ent
Ġple ase
Ġann ual
Ġbri ef
d p
l in
u mption
Ġce ll
Ġfail ure
Ġc at
Ġh undred
il it
Ġst e
im ately
Ġpos sibility
Ġinvest ig
Ġimpos sible
Ġk id
Ġeffici ency
Ġk osov
Ġdes pite
on es
Ġg ives
Ġout come
Ġc ou
Ġpalestin ian
olog y
n ever
Ġfail ed
Ġassess ment
l ast
o ke
Ġex er
Ġch a
Ġany one
Ġname ly
Ġra ise
Ġ200 7
Ġdiscus sions
Ġdiscri mination
Ġdece mber
h ood
st er
Ġfor get
Ġde leg
Ġcho ice
Ġrel ating
Ġspe ed
Ġbu y
Ġdom estic
Ġeuropean s
Ġper fect
Ġc ity
Ġcommit ted
Ġprecise ly
for ce
Ġuse ful
Ġocc as
iv ity
Ġperspect ive
equ ate
is s
Ġm ut
Ġen able
land s
Ġen orm
n a
ri a
Ġsee k
Ġstep s
Ġun fortunately
Ġpar agraph
Ġmis s
Ġd ate
Ġcall s
Ġcoordin ation
Ġaffect ed
Ġactiv ity
Ġcom ments
Ġsect ors
Ġaccept ed
Ġh y
k ed
y l
Ġto ur
Ġrel ated
Ġhapp ens
Ġdiscuss ed
Ġcomp reh
Ġrelev ant
Ġ1 8
it able
Ġj e
Ġstat us
Ġcom ment
Ġtr uth
pris es
Ġhuman itarian
o b
Ġfor ms
Ġpro ceed
Ġbo ard
Ġg ir
Ġdist ribut
Ã ©
at ure
Ġanim al
an y
i ra
s uch
Ġpl ans
Ġgree ce
Ġsco pe
an u
ust om
Ġdirect ly
Ġear lier
Ġdeal ing
Ġch air
Ġhappen ing
ens us
Ġmed ic
Ġclose ly
Ġfin ance
Ġnew s
Ġchar act
z e
ou ble
Ġjo in
l om
Ġu lt
Ġkosov o
Ġcontribut e
Ġaltern ative
Ġig n
Ġ. ..
re st
Ġs ad
c ertain
Ġl ower
Ġca used
Ġrussi an
Ġt able
Ġconnect ion
l s
um e
Ġbl ack
Ġinfrastruct ure
c ul
Ġsu n
Ġ1 00
Ġdecl ar
Ġd ict
Ġwork s
Ġev al
Ġcrit ical
Ġw ind
Ġd ip
ll ed
Ġqu al
Ġrece ive
Ġh or
pp ing
Ġexp lo
Ġover all
Ġall oc
ag ing
Ġread y
Ġty p
Ġrepresent atives
Ġrel ative
Ġobvious ly
Ġgo al
Ġhour s
om b
ow s
Ġcl ar
Ġcond em
Ġconsider able
u ard
Ġ200 8
end it
Ġar ri
o very
Ġpre t
Ġconc ent
Ġref uge
Ġauth or
Ġbe aut
Ġra il
Ġfo ot
Ġweap ons
Ġun ivers
Ġunderstand ing
i k
Ġcon cept
Ġb od
us sels
Ġab ility
Ġdifferen ce
ate ver
Ġaim ed
Ġtri ed
Ġconstitution al
Ġclos er
Ġguid el
Ġj une
Ġla unch
ly ing
Ġorgan isation
Ġspir it
Ġf uel
Ġen jo
Ġ19 8
Ġbecom ing
Ġbec ame
Ġeff icient
Ġsci ence
se t
Ġs il
Ġre in
ur ally
Ġref eren
Ġlook s
Ġadminist rative
Ġhun g
Ġ $
Ġco ver
Ġcons ensus
Ġ200 9
cu p
Ġpen al
Ġthousand s
an n
Ġf re
Ġsur v
Ġdemand s
Ġsu d
Ġmar ch
Ġconf irm
Ġenter prises
if t
Ġfinan cing
Ġimpro ved
Ġukra ine
Ġconvin ced
it ious
Ġst ra
Ġbeh av
Ġdef ence
Ġlead ing
Ġg one
Ġst ru
Ġwor se
l ant
Ġfac ing
Ġs end
Ġp ath
Ġp rison
Ġse x
Ġeng lish
Ġun i
Ġrep l
Ġad ap
ag n
Ġtra vel
c le
Ġref erence
wor ks
Ġ4 0
Ġdip lom
Ġh ar
Ġas king
Ġsh ip
Ġdam age
Ġwh ite
Ġmo ving
Ġneg ative
r ants
r ane
Ġr ound
Ġknow s
Ġappro ved
Ġsp ent
Ġob tain
Ġlaw s
Ġb lo
Ġh op
Ġdifferen ces
m a
Ġcomp l
Ġdifficult ies
Ġs lo
Ġgovern ance
Ġprodu ced
Ġtechnolog ies
w ill
ac ed
Ġmo ther
lu sions
Ġprof ession
d ra
Ġa head
Ġcont ract
Ġpolit icians
Ġrev olution
Ġcharact er
Ġbra in
ord ing
th ose
Ġdut y
Ġrelig ious
ol id
Ġsaf e
anu ary
f act
Ġprov iding
Ġcompet itive
Ġconst ant
Ġful f
par liament
Ġport ug
never theless
Ġenorm ous
Ġj anuary
Ġbus h
Ġph ys
Ġappe ar
Ġleaders hip
d am
Ġsuff icient
ak istan
h is
er ves
Ġsit ting
Ġbr ussels
Ġredu ced
Ġafghan istan
Ġl u
Ġright ly
Ġb at
Ġl og
Ġar r
Ġann oun
Ġcont rary
Ġconclud e
acc ording
y a
is ms
im in
Ġput ting
ur ance
Ġafric an
Ġdevelop ments
Ġsuper v
Ġguidel ines
Ġw all
Ġrepres ents
Ġundert ak
Ġc ustom
Ġdoll ars
Ġpict ure
Ġw to
yl um
âĢ Ļ
Ġ1 4
Ġprov ision
Ġmin imum
e x
u p
Ġd a
Ġplac es
Ġdim ension
u fact
ver t
Ġinterest ed
Ġens uring
Ġ1 3
Ġentire ly
ple ase
Ġurg ent
Ġadopt ion
Ġcompreh ensive
Ġbod ies
Ġj our
Ġamb itious
Ġf il
Ġ201 0
Ġcla im
Ġsh a
Ġconc lusions
Ġconsid eration
Ġimpro ving
Ġtur ned
un der
Ġob st
r ate
on ly
alth ough
Ġp ush
Ġas ylum
Ġbud ge
Ġexpect ed
c ers
Ġc r
Ġe at
op h
ar ies
un t
Ġexp endit
iter rane
m ed
Ġbu ilt
Ġequ ality
eg uard
Ġindepend ence
iterrane an
Ġf ather
Ġcor rupt
vere ign
Ġhe av
Ġmed iterranean
Ġinf lation
Ġhand s
Ġstruct ure
Ġhon ourable
Ġman ufact
Ġnet work
Ġg dp
Ġsp ain
Ġvo ice
re et
Ġp akistan
am es
Ġsp read
Ġ200 4
Ġsaf eguard
Ġbal anced
Ġt on
Ġbe gan
Ġse p
Ġso vereign
Ġcoop er
Ġparticip ation
p ol
Ġt re
te mber
Ġadd ed
ist ics
Ġir ish
Ġpros pect
Ġcomb at
Ġdecad es
el t
Ġimmedi ately
Ġanalys is
Ġprop ose
eren t
Ġelect ed
Ġtot ally
Ġital y
Ġsimp lif
Ġinterv ention
Ġsome one
Ġcons erv
Ġcolleag ue
Ġh it
Ġoc cup
Ġn ice
Ġfore st
Ġcandid ate
om an
iz ing
Ġcommit ments
Ġproper ly
Ġst aff
Ġdemocrat s
Ġ 0
Ġgo als
Ġac know
Ġtal ks
Ġur ge
Ġatte mpt
Ġadvant age
Ġp ra
ment al
Ġa verage
Ġbe ar
end er
Ġm ach
ur d
iv al
Ġsch em
Ġstar ting
Ġsep tember
Ġst ated
Ġcommer cial
Ġc ra
Ġn ation
Ġsp end
Ġacc omp
Ġwel com
Ġve h
ic les
Ġre act
Ġl ay
Ġte am
Ġfig ure
Ġs ource
Ġs ources
Ġp act
Ġapp lies
Ġbur den
Ġl ose
Ġdo ct
Ġle a
Ġlook ed
Ġplan et
Ġn one
Ġdis aster
Ġge or
ak es
Ġfe ed
Ġtur k
Ã ¶
Ġst reet
oc ol
Ġele ments
Ġlar gest
Ġexcept ion
ent ially
ke t
Ġun f
uc k
Ġcompl ain
u ght
Ġex cess
Ġcomp ens
Ġmay be
Ġrec overy
Ġsol ve
Ġimag ine
Ġin h
Ġpie ce
m es
Ġe ight
th ird
Ġor d
Ġman aged
Ġsupp osed
Ġwh om
Ġ200 5
Ġstrong ly
Ġrefer red
Ġint ended
x ic
Ġopen ing
ent ed
Ġen h
Ġ200 6
Ġst ock
Ġme rely
an im
Ġsupport ing
Ġevery body
Ġdra wn
Ġmechan ism
Ġredu cing
Ġappe ars
en e
Ġf ast
Ġstud ents
Ġintrodu ced
Ġintrodu ction
Ġwe alth
ir ms
Ġcall ing
Ġdiscuss ing
aren ts
Ġnorm al
Ġreferen d
e li
Ġsu s
Ġfac ilit
Ġexpl an
Ġcle an
Ġflo or
Ġm ission
Ġset ting
f rom
m ine
ill s
Ġking dom
re p
re te
or k
au ght
Ġpower ful
Ġb ir
Ġtransp arent
Ġbudge ts
Ġfor ced
l us
at ically
Ġac qu
Ġmembers hip
y ed
Ġwith dra
Ġdo or
if ul
au gh
Ġaccept able
Ġc ro
Ġh ost
d es
Ġt un
Ġf if
Ġse ven
Ġtrans fer
inst ead
Ġarr ange
b s
Ġbureau c
oc ks
Ġinc ent
el s
Ġappe al
Ġtr uly
Ġtarge ts
Ġsur pris
Ġfollow ed
Ġvis it
Ġs ize
Ġso ld
Ġo ught
Ġsan ctions
Ġp et
Ġprodu cers
Ġemer g
Ġch em
Ġnat o
Ġs ides
Ġcons umption
Ġfra ud
Ġdeter min
Ġaim s
Ġintrodu ce
l ines
Ġme ant
Ġsuff ering
Ġun able
us ing
Ġad just
Ġconc rete
Ġop eration
Ġrespon sibilities
Ġaccord ance
Ġemphas ise
Ġw oman
Ġp ub
Ġaddress ed
it ation
Ġwh atever
Ġcontin ues
Ġmain ly
en ced
Ġinc or
Ġfamil ies
Ġgreat est
Ġexpendit ure
id ents
Ġkore a
Ġb ot
Ġcomput er
ul ated
Ġv ul
Ġmo b
Ġspecif ically
Ġdest ro
p ut
u ations
Ã ¡
Ġd on
Ġag encies
Ġachie ving
Ġnet works
o on
Ġne ither
Ġins ide
Ġofficial s
Ġman ner
ok ing
Ġdrug s
Ġdo g
Ġpre fer
e es
Ġpromot ing
Ġdeg ree
Ġl ines
Ġper man
gy pt
Ġgra du
Ġflex ibility
Ġg ame
Ġsh ared
Ġv ision
Ġinform ed
Ġspeci es
Ġwor ry
Ġey es
Ġd y
Ġcommun ic
i j
Ġf elt
s y
Ġs ession
Ġun anim
âĢ ĵ
Ġcomp lic
Ġobs er
Ġo ct
pe ople
Ġrep ly
Ġtrans form
Ġcontin ent
Ġlet ter
Ġopp osed
Ġrepresent ative
Ġwa it
Ġpub lish
Ġ1 6
Ġdesign ed
Ġvul ner
Ġd ream
Ġcont act
Ġco ld
Ġc ard
Ġcomp ar
Ġsec ure
Ġameric ans
Ġrom ania
Ġsens itive
Ġpret ty
Ġplay ing
Ġmean ing
Ġdeclar ation
Ġre le
Ġl ies
Ġca uses
com mission
ro g
Ġi i
Ġact ual
Ġro b
Ġhim self
Ġrun ning
or ry
Ġcontain s
Ġbeaut iful
b ia
ve mber
Ġgo d
Ġno vember
go vern
Ġcare fully
Ġmethod s
Ġimmedi ate
Ġintegr ated
Ġp un
Ġb er
Ġconstruct ive
m as
Ġp arents
ent y
Ġst im
Ġother wise
z y
Ġfor th
ab il
Ġmill ions
Ġ1 7
Ġfig ures
Ġdeleg ation
ar ks
Ġint ention
Ġreg ular
Ġisra eli
Ġatte mp
Ġe lement
Ġfact or
Ġrecogn ition
Ġpros per
lant ic
Ġs ized
Ġto uch
Ġ200 1
Ġprev ention
Ġdocu ments
Ġcan cer
Ġdef end
Ġbel g
Ġexer cise
Ġst rict
Ġres ist
com ing
Ġreject ed
Ġsh o
Ġdis app
Ġte le
oura ge
ro so
Ġeng ine
Ġsubstant ial
Ġturk ish
op s
Ġ200 3
Ġmor al
Ġrepe at
c l
Ġw id
Ġlim its
Ġaud it
Ġvir t
Ġd er
Ġelect ric
Ġreferend um
Ġt end
Ġex ec
Ġcont ra
Ġlead er
Ġaff ord
Ġimprove ment
Ġchar ter
Ġtrad itional
ate ful
Ġsp anish
a w
ur s
Ġinst ance
Ġdes ire
Ġfac ed
Ġt ren
er y
Ġcommun ities
Ġh om
res pon
Ġser ve
Ġcar s
Ġdeal t
Ġins ist
ul ations
Ġdis ch
Ġar ms
Ġresol ve
Ġlarge ly
Ġsubsid ies
Ġmus l
an other
st ood
Ġsa v
Ġsupport s
Ġcomb ating
Ġh ot
Ġstruct ures
Ġmechan isms
mr s
Ġgen eration
per haps
Ġrecogn ise
Ġattack s
v iet
Ġparliament s
f are
o ber
Ġe gypt
Ġke pt
Ġoct ober
n es
Ġ199 9
Ġstru gg
Ġco al
Ġimplement ing
Ġwish es
Ġgl ad
Ġdeli ver
commission er
t ic
Ġy ork
ag en
Ġpol and
Ġlear ned
Ġintel lig
Ġcou ple
Ġobst ac
Ġst uff
Ġcontin ued
Ġinvest ments
Ġsee ing
Ġfact ors
Ġexamp les
Ġwa iting
Ġun s
Ġ200 2
Ġpoin ted
Ġlab or
Ġtarge t
Ġcorrupt ion
ate g
Ġsign ed
Ġindividual s
Ġemer ging
Ġcha mber
Ġtour ism
b r
Ġd iversity
Ġcontin uing
Ġr ange
Ġso viet
Ġexp orts
Ġob ama
Ġyour self
Ġp an
en h
ill ed
Ġdefic it
Ġrefuge es
Ġbring ing
Ġital ian
Ġfed eral
Ġo k
Ġf ire
Ġpract ices
Ġeas ier
Ġpass eng
Ġp ill
Ġprot ocol
Ġaut om
Ġb on
Ġrapporteur s
Ġcred ibility
Ġhon est
Ġdefin ition
Ġplay ed
m ark
in ary
Ġpos itions
Ġeng age
Ġstreng th
or ary
Ġar rest
Ġbas ically
Ġla id
Ġatt ract
Ġchang ing
Ġmut ual
f e
m ay
Ġasse mb
Ġt ro
Ġc ateg
Ġcar bon
Ġwrit ten
Ġgree k
Ġswed en
Ġdy nam
it ch
ted ly
Ġser ies
Ġma x
Ġ20 20
Ġgr ateful
m os
Ġcon ver
wh o
Ġdom in
Ġc ities
Ġst ake
Ġso ft
Ġpart ner
ab les
Ġ2 1
Ġkind s
Ġspeak ers
Ġpay ments
Ġpop ular
Ġ6 0
sib ly
Ġsubsid i
in y
Ġstrengthen ing
l adies
Ġb ound
Ġsa ve
Ġsy mb
an a
Ġext end
Ġset t
Ġterror ist
Ġrenew able
n ic
Ġnor thern
Ġel imin
Ġfight ing
Ġdr ink
Ġrecommend ations
r s
Ġfin e
Ġter ri
Ġk y
Ġinclud es
Ġfeel ing
Ġbar ri
Ġpass ed
Ġche ck
Ġmand ate
Ġh ous
Ġmass ive
o in
Ġatt itude
Ġgr and
Ġopt ion
Ġorigin al
Ġlos s
Ġmin ority
Ġresol utions
Ġadv oc
Ġkid s
Ġunder stood
Ġstate ments
Ġlat in
Ġw o
Ġf ix
Ġhelp ed
Ġcod e
Ġtax es
go ing
Ġh ur
Ġcond ition
Ġchrist ian
ro ad
Ġestablish ment
Ġhead s
m atic
Ġme ps
Ġmus ic
third ly
Ġb ill
th us
ve red
Ġad equate
Ġgener ally
Ġbecom es
Ġsymb ol
Ġb ase
Ġconsult ation
b it
Ġc ourage
sequ ently
i ers
z il
Ġprop ortion
Ġexp ression
Ġvot es
Ġth or
et ic
Ġph il
pr ise
des pite
Ġc ub
os es
Ġimp lic
Ġj uly
it es
Ġcom pe
Ġrem ark
Ġregul atory
Ġlink ed
y es
Ġdeb ates
Ġact s
Ġpo ore
Ġsub mitted
Ġtreat ies
Ġeas ily
enh agen
Ġfor g
Ġst o
Ġlangu ages
Ġwithdra w
t ur
z one
Ġs orry
Ġre ven
Ġr id
Ġ2 7
Ġlist en
Ġinc red
Ġdra f
Ġplan ning
Ġins urance
Ġbar roso
Ġbrit ain
Ġcho ose
Ġdisch arge
as sion
ad e
Ġget s
Ġwel fare
im b
Ġcl osed
Ġdirect ives
Ġeven ing
on y
Ġb omb
il ing
ind ing
Ġnu mbers
Ġph ot
Ġequ ally
5 0
g round
Ġu t
Ġab ol
ap pe
Ġco vered
Ġte lev
Ġsm es
Ġmist ake
Ġadap t
as ters
Ġpres ence
Ġsp ok
Ġprot est
Ġestablish ing
Ġfre qu
p ir
Ġc ult
Ġpati ents
ot e
Ġk new
Ġpro ve
ra id
Ġacc ident
Ġcontrol s
Ġconflic ts
Ġchem ical
Ġd ig
Ġris ing
Ġincor por
Ġperman ent
Ġun like
ru it
Ġaf raid
Ġconst ruction
Ġbal k
Ġbig gest
Ġobs erv
p ret
Ġun certain
Ġmed ical
Ġemploy ees
Ġrepe ated
Ġey e
Ġcritic ism
Ġo ce
ak ing
Ġpe op
Ġsign al
ron ic
Ġd ie
ar us
Ġim f
Ġbook s
Ġtack le
h n
Ġqu ant
Ġtrad ing
Ġident ity
Ġdoll ar
Ġpeop les
h ib
Ġbo y
Ġkill ed
Ġcondem n
Ġcor por
Ġdri ve
k en
ing ly
Ġme m
Ġlear ning
Ġjapan ese
Ġlar ger
Ġappreci ate
Ġrelative ly
b or
d i
Ġcons olid
Ġtra in
Ġur ban
Ġguarante es
Ġoblig ations
bo th
Ġoccas ion
Ġblo od
Ġb ilateral
Ġelect or
Ġsp oke
Ġglobal isation
Ġtelev ision
Ġreason able
Ġexper ts
Ġvulner able
Ġn g
Ġbel ong
Ġdise ases
Ġlu x
Ġab and
Ġsocial ist
Ġinvest ors
Ġnat urally
Ġmeet ings
Ġcop enhagen
Ġgeor g
Ġse vere
Ġlegit im
or se
ri ght
Ġv ast
Ġsee king
Ġ19 7
Ġhelp ing
Ġtraffic king
Ġprofession al
Ġdec is
Ġtechnolog ical
Ġprotect ing
Ġcare ful
c ast
Ġg ender
Ġcomp ared
Ġpen sion
Ġf irms
Ġex ists
Ġsit uations
Ġpeace ful
Ġexpect ations
Ġgrant ed
r il
Ġso le
Ġam az
Ġdis appe
Ġ199 0
Ġreach ing
Ġsepar ate
i ence
k es
t a
y our
et ies
Ġr out
Ġpl ant
rat ic
Ġto wn
Ġal liance
Ġsubsidi arity
t w
Ġexp and
Ġult imately
Ġbel arus
Ġinvolve ment
d ing
Ġimp osed
Ġus ually
Ġar ch
Ġstrong er
Ġliberal isation
Ġpoll ution
Ġperform ance
r ant
Ġst able
Ġco ast
Ġar my
Ġbl ock
Ġph en
Ġstud ies
Ġparticip ate
Ġbra zil
Ġdecad e
Ġswed ish
w ide
Ġre n
Ġstand ing
Ġwor st
um er
Ġbr ings
Ġassemb ly
Ġphen omen
Ġb os
Ġsp ort
Ġend orse
Ġansw ers
Ġexc lud
t ies
if ying
ab or
Ġfind ing
Ġple as
Ġair p
Ġan g
Ġag g
Ġexp ensive
Ġapp arent
Ġwrit e
Ġthor ough
Ġto ler
Ġin ev
Ġmin orities
Ġap ril
Ġsumm er
Ġdri ving
Ġsud den
Ġne ther
Ġappro val
Ġatt ach
Ġallow s
Ġest im
Ġdefin ite
Ġassoci ated
Ġnear ly
Ġcomplic ated
Ġ ice
Ġun less
Ġmo bility
en ary
Ġde light
Ġint end
Ġent it
Ġresol ved
on ce
Ġpl ants
Ġsignificant ly
Ġnether lands
Ġis ol
Ġsp ring
Ġcri mes
Ġimprove ments
Ġelse where
Ġ8 0
Ġcell s
r ich
os p
Ġcap able
Ġhundred s
ne y
Ġbor n
Ġterrit ory
Ġbul gar
Ġ x
Ġsh ar
ress ive
Ġcent re
Ġins pect
Ġschool s
Ġec b
Ġconsist ent
p res
is on
Ġin ad
Ġcitiz en
stand ing
Ġsoci eties
ster dam
Ġd ign
Ġpolit ically
Ġrem arks
Ġdep ends
Ġarrange ments
i ar
n ia
Ġto b
Ġdef ined
Ġinter pret
Ġexist ence
Ġpromot ion
Ġstat istics
Ġvol unt
Ġcollect ive
Ġargu ment
Ġs qu
it ution
Ġex e
Ġinit ial
Ġplac ed
Ġassoci ation
Ġislam ic
Ġeval uation
Ġelectric ity
g ment
Ġpl enary
Ġunivers al
Ġbir th
g iven
Ġc atch
Ġb inding
the ir
ci ous
Ġfunction ing
Ġaband on
Ġorgan ised
Ġtalk ed
Ġemphas is
Ġd ied
Ġse ll
Ġen force
Ġcommitte es
pr us
Ġrad ical
h ol
Ġsome what
Ġcompet ence
eng en
Ġopt im
Ġimmig rants
Ġm ic
Ġprotect ed
Ġrest ruct
Ġenjo y
d uring
le ep
Ġrem o
Ġsmall er
Ġb ab
Ġcon ce
Ġam sterdam
Ġoff ers
Ġacc ounts
Ġoper ate
an cing
Ġban king
Ġtas ks
Ġwe ight
Ġorgan ization
Ġim age
Ġmaterial s
m ar
u sion
Ġad vert
Ġprim arily
Ġg al
Ġdemonstr ated
Ġargu ments
ent h
Ġg az
ul ating
lo ok
Ġlead s
Ġabs ence
Ġdetermin ed
n al
Ġc ore
le ction
Ġqu ar
Ġbelie f
Ġhigh est
do es
Ġoper ations
Ġprosper ity
h ave
it ness
Ġpro ved
Ġjust ified
Ġvar i
Ġdut ch
Ġsav ings
Ġbulgar ia
Ġc ast
Ġm oun
Ġeuro zone
Ġpar al
Ġfact s
Ġsur ve
Ġlab e
Ġrecogn ised
Ġpropos ing
Ġent ry
Ġpat tern
Ġencoura ging
Ġstra ight
n or
Ġre li
ul l
Ġam ounts
Ġworld wide
Ġsch engen
Ġextra ordin
Ġspok en
on ia
Ġtreat ed
Ġsou thern
Ġcy prus
Ġmig ration
Ġportug al
Ġd ark
Ġre tain
Ġperson ally
Ġcontribut ions
Ġrelig ion
Ġlegit imate
Ġdistribut ion
Ġaudit ors
Ġtrans ition
act ory
Ġinter govern
Ġdep art
Ġshow ed
with out
Ġveh icles
Ġemerg ency
Ġs light
Ġpro c
ap se
Ġperson s
Ġge ograph
Ġdetail ed
Ġprim ary
Ġtool s
Ġrestrict ions
Ġintergovern mental
d id
Ġc z
Ġc am
Ġpropos es
Ġkeep ing
Ġz one
oin ted
Ġbe ings
Ġfav or
Ġadv ance
Ġtax ation
Ġver sion
Ġsha pe
Ġf at
Ġap art
Ġinvol ving
Ġdemonstr ate
Ġpri or
Ġtyp es
Ġac ce
Ġschem e
sy ch
Ġp sych
le y
Ġfa ith
Ġtemp orary
Ġdescri bed
Ġre ve
ra in
ish ing
Ġext ended
Ġheav y
p ay
u gh
Ġpre m
b ur
c ks
Ġm ag
il st
Ġfor t
Ġsome body
Ġadv anced
Ġproper ty
Ġhold ing
Ġevent ually
Ġcompens ation
Ġbarri ers
Ġp ure
Ġv ig
Ġfoc used
Ġannoun ced
u able
v est
or ial
Ġun iversity
Ġprom ise
ove red
Ġamong st
Ġoppos ite
r ont
Ġp ick
Ġstand s
Ġlit er
com m
Ġlat ter
Ġwonder ful
Ġintel lect
Ġb all
Ġbo ost
Ġflex ible
b ru
e e
Ġimp ose
Ġimport s
ress ed
Ġrespect ed
Ġnegoti ating
Ġh osp
Ġmo ved
Ġpurs ue
Ġlegitim acy
re es
em ic
Ġequ ip
Ġopt ions
Ġjud icial
Ġwal k
Ġrapid ly
Ġcz ech
2 00
m ing
ac co
Ġbl ue
Ġeth nic
Ġconstant ly
Ġmax imum
i ent
Ġn os
Ġcomp ly
Ġlat est
Ġbehav ior
r ated
Ġm ac
Ġre b
ag ree
Ġhealth y
Ġdign ity
e conom
Ġcent er
Ġopin ions
Ġguarante ed
Ġhistor ical
Ġst abil
Ġdis asters
Ġindust ries
Ġsubst ances
Ġdelight ed
bru ary
Ġn ar
Ġme xic
Ġover come
Ġform al
Ġconclud ed
w ould
er o
il iation
Ġoff ered
Ġaid s
Ġdist in
Ġfreedom s
ond on
Ġhosp ital
Ġw itness
ut ed
Ġst ories
Ġme at
Ġfe bruary
Ġcommun ist
Ġ199 8
Ġpublish ed
pres ident
Ġs ac
Ġfirst ly
Ġmin ute
Ġmil k
Ġtrad ition
Ġrecommend ation
p ro
Ġp i
Ġd ouble
ic ed
Ġy e
Ġwas h
ud s
Ġass ume
Ġadop ting
Ġadv ice
Ġcustom s
Ġmanufact ure
o o
Ġp pe
Ġcomp on
Ġ5 00
Ġce le
Ġoblig ation
Ġth row
Ġto ward
id ge
res h
if e
Ġcommission ers
Ġeffect iveness
Ġpalestin ians
on om
Ġre cession
Ġas ian
Ġ2 4
Ġsc and
Ġallow ing
Ġbal tic
aren ess
Ġstrateg ies
Ġtob acco
at o
Ġr an
rou d
Ġmar gin
Ġplay ers
Ġprom ised
oub tedly
Ġjour nal
Ġcontra dict
ri f
Ġor al
Ġmar k
Ġgu y
Ġincreas es
Ġsk ills
Ġhistor ic
Ġfirm ly
t in
Ġs on
it ime
ar i
Ġv ill
Ġinvol ves
Ġmult ilateral
u ous
Ġsur round
Ġvolunt ary
g ence
l ined
Ġse arch
Ġli e
Ġri g
Ġevery where
Ġdeter mination
Ġrec all
Ġtax pay
Ġsecret ary
Ġdiplom atic
Ġexplan ation
Ġs we
Ġcont rast
Ġpre ced
Ġprodu cing
Ġaw areness
Ġexcess ive
Ġincent ives
e mb
Ġw ine
Ġs ight
iz ations
Ġmar itime
Ġchair man
v ak
Ġin equ
Ġv ice
Ġtra ged
Ġput in
Ġelect ronic
Ġph ase
Ġperfect ly
Ġfulf il
e ff
Ġf it
Ġf aster
ro te
con s
Ġpos sibly
Ġaf tern
Ġcris es
Ġexper t
Ġdeep ly
Ġphys ical
Ġfacilit ate
a i
c ould
Ġnot ed
ab ilities
Ġcomp liance
Ġpur ch
Ġdecis ive
Ġintellect ual
Ġbe g
Ġprof it
Ġdraw ing
Ġhear ing
Ġrom a
Ġdest ruction
Ġdetail s
Ġbrief ly
Ġcooper ate
Ġthe ory
ri an
ch ina
Ġpre dict
Ġass ure
Ġinter f
Ġdecl ine
Ġrepl ace
Ġbot tom
Ġb ed
Ġm c
ing u
am ed
Ġthere by
Ġfriend ly
n one
Ġo s
th rough
ad a
Ġv ia
Ġmat ch
Ġcoll apse
Ġentit led
ot o
Ġyou th
ard s
Ġw rote
and a
Ġle ban
our g
Ġra c
ang ing
Ġcho ices
Ġlabe lling
Ġaftern oon
u mb
in c
Ġp roud
ld er
Ġinc lusion
Ġsustain ability
Ġsatisf ied
Ġoce an
Ġf light
Ġf ruit
Ġgir l
Ġgeorg ia
Ġgo ld
Ġus a
Ġend ed
Ġground s
Ġalloc ated
Ġli ved
Ġbelie ves
bour g
Ġexam ine
Ġsex ual
Ġforth coming
Ġre action
as bourg
Ġon going
Ġtrans l
Ġsc en
Ġbl ame
Ġopen ed
Ġspeak er
Ġfarm ing
Ġcut s
Ġdict ators
umer ous
Ġto ugh
Ġab use
Ġmo v
Ġcre ates
Ġund oubtedly
Ġlaunch ed
Ġlux emb
Ġo mb
Ġno body
ne cess
Ġshow ing
Ġplan ned
Ġrad io
Ġaust ria
Ġord inary
Ġomb uds
h ar
Ġab stain
Ġpre f
Ġstr asbourg
Ġrel ates
Ġimplic ations
b all
Ġm ath
Ġro ot
ific ations
Ġ199 7
Ġpati ent
3 0
Ġt it
os en
ren eur
Ġinc om
Ġsuff er
Ġsuggest ed
last ly
rep reneur
Ġsh ad
Ġv ide
europe an
Ġlea ving
Ġobstac les
Ġterri ble
ad v
Ġab road
cept ion
Ġsur f
Ġrepresent ed
Ġhard ly
Ġdisp os
Ġ7 0
Ġpro sec
Ġdis agree
Ġunder min
Ġsub mit
Ġreal istic
Ġnecess arily
Ġem ot
Ġess entially
Ġsovereign ty
Ġpresident ial
Ġspe ct
Ġback ground
Ġprocess es
eng th
Ġbel ow
Ġdeter mine
Ġurg ently
Ġequip ment
as ing
Ġg ap
Ġnot ice
Ġdis m
Ġtro ops
Ġluxemb ourg
Ġis land
Ġun necess
Ġac p
Ġent repreneur
Ġval uable
Ġteach er
Ġrestruct uring
Ġsh ift
Ġev olution
Ġbo x
ict ion
Ġwide ly
Ġh us
Ġres erve
Ġact ing
Ġrest ric
Ġjud ge
Ġdepend ent
Ġrecon st
Ġwelcom ed
econom ic
b es
Ġsignific ance
Ġoper ating
Ġcontain ed
Ġda ily
Ġe p
Ġpro hib
Ġtr ouble
Ġbalk ans
is ory
Ġsu gar
Ġappro ve
Ġmon op
Ġsupp lement
Ġrecogn ize
Ġharmon isation
Ġdefinite ly
y le
il es
Ġal i
Ġpart ly
Ġser bia
Ġstrengthen ed
Ġwid er
Ġch osen
Ġwar s
Ġexperi enced
Ġprep are
a mb
Ġv an
Ġtra ck
Ġturn s
tw o
g ic
Ġar med
Ġgreat ly
Ġless ons
Ġarg ue
Ġmist akes
Ġky oto
Ġe cu
Ġinter ven
Ġless on
Ġcoordin ated
Ġpurp oses
Ġsen sible
Ġuni que
Ġs leep
an cy
Ġf al
Ġch ann
Ġany body
Ġfollow s
Ġfound ation
Ġreflect s
Ġombuds man
Ġt ight
Ġm ent
Ġn umerous
Ġimp ression
Ġaccomp an
Ġtren d
Ġvot ers
Ġpri ze
Ġnever theless
Ġsubst ance
o x
un g
ire ct
Ġrequire ment
Ġsure ly
Ġrequest ed
Ġscient ists
Ġcoll abor
Ġprospect s
augh ter
Ġt ed
Ġbuild ings
Ġforg ot
Ġgaz a
Ġv es
Ġres erv
Ġpol ish
Ġrem ove
Ġsuff ered
Ġacknow ledge
Ġsurpris ed
Ġmusl im
Ġpoore st
at ures
Ġad mit
te en
Ġinf ect
Ġpay ment
Ġconstit u
Ġer a
Ġinnov ative
Ġbehav i
Ġbat tle
Ġstrugg le
b ack
Ġl ength
Ġst ocks
Ġsu m
Ġr ational
ast ic
Ġvis a
Ġpenal ty
g ra
Ġw at
Ġconc iliation
Ġpat ent
Ġident ified
a x
g en
h er
k y
re w
Ġurg ency
Ġasse ts
Ġdefic its
Ġoccas ions
Ġhop es
Ġsuperv ision
n el
Ġl ic
Ġde l
Ġun if
Ġapp oint
Ġfl ow
Ġunf air
Ġmoun tain
c are
s ub
s imilar
ur ch
Ġch ap
Ġr h
Ġra in
Ġ19 6
Ġpay ing
Ġz ero
Ġfamil iar
c ar
Ġe t
Ġi mb
Ġprev ail
reg ard
Ġng os
s on
Ġc ry
Ġm os
ul a
Ġpresident s
Ġsucceed ed
Ġmach ine
Ġadvert ising
ou d
om s
Ġal ban
Ġtri al
Ġslo vak
Ġdoct or
Ġrev ision
Ġphenomen on
Ġm ap
Ġre lie
Ġsy mp
Ġviol ations
Ġlos ses
l av
w are
en cing
ic ip
Ġdef ine
Ġpers u
Ġoper ational
Ġfield s
Ġuni verse
Ġsh aring
ph ere
Ġsuff ici
Ġterrit orial
Ġb ought
Ġn ine
Ġl ondon
et s
Ġsp l
Ġ9 0
Ġextraordin ary
Ġcam er
Ġn l
Ġn ig
Ġha mas
Ġdec ent
Ġimportant ly
Ġdes erves
Ġfr ank
Ġsuccess fully
Ġpill ar
Ġdynam ic
Ġshar p
Ġsu sp
ab ling
Ġsent ence
Ġprepar ing
Ġs ister
Ġtest s
Ġcro at
ay s
Ġext ension
ib et
Ġprevent ing
Ġexc lus
ca pe
Ġclar ify
Ġre iter
ul s
Ġdis adv
Ġfe et
Ġdifficult y
Ġthreat s
Ġreflect ed
Ġprison ers
Ġreli able
Ġdisadv ant
Ġc aught
or ing
Ġf resh
Ġre cip
Ġfor um
Ġpro di
Ġ2 3
Ġcor respon
d own
it ect
Ġlot s
Ġbor row
Ġf lu
Ġch arge
lic it
Ġhouse hold
Ġaddress ing
Ġcoh erent
Ġmodel s
Ġident ify
Ġhung arian
Ġacknow led
p read
Ġm ix
Ġdeal s
ides pread
Ġarri ved
Ġexec ut
Ġin j
un ity
Ġar m
Ġra ising
ib ly
Ġtop ic
Ġwarm ing
Ġgir ls
Ġhous ing
Ġtraged y
b a
Ġpos sibilities
Ġsy ria
Ġprom ises
Ġdecl ared
Ġo d
Ġst em
ir ing
Ġse at
Ġimp er
con sequently
act ive
Ġche ap
Ġcla ims
Ġmedic ine
Ġarch itect
Ġmexic o
k i
Ġt ar
ul f
os oph
Ġtw enty
Ġacc ur
Ġext ensive
Ġdep th
vious ly
Ġw idespread
Ġas h
Ġun ity
Ġex ceed
com p
Ġold er
Ġmob il
Ġre ass
os lav
Ġexp an
hold ers
Ġcandid ates
Ġsett lement
Ġamaz ing
z er
Ġo l
Ġp t
Ġf ly
Ġse lect
Ġfour th
Ġchar ges
Ġpleas ure
Ġunif orm
Ġt ibet
Ġb reat
Ġm ine
Ġf er
Ġdis cip
Ġdef ense
Ġconsider ing
Ġtell ing
ug oslav
Ġ201 1
Ġ201 3
Ġmiss ing
Ġfil m
n s
o ld
Ġc row
Ġd ump
Ġre ly
Ġtim et
Ġdisc overed
Ġproduct ivity
Ġviol ent
Ġaffect s
Ġoccur red
Ġdispos al
Ġreconst ruction
b ing
Ġf em
Ġh u
Ġst ation
Ġopen ness
Ġsur prise
Ġfair ly
Ġelector al
Ġsymp ath
w an
Ġd in
Ġas ide
Ġdeb ating
Ġph one
Ġconduct ed
Ġphil osoph
Ġreve al
Ġw ife
os ition
Ġus ers
um ed
Ġacc idents
Ġsc ot
Ġinf ring
Ġfl ag
Ġmaintain ing
Ġmedic ines
Ġconcent rate
Ġst ick
ce l
Ġexp licit
Ġorgan izations
Ġappropri ations
Ġflo od
Ġcal cul
Ġconfirm ed
Ġrele ase
Ġ â
Ġy ugoslav
Ġreg ist
Ġown ers
Ġbl ind
Ġquot as
Ġattemp ts
Ġse ts
ci f
Ġch urch
Ġbro ther
Ġdemand ing
Ġmot or
Ġmaintain ed
Ġdeli ber
ha ving
Ġshad ow
Ġexpan sion
a ult
Ġvict ory
Ġaut onom
Ġwilling ness
Ġpun ish
Ġuncertain ty
p ts
p art
ke ts
Ġres erves
Ġcontro lled
Ġapply ing
Ġfisher men
Ġill ust
ag ue
Ġpre d
Ġiss ued
Ġsy n
Ġrat ification
Ġber lin
Ġpasseng ers
Ġdig ital
x ts
Ġv acc
Ġsa ving
wh ich
Ġmot iv
Ġrecon cil
Ġcontract s
Ġtaxpay ers
Ġbehavi our
Ġt v
Ġpro of
Ġen em
ap ers
Ġrest ore
Ġstat ute
Ġlos ing
Ġemb ar
Ġregret t
Ġleban on
h ouse
Ġs ought
as m
Ġnew sp
Ġhum ans
ues e
Ġent ered
Ġide al
Ġsur pl
Ġeng aged
Ġoper ators
Ġhy p
t r
z z
Ã ¼
th ly
Ġg ames
Ġres ource
con t
Ġtra gic
Ġstr ange
Ġdirect or
Ġcreat ive
Ġprof ound
Ġencoura ged
Ġexc lusion
Ġsatisf actory
Ġneighbour s
Ġvide o
Ġwat ers
Ġb ol
ou th
Ġal arm
ad ing
Ġfin land
ang es
Ġjo hn
Ġstud ent
Ġdut ies
Ġcarry ing
Ġdiv ided
ira ble
Ġcub a
Ġm ort
as c
qu es
qu id
Ġen de
Ġfin ish
be fore
Ġav iation
Ġemploy ed
ock ed
Ġcolle ge
Ġprof its
Ġterror ists
Ġcomb ined
Ġlink s
Ġundertak en
Ġimb al
Ġende av
Ġth ir
at lantic
Ġat mos
Ġdra matic
Ġaw a
ob viously
Ġportug uese
Ġ q
Ġw ise
Ġtw ice
Ġhuman ity
Ġresult ing
Ġsuggest s
Ġhighlight ed
Ġinvestig ation
Ġremo ved
Ġs ick
Ġin eff
Ġl uck
ie f
Ġfin ished
Ġgovern ing
Ġcour ts
Ġreal ise
Ġsupp lies
Ġfam ous
ograph ic
Ġenh ance
Ġworry ing
Ġt ort
Ġact ively
wh el
Ġev ident
Ġlist ening
Ġcut ting
Ġgener ations
Ġinad equate
Ġsurf ace
ing ton
th es
se e
Ġk il
Ġbelie ved
Ġgu ard
Ġ199 6
Ġbig ger
Ġintrodu cing
Ġfall s
itution al
Ġa ug
Ġev ol
Ġput s
Ġmult ip
Ġstri ke
Ġsto pped
Ġbeg un
i ant
en n
Ġwh ilst
Ġr ough
ud i
Ġover whel
Ġdef e
Ġtur ning
Ġsch ed
Ġfew er
Ġresist ance
Ġunlike ly
Ġunnecess ary
Ġs ake
er ved
Ġv at
Ġcan ada
Ġgre ens
Ġign ore
Ġeval u
Ġdictators hip
Ġd ed
Ġad m
Ġra ce
Ġeconomic ally
Ġdep loy
Ġcred ible
Ġexplain ed
m o
Ġ ]
Ġm agn
Ġpar ad
Ġad ult
ag ain
Ġco ff
Ġatt end
Ġcomple ted
Ġseem ed
Ġconsequ ence
Ġwatch ing
Ġsurv ive
in o
re l
ra cies
Ġreal ize
Ġsm oking
Ġdisp ute
Ġbroad er
Ġsus pend
Ġtun is
Ġsuffici ently
Ġf ash
Ġd ub
Ġd rop
Ġcl ause
Ġtrans atlantic
Ġdes erve
Ġcontribut ed
c ra
f our
Ġh al
Ġconstit ute
Ġachieve ment
Ġhead ing
Ġproceed ings
h us
Ġlaw y
Ġins uff
Ġfl ows
Ġiran ian
Ġprepar ation
Ġje w
Ġconver gence
Ġd ro
Ġint ens
Ġint ensive
Ġthan king
Ġtrans itional
Ġ3 00
Ġval id
Ġfall ing
Ġpurs u
every one
Ġqual ified
Ġreven ue
t i
Ġ [
Ġo h
Ġli quid
Ġleg ally
Ġremain ing
Ġnegoti ation
Ġextre m
g u
Ġch ain
Ġ2 2
Ġprogra ms
Ġfac ilities
Ġopp ose
Ġweak ness
Ġlea ves
Ġinterpret ation
Ġconf ront
Ġremain ed
Ġins p
Ġconnect ed
Ġdisapp oint
t ake
Ġw age
Ġs im
Ġe ch
Ġcomp uls
Ġdeb ated
Ġsc re
Ġ198 0
Ġp il
oun ting
for ced
Ġamend ed
Ġiraq i
Ġtarge ted
Ġneigh bor
Ġadvant ages
similar ly
Ġcroat ia
r ust
os s
Ġra w
Ġind irect
Ġgu ys
Ġenvironment ally
clear ly
Ġbur ma
Ġfash ion
Ġs v
ur ies
Ġeduc ational
Ġcorrect ly
Ġsus pect
Ġbab y
Ġin qu
Ġh iv
Ġreg imes
Ġca using
Ġvi able
Ġsud an
Ġg ar
Ġat lantic
ab we
Ġno ise
Ġri ver
Ġlast ing
ph one
Ġexperi ment
Ġsk y
Ġprevious ly
Ġton ight
Ġbureauc racy
imb abwe
Ġcorpor ate
Ġpure ly
Ġh ol
Ġwe b
Ġwe ather
us al
all ow
Ġco ol
Ġsee ks
Ġeconomic s
Ġappro x
Ġwar ning
Ġcol on
Ġcivil ian
Ġdisp lay
Ġneighbour hood
Ġacce ler
Ġmac ro
i wan
Ã ³
Ġm ur
ter ing
Ġwor ried
Ġus ual
Ġinn oc
Ġgenuine ly
Ġenforce ment
Ġcompuls ory
op ho
Ġint entions
Ġlo ans
Ġfr an
inst itutional
Ġw ood
om in
ci ent
Ġreport ed
Ġmost ly
Ġcap t
Ġpop ulations
Ġsw im
Ġelimin ate
il s
Ġref used
Ġfore most
Ġstress ed
Ġgl ass
Ġrat ified
Ġexplo itation
Ġbos nia
u ild
er ate
Ġ2 6
Ġjust ify
Ġregard ed
Ġequ ival
Ġ199 5
Ġpriv ile
Ġhon our
Ġsold iers
Ġintellig ence
Ġparal le
Ġo w
or ous
Ġf ing
Ġsol ved
Ġconsid ers
Ġmove ments
Ġpercent age
Ġtre m
urs day
Ġhom es
r ates
Ġper pet
act ions
Ġhealth care
Ġsal es
at ible
ch e
am eric
Ġcor ner
Ġincred ible
b and
Ġp ace
Ġis lands
Ġse ction
ers on
Ġmore over
oc king
Ġexp ense
Ġamb ition
Ġconserv ative
Ġadjust ment
Ġgradu ally
Ġb se
ic ted
ir y
Ġk n
Ġint ends
Ġdec re
Ġany where
Ġent ail
Ġsign s
Ġcertain ty
ov a
Ġmor oc
Ġaltern atives
Ġmob ile
Ġcateg ory
Ġquar ter
m on
s en
Ġth ursday
Ġenv is
Ġexperi ences
Ġanal y
Ġslight ly
n y
Ġth res
Ġsh ame
Ġcong ress
Ġz imbabwe
Ġremark able
Ġthres hold
Ġemp ty
Ġdet ect
Ġemer ged
Ġoblig ed
Ġindic ated
Ġfif th
Ġrepeated ly
Ġinsuff icient
Ġg ri
Ġmo ld
Ġpers ist
Ġtri p
Ġbre ach
Ġemb ra
Ġc li
as ion
Ġar ise
pt ion
Ġreal ized
Ġfac es
co hol
sid er
Ġpalest ine
Ġsurv ival
r id
r ors
Ġv ac
Ġinv ited
Ġend ors
Ġher it
Ġcat ast
Ġannoun ce
Ġcult ures
Ġfal se
on a
Ġf ost
Ġ2 8
ign ed
Ġsp ite
Ġsc ar
Ġhelp s
Ġinter institutional
ribut e
Ġdri ven
Ġquot e
Ġstim ul
Ġbelg ium
Ġsole ly
i mp
Ġw ake
Ġd anish
Ġk h
Ġup d
iz es
Ġapplic ations
Ġhung ary
Ġcommunic ations
Ġsudden ly
Ġmov ie
Ġa le
Ġg ulf
Ġwe bs
ke ep
Ġind ian
Ġgen etic
Ġjo ined
Ġrefer ring
Ġslow ly
Ġfix ed
Ġphot ograph
Ġfrequ ently
Ġentrepreneur s
Ġforgot ten
Ġatmos phere
Ġherit age
y al
Ġc as
Ġon to
ra d
we l
Ġfinan ced
Ġear n
Ġrepresent ation
Ġlib ya
pl ace
Ġign ored
Ġpra g
Ġrespect s
Ġconv ince
Ġdist ance
Ġmind s
Ġgain ed
Ġbureauc ratic
Ġt ired
Ġm outh
Ġcomm and
Ġcomm od
Ġsh ap
Ġunder mine
Ġper mit
Ġinstit ute
Ġconsider ably
ec ision
Ġemot ion
sub ject
Ġtimet able
Ġp orts
Ġan x
Ġal cohol
Ġac ad
Ġcompet ent
Ġdep ri
Ġplay s
Ġta iwan
Ġdist ort
Ġsuggest ions
Ġrom e
Ġdeath s
Ġmic ro
cra ft
Ġn ut
Ġst ream
Ġal ive
Ġas pir
Ġcomp lement
te g
Ġind ones
Ġresult ed
cu se
Ġsubject s
Ġdead line
at t
Ġs ong
al ities
ly mp
Ġpl at
Ġref ers
Ġdemoc racies
Ġinter pre
comm un
Ġves sels
Ġexecut ive
Ļ «
Ġw ed
it ably
ak ers
Ġoff ering
Ġsocial ists
Ġnegoti ated
Ġfound ations
Ġlist ened
Ġpen sions
Ġharm ful
Ġpurs ued
Ġvirt ually
Ġtrem end
Ġw ages
Ġc ash
Ġd ar
Ġli ked
Ġbr idge
Ġglobal ization
Ġdoub ts
Ġdemon st
sh ould
Ġfuel s
b b
j ud
l ad
Ġh at
th ink
Ġun p
am end
Ġreg ister
Ġfa ult
Ġwhere as
Ġsm art
app ro
Ġspeech es
Ġcod ecision
Ġrac ism
Ġet c
Ġy ield
ate ll
Ġdis s
Ġmar ked
Ġent hus
Ġsc r
Ġconsider ations
Ġbad ly
Ġenthus i
e th
Ġ ic
Ġp assion
Ġun pre
um an
Ġdem ographic
Ġaffect ing
Ġroad s
Ġship s
Ġnone theless
Ġdisapp ointed
Ġscand al
Ġregrett able
Ġcoff ee
Ġl ith
id den
ol er
op ard
Ġper ce
Ġcl arity
Ġdisc over
Ġmin im
Ġconstit utes
Ġtemp er
Ġwind ow
Ġpet itions
Ġdestro yed
Ġbelg ian
Ġaccompan ied
k a
Ġo lymp
an ks
Ġha z
Ġun re
Ġdis abled
Ġsp here
Ġfore cast
Ġretur ned
Ġcy cle
Ġrein force
Ġschem es
Ġreserv ations
Ã Ń
Ġw ild
Ġn av
ch es
ill ing
Ġse v
Ġk en
Ġte xts
other wise
Ġir re
Ġann ivers
Ġcoal ition
Ġbon ds
Ġinterven e
Ġscr ut
n at
Ġc ert
os is
Ġus es
ag er
Ġthink s
Ġrem ed
Ġthreat ened
Ġdeter ior
Ġfear s
Ġsha res
Ġairp ort
Ġsqu are
Ġinfring e
b re
Ġs ite
it ical
Ġinc ident
Ġbo om
Ġinst all
Ġmarke ting
Ġproduct ive
Ġer ror
Ġeth ical
Ġcomput ers
Ġjour ney
Ġnar row
Ġendeav our
k o
Ġc f
Ġout standing
Ġfund ed
Ġ3 5
Ġnegoti ate
Ġfree ly
Ġim ages
Ġdev ast
Ġexception al
Ġmanufacture rs
Ġtar iff
Ġaug ust
Ġequival ent
Ġannivers ary
b el
in i
Ġm it
ul ous
Ġme re
Ġsh i
Ġch ief
Ġpres erve
Ġden mark
Ġteach ers
Ġveh icle
Ġgeograph ical
Ġsac rif
Ġwash ington
g n
y ear
Ġun fortun
ant ly
are r
Ġgen et
Ġref use
Ġdes p
Ġmod ified
Ġfra g
Ġbenef icial
Ġsw ift
Ġmill enn
Ġcop y
e ach
in ational
Ġw is
Ġm aced
Ġcl ub
Ġemploy ers
Ġbro ke
Ġce ase
Ġasse t
Ġmem ory
Ġvill age
Ġunfortun ate
Ġmillenn ium
Ġs ending
er c
it i
Ġan ne
Ġun ions
Ġsu itable
si ght
Ġfail s
Ġexperi encing
Ġrequest s
Ġunemploy ed
bur g
Ġcompon ent
Ġon line
Ġj un
Ġprov id
Ġneg lect
to gether
Ġfall en
Ġrom an
Ġcompar ison
Ġexclud ed
Ġchap ter
Ġf ate
Ġst ance
Ġk ar
Ġgrow n
Ġcitizens hip
Ġrul ing
Ġapproach es
Ġdiv ision
Ġdiscri min
Ġlog ic
Ġintellig ent
Ġpasseng er
Ġn ames
Ġg un
Ġg ross
Ġne ut
Ġsh ut
Ġind is
Ġbro ken
Ġrepl aced
Ġdisappe ar
Ġinev itable
Ġbreat h
Ġparalle l
b ar
e in
w ater
ar io
um n
Ġap olog
Ġcapital ism
Ġmult i
Ġmult inational
Ġslo ven
Ġliter ally
it ative
Ġd an
Ġg h
ct ive
Ġst or
Ġpro lif
me an
Ġph arm
Ġabs or
Ġret ire
Ġdecl are
Ġdemonstr ates
Ġdi agn
Ġsound s
Ġindic ate
Ġt aught
in n
ed s
Ġnot ion
ad d
eren ces
Ġsm oo
Ġhelp ful
Ġregul ated
Ġemphas ised
Ġpot entially
Ġland s
Ġexam ined
Ġestim ated
Ġsurround ing
Ġrestric ted
Ġlith u
Ġe ating
Ġe lder
et or
Ġtrans actions
Ġdirect ed
Ġchemical s
Ġâ Ļ«
n ational
Ġb ub
ro c
Ġcon vers
ad ed
Ġprov en
Ġrel ate
Ġpresent ation
Ġnecess ity
Ġlib er
Ġjud gment
Ġearth qu
Ġincent ive
Ġincred ibly
Ġm urd
ou red
Ġso il
Ġra re
Ġunder lying
Ġbus y
Ġvis ited
Ġvis ible
Ġer ad
Ġgener ate
reg ular
Ġlog ical
or n
al so
em oc
Ġpresent ing
Ġfound ed
Ġgre w
Ġche cks
Ġstreet s
Ġcomplain ts
Ġsoft ware
Ġfem ale
Ġa st
Ġra ises
Ġmod est
Ġvi et
Ġfeel s
Ġcomb ination
ark o
Ġperiod s
Ġvol ume
Ġneighbour ing
Ġregular ly
in der
Ġo x
Ġp se
Ġe co
ation ally
ot ed
Ġst yle
ced ented
Ġarg ent
Ġje opard
Ġobtain ed
Ġacqu is
Ġobser vers
Ġreconcil iation
Ġstimul us
Ġviet nam
c ap
u k
Ġf i
Ġsa udi
ang ible
Ġke en
Ġdep ression
com ings
Ġabs urd
Ġviol ation
Ġant icip
Ġec ological
Ġsatisf action
Ġdelay s
Ġsuperv isory
Ġvari ety
Ġunpre cedented
arko zy
Ġa ward
Ġb iod
ic ian
os ing
ak en
Ġmar ried
Ġro ll
Ġhapp iness
Ġbr ut
Ġset tle
Ġshort comings
Ġheav ily
Ġproc ure
Ġscen ario
Ġrh etor
Ġapprox imately
s pe
Ġt ree
Ġf ab
ct ic
Ġl augh
pp er
Ġex cuse
Ġact ors
Ġref lection
Ġsol ar
chn ya
Ġprevent ed
Ġemer ge
Ġvict im
Ġgreen house
Ġrelie f
f ollow
i ents
Ġs atell
Ġd av
Ġl ad
ver si
ra p
Ġfail ing
Ġaccomp lish
Ġinnoc ent
f all
Ġhe at
Ġsome where
Ġgu ess
Ġamb itions
Ġtack ling
Ġfoot ball
Ġunivers ities
Ġsimplif ication
none theless
Ġprolif eration
z en
Ġs and
Ġpar is
Ġres ort
ast rich
Ġ2 9
Ġunder line
Ġfinan ces
Ġ3 1
Ġdi ver
Ġindic ators
Ġult imate
Ġarri ve
Ġfif teen
Ġcompe te
Ġrout e
versi al
astrich t
d ed
u ct
u ity
Ġre cy
Ġst ore
Ġha ir
Ġman aging
Ġrev ised
Ġdist ingu
Ġche chnya
no body
Ġtrad itions
Ġsuggest ion
Ġcoordin ate
Ġkill ing
Ġunanim ously
Ġtransform ation
Ġdump ing
Ġtremend ous
c ulation
o ly
r ussi
re qu
Ġsh if
Ġcomp assion
Ġacc ounting
Ġconf ron
Ġma astricht
Ġopen ly
Ġfun ctions
Ġaust rian
Ġpie ces
Ġmer c
Ġhor iz
Ġenh anced
Ġye ah
Ġmur der
i able
o ided
Ġcomm end
un til
Ġtra ve
Ġconf ident
Ġher o
Ġav oided
Ġdist ur
Ġshort ly
Ġart icles
Ġrecogn ized
ev a
Ġwelcom es
Ġinh ab
Ġrele ased
Ġcollabor ation
cel ona
Ġanne x
Ġb ang
Ġd ur
Ġl end
Ġal lies
ch ild
Ġr and
Ġqu iet
ap h
Ġext ending
Ġregard less
Ġdifferent ly
Ġfr ust
Ġbl air
Ġir regular
Ġaccess ible
Ġlack ing
Ġreject ion
Ġve get
Ġpict ures
Ġhy d
Ġsad dam
Ġhop ed
Ġmanufact uring
Ġoccup ation
Ġnig eria
Ġun equ
Ġeuro s
Ġeuro pol
Ġpl ed
Ġpl ural
Ġout put
Ġinc omp
Ġro ots
Ġfr id
Ġem u
ib an
Ġenl ar
Ġpa cif
Ġaccording ly
Ġdistribut ed
Ġsupplement ary
Ġech o
t ime
Ġm ary
Ġh ence
ro om
ic ations
Ġun it
Ġpar k
Ġhope fully
Ġcontro versial
Ġ199 4
Ġregul ate
Ġhun ger
Ġpenal ties
Ġmusl ims
Ġinequ ality
Ġtort ure
r ous
st ream
Ġen abling
Ġch amp
Ġli kes
Ġstr ing
Ġaust ral
Ġapparent ly
mean while
Ġprocure ment
Ġag rees
Ġjo ining
Ġcol or
Ġorgan ized
Ġappe ared
Ġperspect ives
Ġcou p
Ġsil ence
Ġdoct ors
Ġdistin ction
Ġmaced onia
b et
en sible
Ġp ul
Ġf ought
ad ays
Ġno vel
Ġco vers
Ġeconom ists
Ġacc used
Ġtal iban
Ġcol omb
Ġstar ts
Ġart ific
Ġbar celona
Ġdet ri
Ġdri vers
Ġfocus ing
Ġdescri be
Ġtele phone
Ġjournal ists
Ġbiod iversity
i ate
Ã ¤
Ġp ull
Ġman if
Ġfe ature
Ġper mitted
Ġprocess ing
Ġsign als
Ġorgan ic
Ġ201 2
Ġaud ience
Ġairp orts
Ġabstain ed
Ġmath em
Ġsurpl us
Ġp age
Ġf asc
Ġh ong
ic ated
ac es
Ġpo et
Ġper sec
Ġdes irable
Ġbu ying
Ġspeak s
Ġsw itch
Ġden ied
ha ust
Ġtren ds
Ġcele br
Ġs n
Ġha bit
li hood
so ever
Ġwhat soever
Ġcons cious
ces sions
Ġsp ot
Ġsp orts
Ġmo le
Ġhand ed
Ġmil es
Ġmot ions
Ġgra ve
Ġapplic ant
Ġdeep er
Ġinqu iry
a ur
t ical
om al
ot ic
Ġst ood
Ġal ger
Ġv oc
Ġj ur
Ġres c
Ġman ip
Ġexp osed
Ġpre ca
Ġrec over
Ġir on
Ġrun s
Ġhold s
Ġsk in
Ġjoint ly
Ġbi ological
Ġeffici ently
Ġcomplex ity
Ġprepar ations
Ġdiplom acy
Ġattract ive
Ġment al
Ġrough ly
b as
at isf
Ġh es
ill ance
if ies
Ġli ability
Ġdes per
Ġcreat ivity
Ġansw ered
Ġcolle ction
Ġexam ination
Ġintegr ity
Ġwarm ly
Ġcro ps
Ġdestro y
Ġmoroc co
h am
m akers
Ġt ic
Ġf ant
Ġnot ably
Ġk ong
ang ed
Ġsit es
Ġdef ault
Ġinform al
Ġinvest ing
Ġconv entions
Ġeng land
Ġcoh erence
Ġdi verse
Ġundert ake
Ġconserv ation
Ġforest s
Ġdraf ting
Ġacknowled ged
Ġelder ly
h ence
m uch
p oint
Ġt ribute
Ġa h
Ġw ing
Ġcon ven
Ġnot iced
Ġwhere by
Ġcompet ences
Ġopp on
Ġhard er
Ġobser ved
Ġsusp ic
Ġmanif est
h ear
r um
Ġmar ine
Ġban ned
Ġfav ourable
Ġaccount ability
Ġapplic able
Ġ15 0
Ġill ness
Ġste el
Ġalloc ation
Ġpi pe
Ġslovak ia
Ġaccur ate
c ow
m al
r ations
in ated
Ġs me
Ġs arkozy
Ġb ow
Ġn amed
Ġbe at
ut ical
Ġst ead
all ing
Ġad verse
Ġinv ent
Ġoff ic
Ġtrans it
Ġcent res
Ġachieve ments
Ġair craft
Ġrece iving
Ġteach ing
Ġundertak ings
Ġton nes
Ġautom atically
may be
Ġwithdraw al
Ġsurve illance
Ġalban ia
Ġyugoslav ia
b ors
v ia
Ġal le
Ġj ump
ag ers
Ġcons ent
ens es
ace utical
Ġide ological
Ġden y
Ġmig rants
Ġrail way
Ġundertak ing
Ġdraf ted
Ġinev itably
follow ing
s ometimes
Ġt iny
is c
Ġc s
Ġd os
ic y
ci ence
Ġgen oc
man n
Ġtell s
Ġexc iting
Ġcirc le
Ġcondem ned
Ġdrink ing
Ġhur t
Ġtit le
Ġtunis ia
Ġmold ova
appro pri
o h
Ġc ot
Ġe pid
il ed
Ġl ag
Ġl ending
Ġv ent
Ġimp lies
Ġsa har
Ġmar ks
Ġinv ite
Ġfar ms
Ġend s
Ġta pe
Ġiniti ally
Ġbro k
Ġori ent
Ġfle et
rain ts
Ġfort un
Ġhaz ard
Ġgenet ically
Ġpharm aceutical
Ġt angible
in al
Ġc ens
or ation
Ġf ool
Ġin g
ra y
Ġab uses
Ġdis par
Ġimport ed
Ġmo ves
Ġrespon ses
rat ors
Ġplay er
Ġfundament ally
with in
Ġconte mp
Ġword ing
bo ok
Ġwal king
Ġsubstant ially
Ġcampaign s
Ġcommunic ate
Ġobserv ation
Ġsuspend ed
Ġrhetor ic
g ans
n ish
w ar
ou l
Ġd ivers
Ġpro te
Ġcon ve
Ġevery day
Ġbl ow
Ġaccept ance
Ġprof ess
Ġpriv at
Ġdisp utes
Ġtest ing
Ġcrimin als
Ġsurpris ing
Ġut most
Ġincorpor ated
Ġhus band
Ġreiter ate
Ġimper ative
Ġol af
c king
Ġb ail
Ġg rat
con nect
Ġpos s
Ġmon it
Ġdef ending
Ġcongrat ulations
Ġmiss ed
Ġbill ions
Ġsympath y
Ġdin ner
Ġenem y
Ġindones ia
nat urally
f r
it zer
Ġb are
Ġcom fort
Ġpres cri
ll a
ab ove
Ġinst ability
Ġlib ert
Ġten sions
io x
Ġguarantee ing
Ġconsult ed
Ġpoll ut
Ġrecord ed
Ġengage ment
Ġdefe at
Ġpil ot
Ġwis dom
Ġb read
Ġn ord
Ġex haust
Ġout set
Ġro t
Ġoff ices
Ġ19 4
Ġes cape
sequ ent
Ġsoon er
Ġobs erve
ec d
Ġterrit ories
Ġcounter fe
Ġmonop oly
Ġdiscip line
Ġinhab it
Ġfrid ay
Ġresc ue
Ġt s
en opho
Ġm ich
Ġan ge
Ġpro mpt
ch ed
Ġint oler
Ġco ok
Ġsince rely
Ġvis ual
Ġdang ers
Ġassoci ations
Ġcle arer
Ġgrant ing
Ġitem s
Ġunanim ous
Ġtele commun
Ġtoler ance
Ġestim ates
Ġisol ation
Ġappoint ment
Ġowners hip
Ġw ave
en na
it a
Ġd na
Ġre ward
Ġbe ef
Ġany way
Ġintern ationally
Ġappreci ation
Ġcateg ories
c les
Ġp ig
Ġre verse
Ġg ather
res pect
Ġar bit
lic ate
Ġent ering
Ġback ing
Ġinter im
Ġgr ass
Ġenter prise
Ġpurs uing
Ġrelationship s
Ġenlar ged
itzer land
g ies
Ġsu ic
os y
de velop
Ġph r
Ġ4 00
bo ard
Ġgain s
Ġstru ck
Ġ197 0
Ġmacro economic
g ue
l ong
r ather
t t
Ġn ic
st uff
am ong
Ġhe ll
Ġfe atures
Ġcent uries
Ġmod erate
Ġ4 5
Ġair lines
Ġcongrat ulating
Ġspl it
Ġt all
Ġt ast
on ing
Ġst u
Ġun ilateral
ter y
ive red
Ġv ary
ist ical
Ġbr and
Ġwar rant
Ġmeet s
Ġel ite
Ġstar s
Ġarg ued
Ġqual ifications
Ġattach ed
Ġdel ivered
Ġgenoc ide
is ite
Ġm use
Ġf oss
Ġh ide
Ġd up
Ġd iox
as p
Ġg all
Ġreport ing
Ġmon day
Ġfore ver
Ġess ence
Ġcivil ians
ber t
Ġtext ile
Ġcurren cies
Ġund erest
Ġpain ful
Ġoverwhel ming
Ġt ail
re m
Ġse ats
Ġdo ha
ab e
Ġsa ved
wh e
Ġworth y
ij ing
Ġhous es
Ġx enopho
Ġinsp ired
Ġearthqu ake
p ort
Ġmar ri
Ġser ved
Ġsub sequent
Ġpromot ed
Ġmis under
Ġer rors
Ġdisp l
Ġpost al
Ġmess ages
Ġkore an
Ġwebs ite
Ġscrut iny
Ġjur is
w a
Ġt am
Ġb ag
es sions
Ġf an
Ġf ur
Ġab st
mm et
Ġgen eva
ne ither
Ġins pir
Ġadv ised
Ġbenef ici
Ġsustain ed
Ġred und
Ġcr ash
Ġdon ors
Ġobstac le
Ġconsolid ation
Ġcele b
Ġchann el
Ġimbal ances
Ġrecy c
Ġdos si
Ġtelecommun ications
a id
n is
Ġn ur
ke l
Ġimp erial
ound s
ub e
Ġgovernment al
Ġaccept ing
Ġresearch ers
Ġalong side
Ġquot a
Ġunanim ity
Ġder og
Ġok ay
Ġmuse um
b ly
i os
Ġc ow
Ġh all
Ġst ations
Ġsu pre
Ġse es
Ġact ed
Ġev il
Ġass ert
Ġperson nel
Ġprotection ism
Ġcontribut ing
Ġbank rupt
Ġconvention al
Ġneigh bors
Ġdiv ide
Ġrenew ed
Ġenjo yed
Ġconserv atives
Ġstrict ly
Ġmargin al
Ġcamer a
Ġow ing
Ġplat form
Ġlithu ania
m atically
Ġt ies
oun ce
Ġse lling
ist ry
ak ed
Ġjust ification
Ġnational s
Ġnorm ally
Ġsen ior
Ġauthor itarian
Ġcontact s
rog en
Ġscot land
russi a
u le
u zz
Ġcont am
Ġsome how
row n
Ġsub s
Ġrel oc
Ġass ured
Ġimm ense
Ġ199 2
Ġfac ility
Ġassess ments
Ġchrist ians
Ġweap on
Ġcra zy
Ġisol ated
Ġincom es
Ġautonom y
Ġalle ged
m er
z uel
Ġ vers
Ġs orts
ra de
Ġse qu
Ġad mitted
Ġknow ing
Ġunder p
ound ed
Ġdiff er
Ġsec ular
Ġadv is
no thing
Ġbroad cast
Ġclos ing
Ġimpos ing
Ġdeclar ations
Ġclaim ed
Ġtre es
Ġsimplif y
Ġabandon ed
Ġexclus ively
Ġexplicit ly
bre ak
Ġargent ina
l imin
m ans
er b
en sions
Ġan cient
Ġh olid
os ure
Ġqu e
Ġtr ick
ip h
Ġmo on
Ġ3 7
Ġlab el
Ġloc ation
Ġpost pon
Ġig c
Ġmeant ime
child ren
Ġlibert ies
n i
p ass
Ġs now
Ġc ere
Ġm aster
Ġf lying
Ġst al
op ol
Ġv it
un ction
Ġat tain
Ġr ush
ect ive
Ġtime ly
Ġfe as
Ġconst raints
Ġrepres sion
Ġir respon
Ġliberal s
Ġexcept ions
Ġfis ch
yes terday
Ġmos cow
Ġhyp oc
stuff s
f ur
Ġc os
Ġd aughter
ar ia
Ġst ip
ul ed
Ġun h
Ġdis ast
Ġprop ag
Ġbo ld
Ġfr on
Ġpop ul
Ġsw itzerland
Ġ7 5
Ġpartnership s
Ġvir us
Ġcat al
Ġarrest ed
Ġhousehold s
Ġsatell ite
Ġfoss il
r ical
Ġc up
Ġf ires
Ġin put
ic king
Ġst ages
ol f
Ġse lection
Ġpre requ
Ġser ves
Ġcl in
Ġconf usion
Ġsystem atic
Ġown ed
Ġback ed
Ġresol ving
Ġed ge
Ġparticip ating
Ġtyp ical
Ġnewsp aper
Ġpacif ic
whe ther
p one
Ġs ale
Ġc ab
Ġl unch
Ġrep ut
Ġad equ
Ġfin nish
Ġpre jud
Ġtrans f
Ġca mb
Ġredu ctions
Ġ199 3
Ġstud ying
Ġcong o
Ġce iling
Ġbre ast
Ġlow est
Ġaut umn
Ġdepend ence
Ġchrist mas
Ġengine ering
Ġexpert ise
Ġstor age
i ro
Ġto xic
Ġha iti
Ġsu it
Ġsh ot
Ġv ene
Ġint ense
Ġpl ain
Ġte a
Ġro c
Ġsub sequently
Ġrel uct
Ġmin or
Ġtechn i
Ġgener ated
Ġpost pone
Ġwin ter
Ġukra in
Ġadvoc ate
o ff
u gg
er ity
Ġn az
Ġbe ijing
Ġch ick
Ġdef ining
Ġcar ri
Ġwar n
Ġlet ters
Ġparticip ants
Ġconsist ently
Ġexer c
Ġconcent ration
Ġbir ds
Ġstim ulate
Ġdepart ment
Ġjuris dict
a res
Ġt act
Ġo ecd
Ġp ose
Ġb es
ed a
th anks
Ġre aff
ra m
Ġdis rupt
Ġpre limin
Ġtra ined
Ġacc um
Ġgu ide
pet us
Ġinvest ed
be it
Ġpay s
rodu ctive
ber g
Ġdam aging
Ġcoll aps
itud es
Ġbeaut y
Ġsil ent
Ġmach ines
Ġgeor ge
Ġobserv ations
Ġaustral ia
Ġa ld
Ġin con
Ġre un
il ty
Ġun just
Ġr anging
us sions
Ġtr illion
Ġcomp atible
Ġwhen ever
Ġdeb ts
Ġpublic ly
Ġview ed
Ġsaf er
Ġbegin s
Ġim petus
Ġcomprom ises
Ġexch anges
Ġinterv entions
Ġhighlight s
Ġhor se
Ġrefuge e
Ġcharacter istics
Ġdon or
Ġprotest s
Ġretire ment
Ġmathem at
appropri ate
Ġn a
Ġg ard
Ġj er
Ġup hold
Ġco pe
Ġcommun ism
Ġrem ote
Ġend ing
Ġsol ving
Ġmeas ured
Ġorgan ise
Ġobject ions
Ġabs ent
Ġexpress ing
Ġbroad ly
Ġorganis ms
sh r
Ġinterv iew
Ġclar ification
Ġcompar able
Ġstake holders
Ġut ter
Ġcoast al
Ġphilosoph y
le te
Ġal beit
ra pporteur
Ġnot es
Ġen shr
Ġpl enty
Ġdis arm
Ġwhere ver
Ġplan e
Ġgener ous
Ġdev oted
Ġrat ify
Ġwal ked
Ġvo ices
Ġarab ia
Ġos ce
Ġdism iss
Ġpreca ution
Ġinhabit ants
Ġdisast rous
Ġprelimin ary
Ġt ens
re c
Ġb ath
Ġdo ors
Ġhe ight
Ġacc omm
Ġhand le
Ġequ ity
Ġrepresent ing
Ġexperi ments
Ġamb ig
Ġsent ences
nes day
Ġprosec ut
Ġspect rum
Ġreveal ed
Ġaccomm od
m is
es h
Ġh idden
Ġbe aring
Ġwh ol
id s
im ag
Ġro ck
ile o
Ġsoci o
Ġfeel ings
Ġpract ically
Ġcare er
Ġpass ing
Ġintegr ate
Ġang ry
Ġpersu ade
Ġwed nesday
Ġprovid ers
Ġstu pid
Ġm s
Ġd ress
th ree
Ġpro min
Ġen ables
Ġout break
Ġlo ved
Ġgu ilty
Ġfl at
Ġpress ing
Ġ198 9
tur n
Ġcult iv
Ġoptim istic
Ġpattern s
Ġvig il
Ġendors ed
Ġvene zuel
p erson
s u
w omen
Ġs ke
Ġc ul
Ġp ity
Ġp estic
Ġsh op
Ġse ason
Ġen rich
ud e
ult ane
Ġyour s
Ġconv iction
la im
Ġrestrict ive
Ġpush ed
Ġrid ic
Ġchann els
Ġsh el
Ġtr oub
Ġpos ed
og le
Ġsec ur
Ġcost ly
Ġwhole hear
Ġoccup ied
Ġpra ise
Ġflight s
Ġolymp ic
Ġcolomb ia
s s
er ted
Ġm ale
al ing
st ate
Ġde tain
ll or
Ġtra ce
Ġinst ruct
Ġreal ities
Ġmak ers
Ġform ula
Ġgr asp
Ġprogress ive
lus ive
Ġpunish ment
Ġfrag ile
Ġoppon ents
Ġing red
c as
f ast
v ity
Ġa se
Ġp apers
Ġb reed
Ġf ill
Ġd at
Ġd ying
th y
il i
Ġex ac
Ġpre cond
Ġind ication
Ġover look
Ġtrans lation
Ġaff air
Ġrespect ive
Ġsecond ly
Ġes cal
Ġrev ol
Ġthought s
Ġharmon ised
Ġstri kes
Ġaust erity
Ġdomin ant
Ġabol ition
Ġmonop ol
regard ing
Ġliquid ity
americ a
Ġcommod ity
Ġexac erb
h ist
Ã ¨
an i
Ġm ira
Ġd rast
Ġbe ars
Ġu til
Ġun us
ad or
Ġpres ents
Ġapp ointed
Ġany more
Ġadd ing
Ġadv ances
Ġkeep s
Ġsubst it
Ġorigin ally
Ġcy pri
Ġdelay ed
Ġmand atory
Ġcommer ce
Ġinvestig ate
Ġdism ant
Ġarchitect ure
Ġash ton
Ġliber ty
Ġartific ial
b i
b ally
d ens
h uman
t ered
v ent
in et
Ġc ath
Ġm ir
Ġf illed
ar a
Ġre vers
Ġg a
ul z
Ġra rely
Ġdra matically
Ġfra gment
Ġfood s
mpt ions
Ġfl aw
Ġadap ted
Ġtre as
tur key
Ġreven ues
Ġcolon ial
uild ing
Ġaspir ations
Ġtemper ature
Ġirregular ities
m aking
Ġt ear
er ving
Ġb and
Ġleg acy
Ġbr an
Ġfind s
Ġsch ulz
Ġrul ed
Ġunderstand able
Ġprevent ive
Ġche aper
Ġpa ul
Ġcover ing
Ġpoore r
Ġthorough ly
Ġconce pts
Ġadult s
four thly
Ġfing er
amend ment
Ġsmoo th
Ġmonit ored
r ating
Ġb ond
Ġl ists
ra ge
ri g
Ġor gans
Ġno bel
Ġco inc
Ġcontin uation
Ġher z
Ġsm oke
Ġfind ings
Ġdep os
Ġ199 1
Ġbor ne
Ġisrael is
ograph y
Ġrespond ed
any one
Ġdisappe ared
Ġgal ileo
Ġcompon ents
m edi
Ġe lig
Ġn omin
st an
Ġg est
Ġg aps
Ġde ar
Ġpl us
oll ah
Ġprincip al
Ġthreat ening
Ġdefin itive
Ġ196 0
Ã³ n
Ġsuic ide
osy stem
Ġsupre me
ct ure
Ġen abled
Ġr ub
am i
ren ce
Ġcomp li
Ġwork er
ag ger
ious ly
Ġbo at
Ġhand ling
Ġproced ural
Ġstud ied
Ġtri b
Ġdev ice
Ġconsult ations
Ġcal m
Ġremind ed
Ġsimplif ied
Ġgradu al
Ġmeaning ful
Ġfavor ite
Ġsim ultane
Ġdemonst ration
Ġconvers ation
Ġdat ab
m at
z ed
is en
ic ks
Ġe gg
Ġl am
ot ing
Ġbo ys
Ġnational ism
less ly
Ġdemocrat ically
Ġsoci ally
Ġec osystem
Ġvol at
Ġsun day
Ġteam s
Ġevalu ate
Ġcos m
Ġald e
b ul
c ur
g s
Ġm un
al es
Ġat om
if or
Ġgo ogle
oc al
Ġass urance
Ġher self
Ġform ed
Ġhome work
of uel
Ġconsist ency
Ġinvestig ations
Ġseek ers
Ġhop ing
Ġrob ust
Ġdecent ral
Ġparad ox
Ġt ac
an cies
Ġin appropriate
Ġe ib
Ġu g
se veral
ig ation
Ġar ctic
Ġpolicy makers
Ġma il
Ġinter rupt
Ġform ally
Ġcrit er
Ġmom ents
Ġcomb ine
Ġve to
Ġemotion al
Ġperce ived
Ġneut ral
is ra
Ġd ish
Ġcon cessions
ol ic
Ġapp la
Ġspe cul
Ġho le
Ġpr ud
Ġsc ore
Ġmoment um
Ġstat istical
Ġbur dens
ug en
Ġsix th
Ġdim ensions
Ġparagraph s
ik a
Ġexplan ations
Ġcard s
Ġphr ase
Ġadequ ately
Ġcriter ion
s m
v ic
x ual
Ġp oc
Ġre me
Ġl ingu
se in
Ġun clear
ust ain
Ġch ances
Ġk urd
Ġcomp osition
Ġinv ented
Ġide ology
Ġexist ed
Ġver he
Ġchance llor
Ġexplo it
Ġcr uel
Ġrob ot
Ġscar ce
Ġhazard ous
b by
h ad
n ight
Ġb ird
Ġin sec
ro l
Ġst ric
ri end
Ġch ile
Ġr ice
Ġimp ressive
con i
Ġout lined
Ġcomp are
Ġ19 5
Ġwish ed
Ġsecond s
Ġbro thers
Ġregul ators
Ġdim in
Ġimag ination
certain ly
Ġcustom ers
Ġdream s
Ġincorpor ate
Ġcontradict ion
Ġmix ed
Ġregist ration
Ġmultip le
Ġrand om
Ġprecaution ary
Ġverhe ugen
i ov
l ock
s hip
w s
Ġt or
ir t
Ġr ing
Ġr um
Ġres ign
our se
Ġar ising
Ġmo thers
Ġgen es
Ġinter act
ici ally
Ġcap abilities
Ġz ones
Ġprogramm ing
Ġbi ofuel
Ġsymbol ic
Ġmort g
Ġlawy er
Ġtransf ers
Ġreaff irm
e ll
u ously
Ġc art
Ġdis abilities
Ġar men
Ġper iph
ian n
Ġdep l
Ġprom ising
Ġshe ep
Ġrest aur
Ġrein forced
Ġelector ate
Ġexe mp
Ġpsych ological
Ġhus sein
Ġembra ce
Ġprofess or
Ġxenopho bia
Ġappla ud
Ġt iss
Ġthe me
en ko
Ġp it
or gan
Ġd rought
Ġre de
Ġal leg
Ġcons ists
Ġpos es
Ġnow here
Ġmain stream
Ġrespect ing
Ġdri ver
some thing
Ġinnov ations
Ġrecomm ended
Ġconvin cing
Ġmal ta
Ġcooper ative
Ġinh erent
Ġtend ency
Ġhot el
Ġsurve y
Ġundermin ed
ky o
Ġdub lin
Ġpursu ant
Ġposs ess
Ġbare ly
Ġrecyc ling
Ġjurisdict ion
p ens
z a
Ġ `
Ġto kyo
Ġh ate
Ġe g
id ential
Ġres idence
wh atever
Ġprodu cer
Ġbas es
rat s
Ġdes ired
Ġsc ene
Ġbar ack
Ġcamp s
Ġbreak ing
Ġrespond ing
Ġpill ars
Ġsevere ly
Ġenthusi asm
Ġprerequ isite
Ġreput ation
a e
v i
y e
ion ary
st one
Ġde em
mp le
un te
ap art
Ġpre de
ok ed
Ġcouncil s
Ġpr ide
ten ance
Ġca ut
Ġadv ent
Ġimm unity
Ġfail ures
Ġthreat en
Ġdest abil
like wise
lif e
Ġbreak through
Ġfed eration
Ġmal aria
Ġrail ways
Ġfulf illed
Ġspread ing
Ġpreced ent
Ġdav id
Ġpropag anda
Ġ Ã
en er
Ġc au
Ġl oud
Ġwe ar
Ġrep air
Ġcons cience
Ġnow adays
Ġpolit ician
Ġrec ital
Ġprodu ces
Ġsystem atically
Ġass umed
Ġbr ill
Ġsign ing
Ġmain tenance
ov ina
Ġrussi ans
Ġdemand ed
Ġrecogn ises
Ġ201 5
Ġliberal ization
Ġten sion
Ġve ter
Ġbi ology
every body
Ġfre ight
Ġemerg ence
Ġdomin ated
hol m
Ġmc c
Ġalarm ing
Ġjew ish
Ġfost er
Ġhes it
g ood
h i
Ġo we
Ġb act
Ġsu ms
Ġsh ock
and er
un k
Ġr ating
Ġour s
Ġad h
Ġmy th
ress ing
Ġgovern ed
Ġfri ght
Ġmis le
Ġencoura ges
Ġage ing
Ġpain t
Ġauthor isation
Ġtouch ed
Ġbound aries
Ġbelong s
Ġexpand ing
Ġinequ alities
Ġsched uled
Ġindis pens
Ġirrespon sible
c s
c ol
r ass
v able
Ġs li
Ġs omal
Ġc ake
ro ph
ot y
Ġst one
Ġst agn
Ġst uck
ir ty
op ia
Ġinv itation
Ġlif t
Ġloc ated
Ġjud ges
Ġtop ics
Ġdi am
Ġvol unte
Ġtotal itarian
Ġexam ining
rop he
every thing
Ġtack led
Ġcha os
Ġphys ics
Ġsho es
Ġgal ax
Ġali ke
Ġbrut al
Ġalger ia
k ind
s ad
w ood
ur g
Ġse as
Ġrep erc
Ġpre gn
Ġnew ly
Ġdec iding
Ġspe culation
Ġper ception
Ġacc us
Ġatt itudes
Ġune x
Ġweak en
Ġagg ressive
Ġdro pped
Ġcatast rophe
Ġconfron ted
Ġhoriz ont
Ġtrib un
Ġindispens able
h r
v ation
Ġa x
Ġa th
Ġb le
st ill
Ġi v
Ġl t
Ġme l
Ġv ague
Ġdis se
em en
Ġinc idents
Ġinv asion
Ġref usal
Ġglo bally
Ġcap ita
Ġvi enna
Ġiniti ated
gg ed
Ġapproach ing
Ġmind ed
ug abe
Ġdeg rees
Ġrevolution ary
Ġpush ing
Ġbirth day
Ġinj ured
Ġannounce ment
Ġremed y
Ġox y
Ġdiox ide
Ġreperc ussions
d emoc
f ar
h ab
i pped
j apan
p o
se en
Ġst orm
ol ved
Ġun its
Ġso c
Ġres idents
Ġres umed
con sider
for d
Ġte eth
Ġamend ing
Ġass um
olog ists
Ġgr ants
Ġobject s
Ġcontribut es
Ġexpl ore
Ġsl a
Ġfocus es
Ġfrank ly
Ġdar fur
g ive
Ġmy ster
int on
Ġemp ire
Ġdes ert
ne xt
Ġ3 2
arch y
Ġcontro lling
Ġaccount able
Ġconsequ ently
Ġdev ices
ote chn
Ġtown s
Ġembar rass
Ġacad emic
Ġsloven ia
Ġvenezuel a
p al
t ion
Ġa u
ic ing
st at
Ġwe igh
Ġun res
od e
Ġj ac
ie th
Ġsince re
Ġaddress es
Ġyoun ger
Ġori ented
Ġdam aged
Ġexe mption
Ġscre en
Ġepid emic
Ġmarri age
Ġdispl aced
Ġfisch ler
Ġsecur ities
h ard
p a
en ess
Ġh ars
ic ate
Ġu pper
ow ered
Ġun know
ll s
ren d
Ġman agers
fore st
Ġro se
Ġsy mpt
Ġcor re
Ġensure d
Ġur ged
Ġart ists
Ġtransport ation
Ġchar ged
Ġdisp rop
Ġweek end
Ġsent i
Ġsepar ation
ex ist
Ġprefer red
Ġexclus ive
Ġlawy ers
Ġdevast ating
Ġpipe line
Ġpestic ides
iann ual
Ġbrill iant
Ġfor b
pe l
qu ite
Ġle ague
Ġj ail
ak h
te xt
Ġapp alling
Ġop ens
Ġsec uring
Ġsol ana
Ġtri als
Ġdet ention
Ġfo ld
Ġdeleg ations
Ġclar ified
Ġsafeguard ing
Ġcomplain t
Ġwitness ed
Ġflood s
Ġshi pping
Ġbub ble
isra el
i pp
p ublic
Ġt one
Ġs in
Ġs oph
Ġc ig
Ġn erv
th or
om ed
ol a
if iable
Ġac ute
ose vic
ov al
Ġunderstand s
Ġben ch
com es
Ġ4 8
Ġsubject ed
Ġtri gg
Ġpat ten
Ġ6 00
Ġcontain ing
Ġbri ght
Ġreturn s
Ġfeed ing
Ġtransfer red
Ġattemp ted
Ġdistin ct
wel ve
Ġsev enth
Ġcamb od
ustain able
v iew
or ously
st op
Ġg ue
Ġg mos
Ġde licate
mb ered
Ġint im
Ġus d
Ġinc ur
Ġpr int
Ġdep ending
Ġavail ability
Ġweak er
Ġbit ter
Ġsan ter
Ġstri ve
Ġsafeguard s
Ġvirt ual
Ġabol ish
Ġabol ished
Ġadapt ation
cons ist
Ġembar go
Ġded icated
Ġneighbor hood
Ġast on
Ġconve y
rem lin
Ġdossi er
Ġlingu istic
Ġdisprop ortion
1 1
t al
Ġp ap
or al
Ġto ys
ic ious
Ġsh r
out s
ac ing
ll ow
Ġtrans mission
Ġgen e
Ġrem it
Ġext ract
Ġpoint ing
eg ovina
Ġshort age
Ġret ail
Ġvis as
Ġdecl ining
Ġver ts
Ġconnect ions
Ġtest ed
Ġpun ished
Ġattemp ting
Ġadvoc ates
Ġpurch ase
Ġconstitu ency
Ġregist ered
Ġthir ds
Ġhal t
Ġpursu it
Ġenvis aged
Ġprag matic
Ġdepri ved
Ġinfringe ment
Ġcau cas
Ġb rown
il le
ur a
Ġun ified
Ġk remlin
te x
Ġsy ner
Ġcl inton
Ġrel ax
Ġgu ine
Ġdist ant
Ġ6 5
Ġmult iannual
Ġindic ates
Ġconcent rated
Ġacqu ire
Ġarrange ment
Ġexpand ed
Ġq a
Ġnerv ous
Ġw ond
Ġp and
Ġb id
Ġf ro
Ġbe ach
Ġst amp
Ġde reg
Ġr ide
Ġus er
Ġar ises
Ġsupport ers
Ġser b
ang er
Ġinf l
Ġeduc ated
Ġfl our
Ġcivil ization
Ġrisk y
Ġfun ny
str Ã¶
Ġchalleng ing
Ġclos ure
Ġavoid ing
Ġeth i
Ġuns atisf
Ġentail s
Ġstring ent
Ġingred ients
Ġherz egovina
strÃ¶ m
e k
in ter
Ġm ugabe
Ġin se
Ġh ind
Ġd are
Ġun st
Ġshould er
ose xual
Ġro th
Ġrem oval
Ġest onia
Ġsupp ose
Ġlib rary
Ġexpect ing
Ġclo thes
Ġhead ed
Ġpack aging
Ġmass ac
Ġbi otechn
Ġpress ures
Ġcritic ised
Ġcollect ed
Ġsens it
Ġmission s
Ġacqu ired
Ġtun a
Ġdestro ying
Ġquant ities
Ġmag ic
Ġrig orous
tr ue
Ġdecre ase
Ġeco fin
Ġfab ric
Ġhyd rogen
icy cle
Ġpostpon ed
Ġkurd ish
Ġstric ter
a ci
b ollah
o y
s k
y n
in ct
an es
al ed
Ġd ual
ro t
Ġg iant
Ġst ret
Ġun will
Ġex ert
est y
am ount
Ġab und
Ġdis regard
Ġout comes
Ġtim or
ag on
Ġexp enses
Ġfact ory
Ġgu ant
Ġproblem atic
Ġfood stuffs
Ġlim iting
Ġbur ning
Ġsat ur
Ġstress es
Ġred ist
Ġreview ed
Ġsatisf y
Ġlimit ations
Ġrein for
pol itical
Ġpurch asing
Ġtransl ate
Ġdisadvant age
Ġevol ved
Ġlands cape
Ġwholehear tedly
Ġunus ual
m other
p ower
Ġan ger
Ġun rest
Ġj u
for ward
Ġunder way
Ġwant ing
Ġsp ons
ub er
sel ess
ord an
Ġsec re
Ġinter connect
Ġaff irm
ne g
Ġca ution
Ġsl aughter
Ġident ical
Ġguid ance
la w
Ġstock holm
Ġconsolid ate
Ġng l
vest ock
Ġinterpre ted
Ġunequ iv
Ġfant astic
Ġprede cess
Ġhorizont al
i est
m i
r ition
at om
Ġin consist
Ġst er
Ġal ter
Ġun t
est ed
Ġinc ap
Ġra p
Ġconf used
Ġinter action
Ġexc ited
Ġmer kel
Ġrecord s
Ġmedic inal
Ġtyp ically
Ġwithdra wn
Ġstabil isation
Ġinterf erence
Ġmotiv ated
Ġnewsp apers
Ġthir ty
Ġindirect ly
Ġdistingu ish
Ġceleb rate
Ġenshr ined
Ġdisarm ament
c ount
u um
Ġthe rap
Ġc oc
Ġb ay
Ġb unch
Ġm u
Ġd ry
Ġd ivid
Ġen act
Ġr w
Ġli vestock
Ġsc an
Ġlif el
Ġ3 6
Ġmil osevic
Ġemphas ize
Ġlat via
Ġemb ry
Ġstri king
Ġcat tle
Ġice land
Ġod d
Ġunderp in
Ġfeas ible
Ġgard en
Ġunwill ing
in ations
Ġs cept
Ġd ile
Ġg ases
Ġg raph
ore n
Ġdis in
Ġoff icially
Ġdef lation
Ġrequ iring
Ġent ertain
Ġass umption
Ġhand led
Ġins ult
Ġpriv acy
Ġthreat ens
Ġpost s
Ġmodern isation
Ġemb ark
Ġdeli very
Ġworth while
reh ensible
Ġdict ator
Ġexplo ited
Ġsupposed ly
Ġexclud e
Ġoptim ism
Ġinfect ed
Ġjew s
Ġconfront ation
Ġcopy right
Ġdesper ate
Ġholid ay
imag ine
Ġunknow n
Ġqa eda
c ot
ar ians
Ġcon j
ra ined
Ġas ks
con c
Ġmin ing
ten eg
Ġprof itable
Ġsou l
Ġ9 5
Ġeth ics
Ġharmon ise
Ġoccur s
Ġhung ry
Ġfulf illing
Ġinspect ion
Ġdisadvant aged
Ġweakness es
Ġsuspic ion
Ġtechni ques
Ġukrain ian
Ġsimultane ously
Ġhars h
h and
z ing
Ġp ages
Ġwe aring
Ġpro long
ci le
Ġle v
Ġj ordan
Ġpe ak
lo ad
Ġpre text
Ġmar t
Ġleg s
Ġcl ash
Ġtw ent
Ġconf irms
Ġcountry side
Ġauth ors
to o
Ġsecond ary
Ġsector al
Ġpat ents
Ġactiv ists
Ġretur ning
Ġtop ical
Ġweak ened
Ġilleg ally
Ġsubstant ive
Ġstay ed
Ã¡ n
Ġsymbol s
Ġquant ity
Ġrout es
Ġstraight forward
Ġmag az
Ġrig id
Ġundermin ing
Ġsched ule
Ġplural ism
respect ive
Ġcig are
c end
d ue
m its
Ġh ed
un like
Ġab ortion
ink i
Ġdirect ions
Ġmin es
Ġma h
Ġ19 30
Ġnational ist
less ness
Ġear mark
Ġsuccess es
Ġart ist
Ġpromot es
Ġdom ain
Ġassess ing
Ġrat io
Ġ25 0
Ġwin ning
Ġhar vest
Ġstrugg ling
Ġsett led
Ġblock ed
tr ans
Ġvoc ational
Ġoffic ers
Ġsahar an
Ġorient ation
Ġnord ic
Ġatom ic
Ġdile mm
s ch
Ġt ong
Ġthe ore
Ġpro ves
Ġha gue
un less
Ġen forced
Ġwas ted
Ġj ar
Ġdis or
Ġwork force
te ll
ath ers
Ġpr on
Ġlack s
Ġsk ill
Ġfacilit ating
Ġadjust ments
Ġdeliver ing
Ġproc laim
Ġthrow n
Ġawa it
Ġpromin ent
Ġcaucas us
a ire
c ut
i us
o thers
s inki
Ġp ump
an as
Ġb Ã¶
ion e
ic a
Ġch ose
Ġinc lusive
Ġapp le
Ġmon ti
Ġatt ribut
Ġhel sinki
ruct ive
Ġresol ute
Ġafter wards
Ġfl owers
Ġamb ass
Ġfront iers
Ġelimin ating
Ġdepart ure
Ġye llow
Ġineff ective
Ġfran c
lad esh
Ġroman ian
Ġbenefici aries
Ġutter ly
Ġmonopol ies
ifor nia
Ġguine a
1 0
9 9
g lo
y er
y an
en ous
Ġin ject
Ġin ex
Ġme p
Ġpre st
Ġmar tin
Ġper mission
ind ia
Ġlo an
Ġass ass
Ġsur ger
Ġwhe el
Ġfound ing
Ġinteg ral
Ġge opol
Ġplac ing
Ġdiv or
Ġdiv isions
Ġappreci ated
ari at
gra ce
Ġdispar ities
Ġridic ulous
Ġbiofuel s
Ġtribun al
Ġunsatisf actory
Ġt ill
Ġm ush
Ġf ue
Ġd ance
Ġcan cell
all ed
Ġpl astic
Ġte mpt
Ġpo ison
Ġcl imb
Ġfinan cially
Ġfore see
Ġsimp ler
Ġrest ored
Ġperson ality
Ġbenef ited
Ġair pl
Ġ8 00
Ġmer it
Ġmer its
Ġfront ier
Ġforest ry
lus coni
Ġafford able
Ġautom atic
Ġadvoc ated
Ġcorrespon d
Ġcatast roph
Ġhat red
Ġpersec ution
Ġase an
i ge
w as
w rit
Å ¡
Ġp y
Ġp uzz
Ġd il
Ġd rew
Ġe ager
Ġn ative
Ġl ap
Ġex hib
li ers
qu est
âĢ ľ
si le
Ġco exist
Ġind iff
Ġtreat ing
Ġinter medi
Ġglo be
Ġsect ions
Ġlist ed
Ġz e
Ġgra vity
Ġbra ve
Ġscient ist
Ġcla uses
Ġclass es
Ġcritic isms
Ġtransform ed
Ġsho pping
Ġpan el
Ġroot ed
Ġcry ing
Ġcorrespon ding
Ġselect ed
Ġgrat itude
Ġts un
Ġcaut ious
Ġbact eria
Ġmisle ading
2 5
f if
f ather
g ments
k er
t ail
Ġt ab
Ġp in
Ġb one
Ġm as
Ġd ad
Ġd read
le ted
Ġal together
Ġsh ocks
Ġsh ocked
ap ore
au thor
Ġwork place
Ġco fin
wh ilst
Ġlo yal
Ġtrans national
Ġdes k
Ġform ulated
Ġadv isory
Ġcomple tion
Ġenc oun
Ġbra ins
Ġjud ged
Ġdi et
Ġmist aken
Ġwonder ing
Ġpati ence
Ġsal ary
Ġrelev ance
ump h
Ġprofession als
Ġwall s
Ġreact ions
Ġincor rect
Ġegypt ian
Ġelimin ated
Ġbomb s
Ġbalk an
Ġcorpor ations
Ġinspect ions
Ġremo ving
Ġspect ac
Ġali en
Ġpred icted
Ġawa iting
Ġdisappoint ing
Ġdisappoint ment
keep ing
Ġken ya
a ust
l arge
w in
Ġt um
Ġt welve
Ġa qu
Ġc ure
Ġp up
Ġb a
al istic
st al
Ġg ang
Ġl in
ul ates
ant ic
Ġle ap
Ġpart ial
Ġco ins
Ġser ving
Ġconf ined
Ġmon teneg
Ġcur ious
Ġpublic ation
Ġwar ned
Ġchild hood
Ġgot ten
Ġclo thing
Ġsumm ar
Ġprof ile
Ġsl ide
Ġpa rent
Ġjud ici
Ġattack ed
Ġpoll s
Ġdead lines
Ġprepar atory
Ġord ers
Ġdog s
Ġhom osexual
Ġtoler ate
Ġautonom ous
Ġcf sp
Ġsubs cri
i ety
r idge
in ery
on ed
an o
an ium
ve z
ra f
im a
ess ed
Ġk inn
Ġlike wise
Ġ1 20
Ġiss uing
Ġatt ended
Ġsm ugg
wor king
be ing
Ġest imate
Ġdemocrat isation
Ġsur ge
Ġaim ing
Ġparticip ated
Ġcoordin ating
Ġmet aph
Ġcompetit ors
Ġens ures
Ġdict ionary
according ly
Ġber lusconi
Ġexec ution
Ġprem ium
Ġacad em
Ġtariff s
Ġcounterfe iting
Ġtam pe
Ġfron tex
Ġkinn ock
Ġ ly
Ġt ag
Ġt ries
in tern
in ating
the tic
Ġme al
Ġun amb
est s
ome ters
Ġpol ar
Ġint r
Ġdis grace
ag o
Ġpo ol
Ġro les
Ġcl im
Ġcontin ually
Ġ19 50
Ġrul ers
Ġest ate
Ġtri umph
Ġger mans
ib i
Ġcho osing
Ġcirc ulation
Ġfair ness
Ġgain ing
Ġsad ly
Ġcompens ate
Ġprem ature
Ġcontradict ory
Ġinterf ere
Ġluck y
Ġcapt ure
Ġvac uum
Ġtrave lling
Ġbang ladesh
Ġvent ure
Ġdup lic
Ġstal in
Ġchick en
Ġsubstit ute
Ġrestaur ant
Ġoxy gen
Ġintim id
Ġt ied
on ess
is ible
Ġb io
Ġf rat
Ġin sight
Ġh ang
Ġg ift
Ġal lev
Ġun ification
Ġle h
Ġk ick
Ġreg ain
Ġup he
Ġter min
Ġro w
Ġro of
Ġro bert
Ġbeh ave
Ġassess ed
Ġsuper f
Ġsecret ariat
Ġje an
Ġign or
Ġfoot ing
Ġcharacter ised
Ġengine ers
Ġquar ters
Ġsharp ly
Ġmort ality
Ġanx ious
Ġminim al
Ġmich el
Ġredist ribut
Ġtwent ieth
Ġjudici ary
g ain
j a
Ġs ends
Ġb icycle
Ġin ability
Ġd al
Ġl ou
Ġal ly
Ġch ern
am s
Ġout rage
Ġri val
Ġrec ruit
Ġind ig
Ġlo bb
Ġfact o
Ġdisc overy
Ġnational ity
Ġobject ion
Ġ3 4
Ġfl oren
Ġpositive ly
ger many
Ġpoor ly
Ġharmon ization
Ġcal ifornia
Ġfrequ ent
tin i
Ġradio active
Ġlic ence
Ġdeliber ately
Ġforecast s
Ġtic ket
Ġvigil ant
Ġincap able
b l
b les
l ause
z bollah
Ġp ian
Ġf led
le ts
as y
il ater
Ġl uc
id el
Ġha m
Ġne o
Ġj ack
Ġcomp lied
Ġjo y
Ġreal ised
Ġener gies
be lie
Ġminister ial
Ġbar n
Ġmor ator
Ġbank ers
Ġcapac ities
ira c
Ġreferen ces
Ġmax im
Ġbarri er
Ġquant itative
Ġbab ies
Ġpref erence
Ġod ds
Ġdeploy ed
Ġlad y
Ġprote in
Ġarbit rary
Ġtreas ury
Ġreme mbered
Ġtampe re
ilater ally
f ire
g ent
o by
is ual
Ġin just
Ġd ates
Ġy emen
oun ted
op er
Ġex agger
Ġle on
Ġwor ries
Ġpres erv
Ġk itch
Ġfa ire
Ġpre cious
ip ed
Ġcl ock
Ġjo ke
Ġmon t
air y
Ġreform ed
Ġsumm ary
Ġrece ives
Ġemphas ises
Ġobs c
Ġdeep ening
Ġinfrastruct ures
Ġwealth y
Ġpet ition
Ġautom ob
Ġcourage ous
Ġcub an
Ġoce ans
Ġrout ine
Ġpref erences
Ġconstitu ents
Ġreass ure
l im
t les
t aking
v ar
w er
Ġth in
in vest
Ġp ris
Ġh oc
Ġch ocol
od ed
Ġco verage
Ġlo bby
Ġcar ries
Ġtransp lant
Ġform ing
Ġelect rical
Ġ3 3
Ġcrit ics
Ġregul ating
Ġair line
co pe
Ġsk illed
pr int
Ġaud iov
Ġlearn t
Ġsal aries
Ġarri val
Ġdoct r
Ġcheck ed
Ġinspect ors
Ġpick ed
Ġhospital s
Ġprivile ge
Ġanx iety
Ġsettle ments
Ġreluct ant
rec ently
Ġveter inary
glo bal
Ġchern oby
Ġaudiov isual
Ġchernoby l
m ary
Ġt ank
at ri
Ġd airy
Ġu mb
id er
Ġac ced
Ġcomp ris
Ġunder lined
Ġmad rid
ues day
sure ly
Ġban ana
Ġbl oc
Ġ3 8
Ġem ail
Ġserious ness
Ġspecif ied
Ġsw iss
Ġcapital ist
ash ed
Ġdemonstr ations
Ġrich er
Ġrenew al
Ġperform ing
Ġexplo sion
Ġhar ass
Ġton y
Ġprosper ous
ony m
Ġcondemn ation
Ġrecip roc
Ġcalcul ations
usal em
Ġmurd ered
Ġprompt ly
Ġintoler able
Ġcompli ment
conc ern
Ġearmark ed
Ġunamb ig
Ġmorator ium
t op
Ġp orn
Ġh ect
Ġg amb
Ġse ize
so cial
am ing
Ġimp rison
Ġk im
Ġk az
Ġlike lihood
Ġtim ing
Ġup set
Ġapp lause
Ġmar s
Ġsp in
ern ity
Ġent ity
Ġcontin uity
Ġgrow s
ail and
Ġsimp l
Ġdep ut
Ġnor ms
Ġear s
Ġbar gain
Ġann ually
Ġshare holders
Ġ8 5
Ġweak ening
ats on
Ġrecon cile
Ġmut ually
Ġcra ck
Ġobser ver
Ġmov ies
Ġnig er
Ġscot t
Ġimbal ance
Ġdeterior ation
Ġdetri ment
Ġinspir ation
Ġbiotechn ology
Ġtsun ami
Ġmonteneg ro
f ol
m ony
p an
t ra
Ġt uesday
Ġm i
al a
al d
Ġbe er
st ep
Ġha v
ch er
li est
Ġag es
Ġimp unity
Ġint ent
pect ed
Ġoff ences
ord s
ris y
Ġbl ocks
Ġris en
Ġsupp liers
Ġlight s
Ġident ification
Ġfle e
Ġreject ing
Ġdev al
Ġdemonstr ating
Ġdefin itions
Ġbreak fast
Ġcle ver
Ġextra d
Ġremind s
govern ments
Ġswe et
Ġprohib ited
Ġenem ies
Ġacceler ate
Ġshap ed
Ġmultinational s
Ġbankrupt cy
Ġcollaps ed
Ġske pt
Ġelig ible
Ġdeem ed
Ġcambod ia
c c
e enth
f l
Â ·
Ġs ir
it ives
ou p
Ġd irty
Ġg ath
Ġha b
ter ies
Ġout look
de pend
Ġeconom ist
Ġrec ur
Ġconf erences
Ġmin eral
Ġma o
Ġcap ability
Ġval ley
Ġpat ri
Ġbur n
Ġwa ves
Ġpric ing
Ġsubsid y
Ġindic ations
Ġencourage ment
Ġmach inery
Ġhost ile
Ġuns ustainable
Ġbelief s
Ġsight ed
Ġtransl ated
back s
Ġborrow ing
again st
Ġextrem ists
Ġveget ables
Ġhypoc risy
cur rent
Ġunex pected
count ries
d r
u a
Ġt ig
Ġw atson
Ġs ant
ic ism
ra int
Ġle verage
Ġch irac
our s
ig ate
Ġprotection ist
Ġwrit er
Ġele ph
Ġdest ructive
Ġrad iation
Ġcollect ing
Ġcredit ors
Ġstay ing
Ġcr ush
Ġeat en
Ġinh er
Ġdetermin ing
Ġperman ently
Ġhur ry
Ġacce pts
Ġmagn itude
Ġupd ate
Ġcert ific
Ġsacrif ice
Ġapolog ise
Ġdetri mental
Ġvers us
Ġreun ification
Ġprosecut or
Ġtong ue
Ġsurger y
Ġgeopol itical
Ġpreserv ation
i as
l ers
at ories
ic ts
Ġn ap
le x
im ination
li ances
Ġres id
ll er
Ġad here
lo oking
Ġmar ry
Ġsp are
Ġinf lic
Ġnor way
Ġur anium
Ġcreat ures
Ġreform ing
Ġappropri ately
istic ated
Ġill usion
ows ki
Ġfil ms
Ġpakistan i
Ġexception ally
Ġii i
Ġspl end
Ġneglect ed
Ġdiagn osis
Ġwhol ly
ĠÃ ł
Ġethi opia
Ġsensit ivity
Ġprest ige
Ġkitch en
Ġchocol ate
m ath
Ġa k
Ġa ver
on ic
Ġp ed
or able
Ġf ol
Ġn ons
le ments
Ġl ake
Ġl ank
Ġfor cing
Ġpro active
ol es
Ġun w
Ġsh ed
Ġse eds
ain t
Ġk ne
Ġpresid encies
ip s
Ġdiff ering
Ġsystem ic
Ġref und
Ġent ities
Ġdown turn
Ġtechn ically
Ġfurther more
Ġir respective
Ġbar bar
Ġfarm er
Ġgra in
Ġconclud ing
Ġanal og
Ġwatch ed
Ġperform ed
Ġinvestig ated
Ġobtain ing
Ġord ered
Ġfif ty
Ġcompar ative
Ġvirt ue
Ġinsist ed
Ġcompe ting
iling ual
Ġgold en
Ġemot ions
teg ration
Ġdiscrimin atory
Ġaccomplish ed
Ġsequ ence
Ġdrast ic
Ġdatab ase
Ġmagaz ine
Ġdilemm a
Ġdisor der
a unch
g i
Ġ lying
Ġe ve
Ġun ite
Ġpre c
art icle
Ġcontin uous
Ġsm ile
olog ist
Ġinter depend
Ġtransp osition
Ġstruct ured
Ġmis sile
Ġmodern ization
under ing
Ġdisagree ment
Ġmountain s
Ġfer re
Ġcalcul ated
Ġextrem ism
Ġale x
Ġaward ed
Ġcontemp orary
Ġgather ing
Ġserb ian
k ov
Ġt abling
Ġre ct
Ġbe e
Ġg or
ir an
oun ced
so on
Ġag ents
Ġhe zbollah
Ġor ange
iv able
Ġcount s
Ġro yal
Ġinst ances
Ġprov oc
Ġprov ince
Ġcent ers
Ġban ning
wor thy
Ġform ation
Ġbeh a
Ġcontro vers
Ġrev ise
Ġel imination
Ġ5 5
Ġsing apore
Ġcivil isation
Ġmilit ar
Ġpass port
Ġlive lihood
Ġgra b
Ġgener ating
Ġfle ets
Ġdev ote
Ġoccur ring
Ġenh ancing
Ġtun nel
Ġvulner ability
Ġtradition ally
Ġcrow d
Ġvacc ine
Ġjer usalem
Ġprecond ition
Ġcath olic
Ġsoph isticated
Ġdereg ulation
Ġrw anda
Ġlifel ong
Ġpris ons
Ġsplend id
e y
s a
es ity
al most
Ġh ill
Ġre op
Ġl ocked
Ġne ur
ad es
Ġimp art
Ġk iss
ak is
Ġpart ially
Ġconf idential
Ġadd iction
Ġdef ici
Ġemp h
Ġback wards
Ġmed i
Ġtext iles
ho pe
app y
Ġinflu enced
Ġcritic ise
Ġexplan atory
Ġder iv
ba ij
cont ro
Ġswim ming
Ġdistort ions
Ġgall ery
Ġabst ract
Ġunst able
b ra
Ã º
Ġth ailand
Ġa er
re b
Ġin du
Ġd ies
Ġst ating
Ġk ur
Ġra pe
Ġrec k
Ġcl oning
Ġpartic les
Ġsc ared
Ġlif ted
Ġredu ces
Ġes cap
Ġstrong est
ither to
Ġoper ates
ck er
Ġarg uing
Ġclos est
Ġcollect ively
Ġhor rif
Ġhar bour
pol it
Ġplanet s
Ġrob ots
cl ock
Ġconsolid ated
Ġprior it
car ious
asm us
Ġmerc ury
Ġdistur bing
Ġcarri ers
Ġtiss ue
Ġsomal ia
neg oti
d a
f ish
m et
Ġs ri
Ġan c
Ġe ase
Ġun cle
ess im
Ġor ch
Ġparliament arians
Ġar isen
Ġdec ides
Ġmin istry
Ġmeas uring
Ġsm ith
Ġlif ting
Ġframe works
Ġ4 2
Ġviol ated
Ġforeign ers
Ġeng aging
Ġfundamental ism
Ġexcell ence
Ġport fol
Ġexplain s
Ġbreak s
Ġfunction al
Ġstri p
Ġconduct ing
Ġsepar ated
Ġgir lf
Ġreact ors
Ġreferendum s
Ġphot o
bes ides
Ġlength y
Ġshif ting
Ġincomp rehensible
Ġunderest imate
Ġbroadcast ing
Ġmathemat ics
Ġtear s
Ġvolat ility
sad ly
Ġshr ink
f o
f ront
Ã §
Ġa z
Ġa zer
Ġs ak
it z
Ġh ier
Ġn it
as ive
Ġpro st
Ġsh ocking
Ġint u
si a
Ġout line
are st
Ġpre carious
Ġsy rian
Ġgood will
Ġgen ome
Ġconf ine
Ġmay or
Ġ19 3
olog ically
Ġbr id
Ġprev ents
Ġorgan ising
gg ing
Ġel ites
Ġ4 4
Ġiraq is
pr an
app ing
Ġbreak down
Ġintegr ating
ob ama
Ġauthor ised
Ġexcess ively
Ġretain ed
Ġreb uild
pro t
Ġprevail ing
Ġdeliber ations
Ġscre ening
Ġperpet rators
Ġdesp air
Ġdur ation
Ġincomp atible
fr ance
Ġpopul ist
person ally
Ġgest ure
Ġinsec urity
Ġaccus ations
democ racy
b uilding
c or
i ver
j our
v ice
Ġt ons
Ġa str
Ġs ink
Ġs que
Ġp ir
Ġp essim
Ġm entions
Ġin land
Ġl ung
Ġcon form
Ġas y
Ġun com
Ġeuro stat
os ur
Ġimp ed
ak er
Ġrep lied
Ġno on
Ġexp osure
Ġpo em
ok ay
he alth
Ġra b
Ġoff set
Ġref using
Ġpoint less
Ġbud d
Ġear liest
Ġinde x
Ġsuccess ive
Ġconsum e
Ġmention ing
Ġhon or
Ġident ifying
ple te
Ġcy n
Ġste pped
Ġappear ance
Ġhonest y
Ġlux ury
Ġphenomen a
Ġwitness ing
Ġrestric ting
Ġhyp o
Ġvit ally
Ġmir ror
Ġsla very
Ġpian o
Ġkaz akh
e xt
g reat
j ad
n et
z ens
Ġt ap
re cent
or ate
Ġf athers
Ġan ch
Ġn om
res sions
Ġun ch
Ġch ris
Ġres ume
Ġcont ents
ab out
Ġtra ins
int rodu
ors hip
Ġdisc ret
Ġinf in
Ġadminist rations
Ġfisher y
Ġcross ing
Ġsimilar ly
Ġrecon sider
Ġfriends hip
Ġdescri ption
Ġhonest ly
Ġdepart ments
Ġvig orously
Ġdin os
Ġkil omet
Ġanaly se
Ġpersist ent
Ġunre alistic
Ġinstall ations
Ġfrust ration
Ġchamp ion
Ġprejud ice
mis sible
Ġtrace ability
Ġmortg age
Ġbarn ier
Ġazer baij
pran ational
b us
Ġt ends
Ġf its
Ġf ib
al i
Ġh inder
st ers
Ġg n
Ġme ters
Ġsu pranational
Ġimp ly
Ġres il
Ġco oking
Ġar ts
Ġtra um
Ġsp aces
Ġlo ves
Ġbas el
Ġadd s
Ġback s
Ġreason ing
Ġreason ably
Ġshe et
uc cess
Ġvi ability
Ġiniti ate
Ġ7 00
Ġrad ically
Ġcorrect ed
Ġrich est
Ġharmon y
Ġislam ist
Ġexport ing
Ġslow down
Ã© s
Ġlay ing
Ã¶ der
Ġbot tle
Ġpan ic
Ġdraf ts
Ġbomb ing
Ġextraordin arily
Ġfort une
Ġfruit ful
Ġundermin es
Ġevolution ary
Ġsurpl uses
Ġchamp ions
Ġfortun ately
Ġredund ant
Ġmira cle
Ġfrat tini
Ġindig enous
Ġimprison ed
b ear
i que
Ġw ire
Ġc rop
Ġb ans
or ious
al ong
Ġh i
ro ach
Ġn ie
Ġre organ
as ant
ch ing
ter ror
Ġen comp
Ġwor s
Ġpres erved
Ġpres erving
Ġbut ter
Ġqu art
Ġte ch
Ġar rog
Ġtra p
Ġhuman e
Ġref rain
Ġdef ended
Ġgr id
Ġrest oration
Ġequ ipped
Ġvi br
Ġsuccess or
Ġele v
Ġten nis
Ġrelig ions
nam o
Ġrepl acing
Ã¡ namo
Ġgrand mother
bor n
Ġexe mptions
Ġcas ual
Ġtast e
Ġdisproportion ate
Ġasy mmet
Ġencomp ass
k ash
m od
m ap
o res
v ian
Ġw il
Ġs essions
Ġp ione
Ġd u
Ġal g
ch et
ci pe
qu ar
we ight
Ġen gin
ist ically
Ġad mission
ous es
Ġact or
Ġob esity
Ġper mits
Ġinv isible
Ġdisc rep
Ġemp ower
be an
Ġsch ol
Ġbl ocking
Ġ4 3
Ġafric ans
Ġkey nes
Ġmid st
Ġdraw s
Ġlink ing
Ġlay s
Ġreve als
inc re
har ov
Ġves sel
Ġdeliber ate
Ġmerc osur
Ġstead ily
Ġderog ation
Ġcypri ot
Ġdismant ling
Ġegg s
Ġfro zen
Ġze al
intern ational
Ġumb re
Ġgath ered
Ġgirlf riend
Ġengin es
f und
h igh
r ance
v ard
Ġt ie
Ġth ri
an en
Ġd well
th al
Ġu seless
id ently
ur ances
ow ed
ort ed
Ġen light
Ġcan c
Ġdis ability
lic ity
ine jad
Ġunder ground
ath y
Ġass ault
Ġcond itional
Ġadv ise
Ġbal ances
Ġvis its
af i
Ġer u
Ġsuggest ing
Ġjud gments
Ġcirc les
Ġ9 9
Ġtour ists
Ġalloc ate
Ġship y
Ġliter ature
Ġevol ve
Ġprivile ged
Ġcomplement ary
Ġunderest im
Ġinstruct ions
Ġtrigg er
Ġinse ct
Ġreciproc ity
Ġsak harov
1 5
p es
p rom
s c
Ä į
in form
Ġs is
Ġre hab
Ġg ear
Ġne ts
ge red
Ġse min
Ġimp ris
Ġcount ing
Ġqu o
Ġconc ert
Ġprov in
Ġcour ses
Ġcar ib
pet ition
Ġlegisl ators
Ġequ ation
Ġread iness
Ġel abor
Ġ4 6
Ġsing ing
Ġexpress ly
Ġsl ower
Ġdecl ined
Ġgra de
Ġconclud es
Ġbi om
Ġexplain ing
Ġwin ner
Ġrestrict ion
erent ial
Ġsimplif ying
Ġwelcom ing
Ġhost age
Ã¡ vez
Ġlabor atory
Ġdynam ics
tur ning
Ġrac ist
thes is
Ġintens ify
Ġsuspect ed
amend ments
Ġguant Ã¡namo
Ġconj unction
Ġanc est
c ultural
m ese
Ġ Â
Ġm ud
Ġh orm
Ġn as
ut s
Ġal ign
ra v
ort ions
Ġun cond
im er
Ġv en
Ġag ing
od a
Ġab d
au er
Ġman o
Ġover se
Ġoff ensive
Ġgu ided
Ġban anas
Ġlif et
Ġallow ances
Ġlib eration
Ġexpect ation
Ġbur mese
some one
Ġant ibi
Ġanalys es
Ġbat tery
Ġcooper ating
Ġclean er
Ġterri f
Ġhur ric
Ġforg ive
Ġsto pping
Ġpension ers
Ġparal ys
Ġjournal ist
Ġvill ages
Ġenvis age
Ġcommod ities
Ġpoet tering
Ġcot ton
Ġambass ador
Ġtempt ation
concern ing
quar ters
d is
f ts
l ist
v o
or ically
Ġre imb
il ation
Ġha w
Ġha ul
Ġare na
Ġun av
Ġdo zen
Ġab ide
Ġk al
con f
Ġrep rodu
Ġsp ur
Ġbo ats
Ġintern ally
ite ly
Ġmo od
Ġdirect ors
Ġdisc oura
Ġsec ured
Ġpr ince
Ġke ys
ict ions
ract ed
Ġpop ulated
Ġrecogn ising
Ġindivid ually
Ġconte mpt
Ġhear ings
eu v
Ġden omin
Ġblo ody
ex per
Ġbos s
Ġswe ep
Ġineff icient
Ġdeploy ment
Ġunh appy
Ġincon ven
Ġexemp l
Ġhab its
Ġimpart ial
Ġumbre lla
Ġrehab ilit
Ġcarib bean
Ġmano euv
a o
g ers
i i
k est
m un
p orts
u y
Ġth rust
re se
Ġw olf
Ġf ile
Ġd g
Ġl amp
Ġst ol
Ġcon vert
Ġse ed
Ġpar ame
Ġch ronic
um ers
Ġcount less
ab ul
Ġno se
Ġpl ot
Ġup s
Ġexp on
Ġpre dom
Ġthem es
Ġfe es
Ġworld s
Ġsy mmet
Ġcl ust
Ġdisc red
Ġla undering
Ġimpro ves
ount ered
Ġris es
Ġcor rid
Ġdist ortion
Ġsuff ers
Ġold est
Ġbar oness
Ġbor ing
Ġsumm its
Ġappe als
Ġenc ountered
Ġentire ty
Ġhear ts
Ġver sions
Ġrecomm ends
cri min
app ed
Ġindic ator
Ġrepublic an
Ġhistor ically
Ġmal ay
Ġlaunch ing
Ġspirit ual
Ġdimension al
Ġstrength ens
Ġphot os
Ġfrequ ency
Ġren der
Ġfat al
Ġpreced ence
Ġaccompan ying
Ġchap ters
Ġsusp ension
Ġcorrespon ds
Ġdirector ate
Ġprofound ly
Ġunre ason
Ġswift ly
Ġcontemp l
Ġdivers ification
Ġclin ical
Ġnaz i
Ġpregn ant
Ġax is
Ġtheore tical
Ġcatastroph ic
Ġcoexist ence
Ġgamb ling
prot ect
Ġkazakh stan
Ġazerbaij an
Ġimpris onment
rese arch
b ig
e ken
s er
in ent
an z
Ġh itherto
Ġe f
Ġre cipe
Ġu en
ome ter
Ġtr uck
Ġfe ared
Ġover r
Ġopp ression
Ġaw ful
Ġexpect ancy
Ġhead quarters
Ġpot ato
Ġreject s
Ġsuper mar
Ġreflect ing
cul es
Ġobst ruct
Ġder ived
Ġmem or
Ġreplace ment
Ġsleep ing
Ġinj ury
Ġtibet an
Ġmotiv ation
Ġparad ig
Ġfing ers
Ġcorner stone
Ġerad icate
Ġanticip ated
Ġfortun ate
Ġque en
Ġmun icip
Ġperiph eral
Ġairpl ane
Ġkur ds
Ġquart et
kest ein
Ġpredom in
d on
m n
Ġa mp
is ations
Ġto y
Ġh oney
Ġg m
ol as
Ġun ilaterally
Ġat e
Ġhe ed
Ġab used
Ġab bas
me mbers
ign ific
he res
Ġsupport ive
Ġoff ence
Ġsub ordin
Ġsc ri
Ġca iro
Ġph ones
Ġwish ing
Ġlet ting
Ġcred its
Ġimpact s
Ġemphas ized
Ġwa ited
Ġmult ilingual
Ġemb od
Ġwin ners
Ġpain ting
cul osis
Ġqual itative
Ġcondem ning
Ġlay er
Ġunf old
Ġphil ipp
cons umers
Ġscandal ous
Ġirre lev
Ġclub s
Ġdan ube
emoc ratic
Ġfasc inating
Ġconscious ness
Ġmisunder standing
Ġtact ics
Ġecosystem s
ener gy
Ġsympt oms
uber culosis
Ġdread ful
Ġencoun ter
Ġignor ance
Ġdoctr ine
Ġdeput y
Ġlank a
d in
h ann
i ated
v a
v ention
re al
Ġs am
Ġc ats
Ġp ending
Ġb in
Ġf ru
Ġh iding
Ġd ust
ar raf
id al
Ġas p
op oul
us s
Ġimp ressed
Ġman kind
Ġte en
age ment
Ġdec omm
Ġser bs
Ġinv ention
ang le
Ġrem inder
Ġla eken
Ġdef er
Ġatt ending
Ġass igned
Ġsign atures
Ġneg lig
Ġrest oring
Ġequ itable
Ġcor n
Ġtri g
Ġdesign ers
Ġpack ages
Ġoppos ing
Ġmass es
Ġred ress
Ġhun ting
Ġsan ction
Ġrich ard
Ġcod es
Ġquot ed
Ġconstruct ed
Ġenorm ously
Ġreact ed
Ġwid ening
Ġdynam ism
Ġdrink s
Ġgrand father
Ġbelong ing
Ġagg reg
Ġbol iv
Ġbol kestein
Ġkil ometers
Ġpassion ate
Ġsme ll
Ġcomfort able
Ġcofin ancing
Ġnons ense
Ġstol en
Ġdecomm ission
m id
v y
z be
Ġt enth
Ġt uberculosis
Ġp air
ro se
Ġe ld
ur ate
Ġst ro
Ġde eds
Ġpar amount
Ġv icious
ĠâĢ Ķ
Ġrep roductive
si mp
Ġinc in
Ġup gra
ru p
me as
thing s
ub ar
Ġinv al
Ġover l
Ġover night
Ġfact ories
Ġcur tain
Ġma ur
Ġsc ra
Ġsc ul
Ġafter math
Ġbl at
Ġelect ron
Ġshort er
Ġprof essions
fin an
Ġchar les
Ġmis ery
Ġbur st
Ġspecial ist
Ġstop s
thod ox
Ġrepe ating
Ġemb ass
Ġsal t
Ġspeed y
ob oda
Ġign oring
Ġsurv ived
Ġsurpris ingly
Ġagg ression
Ġpref erential
Ġlic ences
Ġalban ian
Ġpersu aded
Ġreiter ated
Ġselect ive
Ġillust rates
Ġvacc ination
Ġguard ian
Ġdisplay ed
Ġnur t
Ġderog ations
Ġoverlook ed
Ġtac is
Ġpoc kets
Ġjac ques
Ġentertain ment
Ġdivor ce
Ġinjust ice
Ġexempl ary
b ted
p rog
u ated
v ial
w ash
Ġs ar
ic able
Ġbe ll
ly wood
Ġal t
Ġne pal
Ġme lt
Ġcomm em
Ġex it
Ġat roc
Ġimp over
Ġk u
ak s
con tin
si x
Ġri vers
Ġtim ber
Ġspe ll
Ġsp ends
Ġind ul
act ually
Ġmin i
Ġsol v
Ġdra g
Ġfore front
Ġ20 50
Ġimm une
Ġapproach ed
par ts
Ġsupp lied
Ġsw oboda
Ġintrodu ces
Ġann an
equ ally
Ġroad map
Ġdest ination
Ġdest iny
Ġimag ined
Ġspir al
Ġsepar ately
Ġtour ist
Ġlu kash
Ġexpendit ures
Ġball ot
Ġboost ing
Ġpi racy
Ġtaxpay er
Ġpredict able
Ġvacc ines
Ġshap ing
add afi
Ġmole cules
Ġmanip ulation
Ġcens ure
Ġdepos it
Ġwond ered
Ġspectac ular
Ġfaire r
Ġcontrovers y
Ġoverse as
Ġtrig gered
ubar ak
Ġf ier
Ġin ner
th rop
Ġre lying
Ġre ception
Ġbe es
pe red
Ġpro ving
Ġne u
Ġr Ã¼
Ġman n
Ġcons p
Ġmar king
og en
Ġra y
Ġrec ourse
Ġagree ing
Ġadd itives
Ġsc our
Ġtal ent
Ġbr ink
Ġinde bted
Ġins ol
Ġimm inent
ata h
Ġopt ed
Ġbul k
ls on
Ġwind ows
Ġhar vard
Ġoccasion ally
200 1
Ġexceed ed
Ġdub ious
Ġsloven ian
Ġbes ides
Ġspecul ative
Ġunres olved
Ġfranc is
e lect
u sions
v in
Ġt une
re ck
Ġs ided
Ġn inet
Ġal ert
op eration
Ġv ain
qu it
Ġor teg
ab et
ult imately
Ġqu it
Ġpl a
em a
de c
Ġpos sel
Ġlo ad
Ġrel atives
Ġref uses
Ġcur tail
Ġass ign
Ġass urances
Ġinter oper
Ġprocess ed
Ġear ned
Ġinde fin
Ġ4 7
Ġpass ive
Ġindepend ently
Ġcoordin ator
mploy ment
sp ace
Ġexport ers
Ġsen ate
Ġlower ing
Ġqual ities
Ġadap ting
Ġphys ically
Ġprefer able
Ġren d
Ġcast ro
Ġsurround ed
Ġep is
Ġcamer as
Ġbreat he
Ġinsp ire
Ġfran co
Ġcli ents
Ġabsor b
Ġbub bles
Ġveget able
bas ically
Ġdesper ately
Ġbreed ing
aci o
Ġautomob ile
Ġporn ography
hann es
finan cial
Ġorteg a
Ġpossel t
p rodu
r ational
t an
Ġt rop
re z
Ġp as
Ġf ert
ic ular
Ġn aked
Ġg y
Ġpro x
Ġex cise
Ġdo zens
Ġch Ã¡vez
Ġint ra
Ġfin es
ens ity
Ġdec oup
Ġover t
ange red
Ġmin ors
Ġend angered
Ġcontin uously
Ġbr ush
Ġide als
Ġnegoti ators
cu le
Ġestablish es
Ġtri vial
with standing
Ġexpress es
Ġpass es
Ġpal acio
Ġdoub led
Ġil o
Ġden ial
Ġtrust ed
Ġexport ed
Ġarab s
Ġstra in
Ġsafe ly
Ġstim ulating
Ġmargin s
Ġprohib it
Ġacknowled ges
Ġdar win
Ġunequ al
Ġoffic er
Ġprote ins
Ġcontam ination
Ġfragment ed
Ġscarce ly
Ġalleg ations
Ġrecruit ment
Ġsque e
zbe k
Ġscul pt
g l
t te
Ġa us
Ġs le
Ġp itch
Ġb ric
Ġm ism
om as
Ġg on
Ġfor d
Ġfor ge
the ast
Ġun contro
op ing
Ġag ed
Ġad am
Ġad vers
Ġac id
oc aust
Ġout right
te l
Ġco gn
lic k
Ġsp r
Ġper cept
Ġover coming
Ġlo ose
Ġtrans action
Ġcontin ents
Ġgu iding
Ġserv ants
let ion
Ġbenef iting
ret t
Ġhard est
Ġmet al
Ġclass ic
Ġkid n
Ġproportion ality
Ġvig orous
Ġincom plete
Ġprosec ution
Ġbox es
Ġash amed
Ġnav igation
Ġcert ification
Ġcease fire
Ġpled ged
Ġstead y
Ġdismiss ed
Ġaccommod ate
Ġcultiv ation
Ġarmen ia
Ġstagn ation
Ġassum ing
Ġforb idden
Ġmetaph or
Ġphilipp ines
Ġlukash enko
c ular
e en
e ither
f at
f ive
g arian
m ail
t ry
Ġs ab
Ġb ones
Ġm aps
ion al
Ġwe t
ot ive
Ġy en
ill a
Ġun c
am ble
Ġor thodox
Ġco in
Ġunder lines
ound ing
Ġcl oud
igh ter
Ġinform ing
Ġinter ior
Ġbu ff
Ġdra in
Ġdeal ings
Ġdep ressed
Ġrest s
Ġseem ingly
Ġconv ictions
Ġmil est
Ġreach es
Ġbar rel
Ġret reat
Ġfl ower
Ġgre et
co operation
Ġele ven
Ġcy cl
Ġimpos ition
inst ein
Ġclass room
ca mb
Ġpret end
Ġcompl ac
Ġbat teries
Ġwall strÃ¶m
Ġoccup ying
Ġfast est
fe w
Ġpleas ant
Ġscand als
Ġflu ct
Ġacceler ated
Ġcapt ured
Ġanticip ate
Ġpul led
Ġah mad
Ġexhaust ed
Ġbran ch
Ġgalax y
forest ation
Ġsecre cy
Ġforesee able
Ġlobb ying
k h
r ality
t es
re a
it an
Ġm ouse
Ġto ll
Ġf iction
Ġf atah
Ġh its
Ġd ol
Ġg ro
Ġg reed
Ġl ama
ut ing
Ġst ere
ver sible
ra ction
ri um
ul sion
Ġsh y
ere rs
Ġres erved
um es
ag an
Ġleg ality
red ict
Ġtoo th
Ġla ure
Ġend less
Ġtransp osed
Ġmod e
Ġauth ent
Ġbl an
Ġnat ura
Ġta j
Ġins urg
Ġread ily
Ġmean while
Ġshort ages
where as
af ric
Ġeur atom
Ġsent enced
Ġred ing
Ġharmon ising
Ġdepend ency
Ġhighlight ing
Ġund emocratic
Ġvir gin
Ġbul garian
Ġmig rant
Ġ14 0
Ġhit ler
Ġappeal ing
Ġsho ot
Ġattract ed
Ġsac red
Ġran ks
Ġcontradict ions
Ġinfect ion
Ġextrem ist
Ġhol ocaust
Ġcf p
Ġpled ge
su pport
Ġrevers ed
Ġdepl ore
Ġunequiv ocal
Ġpredecess or
Ġinconsist ent
Ġextrad ition
Ġlifet ime
a el
f ra
i ably
w ing
Ġa rose
Ġo mission
it ting
Ġb und
Ġm ubarak
Ġn ab
ot al
ot ics
Ġse ver
Ġdo omed
we g
Ġch ad
am in
od es
Ġhe y
Ġk at
ac ity
ard o
Ġdis gu
ie l
de z
Ġev asion
Ġthem atic
Ġsp a
Ġcur b
Ġreal ism
Ġtur bul
Ġform ulate
Ġless er
Ġrese mb
Ġvar ied
Ġpass age
Ġcir cu
jo hn
Ġcounter parts
Ġenjo ying
Ġcharacter istic
Ġoccup y
Ġdecis ively
Ġinad equ
ari os
Ġscen arios
Ġrecip ient
Ġsyn thetic
Ġendeavour s
Ġcontam inated
Ġambig uity
Ġdetain ed
Ġau ction
Ġsyner gy
Ġderiv atives
Ġgn p
Ġparame ters
Ġinteroper ability
u mber
Ġthe ories
Ġd ressed
ar ound
Ġre ef
Ġg ay
Ġl en
Ġst ir
Ġas leep
Ġpar king
Ġle cture
Ġall er
Ġj os
Ġk ash
Ġrep ressive
Ġcont est
Ġmar sh
Ġconc erted
he imer
tain ing
Ġrel aunch
Ġmat ernity
Ġext ends
oll and
Ġfav oured
Ġemploy ee
eng u
Ġfam ine
Ġexpect s
Ġviol ate
Ġret ention
Ġmor ality
Ġhead lines
Ġche cking
Ġcoh n
Ġdesign ated
Ġchalleng ed
Ġdam ages
Ġevent ual
Ġvo iced
Ġ13 0
Ã¶ r
Ġreferend a
Ġadjust ed
Ġengine er
Ġcatch es
Ġreserv ation
Ġillust rate
Ġdemonst rators
Ġdistur b
ios ity
Ġroc ket
Ġtherap y
Ġproclaim ed
Ġallev iate
Ġredistribut ion
Ġdal ai
Ãº n
Ġprost itution
Ġunav oid
Ġunreason able
Ġirrelev ant
a ven
c ulate
f old
j e
m ir
n esty
v ir
Ġth ro
Ġthe ater
Ġc u
Ġc ited
Ġb ills
Ġm ile
Ġh ub
Ġre think
Ġl ion
Ġde af
Ġeuro just
est yle
Ġj i
Ġk o
Ġrep ay
oc cup
Ġco ach
und i
ite ment
Ġjo hannes
rat ory
Ġdisc l
Ġext in
Ġatt ent
Ġcar l
Ġlif estyle
Ġorgan ize
Ġph are
Ġins ists
Ġstandard isation
Ġhome land
Ġloc ally
Ġemer ges
Ġaut oc
Ġemb ed
Ġdead lock
Ġcounter p
Ġhor ri
Ġhor ror
ik i
Ġgradu ate
Ġadvoc ating
Ġmem ories
Ġang le
Ġattach es
Ġleban ese
Ġjudge ment
Ġshame ful
Ġdiss atisf
Ġolymp ics
ÃŃ n
Ġincident ally
Ġdistingu ished
bet ter
bet ween
Ġsahar a
Ġcens orship
Ġcounterfe it
Ġreloc ation
Ġhypoc rit
sm all
vi ol
onym ous
Ġscott ish
current ly
Ġdefici encies
Ġemph atically
Ġorch est
Ġninet eenth
camb ridge
a ired
c op
d ated
m ill
o a
r as
on i
on ou
Ġo zone
an ne
Ġb ern
Ġb endit
ar at
Ġre wards
Ġre introdu
st s
Ġwh ist
Ġst y
Ġst un
ra yed
Ġun think
ll ers
Ġcomp osed
Ġinc lined
Ġte les
Ġar ray
Ġra cial
Ġsp ill
Ġob li
ved ev
Ġcommit ting
Ġhum ili
Ġconf using
Ġquestion ed
Ġtur mo
Ġass ent
Ġprotect ive
Ġsc ream
Ġinter l
Ġstand point
Ġlegisl ate
Ġest e
Ġir rational
Ġconv icted
Ġconsum ing
Ġ5 2
Ġdist ress
Ġpeace keeping
Ġrecogn izing
Ġciv ic
Ġbur ned
Ġproper ties
az z
Ġmaintain s
Ġroom s
Ġpress ed
Ġtemp or
iet ies
Ġprison er
Ġtravel ing
Ġdiplom ats
Ġhit ting
els on
Ġchem istry
Ġtend encies
Ġconver sion
Ġmanufacture r
Ġtight en
gen er
Ġdisadvant ages
Ġintens ity
Ġprivile ges
Ġnut s
Ġinfringe ments
Ġcot onou
Ġprivat isation
Ġimperial ist
Ġwarn ings
Ġpand emic
Ġhed ge
Ġmush arraf
lim ited
Ġrehabilit ation
Ġauthent ic
Ġturmo il
e ba
g row
o le
z heimer
Ĥ ¬
Ġs lu
Ġc ite
Ġp n
Ġg sp
Ġst ub
Ġpro mp
Ġun le
Ġv lad
Ġj im
con st
Ġwork able
iz ar
Ġpo ly
Ġra mp
Ġbo ther
Ġdef ect
Ġhope ful
Ġpower less
Ġdist ances
Ġlab els
Ġexpl os
Ġvis ibility
Ġmis er
Ġmot ives
Ġ201 4
Ġge ared
Ġfig ured
Ġhuge ly
Ġself ish
Ġinflu ential
Ġoblig atory
reg rett
Ġclass ified
Ġdeg rad
Ġblack mail
Ġclaim ing
Ġdomin ate
Ġimper fect
Ġmobil ise
Ġfer til
Ġâ Ĥ¬
rel ated
Ġentrepreneurs hip
Ġic c
spe cif
Ġrevol utions
Ġeg f
fo ot
terror ism
regrett ably
c itiz
g ree
p ers
at ibility
en large
Ġc ia
Ġp ound
Ġm am
Ġh anging
ic ago
st ein
il ib
Ġl ud
Ġl one
Ġl ock
Ġu zbek
pe ace
Ġha mp
Ġcon du
Ġme g
Ġsh ore
Ġr ank
Ġhe ated
ig ration
Ġad jour
Ġout dated
Ġpre ach
Ġpo pe
ok es
Ġunder going
Ġsub mission
Ġconf ed
lud e
Ġcur ric
Ġfra ction
Ġbl amed
Ġ3 9
then burg
Ġvis iting
Ġmind set
Ġz o
Ġer asmus
Ġwa iver
omet ric
Ġprob ability
Ġimmig rant
Ġdev ise
Ġdev ised
Ġden ying
Ġden ounce
Ġtraff ick
Ġstri ving
Ġund ers
Ġdr unk
Ġste pping
Ġsun ni
Ġarri ving
Ġsuperv is
Ġcomplain ed
Ġclean ing
Ġder ive
Ġimplic it
Ġagg rav
Ġshar on
bur gh
Ġscand ina
ato eba
Ġtight ening
Ġaccur ately
Ġdefe ated
Ġattend ance
Ġintens ified
Ġdecre ased
Ġbreach es
Ġupd ated
Ġphotograph s
Ġhero es
Ġexerc ised
Ġescal ation
Ġcypri ots
Ġug anda
Ġcorre ction
Ġincur red
Ġinfl ows
Ġsmugg ling
Ġsuperf lu
Ġunambig uous
Ġcounterp roductive
citiz ens
a urs
b rit
g one
l ining
m are
p at
u pp
Ġth rew
Ġa ri
in ts
Ġc res
Ġo lig
Ġp iv
Ġp owered
Ġb ible
Ġm d
Ġm ild
Ġg ates
Ġl ord
Ġde lete
im ir
Ġgo thenburg
Ġch arity
Ġcan ad
Ġli ik
Ġj am
Ġj ames
Ġor ph
Ġk la
Ġpe ters
Ġpl un
Ġpre rog
ach e
Ġover sight
Ġrespon ds
Ġappro ving
own ers
Ġass ad
Ġdown ward
be yond
Ġsch mid
Ġcond ol
Ġshe ets
Ġcomple ting
Ġcomb ining
Ġdri ves
Ġassist ing
Ġver ification
Ġcy cles
Ġindic ating
Ġcle ared
Ġclass ification
Ġara fat
Ġrenew ables
Ġund es
Ġinvestig ating
Ġfeed back
oin ts
Ġspok es
ta x
Ġang ola
Ġgeograph y
Ġsearch ing
Ġmobil isation
Ġchurch es
part icular
Ġvac ation
Ġunp redict
Ġgh ost
Ġsmoo thly
Ġerad ication
Ġfool ish
Ġmisunder stand
Ġadvis ers
Ġcab inet
Ġna ive
Ġmyster y
Ġmassac re
Ġassass ination
var ious
Ġharass ment
Ġneur ons
hope fully
Ġkilomet res
Ġbiom ass
Ġantibi otics
Ġmanoeuv re
Ġatroc ities
Ġtrop ical
enlarge ment
Ġsuperflu ous
Ġliik anen
c ase
m oud
w al
on ments
Ġb izar
ed uc
Ġe e
Ġe man
Ġe instein
Ġg olf
Ġl as
Ġl ament
Ġwh is
Ġst akes
Ġcon qu
ch i
ir ation
Ġun den
Ġun limited
Ġse ized
Ġle an
so far
end ers
ac ulture
Ġpe ter
Ġri o
Ġinc umb
ag og
Ġsa mp
Ġpre occup
Ġsp ots
Ġinst inct
Ġstr and
Ġho ly
Ġsocial ism
Ġma f
Ġent rust
Ġsign ature
Ġmed a
Ġmed ina
Ġprev al
Ġmod es
Ġsimp licity
Ġsch r
Ġbl ess
Ġrest raint
uc lear
af e
Ġhold ers
ush ch
Ġdeep en
Ġorigin s
Ġmodern ise
Ġfo x
Ġig no
Ġmand elson
Ġdescri bes
Ġmanufact ured
Ġvisit ors
Ġtransform ing
Ġterri bly
Ġboy cot
Ġconce al
Ġparal y
Ġslight est
Ġunnecess arily
Ġprevail s
Ġevalu ating
Ġdictatorship s
Ġadm ire
Ġhol es
Ġearn ings
Ġconvers ations
Ġlad en
Ġcelebr ated
wa it
Ġcatal y
Ġshel ter
hist ory
Ġflaw ed
Ġlam y
Ġhesit ate
Ġsoc rates
Ġdivid ing
Ġhav ens
Ġmalay sia
Ġahmad inejad
Ġunthink able
1 4
d ad
i h
l ondon
m ble
n orm
o ons
r ne
Ã ±
Ġa ven
Ġc ents
Ġp engu
an mar
Ġf li
Ġfor ty
Ġha mm
ri ans
ch en
Ġsu ited
us ive
Ġhe ge
Ġab ilities
Ġpol es
ac cess
Ġqu a
Ġout s
em an
Ġapp les
Ġco at
ition ally
Ġpo le
Ġind ians
Ġover due
Ġgovern or
Ġtw in
act or
Ġgen eric
rat or
Ġmon u
Ġdef ines
Ġenvir onments
Ġinvest or
Ġmod ification
Ġhand ic
Ġval ued
Ġrev ive
Ġ5 4
Ġstar k
Ġrecogn izes
Ġpen cil
Ġarg ues
Ġrequest ing
Ġcross ed
Ġindic ative
Ġanalys ed
Ġanalys ing
Ġhy gi
ustom ed
ann y
Ġcr ude
Ġcontinent al
Ġtele com
roso ft
Ġcompe lling
Ġcorpor ation
Ġgeorg ian
Ġabandon ing
Ġreli ability
Ġprohib ition
Ġol ive
Ġflag s
Ġoverwhel m
Ġvalid ity
Ġwebs ites
Ġshap es
Ġirre versible
Ġredund ancies
Ġnomin al
Ġaston ishing
Ġflour ish
ĠbÃ¶ ge
Ġeleph ant
Ġastr onom
Ġparadig m
ignific ant
Ġboliv ia
Ġdecommission ing
Ġfier ce
Ġjohannes burg
Ġtempor arily
Ġpn r
c ity
f arm
f aced
s ing
Ġth r
Ġth omas
Ġo omen
it ual
ou re
Ġd row
ro oms
Ġl ul
se ment
ment ion
Ġal tered
ir s
Ġsh irt
Ġv ested
Ġby rne
so lete
Ġhe ating
Ġhe aven
Ġk ir
Ġint act
Ġpe er
ear ly
now adays
Ġsa mple
Ġra ins
Ġtra pped
Ġfe e
Ġpolit e
Ġmo z
Ġquestion able
Ġass u
Ġback ward
Ġsuc cession
Ġ3 50
Ġequ ilib
Ġes p
Ġvar ies
Ġfl ash
Ġexpl oration
Ġspecial ists
Ġdesign ate
Ġlos ers
Ġmus cle
Ġmethod ology
Ġill iter
Ġreview ing
tom orrow
Ġtemp ted
Ġpain ted
lin ary
Ġexplo iting
Ġconfirm ation
Ġslo gan
Ġcontract ual
Ġsafeguard ed
Ġautom otive
Ġdomin ance
Ġcondition ality
ull ah
Ġgeograph ic
Ġpsych ology
Ġthrow ing
Ġpurch ases
Ġlic ens
Ġinj uries
Ġsudan ese
Ġthreshold s
Ġnut rition
Ġmurd ers
Ġlaugh ing
Ġshif ted
Ġintoler ance
develop ment
Ġgalax ies
Ġsenti ment
Ġsatur day
Ġmah moud
Ġpuzz le
Ġpup ils
Ġduplic ation
Ġrefund s
Ġportfol io
Ġuncom fort
Ġdinos aurs
Ġhurric ane
Ġfru its
Ġfrancis co
Ġstere oty
Ġvlad imir
t rade
Ã ´
Ġt ender
Ġw ines
is ons
Ġs ket
Ġc in
it ter
it ure
Ġh olland
Ġre jo
Ġre na
Ġre hn
ld om
Ġst if
ul um
Ġun law
oun der
ad mitted
ge or
Ġv itor
ich et
Ġen for
Ġr itual
rom e
Ġli able
Ġres ent
Ġk g
Ġpe cul
Ġtr ichet
ren der
ire land
Ġmy anmar
Ġwho ever
Ġob solete
Ġper u
Ġclear ing
Ġconf er
Ġmarket place
Ġ19 2
Ġprotect s
Ġinter reg
ne ys
Ġinf er
Ġrespect ively
Ġhealth ier
Ġdemocrat ization
Ġsur render
Ġcontribut ors
Ġfl av
Ġru ij
Ġsk i
Ġec r
Ġassoci ate
Ġclass ical
Ġislam ists
Ġnight mare
Ġdescri bing
Ġ0 2
Ġcomplain ing
rep res
Ġinsist ing
Ġarrest s
Ġfix ing
Ġabol ishing
Ġsport ing
Ġexclud ing
Ġreb el
Ġrig our
Ġprofit ability
Ġmatch ed
Ġacceler ating
Ġdetect ion
Ġfost ering
Ġyield s
Ġperce ive
Ġprovid er
Ġvary ing
Ġpostpone ment
Ġunjust ified
Ġtroub les
Ġbran ches
Ġdisse min
Ġreinfor ces
Ġexagger ated
Ġcanc Ãºn
Ġeru pt
Ġscour ge
Ġunavoid able
Ġigno res
admitted ly
Ġruij ten
f reedom
f ield
h y
s ol
s how
s ky
Ġt ide
re y
Ġc ock
Ġh en
Ġd ensity
ro ots
ic it
le z
Ġwe ird
ot ted
Ġde leted
Ġnot ification
Ġun belie
Ġse ldom
mb owski
Ġk or
um ably
Ġimport ing
Ġpre cip
Ġra ining
Ġover view
Ġro lling
Ġprot oty
Ġemp owered
Ġtreat ments
Ġcar c
olog ies
Ġcol umb
Ġmed vedev
Ġform at
Ġread s
Ġconsum ed
Ġcrit ically
Ġfree ze
Ġbal i
par agraph
Ġur ging
over all
Ġple a
ib eral
Ġtransport ed
Ġfri ed
Ġgre y
Ġbur ied
Ġconflic ting
Ġcongrat ulated
Ġtarge ting
Ġver dict
Ġsuper power
Ġexch anging
Ġbi as
Ġteach es
ilit ary
Ġproceed ing
ze mbowski
Ġbureauc rats
Ġdefend ers
Ġresist ant
Ġky i
Ġexe mpt
Ġtough er
Ġment ality
Ġarchitect s
Ġgun s
Ġbreath ing
Ġgh ana
Ġjeopard ise
Ġpersec uted
Ġillness es
Ġlag ging
Ġtall er
Ġtroub led
Ġfragment ation
Ġcoinc idence
Ġresign ation
Ġreinfor cing
Ġcigare tte
Ġjar zembowski
Ġpy ram
Ġparalys is
Ġaggreg ate
Ġbizar re
Ġvitor ino
b at
d iff
d rop
i ri
l or
o il
p ing
t ings
Ġw ik
is an
er ies
Ġp ou
Ġb our
or a
Ġd ense
Ġd uly
Ġre ap
Ġre lies
Ġg ate
Ġl an
Ġl akes
ot ism
pe lled
Ġal zheimer
ra ms
ra ine
Ġsu u
Ġse mit
Ġle ve
Ġle af
Ġch arm
Ġli p
Ġam nesty
Ġbut ton
ree vy
Ġman ual
Ġman ager
Ġrec overed
ern al
Ġacc ustomed
Ġbas que
Ġcommun ists
Ġgen ius
Ġrem un
Ġgu ilt
Ġgrow ers
ne ed
Ġmod ifications
Ġshe ll
Ġbal ancing
Ġed f
Ġdist rict
Ġexperi mental
Ġbar Ã³n
Ġcivil ised
Ġcentral ised
Ġru in
Ġpen et
ins on
Ġland ed
Ġland ing
Ġinflu x
Ġbi ke
Ġvol can
Ġcritic ized
Ġcal culation
Ġmal n
Ġsun light
ik h
Ġda wn
Ġpopular ity
road s
Ġproportion ate
Ġconsolid ating
Ġamaz ed
Ġmic rosoft
Ġreb uilding
pro f
through out
Ġcry stal
Ġprag ue
Ġdistort ed
Ġindis crimin
develop ing
Ġbenefici ary
Ġpoc ket
Ġperiph ery
Ġmcc reevy
Ġath let
Ġsoc cer
rend t
Ġembry os
Ġresolute ly
Ġexhib ition
Ġuphe ld
Ġniger ian
Ġalex ander
Ġhier archy
Ġbrid ges
inform ation
Ġcogn itive
Ġmilest one
Ġkash mir
Ġembed ded
1 2
a way
b ic
d ner
y oun
Ġ Å¡
in ate
it ate
Ġp ounds
Ġb h
Ġb ust
Ġf ence
Ġf ired
Ġin sofar
Ġe pp
Ġe min
Ġbe ating
Ġg ut
Ġst ig
Ġal liances
ul ent
Ġnot able
Ġse mi
ant ed
Ġv isions
Ġgo e
Ġag ent
us ible
Ġshould ers
Ġcont ag
ag ues
Ġexp ressions
fore ign
Ġrespon sibly
Ġlast ed
Ġcol ors
Ġglobal ised
Ġdep reci
Ġbl ank
Ġcre w
Ġcor al
Ġtax i
Ġpeace fully
Ġcreat ure
Ġappe aring
Ġair space
Ġpass ports
Ġloc ations
Ġsl im
Ġer ika
Ġdesign ing
Ġmet als
Ġland f
Ġattack ing
Ġlove ly
Ġexport er
Ġcounter part
Ġhy per
Ġphys ic
unt a
Ġmeaning less
Ġren t
Ġinterpret ations
Ġtraged ies
Ġinterf ace
Ġscen es
Ġsubmit ting
Ġinfect ious
Ġsister s
Ġrecip ients
Ġmagn ific
att ered
Ġnav al
Ġapolog ize
Ġabsor bed
aph ne
Ġange l
Ġpig s
tt es
Ġfron ts
Ġprecond itions
Ġprud ent
Ġrede f
Ġassum es
Ġly n
Ġinflic ted
Ġferre ro
Ġinsect s
Ġuncond itional
Ġmism an
Ġhorri ble
Ġschr Ã¶der
Ġequilib rium
b ro
d y
i ries
o th
o ft
r gy
Ġt ip
Ġt ables
re member
er ra
er ts
Ġc ows
Ġo t
Ġf les
Ġin ch
Ġan k
Ġan ts
Ġe rect
Ġeu ph
op ular
Ġby pass
Ġbut t
ast y
Ġprop ortions
te mp
Ġapp arat
Ġar sen
Ġev idently
Ġsp ark
Ġsp ont
Ġmat ure
Ġcur iosity
Ġemp t
Ġachie vable
land er
Ġemploy er
Ġgentle man
Ġrev ising
Ġproject ed
Ġwrit ers
Ġshort fall
Ġbar s
Ġmot to
Ġtext book
Ġid i
Ġdri ft
Ġer o
Ġemphas ising
Ġ9 6
Ġlos es
Ġweak est
Ġstress ing
Ġdoubt ful
Ġill usions
Ġflo ating
Ġindustrial ised
ah u
Ġwal dner
Ġmer gers
Ġslow ing
Ġmig ratory
any way
Ġsil k
Ġtravel ed
Ġfulf ill
Ġpra y
Ġglad ly
Ġtro ika
tw enty
Ġadvert ise
Ġprem ise
Ġmexic an
Ġentrepreneur ial
Ġprevail ed
Ġevalu ated
Ġtunis ian
Ġwood s
Ġkn ife
Ġupd ating
Ġneut rality
Ġepid em
Ġambig uous
Ġflaw s
Ġug ly
hard t
Ġprint ing
Ġprolong ed
Ġoutrage ous
Ġtig er
Ġescap ed
Ġcyn ical
Ġnab uc
Ġuzbek istan
Ġcanad ian
Ġcondol ences
actor ily
Ġuncomfort able
rgy z
Ġspont ane
b est
b ach
d og
h el
s ud
Ġ 00
Ġth ick
Ġw i
is a
Ġs idel
Ġc ord
Ġp ave
Ġp light
Ġb og
Ġm ol
or ia
Ġin sure
Ġh ans
Ġd ent
ro ed
Ġn ich
Ġn go
om ing
st ud
Ġi p
ct ors
Ġl or
Ġst icking
ir ts
os ity
Ġen qu
Ġle ver
Ġch er
Ġch airs
Ġch imp
Ġres on
ak a
Ġqu ad
Ġtr u
Ġdis orders
Ġup ris
Ġmar x
Ġyour selves
Ġbelie ving
Ġbas ket
Ġquestion ing
Ġent ers
Ġdes erved
Ġadop ts
Ġorgan ism
eg al
Ġfundament als
Ġtri bes
Ġmis use
Ġhalf way
Ġdeep est
Ġver ify
Ġcoll ateral
Ġ11 0
Ġdistribut e
Ġenjo ys
Ġsil ver
Ġinflation ary
Ġinh uman
Ġbelg rade
Ġky rgyz
Ġchristian ity
Ġbase ball
Ġcompe lled
Ġremark ably
Ġwithdraw ing
Ġobserv atory
Ġstem s
Ġexceed s
Ġcli ent
Ġjun cture
uk raine
Ġcoup led
Ġcelebr ating
Ġmole cular
Ġbail out
fr ank
Ġgrass roots
Ġfur n
Ġinterrupt ed
Ġfright ening
Ġembarrass ing
Ġindiff erent
Ġleon ardo
Ġlivelihood s
great er
Ġdiscret ion
Ġprovin ces
Ġmultilingual ism
prog ress
Ġcres po
Ġassu mptions
Ġpecul iar
Ġero sion
Ġnabuc co
b ish
i at
n ar
Ġt b
in os
Ġw ary
Ġw ins
er a
en za
it ated
Ġb its
Ġm ast
Ġf ake
Ġf lies
Ġf usion
Ġd aphne
Ġe ec
Ġde forestation
ate mal
Ġsh ops
Ġv ag
Ġat oms
Ġle thal
ĠâĢ ¦
Ġimp lied
ak i
ig ence
Ġout er
Ġexp ed
Ġte x
Ġconc ur
Ġfe at
Ġrec re
Ġover ly
Ġtrans mitted
ors es
Ġreal m
Ġgu er
Ġcar ing
Ġinter cultural
Ġform ulation
Ġbeh rendt
Ġca ve
Ġmod er
Ġmod eration
Ġsch roed
Ġallow ance
Ġwhe at
Ġir rit
Ġprogress ively
Ġeas ing
Ġ5 3
Ġtri bal
Ġsci ences
Ġmis con
Ġtrad ed
Ġiran ians
Ġobs essed
Ġurg es
europe ans
Ġrat ings
lt ry
Ġlimit ation
Ġconstruct ively
Ã© n
Ġcharact ers
Ġsurv iv
Ġhar ness
Ġarr anged
Ġoccup ational
Ġ0 4
Ġsold ier
Ġobser ving
Ġpublish ing
Ġexec uted
Ġuns afe
fe ld
Ġcondemn s
Ġbrazil ian
Ġmic ros
Ġpreced ed
Ġ196 7
Ġevol ving
Ġglass es
imp ro
Ġsong s
Ġenthusi astic
Ġdeterior ating
Ġjun cker
Ġhoriz on
Ġhyd ro
Ġpollut ants
Ġinspir ing
Ġcere als
Ġdrast ically
Ġdepos its
Ġscore board
Ġsenti ments
Ġcigare ttes
Ġattribut ed
Ġlap top
quest ion
Ġaqu aculture
Ġleh ne
Ġbargain ing
Ġwors ening
Ġcasual ties
Ġunderestim ated
meas ures
Ġdecoup ling
Ġadjour ned
Ġundes irable
Ġpou ltry
h en
i ance
o vers
Ġ Î
Ġa y
Ġf ta
Ġan omal
ing e
Ġn ail
Ġre inst
om es
st ad
Ġg i
Ġha ven
Ġy ard
ith m
op ian
Ġwill i
Ġch icago
um i
um s
Ġmar g
Ġinv iting
Ġacc ounted
Ġconf use
Ġdef ensive
Ġhapp ily
Ġgu atemal
Ġsc are
Ġtechn oc
to ok
Ġlegisl ature
Ġequ als
Ġes dp
Ġ4 50
Ġoper ator
Ġhon oured
Ġgener ates
Ġapplic ants
Ġsuper ior
Ġport ion
Ġsatisf actorily
Ġcal end
Ġship building
Ġcustom er
Ġdon ations
aw a
Ġdisch ar
Ġtoler ated
Ġconce ived
comm on
Ġnar rative
Ġexecut ives
Ġflood ing
Ġillust rated
Ġendors es
wel come
Ġsacrif ices
Ġpul ling
Ġtic kets
Ġconven ience
Ġpollut er
Ġ194 5
Ġstip ulated
Ġdisse mination
Ġsimpl istic
Ġschol ars
Ġindefin itely
gree ce
Ġunpredict able
Ġincumb ent
Ġhygi ene
i pping
k ward
m ake
Ġt orn
Ġa ster
Ġa vert
re ts
on ian
Ġw ound
Ġs au
Ġc ad
Ġd c
ar ctic
ic on
Ġn est
Ġn erve
om y
Ġg if
Ġwh ale
ur t
gh dad
Ġun ple
im ity
Ġsh ake
Ġex ile
Ġle e
Ġch rom
Ġhe lic
Ġres cu
Ġk er
iv o
Ġrep atri
Ġpl ate
Ġdis sid
Ġcomp lying
te enth
Ġpolic ing
Ġind ign
Ġinv entions
ative ly
xt y
Ġsit tings
Ġend uring
Ġsi erra
Ġsc rap
Ġsm ok
Ġbefore hand
Ġcap tain
Ġcol our
Ġhand ful
ov ation
uc ks
Ġrev ival
Ġprogress ing
Ġgeneral s
Ġlot tery
Ġ5 8
Ġcare ers
Ġspecific ations
Ġcred ential
Ġ6 2
Ġrom antic
Ġliberal ism
Ġdev il
Ġimpos es
Ġconsult ing
Ġscientific ally
Ġmiss iles
Ġproceed s
any ahu
Ġconcent rating
Ġ0 3
Ġtouch es
Ġtele ph
Ġcontra d
Ġattract ing
Ġvari ations
Ġlic ense
Ġrh y
Ġpred ic
Ġregrett ably
Ġadm iration
americ an
Ġembra ced
Ġmit igate
Ġdisappear ance
Ġpoet ry
Ġmole cule
Ġalger ian
Ġbeat en
Ġalleged ly
Ġenrich ment
Ã¨ s
Ġvolat ile
ae a
ye ah
Ġindiff erence
Ġba ghdad
Ġfloren ce
Ġjack son
Ġobsc ure
Ġkne es
Ġunch anged
Ġresil ience
Ġalg or
Ġshipy ards
Ġreimb ur
Ġdol ph
Ġextin ction
Ġenfor cing
Ġapparat us
Ġhelic op
e z
h or
i ating
p lay
u ay
Ġ vel
Ġw iped
en vir
Ġc ute
Ġo st
it t
Ġin ert
Ġh ut
Ġn ass
as k
as se
ot ti
ow ing
Ġas certain
Ġme th
Ġun de
Ġsu its
Ġeuro bon
Ġsh ia
Ġsh ark
ere r
Ġch at
Ġpres umably
Ġr ang
Ġj ung
Ġj unta
Ġab u
um ane
Ġno ble
Ġup coming
ag ric
Ġexp ose
Ġtra cking
Ġdem ise
Ġsp heres
Ġfe ver
Ġover ha
Ġcl ou
Ġstr ang
Ġacc ent
Ġhapp ier
Ġconst rained
wor se
Ġshe er
Ġben e
do ing
Ġed itor
Ġ5 1
Ġspecif y
Ġrepresent ations
Ġ4 1
Ġmonth ly
Ġart istic
Ġaw kward
Ġtri ps
pri me
Ġvar iation
Ġche ese
Ġspecial ised
Ġer it
Ġcomprom ised
Ġassist ants
Ġant arctic
Ġconnect ing
Ġinflu enza
Ġorganis ational
Ġoccur rence
Ġsepar at
Ġaccomp any
Ġreact or
Ġunf ounded
Ġinh umane
augh ters
Ġdon ation
Ġinsist ence
Ġreven ge
Ġagg ress
Ġreb els
pro v
Ġmultilateral ism
Ġfulfil ment
Ġfem in
gu ided
Ġperpet rated
Ġmoroc can
Ġinterpre ters
Ġdiscover ies
Ġscrut in
Ġconfron ting
Ġhes itation
Ġwhol es
Ġdetain ees
Ġdepl orable
Ġfright ened
Ġsli p
Ġunres erved
Ġmu lder
Ġembark ed
Ġtum or
Ġlin ear
Ġinfin ite
bus iness
Ġexplos ive
Ġtraffick ers
Ġoverwhelm ingly
Ġlul ling
Ġunlaw ful
youn g
Ġmagnific ent
stad t
Ġunple asant
Ġcredential s
envir onment
b c
b ased
c ive
t ically
u ate
v ol
w ere
Ġt anks
Ġa mple
Ġw reck
Ġs ul
it tle
Ġp icking
Ġb ange
Ġto ile
es ter
Ġf ract
Ġf als
Ġh ire
Ġh ired
ro cal
Ġn pt
Ġi aea
ul es
Ġun int
un ting
est ion
Ġli ver
Ġj an
Ġpol io
Ġrep lies
Ġcont ing
oc ally
au g
Ġprop h
te chn
Ġpropos ition
Ġper tin
Ġrec ast
ind ust
Ġsc rat
Ġinter active
Ġener get
hip s
ici ency
bal anced
Ġprin ted
Ġbl unt
Ġ5 6
Ġ5 7
Ġ4 9
Ġexist ent
pri v
Ġmor ally
Ġsl ave
Ġmis guided
Ġpen ins
Ġty r
Ġident ities
Ġbi ometric
Ġmist rust
Ġsens es
Ġspeed ing
Ġdict ate
Ġqual ify
Ġpath s
Ġround s
Ġcontract ing
Ġturk men
Ġtransfer ring
Ġincorpor ation
Ġsurve ys
Ġswe pt
Ġdel hi
Ġreveal ing
Ġdiss ent
Ġdevast ated
Ġjun ior
Ġeuros cept
bet t
Ġvers a
Ġadmitted ly
Ġexerc ising
Ġexacerb ate
Ġexacerb ated
Ġarmen ian
Ġvolunte ers
Ġath ens
Ġscept ical
Ġsubscri be
Ġunw anted
Ġinterdepend ence
Ġhorrif ic
Ġanch or
Ġscri pt
simp ly
Ġincin eration
Ġprox imity
Ġcondu cive
Ġmisunderstand ings
educ ation
Ã´ te
Ġpyram id
Ġfles h
Ġbange mann
a cies
f ail
j i
n uclear
s cient
t l
Ã £
Ġa i
Ġa ung
Ġthe r
Ġw ings
Ġw ounded
Ġc Ã´te
Ġp v
es ters
Ġh orses
Ġe ats
Ġl od
Ġfor wards
Ġst a
Ġpro ver
ke ys
Ġse af
li b
Ġv ivid
ain ted
Ġle is
Ġcan ary
od ing
ost on
Ġunder took
Ġrec ru
Ġind o
Ġtrans cend
Ġho ok
Ġdes ires
Ġgu ards
Ġenv oy
Ġview point
Ġmed iation
Ġimpro v
Ġph ased
Ġap pet
Ġcor bett
Ġadv ancing
Ġsmall est
Ġrev ital
Ġstar vation
sw ed
Ġansw ering
Ġfundamental ist
Ġoper ated
Ġbel t
Ġer r
Ġfle w
Ġbroad band
Ġfinal ised
Ġ9 2
Ġsal mon
Ġmer ger
Ġmal t
Ġprovision al
cl imate
aw are
br id
Ġquant um
Ġcatch ing
Ġpsych iat
Ġinterven ing
Ġrational e
Ġrelie ved
Ġrecip rocal
Ġtimet ables
Ġphilosoph er
Ġtort ured
mo ving
Ġdro ve
keep ers
Ġwed ding
spe aking
Ġshif ts
Ġblow ing
Ġange la
Ġnic olas
Ġnur se
Ġpopul ism
Ġchick ens
Ġadh ered
Ġcorre lation
Ġintimid ation
Ġimpover ished
Ġcircu it
Ġhypocrit ical
Ġeste em
gener ally
Ġcin ema
ivo ire
b ers
d ac
f ood
h undred
k land
m arks
w ind
Ġt ent
Ġa the
re f
Ġthe ss
Ġc ort
Ġc ous
an gh
Ġb g
Ġb oston
Ġf ond
Ġf ats
al on
al us
Ġthat cher
Ġg b
Ġl ula
ut rition
Ġst ored
ol ine
Ġal igned
Ġnot withstanding
Ġne at
im m
un ted
Ġwor sen
Ġch ess
Ġall otted
Ġr ally
Ġres umption
ll es
Ġcomp atibility
iz oph
ag g
ts in
ens en
el tsin
Ġdevelop s
Ġper se
Ġlo oph
Ġdisc ard
Ġla x
Ġent rench
Ġdra ma
Ġfore seen
Ġmod ulation
Ġdep ort
Ġsch izoph
Ġ5 9
Ġfavour s
Ġsuff ice
Ġhead ings
Ġtrad ers
Ġnet anyahu
Ġface book
ident ally
Ġ9 8
Ġgree ks
sp ain
Ġdocument ation
Ġvir uses
Ġsen egal
Ġcompreh ensible
Ġsil ly
Ġcompens atory
Ġfacilit ation
Ġacqu iring
Ġhost ility
Ġfraud ulent
Ġprotocol s
Ġstrength s
Ġsto res
Ġmoun ting
comm unity
Ġos set
Ġincom pet
Ġanaly sts
Ġscar city
Ġdiscrimin ated
Ġbow is
Ġpollut ing
Ġmich ael
Ġfan at
Ġholid ays
Ġstip ulates
Ġspons ored
Ġfue led
Ġintermedi ate
Ġintr ins
Ġfloren z
Ġmi xt
Ġnom ination
Ġnie lson
Ġelabor ate
Ġancest ors
exper ience
ĠrÃ¼ big
Ġfluct uations
farm ers
need less
Ġlor ries
frank ly
Ġaster oid
Ġclou ds
Ġleis ure
hundred s
Ġlooph oles
Ġschizoph ren
d led
v als
Ġt atoeba
Ġc un
Ġc um
Ġp ier
Ġf u
Ġd aughters
Ġre ar
Ġre bal
Ġre lied
ot ion
Ġun fore
op en
Ġsh ield
Ġsh arks
Ġse al
Ġch ip
Ġch anne
Ġimp l
Ġj ul
Ġreg rets
oc ation
ast e
Ġpl ug
Ġdis g
Ġinc idence
cept ive
Ġown er
Ġbu ck
Ġpresent ly
Ġbus es
Ġdep leted
com b
Ġpract ise
Ġrese tt
Ġbuild s
Ġold s
Ġeduc ate
Ġhead way
Ġsou theast
Ġsl aught
Ġturn over
Ġcapital s
Ġlang en
cent ral
pr ints
Ġkill s
Ġste er
Ġult ra
Ġclar ifying
Ġpenal ised
Ġcharacter ized
Ġspread s
Ġfeed s
Ġsus cept
Ġpet rol
Ġcard iff
Ġfederal ist
Ġbon ino
Ġboy f
Ġvari able
Ġconstitu ent
Ġgri p
Ġcli p
Ġunp opular
Ġremed ies
Ġkar as
Ġacquis ition
Ġprivat ization
Ġroc ard
Ġcul p
Ġdecentral ised
Ġdimin ished
Ġsympt om
Ġabund ant
Ġunequiv ocally
Ġpredecess ors
Ġtab oo
Ġdrafts man
Ġzeal and
Ġsupermar ket
Ġmemor and
Ġstro ke
Ġaus p
Ġpromp ted
Ġlicens ing
best os
Ġeurobon ds
Ġthess alon
Ġslaught ered
1 8
5 00
b ring
f elt
l iness
n n
o is
s ur
u er
in f
in th
in ity
Ġp our
Ġp ile
an ke
Ġh ug
Ġd ots
Ġre agan
st ed
Ġg and
ur ation
Ġde lic
Ġas bestos
Ġeuro dac
Ġsh out
Ġsh ower
we igh
Ġle one
us a
Ġres igned
ous ed
lo se
Ġup ward
Ġpolic eman
Ġra m
Ġbo ast
Ġstr anger
Ġacc use
Ġdisc ourse
Ġprot esters
Ġla ud
Ġend anger
Ġfut ures
Ġtur ks
Ġcar te
Ġorgan izing
Ġcre am
ph eric
Ġins ert
Ġcost a
Ġlib r
Ġlib yan
Ġsw allow
Ġbar rot
when ever
Ġchar ging
Ġbur undi
Ġcoordin ators
Ġune ven
Ġ7 7
Ġtest im
Ġgreen land
Ġcohes ive
Ġpoll en
Ġsal v
Ġmer ch
Ġmal m
Ġcontent ious
Ġdeleg ated
Ġalloc ating
Ġconcent rations
Ġjour neys
Ġfil es
Ġcra ft
Ġsho oting
Ġstrugg les
Ġlabor atories
Ġconver ted
Ġgrand children
Ġapart ment
Ġintellectual s
Ġmatch es
Ġcrow ded
Ġneighbor ing
Ġindones ian
Ġtemper atures
Ġcommend able
Ġconven ient
Ġjump ed
Ġprescri bed
Ġaccum ulation
Ġmathemat ical
Ġelig ibility
Ġinsec ure
Ġmassac res
Ġstret ch
Ġrap ed
Ġenact ed
Ġcancell ed
Ġinher ited
Ġcertific ate
Ġcertific ates
negoti ations
Ġclust er
Ġeld r
Ġpercept ions
Ġobli ge
Ġcurric ulum
Ġorph an
mention ed
Ġank ara
sud den
Ġcalend ar
b ank
g as
g ia
h an
n ik
s uccess
v is
w est
z Ã¡
Ġth umb
Ġw w
Ġw ounds
is ive
Ġb ind
Ġb ite
Ġm itch
Ġto wer
Ġf on
Ġf et
Ġf uk
al ready
Ġd ys
Ġre liance
il er
Ġg ig
Ġg au
Ġl ately
se y
gh ter
Ġun reg
Ġun aware
Ġimp ul
Ġj et
Ġam ounting
ie v
Ġco erc
Ġpolit ic
Ġper v
Ġper il
Ġover th
Ġtw itter
Ġtrans mit
igh ters
Ġcommun al
Ġdra gged
ne z
Ġglobal ized
be ll
Ġbl own
Ġph ases
Ġconstit utions
Ġsupp ression
Ġret ired
leg al
Ġann o
of i
Ġche chen
Ġ6 4
Ġdesign er
str ong
Ġassist ed
Ġ7 8
Ġwrong ly
Ġlow ered
Ġver ge
Ġcru cially
Ġport ra
Ġhun t
Ġkill ings
Ġcal culate
Ġheart felt
Ġstay s
Ġcha otic
Ġboard s
any thing
anu kov
Ġpun ct
Ġelement ary
Ġincorpor ating
Ġvolunt arily
Ġlabe lled
Ġfort ress
Ġball oon
Ġstabil ize
Ġfit ting
Ġpredict ions
Ġsupplement ed
amb ique
Ġdel ors
Ġforum s
Ġreass uring
Ġillust ration
see ing
rel ations
four th
Ġchain s
Ġfashion ed
Ġcolon ies
Ġdetect ed
Ġgri ps
Ġminim ise
Ġabsor ption
Ġdiver gence
Ġfrust rated
Ġdossi ers
mans hip
unction al
Ġfeas ibility
Ġgest ures
Ġspecul ators
Ġreaffirm ed
Ġsecre ts
Ġflee ing
Ġanalog y
Ġexpon ential
Ġblat ant
wash ington
abet es
Ġuncontro lled
afric a
Ġdiscl osure
Ġmaf ia
Ġmaln utrition
Ġkyrgyz stan
Ġsurviv ors
Ġpenins ula
angh ai
b one
h of
l at
o ch
p arents
z io
Ġ +
Ġt ant
Ġt ire
Ġs ed
Ġs ore
Ġs ars
Ġp ale
Ġf illing
Ġin action
Ġh in
Ġd ot
ar ter
ic ating
Ġand erson
Ġn ag
Ġre ign
as i
Ġg oll
Ġl om
Ġu c
ut ory
ot a
Ġfor a
ur able
ur ry
ra pe
Ġne p
Ġsh am
li ever
est a
if iably
Ġle ct
Ġwas ting
Ġimp at
Ġj ose
Ġres ur
Ġk abul
Ġtr an
Ġout weigh
Ġri ots
Ġcomp aring
Ġco el
Ġpre amble
me al
Ġev ans
og ene
Ġra pp
Ġeff ic
Ġdiff ers
Ġro pe
Ġinst ant
there d
Ġfact ual
Ġcommun aut
Ġlong est
Ġmon key
Ġdes cend
Ġher man
Ġcar pet
Ġsm arter
ne ath
Ġinf ant
Ġmod ify
Ġrul ings
icult ural
Ġsur pass
Ġart ic
Ġaw ak
Ġcomb ust
ck x
Ġhold ings
Ġobjective ly
Ġdesign s
Ġdoub ling
Ġmult if
Ġant agon
omet ime
Ġweak ens
Ġground water
Ġcle ans
Ġwal es
Ġdocument ed
Ġcircum vent
Ġcomput ing
Ġfoot print
Ġunivers ally
Ġbat tles
Ġpet ro
Ġcompar isons
Ġbon n
Ġuncertain ties
Ġsole mn
Ġren ational
Ġoptim al
Ġprem ises
Ġvide os
Ġconstitu encies
Ġalban ians
Ġborrow ed
Ġseat tle
Ġded ication
ÃŃ a
Ġsev ille
Ġdiagn osed
Ġhabit ats
Ġreward ed
Ġcere mony
Ġplain ly
Ġtechni que
Ġukrain ians
Ġincon ce
Ġdatab ases
Ġcart oon
Ġmainstream ing
Ġbench mark
Ġster ckx
Ġclash es
Ġpron ounce
Ġdisgrace ful
Ġuphe av
Ġhect ares
Ġconfidential ity
Ġdies el
polit icians
Ġshrink ing
Ġdiscrep ancies
Ġsemin ar
Ġdiscred ited
Ġmelt down
Ġpla usible
Ġjos Ã©
Ġhumili ating
Ġboycot t
Ġhamm er
Ġbh ut
Ġmisman agement
Ġchrom os
environment al
Ġturkmen istan
swed en
Ġboyf riend
Ġmemorand um
Ġthessalon iki
Ġunreg ulated
Ġcoel ho
Ġcommunaut aire
d isc
f ishing
l eration
m il
m us
n ings
s orry
v an
w oman
en a
Ġf est
Ġf iring
ro che
Ġand ers
il ings
Ġg ore
Ġg ros
pe c
Ġy eltsin
Ġnot ions
Ġsh it
Ġsh ining
os h
qu al
Ġle ak
Ġgo ds
Ġcoun sel
et ics
Ġor bit
Ġk au
um a
Ġtim id
Ġsa il
el a
cy cl
Ġunder go
Ġsupport er
Ġob ey
Ġro s
Ġlo ving
tain e
Ġtake over
Ġsub tle
Ġconf isc
Ġdisc ourage
Ġcur ve
Ġend ured
Ġcar go
Ġback drop
Ġcol umn
Ġmaj orities
lu ck
Ġlegisl ator
Ġph asing
Ġir ony
Ġfree zing
Ġdist rust
Ġstar ing
Ġsw ing
Ġthird ly
Ġcong estion
Ġaccess ibility
Ġsustain ing
Ġdecl aring
Ġce ilings
Ġstat utory
Ġadmin ister
Ġconte xts
Ġaccord ed
Ġgra ce
Ġgener osity
some body
Ġobs ession
Ġ9 00
Ġdi abetes
Ġill icit
Ġpoll uted
Ġrepublic ans
Ġste ep
Ġ198 7
Ġlog istics
pol and
Ġinh ib
Ġvast ly
Ġ197 9
Ġdisappe aring
200 2
Ġos lo
Ġinfect ions
Ġexceed ing
Ġmobil ised
Ġtibet ans
Ġdump ed
Ġsympath etic
Ġsyn d
Ġadm is
che ck
americ ans
Ġdepri ve
Ġinstall ed
Ġlithu an
Ġquiet ly
Ġartific ially
Ġposs ession
develop ed
nis ch
Ġimmense ly
Ġshel f
Ġescal ating
Ġtiss ues
Ġsyner gies
Ġinex p
Ġpremium s
Ġcrush ed
Ġped est
Ġbarbar ic
Ġvibr ant
Ġcorrid or
Ġepis ode
Ġteles cope
specif ically
Ġsamp les
Ġlandf ill
Ġrhy th
Ġpertin ent
Ã£ o
sudden ly
Ġgoll nisch
Ġlom Ã©
Ġrapp roche
Ġrapproche ment
c all
f ree
g roup
j ac
l anges
m oney
p over
r an
r and
w ord
Ġt ay
Ġt anz
Ġs ons
Ġc ed
Ġc ust
it ar
Ġp ink
an ol
Ġb row
Ġm ck
es ion
Ġf ern
ro lo
Ġg ord
Ġwh ales
ment ed
Ġcon cession
ch ar
ch ris
Ġnot ing
Ġne ck
ate red
Ġun ites
ad s
ad ers
Ġdo yle
Ġli abilities
ig ated
ament s
Ġimport ers
Ġpre y
Ġunder neath
Ġdem agog
Ġsp an
Ġsp ar
Ġover st
Ġlo oming
Ġsign atories
Ġwar fare
ital y
Ġap ar
Ġfollow ers
Ġtri be
Ġhard ware
Ġvar ieties
Ġappe ase
Ġforce fully
Ġ6 8
Ġdial og
Ġopt imum
Ġagend as
Ġ7 2
Ġver tical
Ġbul l
Ġwind s
Ġhor n
Ġguidel ine
Ġdetermin es
Ġgradu ated
Ġoption al
Ġprem ier
Ġrecall ed
Ġdisagree ments
Ġwars aw
Ġflow ing
Ġcalcul ating
cont rary
Ġkn ock
Ġsacrif iced
Ġstor ms
Ã¤ n
Ġhabit at
Ġtast es
Ġreloc ations
Ġpostpon ing
Ġexerc ises
Ġcul min
Ġdimin ish
Ġmortg ages
Ġdrought s
Ġdiam ond
Ġdesert ification
Ġinterconnect ed
fif thly
Ġloyal ty
Ġlou der
Ġacced e
Ġinher it
bra zil
Ġpriorit ise
Ġintu itive
Ġsymmet ry
Ġpredomin antly
Ġasp ire
opoul os
viol ence
grow th
Ġdegrad ation
Ġpiv otal
Ġcarc in
Ġbour langes
Ġjung le
lib eral
Ġosset ia
sted t
Ġeffic acy
pover ty
1 9
1 99
c r
c ard
c asters
e ight
e gypt
i ol
i ority
i racy
l ow
l ittle
m ass
o pp
p ie
p oints
s olid
u it
w ords
Ġt ube
Ġa pt
Ġc d
Ġo ost
Ġo vere
it en
Ġm ock
es pecially
Ġf ighters
Ġin aug
ed usa
th ousand
om ach
Ġbe liever
Ġu cl
Ġst an
Ġst arch
Ġst omach
ver sion
ol iberal
Ġal as
Ġun b
ad o
Ġse ated
os phere
ant o
Ġdo se
Ġv on
Ġch est
am o
Ġj es
Ġj ong
Ġres ident
ak y
Ġpl ath
Ġdis connect
Ġwork sh
de f
Ġjust ifies
pt ions
Ġtra cks
Ġsp at
Ġsp ider
ric ts
Ġper verse
igh th
ful ness
Ġprov oke
Ġmin ist
Ġfar c
Ġsc ales
olog ne
Ġbr on
Ġinf lex
Ġsur prises
Ġplan es
Ġins ignificant
Ġemploy ing
Ġterm ed
Ġsupp ress
Ġsupp lier
Ġopp ressed
Ġprevent ative
Ġsou p
Ġmot ors
Ġ6 6
Ġgra din
Ġdom ination
Ġliberal ised
Ġ8 6
Ġbroad en
Ġmus cles
Ġmechan ical
hold er
Ġvol umes
Ġspir its
sec urity
Ġkore ans
Ġste al
Ġforget ting
Ġbuy ers
Ġsad ness
Ġ198 5
Ġ198 6
Ġsil icon
Ġhar ms
Ġblo kland
Ġda ul
Ġprefer ably
Ġresist ed
Ġsho res
Ġhom opho
Ġblock ade
Ġisol ate
Ġwash ing
Ġinterf ering
Ġtit ley
Ġaccur acy
Ġq addafi
Ġwise ly
Ġhol lywood
Ġdecre asing
Ġplat forms
Ġtrave llers
Ġrand zio
Ġdivers ify
Ġmarri ages
Ġstal em
Ġreluct ance
Ġvigil ance
su pp
Ġske let
Ã¨ re
Ġpregn ancy
Ġble w
tal k
Ġscept icism
Ġacadem ics
step s
Ġrect ify
Ġmilitar isation
health y
Ġcontempl ate
protect ion
Ġinval uable
Ġembass y
Ġcomplac ency
Ġji had
Ġmoz ambique
Ġunbelie vable
Ġremun eration
oft en
Ġfurn iture
Ġtex as
Ġresett lement
Ġmalm strÃ¶m
Ġinconce ivable
Ġoost lander
thousand s
Ġucl af
2 7
2 000
b u
b ir
e ve
g uard
j er
m ain
p ost
t ar
v il
Ġt at
in en
re ach
re yer
Ġthe at
it ary
it ted
it ating
it ania
Ġp ause
Ġb ert
Ġm ount
Ġf ounder
Ġin acc
ed ia
Ġh ollow
Ġe h
Ġre vel
Ġis tan
st ones
Ġg ru
Ġg ps
ct ory
id ers
Ġha ut
Ġal ph
Ġun used
Ġun wise
Ġch art
Ġpres upp
Ġso aring
Ġli ar
Ġab kh
Ġk m
um ble
ish ment
Ġout lines
Ġfin ishing
Ġinc ar
Ġman ages
Ġco x
Ġconc ise
Ġunder water
Ġrec ap
ind ivid
Ġsub ur
Ġhum iliation
Ġdisc ern
Ġbu iten
Ġdifferent ial
Ġcommon ly
Ġorgan iz
Ġdep ressing
Ġsch reyer
Ġkind ness
Ġimm oral
cu mb
Ġdist ricts
Ġsupp lements
Ġtri angle
Ġhard ship
Ġcho oses
sid ers
Ġdeter rent
Ġquick er
Ġexc itement
Ġrefer ral
Ġec ology
Ġinflu ences
Ġcy ber
Ġsan itation
Ġrepublic s
Ġcounter act
Ġrecord ing
Ġcha ired
Ġmut ilation
Ġstra w
Ġbudge ting
Ġlay ers
Ġhost ages
Ġmem orial
Ġtoler ant
Ġsqu and
200 6
Ġstabil ise
Ġran king
inc identally
Ġtransl ations
Ġprosec uted
Ġep ic
regard less
Ġdiscip linary
Ġow es
Ġprag mat
Ġaspir ation
Ġdiscover ing
Ġwild life
Ġboom ing
Ġdur able
Ġspot light
Ġmanip ulate
Ġsuspic ious
Ġprescri ption
Ġceleb ration
Ġnur ses
Ġoutbreak s
Ġdefinitive ly
Ġcosm etics
col le
Ġroth ley
Ġparent al
Ġcompris es
Ġsimpl est
Ġmineral s
Ġsweep ing
Ġmarsh all
Ġwhist le
Ġunden iable
Ġpengu ins
Ġathlet es
Ġnass auer
Ġbene ath
Ġunreserved ly
Ġprover b
Ġistan bul
Ġabkh az
- -
h alf
j an
t our
t ling
Ġt ended
Ġa fore
Ġthe ato
Ġthe rape
on est
Ġw yn
Ġs ie
Ġs aint
Ġc ree
Ġc ologne
Ġp on
Ġp oured
Ġto pp
Ġh eral
Ġn urs
Ġg ill
Ġfor ged
id a
Ġst umb
Ġst icks
Ġde letion
ch em
ill on
Ġne oliberal
Ġcomm ens
Ġsh anghai
Ġse w
Ġse am
mb ling
Ġwor n
Ġor b
Ġam id
reat ing
ag a
me xic
Ġconc ed
ub a
Ġoff s
Ġoff sh
Ġcl out
Ġpartic le
Ġsub t
Ġfact ions
Ġfar ther
min ist
Ġemp athy
art ney
Ġpublic ity
Ġtal ents
Ġke l
Ġtransp ose
Ġlaw making
ov sky
Ġrev is
Ġrev ived
Ġpat ch
co h
ush ima
Ġdam n
une mployment
Ġextra ction
ah n
Ġsupply ing
Ġsucceed s
Ġslow ed
Ġdistribut ing
Ġdict ates
Ġ198 8
Ġwall is
Ġpra ised
Ġcommunic ated
Ġproportion al
Ġimplic ation
Ġbomb ings
Ġcult urally
Ġincom ing
Ġinterven ed
comp an
Ġphilosoph ical
Ġpersist ence
Ġinterpre ting
cap ital
Ġsatell ites
Ġcow ard
Ġclin ic
Ġcarri er
Ġrub ber
isen berg
Ġdecentral isation
Ġinherent ly
Ġmyster ious
Ġabund ance
Ġcoc oa
Ġcancell ation
Ġsummar ise
Ġluc as
Ġreop en
Ġlamp edusa
Ġelectron ics
Ġfert ility
Ġsculpt ure
fra me
Ġsever ity
Ġstub born
Ġmiser able
Ġfli p
Ġkor an
Ġdissid ents
Ġsmok ers
Ġreimbur sement
Ġerit rea
Ġmixt ure
Ġmitch ell
Ġtant amount
Ġminist ries
Ġstalem ate
Ġhaut ala
colle agues
Ġafore mentioned
Ġoffsh ore
c oun
o pe
p y
t ube
y p
y ard
Ä ĥ
in able
Ġthe or
Ġw ra
Ġw ield
Ġw oke
Ġw ij
Ġs izes
Ġto w
Ġf reed
al ous
Ġan throp
ed oph
Ġd un
Ġe ighth
Ġre petition
st ay
Ġg il
Ġl ump
Ġal mun
Ġas ians
ke ley
ir on
Ġyou tube
ad minist
Ġcomm ence
Ġse gment
li x
Ġen p
Ġle ts
Ġch ron
Ġr uth
Ġcan cel
Ġimp asse
Ġhe mis
Ġcount ed
Ġreg en
lo vak
Ġdis may
Ġdis cont
Ġcomp lies
Ġcomp ounds
Ġman uel
ack s
ack ed
Ġunder gone
Ġdem ol
Ġgovern ors
Ġmade ira
Ġmon keys
Ġla mb
Ġla zy
Ġpr one
Ġreal isation
Ġma ize
Ġfut ile
Ġcontin ual
Ġ19 0
Ġhel m
Ġaff lic
Ġsuc cumb
Ġprincip ally
Ġchild care
ph ur
Ġear ning
ros pect
Ġfail ings
Ġstud io
Ġfam ously
Ġcivil ized
Ġcivil izations
ining rad
Ġhead line
Ġlive ly
Ġmid night
Ġsubst itution
Ġaccord s
Ġpost ed
Ġpost ing
Ġ9 7
Ġmet res
Ġver hof
Ġsubsid ised
Ġexch anged
Ġnear by
Ġdim as
Ġconsult ative
Ġdiv ine
Ġdiv ides
ator ial
Ġgas oline
Ġmer cy
Ġdr ill
Ġdelay ing
head s
Ġbul let
Ġste am
Ġspeed s
Ġuseful ness
Ġ18 0
Ġtruth s
Ġchair men
Ġalloc ations
Ġconcept ion
Ġpenal ise
Ġcustom ary
Ġreact ing
Ġappeal ed
Ġbot tles
Ġengine ered
aw i
Ġbon uses
Ġblood sh
Ġendorse ment
Ġang lo
Ġretain ing
Ġstabil ising
Ġpref ers
Ġtight ened
Ġsuffici ency
Ġcroat ian
Ġarchitect ural
Ġinqu iries
Ġlaugh ed
Ġcelebr ations
Ġrecover ing
Ġdispar ity
Ġange les
Ġrush ed
off icial
Ġtact ical
Ġdisrupt ion
Ġcosm etic
Ġvolunte er
po or
Ġsurge on
Ġfled ged
Ġcompris ing
Ġprovoc ation
mod ern
Ġdu isenberg
Ġenlight ened
Ġpotato es
Ġmunicip al
Ġembod ied
ogen ic
Ġcycl ical
Ġlone ly
Ġhege mony
Ġkg b
repres ent
Ġappet ite
Ġmalt ese
Ġausp ices
Ġfon taine
Ġsynd rome
Ġgord on
solid arity
individ ual
Ġtherape ut
Ġcommens urate
Ġalmun ia
Ġverhof stadt
a pe
g ical
n on
p ed
w art
w atch
y rom
Ġt ighter
in it
at ar
Ġs ometime
er ting
Ġc ush
Ġp ow
Ġb ou
Ġm ong
or i
or um
Ġf di
Ġin ward
ar ting
Ġg mo
Ġme als
oun cing
pp y
Ġsh ri
Ġpar ity
Ġli a
Ġimp ot
Ġj on
Ġam ate
ard er
con g
ll o
Ġcount y
ast ically
Ġcons ci
el f
ight ing
Ġtw ist
ath an
Ġbas in
Ġrel ent
Ġsit s
Ġcol ony
Ġform id
Ġmain land
Ġfra med
Ġelect ro
Ġph y
Ġcor ps
par able
Ġsing er
Ġfl ames
leg isl
Ġintrodu ctory
Ġhome less
Ġexpl ored
Ġru g
Ġru ined
Ġmot ive
Ġlack ed
Ġid le
Ġdisp uted
Ġpa edoph
Ġliberal ise
Ġinnov ate
Ġmus ical
Ġgl aring
Ġaut o
Ġaud iting
gar ians
Ġsco res
Ġunf av
Ġexcess es
put in
Ġcomplic ations
Ġ16 0
Ġsho e
Ġuns uccess
Ġdig it
Ġobserv ance
Ġx ia
Ġretain s
Ġgeograph ically
200 3
Ġpreced ing
Ġtit an
Ġprosec ute
comp ared
Ġreass ured
Ġreconcil ed
Ġcommand er
Ġearthqu akes
Ġox ford
Ġpled ges
Ġcoup les
Ġfant asy
Ġbrok er
Ġseason al
Ġcolonial ism
Ġdimin ishing
Ġadvent ure
Ġinterconnect ion
Ġembry onic
Ġdisin tegration
ĠbÃ¶ sch
Ġkick ed
iped ia
Ġskept ical
Ġbeha ving
Ġarrog ance
Ġmaur itania
Ġrend ered
Ġresemb les
Ġsupervis or
Ġolig arch
Ġprototy pe
Ġupris ing
Ġindign ation
Ġinert ia
Ġlibr aries
Ġwyn n
b ill
b age
c ÃŃa
e an
g age
h ed
i ke
l ater
n ato
r us
t own
Ã ¸
Å Ł
Ġt ann
re du
Ġw atered
Ġp c
Ġp ic
an ze
Ġm ant
Ġm all
Ġm asters
Ġm esh
Ġf rict
Ġf yrom
Ġan atom
Ġh ond
ing ing
Ġd uma
ro b
st ick
Ġg am
Ġl es
Ġl est
Ġl aps
se ction
Ġha arder
Ġy anukov
ch inese
Ġun balanced
Ġsh ine
Ġex pelled
Ġv ic
un ished
ci an
Ġr on
od ork
Ġk ofi
iv ities
Ġrep lic
Ġout going
Ġro ss
Ġrespon s
Ġdisc ount
Ġreal izing
Ġgu est
Ġsc ant
Ġinter rog
Ġ20 30
Ġrul er
Ġav ian
oura bly
com mit
Ġlib eria
Ġtri ple
Ġlim b
Ġregul ator
Ġtransport ing
Ġforce ful
Ġsl ides
Ġstat ic
Ġ6 3
Ġ6 7
Ġadminist ered
Ġdeter rence
az e
Ġlight ly
Ġliberal ising
Ġmult icultural
pid la
Ġve in
Ġmechan ics
reg ional
Ġcrimin ality
Ġaud its
Ġremember ing
Ġrat ios
Ġindustrial ized
Ġcritic ize
Ġwal let
Ġdeg ra
Ġsucceed ing
Ġconsist ing
Ġste aling
Ġkid ding
Ġexer ted
Ġeval uations
Ġcra w
Ġcompens ated
Ġemerg encies
Ġdog ma
Ġvirt ues
Ġuns c
br ussels
Ġbos n
Ġinad missible
Ġfavor able
200 4
ari ably
cons cious
Ġrain fall
car bon
Ġcamer on
Ġflu id
Ġmix ing
imp lement
Ġunp unished
Ġdevast ation
Ġlend ers
Ġaccum ulate
Ġbath ing
Ġprosecut ors
Ġcruel ty
Ġ195 6
Ġrecital s
hr an
pal est
Ġforb id
Ġwond ers
Ġhomosexual s
Ġhect are
Ġprec ision
Ġpessim istic
Ġimped e
Ġbudd hist
Ġhypo thesis
bear ing
Ġwire less
Ġdiscrep ancy
Ġhorm ones
Ġkal iningrad
Ġdenomin ator
Ġsle pt
Ġgon zÃ¡
Ġturbul ence
Ġbless ing
Ġcataly st
Ġstereoty pes
Ġleve lled
ĠÅ¡ pidla
Ġchimp anze
Ġoverha ul
Ġsul phur
Ġdisg ust
Ġdelic ious
Ġfuk ushima
Ġcombust ion
Ġmck enna
Ġbloodsh ed
Ġtann ock
1 7
a ic
c ro
c red
d f
d em
d irect
g od
i qu
n ist
p os
p ress
r ise
Ġt ick
Ġt ense
re en
re ls
is se
Ġs ne
Ġc c
Ġc ater
Ġo re
Ġb ored
Ġm t
Ġm ate
es ome
es co
Ġin gen
Ġh ugh
Ġd eng
Ġd ancing
Ġe leg
Ġre negoti
Ġg att
Ġl ent
Ġl ange
ot age
pe z
ol ar
Ġde ception
the id
Ġnot orious
Ġun in
Ġun ice
Ġex ter
ci vil
Ġen vel
am il
Ġso ya
Ġres idential
Ġint rig
ig ating
Ġno is
ost ic
Ġpl ut
du ly
are t
Ġpo ised
Ġar ist
el ess
Ġev ade
Ġunder val
Ġsp o
ric ted
Ġlo op
int erest
Ġcl er
Ġgen ital
ass es
Ġma at
Ġatt raction
Ġass imil
Ġtal ented
Ġback bone
wor ld
Ġstand still
Ġca res
Ġelect rom
Ġph ant
Ġben ign
com petition
Ġpract ition
Ġpur se
Ġwrit es
Ġviol ating
Ġstandard ised
Ġactiv ist
Ġmor gan
Ġsl ice
Ġdet ract
Ġz ap
Ġcred itor
Ġexc uses
Ġ7 3
Ġtom ato
Ġdest ined
Ġver bal
Ġinflu encing
Ġsound ed
verse ly
Ġcal am
Ġsal af
Ġcop ies
Ġones elf
Ġappreci ates
Ġcomment ators
Ġauthor ized
Ġ198 1
Ġsex es
parliament ary
Ġfil ter
Ġadvantage ous
ene i
Ġfacilit ated
Ġtransparent ly
Ġcommunic ating
Ġber Ã¨s
Ġtend ers
Ġexec utions
Ġcateg orically
Ġconce ivable
Ġfaith ful
200 9
Ġblue fin
Ġep as
Ġrelie ve
Ġfer ber
Ġdro pping
Ġintensive ly
Ġgar cÃŃa
Ġcool ing
oler a
Ġkar l
Ġtrave lled
Ġhero ic
Ġoppon ent
Ġmanifest ation
Ġbail outs
Ġdispl ace
Ġfan atic
Ġabst ention
Ġassert ion
Ġbes ide
Ġaccum ulated
Ġuphold ing
Ġrevers al
Ġsla ves
Ġju ven
Ġtherap ies
Ġunderpin ning
Ġacadem y
Ġlou is
Ġsant a
Ġak in
reb ren
Ġindu ced
ĠÂ £
Ġnas a
Ġinconven ience
Ġinconven ient
Ġconsp iracy
Ġinsurg ency
Ġhamp er
Ġscandina vian
Ġparaly zed
Ġrejo ice
Ġsemit ism
Ġip cc
Ġmicros cope
Ġguatemal a
Ġtoile t
Ġunfore seen
Ġculp rit
Ġanders son
Ġtanz ania
Ġapar theid
Ġdialog ues
Ġabkhaz ia
coh esion
Ġformid able
ĠgonzÃ¡ lez
Ġenvel ope
b ush
d ling
k op
n umber
u ish
v ency
w o
z es
Ä ĩ
on aut
Ġc ric
Ġc lick
Ġp od
Ġp ino
Ġb ent
Ġan the
Ġan te
Ġan onymous
ed ing
Ġd Ã¼
ar ms
ro cess
Ġbe et
Ġbe gg
Ġu rug
ver ted
ra is
ch rist
Ġnot ified
ay a
mp uy
op l
Ġv il
un a
est ically
Ġle inen
Ġgo at
Ġr ings
rom ania
Ġrep roach
Ġrep aired
um ing
Ġpl o
Ġtheir s
Ġtr icks
Ġtr ucks
vel t
lo qu
lo aded
Ġout law
for th
Ġcomp ound
Ġexp edi
Ġapp end
ose velt
Ġev ac
Ġtra mp
Ġtra its
Ġsp ouses
Ġper missible
Ġinv ariably
Ġro mpuy
Ġmad ness
Ġtrans c
Ġgroup ings
Ġappro ves
Ġprot racted
min es
Ġatt ribute
Ġdes c
ail ing
Ġrespect able
Ġproject ions
Ġestablish ments
Ġbusiness men
Ġviol ates
Ġeduc ating
Ġfl or
Ġmilit ias
Ġcomb ated
Ġturn out
Ġce o
no ye
Ġnet working
Ġge omet
Ġ7 6
Ġdanger ously
Ġstrateg ically
Ġport ray
Ġhun garians
Ġcross roads
sp ring
Ġrad i
Ġsatisf ying
Ġsimilar ities
Ġwal ks
Ġvo y
Ġpersonal ities
Ġdead ly
Ġremind ing
Ġformer ly
iss ance
Ġ18 6
Ġproceed ed
Ġqual ification
Ġrein tegration
Ġtravel s
Ġdream ed
cl ared
Ġbon us
Ġsubsidi ary
Ġbound s
Ġphil ip
Ġplant ing
Ġstabil ization
Ġwash ed
Ġfulfil s
Ġbehavi ors
Ġappoint ing
Ġborrow ers
Ġreass ess
Ġgreens pan
Ġmagn et
Ġscre ens
Ġgar age
Ġcorner stones
Ġkh odork
Ġregister s
Ġinstall ation
Ġgenet ics
Ġdiver gent
Ġcolomb ian
Ġfasc ism
Ġbag s
Ġbag gage
Ġheight s
Ġaccommod ation
Ġprud ential
hr kop
Ġbench marks
Ġfeeding stuffs
Ġguant an
Ġunt ou
writ e
Ġgang s
Ġdeval uation
Ġnit rogen
Ġpessim ism
along side
Ġhorm one
Ġterrif ying
rup ulous
Ġdisgu ised
Ġramp ant
Ġprerog atives
particular ly
Ġresent ment
Ġwik ipedia
Ġlan noye
Ġdepreci ation
Ġphysic ist
Ġsau ce
Ġmeth ane
Ġunde clared
Ġwholes ale
Ġentrench ed
Ġgand hi
Ġdys f
Ġoverth row
Ġlect ures
mexic o
Ġtherapeut ic
rebren ica
ĠdÃ¼ hrkop
3 5
8 0
b ow
c z
c us
e mploy
h on
h im
h ouses
j im
l ang
m ates
m ilitary
n age
p ract
s r
s ed
s ki
y ama
in burgh
Ġw ow
Ġw aged
is ers
Ġc able
Ġp ent
Ġp ad
an jo
Ġm und
Ġm Ã©n
or ated
Ġto ken
ing er
Ġd ough
Ġe ta
as anjo
Ġbe lder
Ġwe ber
ul ously
gh reb
Ġwith stand
Ġne arest
Ġun question
Ġun duly
Ġsh aking
Ġsh attered
Ġpar am
Ġdo d
we ar
Ġwor ship
am enei
Ġj av
Ġj ane
Ġab du
Ġab duct
con sid
Ġpart isan
ans w
Ġdis contin
Ġcomp atri
Ġman eu
ag ua
Ġexp ired
tern ally
Ġeconom ical
Ġbet rayed
Ġper me
Ġind ict
ace a
Ġinv oked
Ġop ium
Ġref in
Ġmin sk
Ġcur se
Ġend ang
Ġma ghreb
Ġsc ary
Ġcommon s
Ġcol a
work ers
Ġpract ised
Ġed inburgh
Ġbegin nings
Ġexpl oring
Ġlist ing
Ġmind ful
by e
co al
co ordin
Ġ6 1
Ġfun eral
Ġpal ace
Ġemphas izes
Ġlight ing
Ġident ifies
Ġge b
Ġassist ant
Ġ8 2
Ġmet ab
ps y
Ġgl ance
Ġsort ed
ec ks
Ġreview s
Ġvital ity
sh ort
Ġprim acy
Ġmand ela
Ġje alous
Ġauthor ising
Ġsurv iving
Ġuni mp
Ġlog o
pol icy
Ġcra fts
govern ment
Ġstim ulated
Ġpan els
Ġcompe l
Ġ197 3
Ġattach ment
Ġice berg
Ġtob in
Ġfat uzz
Ġvig o
Ġrig orously
Ġswe at
Ġacknowledge ment
Ġarm ies
Ġstem ming
Ġcrow ley
part ite
Ġmotiv ate
Ġineff iciency
Ġpil ots
Ġwood en
Ġbreach ed
Ġembra cing
Ġkh amenei
Ġpermit ting
Ġunp aid
Ġdistur bed
Ġpipe lines
isc ard
Ġadvis able
Ġtrick y
Ġutil isation
Ġdismant le
Ġrub bish
Ġtotalitarian ism
Ġdisregard ed
Ġpron ounced
Ġleh man
Ġgor bach
incre asing
Ġteen agers
Ġspr ings
Ġgreet ed
Ġpreval ence
Ġrepatri ation
Ġsuscept ible
Ġlaud able
Ġspat ial
iron ically
lovak ia
Ġelectrom agn
Ġurug uay
Ġguantan amo
Ġfatuzz o
a ud
b t
f ty
g iv
h urry
i pt
k t
l ocal
s al
v ig
w ed
Ġth read
Ġa es
Ġs our
Ġc ass
Ġp ac
Ġb ah
Ġm im
Ġn ik
le um
Ġre leg
Ġcom ed
Ġst agger
Ġal b
Ġde ll
ra k
ort ant
ch ange
ul ative
ill es
Ġun imag
Ġsu p
pp i
Ġse m
Ġv in
Ġhas te
et te
Ġr ou
am ous
Ġag ri
Ġimp ending
Ġj azz
Ġcommission ed
Ġfa o
ear lier
Ġout siders
Ġwork ings
Ġup side
Ġapp liances
Ġte hran
el on
Ġjust ifiably
Ġtra ject
Ġover sh
Ġcl oned
Ġconf ig
Ġmat urity
Ġsi ber
Ġlast ly
Ġsc rew
Ġbu mp
Ġday ton
Ġform ulating
Ġsuccess ors
Ġsupp ressed
Ġtri partite
Ġret ro
Ġfl out
Ġsl ack
Ġmis giv
Ġpriv ately
Ġ10 3
Ġsk ull
Ġ7 4
Ġbroad ening
Ġ9 3
Ġsuper state
Ġborder ing
Ġmus icians
Ġcy nic
Ġmodern ising
Ġden ounced
Ġcorrect ing
Ġaud io
Ġrat ifying
Ġharmon ious
Ġ12 5
Ġprim itive
ix on
Ġund ue
Ġhistor ians
Ġarab ic
Ġargu ably
Ġmeasure ment
Ġmeasure ments
Ġarri ves
Ġ198 4
Ġstra ins
Ġstock p
Ġpet ty
Ġfrequ encies
Ġaccident al
Ġdign ified
Ġradical s
Ġprohib iting
Ġfal con
Ġtight ly
Ġcollabor ate
Ġappoint ments
Ġextensive ly
Ġchurch ill
cont rol
Ġoverwhel med
gu in
Ġinnoc ence
Ġenvis ages
Ġanaly tical
Ġcli ff
Ġearn est
Ġdepri vation
Ġcash man
Ġfault s
Ġyield ed
Ġmarked ly
Ġnav y
Ġmit igation
Ġerad icating
Ġbrut ality
spe cial
Ġmanip ulated
Ġpreca utions
ham as
Ġhell o
Ġcollaps ing
Ġga ul
Ġcoinc ide
Ġparadox ical
Ġtac it
Ġprud ence
Ġdisproportion ately
Ġhind ered
Ġster ling
Ġlev y
Ġhomosexual ity
invest ment
Ġunambig uously
Ġresid ual
Ġtraum a
Ġenlight en
Ġabd ullah
Ġhaw ai
Ġcorrid ors
Ġneglig ence
Ġupgra ding
Ġattent ive
Ġorchest ra
Ġdefect s
Ġschmid t
Ġee as
Ġconqu er
Ġentrust ed
Ġdrow ned
Ġconfer red
Ġerupt ed
Ġhen ry
Ġcontag ion
Ġot tom
Ġwilli am
agric ulture
Ġfals ified
Ġtyr anny
Ġpv c
Ġtestim ony
ogene ous
Ġjes us
Ġpresupp oses
Ġdiscont ent
init ially
Ġdegra ding
Ġpino chet
lang u
Ġmisgiv ings
2 2
a ard
d h
g reg
h u
h un
h arm
i raq
k ins
l an
l ings
r itional
s it
t led
x on
Ġth ys
in is
re form
at able
Ġs ang
Ġs rebrenica
er ated
en able
Ġc ron
Ġto x
Ġin ches
Ġh iring
ing es
Ġd oping
Ġe loqu
Ġn am
Ġn asty
th irty
Ġre all
Ġre now
ly n
Ġg iscard
ct or
Ġl ens
Ġl ind
Ġon wards
pe ter
Ġst ev
Ġha ug
ith ms
gh ans
Ġun healthy
Ġsh akes
Ġse als
os er
li mp
est ablish
Ġle w
Ġch olera
et ting
Ġso ared
Ġhe al
Ġk it
Ġk ok
Ġcont end
Ġpe as
Ġqu orum
Ġneed le
Ġtr ump
Ġout ward
Ġri vals
Ġexp ulsion
Ġnew com
el li
Ġunder developed
Ġtra ps
Ġro osevelt
Ġoff enders
Ġaf ghans
Ġsub way
Ġgood ness
ian a
Ġhum or
Ġhum ility
Ġprov oked
Ġdisc ards
Ġmon ster
Ġsi xty
Ġgu itar
Ġenv y
Ġmak er
Ġpers ian
Ġpers ists
Ġwar ri
Ġdifferent iated
ft a
Ġsect arian
Ġnor weg
Ġap ology
Ġfav ourably
Ġread ers
Ġed ges
ned y
Ġaw ake
af ghan
Ġoper a
Ġhead ache
Ġwater ways
Ġz aire
Ġce ment
Ġbur y
Ġche ating
Ġschool ing
Ġer oded
Ġbra kes
Ġjud ging
Ġcontain ment
Ġrecomm ending
Ġsubsid ized
Ġmodern ity
Ġbi ased
bo y
Ġcritic ising
Ġdeli vers
Ġcal der
Ġtemp le
Ġmand ates
Ġste ering
Ġexer ting
ze k
Ġdict ated
Ġauthor ise
Ġslo gans
Ġda unting
Ġburden ed
Ġbot tl
Ġdisapp ro
Ġincorpor ates
Ġcoast s
Ġrestruct ure
Ġdark ness
Ġacce leration
Ġliter acy
200 8
Ġecu ador
Ġrain forest
Ġinfring ed
Ġjohn son
asc ular
Ġguard ians
Ġgri m
Ġnut ritional
Ġdeterior ate
bar ometer
inn ovation
Ġjeopard ising
Ġbrut ally
Ġannex es
Ġswitch ing
Ġadverse ly
Ġmonit ors
Ġrot ating
Ġadvis er
Ġnaz is
Ġnomin ated
Ġdish es
Ġrum ours
Ġpossess es
Ġpaint ings
Ġble ak
Ġweigh ed
Ġaston ished
Ġunrest ricted
Ġeleph ants
Ġfol ks
Ġprovoc ative
Ġaer opl
Ġindu ce
Ġasymmet ric
Ġalign ment
Ġsubordin ate
Ġinsol vency
Ġbric k
Ġdissatisf action
mill ions
Ġbern anke
brit ain
Ġplun ged
Ġalgor ithms
Ġenerget ic
Ġsta es
esta ing
Ġjose ph
qual ified
Ġcust ody
Ġspar se
tour ism
Ġhond ur
nist ria
Ġhugh es
Ġgeomet ry
Ġkhodork ovsky
Ġgeb hardt
Ġgorbach ev
4 0
9 6
c od
d iv
f a
f alus
g le
l is
m d
m ish
o es
p ox
r ons
s outh
y o
Ã Ł
Ġ Å
Ġ ict
Ġt an
Ġt read
Ġth irst
on ge
is er
Ġs way
Ġs Ã¡n
Ġc ites
Ġo pec
Ġp om
an ch
an throp
Ġf og
Ġd j
Ġe ternal
Ġe br
Ġe lles
Ġn ixon
le ave
as car
st ri
Ġg ib
pe are
Ġst ad
Ġst ones
ver ing
ol ia
ra ining
Ġhave l
ge ts
Ġse iz
Ġpar ks
Ġj okes
Ġhe ter
Ġam ounted
oc ut
ren e
ap est
ie val
iz er
ag ascar
Ġar oused
Ġmar ie
Ġsp ared
Ġover he
Ġmad agascar
Ġvot er
Ġnu cle
ass oure
Ġmin us
Ġext inct
Ġla h
Ġla os
Ġla mber
Ġend ure
Ġent rance
Ġlast s
Ġcar rot
led o
Ġconst raint
Ġorder ly
chn er
Ġchange over
Ġrespect ful
Ġbl ur
land ers
Ġem ig
Ġval en
Ġfav a
Ġcor ners
Ġins ane
Ġcri ed
Ġbar b
Ġactiv ism
Ġcomb ines
Ġchar ism
Ġinstru ction
Ġce ased
Ġche er
ber y
Ġdisp osed
Ġdesign ation
Ġrom ney
Ġenlarge ments
Ġ7 9
Ġpost er
Ġbroad ened
Ġbroad casters
app arent
Ġclos ures
Ġsound ing
Ġbri g
Ġcorrect ive
Ġcorrect ions
Ġkill er
Ġilleg it
Ġextra pol
rop ol
Ġinstrument al
Ġpain s
Ġwarm er
Ġje wel
Ġcomment ed
Ġhor rors
ik es
Ġblo om
Ġlog ically
Ġstaff ing
Ġadjust ing
Ġlies e
Ġvirt uous
Ġafford ed
Ġhot els
who ever
Ġsett ling
Ġremark ed
Ġbomb ers
Ġ197 4
Ġentit lement
Ġdistin ctive
Ġsurround ings
Ġmc car
Ġreconst ruct
gra du
Ġmos que
Ġbol ster
Ġineff ect
Ġded icate
Ġsuspect s
Ġgar bage
Ġreported ly
Ġendors ing
Ġdistort ing
Ġsev ent
Ġcert ified
Ġdeterior ated
Ġchief ly
Ġerad icated
oh l
Ġ194 0
among st
Ġrecyc led
Ġimperial ism
Ġmarginal ised
Ġattain ed
Ġstip ulate
Ġenrich ed
Ġlam assoure
Ġaccus ation
yn man
Ġdictator ial
trans p
Ġeager ly
quest ions
Ġintr ans
Ġclim bed
Ġtermin ology
Ġroutine ly
Ġacced ing
Ġtig ers
Ġkne e
Ġresil ient
Ġthri ve
Ġdiscoura ged
Ġoverr iding
opoul ou
Ġinval id
Ġembass ies
Ġadvers aries
Ġcu mbers
Ġdissatisf ied
Ġstun ning
Ġinterl ocut
Ġconfed eral
ushch ev
Ġouts our
Ġilliter acy
Ġindiscrimin ate
Ġemin ent
Ġredef ine
Ġarsen al
Ġtextbook s
Ġspontane ous
Ġwi pe
Ġguer r
Ġmarg aret
Ġgif ts
Ġcontrad icts
Ġrebal ancing
Ġhomopho bia
Ġbuiten weg
Ġunice f
Ġphant om
Ġpractition ers
ĠmÃ©n dez
Ġthys sen
Ġstev ens
falus sy
Ġebr d
Ġmccar thy
9 7
d rew
h ne
i ac
i ences
i Äĩ
m or
m ist
m iss
n early
r in
s ay
u is
v ide
w estern
Å Ħ
Ġa ub
in qu
re as
Ġthe ft
on do
Ġw and
Ġw ard
an ing
Ġb ast
Ġm umb
or ating
Ġd p
ic ia
Ġe it
Ġre bell
st ruct
Ġg limp
Ġfor ci
ri m
Ġwith drew
Ġun ten
Ġun esco
ad op
Ġdo ck
ain e
qu in
Ġli u
Ġli ghter
Ġj el
Ġj ones
Ġhe aling
Ġres pir
Ġres ounding
Ġab ys
con ian
Ġcont ention
ab ad
Ġco ven
Ġsa ch
are rs
Ġconc lusive
he ment
Ġinv aded
Ġover weight
Ġrel inqu
Ġho bby
Ġwell being
Ġmon net
Ġnational istic
Ġbud apest
pet itive
ail s
Ġdra conian
Ġcent red
Ġachie ves
Ġinstit utes
Ġmed ication
Ġmed ieval
Ġdown load
Ġsuc k
Ġap athy
Ġremain der
Ġspecif ies
Ġforward ed
Ġaw esome
Ġim o
Ġmor illon
Ġru ins
ime ter
Ġstat ue
Ġspecial ized
Ġdom estically
Ġamb ival
Ġ8 1
Ġ8 9
Ġve hement
Ġec sc
Ġcru x
Ġland mines
Ġgl am
Ġred isc
Ġbi ologists
Ġword ed
Ġital ians
Ġaud itor
Ġinteresting ly
Ġcampaign ing
Ġsen ator
Ġconstruct ing
Ġspeed ily
Ġboard ing
Ġpret ending
ik istan
Ġphys ician
Ġcontra ven
Ġstrugg led
Ġpan acea
Ġcateg or
Ġconver ting
Ġsto le
Ġprotest ing
Ġamaz on
Ġgal icia
Ġblue print
Ġbehavior al
ato yama
Ġpurch ased
Ġshad ows
Ġacknowled ging
Ġatmos pheric
Ġawa ited
Ġkil og
Ġded u
Ġparad ise
Ġapprox im
che z
bb els
Ġdan iel
Ġargent ine
Ġaward ing
Ġfrust rating
Ġinvent ory
Ġgrat ifying
Ġexhaust ive
Ġnic ar
Ġdup uis
Ġxenopho bic
Ġcere al
Ġcatal ogue
Ġinterview ed
Ġtroub ling
Ġwholehear ted
Ġase m
hist orically
Ġlam falussy
Ġinteract ing
Ġloud ly
Ġmcc ain
Ġadh erence
Ġflour ishing
Ġstret ched
Ġclimb ing
Ġclim atic
Ġsuperf icial
Ġrecur ring
Ġinterdepend ent
Ġfib er
Ġwil der
abul ary
Ġoverl apping
Ġnurt ure
Ġsolv it
Ġindebted ness
Ġovert aken
Ġtaj ani
norm ally
diff erent
ikh ail
Ġgoe bbels
Ġrecre ational
Ġantarctic a
Ġscrat ch
Ġgb p
ran ca
pie ce
Ġpragmat ism
Ġsie ge
compan ies
Ġfrict ion
Ġnois y
Ġsalaf ranca
apparent ly
Ġcumbers ome
vide o
Ġunten able
a ise
b ably
c ence
d ri
e zz
g on
h ir
m ight
m ium
n as
s an
s cience
u ities
u ating
Ã ª
Ġt ut
Ġa unt
re ally
at i
Ġw ool
Ġs ara
Ġc age
Ġo tt
Ġb il
Ġb end
Ġb ru
Ġm ice
Ġm lad
es ar
Ġf landers
Ġan ten
Ġh urd
Ġd or
Ġd ating
ar ted
Ġn od
Ġn erves
le aders
as ia
Ġg ol
Ġg ul
Ġg el
Ġi z
Ġu mp
id is
Ġy a
ol it
Ġal lied
ch ron
Ġwith hold
Ġun he
Ġun answ
ad ors
Ġse cession
ant i
Ġv all
Ġch al
Ġch ips
et ric
Ġpres ume
od ka
Ġk ib
all ah
Ġus sr
ig er
ab a
Ġfa re
Ġqu asi
lo ading
em er
ie u
Ġman h
Ġjust ifiable
Ġra f
Ġdec ree
Ġob asanjo
Ġbo thered
Ġinv o
act ivity
Ġhum ble
Ġmo ham
Ġconf ess
Ġpri est
rat ulations
Ġsit uated
ass oni
min ister
Ġemp ir
Ġnational ists
Ġmeas urable
Ġsc ape
Ġdra gging
wor th
Ġdifferent iate
Ġide ally
ount able
Ġgr Ã¶
Ġfr assoni
Ġobject ed
Ġem igration
Ġemploy s
Ġir rig
Ġrev iving
Ġdist racted
Ġresearch er
Ġsw ord
Ġfundamental ists
Ġret al
Ġret rospect
Ġpat ron
Ġmilit ant
Ġmilit arily
Ġenc l
Ġenc roach
Ġmis used
Ġfoc al
Ġmoment ous
Ġappropri ation
Ġgra y
Ġpot ent
Ġdisp ers
Ġvict or
Ġ7 1
Ġpack ed
ban ks
Ġdev oid
Ġgl ory
Ġdi ag
bo x
Ġeth anol
Ġ11 5
Ġwilling ly
Ġnight s
Ġwarm est
Ġcomment ing
ik o
set ting
Ġconfirm ing
Ġsex ually
Ġhost ilities
Ã¡ l
Ġdog matic
Ġgradu ates
ij i
urs ed
Ġsav ary
Ġuns u
Ġbound ary
Ġhur ts
Ġrid den
Ġurban ization
Ġ197 5
Ġgaz prom
Ġadvance ment
Ġfat ig
Ġbed room
Ġabstain ing
Ġprohib its
Ġmobil ize
Ġdiscip lines
Ġpred ators
cont ract
Ġthir teen
Ġmultip ly
Ġded uct
Ġsim ulation
Ġech elon
Ġdisplay s
Ġphotograph er
Ġnut ri
Ġminim ize
Ġken nedy
Ġdesp icable
Ġgross ly
Ġhence forth
Ġvoc abulary
Ġprofess ors
Ġprescri be
Ġtail ored
Ġcrash ed
Ġfisch er
Ġdisrupt ive
Ġinterview s
Ġdecentral ized
Ġrestaur ants
Ġapplaud ed
Ġiv ory
Ġembarrass ed
Ġsatur n
writ ten
Ġinsight s
Ġmaxim ise
Ġburn t
Ġaz nar
Ġintu ition
Ġconform ity
Ġrab bit
Ġarrog ant
fund ament
Ġamp lif
Ġoverl ap
Ġku wait
Ġconsp ic
Ġassign ment
Ġpas sions
Ġfert ile
Ġsquee ze
Ġthro at
Ġslu mp
Ġunle ashed
Ġmd gs
Ġspokes man
Ġrena ult
Ġinfer ior
Ġsidel ines
Ġrescu ed
Ġpredic ting
Ġstrang ers
priv ate
fail ure
Ġerr one
Ġcun ha
Ġchanne lled
Ġcleans ing
Ġupheav al
Ġlithuan ian
administ ration
cong ratulations
Ġunfav ourable
Ġrespons ive
palest in
amil iar
Ġfanatic ism
Ġanthe m
rais al
Ġstagger ing
Ġoversh ad
Ġgaul le
Ġstad ium
Ġdp j
Ġott awa
Ġunansw ered
1 6
9 8
a cious
b bing
f ear
g ically
g ences
i ently
j or
j ev
j amin
p ine
p akistan
r b
r g
s is
s af
u x
Ġt in
Ġt ub
Ġt ian
Ġa ce
Ġw ore
Ġw ired
Ġs ap
Ġs lic
er ous
Ġc ant
Ġo mitted
Ġp ond
an men
Ġm end
Ġm our
or g
Ġin k
Ġan archy
ed ed
Ġh ills
Ġd ive
Ġd ared
ro ll
Ġe pl
Ġre vert
as il
as por
Ġbe ans
Ġl orry
Ġst ain
ri ad
ill usion
Ġun ve
Ġun set
Ġun comp
Ġeuro barometer
Ġse greg
Ġex agg
Ġpar as
un ci
ci a
Ġhas ty
Ġwhich ever
Ġch op
am ins
Ġcan cers
Ġimp air
Ġk all
Ġk inder
ac le
Ġno stal
Ġpl ag
ap y
Ġyear ly
Ġtime frame
Ġmar ath
og as
ack ing
Ġra bb
Ġpolicy making
Ġop a
act ic
Ġgood bye
Ġpr ist
Ġreal ising
Ġreal istically
Ġtreat s
Ġgu ests
Ġhope less
Ġwar rants
Ġbu zek
Ġcent ered
Ġtransp osing
Ġdown s
Ġcost ing
Ġsmall pox
Ġimm un
per anto
Ġes f
Ġdist ract
ret ched
Ġshort coming
Ġextre mes
Ġreform ers
fin land
Ġmanage able
Ġperiod ic
Ġbre yer
Ġdraw ings
Ġlat vian
Ġ8 7
Ġcontain ers
Ġconnect s
Ġsubsid ise
Ġground work
Ġdi aspor
Ġpercent ages
Ġcla ude
Ġdoubt less
Ġavoid s
20 10
sh ot
Ġwal ter
Ġdocument ary
Ġmill en
Ġsens ors
Ġdr um
Ġsen sibly
Ġkid ney
ob il
Ġclar ifies
Ġconcept ual
Ġhar bor
Ġfil ed
Ġenh ances
Ġ17 0
Ġwid en
Ġphil anthrop
Ġut opian
Ġren ounce
Ġcast le
Ġmoun ted
Ġprior itiz
Ġreb u
Ġfit ted
Ġrestric ts
Ġuniform ly
Ġmotor cy
Ġparalle ls
Ġanaly ze
Ġgri ef
Ġgri ev
Ġ28 0
att an
Ġdiss olved
Ġenthusi astically
ches ter
Ġdesp eration
Ġjun k
Ġroman o
Ġjeopard y
Ġdav ies
Ġlad der
Ġah med
Ġphr ases
Ġtam il
Ġhall uc
Ġcultiv ated
Ġrevol t
Ġmel ting
Ġbeach es
Ġju ice
Ġcoc a
Ġunderpin ned
Ġairpl anes
Ġrival ry
Ġluc rative
Ġtank ers
Ġbeha ved
Ġaz ores
Ġhypo the
Ġtraum atic
Ġreorgan isation
Ġkeynes ian
Ġshipy ard
Ġreprodu ce
Ġsupermar kets
Ġunfold ing
Ġalt ru
Ġsolv ency
dec isions
produ ct
Ġlaure ate
Ġunle ash
Ġmam m
Ġlud ic
Ġaggrav ated
Ġlas er
Ġsket ch
geor ge
Ġeuph oria
Ġmoder ates
Ġschroed ter
Ġunint ended
Ġhin du
Ġpetro leum
Ġfern and
Ġappease ment
Ġlia ison
Ġunsuccess ful
Ġbosn ian
cred it
Ġelectromagn etic
Ġtraject ory
Ġottom an
afghan istan
transp arency
Ġmanh attan
Ġscape go
ĠgrÃ¶ ner
Ġexagg eration
c ale
e mp
e mployment
f lies
g ir
g iving
h ot
l ance
l ash
m aker
o ise
r un
r ally
t un
v ille
Ã ¯
Ä Ł
on ds
on ium
Ġw ol
Ġw urt
is ites
Ġs orrow
an ou
Ġb ak
Ġb bc
Ġf ancy
Ġd ated
Ġd uff
Ġd umb
ar r
ro es
Ġe ag
st reng
Ġl al
Ġon set
Ġst airs
ol ation
ol ese
Ġal tering
Ġde ment
Ġde lt
the t
ch anges
im mer
pp ers
qu ier
ist ence
Ġr iding
Ġcan v
Ġli ed
Ġimp ress
Ġab rupt
Ġus h
Ġpe an
oc racy
Ġmy riad
Ġout lets
ru le
Ġmar ty
ach ie
Ġra v
Ġra ge
Ġper taining
Ġinst antly
Ġtrans nistria
act s
Ġsub mar
Ġrem inis
Ġmon et
Ġref ine
Ġref resh
Ġfar ce
Ġdef ender
Ġpublic ations
Ġtal e
Ġbu c
Ġset backs
Ġglo omy
Ġcap s
Ġdown gra
Ġdown town
Ġide ologies
Ġhand ing
ov an
ov Ã¡
Ġfav ors
Ġins erted
ick ed
Ġgeneral ised
Ġdist ill
Ġexist ential
Ġple ad
Ġreform ist
Ġactiv ated
mit t
Ġann um
Ġcentral ized
Ġwater way
Ġbel ated
Ġdecl ines
Ġz oo
Ġstat ure
Ġstat istic
Ġ10 8
Ġtrad es
Ġdri ed
az a
Ġcut backs
Ġpa ved
Ġsk ies
Ġge o
Ġmet ropol
Ġprob able
Ġmen u
Ġgl aci
Ġoblig es
Ġavoid ance
Ġden ies
Ġbri bes
Ġcoll ision
Ġ12 9
Ġmill er
Ġsal ute
Ġdece ived
Ġvir al
Ġsepar ating
.. .
Ġste ve
Ġcompreh end
Ġje ff
Ġje ans
Ġhor rend
Ġdiplom at
dra fts
Ġnation ally
Ġfacilit ates
Ġrele ases
Ġpun itive
Ġtouch ing
Ġhur ried
Ġmusic ian
Ġexclud es
mar king
Ġcast ing
Ġball s
Ġformal ities
Ġwitness es
Ġpi ge
Ġtransl ating
Ġflag rant
Ġsyn onymous
Ġsyn chron
Ġadm irable
Ġdro ps
Ġexperiment ation
Ġalcohol ic
Ġtaiwan ese
Ġtremend ously
Ġic on
Ġnav igate
nat ural
Ġdiscrimin ate
Ġvietnam ese
Ġanticip ation
Ġannex ed
Ġnovel s
Ġswitch ed
Ġconven ed
Ġsuspic ions
Ġcook ed
Ġmisunder stood
Ġvit amins
Ġprejud ices
Ġroc kets
Ġcultiv ate
Ġingred ient
Ġmir rors
Ġrevers ing
Ġinterrupt ion
Ġcart oons
Ġdestabil izing
Ġrelax ed
Ġstamp s
Ġcoc aine
Ġgraph ic
Ġambass adors
Ġcatastroph es
Ġintermedi aries
Ġmas k
Ġham pered
Ġak p
Ġpir ker
Ġpione er
Ġpione ering
Ġempower ment
incre ased
Ġthri ving
Ġdiscoura ging
Ġinsol vent
quit ous
Ġkidn apped
Ġbuff er
Ġtaj ikistan
Ġomission s
Ġinadequ acy
Ġrepay ment
Ġunders c
Ġpeters burg
ushch enko
Ġtelecom s
Ġkir k
Ġempt ive
Ġepidem i
Ġtru ce
Ġexped ition
indust rial
Ġlod ged
Ġcous in
Ġhug o
Ġimpul se
Ġimpat ient
Ġdescend ants
Ġmock ery
Ġinflex ible
redu cing
Ġabduct ed
Ġcompatri ots
Ġhawai i
Ġshakes peare
Ġnewcom ers
Ġcalder Ã³n
ĠsÃ¡n chez
Ġlamber t
Ġrebell ion
Ġjel ly
Ãª te
Ġiz quier
Ġfatig ue
Ġtian anmen
Ġmamm als
Ġwurt z
Ġdelt a
Ġreminis cent
7 1
b en
c rit
d or
k ar
m ert
s feld
t rad
Ġt ier
Ġth ors
Ġth war
re ll
Ġw ives
en ecks
Ġb om
Ġb ret
Ġf erv
al an
Ġh ated
Ġh ip
Ġh int
Ġd amp
Ġd ick
Ġd irt
as co
st ock
st airs
Ġha mb
Ġha bs
Ġal pine
ill as
Ġun to
Ġsh red
Ġex ternally
Ġv are
âĢ ĺ
Ġpres umption
Ġr ude
Ġimp lying
Ġj aw
Ġhe el
Ġpol ling
Ġk iev
ig s
um in
ud ge
Ġad oles
Ġpl um
Ġdis illusion
Ġcomp rise
Ġreport ers
Ġcons ens
Ġcons ular
ts burgh
ink ed
me at
Ġpos ing
og ens
Ġbet ra
Ġdec ay
Ġdec rees
Ġtra il
Ġsp en
Ġsp ra
Ġfe ynman
Ġinv oke
Ġter rain
Ġlo ading
Ġlo opho
Ġiss u
Ġcl ue
Ġhuman kind
rat er
Ġdef y
Ġdef ends
Ġemp ires
Ġma i
Ġma pping
Ġinform ative
other apy
Ġlaw ful
Ġdown side
Ġlif es
Ġdep letion
Ġbl ast
ph al
Ġval le
Ġopportun e
Ġplan k
Ġplan etary
Ġproduct ions
Ġiniti ating
Ġprogress ed
par is
eng lish
Ġeas iest
Ġfavour ing
Ġbro ok
Ġshort est
Ġcri pp
Ġmis led
Ġmis fortun
ber lin
equ al
Ġgra v
Ġopt ing
Ġcomprom ising
Ġdisp ens
Ġhold er
Ġsk il
Ġweek ly
Ġune asy
Ġcirc ular
Ġpost ure
Ġ9 1
Ġorigin ated
Ġbri an
lam ation
Ġharmon ize
Ġregret ted
pl an
Ġconsist ed
Ġdistribut ors
Ġwhite head
Ġsuperv ise
Ġcomprehensive ly
Ġobst ruction
Ġcr unch
Ġunf amiliar
mes ter
sy ria
Ġcomplic ate
Ġstim ulation
Ġwid ened
Ġsav age
Ġegypt ians
Ġfederal ism
tur ns
Ġoccasion al
Ġcam el
Ġczech os
Ġstabil izing
Ġpreced ents
Ġnotice able
Ġ196 8
Ġarm aments
Ġdepth s
Ġselect ing
Ġcrow ds
Ġflag ship
Ġpunish able
Ġsyn thes
Ġembar king
Ġfashion able
Ġfost ered
Ġhaz ards
Ġapolog ies
Ġunit ary
Ġaustral ian
Ġpharmaceutical s
Ġdispar ate
Ġconve yed
Ġarbit r
Ġdiox in
Ġunderp ins
Ġcatal og
Ġcab in
Ġnaz ism
Ġsimultane ous
Ġmun ich
Ġdish onest
Ġpit tsburgh
omed ay
Ġabund antly
Ġdil igence
Ġreck less
Ġportfol ios
Ã§ ois
Ġchampions hip
Ġwors ened
Ġhaul age
Ġdefer red
Ġblat antly
Ġneu ros
Ġturbul ent
brit ish
Ġkla us
Ġghost s
Ġpreoccup ied
Ġrena issance
hy d
Ġdense ly
Ġlyn ne
Ġdischar ges
Ġhelicop ter
scient ists
Ġseaf arers
Ġsalv ador
Ġgig antic
Ġawak ening
Ġrenational isation
Ġchromos ome
Ġrhyth m
main taining
Ġinacc urate
Ġrecap ital
Ġsquand ered
Ġrevis it
Ġruth less
Ġcric ket
Ġjav ier
Ġcynic ism
Ġenlighten ment
Ġrenow ned
Ġgib ral
Ġmumb ai
Ġnicar agua
jev o
Ġdiaspor a
Ġizquier do
Ġloopho le
7 5
c ulture
c lose
f it
f ting
l ate
l ocked
m ult
p ric
p oll
r ina
r ushchev
s ustainable
t ops
v oc
z id
Ġ &
in ety
is ance
Ġs j
Ġs or
it ute
Ġp m
Ġp ere
Ġp ip
Ġp ants
an ide
Ġb uch
Ġm ikhail
Ġf rog
Ġf uss
Ġin ception
al le
Ġd iving
Ġd war
ar c
Ġe ts
Ġre use
om a
Ġi b
Ġl inc
Ġl Ã³
Ġu ri
Ġu bi
Ġcon sec
ol n
Ġal ber
ch a
ul sions
Ġnot ify
ill i
Ġme ter
Ġun worthy
Ġeuro control
Ġex ting
Ġv ind
Ġv odka
Ġen cycl
Ġch en
Ġk ac
Ġk ings
Ġk roes
Ġam mun
ig an
ud o
ud ron
Ġac ids
ab eth
Ġfa x
Ġneed ing
Ġinc ite
Ġinc oh
Ġright ful
Ġexp ires
Ġmar vel
Ġmar ÃŃn
pt ive
Ġra ck
Ġfe ira
Ġper ry
Ġinv ites
Ġro cks
Ġtrans itions
Ġmarke ted
Ġmo ore
Ġcommun iqu
Ġrel at
Ġconf u
Ġhigh way
Ġmon ies
lud ing
Ġmay ors
Ġnu mb
oll ar
Ġhel ms
Ġinter parliamentary
Ġsign atory
Ġcompet itions
Ġcol om
Ġserv ant
Ġca udron
Ġinf amous
Ġdeal ers
be ek
Ġcre ws
ater o
Ġcond oms
Ġrest art
Ġkind ly
Ġes c
Ġel usive
Ġcontribut or
Ġstar ving
Ġopp ress
Ġsuff erers
Ġdiscuss es
Ġfour teen
ber keley
Ġfall out
Ġgra pp
Ġgra ms
Ġer df
Ġdisp ose
Ġparticip atory
Ġwr ist
Ġfle mish
Ġmult itude
edi ment
atch ed
pris ingly
Ġ9 4
Ġmet ic
Ġve il
Ġver itable
Ġorigin ating
Ġmess y
Ġland mark
Ġdev ising
pr ince
Ġbi ogas
sp ort
Ġpurs ues
Ġcorrect ness
Ġinterv als
Ġeth n
Ġeth ic
Ġcod ified
Ġswed es
Ġsens ation
Ġcop ying
pl aces
Ġdr ank
Ġfirm ness
Ġsen seless
Ġdeleg ates
Ġhy brid
Ġsun nis
Ġunivers ality
Ġcontract ors
ex cept
Ġ13 7
Ġeight een
rep ort
Ġacqu ainted
Ġcompar ability
Ġmoral es
Ġattract iveness
Ġaband onment
Ġprofessional ism
Ġbos ses
Ġmag ical
eff ective
Ġpredict ion
Ġmc n
Ġmatch ing
Ġol mert
Ġfly nn
Ġuniform ity
Ġcrow n
Ġsyn thesis
sen beek
Ġkh rushchev
Ġcomplement arity
Ġdiss ol
Ġreinforce ment
Ġfrag ility
Ġdiagn ostic
Ġcompassion ate
Ġfasc inated
Ġiron ic
Ġsme lls
Ġbread th
Ġrot ation
Ġdup licate
Ġsubs istence
Ġcamb ridge
Ġambig uities
Ġenrich ing
Ġbreed ers
Ġdismant led
Ġmun itions
Ġrede fin
Ġalleg iance
Ġdiam onds
Ġvolunte ering
Ġjac ket
Ġextract ed
Ġdivid end
Ġscan ners
Ġfue ling
Ġincorrect ly
Ġautomob iles
Ġneur on
Ġmedi ator
Ġlung s
Ġdiscret ionary
Ġencompass ing
ser bia
Ġscra pping
Ġepis odes
Ġspa wn
Ġreef s
Ġzo om
wal k
Ġinstinct s
Ġqua est
Ġfried man
Ġvag ina
impro ving
Ġrecru ited
Ġcum ulative
Ġsymptom atic
inf lation
Ġcarte ls
Ġsore ly
Ġuc its
Ġpedest rians
Ġtay lor
Ġbeliever s
Ġwij senbeek
Ġmong olia
Ġamate ur
Ġyanukov ich
Ġchimpanze es
Ġzap atero
Ġflor ida
Ġuntou ched
langu age
Ġpeas ants
Ġnorweg ian
Ġhondur as
Ġillegit imate
Ġglimp se
Ġredisc over
Ġhurd les
Ġhypothe tical
Ġludic rous
streng then
Ġdement ia
drafts man
Ġhabs burg
Ġvare la
Ġconsens ual
Ġspen cer
Ġlinc oln
ĠlÃ³ pez
6 0
a gh
b ad
d t
d ar
d ial
e pt
h al
n ame
s im
y on
Ġth ief
re lig
on ents
at ia
Ġs ine
Ġs ank
Ġs ulf
Ġc er
Ġc ds
Ġc ensus
it is
it ors
Ġp unch
Ġp ills
Ġb inary
Ġm ired
es y
Ġf od
Ġf ills
Ġh an
Ġh ul
Ġh atoyama
ar gent
Ġand rew
Ġn ick
Ġre cessions
Ġbe ware
st ant
il ar
Ġg addafi
Ġl v
Ġl dp
Ġl aughter
ut ive
ot es
ur i
Ġy ushchenko
Ġal ia
Ġde lusion
ra ham
Ġun ifying
Ġun bear
Ġun related
Ġcomm ended
Ġsh un
Ġsh aken
Ġsh irts
and an
Ġpar ach
Ġdo om
Ġv a
Ġat yp
Ġr al
Ġcan ce
Ġimp ract
Ġj ury
Ġab ound
Ġab norm
Ġint ract
ac ross
con versely
um en
reat ed
si p
Ġdis ag
Ġmy st
Ġact a
Ġfin ite
Ġman chester
te e
Ġsa ud
Ġsa iling
ia h
og ical
ok en
ial s
Ġtra w
Ġtra ces
Ġtra ctors
Ġthink ers
Ġworld view
Ġbo il
Ġover fishing
Ġgovern s
row s
Ġstr at
ath ic
Ġjo ins
Ġprot agon
Ġfar age
Ġend ow
Ġend emic
Ġreal ization
Ġent rop
Ġ19 20
Ġgu ise
Ġsc aled
Ġsm iling
Ġback yard
Ġback lash
Ġinter actions
Ġcent rally
Ġcap it
Ġbl aming
Ġhand some
Ġnegoti ator
Ġben jamin
com put
Ġread ings
Ġes peranto
Ġmil an
Ġfish ed
Ġconstit uted
Ġdist ressing
Ġopp ressive
light s
arm ed
Ġlab s
Ġaccess ing
Ġcivil isations
Ġexpl oded
Ġfull est
Ġsl ots
has a
cise ly
Ġcontain er
inde pend
Ġec ologically
Ġsuper iority
Ġgl ut
Ġreflect ions
Ġdi vert
Ġfear ful
Ġbri be
Ġaud iences
Ġrich ness
Ġdiv isive
Ġprepared ness
Ġeth ically
Ġimag ery
Ġstri pped
Ġund is
Ġspace craft
Ġdece ive
Ġlegit imately
Ġcircumst ance
Ġens uing
Ġmal aise
Ġmig uel
Ġspeed ed
iss au
Ã© t
Ġclar ifications
set Ãªte
Ġsil va
Ġrein vent
Ġnegative ly
Ġannoun cing
ex p
ex cuse
Ġfil mm
Ġcooper ated
Ġhost ed
Ġcommunic able
Ġpun ishing
Ġder ives
Ġassemb led
Ġsett lers
Ġhur dle
Ġut ility
rant ed
Ġang les
Ġtoler able
Ġsell s
mar ket
Ġreb ate
Ġsac coni
pro bably
Ġmc don
Ġreaction ary
Ġmos quit
Ġpersu asion
Ġphilosoph ers
Ġideal ism
Ġdirector ates
Ġq atar
Ġgar rig
Ġow ed
Ġkn ocked
Ġkh an
Ġcas p
Ġendeavour ing
Ġsacrif icing
Ġwis er
add itionally
Ġhair cut
russi an
Ġbow l
Ġstead fast
Ġfool ed
Ġexhaust ion
Ġarbit ration
Ġbrand s
Ġabst entions
Ġunh cr
Ġprerequ isites
Ġintense ly
Ġunjust ifiable
Ġexacerb ating
Ġring ing
Ġrum sfeld
Ġbreakthrough s
Ġhesit ant
Ġbitter ly
Ġretail ers
Ġaffirm ed
Ġinconsist encies
Ġdivor ced
Ġtransplant ation
tra ff
Ġmedi oc
Ġimpartial ity
Ġexpon entially
Ġmunicip alities
Ġnurt uring
produ ction
Ġsquee zed
Ġcomplac ent
Ġbund es
Ġdisturb ances
Ġautoc ratic
Ġauthentic ity
Ġlud ford
Ġpreach ing
Ġprerog ative
Ġstig mat
Ġidi ot
Ġepidem ics
Ġnich ol
Ġhydro carbon
Ġanomal y
Ġreinst ated
Ġyard stick
Ġcad mium
Ġdolph in
Ġincompet ence
Ġintrins ic
comb ating
Ġcoerc ion
Ġperv asive
lat in
Ġgros setÃªte
Ġkau ppi
luck ily
Ġsew age
Ġhemis phere
cro atia
Ġplut onium
Ġdysf unctional
Ġpent agon
Ġmaneu ver
Ġendang ering
Ġrespir atory
Ġsach s
Ġsara jevo
Ġepl p
Ġopa que
Ġhorrend ous
Ġuri be
prince ton
Ġatyp ical
Ġgarrig a
3 7
b ol
b ud
e ing
f ted
f air
f rench
h ill
h ima
i arity
n els
p rop
r Ã©
s mes
u ble
v ania
v ili
w itz
Ã ł
Ġt ink
Ġa ires
en os
Ġp ree
Ġp Ã©
Ġb ip
Ġto ss
Ġto lls
Ġf ren
Ġf idel
ou st
Ġh ij
Ġd ull
ro bi
Ġbe lls
ot le
Ġst iff
Ġst alled
Ġal an
Ġne y
Ġme ag
Ġun con
Ġun iting
Ġeuro med
Ġse aled
Ġse mester
Ġex h
Ġex od
ust er
li um
Ġv ine
Ġv atic
Ġv anish
est ine
Ġen ron
et ta
Ġli k
Ġhe b
Ġhe ck
Ġab hor
Ġk a
Ġk ahn
Ġk ohl
Ġint ending
ak ash
Ġrep rehensible
Ġpart ition
Ġpe ers
Ġpl ast
Ġneed less
Ġtr ash
lo ve
Ġdis en
Ġout ra
Ġri pe
Ġcomp os
Ġcomp ounded
Ġbec k
Ġwork load
Ġup ro
ag ne
Ġapp rent
Ġapp raisal
Ġcons ort
Ġte l
me l
Ġev ap
Ġjust ifying
pt ic
Ġhow itt
Ġra ging
ine es
Ġdec im
Ġbo b
Ġbo oms
Ġinv iol
form er
uch ma
Ġsub contract
Ġacc red
Ġbas ics
lud ed
Ġadd icted
Ġadd icts
Ġla v
art in
Ġass erted
Ġhelp less
Ġtal es
Ġreason ed
Ġca pp
uc ked
Ġfav ored
Ġav iv
Ġequ atorial
Ġcor p
Ġthank ed
Ġins ur
Ġpur vis
Ġsw amp
Ġshall ow
Ġcong olese
Ġregul ates
Ġfl ame
Ġprof iling
Ġexpl ode
Ġmilit ia
Ġann a
Ġrece ipt
Ġthought ful
Ġsl ums
Ġmis inter
Ġyoung est
Ġ6 9
Ġhon ored
Ġdoub ly
den ed
den mark
Ġharm less
Ġ8 3
Ġmet ric
Ġ15 2
Ġlos er
Ġgl orious
Ġill um
Ġcle arest
Ġfo res
Ġcoll ins
Ġexam ines
Ġmal administration
pre cisely
Ġchair manship
ls son
Ġconcent rates
Ġrein teg
Ġfre er
Ġstra it
Ġlog istical
Ġheav ier
Ã¶ stedt
Ġtun nels
Ġdestro ys
Ġvision ary
Ġcard iov
Ġbeautiful ly
Ġsho ok
Ġcoal itions
Ġconver ge
Ġcub ic
Ġbelong ed
Ġamaz ingly
Ġdisappe ars
Ġplant ed
Ġgal van
Ġvari ant
Ġrecall s
Ġtit les
Ġprosec utions
Ġbackground s
Ġali ens
Ġunfair ly
sub sid
Ġcheap ly
Ġenhance ment
Ġzimbabwe an
Ġstream lined
Ġpassion ately
Ġforecast ing
Ġroman ians
Ġdiscrimin ating
add y
Ġmurd erers
Ġjeopard ised
Ġfab ulous
Ġmathem atic
Ġconven e
Ġdivers ified
Ġinput s
Ġsuit case
Ġcollaps es
Ġpestic ide
Ġunus ually
Ġrandom ly
Ġexemp ted
Ġweigh ing
Ġhind rance
Ġdivid ends
Ġdisin teg
Ġattribut es
fif ty
Ġspectac le
Ġtum ors
Ġtermin al
Ġignor ant
var o
Ġreop ening
Ġsink ing
Ġdinos aur
Ġprovin cial
Ġreprodu ction
Ġdenomin ated
Ġcommem orate
Ġblan ket
Ġkat rina
Ġdisgu ise
Ġlen in
Ġconfed eration
Ġpreval ent
Ġstif le
Ġvolcan ic
hel p
Ġgi ants
Ġtechnoc ratic
Ġteleph ones
Ġdolph ins
Ġschizophren ia
Ġpier re
Ġfest ival
Ã¤n en
Ġinherit ance
Ġovere st
Ġtheat re
Ġorganiz ational
Ġstumb ling
Ġcush ion
Ġshri mp
Ġron ald
Ġunsc rupulous
Ġore ja
Ġabdu ction
Ġunimag inable
Ġvin ci
Ġbottl enecks
Ġsparse ly
Ġstevens on
Ġwilder ness
worth iness
Ġdiag ram
Ġmillen nia
Ġlal umi
Ġczechos lovakia
Ġgibral tar
Ġsj Ã¶stedt
Ġdwar f
Ġquaest ors
Ġintract able
Ġexod us
Ġvatic an
akash vili
Ġcardiov ascular
2 1
4 5
b lo
b road
e at
h ri
h our
j on
p in
p urs
r d
s f
t isa
u an
w ich
Ġ Ã¶
Ġs d
Ġc ess
Ġc ared
it ations
Ġp aren
Ġb issau
Ġm au
or ig
or ative
Ġf p
ou m
Ġin ext
al tern
Ġan es
Ġh end
Ġh ull
Ġh Ã¤
Ġh ipp
Ġd ÃŃ
ro ts
ro pri
Ġe li
Ġe go
Ġand ean
ent ually
Ġn ai
Ġn aming
Ġn inth
le ting
as ide
ve ll
il ly
Ġg ently
Ġg amble
Ġl ing
Ġwe iler
Ġfor ging
se v
pe ts
Ġst aunch
ra mm
ch anging
ill er
Ġun ra
Ġun true
Ġsh ots
Ġse oul
ant e
Ġv end
qu iet
Ġr ic
Ġso ber
Ġli ps
Ġor den
Ġab iding
Ġk on
Ġk an
Ġk uchma
Ġdis eng
Ġdis bur
Ġout do
Ġup wards
Ġexp iry
Ġexp osing
Ġexp ropri
are l
Ġcons erve
Ġcons igned
Ġar ithm
Ġmar io
Ġsp ani
ric ate
Ġro lled
tain s
Ġleg end
Ġoff spring
Ġstr ings
Ġmat the
Ġmat ernal
Ġjo e
Ġmon arch
Ġadd itions
Ġcur ves
Ġemp er
Ġma ils
get ting
Ġown s
Ġsc aff
Ġbu ys
Ġdifferent iation
Ġaff lu
Ġca pe
Ġimpro per
Ġbus quin
be at
Ġdep ended
Ġbl as
Ġbl ink
Ġbl ows
Ġobject ivity
Ġspeci ally
av an
par alle
Ġfound ers
Ġart if
Ġbor rell
Ġpat ernity
Ġfl own
Ġprof iles
Ġann ih
Ġmis pl
Ġce os
Ġbur gl
Ġche at
ber ger
Ġtrad able
Ġgra mm
Ġprogramm ed
Ġparticip ant
Ġune ase
Ġoil s
Ġfair y
Ġoppos es
Ġmus card
Ġground ed
Ġdam asc
Ġdi ary
Ġdi ame
Ġcy anide
ev entually
Ġsan ct
Ġara ble
Ġharmon ized
Ġtemp ting
Ġsens ory
Ġquot es
Ġsco ld
yl vania
any body
Ġsun set
Ġfoot steps
Ġstra its
Ġsuperv ising
Ġcr us
unt ary
Ġpiece meal
Ġclean ed
Ġdoor step
Ġhost ing
Ġdream t
Ġ17 5
Ġcontra ction
Ġgrand parents
Ġwo e
Ġcondition ing
Ġthor ny
Ġdig ging
Ġmem o
Ġ197 6
Ġentit lements
Ġx x
Ġinspect ed
Ġliter ary
Ġboost ed
Ġsurf aces
Ġunique ly
Ġment ally
Ġbattle field
gen eral
Ġmos ques
Ġpersu ading
Ġrecip es
Ġcalcul us
Ġbrother hood
Ġmotor ways
Ġreconcil ing
Ã¼ r
Ġendeav oured
Ġadm ired
Ġintens ification
Ġcommand s
Ġmicro phone
Ġhat zid
Ġic ty
Ġic ao
Ġpse udo
Ġjeopard ize
Ġmanifest ations
Ġfur ious
Ġcrash es
Ġmuseum s
Ġauthoritarian ism
Ġsecular ism
Ġvit amin
Ġtact ic
Ġcul mination
Ġmira cles
Ġfinger prints
Ġherz og
Ġcompli ments
Ġmyth s
Ġstagn ant
Ġacute ly
Ġpap ua
Ġspons or
Ġdeflation ary
sch ool
Ġinject ion
Ġcorrespond ence
Ġsmugg led
Ġbio eth
Ġmaxim ize
Ġinjust ices
Ġcrack down
Ġskept icism
Ġpatri otism
Ġsant ini
Ġfol ly
Ġpir ates
Ġelev enth
Ġneglig ible
Ġattent ively
Ġsupervis ors
Ġscandina via
Ġthr illed
Ġilliter ate
geor gia
Ġdissemin ating
Ġcolumb ia
Ġindiscrimin ately
dog an
stud ies
Ġenqu iry
Ġfeat ured
ĠÎ µ
Ġperse ver
Ġdiscard ed
Ġfanat ical
Ġpour ing
Ġadmis sible
Ġinexp ensive
Ġconced e
Ġregen eration
Ġphy si
legisl ation
implement ation
Ġdisplace ment
Ġjuven ile
Ġindict ment
harm on
Ġintrans igence
Ġforci bly
Ġglam orous
Ġirrig ation
Ġconspic uous
Ġmarath on
Ġrebu ilt
Ġubi quitous
Ġconsec utive
Ġencycl op
Ġammun ition
argent ina
Ġunbear able
Ġnichol son
Ġmeag re
Ġcapp ato
tisa ari
Ġinext ric
Ġarithm etic
Ġscaff old
Ġmispl aced
Ġmuscard ini
Ġhatzid akis
0 2
4 8
b ot
b ner
l ical
l ants
l inson
m ers
t age
w ab
x ed
y ans
z ai
Ġt and
Ġt em
Ġa pe
at ollah
Ġw en
Ġw itch
Ġw rap
Ġs id
Ġs chn
Ġs ins
Ġs omeday
en sibly
Ġo li
Ġp iz
Ġp airs
Ġb ib
Ġb aker
Ġm ps
Ġto es
Ġto go
al it
Ġan a
Ġan onym
th est
th ma
Ġre ced
as ian
st ore
il ia
Ġl ender
Ġy uk
ol ics
ri ger
Ġnot or
res py
ir ut
Ġun qualified
op y
os ures
Ġpar ked
Ġv ou
Ġv ang
ess entially
Ġr ust
Ġimp lant
Ġj ugg
Ġhe m
Ġab using
Ġk ad
ll able
Ġpe l
Ġfa ction
Ġpl ates
ren ces
Ġinc itement
iz ers
te lling
Ġapp alled
Ġsa akashvili
Ġmar ia
el ing
Ġdem ograph
Ġsp y
ip ts
Ġover c
Ġover s
Ġtw ins
Ġsub commit
Ġacc using
Ġgen om
Ġconf ines
Ġstate hood
Ġdirect ing
Ġmon archy
Ġref riger
Ġquestion na
itiz ed
Ġprotect ions
Ġbu g
Ġban ner
bal gs
Ġtransp lants
Ġbeh old
Ġca fe
Ġinf lam
Ġsimp son
ph em
Ġap ocal
uc king
Ġunderstand ably
per form
Ġbal d
Ġtax ed
Ġrese mble
Ġspecif ying
Ġbusiness man
Ġcreat or
Ġsing ular
aps ed
Ġclo th
Ġbar rels
Ġpat ently
Ġcong ression
Ġloc ate
Ġrece ipts
Ġbel ts
Ġsl ash
Ġkey board
Ġbur ns
ug al
Ġaffect ion
Ġcourt esy
Ġanim ation
Ġer oding
Ġbrit tan
Ġharm ing
Ġvict ories
Ġge ological
Ġ7 50
Ġtom linson
Ġcirc ulating
Ġten ure
Ġ8 8
Ġpost war
Ġve al
Ġver ifiable
Ġec j
Ġorigin ate
cri bed
Ġgreen er
euro pol
Ġred ouble
Ġrepe al
Ġcross es
Ġill s
Ġdebt or
ev ol
Ġasse mble
Ġrich es
Ġcritic izing
Ġimag ing
Ġpie balgs
Ġrecon sid
Ġsens ing
Ġsubstant iated
Ġsen ators
Ġcat ania
Ġrail road
Ġrein vig
Ġhar ris
Ġ14 5
Ġton ne
Ġprospect ive
Ġoccup ies
Ġpra ying
Ġcra dle
Ġrele asing
Ġrob bed
Ġrob otic
Ġforg iveness
tur ned
Ġadapt ability
Ġprotest ant
Ġ197 1
Ġsell ers
Ġradical ism
Ġoptim ise
Ġconce ive
Ġquar rel
nor th
Ġpsych ologists
agree ment
cons umer
Ġpredict ability
Ġgold stone
Ġlength s
Ġpatent ing
Ġrh ine
Ġimper atives
Ġreass urance
Ġstrange ly
Ġwaters hed
Ġawa its
Ġhal ted
Ġdepri ving
Ġstream s
Ġstream lining
Ġken yan
Ġmit igating
Ġdan es
Ġliber ated
Ġmurd erer
cap es
cap acity
Ġfi asco
Ġfab re
Ġresort ing
Ġdiver gences
Ġplural ist
Ġplural istic
Ġpul ls
Ġvent ures
Ġreward ing
Ġassert ive
Ġmarginal ized
Ġmaster y
Ġattain ing
Ġcarri age
Ġheight ened
ifor is
Ġchile an
Ġtor res
Ġcaut iously
Ġadvent ures
Ġdestabil isation
Ġadh ering
Ġsli pped
Ġembarrass ment
Ġsensit ivities
Ġinterconnect ions
Ġunwilling ness
Ġlap tops
Ġmont real
Ġemail s
Ġmi ke
Ġrecur rence
Ġpatri arch
Ġresid ues
Ġaver ted
Ġdefici ency
Ġ193 3
Ġbasel ine
Ġhi ros
Ġelev ated
Ġuncond itionally
Ġupgra de
Ġdrag on
Ġneu rolo
Ġunc overed
Ġgreed y
Ġkat iforis
Ġaller gies
Ġreintrodu ce
pat ients
Ġaven ue
Ġaven ues
Ġfierce ly
Ġdrow ning
Ġflav or
Ġschroed er
Ġay atollah
Ġhelicop ters
Ġfanat ics
Ġsed u
Ġcarcin ogenic
Ġstan ford
chem ical
Ġtow ers
Ġimpot ence
Ġtomato es
Ġbah rain
Ġcomed y
Ġrou ge
Ġsiber ia
Ġoutsour cing
Ġaub respy
Ġchal k
fundament al
ÄŁ an
Ġplum met
Ġethn ically
Ġmcn ally
strengthen ing
dial ogue
Ġentrop y
Ġpersever ance
Ġtand em
Ġvang uard
9 0
b ag
c ill
d an
d ent
g a
h um
h em
k b
k in
t u
t oc
t ight
v s
v io
v Ã©
z abeth
Ġa ig
Ġa ided
at ism
at to
Ġw ag
Ġs ain
Ġs Ã¶der
Ġc ough
Ġc mo
Ġo min
Ġo pel
Ġo mn
Ġb olog
Ġm oura
Ġm ier
Ġf t
Ġin ali
Ġh umb
Ġd wind
ic an
th ood
st eria
il let
Ġg ale
Ġg ni
Ġi ra
Ġl apse
Ġu m
Ġcom ic
Ġst all
Ġst ern
Ġst oring
Ġha ck
Ġal ten
Ġal ps
Ġde ceptive
ra c
ra pid
ri min
ch witz
ul as
Ġun check
Ġun conscious
Ġeuro pa
ad ding
Ġex otic
Ġen zy
Ġr ash
Ġr oure
Ġcan al
Ġimp aired
Ġj aze
ect ed
Ġor anges
Ġres ide
Ġk am
ac on
ak able
Ġrep udi
Ġrep licate
Ġad ul
Ġcont ested
Ġpe at
oc ating
ish a
Ġfa cial
one l
Ġdis pel
Ġdis quiet
Ġout lining
Ġout stri
Ġri p
Ġri ot
Ġri ft
de p
Ġapp reh
Ġco pper
Ġcons ign
Ġnew ton
Ġev ils
og enous
he llo
Ġra ft
Ġra ys
Ġra iny
Ġsp ike
Ġper f
Ġcl ay
Ġho ol
Ġmat ri
Ġgroup ing
Ġhigh lands
Ġnu isance
Ġdef ective
Ġend lessly
Ġsol bes
Ġrequ isite
Ġgu ides
Ġview points
Ġset back
Ġban otti
ici ently
Ġcol ored
Ġcol oss
isl am
Ġfra ught
Ġfra mes
be h
Ġsch um
Ġsch Ã¶r
Ġbl essed
Ġins ens
Ġnegoti able
Ġwhe els
do ÄŁan
Ġcare less
Ġstruct urally
Ġsw ine
Ġger hard
Ġclose t
Ġvis ibly
Ġmilit ants
Ġbel li
Ġtimes cale
Ġz ana
Ġche que
equ ality
Ġty ph
Ġer ode
Ġer dogan
Ġemphas izing
Ġlight ning
Ġant id
Ġver bat
Ġtest ify
Ġport al
Ġbi oc
Ġbi osphere
Ġhun ters
bo b
bo ards
Ġimpos sibility
Ġnorth west
Ġpaper work
Ġexam s
Ġcandid acy
Ġflex ibly
Ġcal ib
Ġcal ories
Ġpoll ute
Ġmer ge
Ġrecon f
Ġcop ing
Ġunaccept ably
Ġbul b
Ġbul lets
Ġmal es
not e
not es
not withstanding
know ing
Ġinvestig ative
Ġcha mbers
Ġdeleg ate
rest rial
Ġauthor ization
Ġhar ry
Ġship ments
Ġblo gg
ma jor
Ġcontract ed
Ġ14 9
Ġoccup ations
Ġcra cks
Ġdon ald
ij k
Ġpublish ers
Ġintention ed
Ġexec ute
respon sibility
Ġintellig ently
Ġtro op
Ġbomb ard
Ġ197 8
Ġenforce able
Ġrestruct ured
Ġfat alities
200 5
Ġmark ov
Ġmc guin
Ġcamer oon
Ġreiter ates
Ġmobil ization
Ġfer ry
Ġdiscip lined
Ġflood ed
Ġmotor way
Ġexpansion ary
Ġbol st
Ġq e
Ġfran Ã§ois
Ġkn ocking
Ġentail ed
Ġstream line
Ġcomplement ed
Ġremed ied
bre aking
Ġneglect ing
Ġkar zai
bar oness
Ġlands capes
Ġdav os
Ġdiver ted
Ġplural ity
Ġfasc ist
Ġtic king
Ġah tisaari
Ġtast ed
Ġtail or
Ġsupre m
Ġassert ions
Ġsequ ences
Ġclin ics
off s
Ġjurisdict ions
Ġdisrupt ions
Ġbath room
Ġgrasp ed
Ġtreas ure
Ġnomin ate
ĠÃ ¥
Ġsli pp
Ġunex pl
democ ratic
Ġtrigg ering
Ġextract ive
Ġpand ora
Ġaffirm ative
Ġgraph ics
Ġmart ens
Ġassass inated
Ġpoison ed
Ġintermedi ary
Ġtag s
Ġintimid ated
invest ors
Ġtank er
Ġskept ics
Ġresid ue
Ġbrid ging
cor rect
Ġuncom petitive
Ġbudd h
Ġanch ored
Ġkilomet re
Ġencompass es
fund ing
Ġcanc un
Ġeru ption
Ġven ice
Ġsymmet rical
Ġembod ies
aks in
Ġbric ks
Ġkidn apping
Ġcarl os
Ġstun ned
Ġ192 9
Ġdissemin ate
Ġcharm ing
Ġvolcan o
Ġangel illi
Ġinsure d
Ġost ensibly
prov iding
business es
Ġdeport ation
Ġportra it
Ġbhut to
disc ussions
199 9
supp ose
Ġalph abet
Ġpon der
Ġross a
Ġeleg ant
Ġassimil ation
Ġappend ix
Ġvoy age
Ġmund us
onge vity
Ġseiz ure
Ġvehement ly
Ġkilog rams
Ġapproxim ation
Ġempir ical
Ġerrone ous
asil in
Ġsegreg ation
Ġkall as
Ġgriev ances
Ġthwar ted
Ġmisfortun e
Ġbuch arest
Ġcommuniqu Ã©
Ġfod der
Ġmcdon ald
Ġplast ics
Ġlalumi Ã¨re
Ġemper or
Ġdamasc us
Ġcongression al
Ġinali enable
Ġuncheck ed
Ġjaze era
ĠschÃ¶r ling
Ġverbat im
3 00
9 5
b g
c ry
d ie
e le
f i
f am
f ighting
g al
g ling
k k
m ust
n ature
p m
p ace
p loy
r ice
s sel
t est
Ġt ips
in ative
Ġw aging
Ġs igh
Ġs ino
er d
Ġc t
Ġp es
an ct
Ġb ach
Ġm ous
Ġm Ã¼
Ġf ist
Ġf iji
Ġd orm
Ġd aring
ro v
ent er
Ġn t
Ġis a
Ġbe lo
il and
il der
Ġg ah
Ġi bra
Ġl d
Ġl ure
Ġl ining
Ġl ongevity
Ġwe u
id y
Ġha it
ow itz
Ġy ards
Ġas thma
ul ators
ay ot
Ġne ander
Ġun acc
Ġun war
Ġcomm enced
pp Ã¤nen
op ulation
op athic
Ġsh ir
Ġse ppÃ¤nen
Ġex or
Ġpar ish
Ġv iv
Ġle ather
Ġch ef
Ġch lor
Ġall ud
Ġr ation
Ġr udi
Ġr yan
Ġr asmus
Ġso ap
us c
Ġj ams
Ġhe in
Ġab er
Ġk not
Ġint imate
Ġus age
Ġrep rocess
Ġad s
Ġpe asant
Ġdis respect
Ġout fl
Ġcomp art
Ġwork places
Ġreport er
Ġyear ning
Ġsa ves
Ġmar in
Ġmar row
lic ation
Ġra cing
Ġdec ency
Ġunder cut
Ġtra ced
Ġob ese
Ġtrans ist
Ġstr ides
ful f
ful l
lect ed
rat ives
Ġmon ks
read ing
Ġuse fully
Ġma id
Ġtur mes
itiz ation
Ġcar p
Ġcar ic
Ġsm et
Ġsm iles
Ġbr un
Ġsign alled
Ġaff ront
Ġcommon place
Ġform ulas
Ġlif esty
isl av
Ġlegisl ating
ph y
Ġem ble
Ġem itted
Ġta hri
Ġshe ikh
Ġsaf est
Ġsur rend
Ġthank ful
Ġthank fully
Ġins iders
Ġvi kt
ros anct
Ġel apsed
Ġpract icing
Ġed ition
Ġpeace keepers
Ġviol in
Ġret ic
Ġret ina
Ġsumm ed
Ġactiv ate
Ġcolle ges
Ġfight s
af ield
Ġz ed
Ġperiod ically
Ġbur ton
Ġche ated
Ġtrad em
Ġgra ves
Ġopt ical
az ir
Ġamerican ism
Ġgener ational
Ġhear ted
Ġfig uring
Ġred irect
Ġred wood
Ġdi arr
Ġhun ter
Ġdebt ors
Ġcand y
Ġcand le
Ġflo at
jo int
Ġrenew ing
cer ity
Ġislam ism
Ġcomput ation
Ġhistor ian
Ġdr illing
Ġquot ing
Ġtack les
Ġanti qu
Ġwarm th
pre par
Ġhy steria
Ġpenal ising
Ġship ment
Ġship owners
oph er
Ġcompens ating
Ġord in
Ġsize able
Ġdy n
Ġcomplic ity
Ġdream ing
Ġresist ing
Ġsho ots
Ġfederal ists
Ġassemb lies
Ġforg iven
Ġaccident ally
Ġisol ating
Ġinspect or
Ġinad vert
Ġcast e
Ġfavor ites
Ġpsych o
Ġvig our
Ġmac artney
Ġnar ratives
Ġsac rosanct
Ġrecall ing
eff orts
Ġgold man
Ġvan ished
Ġcollabor ating
Ġted talk
Ġreserv o
Ġfrank lin
Ġfrank fur
comp are
Ġmobil ising
Ġalarm ed
Ġmultip lied
Ġmagn etic
Ġpil g
mon th
Ġdetect or
Ġmold ovan
Ġmouth s
Ġanx ieties
jud ging
Ġchief s
Ġdiagn ose
Ġaccomplish ments
Ġmanip ulating
Ġdefault s
Ġinvent or
Ġrot ten
Ġnic kel
Ġredund ancy
opol itan
Ġrush ing
Ġcab otage
Ġstupid ity
Ġshel ves
Ġutil ities
Ġsubstit utes
Ġcalm ly
Ġcosm opolitan
Ġrede ploy
Ġdiam etric
sad dam
Ġinfl ated
Ġsatur ated
Ġlev ied
Ġattribut able
Ġmush rooms
Ġalien ated
belie ve
Ġobsc ene
Ġacced ed
Ġharass ed
Ġnap les
Ġnap olit
Ġrect ified
Ġbeha ves
Ġgrab bed
Ġderiv ative
Ġescap ing
Ã§ a
cor por
Ġpoem s
Ġhinder ing
Ġhi ke
Ġschol ar
prom oting
ĠÂ °
Ġhaul iers
conf lic
Ġdiscred it
Ġgro cer
Ġvirgin ia
Ġ140 8
Ġscream ing
Ġpeters berg
Ġhandic ap
Ġastronom ical
Ġcock tail
Ġcontag ious
Ġbog ged
Ġreinst ate
Ġlee way
Ġther mal
Ġcort ex
Ġintrins ically
Ġww ii
Ġbhut an
Ġworksh ops
coun cil
Ġdismay ed
Ġrelent less
Ġunderval ued
Ġparam ilitary
Ġmetab ol
Ġlah ti
Ġabys s
Ġpean uts
Ġimpract ical
Ġnai robi
Ġdiame ter
Ġinextric ably
Ġpiz za
Ġsubcommit tee
toc in
ĠsÃ¶der man
Ġbolog na
Ġgale ote
Ġalten er
Ġrasmus sen
Ġlifesty les
Ġtahri r
Ġnapolit ano
1 00
4 4
7 0
a ires
b ri
c ross
d ers
d est
g art
h c
h ire
l ab
l ack
n inety
s ame
s ound
w all
Ġt ach
Ġt ipping
Ġth ai
Ġw re
Ġw rest
Ġc ured
Ġo v
Ġo etting
Ġp ork
Ġb ore
Ġm p
Ġm um
or us
or ms
Ġf id
Ġf aint
ou ri
Ġin mates
al ay
Ġan ach
Ġh ig
Ġh ates
ar ist
ar ial
le ans
th ur
as tern
om fort
Ġbe ver
Ġbe ast
Ġl un
Ġit er
Ġst en
Ġst air
Ġha y
ch air
ul in
ay ann
ill ions
Ġne lson
Ġme te
Ġun not
Ġun rep
Ġun mist
Ġun fulf
ter rey
im medi
Ġsh aky
ant ing
Ġpar cel
qu ality
Ġgo ats
et t
et ti
Ġr ud
Ġr ans
Ġso cks
Ġcan yon
Ġwas tes
Ġj oking
Ġhe ars
Ġor ally
Ġor leans
Ġthere after
Ġab atto
Ġk abil
con cil
ig l
ig ious
um ines
Ġmust er
Ġcount ies
ab el
Ġno x
ap t
Ġcomp iled
Ġman ag
Ġman power
Ġright e
te ach
Ġcons cient
Ġcons olation
Ġar k
ach ed
Ġany time
Ġsp ade
ric k
Ġover arch
Ġlo vers
Ġlo aded
Ġleg o
Ġcl ing
ath ed
Ġprov oking
Ġlong standing
Ġclear ance
Ġrem ot
Ġstate less
Ġmat er
Ġdisc omfort
Ġmon terrey
Ġla z
Ġdef icient
Ġma es
Ġdes erving
Ġtur b
Ġher ring
Ġher oin
Ġsc aling
olog ues
Ġview ing
ail able
Ġbu zz
Ġbu enos
bal ance
Ġhim alay
Ġcompet itor
Ġcol onel
Ġmed al
ten ing
Ġsuc c
Ġplace ment
Ġlit igation
Ġprin ter
Ġgr ind
Ġdep rez
Ġbl ak
Ġris king
Ġnor theast
Ġap es
Ġsur gical
Ġequ ations
Ġwish ful
she ll
Ġben evol
Ġread just
Ġstar ve
Ġfl ax
fin ished
Ġair bus
ib ia
Ġhome owners
Ġmor ph
Ġcentral isation
Ġsou ls
Ġpal m
Ġpal p
Ġpal li
Ġindepend ents
Ġeur lings
Ġgener ator
Ġbra d
ash a
Ġpa asilin
Ġlight weight
Ġge e
Ġcirc ulated
Ġamb ul
Ġ8 4
Ġve t
Ġver b
Ġver ified
Ġcamp us
Ġmodern ize
Ġbi ologist
soci ety
Ġill ogical
Ġrad ar
Ġrat s
Ġsea water
Ġimag ining
Ġtrust ing
Ġvo j
every where
Ġstri fe
Ġfed er
Ġsecret ly
ton y
Ġtemp oral
Ġdeg en
Ġsepar ates
Ġste ak
Ġblack list
Ġpath etic
Ġdiplom as
Ġlog ging
Ġ14 4
Ġpakistan is
Ġton nage
Ġtre ason
ene y
Ġfif a
put ting
Ġsubsidi aries
Ġcub ans
Ġprotest ed
Ġbelarus ian
Ġcoast guard
Ġphenomen al
Ġsell afield
Ġconce aled
Ġcore per
Ġvari ables
Ġnar cot
Ġmark er
Ġsight s
cons erv
Ġtransl ates
Ġment or
Ġadmit ting
Ġcry st
ns ch
Ġcrow s
Ġfem ales
Ġpunish ments
Ġdefe ating
Ġadm its
Ġdub bed
Ġdub ai
mon etary
Ġkh mer
Ġupd ates
appro x
Ġyield ing
year s
iti us
Ġsand wich
Ġdur ban
Ġvoc ation
Ġmanifest ly
Ġjump ing
Ġlag s
book s
Ġhusband s
Ġ194 8
osy n
Ġbroadcast s
Ġenshr ine
rec ogn
Ġpromin ence
Ġvenezuel an
Ġbreed s
Ġutil ised
Ġcath ed
Ġcath olics
Ġband s
Ġparadox ically
Ġ195 7
ell hardt
Ġmisle ad
Ġoxy tocin
japan ese
Ġsin ister
Ġsin cerity
Ġcambod ian
Ġpap ayann
Ġethi opian
Ġspons ors
Ġinsult s
Ġlev ies
Ã¡n dez
Ġjar gon
Ġpoison ing
Ġpoison ous
fif th
Ġaqu atic
Ġregain ed
Ġrival ries
Ġspin elli
Ġhav oc
Ġrecur rent
Ġaver sion
Ġprec urs
Ġreop ened
Ġnit rates
Ġinfin itely
Ġasymmet rical
Ġalg ae
Ġassault s
Ġterrif ic
vention al
Ġmaur itius
Ġelectron ically
Ġindul gence
Ġko z
Ġfertil izer
Ġmeg aw
Ġari as
Ġeman cip
Ġmonu ments
Ġritual s
Ġinterreg ional
Ġstig ma
Ġredef ined
Ġerect ed
Ġadvertise ments
Ġcher ry
Ġanomal ies
Ġconting ency
Ġblunt ly
Ġeuroscept ics
brid led
Ġincompet ent
Ġimpl ants
mil k
Ġleak age
Ġunb und
Ġwra pped
Ġafflic ted
Ġpow der
Ġconsci ously
Ġoligarch s
Ġanatom y
Ġvic inity
Ġtramp led
hon ourable
pract ice
Ġreleg ated
Ġsup ern
Ġconfig uration
struct ural
Ġanten na
Ġtub es
unci ation
Ġmetropol itan
Ġjelly fish
pric es
Ġsaud is
Ġcess ation
ĠhÃ¤ nsch
Ġunra vel
Ġblas phem
Ġschn ellhardt
Ġhiros hima
Ġmier t
Ġmcguin ness
Ġsuprem acy
Ġibra him
Ġunwar ranted
Ġvikt or
Ġdiarr he
Ġdiametric ally
Ġoetting er
Ġanach ron
Ġmanag erial
Ġoverarch ing
Ġpaasilin na
Ġnarcot ics
Ġpapayann akis
) (
a is
a ving
b ling
c ats
c reating
d ain
e ge
f ly
g am
h uge
h app
h enko
k atell
l od
n d
n umerous
o bo
s uff
s arkozy
t ts
t ances
u pon
u Ã©
y r
y ang
z h
Å Ĥ
Ï Ħ
Ġt u
Ġt se
Ġt res
Ġt we
Ġt ang
re ction
re la
at tering
is o
Ġc is
Ġc it
Ġc ries
Ġc ress
Ġc cs
Ġp und
an na
Ġb m
Ġf ighter
Ġan emic
Ġd azz
ar ab
ent e
Ġre ver
Ġre cept
Ġre app
Ġre ceptive
Ġbe gging
Ġbe irut
st art
Ġg lu
Ġg ns
Ġwe gg
Ġwe ars
Ġst oning
Ġpro pe
Ġpro state
Ġha ke
Ġcon n
ol s
Ġal umin
Ġal varo
ra ble
ch o
Ġun bridled
Ġsu pers
Ġsh ah
Ġsh alit
Ġse ism
Ġse gments
and estine
Ġpar don
un s
ich ester
we alth
Ġle aked
Ġgo ose
Ġch au
Ġch unk
Ġch ichester
Ġpres erves
Ġr ut
Ġr ous
Ġcan e
us ually
Ġj ou
Ġj eg
Ġj ensen
Ġhe ap
end ijk
Ġk i
Ġk r
Ġk ovÃ¡
out i
our ished
ac a
all o
Ġrep ressed
ll ari
Ġpe ar
Ġac res
ab y
Ġpl ague
Ġdis like
Ġdis ney
Ġdis dain
Ġact ress
Ġunion ists
Ġstates man
ag os
Ġexp ulsions
are z
Ġte leg
lic able
ach use
pt ure
Ġhow ard
he w
Ġra ined
Ġra mos
ine v
Ġdec k
Ġunder foot
Ġtra katell
Ġsp er
Ġind iv
ind ones
Ġbo ots
Ġbo iling
Ġover capacity
Ġro gue
Ġcl andestine
Ġcommit s
Ġdisc ord
Ġmon str
Ġref ined
Ġma pped
Ġma ij
Ġent ang
Ġ19 00
Ġprotect or
Ġsm iled
Ġinter tw
Ġinter mod
Ġwar heads
Ġener g
Ġinstit uted
ten stein
Ġca v
Ġtechn icians
Ġinf ancy
Ġmod us
Ġ20 25
Ġgr ids
Ġsch Ã¼
Ġsch wab
Ġest onian
ph ones
Ġinde c
Ġvi b
Ġread able
Ġposition ing
gg ish
gg age
let t
Ġstar ved
Ġmight y
Ġtechnolog ically
Ġbro ch
Ġsing led
Ġess ay
Ġfac ult
Ġviol ently
fort y
Ġret ard
Ġreform ists
Ġfl ush
Ġguarant or
Ġprevent able
mad e
Ġbank er
Ġz ion
Ġstat utes
Ġty mos
Ġgra des
Ġer doÄŁan
Ġdisp ense
Ġident ifiable
edi ence
Ġfinal ise
Ġdeep ened
Ġve ld
Ġmass ively
Ġmass achuse
Ġsubsid ising
Ġsuper b
Ġsuper st
lay s
rupt ion
Ġmodern ised
Ġmodern izing
Ġcoll ar
Ġclass rooms
sh ame
Ġeth os
Ġcomplex ities
Ġsal vation
Ġdr c
Ġmig rate
Ġcou ps
Ġbuy er
Ġ18 5
Ġsun k
ann i
Ġstra ined
Ġdefence less
Ġlu ggage
Ġarr anging
ex amp
Ġfil ip
Ġfil ters
Ġcooper atives
Ġnice ly
Ġpra yer
Ġcro cod
Ġtun ing
Ġchem otherapy
Ġdon ated
Ġtransform ations
Ġintention ally
Ġautom ated
mos cow
Ġsoft ly
Ġcourage ously
Ġarch ives
Ġpleas ing
osp ace
Ġradical isation
Ġgaz e
200 7
Ġstabil ized
Ġhospital ity
pro ble
Ġjournal ism
Ġvill agers
Ġsearch ed
Ġbed s
Ġtransl ator
Ġspect er
Ġrational ity
Ġmountain ous
Ġsusp ending
Ġreiter ating
Ġod a
Ġod ys
Ġsake llari
Ġdeploy ing
Ġphotograph ed
Ġfault y
Ġshi pped
Ġmaced onian
Ġindis put
Ġkeen ly
Ġrhetor ical
fall s
Ġinvent ing
Ġlag endijk
Ġcomfort ing
Ġprescri ptions
Ġ194 7
port ugal
Ġmarginal isation
Ġmathemat icians
Ġdismiss al
state ment
Ġinstruct ive
Ġburdens ome
Ġmcc artin
Ġtribun als
Ġmel ted
tal ks
Ġremit tances
Ġstret ches
Ġscan ning
trans port
anas ia
Ġcofin anced
Ġpremature ly
Ġhang s
Ġlobby ists
Ġaer ospace
Ġpriorit ised
jour nal
high er
Ġhurric anes
conf idence
Ġrender ing
Ġcontempl ating
Ġef d
Ġobstruct ed
Ġteen ager
simp lif
Ġdeposit ors
elect ions
Ġaus chwitz
Ġadvers ity
Ġorthodox y
Ġinadequ acies
Ġsty les
Ġdegrad ed
Ġimplicit ly
Ġlament able
Ġconqu ered
Ġunden iably
Ġmonu mental
Ġcolumb us
Ġphysic ists
Ġspontane ously
Ġdent ist
Ġmast ered
Ġmiscon duct
Ġtechnoc rats
Ġker ry
Ġaggress ively
scient ific
Ġpsychiat ric
Ġesteem ed
Ġathe ist
Ġgau ge
Ġanno ying
Ġpunct ual
Ġnep ad
Ġworksh op
Ġskelet on
bir ds
Ġeh ud
Ġorb Ã¡n
Ã¸ rg
Ġarist otle
aud ience
Ġblur red
Ġineffect ual
Ġmoham med
saf ety
Ġscapego at
thet ics
Ġkirk hope
Ġepidemi ological
Ġbret ton
Ġarbitr arily
Ġconfu cian
Ġbundes bank
Ġsd rs
Ġeli zabeth
Ġdiseng agement
ĠÎµ u
Ġnotor iously
Ġcoloss al
Ġtach ograph
Ġunnot iced
Ġunfulf illed
Ġkabil a
Ġtres pass
Ġgns s
Ġwegg en
ĠkovÃ¡ cs
Ġtrakatell is
Ġmonstr ous
ĠschÃ¼ ssel
Ġtymos henko
Ġmassachuse tts
Ġsakellari ou
Ã¸rg ensen
0 5
1 3
4 6
7 7
a qu
b in
c d
c ov
c ling
d ist
e w
f inding
g ender
h m
h ung
k osov
m ind
m ah
n ard
n ine
o ys
o Äį
p ra
p ack
t im
t ens
t ok
u ant
v d
v iable
z hen
Ã ¦
Ġt il
Ġt ud
Ġth under
Ġth aksin
Ġa ar
Ġa eg
Ġa wards
in ke
Ġthe sis
at ur
at ter
at temp
Ġo ust
Ġo ven
it ism
Ġp icks
Ġb ren
Ġf red
Ġf ateful
Ġf bi
al cul
Ġan ecd
Ġh ers
Ġd uck
Ġd dt
Ġn umer
Ġre or
Ġre hear
st rict
il a
il legal
Ġg ur
Ġg room
Ġi as
Ġl id
Ġl loy
Ġl anes
se ts
Ġst ing
Ġst aged
Ġpro li
Ġpro be
Ġha iled
ra h
Ġeu th
res ist
ill o
ir respective
Ġun sp
Ġun welcome
Ġun finished
op us
Ġse ves
and re
Ġv oid
Ġv idal
un ks
est im
Ġch i
Ġch ase
Ġch uck
Ġch eney
âĢ ¢
Ġall ay
Ġso ils
Ġli king
Ġimp lements
Ġimp ediment
Ġj ak
Ġj Ã¶
Ġj Ã¸rgensen
Ġhe ath
Ġab ortions
Ġab raham
Ġpol ledo
Ġk l
Ġk re
Ġcommission s
Ġint angible
Ġrep rog
Ġpe res
Ġfa res
pport ion
si zed
Ġdis sip
Ġri fe
du ous
Ġcomp act
Ġup stream
Ġprop he
te lla
Ġsa vers
wh ose
ens uring
Ġpo ppy
Ġar c
Ġar duous
Ġmar vell
ok o
Ġpolic emen
Ġjust ifications
Ġra j
Ġspe ar
Ġspe lls
Ġtra gically
Ġdem arc
Ġsp ut
Ġsp am
Ġsp ills
Ġsp oil
Ġper nic
Ġind us
Ġbo oth
und oubtedly
Ġover see
Ġover seeing
Ġro the
Ġbas ing
Ġgen oa
Ġeven ly
Ġwell s
Ġfinan ci
Ġmon ol
Ġmay nard
art a
Ġass erting
Ġcar ol
Ġcar ved
Ġcar tel
Ġview ers
Ġprocess ors
Ġcol ours
Ġca f
Ġca usal
Ġfore cl
Ġmod alities
Ġprin ts
be y
Ġdep ress
Ġdep icted
Ġsch uman
Ġear ns
Ġta pping
Ġrest raints
Ġcor als
Ġvi i
Ġfree ing
Ġproject ion
eng er
do ctors
Ġpract icable
Ġdist orts
Ġdist ressed
Ġsw ings
Ġstart ling
Ġhist ories
Ġret ali
Ġsumm ers
Ġcolle g
Ġann ul
where ver
Ġcomb inations
Ġchar ities
Ġbel ly
Ġsl am
Ġz ip
Ġ10 5
erv ice
Ġ6 50
Ġid ly
Ġconsequ ent
Ġpot oÄį
Ġeast ward
Ġdraw backs
Ġsk irt
Ġjud icious
Ġcirc us
Ġmult im
Ġprep ares
Ġlink age
Ġlink oh
Ġport rayed
Ġgl ue
Ġclos es
Ġaut ism
Ġwaste ful
Ġclass ify
Ġ30 8
Ġcod ification
Ġfront al
Ġdeg ener
Ġneighbour ly
Ġconduct or
Ġmig uÃ©
Ġcell phone
Ġmut ations
Ġchair ing
Ġsad c
Ġexplo sions
Ġauthor itative
Ġauthor isations
Ġ198 2
Ġcover t
Ġsex y
Ġrepl aces
Ġhar iri
Ġship w
Ġslo pe
Ġbush ill
Ġprovision ally
Ġcomplain ant
anim al
Ġwealth ier
Ġtun ed
Ġdon ate
Ġoct opus
Ġcard board
Ġder ail
Ġhom age
Ġfire works
Ġbon de
Ġbon temp
Ġattract s
Ġadvoc acy
Ġhur ting
Ġcondition ed
Ġcub e
Ġut opia
Ġadapt ations
Ġquant ified
Ġ197 2
Ġ197 7
Ġcoast line
Ġsqu ab
Ġremo ves
Ġcast s
Ġproc lamation
Ġmag ist
Ġmag ician
Ġfort night
pro per
Ġswe ater
Ġdism al
Ġep a
Ġarm strong
ba o
Ġcheap est
Ġblind ed
Ġpred ator
Ġvacc inated
Ġcoff ers
Ġintens ifying
Ġperpet uate
Ġanaly zed
Ġtrip led
Ġemotion ally
Ġaspir ing
commun ist
Ġnarrow ly
Ġfrag a
Ġresort ed
Ġdiver ge
Ġrecy cle
Ġfrust rations
Ġecho es
Ġecho ed
Ġchamp agne
Ġsn ake
Ġsn akes
Ġconven iently
Ġmanifest o
Ġbow e
Ġinvent ors
Ġorient ated
Ġrot ate
Ġreloc ating
Ġattain able
Ġcab rol
Ġadequ acy
Ġreaff irms
Ġjer k
Ġprosecut ing
Ġdress ing
Ġpromin ently
Ġcoinc ides
Ġcompli ant
Ġreaffirm ing
Ġpit tella
col lect
urg ent
Ġbid ding
Ġinse parable
Ġrw andan
Ġinsult ing
Ġmart ÃŃ
Ġmagaz ines
Ġtheore tically
Ġfue lled
writ ing
Ġexhib it
Ġalien ation
Ġtag ged
global isation
Ġdeval uations
Ġcrush ing
Ġfol k
Ġcomparative ly
Ġprec lude
Ġbee keepers
Ġhill ary
Ġhorrif ying
Ġastr onaut
Ġcyn ically
Ġempower ing
Ġclust ers
Ġsanction ed
Ġcurtail ed
Ġinsurg ents
Ġhub ris
cop es
Ġhumili ated
Ġinterl inked
Ġslu ggish
Ġstub b
const itutional
Ġmeg a
Ġee a
Ġpengu in
Ġmonu ment
Ġflav our
Ġpenet rate
Ġspark ed
Ġreson ance
Ġeditor ial
Ġscrutin ise
Ġproph et
Ġimprov ise
bers pace
Ġcous ins
Ġschizophren ic
Ġshout ing
Ġcoerc ive
Ġmultif unctional
Ġconfisc ated
Ġadmis sibility
Ġinaug uration
bir th
Ġrevel ations
Äĥ u
Ġxia obo
Ġlaps es
Ġingen ious
Ġintrig uing
Ġmaat en
Ġcalam ity
Ġculprit s
Ġbegg ar
Ġtransc ends
consid ering
Ġtox ins
Ġaeropl anes
Ġoverhe ating
Ġcharism atic
Ġgel at
Ġya wn
Ġkib aki
Ġunsu itable
Ġplag ued
Ġprist ina
Ġaltru ism
Ġdistill ation
Ġpige on
Ġdissol ve
stant ial
ĠpÃ© rez
Ġheb rew
Ġoutra ged
Ġconsort ium
purs uant
Ġmatthe ws
Ġtyph oon
Ġunrep orted
Ġrighte ous
Ġsucc inct
Ġunbund ling
Ġblasphem y
Ġdiarrhe a
Ġcress on
Ġjeg gle
inev itably
indones ia
kosov o
Ġaeg is
Ġproli fer
Ġseves o
ĠjÃ¶ ns
ĠpotoÄį nik
Ġlinkoh r
ĠmiguÃ© lez
Ġbontemp i
6 5
b os
b ler
c p
c ke
f s
f is
f lex
g ant
h le
j ah
k os
k ers
l ower
l ords
m ic
m ountable
n ets
o en
p ared
r c
r ud
s b
z o
Å ĳ
â Ļ«
Ġ ion
Ġa pportion
Ġw art
Ġw right
Ġs r
Ġs ow
Ġs no
en so
Ġc em
Ġc ep
Ġp upp
Ġb p
Ġb light
Ġb amb
Ġb lix
Ġm es
Ġm int
Ġm alf
Ġm acc
Ġf ences
ion age
al as
Ġh ens
Ġh ats
Ġd as
Ġd oses
Ġd iana
ro it
Ġand or
Ġn an
Ġn af
th ought
Ġre appe
st e
Ġg ad
Ġg os
Ġg ab
Ġg Ã¶
Ġl ords
Ġu l
Ġwe ep
ment ation
Ġcon not
ol umines
ri e
ke ting
Ġnot icing
Ġne arer
Ġme mb
Ġun paralle
Ġeuro c
ad ic
ter dam
ge l
li p
ant opoulou
Ġdo ve
Ġv ase
un cture
qu et
Ġle mon
Ġle aks
mb led
et tered
Ġr ationally
Ġso b
us z
od ies
Ġli ech
Ġj ill
Ġhe els
Ġres h
Ġthere of
Ġab usive
Ġk lam
out side
Ġam eli
Ġpresid ing
Ġus able
ig ent
Ġad jac
mber g
Ġac oust
Ġfa it
one lla
si xty
Ġtr illions
now here
ag all
me ier
Ġpos itives
Ġbet ray
he y
he ld
Ġra ces
ine e
Ġspe lled
Ġunder lies
Ġunder development
Ġtra inees
Ġsp ouse
Ġob e
Ġway side
Ġrec laim
ace ted
Ġover turn
Ġover load
Ġover turned
Ġro d
Ġro ses
Ġlo oms
Ġhum our
Ġtwo fold
Ġbas har
Ġho od
cept ions
Ġcountry men
Ġnu anced
ass uming
Ġla und
Ġla wn
Ġquestion er
art oum
Ġdevelopment al
Ġher bal
Ġhapp iest
Ġcar rots
Ġbr unt
Ġbu cks
Ġbu gs
wor n
cip linary
Ġcompet encies
Ġdown stream
Ġameric as
Ġmod ifying
Ġbus k
Ġregion ally
Ġdep orted
Ġcond one
Ġph oen
Ġap ol
Ġval ent
Ġimm ort
Ġseem ing
Ġtax ing
Ġstep hen
Ġpur ple
Ġdist raction
Ġpop ulous
Ġcreat ors
Ġsing h
Ġtri pol
pri or
Ġbar red
Ġvis ually
Ġoper ative
ger man
Ġessential s
Ġgre ening
Ġpen ns
Ġty res
Ġ201 8
Ġer ratic
az i
Ġdesign ations
Ġbra ke
Ġpa ving
Ġharm ed
Ġpric ed
Ġfocus sed
Ġinnov ators
Ġant on
Ġant ib
Ġbook store
orm ick
omet own
Ġec ol
Ġsubsid ize
rupt ed
Ġred es
Ġbi ologically
Ġbi olumines
Ġrepe aled
Ġstory telling
Ġteach ings
Ġdim it
Ġconsult ants
Ġcandid ature
Ġimag inative
can ada
Ġsal ad
Ġdece it
aff ected
Ġislam abad
Ġcop ied
Ġoccur rences
Ġmand ated
Ġpain fully
Ġbul lying
Ġmal awi
pre vent
pre vention
Ġcommer cially
Ġcell ular
Ġperfect ion
Ġ18 00
Ġcomment ary
Ġ... .
Ġfoot wear
Ġsil vio
Ġstra uss
Ġphys icians
Ġcr ank
Ġcombat ants
urd y
Ġcommercial isation
Ã¶ t
Ġunf ettered
Ġtun g
Ã¡ r
ij s
Ġrob les
Ġwid est
Ġhom o
Ġhom ogeneous
br ush
Ġheads car
ta iwan
Ġren ovation
Ġang uish
Ġinev it
Ġbulgar ians
Ġdark er
Ġfat ty
Ġfaith s
pro of
Ġsearch es
Ġos ama
Ġproud ly
Ġtrack ed
Ġcollabor ators
Ġrational ise
Ġpersu asive
Ġsympath ise
Ã¼ n
Ġendeav or
Ġluck ily
thes ia
gu arant
Ġconfront ations
Ġdisplay ing
Ġequival ence
Ġvac ant
Ġkh artoum
Ġcas ini
Ġmicro bes
Ġwild ly
sight ed
Ġkar am
Ġgun shot
Ġshut ting
Ġacquis itions
Ġanticip ating
Ġenlar ging
Ġpul se
Ã¤ ki
Ġah ern
Ġmanifest ed
Ġconve ying
Ġnord en
Ġrot terdam
Ġsubs erv
Ġreloc ate
Ġtrick ed
Ġlabel ed
Ġbold ly
Ġcatal an
Ġsale h
Ġaccommod ating
su per
Ġseason s
Ġridic ule
Ġexacerb ates
Ġsunday s
Ġcosm ic
Ġreme mbers
Ġpit iful
Ġdestabil ising
Ġhesit ated
Ġmyth ology
col m
Ġsomal i
Ġble eding
Ġjail ed
Ġstret ching
Ġharvest ing
Ġpump ing
Ġinject ions
Ġpin point
Ġpool ing
Ġallev iating
Ġluc id
Ġexagger ate
Ġbloc s
Ġsant os
Ġanalog ous
Ġferre ira
Ġkiss ed
cor ruption
Ġterrif ied
list en
list ening
exper ts
Ġwolf owitz
Ġef sa
Ġef sf
ĠrÃ¼ hle
Ġcircu its
Ġaller gic
Ġcoach es
Ġselfish ness
specif ic
Ġmild ly
Ġkla ÃŁ
Ġeman ating
Ġstrand s
Ġastronom y
Ġpolite ly
Ġesp ionage
Ġbutt ons
Ġquad ras
nar rator
Ġgif ted
Ġalgor ithm
Ġseparat ist
Ġconting ent
indust ry
ji ang
Ġther m
Ġpsychiat ry
ref erence
Ġfu ji
bring ing
Ġswallow ed
Ġww w
Ġmultif aceted
Ġbron ze
Ġheral d
Ġkel ly
isse z
Ġdesc ended
Ġmim ic
Ġcron ies
Ġwarri or
Ġvalen cia
Ġjewel ry
Ġguerr illas
adop ting
Ġbil bao
Ġump teenth
Ġnutri ents
Ġunve iled
oise ach
Ġsubmar ine
Ġbuc ket
Ġglaci ers
Ġbom bed
Ġlifes pan
Ġredefin ing
Ġcance led
Ġabnorm al
traff icking
Ġmathematic ian
blo od
Ġdisbur sement
Ġartif acts
Ġencyclop edia
Ġreprocess ing
Ġzed ong
Ġinadvert ently
Ġfrankfur t
Ġambul ance
approx imately
Ġpund its
Ġintertw ined
examp les
tok yo
Ġeuth anasia
ĠmartÃŃ nez
Ġwart ime
enso hn
Ġunparalle led
Ġliech tenstein
Ġklam t
Ġadjac ent
Ġphoen ix
Ġpenns ylvania
3 8
8 9
9 2
a ves
b ird
c f
c ases
d av
d rug
f oc
g reen
i ment
i ks
i ors
k ay
k man
l ar
m onella
n ice
o let
r ank
s ignificant
t ms
t welve
u ates
u ary
v ict
Ä Ĺ
Ġt es
Ġt ending
Ġt ires
in tegration
at ical
Ġw ig
Ġw ie
Ġw retched
en stedt
Ġc ages
Ġo u
Ġo y
Ġo un
Ġb ish
Ġb red
Ġb av
Ġb jer
Ġm ullah
Ġto e
Ġf ame
Ġf ade
Ġf Ã¼
Ġf oul
Ġin active
al ina
al ba
Ġan ew
Ġh os
Ġh ann
Ġh inges
Ġd m
ar ium
ar gu
ar ray
ro ck
Ġand reas
Ġre ne
Ġre ins
Ġre aring
as er
as ingly
ve t
Ġbe acon
st ates
il ated
il ton
Ġg em
Ġg uts
Ġl ur
Ġl ance
Ġl ends
Ġl Ã¤n
Ġwh ip
se ven
Ġcom ics
Ġha unted
Ġy ass
Ġal ibi
ul atory
ay ev
gh etti
Ġne oc
Ġne ural
Ġun do
Ġun ify
Ġun ison
Ġun inter
Ġsu e
Ġsu g
Ġeuro group
ad z
pp enstedt
op in
Ġse l
os ki
li ble
ere y
Ġpar an
Ġv enge
Ġv owed
Ġat lant
Ġle opard
so ld
mb rance
Ġch ast
Ġch ave
et e
et al
Ġpres umed
am mar
Ġcan opy
Ġj ol
Ġres ale
Ġthere in
end um
Ġk ou
Ġk iv
Ġint ake
Ġint imately
Ġrep ar
Ġad ri
Ġac cessions
Ġfa una
Ġ1 000
lo v
Ġdis b
Ġdis soci
Ġdis array
em u
em ission
Ġri be
Ġri gged
Ġinc alcul
Ġimport er
Ġsa xon
Ġpre ts
Ġnew est
ens ical
Ġar row
Ġmar co
ach es
Ġspe culate
ide ally
Ġdevelop ers
Ġinv ade
Ġinv asive
Ġinv itations
Ġter restrial
Ġlo ver
Ġlo fty
Ġsy l
Ġcl an
Ġcl amp
ks w
row ing
Ġstr angle
ween ey
Ġbas hir
Ġlong ing
Ġho ppenstedt
Ġdisc lose
Ġmon soon
lud ge
Ġref ere
Ġdef enses
Ġreal ises
ile aks
own ess
Ġass erts
Ġwar ring
Ġach illes
other mal
ina i
Ġdown right
ribut ion
Ġlit re
Ġrespect fully
ather ine
Ġprin cess
Ġem as
Ġrest ing
Ġrest ate
Ġcontro llers
Ġes a
Ġmil o
ys ical
Ġeas ter
Ġed it
Ġspecif ics
sw ana
Ġsuff rage
Ġsw ap
Ġtri ang
Ġeng ulf
mpt on
Ġbor is
Ġfl ock
Ġair ways
Ġmor als
Ġpass ages
Ġpass ively
Ġloc om
ck o
Ġchar coal
Ġmis ses
co res
Ġfarm land
Ġyoung sters
Ġadminist rators
Ġcapital ists
Ġgra Ã§a
Ġdoub ted
Ġrom ans
Ġwa h
Ġge othermal
some how
just ice
ims y
Ġobs erves
Ġec st
cri pt
cri be
Ġdev iate
Ġdev otion
Ġdev otes
Ġdecided ly
Ġport o
Ġgl oss
Ġsort ing
Ġcy berspace
Ġbi omed
Ġfear ing
Ġden ouncing
Ġbri bery
Ġemb ro
Ġkill ers
ior i
inst on
Ġimag inary
Ġworth less
Ġcircum s
Ġcollect ions
Ġsal monella
Ġmer ging
Ġ11 2
Ġrecon nect
Ġvir rank
Ġcampaign ed
Ġcounter ing
gar ia
pre viously
lin der
Ġkosov ars
Ġcou ch
Ã© r
lom er
Ġult ras
Ġwind ing
Ġsurv ives
Ġpush es
Ġprospect us
Ġconserv atism
Ġpra ising
Ġaccomp li
des ign
Ġfraud sters
sy stem
Ġcontra ception
Ġtro jan
Ġgrand ma
Ġwo es
Ġsymbol ism
Ġrid ge
Ġquant ify
bor g
umer able
rich ard
Ġsurve yed
Ġpsych ologist
Ġczech s
Ġreb ound
Ġjudge ments
Ġprohib itive
Ġ196 2
Ġmos cov
Ġod ious
Ġhu h
Ġsympath ies
Ġinfring ing
asm uch
tr ust
Ġsick ness
Ġinsuff iciently
gu y
Ġsim on
imp ortant
Ġphotograph y
Ġic onic
Ġunpre pared
Ġshi ite
Ġkar ab
Ġabsor bing
Ġmodest y
Ġroll er
Ġsand s
Ġconfron ts
aph r
Ġveget arian
Ã¤ r
Ġgrave ly
Ġskin ner
Ġfool s
Ġprescri ptive
Ġcook ies
Ġsuic idal
Ġcrash ing
Ġirrespon sibility
Ġaccum ulating
Ġjer sey
Ġaccommod ated
person al
Ġinstruct ed
Ġoverlook s
Ġmira cul
Ġutil ization
Ġtear ing
Ġband w
bul garia
sm oking
Ġreme mbrance
Ġpossess ed
rats a
Ġdestabil ise
Ġmcc artney
Ġdiam and
Ġdiam antopoulou
Ġath lete
Ġjail s
Ġtrigg ers
Ġneighborhood s
Ġrelax ing
Ġfro st
Ġaffirm ation
Ġster il
Ġscan ner
Ġpeak s
Ġdilemm as
Ġtill ich
Ġtempt ations
Ġencoun tering
Ġtag ging
Ġduplic ated
Ġstalin ist
Ġstalin ism
Ġlobb ies
Ġcrack ed
Ġniger ians
Ġsighted ness
Ġinflic t
Ġbarbar ism
Ġgor ge
soon er
Ġhorrif ied
polit ics
Ġimped ed
Ġimped ing
Ġoffset ting
Ġfib res
Ġchampions hips
Ġdwell ers
Ġnas cent
Ġantibi otic
Ġreimb ursed
Ġdiscoura ges
Ġkeys er
protect ing
Ġoverr ide
Ġsubordin ation
Ġload s
Ġcurtail ing
Ġindefin ite
Ġdecoup led
Ġlaure ates
afric an
Ġspa ghetti
Ġinadequ ately
Ġteles copes
Ġmd g
Ġwhis ky
Ġhandic apped
Ġski ing
Ġpenet ration
Ġeuph em
Ġmarx ist
Ġouter most
Ġmiscon ception
Ġpredic ament
Ġeuroscept ic
Ġneat ly
Ġperse vere
Ġanno yed
Ġartic ulate
Ġartic ulated
Ġantagon ism
Ġpronounce ments
Ġalas ka
Ġdisconnect ed
Ġtat too
reach ing
Ġalph a
Ġcoward ly
Ġtheor ists
Ġconsci ences
Ġxia oping
Ġtitan ic
Ġmant ra
Ġles b
Ġcater ing
Ġunin hab
coordin ated
Ġpac kets
Ġfalcon er
Ġnam ibia
Ġdisappro val
Ġrainforest s
miss ive
Ġwand ering
Ġcoven ant
Ġambival ence
Ġgol an
Ġunhe ard
Ġovershad owed
Ġace h
Ġuncomp rom
Ġnostal gia
Ġcanv as
Ġhamb urg
Ġneuros cience
Ġincoh erent
Ġparach ute
Ġva unted
Ġprotagon ists
independ ent
Ġundis put
Ġmedioc re
bud get
Ġney ra
Ġabhor rent
Ġspani ards
Ġbib lical
Ġyuk os
Ġomn ip
beh ind
ĠmÃ¼ ller
Ġsurrend ered
Ġantiqu ated
Ġgrocer y
Ġmete or
immedi ately
Ġrans om
igl ione
Ġpalli ative
Ġcathed ral
Ġemancip ation
Ġbm w
Ġjou yet
Ġindiv isible
attemp ts
fis cal
Ġnaf o
dav id
ĠfÃ¼ le
Ġuninter rupted
Ġchave z
Ġribe iro
Ġincalcul able
Ġvirrank oski
Ġmoscov ici
b able
b eration
c ost
d b
d d
f il
f ler
j u
k Ã¡
l os
m t
m om
m ut
m ond
p ot
r h
r ue
v ist
v od
v ine
v ably
w ent
w arm
z k
Ã ²
Ġ Ã©
Ġt ying
Ġt iles
Ġa erial
in ants
in ternal
re forms
Ġw iz
Ġw are
Ġw ink
Ġw ires
is i
en i
Ġc us
Ġo z
it ist
it ates
Ġp or
Ġp est
Ġp urity
Ġp iss
Ġp Ã¶t
an al
Ġb out
Ġb ounce
Ġb aked
Ġb ilaterally
Ġm ri
Ġm ould
Ġm alth
Ġf ans
Ġf use
Ġf uck
Ġf lick
Ġan war
ed o
Ġh iz
Ġh ikes
Ġh ometown
Ġd ou
Ġd ag
Ġd ru
Ġd ash
Ġd itch
Ġd Ã¶r
ro ve
ic ine
Ġe mm
le m
th and
Ġbe ts
Ġbe fall
Ġg cc
Ġg omes
Ġi q
Ġfor k
Ġfor ger
se us
ur ning
Ġst am
Ġha il
Ġde an
ch t
ch ief
gh i
Ġne il
Ġun seen
Ġun born
Ġsu ed
ad el
Ġsh ep
os ph
li a
un ivers
est ag
Ġwor ms
Ġwor ris
Ġso f
Ġj ia
Ġab bre
end a
Ġk ins
Ġk ratsa
Ġam use
Ġus ur
Ġrep ris
um ns
Ġmust ard
ue ire
ans as
Ġpe aked
ab s
oc ity
oc ated
ish es
Ġpl oo
Ġpl umber
vel ength
Ġdis per
ap ol
Ġout p
Ġout cry
Ġri is
for get
Ġcomp iling
Ġinc l
Ġinc ub
Ġtim ed
Ġman ners
de b
Ġco zy
tern ess
ens son
Ġmar c
Ġmar ines
lic es
ok s
Ġunder lie
Ġsp inal
Ġper ple
Ġdiff usion
Ġbo og
Ġbo lder
Ġover bur
Ġro sy
Ġlo oting
int osh
Ġoff ense
Ġcl ut
act iv
mm ed
Ġdeb acle
Ġho over
Ġpri zes
Ġdisc reet
Ġref oc
Ġref rained
Ġext ensions
Ġext rater
Ġla issez
min ster
Ġcur bing
Ġsol o
Ġreal izes
Ġatt or
Ġsi ren
Ġass y
Ġass uring
Ġsc rup
Ġke p
Ġinter section
Ġprocess or
Ġglo om
Ġdown fall
Ġca us
Ġfore ns
Ġlit mus
Ġpower fully
Ġplay ground
Ġhand outs
Ġest rela
Ġprincip led
ater ial
Ġchild ish
Ġem it
Ġem ir
Ġph osph
Ġcor bey
Ġless en
Ġins ider
Ġcomple ments
Ġjob less
Ġben z
par ad
Ġel itist
Ġpract iced
Ġrese t
Ġsupp er
Ġpop s
Ġsubject ive
Ġshort cut
Ġaccount ants
Ġtri f
Ġim itate
Ġhard working
Ġger ms
Ġpat ro
Ġfl ora
Ġprof lig
Ġmor gant
Ġvis itor
ordin ary
ime ters
Ġspecific ity
Ġchar itable
Ġwater ing
Ġsl ot
Ġdecl ares
Ġz en
Ġbur ial
Ġpen ny
ber ries
Ġty rant
Ġadopt ions
Ġgra pe
Ġer ase
Ġer tms
Ġgener ously
Ġsk ip
Ġune lected
Ġwa x
Ġwa velength
Ġvict orious
Ġten acity
Ġbook sh
Ġbroad est
Ġdest inations
Ġconnect ivity
Ġorigin ates
Ġfig ueire
Ġcamp ania
Ġmen ace
Ġcy linder
vere st
Ġsound ness
Ġbit terness
Ġassoci ates
sp ending
Ġvol ksw
Ġemb ody
Ġey ed
Ġsan ity
Ġclass ed
Ġindustrial ization
Ġlearn s
Ġ12 8
Ġsal ient
Ġnote worthy
Ġdece ased
Ġheart ily
Ġquot ation
Ġens la
Ġslow s
Ġpurpose ful
Ġbul bs
Ġmal colm
Ġperform ers
Ġste wart
iss l
iss ues
Ġqual ifying
Ġfoot age
Ġbod e
Ġsil enced
Ġround ly
Ġappear ances
Ġbat tling
Ġsuperv ised
Ġheav ens
Ġsep a
Ġsimplif ies
Ġintervention ist
Ġaccomp lices
Ġpact s
Ġbot swana
Ġdon nel
Ġtransform ative
Ġcard iac
Ġber th
Ġintention al
Ġcontra vention
Ġdeliver ies
Ġimplic ated
Ġut tered
pret ation
Ġeye b
Ġshar per
Ġinspect orate
Ġsqu id
Ġenjoy able
Ġweight s
Ġpsych ologically
Ġball istic
Ġmac ao
Ġswe ar
Ġcontrast s
Ġsexual ity
Ġtough est
Ġombuds men
amb ia
Ġsharp en
Ġexceed ingly
Ġmobil izing
Ġblind ness
Ġideal istic
Ġmort al
Ġmultip licity
Ġsim ulate
Ġcapt ive
Ġdecre ases
Ġquarter ly
Ġdetect ing
Ġpersist ently
Ġvac ancies
Ġannounce ments
Ġfost ers
Ġinterpre ter
bb led
Ġunp roductive
Ġirre voc
bel arus
Ġmit ter
Ġgh ent
Ġfab ra
Ġdistingu ishing
Ġnovel ty
Ġvoc al
Ġorient ations
Ġfortun es
Ġ194 9
Ġfur thest
Ġhall mark
Ġsequ encing
Ġcere mon
Ġreluct antly
Ġreun ited
Ġpraise worthy
Ġutil ise
Ġstric ken
Ġrum or
Ġpit falls
Ġmyster ies
Ġweigh s
hard ly
Ġfold ed
Ġbiotechn ological
sk aya
Ġinconsist ency
Ġdistinguish es
cot t
Ġmart ial
Ġrigid ity
Ġpuzz led
Ġpuzz ling
Ġdil ute
Ġtab a
Ġdesk top
aust ria
Ġsummar ised
Ġacadem ia
Ġmichel in
Ġcompris ed
Ġdeput ies
Ġdeval ue
Ġextrad ite
Ġpatri otic
Ġunexpected ly
Ġshed ding
kov skaya
Ġcontrovers ies
Ġkiss inger
Ãº l
Ġreck on
Ġrab in
Ġasymmet ry
Ġwil son
thal ates
Ġsemin al
Ġhaw ks
research ers
ser ious
Ġamp ly
Ġscra pped
Ġrend ition
Ġbrush ed
Ġuncontro llable
Ġunc over
Ġcycl one
Ġbund estag
Ġauction ing
const ruction
Ġrank ed
Ġcurric ula
Ġunders cores
Ġhandic aps
Ġfee ble
bat i
Ġlan cker
Ġsemit ic
Ġadvertise ment
Ġinsure rs
Ġbasket ball
Ġrescu ing
hor st
agric ultural
Ġfemin ist
Ġenerget ically
Ġathe ists
imm igration
Ġcun ning
Ġchanne lling
sur prisingly
Ġram ifications
Ġmerch and
Ġimpul ses
Ġsham eless
Ġchromos omes
Ġgros ch
Ġculmin ated
liberal isation
mass ive
Ġbron x
Ġincar n
Ġsubur bs
Ġcree ping
Ġseam en
Ġamid st
Ġchron ically
Ġhelm ut
Ġjon athan
Ġdisgust ing
Ġexter mination
Ġunimp ortant
sit uation
Ġnucle us
Ġinterlocut ors
Ġwithhold ing
Ġvall Ã©s
Ġretal iation
palestin ian
Ġmour ning
Ġunset tled
Ġprioritiz e
Ġhalluc inations
Ġfernand es
gir l
achie ving
Ġissu ance
Ġpip es
Ġalber tini
Ġkac zy
Ġmetic ulous
prop os
Ġfores ight
orig in
Ġcrus ade
Ġwoe fully
Ġscaffold ing
Ġhem icycle
Ġslipp ery
Ġld cs
Ġbever ages
Ġabatto irs
Ġpalp able
Ġdegen erate
Ġseism ic
Ġchau vin
proble ms
journal ists
hung ary
Ġaar hus
Ġreor ient
Ġlloy d
Ġkre issl
Ġmarvell ous
Ġpernic ious
Ġshipw reck
Ġmacc ormick
Ġtripol i
Ġecol abel
Ġbjer reg
ĠlÃ¤n der
Ġultras ound
Ġkarab akh
Ġundisput ed
ĠpÃ¶t tering
Ġmalth us
ĠdÃ¶r fler
Ġshep her
Ġworris ome
Ġploo ij
Ġmorgant ini
Ġfigueire do
Ġdonnel ly
0 1
5 5
b od
b ilateral
c at
c ents
d ata
e ment
f ut
f ound
g ren
g rown
h ang
i pe
j ane
k illed
k ids
l as
l ag
m ont
m obil
n an
n om
n ig
o os
p age
r hus
t z
t atoeba
v ailing
w ars
y ch
y la
z i
z ler
Ġ Ã¡l
Ġt ul
Ġt us
Ġt ind
Ġa we
Ġa verse
in as
in jiang
at ma
at eness
Ġw aking
is ans
Ġs worn
Ġs inai
en et
en ough
Ġc el
Ġc uc
Ġc erc
Ġc nn
Ġo mit
it utions
Ġp ious
Ġp av
Ġp iling
Ġp kk
Ġb ending
Ġb Ã©
Ġm are
Ġm be
or no
Ġto wel
es que
Ġf da
Ġf Ã¤r
ou ros
Ġin und
Ġin asmuch
al ism
Ġh id
Ġh atch
Ġh Ã¶
Ġd iz
Ġd anced
Ġand alus
Ġn y
Ġn omen
as is
Ġbe w
Ġbe an
Ġbe am
st age
Ġg ians
ct ar
Ġl g
Ġl ined
Ġu f
Ġwh ipped
Ġon erous
ut a
id i
id ious
ur ge
Ġst ren
Ġst ap
Ġst ack
ce ived
Ġy ale
Ġal s
Ġde lude
ra ising
ort ex
Ġeu for
Ġne ves
Ġne ctar
Ġme c
Ġun work
Ġun author
Ġun common
Ġun natural
ter min
ge oning
op ed
and i
li able
Ġv and
ain ed
est an
Ġen velop
Ġle ase
Ġle yla
Ġch an
ist a
ist ication
Ġso y
Ġag ony
Ġj ub
Ġhe mp
Ġres ha
Ġab m
Ġk ol
Ġam ino
Ġam icable
Ġpresid e
Ġpresid ed
ig rants
Ġrep airs
ans k
Ġpe p
Ġac re
oc u
Ġpl ato
Ġneed lessly
ren ts
lo g
Ġdis k
Ġcomp ile
Ġcomp ute
Ġup right
Ġimport ation
ag ar
Ġexp ans
Ġexp ire
Ġco ke
Ġte ens
Ġnew cast
Ġpos ses
Ġar dent
Ġar thur
el se
og g
Ġdec reed
Ġsp oon
Ġper tains
Ġdiff ered
ub on
Ġbo eing
Ġinv ading
Ġover head
Ġover time
Ġlo be
Ġoff end
Ġcl inging
Ġprog n
Ġprog ression
mm ing
Ġmo ist
Ġacc laim
Ġbas s
ris k
Ġhuman ist
Ġhuman ities
Ġhuman ism
Ġconf ers
Ġdirect ory
Ġref ute
Ġnu mbered
Ġadd ict
Ġdef use
Ġ19 14
Ġtur in
Ġher d
Ġher ds
Ġhel met
Ġcar ter
Ġsc ars
Ġsc attered
Ġenv ision
Ġhope lessness
Ġorder ing
Ġday light
Ġcol umns
Ġmed iate
Ġform ations
Ġmaj esty
Ġpresent ations
Ġinf ra
Ġinf ilt
Ġmod al
Ġfra ming
Ġgr inding
Ġlegisl ations
Ġsch wa
Ġfr inge
Ġelect ing
Ġcond om
Ġchild birth
Ġwel sh
Ġem ulate
Ġph thalates
Ġear ners
Ġta oiseach
Ġrest ed
Ġcor k
Ġcor nel
Ġcor related
Ġcontro ller
com plete
Ġlegal ization
Ġconv ol
Ġfavour ite
Ġart isan
Ġeng ages
Ġbar ometer
Ġpat ernal
Ġfl imsy
ib a
Ġmor si
Ġmor ris
Ġenc ry
Ġindividual ity
Ġenvironmental ists
Ġsl um
Ġsl ap
Ġbank notes
Ġmis represent
Ġbur geoning
Ġche ek
Ġcho ir
Ġinn umerable
Ġ201 6
Ġgra vest
Ġgra ham
Ġer m
Ġbre w
str ange
Ġwa ving
Ġcirc ulate
Ġwrong s
Ġfinal ising
Ġsix teenth
Ġtest ament
Ġmess enger
Ġland ings
Ġ15 5
Ġmen rad
Ġgl or
Ġred ondo
Ġcy rus
Ġcla ws
Ġaut istic
Ġaut ob
Ġavoid able
ev al
Ġrad wan
Ġemb ezz
Ġpress ur
sh od
Ġexam inations
Ġmaterial ise
Ġmaterial ised
Ġvo icing
Ġ11 1
Ġ11 9
Ġcounter vailing
nam ed
Ġmand ers
Ġpain ts
Ġbrief ing
Ġkosov ar
Ġign alina
Ġsad dened
Ġpret ended
Ġrail s
Ġ198 3
Ġsil guy
Ġlu ke
Ġlu ther
ex cess
ex port
Ġ13 8
Ġcra p
Ġnation wide
Ġeight y
Ġnormal isation
Ġbureauc rat
Ġdetermin ant
Ġdog mas
Ġgradu ation
Ġcontact ed
Ġcard inal
cl av
Ġuns pe
Ġuns killed
Ġsoviet s
Ġpan c
Ġok ina
Ġfire men
Ġdynam ically
Ġsoft en
bit ant
Ġpension er
Ġexpand s
Ġarch aic
Ġren ted
Ġpleas ures
Ġx injiang
Ġenjoy ment
Ġconce als
Ġproc rast
Ġstabil ised
Ġmexic ans
pro ject
Ġbed rock
Ġmath ieu
Ġvan ity
ox ically
Ġwat ts
Ġpatent ability
Ġsymp h
Ġspl its
Ġmobil ized
Ġselect ively
Ġpred atory
Ġrough shod
Ġech r
Ġsv ensson
Ġapprox imate
Ġkn it
Ġembra ces
Ġkh at
Ġcas aca
place able
Ġcommand ers
Ġnut shell
appro val
Ġdiss u
Ġdiss ervice
Ġirre placeable
Ġnarrow er
Ġpharm ac
Ġlands l
Ġabsurd ity
Ġaccomplish ment
Ġheat on
Ġcolor ful
Ġsn aps
Ġinvent ive
Ġprivat ised
fr anch
Ġcook ie
Ġwarrant ed
Ġgall agh
abe lling
Ġreloc ated
Ġbreast s
Ġdisrupt ed
Ġremote ly
Ġheight en
Ġsocio economic
Ġcul ling
Ġbond holders
Ġveto ed
Ġkurd istan
Ġrobot ics
Ġ195 8
Ġalleg ation
Ġdeem s
Ġsli pping
Ġminded ness
pa ul
Ġfold ing
Ġsoph istication
Ġbench marking
Ġpand em
Ġhind sight
Ġrap kay
Ġmu ammar
Ġembry o
Ġdisin cent
Ġdomain s
Ġpron k
Ġpump s
Ġinject ed
Ġpup pet
Ġsummar ize
Ġmetaph ors
Ġpolar ization
Ġyemen i
Ġmont erey
Ġpetition ers
invest ing
tra ck
Ġdeval ued
lers undi
Ġnap olet
Ġaver aged
Ġbarbar a
Ġbee keeping
Ġemph atic
Ġmedi ators
Ġaer onaut
Ġhier arch
Ġfib re
Ġvibr ating
Ġelev ator
fund s
[...]
