{"<s>":0,"<pad>":1,"</s>":2,"<unk>":3,"<mask>":4,"!":5,"\"":6,"#":7,"$":8,"%":9,"&":10,"'":11,"(":12,")":13,"*":14,"+":15,",":16,"-":17,".":18,"/":19,"0":20,"1":21,"2":22,"3":23,"4":24,"5":25,"6":26,"7":27,"8":28,"9":29,":":30,";":31,"<":32,"=":33,">":34,"?":35,"@":36,"A":37,"B":38,"C":39,"D":40,"E":41,"F":42,"G":43,"H":44,"I":45,"J":46,"K":47,"L":48,"M":49,"N":50,"O":51,"P":52,"Q":53,"R":54,"S":55,"T":56,"U":57,"V":58,"W":59,"X":60,"Y":61,"Z":62,"[":63,"\\":64,"]":65,"^":66,"_":67,"`":68,"a":69,"b":70,"c":71,"d":72,"e":73,"f":74,"g":75,"h":76,"i":77,"j":78,"k":79,"l":80,"m":81,"n":82,"o":83,"p":84,"q":85,"r":86,"s":87,"t":88,"u":89,"v":90,"w":91,"x":92,"y":93,"z":94,"{":95,"|":96,"}":97,"~":98,"¡":99,"¢":100,"£":101,"¤":102,"¥":103,"¦":104,"§":105,"¨":106,"©":107,"ª":108,"«":109,"¬":110,"®":111,"¯":112,"°":113,"±":114,"²":115,"³":116,"´":117,"µ":118,"¶":119,"·":120,"¸":121,"¹":122,"º":123,"»":124,"¼":125,"½":126,"¾":127,"¿":128,"À":129,"Á":130,"Â":131,"Ã":132,"Ä":133,"Å":134,"Æ":135,"Ç":136,"È":137,"É":138,"Ê":139,"Ë":140,"Ì":141,"Í":142,"Î":143,"Ï":144,"Ð":145,"Ñ":146,"Ò":147,"Ó":148,"Ô":149,"Õ":150,"Ö":151,"×":152,"Ø":153,"Ù":154,"Ú":155,"Û":156,"Ü":157,"Ý":158,"Þ":159,"ß":160,"à":161,"á":162,"â":163,"ã":164,"ä":165,"å":166,"æ":167,"ç":168,"è":169,"é":170,"ê":171,"ë":172,"ì":173,"í":174,"î":175,"ï":176,"ð":177,"ñ":178,"ò":179,"ó":180,"ô":181,"õ":182,"ö":183,"÷":184,"ø":185,"ù":186,"ú":187,"û":188,"ü":189,"ý":190,"þ":191,"ÿ":192,"Ā":193,"ā":194,"Ă":195,"ă":196,"Ą":197,"ą":198,"Ć":199,"ć":200,"Ĉ":201,"ĉ":202,"Ċ":203,"ċ":204,"Č":205,"č":206,"Ď":207,"ď":208,"Đ":209,"đ":210,"Ē":211,"ē":212,"Ĕ":213,"ĕ":214,"Ė":215,"ė":216,"Ę":217,"ę":218,"Ě":219,"ě":220,"Ĝ":221,"ĝ":222,"Ğ":223,"ğ":224,"Ġ":225,"ġ":226,"Ģ":227,"ģ":228,"Ĥ":229,"ĥ":230,"Ħ":231,"ħ":232,"Ĩ":233,"ĩ":234,"Ī":235,"ī":236,"Ĭ":237,"ĭ":238,"Į":239,"į":240,"İ":241,"ı":242,"Ĳ":243,"ĳ":244,"Ĵ":245,"ĵ":246,"Ķ":247,"ķ":248,"ĸ":249,"Ĺ":250,"ĺ":251,"Ļ":252,"ļ":253,"Ľ":254,"ľ":255,"Ŀ":256,"ŀ":257,"Ł":258,"ł":259,"Ń":260,"Ġt":261,"Ġth":262,"Ġa":263,"in":264,"re":265,"Ġthe":266,"on":267,"at":268,"Ġw":269,"is":270,"Ġs":271,"er":272,"Ġ.":273,"en":274,"Ġc":275,"Ġ,":276,"Ġo":277,"it":278,"Ġp":279,"an":280,"Ġb":281,"Ġm":282,"or":283,"Ġto":284,"es":285,"Ġf":286,"ou":287,"Ġin":288,"ion":289,"Ġof":290,"al":291,"Ġan":292,"ed":293,"Ġh":294,"ing":295,"Ġd":296,"ar":297,"ro":298,"ic":299,"Ġe":300,"Ġand":301,"ent":302,"Ġn":303,"le":304,"th":305,"Ġre":306,"as":307,"Ġis":308,"ve":309,"om":310,"Ġbe":311,"Ġthat":312,"st":313,"ly":314,"il":315,"Ġg":316,"Ġi":317,"ct":318,"Ġl":319,"Ġu":320,"Ġwh":321,"Ġon":322,"ation":323,"ut":324,"Ġwe":325,"ot":326,"Ġfor":327,"se":328,"pe":329,"ment":330,"id":331,"Ġit":332,"ur":333,"ld":334,"Ġcom":335,"Ġst":336,"ver":337,"ce":338,"Ġpro":339,"Ġha":340,"ow":341,"Ġy":342,"Ġcon":343,"ol":344,"Ġal":345,"Ġde":346,"Ġthis":347,"ra":348,"ri":349,"Ġare":350,"ort":351,"Ġ-":352,"the":353,"ch":354,"Ġas":355,"Ġ'":356,"ith":357,"ul":358,"Ġeu":359,"ke":360,"Ġnot":361,"res":362,"ay":363,"ill":364,"gh":365,"ould":366,"Ġhave":367,"Ġwith":368,"ir":369,"mp":370,"Ġyou":371,"Ġne":372,"Ġme":373,"ate":374,"Ġun":375,"Ġsu":376,"Ġeuro":377,"oun":378,"ad":379,"ter":380,"Ġcomm":381,"im":382,"ge":383,"pp":384,"Ġeurope":385,"op":386,"ore":387,"Ġsh":388,"ble":389,"Ġse":390,"ity":391,"Ġex":392,"and":393,"ive":394,"ust":395,"sion":396,"os":397,"li":398,"Ġwill":399,"ant":400,"ere":401,"ers":402,"Ġpar":403,"Ġdo":404,"Ġv":405,"un":406,"ain":407,"ess":408,"ci":409,"est":410,"ich":411,"Ġhas":412,"qu":413,"we":414,"Ġat":415,"Ġen":416,"Ġby":417,"if":418,"ght":419,"Ġwhich":420,"Ġeuropean":421,"ies":422,"Ġle":423,"so":424,"mb":425,"Ġwor":426,"Ġgo":427,"Ġch":428,"Ġcoun":429,"et":430,"âĢ":431,"Ġpres":432,"ther":433,"ist":434,"Ġall":435,"Ġr":436,"am":437,"Ġso":438,"Ġag":439,"Ġcan":440,"us":441,"ĠâĢ":442,"Ġwas":443,"ally":444,"ure":445,"od":446,"rom":447,"Ġli":448,"Ġimp":449,"ome":450,"Ġj":451,"ission":452,"ect":453,"Ġhe":454,"Ġor":455,"Ġres":456,"Ġthere":457,"Ġab":458,"very":459,"end":460,"Ġwould":461,"Ġpol":462,"ions":463,"Ġk":464,"Ġcommission":465,"Ġint":466,"iv":467,"out":468,"our":469,"Ġfrom":470,"ac":471,"Ġam":472,"ard":473,"ak":474,"all":475,"Ġpresid":476,"Ġ?":477,"Ġalso":478,"Ġour":479,"Ġus":480,"Ġbut":481,"Ġshould":482,"con":483,"ig":484,"Ġrep":485,"ff":486,"Ġpart":487,"ake":488,"ll":489,"um":490,"ud":491,"Ġad":492,"mber":493,"Ġthey":494,"Ġmust":495,"Ġbeen":496,"der":497,"ous":498,"Ġmore":499,"Ġpresident":500,"ates":501,"ue":502,"Ġcont":503,"Ġcount":504,"ans":505,"Ġlike":506,"Ġreg":507,"ations":508,"ree":509,"Ġpe":510,"Ġac":511,"ab":512,"oc":513,"ish":514,"reat":515,"ast":516,"ult":517,"Ġfa":518,"ament":519,"Ġabout":520,"one":521,"pport":522,"Ġwhat":523,"ical":524,"Ġno":525,"Ġqu":526,"Ġone":527,"ost":528,"Ġmr":529,"Ġpl":530,"this":531,"Ġtheir":532,"Ġneed":533,"si":534,"ary":535,"Ġtr":536,"vel":537,"able":538,"ren":539,"ire":540,"ments":541,"ong":542,"Ġ1":543,"lo":544,"ear":545,"Ġdis":546,"Ġmy":547,"ap":548,"Ġout":549,"Ġits":550,"Ġvery":551,"em":552,"Ġsome":553,"ie":554,"cial":555,"ance":556,"Ġri":557,"au":558,"Ġwho":559,"du":560,"for":561,"Ġ2":562,"Ġcomp":563,"Ġthese":564,"Ġact":565,"Ġfin":566,"Ġbec":567,"ĠâĢĻ":568,"Ġinc":569,"Ġwork":570,"Ġtim":571,"now":572,"ople":573,"cess":574,"Ġup":575,"liament":576,"Ġthan":577,"00":578,"Ġman":579,"Ġright":580,"Ġpeople":581,"Ġunion":582,"rou":583,"Ġreport":584,"de":585,"Ġparliament":586,"Ġyear":587,"Ġstates":588,"Ġprop":589,"iz":590,"Ġimport":591,"ry":592,"ence":593,"but":594,"te":595,"ag":596,"Ġexp":597,"ru":598,"Ġapp":599,"Ġco":600,"Ġsa":601,"conom":602,"wh":603,"tern":604,"are":605,"Ġcons":606,"fore":607,"ose":608,"ition":609,"ries":610,"Ġte":611,"Ġpre":612,"ts":613,"Ġeconom":614,"ause":615,"ice":616,"Ġnew":617,"ink":618,"ational":619,"ens":620,"Ġpo":621,"Ġother":622,"Ġif":623,"Ġtime":624,"me":625,"ces":626,"Ġpos":627,"Ġar":628,"ated":629,"ia":630,"Ġmar":631,"el":632,"Ġev":633,"Ġmember":634,"lic":635,"cy":636,"og":637,"ok":638,"age":639,"Ġpolic":640,"Ġthem":641,"Ġcountries":642,"ms":643,"Ġconc":644,"ach":645,"Ġnow":646,"ack":647,"Ġjust":648,"pt":649,"Ġbet":650,"ise":651,"Ġhow":652,"Ġ:":653,"ign":654,"he":655,"Ġonly":656,"ame":657,"Ġra":658,"Ġ\"":659,"Ġknow":660,"ial":661,"ine":662,"Ġdec":663,"Ġspe":664,"ase":665,"ject":666,"Ġany":667,"cil":668,"Ġunder":669,"Ġtra":670,"Ġpropos":671,"ious":672,"Ġimportant":673,"pect":674,"'t":675,"Ġdem":676,"ide":677,"ound":678,"Ġcouncil":679,"Ġwere":680,"ted":681,"Ġwant":682,"Ġsp":683,"Ġeff":684,"velop":685,"ities":686,"ution":687,"ress":688,"Ġdevelop":689,"Ġsupport":690,"Ġbecause":691,"ced":692,"irst":693,"Ġagain":694,"thing":695,"iff":696,"Ġfe":697,"Ġthink":698,"Ġob":699,"Ġwhen":700,"eren":701,"ric":702,"Ġway":703,"ever":704,"Ġpolit":705,"Ġper":706,"Ġrec":707,"Ġworld":708,"Ġind":709,"ind":710,"ction":711,"ility":712,"ip":713,"Ġmake":714,"Ġinto":715,"Ġdiff":716,"ub":717,"Ġpolicy":718,"Ġsay":719,"Ġser":720,"lear":721,"ace":722,"Ġyour":723,"Ġbo":724,"mr":725,"Ġinv":726,"und":727,"Ġover":728,"Ġop":729,"Ġter":730,"form":731,"Ġro":732,"Ġmad":733,"sel":734,"Ġ)":735,"Ġlo":736,"int":737,"vern":738,"Ġhad":739,"ings":740,"Ġiss":741,"ern":742,"Ġsee":743,"Ġproble":744,"tain":745,"Ġ--":746,"ved":747,"Ġagree":748,"ular":749,"Ġtake":750,"uch":751,"ight":752,"Ġsy":753,"Ġleg":754,"Ġeconomic":755,"Ġoff":756,"Ġcl":757,"Ġpartic":758,"Ġinst":759,"ving":760,"rit":761,"Ġgovern":762,"ks":763,"Ġvot":764,"Ġhis":765,"Ġcommit":766,"Ġtw":767,"Ġfirst":768,"Ġintern":769,"Ġtrans":770,"igh":771,"ative":772,"row":773,"Ġsuch":774,"Ġmarke":775,"there":776,"lie":777,"day":778,"that":779,"Ġmany":780,"Ġprog":781,"ention":782,"ang":783,"Ġyears":784,"Ġthose":785,"ures":786,"Ġcould":787,"act":788,"gy":789,"Ġquest":790,"Ġaf":791,"Ġhere":792,"sible":793,"Ġstr":794,"Ġdire":795,"ors":796,"Ġsub":797,"ful":798,"Ġproposal":799,"Ġbelie":800,"Ġpolitical":801,"Ġgood":802,"ite":803,"Ġevery":804,"ath":805,"Ġfact":806,"ween":807,"ting":808,"ian":809,"Ġgreat":810,"Ġfund":811,"Ġprodu":812,"Ġbetween":813,"ord":814,"pon":815,"ep":816,"ves":817,"Ġbeing":818,"mm":819,"Ġmade":820,"Ġhum":821,"Ġtwo":822,"Ġmo":823,"Ġacc":824,"Ġbas":825,"Ġprov":826,"Ġdeb":827,"ues":828,"ating":829,"Ġcommun":830,"xt":831,"ris":832,"Ġtak":833,"Ġgen":834,"Ġeven":835,"ory":836,"Ġrel":837,"Ġcour":838,"Ġmost":839,"Ġmuch":840,"Ġdoes":841,"Ġconcern":842,"ild":843,"Ġget":844,"Ġlong":845,"Ġ200":846,"Ġclear":847,"Ġwhere":848,"Ġho":849,"arge":850,"stem":851,"Ġtherefore":852,"ange":853,"Ġwell":854,"Ġhuman":855,"lect":856,"Ġconf":857,"Ġparticular":858,"Ġrem":859,"red":860,"ĠâĢĵ":861,"ward":862,"cept":863,"Ġrespon":864,"Ġrights":865,"roup":866,"Ġsystem":867,"wn":868,"Ġstate":869,"Ġmat":870,"Ġpri":871,"Ġgroup":872,"Ġdirect":873,"Ġbelieve":874,"Ġfinan":875,"ual":876,"ural":877,"ublic":878,"how":879,"Ġappro":880,"ough":881,"Ġsocial":882,"Ġjo":883,"rat":884,"Ġsit":885,"Ġdisc":886,"Ġsaid":887,"Ġhigh":888,"Ġcall":889,"amp":890,"ism":891,"eration":892,"Ġmon":893,"lud":894,"Ġmay":895,"Ġref":896,"Ġcountry":897,"Ġnu":898,"Ġlook":899,"ass":900,"Ġprot":901,"Ġmin":902,"eral":903,"Ġtoo":904,"Ġadd":905,"Ġext":906,"oll":907,"ited":908,"Ġfar":909,"read":910,"Ġamend":911,"Ġla":912,"iew":913,"Ġdemoc":914,"way":915,"Ġthen":916,"Ġput":917,"ives":918,"min":919,"Ġagainst":920,"Ġmarket":921,"ency":922,"Ġsec":923,"erest":924,"Ġpoint":925,"Ġgoing":926,"Ġcur":927,"Ġsame":928,"Ġpr":929,"Ġdef":930,"Ġquestion":931,"Ġend":932,"rough":933,"Ġtoday":934,"Ġincre":935,"Ġuse":936,"Ġsol":937,"Ġdid":938,"Ġreal":939,"Ġinterest":940,"ision":941,"Ġrequ":942,"Ġdifferen":943,"Ġ;":944,"Ġemp":945,"ile":946,"man":947,"Ġma":948,"Ġent":949,"Ġfut":950,"Ġeffect":951,"Ġatt":952,"rent":953,"Ġfuture":954,"art":955,"you":956,"own":957,"Ġdes":958,"Ġcontin":959,"Ġ(":960,"Ġpublic":961,"Ġtreat":962,"get":963,"Ġdevelopment":964,"Ġsi":965,"Ġ19":966,"Ġstill":967,"uation":968,"Ġthrough":969,"les":970,"ertain":971,"ific":972,"Ġtur":973,"Ġnational":974,"itiz":975,"Ġlast":976,"Ġown":977,"Ġcommitte":978,"what":979,"Ġfinancial":980,"Ġgovernment":981,"Ġass":982,"Ġher":983,"Ġhapp":984,"Ġhel":985,"mbers":986,"Ġreally":987,"alth":988,"Ġgu":989,"Ġissue":990,"king":991,"Ġregard":992,"Ġcitiz":993,"Ġgrow":994,"Ġmeas":995,"ually":996,"Ġprotect":997,"Ġcar":998,"Ġwhy":999,"Ġprogra":1000,"Ġbud":1001,"Ġsc":1002,"Ġinternational":1003,"Ġlead":1004,"Ġsm":1005,"Ġhelp":1006,"ents":1007,"ason":1008,"Ġ%":1009,"they":1010,"Ġinform":1011,"Ġlevel":1012,"pet":1013,"ower":1014,"olog":1015,"loy":1016,"Ġresult":1017,"ese":1018,"lement":1019,"Ġmatter":1020,"iven":1021,"Ġproblem":1022,"Ġcommittee":1023,"ty":1024,"Ġtal":1025,"Ġke":1026,"Ġenv":1027,"led":1028,"Ġconst":1029,"ised":1030,"cond":1031,"Ġcourse":1032,"ning":1033,"Ġcommissioner":1034,"Ġconsid":1035,"Ġbr":1036,"ruct":1037,"bility":1038,"Ġback":1039,"ready":1040,"Ġdebate":1041,"Ġmak":1042,"Ġcitizens":1043,"Ġinter":1044,"Ġsituation":1045,"Ġalready":1046,"Ġview":1047,"Ġpers":1048,"Ġreason":1049,"Ġpossible":1050,"Ġhope":1051,"ood":1052,"ail":1053,"ince":1054,"self":1055,"gan":1056,"onment":1057,"Ġinclud":1058,"Ġmembers":1059,"uth":1060,"ied":1061,"ulation":1062,"Ġexamp":1063,"Ġboth":1064,"ouse":1065,"illion":1066,"ict":1067,"Ġprocess":1068,"sure":1069,"Ġsign":1070,"ety":1071,"Ġwar":1072,"Ġcertain":1073,"Ġbu":1074,"Ġdra":1075,"Ġresol":1076,"Ġcome":1077,"Ġorder":1078,"Ġagreement":1079,"Ġcent":1080,"Ġener":1081,"ract":1082,"Ġset":1083,"Ġenvir":1084,"Ġban":1085,"uring":1086,"wor":1087,"hip":1088,"ici":1089,"Ġenvironment":1090,"Ġbefore":1091,"Ġach":1092,"bal":1093,"however":1094,"chn":1095,"Ġask":1096,"Ġcoop":1097,"cip":1098,"eric":1099,"Ġachie":1100,"ority":1101,"Ġhim":1102,"tle":1103,"Ġglo":1104,"Ġadop":1105,"Ġdifferent":1106,"Ġenergy":1107,"Ġful":1108,"Ġable":1109,"Ġday":1110,"Ġsomething":1111,"Ġneg":1112,"ices":1113,"other":1114,"Ġbudget":1115,"lish":1116,"ft":1117,"Ġtransp":1118,"Ġinstit":1119,"Ġcompet":1120,"Ġaff":1121,"ically":1122,"Ġcase":1123,"Ġcommon":1124,"Ġcap":1125,"urther":1126,"ration":1127,"utions":1128,"Ġthings":1129,"Ġcommunity":1130,"Ġlaw":1131,"Ġcol":1132,"gin":1133,"Ġstand":1134,"Ġhouse":1135,"Ġvote":1136,"ne":1137,"Ġcurrent":1138,"Ġinvest":1139,"Ġmed":1140,"Ġform":1141,"Ġcris":1142,"omen":1143,"ina":1144,"Ġprev":1145,"Ġexample":1146,"Ġdown":1147,"Ġchange":1148,"Ġwithin":1149,"ten":1150,"Ġserv":1151,"Ġdiscus":1152,"Ġmaj":1153,"ately":1154,"its":1155,"urity":1156,"ribut":1157,"Ġpresent":1158,"Ġgive":1159,"Ġide":1160,"Ġmeasures":1161,"Ġbeh":1162,"Ġglobal":1163,"Ġsuc":1164,"Ġmain":1165,"Ġwithout":1166,"Ġca":1167,"Ġfore":1168,"Ġhowever":1169,"eur":1170,"Ġameric":1171,"lu":1172,"Ġmeans":1173,"Ġplace":1174,"Ġlit":1175,"Ġlif":1176,"Ġtechn":1177,"Ġinf":1178,"ef":1179,"men":1180,"Ġimpro":1181,"Ġmod":1182,"Ġrespect":1183,"Ġtaken":1184,"Ġsecurity":1185,"Ġsimp":1186,"Ġproblems":1187,"Ġhealth":1188,"Ġstrate":1189,"isl":1190,"Ġsect":1191,"vers":1192,"Ġafter":1193,"Ġauth":1194,"ount":1195,"Ġbetter":1196,"Ġdeal":1197,"Ġnumber":1198,"Ġbus":1199,"Ġunited":1200,"Ġ20":1201,"to":1202,"Ġfra":1203,"ather":1204,"Ġprin":1205,"come":1206,"be":1207,"Ġregion":1208,"Ġfind":1209,"Ġgr":1210,"ered":1211,"Ġinformation":1212,"Ġpower":1213,"Ġcooperation":1214,"Ġcrisis":1215,"Ġthree":1216,"Ġorgan":1217,"Ġlegisl":1218,"stand":1219,"Ġdep":1220,"Ġsch":1221,"Ġfr":1222,"ily":1223,"Ġdirective":1224,"reed":1225,"Ġrul":1226,"Ġaction":1227,"air":1228,"Ġplay":1229,"Ġbl":1230,"Ġobject":1231,"Ġarea":1232,"ently":1233,"ital":1234,"Ġnecess":1235,"Ġhand":1236,"Ġallow":1237,"itions":1238,"Ġest":1239,"Ġprincip":1240,"Ġfew":1241,"Ġindust":1242,"itive":1243,"ability":1244,"pporteur":1245,"ven":1246,"ollow":1247,"Ġelect":1248,"Ġris":1249,"Ġcre":1250,"Ġ3":1251,"ater":1252,"Ġnor":1253,"Ġcond":1254,"Ġnat":1255,"Ġprom":1256,"land":1257,"Ġchild":1258,"ph":1259,"Ġwel":1260,"less":1261,"Ġem":1262,"Ġph":1263,"ists":1264,"Ġdone":1265,"Ġap":1266,"Ġear":1267,"Ġval":1268,"pportun":1269,"Ġrepres":1270,"Ġta":1271,"Ġopportun":1272,"Ġshe":1273,"Ġmeet":1274,"ute":1275,"Ġredu":1276,"Ġopen":1277,"ov":1278,"Ġtrade":1279,"ential":1280,"Ġactually":1281,"Ġrapporteur":1282,"work":1283,"ality":1284,"icult":1285,"Ġrest":1286,"Ġwomen":1287,"orts":1288,"Ġsaf":1289,"ds":1290,"Ġsince":1291,"alf":1292,"isation":1293,"Ġlittle":1294,"Ġnext":1295,"Ġdemocrat":1296,"uc":1297,"Ġshow":1298,"Ġincreas":1299,"Ġsur":1300,"Ġkind":1301,"Ġfav":1302,"Ġimplement":1303,"Ġdifficult":1304,"Ġav":1305,"arch":1306,"Ġinde":1307,"Ġequ":1308,"oti":1309,"Ġcor":1310,"Ġfollow":1311,"Ġless":1312,"Ġplan":1313,"Ġwish":1314,"orities":1315,"eg":1316,"Ġremain":1317,"Ġthank":1318,"Ġins":1319,"Ġcontro":1320,"Ġinit":1321,"Ġexper":1322,"Ġensure":1323,"Ġspeak":1324,"Ġadv":1325,"ussi":1326,"ways":1327,"Ġfurther":1328,"Ġaccept":1329,"Ġlife":1330,"Ġemploy":1331,"ick":1332,"Ġinvol":1333,"Ġspeci":1334,"Ġnegoti":1335,"Ġcomple":1336,"als":1337,"Ġtreaty":1338,"Ġprogram":1339,"Ġwhe":1340,"oura":1341,"Ġjob":1342,"Ġcost":1343,"she":1344,"Ġvi":1345,"Ġlet":1346,"Ġissues":1347,"Ġ!":1348,"ying":1349,"Ġgrowth":1350,"ics":1351,"cing":1352,"Ġserious":1353,"Ġsecond":1354,"Ġthing":1355,"oney":1356,"Ġmrs":1357,"Ġproduct":1358,"ros":1359,"Ġunderstand":1360,"Ġir":1361,"Ġrules":1362,"Ġconsider":1363,"ared":1364,"Ġben":1365,"ided":1366,"Ġperson":1367,"lig":1368,"Ġgent":1369,"ody":1370,"com":1371,"Ġgentle":1372,"Ġsmall":1373,"Ġrussi":1374,"Ġanother":1375,"Ġnecessary":1376,"Ġgiven":1377,"Ġrequire":1378,"Ġneeds":1379,"Ġlegal":1380,"iness":1381,"Ġhappen":1382,"Ġbecome":1383,"ird":1384,"Ġrole":1385,"Ġwhether":1386,"Ġmoney":1387,"Ġamendments":1388,"adies":1389,"Ġimm":1390,"Ġalways":1391,"selves":1392,"Ġgentlemen":1393,"Ġread":1394,"Ġlarge":1395,"Ġproced":1396,"cu":1397,"Ġprotection":1398,"Ġwhole":1399,"Ġseem":1400,"Ġeconomy":1401,"Ġposition":1402,"ister":1403,"Ġsuccess":1404,"Ġareas":1405,"Ġchina":1406,"sibility":1407,"Ġaid":1408,"Ġmove":1409,"Ġconv":1410,"Ġsoci":1411,"racy":1412,"Ġconsum":1413,"my":1414,"gether":1415,"Ġcrit":1416,"ave":1417,"Ġiniti":1418,"Ġparticularly":1419,"Ġsector":1420,"per":1421,"ĠâĢĿ":1422,"gg":1423,"Ġes":1424,"these":1425,"Ġapproach":1426,"Ġnever":1427,"av":1428,"Ġrev":1429,"Ġmil":1430,"Ġused":1431,"Ġfree":1432,"Ġproject":1433,"Ġbal":1434,"Ġprogress":1435,"sions":1436,"Ġdecision":1437,"Ġmillion":1438,"ources":1439,"par":1440,"ross":1441,"ness":1442,"Ġresolution":1443,"Ġtax":1444,"Ġel":1445,"Ġeffective":1446,"Ġprogramme":1447,"ines":1448,"Ġpay":1449,"Ġcontribut":1450,"Ġstep":1451,"Ġfeel":1452,"Ġmaking":1453,"ense":1454,"Ġfish":1455,"Ġ199":1456,"ys":1457,"eng":1458,"ral":1459,"do":1460,"ablish":1461,"Ġpract":1462,"Ġeas":1463,"Ġed":1464,"ĠâĢľ":1465,"Ġrese":1466,"imate":1467,"ably":1468,"Ġpresidency":1469,"Ġopin":1470,"ultural":1471,"let":1472,"Ġestablish":1473,"Ġcontinue":1474,"wards":1475,"Ġgeneral":1476,"Ġbenef":1477,"Ġtogether":1478,"Ġpur":1479,"Ġstrong":1480,"Ġcompan":1481,"Ġlot":1482,"Ġ5":1483,"Ġur":1484,"isions":1485,"Ġspecif":1486,"Ġdoing":1487,"Ġservices":1488,"ought":1489,"Ġworking":1490,"ned":1491,"Ġagric":1492,"Ġrepresent":1493,"ner":1494,"Ġfail":1495,"Ġconstit":1496,"Ġterms":1497,"more":1498,"Ġdist":1499,"Ġforward":1500,"Ġframe":1501,"Ġstar":1502,"Ġfavour":1503,"Ġmean":1504,"ret":1505,"Ġchang":1506,"ror":1507,"Ġpeace":1508,"Ġinstitutions":1509,"Ġcontrol":1510,"Ġmight":1511,"Ġfood":1512,"Ġresearch":1513,"Ġterm":1514,"Ġstrategy":1515,"Ġproposals":1516,"Ġreach":1517,"most":1518,"Ġstud":1519,"Ġwrit":1520,"Ġsupp":1521,"Ġbasis":1522,"Ġpop":1523,"Ġfound":1524,"erence":1525,"Ġrelations":1526,"sw":1527,"Ġladies":1528,"Ġexperi":1529,"Ġbusiness":1530,"Ġtechnolog":1531,"Ġaround":1532,"Ġbro":1533,"Ġeach":1534,"Ġcreat":1535,"over":1536,"Ġbuild":1537,"Ġaim":1538,"Ġpoin":1539,"Ġcare":1540,"rodu":1541,"Ġ4":1542,"Ġsubject":1543,"Ġfundament":1544,"Ġamendment":1545,"osed":1546,"Ġsing":1547,"Ġyet":1548,"Ġtell":1549,"aps":1550,"Ġcalled":1551,"Ġitself":1552,"Ġquite":1553,"Ġess":1554,"Ġfac":1555,"Ġwelcome":1556,"Ġonce":1557,"Ġbring":1558,"Ġframework":1559,"Ġachieve":1560,"Ġlib":1561,"Ġdemocracy":1562,"Ġfam":1563,"Ġbased":1564,"ible":1565,"Ġmonth":1566,"Ġopp":1567,"Ġshort":1568,"Ġgot":1569,"Ġart":1570,"Ġchildren":1571,"ined":1572,"Ġmention":1573,"Ġoften":1574,"Ġaw":1575,"Ġbest":1576,"Ġexist":1577,"Ġexpect":1578,"Ġcri":1579,"Ġchall":1580,"Ġansw":1581,"Ġtalk":1582,"Ġbig":1583,"Ġopportunity":1584,"Ġduring":1585,"Ġple":1586,"Ġopinion":1587,"ulture":1588,"Ġrather":1589,"Ġstruct":1590,"ized":1591,"Ġsuff":1592,"Ġold":1593,"then":1594,"Ġpromot":1595,"Ġdemand":1596,"Ġabs":1597,"light":1598,"ages":1599,"Ġlegislation":1600,"Ġimprove":1601,"arm":1602,"Ġextre":1603,"ances":1604,"Ġaccount":1605,"Ġclo":1606,"ged":1607,"Ġwhile":1608,"Ġincrease":1609,"Ġsw":1610,"Ġdemocratic":1611,"Ġinteg":1612,"Ġviol":1613,"Ġbegin":1614,"Ġago":1615,"Ġforeign":1616,"ides":1617,"Ġlab":1618,"clear":1619,"Ġtri":1620,"Ġminister":1621,"Ġstart":1622,"ogn":1623,"Ġlim":1624,"stain":1625,"Ġenough":1626,"Ġeng":1627,"Ġmajor":1628,"reedom":1629,"Ġim":1630,"fort":1631,"pri":1632,"many":1633,"Ġindustry":1634,"Ġhard":1635,"Ġregulation":1636,"Ġrecogn":1637,"ants":1638,"ock":1639,"Ġger":1640,"Ġtowards":1641,"ivid":1642,"ases":1643,"Ġwee":1644,"thers":1645,"Ġbar":1646,"Ġadopted":1647,"Ġvar":1648,"Ġleast":1649,"mpt":1650,"Ġfundamental":1651,"ified":1652,"Ġconcerned":1653,"Ġrussia":1654,"Ġhist":1655,"ling":1656,"cially":1657,"Ġidea":1658,"Ġbor":1659,"Ġret":1660,"Ġresources":1661,"Ġprovide":1662,"atives":1663,"Ġfreedom":1664,"Ġpolicies":1665,"ences":1666,"Ġreform":1667,"Ġafric":1668,"ize":1669,"Ġvoted":1670,"Ġstandard":1671,"Ġthird":1672,"Ġpat":1673,"sequ":1674,"Ġoc":1675,"ivers":1676,"Ġsumm":1677,"Ġactiv":1678,"Ġshall":1679,"Ġciv":1680,"Ġsociety":1681,"Ġappe":1682,"Ġeduc":1683,"Ġcong":1684,"Ġincluding":1685,"ners":1686,"Ġregul":1687,"ending":1688,"Ġprinciple":1689,"Ġdiscuss":1690,"Ġcolle":1691,"Ġfl":1692,"Ġprof":1693,"ither":1694,"Ġclearly":1695,"Ġaccess":1696,"Ġterror":1697,"Ġsignific":1698,"aren":1699,"arant":1700,"Ġcivil":1701,"Ġimportance":1702,"fin":1703,"bon":1704,"Ġconditions":1705,"with":1706,"Ġair":1707,"ib":1708,"Ġaddress":1709,"when":1710,"mit":1711,"Ġproposed":1712,"Ġrisk":1713,"ield":1714,"Ġexpress":1715,"Ġguarant":1716,"leg":1717,"Ġintrodu":1718,"Ġsingle":1719,"Ġresponsibility":1720,"Ġtransport":1721,"reng":1722,"ising":1723,"Ġhome":1724,"Ġguarante":1725,"arity":1726,"Ġindivid":1727,"ove":1728,"Ġexpl":1729,"Ġmom":1730,"idence":1731,"Ġwords":1732,"Ġclose":1733,"Ġextreme":1734,"pecially":1735,"Ġsci":1736,"oub":1737,"Ġstreng":1738,"Ġmor":1739,"Ġsure":1740,"Ġtaking":1741,"Ġgreater":1742,"Ġvis":1743,"Ġnegotiations":1744,"raph":1745,"ars":1746,"Ġmilit":1747,"Ġkeep":1748,"Ġemployment":1749,"Ġcreate":1750,"ends":1751,"Ġattention":1752,"Ġenc":1753,"Ġrecent":1754,"Ġlist":1755,"ordin":1756,"Ġaddition":1757,"Ġespecially":1758,"Ġpositive":1759,"body":1760,"fortun":1761,"iod":1762,"Ġamong":1763,"000":1764,"Ġann":1765,"Ġfull":1766,"Ġnothing":1767,"Ġfight":1768,"Ġpoints":1769,"Ġindividual":1770,"Ġpass":1771,"ining":1772,"Ġcentral":1773,"where":1774,"Ġleaders":1775,"af":1776,"Ġsustain":1777,"Ġenvironmental":1778,"Ġloc":1779,"ons":1780,"Ġru":1781,"key":1782,"Ġcomb":1783,"Ġoper":1784,"Ġauthorities":1785,"ime":1786,"Ġprevent":1787,"Ġsafety":1788,"uge":1789,"pend":1790,"Ġfour":1791,"Ġefforts":1792,"Ġmind":1793,"Ġhead":1794,"ck":1795,"ool":1796,"Ġrece":1797,"Ġsimply":1798,"Ġpast":1799,"ger":1800,"Ġprocedure":1801,"Ġforce":1802,"Ġfunds":1803,"Ġpartners":1804,"Ġspecific":1805,"Ġchar":1806,"Ġhaving":1807,"til":1808,"Ġfri":1809,"Ġessential":1810,"mad":1811,"haps":1812,"Ġinternal":1813,"Ġwater":1814,"Ġneeded":1815,"Ġbel":1816,"Ġlear":1817,"Ġsou":1818,"Ġleft":1819,"Ġnuclear":1820,"Ġbehalf":1821,"of":1822,"Ġthought":1823,"Ġinterests":1824,"Ġtrue":1825,"Ġproducts":1826,"Ġincreasing":1827,"Ġparty":1828,"Ġquestions":1829,"Ġoffice":1830,"by":1831,"Ġsl":1832,"Ġothers":1833,"Ġbank":1834,"Ġkey":1835,"Ġrun":1836,"ium":1837,"Ġamerica":1838,"used":1839,"ceed":1840,"Ġmarkets":1841,"ata":1842,"Ġmis":1843,"Ġdecl":1844,"Ġgre":1845,"icial":1846,"Ġisra":1847,"Ġyoun":1848,"Ġfoc":1849,"ering":1850,"Ġdet":1851,"Ġpriv":1852,"ark":1853,"Ġcomplete":1854,"Ġclimate":1855,"Ġsolution":1856,"Ġtimes":1857,"Ġz":1858,"Ġmanage":1859,"Ġsignificant":1860,"Ġcertainly":1861,"Ġlonger":1862,"Ġturn":1863,"ization":1864,"Ġconcerns":1865,"Ġcompanies":1866,"ond":1867,"Ġinstru":1868,"Ġce":1869,"ensive":1870,"Ġperiod":1871,"Ġgovernments":1872,"ale":1873,"irm":1874,"Ġmoment":1875,"Ġstat":1876,"Ġseen":1877,"Ġmilitary":1878,"Ġlive":1879,"Ġever":1880,"Ġname":1881,"Ġappropri":1882,"Ġconstitution":1883,"first":1884,"Ġmid":1885,"Ġbur":1886,"Ġche":1887,"Ġmakes":1888,"ug":1889,"fortunately":1890,"Ġ10":1891,"madam":1892,"Ġcred":1893,"has":1894,"Ġdeveloping":1895,"ulate":1896,"Ġanswer":1897,"Ġmot":1898,"co":1899,"Ġcho":1900,"Ġproper":1901,"Ġnon":1902,"Ġadmin":1903,"Ġcompetition":1904,"Ġworkers":1905,"ead":1906,"Ġconte":1907,"Ġfarm":1908,"no":1909,"Ġthreat":1910,"Ġpen":1911,"Ġaffect":1912,"ber":1913,"Ġthemselves":1914,"Ġinvolved":1915,"Ġeducation":1916,"Ġconflic":1917,"Ġyoung":1918,"Ġsubst":1919,"Ġtext":1920,"airs":1921,"erv":1922,"Ġimpact":1923,"Ġturkey":1924,"icient":1925,"Ġinn":1926,"vious":1927,"Ġcomes":1928,"Ġregional":1929,"Ġele":1930,"Ġ6":1931,"Ġcourt":1932,"Ġlack":1933,"Ġseems":1934,"Ġencoura":1935,"Ġdata":1936,"Ġtrad":1937,"Ġfield":1938,"Ġquality":1939,"Ġadminist":1940,"Ġfall":1941,"Ġarg":1942,"Ġaway":1943,"cise":1944,"ters":1945,"sid":1946,"Ġanim":1947,"cies":1948,"Ġextremely":1949,"equ":1950,"Ġtot":1951,"Ġaspect":1952,"Ġcolleag":1953,"Ġty":1954,"ank":1955,"Ġenl":1956,"Ġaccord":1957,"Ġmajority":1958,"Ġsense":1959,"new":1960,"Ġschool":1961,"Ġcongrat":1962,"Ġ201":1963,"Ġavail":1964,"Ġfully":1965,"Ġmonths":1966,"Ġid":1967,"Ġnet":1968,"Ġadopt":1969,"Ġfun":1970,"Ġcapital":1971,"Ġinvestment":1972,"raq":1973,"ication":1974,"Ġgroups":1975,"Ġvarious":1976,"Ġspecial":1977,"Ġentire":1978,"Ġpal":1979,"Ġthough":1980,"Ġeverything":1981,"Ġdeter":1982,"Ġinitiative":1983,"Ġgra":1984,"Ġface":1985,"Ġdri":1986,"ident":1987,"Ġshare":1988,"Ġrule":1989,"ians":1990,"Ġdial":1991,"ogue":1992,"Ġer":1993,"ased":1994,"ggest":1995,"Ġsuggest":1996,"ho":1997,"Ġfive":1998,"Ġori":1999,"Ġregions":2000,"Ġiraq":2001,"Ġocc":2002,"Ġjobs":2003,"Ġsoon":2004,"Ġlang":2005,"atic":2006,"Ġdecisions":2007,"Ġconsequ":2008,"Ġopt":2009,"Ġasked":2010,"Ġmeeting":2011,"finally":2012,"Ġcoh":2013,"Ġstrengthen":2014,"Ġcomprom":2015,"Ġemphas":2016,"Ġpot":2017,"ilities":2018,"Ġagend":2019,"Ġemer":2020,"cession":2021,"arian":2022,"icle":2023,"Ġdisp":2024,"Ġhold":2025,"Ġbre":2026,"omm":2027,"Ġhon":2028,"side":2029,"Ġcosts":2030,"ech":2031,"Ġresults":2032,"Ġindepend":2033,"lies":2034,"apan":2035,"Ġaffairs":2036,"Ġagricultural":2037,"ging":2038,"az":2039,"ators":2040,"Ġlis":2041,"Ġdang":2042,"go":2043,"Ġcut":2044,"Ġamerican":2045,"Ġstandards":2046,"veral":2047,"Ġprogramm":2048,"Ġparticip":2049,"Ġrequest":2050,"ification":2051,"Ġobjective":2052,"Ġalmost":2053,"Ġdesign":2054,"Ġeur":2055,"Ġdialogue":2056,"Ġagenda":2057,"Ġtry":2058,"Ġgener":2059,"istan":2060,"Ġsystems":2061,"ended":2062,"str":2063,"cell":2064,"Ġbillion":2065,"iting":2066,"Ġlangu":2067,"Ġdoub":2068,"Ġindeed":2069,"Ġlisbon":2070,"Ġreasons":2071,"Ġeast":2072,"Ġcir":2073,"Ġquick":2074,"Ġmodel":2075,"Ġafrica":2076,"Ġyes":2077,"member":2078,"Ġdraw":2079,"nect":2080,"den":2081,"Ġpopulation":2082,"Ġbra":2083,"Ġstability":2084,"Ġcame":2085,"ash":2086,"fully":2087,"Ġhear":2088,"lev":2089,"Ġcoordin":2090,"Ġuntil":2091,"ier":2092,"Ġtas":2093,"ont":2094,"Ġacross":2095,"lusion":2096,"Ġproduction":2097,"Ġaware":2098,"Ġavailable":2099,"Ġwr":2100,"Ġpa":2101,"Ġwriting":2102,"Ġsk":2103,"Ġweek":2104,"Ġtook":2105,"ify":2106,"Ġbrit":2107,"Ġline":2108,"Ġsolid":2109,"Ġrom":2110,"itor":2111,"Ġune":2112,"Ġlight":2113,"Ġapplic":2114,"Ġwa":2115,"ried":2116,"Ġident":2117,"Ġdocu":2118,"Ġwent":2119,"Ġharm":2120,"Ġvict":2121,"Ġenlarge":2122,"Ġparties":2123,"Ġlocal":2124,"Ġge":2125,"Ġassist":2126,"Ġexc":2127,"Ġ7":2128,"Ġdom":2129,"eu":2130,"Ġcoming":2131,"Ġliberal":2132,"Ġtalking":2133,"Ġelse":2134,"some":2135,"Ġpric":2136,"Ġfocus":2137,"Ġjud":2138,"just":2139,"Ġtom":2140,"Ġcirc":2141,"dle":2142,"Ġfle":2143,"Ġagreements":2144,"Ġamb":2145,"Ġmentioned":2146,"Ġcontext":2147,"Ġjapan":2148,"Ġmult":2149,"Ġlat":2150,"ims":2151,"Ġsummit":2152,"cent":2153,"edi":2154,"Ġtechnology":2155,"Ġrate":2156,"Ġhalf":2157,"Ġlooking":2158,"Ġfollowing":2159,"Ġten":2160,"Ġperhaps":2161,"Ġinnov":2162,"Ġ8":2163,"rict":2164,"Ġant":2165,"Ġcurrently":2166,"Ġdemon":2167,"Ġrefer":2168,"Ġobjectives":2169,"Ġbook":2170,"Ġcases":2171,"Ġiran":2172,"ury":2173,"Ġobs":2174,"Ġassess":2175,"Ġabsol":2176,"Ġpost":2177,"theless":2178,"Ġjustice":2179,"Ġjoint":2180,"Ġseveral":2181,"utes":2182,"Ġbroad":2183,"Ġretur":2184,"Ġuk":2185,"Ġeveryone":2186,"second":2187,"Ġwrong":2188,"ple":2189,"Ġoil":2190,"imes":2191,"Ġobvious":2192,"aged":2193,"Ġexcell":2194,"Ġcontain":2195,"Ġapply":2196,"Ġconvention":2197,"Ġenlargement":2198,"Ġhistory":2199,"Ġtarge":2200,"ires":2201,"Ġwanted":2202,"Ġresponsible":2203,"orm":2204,"Ġtop":2205,"ush":2206,"Ġabsolute":2207,"ibility":2208,"Ġroad":2209,"inde":2210,"Ġmatters":2211,"imil":2212,"aper":2213,"ued":2214,"iveness":2215,"Ġdest":2216,"Ġfinal":2217,"Ġnations":2218,"Ġdanger":2219,"Ġconsumers":2220,"ring":2221,"Ġbad":2222,"rench":2223,"io":2224,"Ġlow":2225,"Ġprogrammes":2226,"omet":2227,"atch":2228,"anced":2229,"Ġsix":2230,"Ġmaintain":2231,"Ġimplementation":2232,"Ġpalest":2233,"atory":2234,"ane":2235,"Ġconsumer":2236,"istic":2237,"Ġsaying":2238,"Ġanything":2239,"rast":2240,"Ġconference":2241,"Ġurg":2242,"pris":2243,"Ġfair":2244,"sib":2245,"Ġchanges":2246,"Ġ9":2247,"Ġprep":2248,"eria":2249,"Ġwon":2250,"line":2251,"pid":2252,"Ġreject":2253,"Ġmadam":2254,"Ġcompromise":2255,"Ġdeep":2256,"Ġappropriate":2257,"ises":2258,"Ġside":2259,"Ġtrying":2260,"Ġsat":2261,"Ġdut":2262,"indeed":2263,"Ġmet":2264,"Ġve":2265,"ert":2266,"Ġpoor":2267,"here":2268,"ession":2269,"Ġstop":2270,"Ġheard":2271,"Ġdays":2272,"Ġisrael":2273,"lf":2274,"Ġscient":2275,"ledge":2276,"Ġmanagement":2277,"Ġinstitution":2278,"Ġver":2279,"Ġmiddle":2280,"imilar":2281,"ived":2282,"Ġenter":2283,"Ġpack":2284,"Ġexperience":2285,"Ġprices":2286,"Ġliving":2287,"oid":2288,"Ġrecomm":2289,"Ġconnect":2290,"mploy":2291,"Ġtest":2292,"Ġresponse":2293,"Ġec":2294,"Ġprob":2295,"Ġchalleng":2296,"Ġdeath":2297,"Ġnature":2298,"bour":2299,"Ġorigin":2300,"Ġvalues":2301,"Ġguarantee":2302,"Ġachieved":2303,"cri":2304,"rought":2305,"Ġexcellent":2306,"Ġfisher":2307,"Ġelections":2308,"Ġmess":2309,"Ġvalue":2310,"Ġprojects":2311,"Ġcru":2312,"Ġeither":2313,"iving":2314,"Ġprinciples":2315,"Ġstarted":2316,"ps":2317,"ression":2318,"Ġneigh":2319,"Ġprivate":2320,"Ġcommitment":2321,"Ġprice":2322,"abled":2323,"Ġoppos":2324,"Ġimmig":2325,"Ġgree":2326,"uel":2327,"Ġremains":2328,"Ġmass":2329,"Ġsubsid":2330,"Ġlink":2331,"verty":2332,"Ġpoverty":2333,"orrow":2334,"Ġintegration":2335,"Ġsustainable":2336,"ban":2337,"Ġviolence":2338,"Ġarticle":2339,"Ġfig":2340,"Ġourselves":2341,"Ġsuper":2342,"mination":2343,"Ġusing":2344,"Ġborder":2345,"Ġsouth":2346,"ins":2347,"Ġfrench":2348,"ening":2349,"Ġland":2350,"Ġdev":2351,"Ġ15":2352,"Ġlos":2353,"rect":2354,"pite":2355,"Ġmus":2356,"Ġsolidarity":2357,"ler":2358,"lied":2359,"Ġbenefit":2360,"Ġlives":2361,"Ġstrateg":2362,"isf":2363,"Ġservice":2364,"Ġweak":2365,"Ġcongratulate":2366,"Ġcamp":2367,"Ġactivities":2368,"Ġexch":2369,"Ġhuge":2370,"Ġpros":2371,"Ġdise":2372,"Ġconflict":2373,"Ġpriority":2374,"Ġself":2375,"chan":2376,"acy":2377,"uses":2378,"Ġalong":2379,"Ġquickly":2380,"Ġmechan":2381,"Ġreports":2382,"Ġgermany":2383,"Ġdecided":2384,"Ġattack":2385,"Ġmonitor":2386,"Ġgreen":2387,"Ġstress":2388,"Ġupon":2389,"thod":2390,"Ġunemploy":2391,"Ġground":2392,"Ġport":2393,"pr":2394,"Ġsent":2395,"app":2396,"Ġconclud":2397,"Ġconcerning":2398,"Ġhappened":2399,"euro":2400,"fer":2401,"Ġfell":2402,"Ġmen":2403,"Ġgl":2404,"Ġreduce":2405,"Ġrecently":2406,"Ġdemonstr":2407,"lay":2408,"etary":2409,"aster":2410,"Ġreflect":2411,"Ġdetail":2412,"Ġprobably":2413,"arency":2414,"Ġplac":2415,"Ġpurp":2416,"Ġofficial":2417,"Ġfunding":2418,"Ġconsequences":2419,"Ġdam":2420,"therefore":2421,"Ġdraft":2422,"rupt":2423,"Ġred":2424,"Ġdi":2425,"Ġabove":2426,"Ġanal":2427,"Ġsort":2428,"Ġinflu":2429,"Ġgoes":2430,"Ġcy":2431,"Ġdue":2432,"erial":2433,"Ġmodern":2434,"Ġfamily":2435,"Ġprovided":2436,"Ġbuilding":2437,"Ġtomorrow":2438,"ternal":2439,"Ġbi":2440,"Ġtold":2441,"Ġterrorism":2442,"Ġbecom":2443,"vere":2444,"Ġword":2445,"Ġnatural":2446,"Ġimmedi":2447,"Ġbalance":2448,"Ġpotential":2449,"Ġdefin":2450,"Ġital":2451,"Ġbasic":2452,"Ġbehind":2453,"ured":2454,"Ġtransparency":2455,"Ġoblig":2456,"ories":2457,"unch":2458,"Ġthinking":2459,"soci":2460,"Ġincreased":2461,"Ġrelig":2462,"Ġleave":2463,"secondly":2464,"iation":2465,"Ġalone":2466,"Ġatte":2467,"europe":2468,"why":2469,"Ġagriculture":2470,"enge":2471,"Ġrequired":2472,"Ġcause":2473,"Ġbrought":2474,"ruction":2475,"Ġpractice":2476,"Ġdiscussion":2477,"Ġspeech":2478,"Ġclos":2479,"Ġfrance":2480,"Ġdoll":2481,"Ġprevious":2482,"Ġculture":2483,"ination":2484,"Ġstructural":2485,"Ġcompletely":2486,"cal":2487,"ograph":2488,"Ġpercent":2489,"Ġinclude":2490,"moreover":2491,"Ġmethod":2492,"Ġways":2493,"Ġpromote":2494,"Ġpalestin":2495,"Ġil":2496,"Ġhun":2497,"hold":2498,"ired":2499,"Ġlar":2500,"Ġcrucial":2501,"Ġrepe":2502,"Ġoutside":2503,"Ġreality":2504,"iding":2505,"Ġcla":2506,"Ġmonetary":2507,"Ġchallenge":2508,"Ġaut":2509,"Ġindia":2510,"Ġdoubt":2511,"reg":2512,"ometimes":2513,"after":2514,"Ġlater":2515,"like":2516,"Ġcultural":2517,"though":2518,"Ġavoid":2519,"Ġchallenges":2520,"Ġthus":2521,"ively":2522,"Ġearly":2523,"bo":2524,"owers":2525,"Ġexternal":2526,"forms":2527,"Ġevent":2528,"ec":2529,"bec":2530,"Ġcross":2531,"uly":2532,"Ġagreed":2533,"Ġfear":2534,"ges":2535,"Ġexplain":2536,"Ġsound":2537,"Ġden":2538,"Ġindic":2539,"Ġsays":2540,"Ġhigher":2541,"Ġhappy":2542,"Ġbit":2543,"Ġstage":2544,"Ġmovement":2545,"Ġbri":2546,"Ġtask":2547,"ension":2548,"iversity":2549,"Ġill":2550,"Ġassoci":2551,"Ġimpos":2552,"Ġheld":2553,"Ġcontribution":2554,"sp":2555,"itarian":2556,"Ġhour":2557,"ateral":2558,"lif":2559,"rug":2560,"Ġgetting":2561,"because":2562,"tod":2563,"arily":2564,"Ġdebt":2565,"Ġemission":2566,"Ġpurs":2567,"imum":2568,"Ġcarry":2569,"today":2570,"Ġroom":2571,"Ġdeveloped":2572,"Ġcommunication":2573,"Ġregarding":2574,"Ġeffort":2575,"Ġrecommend":2576,"erve":2577,"lling":2578,"Ġaccession":2579,"Ġreview":2580,"acc":2581,"Ġactions":2582,"Ġlegislative":2583,"Ġreturn":2584,"gest":2585,"Ġpartnership":2586,"ron":2587,"Ġcrimin":2588,"Ġcolleagues":2589,"Ġdirection":2590,"Ġfarmers":2591,"20":2592,"tom":2593,"ev":2594,"Ġvol":2595,"Ġbreak":2596,"Ġdecad":2597,"Ġtakes":2598,"Ġlanguage":2599,"use":2600,"iter":2601,"Ġrad":2602,"Ġemb":2603,"uff":2604,"Ġtechnical":2605,"ream":2606,"Ġexact":2607,"Ġprecise":2608,"Ġnorth":2609,"Ġpleased":2610,"Ġbeginning":2611,"Ġexcept":2612,"Ġcorrect":2613,"Ġexisting":2614,"Ġsatisf":2615,"Ġstory":2616,"Ġasse":2617,"Ġcand":2618,"Ġpaper":2619,"Ġteach":2620,"wise":2621,"olution":2622,"Ġlikely":2623,"Ġregime":2624,"Ġaud":2625,"Ġremember":2626,"Ġvoting":2627,"Ġcle":2628,"Ġpressure":2629,"Ġabsolutely":2630,"rial":2631,"Ġkill":2632,"ousand":2633,"Ġfo":2634,"Ġgrowing":2635,"arent":2636,"ior":2637,"Ġlost":2638,"ctions":2639,"Ġassistance":2640,"Ġey":2641,"Ġalthough":2642,"Ġsan":2643,"Ġforces":2644,"well":2645,"Ġopportunities":2646,"Ġlove":2647,"inese":2648,"Ġcoll":2649,"Ġled":2650,"Ġrich":2651,"Ġstatement":2652,"Ġorganis":2653,"Ġnear":2654,"ously":2655,"Ġcurren":2656,"Ġlabour":2657,"ilateral":2658,"Ġdim":2659,"terday":2660,"while":2661,"Ġconsult":2662,"Ġcreation":2663,"Ġregulations":2664,"Ġraised":2665,"Ġconfidence":2666,"Ġequal":2667,"une":2668,"Ġcapac":2669,"Ġideas":2670,"Ġsimilar":2671,"Ġage":2672,"Ġrat":2673,"Ġbanks":2674,"encies":2675,"Ġcreated":2676,"Ġknown":2677,"Ġsea":2678,"Ġtotal":2679,"Ġ/":2680,"Ġdiv":2681,"Ġfinally":2682,"Ġamount":2683,"Ġwaste":2684,"Ġeffects":2685,"Ġthroughout":2686,"Ġpress":2687,"ened":2688,"Ġtraff":2689,"inst":2690,"Ġcohes":2691,"Ġfis":2692,"Ġsimple":2693,"Ġrise":2694,"Ġclass":2695,"Ġregards":2696,"Ġilleg":2697,"lation":2698,"Ġaspects":2699,"ially":2700,"Ġflo":2701,"Ġvital":2702,"sh":2703,"Ġreforms":2704,"Ġexam":2705,"itional":2706,"Ġoffer":2707,"mission":2708,"Ġknowledge":2709,"Ġreading":2710,"Ġthousand":2711,"Ġrates":2712,"Ġ30":2713,"Ġmist":2714,"Ġdrug":2715,"Ġprepared":2716,"Ġwonder":2717,"jo":2718,"Ġaltern":2719,"Ġchinese":2720,"even":2721,"Ġextra":2722,"Ġcentury":2723,"Ġunemployment":2724,"estern":2725,"Ġindustrial":2726,"Ġcritic":2727,"Ġcandid":2728,"lam":2729,"Ġintegr":2730,"yond":2731,"Ġdiscri":2732,"Ġflex":2733,"Ġlevels":2734,"Ġwest":2735,"Ġig":2736,"Ġinterv":2737,"Ġmedia":2738,"mitted":2739,"ah":2740,"rist":2741,"Ġwide":2742,"Ġeth":2743,"Ġwal":2744,"verse":2745,"Ġinstead":2746,"Ġreached":2747,"Ġgain":2748,"Ġeffici":2749,"Ġsuccessful":2750,"Ġcriteria":2751,"Ġexchange":2752,"ator":2753,"uing":2754,"Ġara":2755,"Ġcarried":2756,"aring":2757,"Ġharmon":2758,"Ġstudy":2759,"Ġlearn":2760,"Ġbritish":2761,"Ġauthority":2762,"Ġcomplex":2763,"por":2764,"Ġdeli":2765,"pped":2766,"Ġmyself":2767,"Ġimag":2768,"ished":2769,"Ġinteresting":2770,"Ġ50":2771,"Ġpowers":2772,"Ġ2000":2773,"Ġpresented":2774,"Ġcohesion":2775,"Ġwestern":2776,"Ġcal":2777,"Ġmaterial":2778,"Ġtrust":2779,"Ġdocument":2780,"Ġcod":2781,"Ġperspect":2782,"itud":2783,"Ġprocedures":2784,"rop":2785,"Ġworth":2786,"Ġchance":2787,"Ġswed":2788,"Ġbody":2789,"Ġrequires":2790,"Ġtraffic":2791,"Ġvo":2792,"Ġcircum":2793,"Ġ12":2794,"every":2795,"Ġbenefits":2796,"sels":2797,"Ġrelation":2798,"Ġscale":2799,"Ġpackage":2800,"estic":2801,"Ġbudgetary":2802,"dict":2803,"Ġcompetit":2804,"ological":2805,"rely":2806,"orders":2807,"Ġsometimes":2808,"Ġallowed":2809,"Ġpersonal":2810,"Ġwants":2811,"Ġeasy":2812,"Ġfunction":2813,"Ġeconomies":2814,"Ġaccording":2815,"Ġstri":2816,"Ġrapid":2817,"rary":2818,"Ġtraining":2819,"Ġprim":2820,"can":2821,"ania":2822,"Ġrelationship":2823,"Ġpati":2824,"Ġwhose":2825,"Ġinternet":2826,"Ġrespond":2827,"Ġfriend":2828,"Ġpriorities":2829,"Ġcapacity":2830,"Ġ000":2831,"Ġmill":2832,"Ġsupported":2833,"ix":2834,"Ġdepend":2835,"Ġbeyond":2836,"Ġencourage":2837,"ats":2838,"Ġpoll":2839,"Ġinstrument":2840,"Ġaust":2841,"ored":2842,"duct":2843,"Ġearth":2844,"mption":2845,"Ġevents":2846,"Ġcollect":2847,"reh":2848,"Ġgiving":2849,"Ġrural":2850,"Ġparliamentary":2851,"Ġscientific":2852,"Ġmessage":2853,"Ġ25":2854,"Ġsal":2855,"further":2856,"Ġdead":2857,"Ġfisheries":2858,"Ġfed":2859,"Ġcompany":2860,"lt":2861,"Ġgerman":2862,"ĠâĢĺ":2863,"Ġsaw":2864,"Ġterrit":2865,"Ġinnovation":2866,"Ġsecret":2867,"Ġrenew":2868,"Ġthanks":2869,"Ġintel":2870,"Ġgas":2871,"Ġincome":2872,"Ġrequirements":2873,"ource":2874,"Ġrepublic":2875,"Ġprovisions":2876,"Ġhighlight":2877,"Ġtreatment":2878,"Ġproduce":2879,"Ġund":2880,"Ġspace":2881,"Ġfamil":2882,"Ġgave":2883,"dom":2884,"cer":2885,"Ġpie":2886,"Ġchrist":2887,"thern":2888,"Ġemissions":2889,"Ġremind":2890,"Ġanimals":2891,"Ġregret":2892,"ha":2893,"Ġnote":2894,"Ġvictims":2895,"Ġmer":2896,"Ġformer":2897,"Ġfellow":2898,"ton":2899,"Ġtabled":2900,"Ġwin":2901,"Ġdece":2902,"Ġ11":2903,"Ġgrant":2904,"Ġfront":2905,"aff":2906,"Ġcrime":2907,"Ġrecon":2908,"Ġexactly":2909,"Ġprime":2910,"Ġreceived":2911,"yet":2912,"Ġestablished":2913,"Ġinstruments":2914,"Ġminutes":2915,"ourable":2916,"Ġheart":2917,"Ġadvant":2918,"Ġtemp":2919,"Ġsolutions":2920,"sibilities":2921,"Ġsens":2922,"Ġislam":2923,"Ġlate":2924,"Ġcomput":2925,"Ġitem":2926,"action":2927,"Ġweap":2928,"Ġvir":2929,"Ġborders":2930,"Ġexport":2931,"Ġpolitics":2932,"Ġcreating":2933,"aut":2934,"Ġcop":2935,"fect":2936,"Ġhistor":2937,"Ġyesterday":2938,"Ġire":2939,"Ġprepar":2940,"Ġinitiatives":2941,"Ġpict":2942,"Ġadministration":2943,"Ġdeg":2944,"ots":2945,"reci":2946,"lier":2947,"unfortunately":2948,"Ġsubstant":2949,"Ġarab":2950,"Ġireland":2951,"Ġshows":2952,"Ġsupply":2953,"Ġelection":2954,"pl":2955,"Ġshown":2956,"Ġmonitoring":2957,"Ġlegit":2958,"aign":2959,"ca":2960,"Ġoccur":2961,"Ġneighbour":2962,"Ġrelev":2963,"Ġconclusion":2964,"Ġcircumst":2965,"iet":2966,"icians":2967,"Ġukra":2968,"Ġconduct":2969,"Ġadditional":2970,"Ġcampaign":2971,"ghan":2972,"Ġsucceed":2973,"Ġmorning":2974,"Ġcurrency":2975,"Ġundert":2976,"Ġdr":2977,"Ġindependent":2978,"liance":2979,"Ġquot":2980,"Ġspir":2981,"omp":2982,"Ġparts":2983,"Ġnorm":2984,"Ġillegal":2985,"Ġcounter":2986,"Ġargu":2987,"nam":2988,"Ġwilling":2989,"Ġens":2990,"Ġmedium":2991,"Ġexpressed":2992,"Ġconsist":2993,"Ġcriminal":2994,"Ġslow":2995,"Ġmeasure":2996,"gar":2997,"Ġsco":2998,"rastruct":2999,"Ġdecide":3000,"Ġfishing":3001,"Ġstrategic":3002,"round":3003,"firstly":3004,"Ġanalys":3005,"Ġinfluence":3006,"Ġpurpose":3007,"Ġfirm":3008,"Ġrecord":3009,"Ġinfrastruct":3010,"Ġsepar":3011,"Ġguid":3012,"Ġbusinesses":3013,"verage":3014,"Ġgoods":3015,"Ġconvin":3016,"Ġcompetitiveness":3017,"Ġnight":3018,"uine":3019,"Ġtack":3020,"Ġtool":3021,"accept":3022,"Ġdelay":3023,"Ġrisks":3024,"Ġasia":3025,"undred":3026,"Ġactive":3027,"head":3028,"Ġfiscal":3029,"..":3030,"Ġmand":3031,"ounts":3032,"Ġpolice":3033,"Ġcircumstances":3034,"thank":3035,"Ġpractical":3036,"Ġinvolve":3037,"Ġfriends":3038,"Ġspending":3039,"Ġcredit":3040,"Ġdefic":3041,"Ġking":3042,"Ġextent":3043,"Ġseriously":3044,"Ġunaccept":3045,"Ġwatch":3046,"agraph":3047,"Ġorganisations":3048,"Ġgenuine":3049,"Ġlimited":3050,"Ġapplication":3051,"Ġincluded":3052,"ama":3053,"Ġafghan":3054,"Ġdescri":3055,"val":3056,"Ġworked":3057,"Ġstay":3058,"ortion":3059,"Ġreduction":3060,"Ġpain":3061,"Ġbul":3062,"Ġimplemented":3063,"ump":3064,"Ġones":3065,"Ġmal":3066,"Ġmig":3067,"Ġweeks":3068,"Ġimmigration":3069,"ilt":3070,"rison":3071,"Ġappreci":3072,"Ġconsidered":3073,"Ġincreasingly":3074,"Ġanti":3075,"not":3076,"ureau":3077,"Ġperform":3078,"la":3079,"Ġeffectively":3080,"furthermore":3081,"rative":3082,"que":3083,"Ġlimit":3084,"Ġdangerous":3085,"Ġtype":3086,"anish":3087,"osov":3088,"Ġbureau":3089,"Ġagency":3090,"Ġwarm":3091,"Ġpaid":3092,"bed":3093,"Ġviews":3094,"Ġministers":3095,"ses":3096,"Ġapplied":3097,"Ġhighly":3098,"Ġchanged":3099,"itude":3100,"Ġunacceptable":3101,"pre":3102,"sec":3103,"Ġevidence":3104,"Ġeastern":3105,"Ġprovides":3106,"know":3107,"entions":3108,"Ġspeaking":3109,"Ġmotion":3110,"oint":3111,"Ġopposition":3112,"since":3113,"Ġsen":3114,"Ġconstruct":3115,"Ġdisease":3116,"Ġrestrict":3117,"Ġcommer":3118,"Ġkore":3119,"Ġinstitutional":3120,"Ġcontent":3121,"Ġplease":3122,"Ġannual":3123,"Ġbrief":3124,"dp":3125,"lin":3126,"umption":3127,"Ġcell":3128,"Ġfailure":3129,"Ġcat":3130,"Ġhundred":3131,"ilit":3132,"Ġste":3133,"imately":3134,"Ġpossibility":3135,"Ġinvestig":3136,"Ġimpossible":3137,"Ġkid":3138,"Ġefficiency":3139,"Ġkosov":3140,"Ġdespite":3141,"ones":3142,"Ġgives":3143,"Ġoutcome":3144,"Ġcou":3145,"Ġpalestinian":3146,"ology":3147,"never":3148,"Ġfailed":3149,"Ġassessment":3150,"last":3151,"oke":3152,"Ġexer":3153,"Ġcha":3154,"Ġanyone":3155,"Ġnamely":3156,"Ġraise":3157,"Ġ2007":3158,"Ġdiscussions":3159,"Ġdiscrimination":3160,"Ġdecember":3161,"hood":3162,"ster":3163,"Ġforget":3164,"Ġdeleg":3165,"Ġchoice":3166,"Ġrelating":3167,"Ġspeed":3168,"Ġbuy":3169,"Ġdomestic":3170,"Ġeuropeans":3171,"Ġperfect":3172,"Ġcity":3173,"Ġcommitted":3174,"Ġprecisely":3175,"force":3176,"Ġuseful":3177,"Ġoccas":3178,"ivity":3179,"Ġperspective":3180,"equate":3181,"iss":3182,"Ġmut":3183,"Ġenable":3184,"lands":3185,"Ġenorm":3186,"na":3187,"ria":3188,"Ġseek":3189,"Ġsteps":3190,"Ġunfortunately":3191,"Ġparagraph":3192,"Ġmiss":3193,"Ġdate":3194,"Ġcalls":3195,"Ġcoordination":3196,"Ġaffected":3197,"Ġactivity":3198,"Ġcomments":3199,"Ġsectors":3200,"Ġaccepted":3201,"Ġhy":3202,"ked":3203,"yl":3204,"Ġtour":3205,"Ġrelated":3206,"Ġhappens":3207,"Ġdiscussed":3208,"Ġcompreh":3209,"Ġrelevant":3210,"Ġ18":3211,"itable":3212,"Ġje":3213,"Ġstatus":3214,"Ġcomment":3215,"Ġtruth":3216,"prises":3217,"Ġhumanitarian":3218,"ob":3219,"Ġforms":3220,"Ġproceed":3221,"Ġboard":3222,"Ġgir":3223,"Ġdistribut":3224,"Ã©":3225,"ature":3226,"Ġanimal":3227,"any":3228,"ira":3229,"such":3230,"Ġplans":3231,"Ġgreece":3232,"Ġscope":3233,"anu":3234,"ustom":3235,"Ġdirectly":3236,"Ġearlier":3237,"Ġdealing":3238,"Ġchair":3239,"Ġhappening":3240,"ensus":3241,"Ġmedic":3242,"Ġclosely":3243,"Ġfinance":3244,"Ġnews":3245,"Ġcharact":3246,"ze":3247,"ouble":3248,"Ġjoin":3249,"lom":3250,"Ġult":3251,"Ġkosovo":3252,"Ġcontribute":3253,"Ġalternative":3254,"Ġign":3255,"Ġ...":3256,"rest":3257,"Ġsad":3258,"certain":3259,"Ġlower":3260,"Ġcaused":3261,"Ġrussian":3262,"Ġtable":3263,"Ġconnection":3264,"ls":3265,"ume":3266,"Ġblack":3267,"Ġinfrastructure":3268,"cul":3269,"Ġsun":3270,"Ġ100":3271,"Ġdeclar":3272,"Ġdict":3273,"Ġworks":3274,"Ġeval":3275,"Ġcritical":3276,"Ġwind":3277,"Ġdip":3278,"lled":3279,"Ġqual":3280,"Ġreceive":3281,"Ġhor":3282,"pping":3283,"Ġexplo":3284,"Ġoverall":3285,"Ġalloc":3286,"aging":3287,"Ġready":3288,"Ġtyp":3289,"Ġrepresentatives":3290,"Ġrelative":3291,"Ġobviously":3292,"Ġgoal":3293,"Ġhours":3294,"omb":3295,"ows":3296,"Ġclar":3297,"Ġcondem":3298,"Ġconsiderable":3299,"uard":3300,"Ġ2008":3301,"endit":3302,"Ġarri":3303,"overy":3304,"Ġpret":3305,"Ġconcent":3306,"Ġrefuge":3307,"Ġauthor":3308,"Ġbeaut":3309,"Ġrail":3310,"Ġfoot":3311,"Ġweapons":3312,"Ġunivers":3313,"Ġunderstanding":3314,"ik":3315,"Ġconcept":3316,"Ġbod":3317,"ussels":3318,"Ġability":3319,"Ġdifference":3320,"atever":3321,"Ġaimed":3322,"Ġtried":3323,"Ġconstitutional":3324,"Ġcloser":3325,"Ġguidel":3326,"Ġjune":3327,"Ġlaunch":3328,"lying":3329,"Ġorganisation":3330,"Ġspirit":3331,"Ġfuel":3332,"Ġenjo":3333,"Ġ198":3334,"Ġbecoming":3335,"Ġbecame":3336,"Ġefficient":3337,"Ġscience":3338,"set":3339,"Ġsil":3340,"Ġrein":3341,"urally":3342,"Ġreferen":3343,"Ġlooks":3344,"Ġadministrative":3345,"Ġhung":3346,"Ġ$":3347,"Ġcover":3348,"Ġconsensus":3349,"Ġ2009":3350,"cup":3351,"Ġpenal":3352,"Ġthousands":3353,"ann":3354,"Ġfre":3355,"Ġsurv":3356,"Ġdemands":3357,"Ġsud":3358,"Ġmarch":3359,"Ġconfirm":3360,"Ġenterprises":3361,"ift":3362,"Ġfinancing":3363,"Ġimproved":3364,"Ġukraine":3365,"Ġconvinced":3366,"itious":3367,"Ġstra":3368,"Ġbehav":3369,"Ġdefence":3370,"Ġleading":3371,"Ġgone":3372,"Ġstru":3373,"Ġworse":3374,"lant":3375,"Ġfacing":3376,"Ġsend":3377,"Ġpath":3378,"Ġprison":3379,"Ġsex":3380,"Ġenglish":3381,"Ġuni":3382,"Ġrepl":3383,"Ġadap":3384,"agn":3385,"Ġtravel":3386,"cle":3387,"Ġreference":3388,"works":3389,"Ġ40":3390,"Ġdiplom":3391,"Ġhar":3392,"Ġasking":3393,"Ġship":3394,"Ġdamage":3395,"Ġwhite":3396,"Ġmoving":3397,"Ġnegative":3398,"rants":3399,"rane":3400,"Ġround":3401,"Ġknows":3402,"Ġapproved":3403,"Ġspent":3404,"Ġobtain":3405,"Ġlaws":3406,"Ġblo":3407,"Ġhop":3408,"Ġdifferences":3409,"ma":3410,"Ġcompl":3411,"Ġdifficulties":3412,"Ġslo":3413,"Ġgovernance":3414,"Ġproduced":3415,"Ġtechnologies":3416,"will":3417,"aced":3418,"Ġmother":3419,"lusions":3420,"Ġprofession":3421,"dra":3422,"Ġahead":3423,"Ġcontract":3424,"Ġpoliticians":3425,"Ġrevolution":3426,"Ġcharacter":3427,"Ġbrain":3428,"ording":3429,"those":3430,"Ġduty":3431,"Ġreligious":3432,"olid":3433,"Ġsafe":3434,"anuary":3435,"fact":3436,"Ġproviding":3437,"Ġcompetitive":3438,"Ġconstant":3439,"Ġfulf":3440,"parliament":3441,"Ġportug":3442,"nevertheless":3443,"Ġenormous":3444,"Ġjanuary":3445,"Ġbush":3446,"Ġphys":3447,"Ġappear":3448,"Ġleadership":3449,"dam":3450,"Ġsufficient":3451,"akistan":3452,"his":3453,"erves":3454,"Ġsitting":3455,"Ġbrussels":3456,"Ġreduced":3457,"Ġafghanistan":3458,"Ġlu":3459,"Ġrightly":3460,"Ġbat":3461,"Ġlog":3462,"Ġarr":3463,"Ġannoun":3464,"Ġcontrary":3465,"Ġconclude":3466,"according":3467,"ya":3468,"isms":3469,"imin":3470,"Ġputting":3471,"urance":3472,"Ġafrican":3473,"Ġdevelopments":3474,"Ġsuperv":3475,"Ġguidelines":3476,"Ġwall":3477,"Ġrepresents":3478,"Ġundertak":3479,"Ġcustom":3480,"Ġdollars":3481,"Ġpicture":3482,"Ġwto":3483,"ylum":3484,"âĢĻ":3485,"Ġ14":3486,"Ġprovision":3487,"Ġminimum":3488,"ex":3489,"up":3490,"Ġda":3491,"Ġplaces":3492,"Ġdimension":3493,"ufact":3494,"vert":3495,"Ġinterested":3496,"Ġensuring":3497,"Ġ13":3498,"Ġentirely":3499,"please":3500,"Ġurgent":3501,"Ġadoption":3502,"Ġcomprehensive":3503,"Ġbodies":3504,"Ġjour":3505,"Ġambitious":3506,"Ġfil":3507,"Ġ2010":3508,"Ġclaim":3509,"Ġsha":3510,"Ġconclusions":3511,"Ġconsideration":3512,"Ġimproving":3513,"Ġturned":3514,"under":3515,"Ġobst":3516,"rate":3517,"only":3518,"although":3519,"Ġpush":3520,"Ġasylum":3521,"Ġbudge":3522,"Ġexpected":3523,"cers":3524,"Ġcr":3525,"Ġeat":3526,"oph":3527,"aries":3528,"unt":3529,"Ġexpendit":3530,"iterrane":3531,"med":3532,"Ġbuilt":3533,"Ġequality":3534,"eguard":3535,"Ġindependence":3536,"iterranean":3537,"Ġfather":3538,"Ġcorrupt":3539,"vereign":3540,"Ġheav":3541,"Ġmediterranean":3542,"Ġinflation":3543,"Ġhands":3544,"Ġstructure":3545,"Ġhonourable":3546,"Ġmanufact":3547,"Ġnetwork":3548,"Ġgdp":3549,"Ġspain":3550,"Ġvoice":3551,"reet":3552,"Ġpakistan":3553,"ames":3554,"Ġspread":3555,"Ġ2004":3556,"Ġsafeguard":3557,"Ġbalanced":3558,"Ġton":3559,"Ġbegan":3560,"Ġsep":3561,"Ġsovereign":3562,"Ġcooper":3563,"Ġparticipation":3564,"pol":3565,"Ġtre":3566,"tember":3567,"Ġadded":3568,"istics":3569,"Ġirish":3570,"Ġprospect":3571,"Ġcombat":3572,"Ġdecades":3573,"elt":3574,"Ġimmediately":3575,"Ġanalysis":3576,"Ġpropose":3577,"erent":3578,"Ġelected":3579,"Ġtotally":3580,"Ġitaly":3581,"Ġsimplif":3582,"Ġintervention":3583,"Ġsomeone":3584,"Ġconserv":3585,"Ġcolleague":3586,"Ġhit":3587,"Ġoccup":3588,"Ġnice":3589,"Ġforest":3590,"Ġcandidate":3591,"oman":3592,"izing":3593,"Ġcommitments":3594,"Ġproperly":3595,"Ġstaff":3596,"Ġdemocrats":3597,"Ġ0":3598,"Ġgoals":3599,"Ġacknow":3600,"Ġtalks":3601,"Ġurge":3602,"Ġattempt":3603,"Ġadvantage":3604,"Ġpra":3605,"mental":3606,"Ġaverage":3607,"Ġbear":3608,"ender":3609,"Ġmach":3610,"urd":3611,"ival":3612,"Ġschem":3613,"Ġstarting":3614,"Ġseptember":3615,"Ġstated":3616,"Ġcommercial":3617,"Ġcra":3618,"Ġnation":3619,"Ġspend":3620,"Ġaccomp":3621,"Ġwelcom":3622,"Ġveh":3623,"icles":3624,"Ġreact":3625,"Ġlay":3626,"Ġteam":3627,"Ġfigure":3628,"Ġsource":3629,"Ġsources":3630,"Ġpact":3631,"Ġapplies":3632,"Ġburden":3633,"Ġlose":3634,"Ġdoct":3635,"Ġlea":3636,"Ġlooked":3637,"Ġplanet":3638,"Ġnone":3639,"Ġdisaster":3640,"Ġgeor":3641,"akes":3642,"Ġfeed":3643,"Ġturk":3644,"Ã¶":3645,"Ġstreet":3646,"ocol":3647,"Ġelements":3648,"Ġlargest":3649,"Ġexception":3650,"entially":3651,"ket":3652,"Ġunf":3653,"uck":3654,"Ġcomplain":3655,"ught":3656,"Ġexcess":3657,"Ġcompens":3658,"Ġmaybe":3659,"Ġrecovery":3660,"Ġsolve":3661,"Ġimagine":3662,"Ġinh":3663,"Ġpiece":3664,"mes":3665,"Ġeight":3666,"third":3667,"Ġord":3668,"Ġmanaged":3669,"Ġsupposed":3670,"Ġwhom":3671,"Ġ2005":3672,"Ġstrongly":3673,"Ġreferred":3674,"Ġintended":3675,"xic":3676,"Ġopening":3677,"ented":3678,"Ġenh":3679,"Ġ2006":3680,"Ġstock":3681,"Ġmerely":3682,"anim":3683,"Ġsupporting":3684,"Ġeverybody":3685,"Ġdrawn":3686,"Ġmechanism":3687,"Ġreducing":3688,"Ġappears":3689,"ene":3690,"Ġfast":3691,"Ġstudents":3692,"Ġintroduced":3693,"Ġintroduction":3694,"Ġwealth":3695,"irms":3696,"Ġcalling":3697,"Ġdiscussing":3698,"arents":3699,"Ġnormal":3700,"Ġreferend":3701,"eli":3702,"Ġsus":3703,"Ġfacilit":3704,"Ġexplan":3705,"Ġclean":3706,"Ġfloor":3707,"Ġmission":3708,"Ġsetting":3709,"from":3710,"mine":3711,"ills":3712,"Ġkingdom":3713,"rep":3714,"rete":3715,"ork":3716,"aught":3717,"Ġpowerful":3718,"Ġbir":3719,"Ġtransparent":3720,"Ġbudgets":3721,"Ġforced":3722,"lus":3723,"atically":3724,"Ġacqu":3725,"Ġmembership":3726,"yed":3727,"Ġwithdra":3728,"Ġdoor":3729,"iful":3730,"augh":3731,"Ġacceptable":3732,"Ġcro":3733,"Ġhost":3734,"des":3735,"Ġtun":3736,"Ġfif":3737,"Ġseven":3738,"Ġtransfer":3739,"instead":3740,"Ġarrange":3741,"bs":3742,"Ġbureauc":3743,"ocks":3744,"Ġincent":3745,"els":3746,"Ġappeal":3747,"Ġtruly":3748,"Ġtargets":3749,"Ġsurpris":3750,"Ġfollowed":3751,"Ġvisit":3752,"Ġsize":3753,"Ġsold":3754,"Ġought":3755,"Ġsanctions":3756,"Ġpet":3757,"Ġproducers":3758,"Ġemerg":3759,"Ġchem":3760,"Ġnato":3761,"Ġsides":3762,"Ġconsumption":3763,"Ġfraud":3764,"Ġdetermin":3765,"Ġaims":3766,"Ġintroduce":3767,"lines":3768,"Ġmeant":3769,"Ġsuffering":3770,"Ġunable":3771,"using":3772,"Ġadjust":3773,"Ġconcrete":3774,"Ġoperation":3775,"Ġresponsibilities":3776,"Ġaccordance":3777,"Ġemphasise":3778,"Ġwoman":3779,"Ġpub":3780,"Ġaddressed":3781,"itation":3782,"Ġwhatever":3783,"Ġcontinues":3784,"Ġmainly":3785,"enced":3786,"Ġincor":3787,"Ġfamilies":3788,"Ġgreatest":3789,"Ġexpenditure":3790,"idents":3791,"Ġkorea":3792,"Ġbot":3793,"Ġcomputer":3794,"ulated":3795,"Ġvul":3796,"Ġmob":3797,"Ġspecifically":3798,"Ġdestro":3799,"put":3800,"uations":3801,"Ã¡":3802,"Ġdon":3803,"Ġagencies":3804,"Ġachieving":3805,"Ġnetworks":3806,"oon":3807,"Ġneither":3808,"Ġinside":3809,"Ġofficials":3810,"Ġmanner":3811,"oking":3812,"Ġdrugs":3813,"Ġdog":3814,"Ġprefer":3815,"ees":3816,"Ġpromoting":3817,"Ġdegree":3818,"Ġlines":3819,"Ġperman":3820,"gypt":3821,"Ġgradu":3822,"Ġflexibility":3823,"Ġgame":3824,"Ġshared":3825,"Ġvision":3826,"Ġinformed":3827,"Ġspecies":3828,"Ġworry":3829,"Ġeyes":3830,"Ġdy":3831,"Ġcommunic":3832,"ij":3833,"Ġfelt":3834,"sy":3835,"Ġsession":3836,"Ġunanim":3837,"âĢĵ":3838,"Ġcomplic":3839,"Ġobser":3840,"Ġoct":3841,"people":3842,"Ġreply":3843,"Ġtransform":3844,"Ġcontinent":3845,"Ġletter":3846,"Ġopposed":3847,"Ġrepresentative":3848,"Ġwait":3849,"Ġpublish":3850,"Ġ16":3851,"Ġdesigned":3852,"Ġvulner":3853,"Ġdream":3854,"Ġcontact":3855,"Ġcold":3856,"Ġcard":3857,"Ġcompar":3858,"Ġsecure":3859,"Ġamericans":3860,"Ġromania":3861,"Ġsensitive":3862,"Ġpretty":3863,"Ġplaying":3864,"Ġmeaning":3865,"Ġdeclaration":3866,"Ġrele":3867,"Ġlies":3868,"Ġcauses":3869,"commission":3870,"rog":3871,"Ġii":3872,"Ġactual":3873,"Ġrob":3874,"Ġhimself":3875,"Ġrunning":3876,"orry":3877,"Ġcontains":3878,"Ġbeautiful":3879,"bia":3880,"vember":3881,"Ġgod":3882,"Ġnovember":3883,"govern":3884,"Ġcarefully":3885,"Ġmethods":3886,"Ġimmediate":3887,"Ġintegrated":3888,"Ġpun":3889,"Ġber":3890,"Ġconstructive":3891,"mas":3892,"Ġparents":3893,"enty":3894,"Ġstim":3895,"Ġotherwise":3896,"zy":3897,"Ġforth":3898,"abil":3899,"Ġmillions":3900,"Ġ17":3901,"Ġfigures":3902,"Ġdelegation":3903,"arks":3904,"Ġintention":3905,"Ġregular":3906,"Ġisraeli":3907,"Ġattemp":3908,"Ġelement":3909,"Ġfactor":3910,"Ġrecognition":3911,"Ġprosper":3912,"lantic":3913,"Ġsized":3914,"Ġtouch":3915,"Ġ2001":3916,"Ġprevention":3917,"Ġdocuments":3918,"Ġcancer":3919,"Ġdefend":3920,"Ġbelg":3921,"Ġexercise":3922,"Ġstrict":3923,"Ġresist":3924,"coming":3925,"Ġrejected":3926,"Ġsho":3927,"Ġdisapp":3928,"Ġtele":3929,"ourage":3930,"roso":3931,"Ġengine":3932,"Ġsubstantial":3933,"Ġturkish":3934,"ops":3935,"Ġ2003":3936,"Ġmoral":3937,"Ġrepeat":3938,"cl":3939,"Ġwid":3940,"Ġlimits":3941,"Ġaudit":3942,"Ġvirt":3943,"Ġder":3944,"Ġelectric":3945,"Ġreferendum":3946,"Ġtend":3947,"Ġexec":3948,"Ġcontra":3949,"Ġleader":3950,"Ġafford":3951,"Ġimprovement":3952,"Ġcharter":3953,"Ġtraditional":3954,"ateful":3955,"Ġspanish":3956,"aw":3957,"urs":3958,"Ġinstance":3959,"Ġdesire":3960,"Ġfaced":3961,"Ġtren":3962,"ery":3963,"Ġcommunities":3964,"Ġhom":3965,"respon":3966,"Ġserve":3967,"Ġcars":3968,"Ġdealt":3969,"Ġinsist":3970,"ulations":3971,"Ġdisch":3972,"Ġarms":3973,"Ġresolve":3974,"Ġlargely":3975,"Ġsubsidies":3976,"Ġmusl":3977,"another":3978,"stood":3979,"Ġsav":3980,"Ġsupports":3981,"Ġcombating":3982,"Ġhot":3983,"Ġstructures":3984,"Ġmechanisms":3985,"mrs":3986,"Ġgeneration":3987,"perhaps":3988,"Ġrecognise":3989,"Ġattacks":3990,"viet":3991,"Ġparliaments":3992,"fare":3993,"ober":3994,"Ġegypt":3995,"Ġkept":3996,"Ġoctober":3997,"nes":3998,"Ġ1999":3999,"Ġstrugg":4000,"Ġcoal":4001,"Ġimplementing":4002,"Ġwishes":4003,"Ġglad":4004,"Ġdeliver":4005,"commissioner":4006,"tic":4007,"Ġyork":4008,"agen":4009,"Ġpoland":4010,"Ġlearned":4011,"Ġintellig":4012,"Ġcouple":4013,"Ġobstac":4014,"Ġstuff":4015,"Ġcontinued":4016,"Ġinvestments":4017,"Ġseeing":4018,"Ġfactors":4019,"Ġexamples":4020,"Ġwaiting":4021,"Ġuns":4022,"Ġ2002":4023,"Ġpointed":4024,"Ġlabor":4025,"Ġtarget":4026,"Ġcorruption":4027,"ateg":4028,"Ġsigned":4029,"Ġindividuals":4030,"Ġemerging":4031,"Ġchamber":4032,"Ġtourism":4033,"br":4034,"Ġdiversity":4035,"Ġcontinuing":4036,"Ġrange":4037,"Ġsoviet":4038,"Ġexports":4039,"Ġobama":4040,"Ġyourself":4041,"Ġpan":4042,"enh":4043,"illed":4044,"Ġdeficit":4045,"Ġrefugees":4046,"Ġbringing":4047,"Ġitalian":4048,"Ġfederal":4049,"Ġok":4050,"Ġfire":4051,"Ġpractices":4052,"Ġeasier":4053,"Ġpasseng":4054,"Ġpill":4055,"Ġprotocol":4056,"Ġautom":4057,"Ġbon":4058,"Ġrapporteurs":4059,"Ġcredibility":4060,"Ġhonest":4061,"Ġdefinition":4062,"Ġplayed":4063,"mark":4064,"inary":4065,"Ġpositions":4066,"Ġengage":4067,"Ġstrength":4068,"orary":4069,"Ġarrest":4070,"Ġbasically":4071,"Ġlaid":4072,"Ġattract":4073,"Ġchanging":4074,"Ġmutual":4075,"fe":4076,"may":4077,"Ġassemb":4078,"Ġtro":4079,"Ġcateg":4080,"Ġcarbon":4081,"Ġwritten":4082,"Ġgreek":4083,"Ġsweden":4084,"Ġdynam":4085,"itch":4086,"tedly":4087,"Ġseries":4088,"Ġmax":4089,"Ġ2020":4090,"Ġgrateful":4091,"mos":4092,"Ġconver":4093,"who":4094,"Ġdomin":4095,"Ġcities":4096,"Ġstake":4097,"Ġsoft":4098,"Ġpartner":4099,"ables":4100,"Ġ21":4101,"Ġkinds":4102,"Ġspeakers":4103,"Ġpayments":4104,"Ġpopular":4105,"Ġ60":4106,"sibly":4107,"Ġsubsidi":4108,"iny":4109,"Ġstrengthening":4110,"ladies":4111,"Ġbound":4112,"Ġsave":4113,"Ġsymb":4114,"ana":4115,"Ġextend":4116,"Ġsett":4117,"Ġterrorist":4118,"Ġrenewable":4119,"nic":4120,"Ġnorthern":4121,"Ġelimin":4122,"Ġfighting":4123,"Ġdrink":4124,"Ġrecommendations":4125,"rs":4126,"Ġfine":4127,"Ġterri":4128,"Ġky":4129,"Ġincludes":4130,"Ġfeeling":4131,"Ġbarri":4132,"Ġpassed":4133,"Ġcheck":4134,"Ġmandate":4135,"Ġhous":4136,"Ġmassive":4137,"oin":4138,"Ġattitude":4139,"Ġgrand":4140,"Ġoption":4141,"Ġoriginal":4142,"Ġloss":4143,"Ġminority":4144,"Ġresolutions":4145,"Ġadvoc":4146,"Ġkids":4147,"Ġunderstood":4148,"Ġstatements":4149,"Ġlatin":4150,"Ġwo":4151,"Ġfix":4152,"Ġhelped":4153,"Ġcode":4154,"Ġtaxes":4155,"going":4156,"Ġhur":4157,"Ġcondition":4158,"Ġchristian":4159,"road":4160,"Ġestablishment":4161,"Ġheads":4162,"matic":4163,"Ġmeps":4164,"Ġmusic":4165,"thirdly":4166,"Ġbill":4167,"thus":4168,"vered":4169,"Ġadequate":4170,"Ġgenerally":4171,"Ġbecomes":4172,"Ġsymbol":4173,"Ġbase":4174,"Ġconsultation":4175,"bit":4176,"Ġcourage":4177,"sequently":4178,"iers":4179,"zil":4180,"Ġproportion":4181,"Ġexpression":4182,"Ġvotes":4183,"Ġthor":4184,"etic":4185,"Ġphil":4186,"prise":4187,"despite":4188,"Ġcub":4189,"oses":4190,"Ġimplic":4191,"Ġjuly":4192,"ites":4193,"Ġcompe":4194,"Ġremark":4195,"Ġregulatory":4196,"Ġlinked":4197,"yes":4198,"Ġdebates":4199,"Ġacts":4200,"Ġpoore":4201,"Ġsubmitted":4202,"Ġtreaties":4203,"Ġeasily":4204,"enhagen":4205,"Ġforg":4206,"Ġsto":4207,"Ġlanguages":4208,"Ġwithdraw":4209,"tur":4210,"zone":4211,"Ġsorry":4212,"Ġreven":4213,"Ġrid":4214,"Ġ27":4215,"Ġlisten":4216,"Ġincred":4217,"Ġdraf":4218,"Ġplanning":4219,"Ġinsurance":4220,"Ġbarroso":4221,"Ġbritain":4222,"Ġchoose":4223,"Ġdischarge":4224,"assion":4225,"ade":4226,"Ġgets":4227,"Ġwelfare":4228,"imb":4229,"Ġclosed":4230,"Ġdirectives":4231,"Ġevening":4232,"ony":4233,"Ġbomb":4234,"iling":4235,"inding":4236,"Ġnumbers":4237,"Ġphot":4238,"Ġequally":4239,"50":4240,"ground":4241,"Ġut":4242,"Ġabol":4243,"appe":4244,"Ġcovered":4245,"Ġtelev":4246,"Ġsmes":4247,"Ġmistake":4248,"Ġadapt":4249,"asters":4250,"Ġpresence":4251,"Ġspok":4252,"Ġprotest":4253,"Ġestablishing":4254,"Ġfrequ":4255,"pir":4256,"Ġcult":4257,"Ġpatients":4258,"ote":4259,"Ġknew":4260,"Ġprove":4261,"raid":4262,"Ġaccident":4263,"Ġcontrols":4264,"Ġconflicts":4265,"Ġchemical":4266,"Ġdig":4267,"Ġrising":4268,"Ġincorpor":4269,"Ġpermanent":4270,"Ġunlike":4271,"ruit":4272,"Ġafraid":4273,"Ġconstruction":4274,"Ġbalk":4275,"Ġbiggest":4276,"Ġobserv":4277,"pret":4278,"Ġuncertain":4279,"Ġmedical":4280,"Ġemployees":4281,"Ġrepeated":4282,"Ġeye":4283,"Ġcriticism":4284,"Ġoce":4285,"aking":4286,"Ġpeop":4287,"Ġsignal":4288,"ronic":4289,"Ġdie":4290,"arus":4291,"Ġimf":4292,"Ġbooks":4293,"Ġtackle":4294,"hn":4295,"Ġquant":4296,"Ġtrading":4297,"Ġidentity":4298,"Ġdollar":4299,"Ġpeoples":4300,"hib":4301,"Ġboy":4302,"Ġkilled":4303,"Ġcondemn":4304,"Ġcorpor":4305,"Ġdrive":4306,"ken":4307,"ingly":4308,"Ġmem":4309,"Ġlearning":4310,"Ġjapanese":4311,"Ġlarger":4312,"Ġappreciate":4313,"Ġrelatively":4314,"bor":4315,"di":4316,"Ġconsolid":4317,"Ġtrain":4318,"Ġurban":4319,"Ġguarantees":4320,"Ġobligations":4321,"both":4322,"Ġoccasion":4323,"Ġblood":4324,"Ġbilateral":4325,"Ġelector":4326,"Ġspoke":4327,"Ġglobalisation":4328,"Ġtelevision":4329,"Ġreasonable":4330,"Ġexperts":4331,"Ġvulnerable":4332,"Ġng":4333,"Ġbelong":4334,"Ġdiseases":4335,"Ġlux":4336,"Ġaband":4337,"Ġsocialist":4338,"Ġinvestors":4339,"Ġnaturally":4340,"Ġmeetings":4341,"Ġcopenhagen":4342,"Ġgeorg":4343,"Ġsevere":4344,"Ġlegitim":4345,"orse":4346,"right":4347,"Ġvast":4348,"Ġseeking":4349,"Ġ197":4350,"Ġhelping":4351,"Ġtrafficking":4352,"Ġprofessional":4353,"Ġdecis":4354,"Ġtechnological":4355,"Ġprotecting":4356,"Ġcareful":4357,"cast":4358,"Ġgender":4359,"Ġcompared":4360,"Ġpension":4361,"Ġfirms":4362,"Ġexists":4363,"Ġsituations":4364,"Ġpeaceful":4365,"Ġexpectations":4366,"Ġgranted":4367,"ril":4368,"Ġsole":4369,"Ġamaz":4370,"Ġdisappe":4371,"Ġ1990":4372,"Ġreaching":4373,"Ġseparate":4374,"ience":4375,"kes":4376,"ta":4377,"your":4378,"eties":4379,"Ġrout":4380,"Ġplant":4381,"ratic":4382,"Ġtown":4383,"Ġalliance":4384,"Ġsubsidiarity":4385,"tw":4386,"Ġexpand":4387,"Ġultimately":4388,"Ġbelarus":4389,"Ġinvolvement":4390,"ding":4391,"Ġimposed":4392,"Ġusually":4393,"Ġarch":4394,"Ġstronger":4395,"Ġliberalisation":4396,"Ġpollution":4397,"Ġperformance":4398,"rant":4399,"Ġstable":4400,"Ġcoast":4401,"Ġarmy":4402,"Ġblock":4403,"Ġphen":4404,"Ġstudies":4405,"Ġparticipate":4406,"Ġbrazil":4407,"Ġdecade":4408,"Ġswedish":4409,"wide":4410,"Ġren":4411,"Ġstanding":4412,"Ġworst":4413,"umer":4414,"Ġbrings":4415,"Ġassembly":4416,"Ġphenomen":4417,"Ġbos":4418,"Ġsport":4419,"Ġendorse":4420,"Ġanswers":4421,"Ġexclud":4422,"ties":4423,"ifying":4424,"abor":4425,"Ġfinding":4426,"Ġpleas":4427,"Ġairp":4428,"Ġang":4429,"Ġagg":4430,"Ġexpensive":4431,"Ġapparent":4432,"Ġwrite":4433,"Ġthorough":4434,"Ġtoler":4435,"Ġinev":4436,"Ġminorities":4437,"Ġapril":4438,"Ġsummer":4439,"Ġdriving":4440,"Ġsudden":4441,"Ġnether":4442,"Ġapproval":4443,"Ġattach":4444,"Ġallows":4445,"Ġestim":4446,"Ġdefinite":4447,"Ġassociated":4448,"Ġnearly":4449,"Ġcomplicated":4450,"Ġice":4451,"Ġunless":4452,"Ġmobility":4453,"enary":4454,"Ġdelight":4455,"Ġintend":4456,"Ġentit":4457,"Ġresolved":4458,"once":4459,"Ġplants":4460,"Ġsignificantly":4461,"Ġnetherlands":4462,"Ġisol":4463,"Ġspring":4464,"Ġcrimes":4465,"Ġimprovements":4466,"Ġelsewhere":4467,"Ġ80":4468,"Ġcells":4469,"rich":4470,"osp":4471,"Ġcapable":4472,"Ġhundreds":4473,"ney":4474,"Ġborn":4475,"Ġterritory":4476,"Ġbulgar":4477,"Ġx":4478,"Ġshar":4479,"ressive":4480,"Ġcentre":4481,"Ġinspect":4482,"Ġschools":4483,"Ġecb":4484,"Ġconsistent":4485,"pres":4486,"ison":4487,"Ġinad":4488,"Ġcitizen":4489,"standing":4490,"Ġsocieties":4491,"sterdam":4492,"Ġdign":4493,"Ġpolitically":4494,"Ġremarks":4495,"Ġdepends":4496,"Ġarrangements":4497,"iar":4498,"nia":4499,"Ġtob":4500,"Ġdefined":4501,"Ġinterpret":4502,"Ġexistence":4503,"Ġpromotion":4504,"Ġstatistics":4505,"Ġvolunt":4506,"Ġcollective":4507,"Ġargument":4508,"Ġsqu":4509,"itution":4510,"Ġexe":4511,"Ġinitial":4512,"Ġplaced":4513,"Ġassociation":4514,"Ġislamic":4515,"Ġevaluation":4516,"Ġelectricity":4517,"gment":4518,"Ġplenary":4519,"Ġuniversal":4520,"Ġbirth":4521,"given":4522,"Ġcatch":4523,"Ġbinding":4524,"their":4525,"cious":4526,"Ġfunctioning":4527,"Ġabandon":4528,"Ġorganised":4529,"Ġtalked":4530,"Ġemphasis":4531,"Ġdied":4532,"Ġsell":4533,"Ġenforce":4534,"Ġcommittees":4535,"prus":4536,"Ġradical":4537,"hol":4538,"Ġsomewhat":4539,"Ġcompetence":4540,"engen":4541,"Ġoptim":4542,"Ġimmigrants":4543,"Ġmic":4544,"Ġprotected":4545,"Ġrestruct":4546,"Ġenjoy":4547,"during":4548,"leep":4549,"Ġremo":4550,"Ġsmaller":4551,"Ġbab":4552,"Ġconce":4553,"Ġamsterdam":4554,"Ġoffers":4555,"Ġaccounts":4556,"Ġoperate":4557,"ancing":4558,"Ġbanking":4559,"Ġtasks":4560,"Ġweight":4561,"Ġorganization":4562,"Ġimage":4563,"Ġmaterials":4564,"mar":4565,"usion":4566,"Ġadvert":4567,"Ġprimarily":4568,"Ġgal":4569,"Ġdemonstrated":4570,"Ġarguments":4571,"enth":4572,"Ġgaz":4573,"ulating":4574,"look":4575,"Ġleads":4576,"Ġabsence":4577,"Ġdetermined":4578,"nal":4579,"Ġcore":4580,"lection":4581,"Ġquar":4582,"Ġbelief":4583,"Ġhighest":4584,"does":4585,"Ġoperations":4586,"Ġprosperity":4587,"have":4588,"itness":4589,"Ġproved":4590,"Ġjustified":4591,"Ġvari":4592,"Ġdutch":4593,"Ġsavings":4594,"Ġbulgaria":4595,"Ġcast":4596,"Ġmoun":4597,"Ġeurozone":4598,"Ġparal":4599,"Ġfacts":4600,"Ġsurve":4601,"Ġlabe":4602,"Ġrecognised":4603,"Ġproposing":4604,"Ġentry":4605,"Ġpattern":4606,"Ġencouraging":4607,"Ġstraight":4608,"nor":4609,"Ġreli":4610,"ull":4611,"Ġamounts":4612,"Ġworldwide":4613,"Ġschengen":4614,"Ġextraordin":4615,"Ġspoken":4616,"onia":4617,"Ġtreated":4618,"Ġsouthern":4619,"Ġcyprus":4620,"Ġmigration":4621,"Ġportugal":4622,"Ġdark":4623,"Ġretain":4624,"Ġpersonally":4625,"Ġcontributions":4626,"Ġreligion":4627,"Ġlegitimate":4628,"Ġdistribution":4629,"Ġauditors":4630,"Ġtransition":4631,"actory":4632,"Ġintergovern":4633,"Ġdepart":4634,"Ġshowed":4635,"without":4636,"Ġvehicles":4637,"Ġemergency":4638,"Ġslight":4639,"Ġproc":4640,"apse":4641,"Ġpersons":4642,"Ġgeograph":4643,"Ġdetailed":4644,"Ġprimary":4645,"Ġtools":4646,"Ġrestrictions":4647,"Ġintergovernmental":4648,"did":4649,"Ġcz":4650,"Ġcam":4651,"Ġproposes":4652,"Ġkeeping":4653,"Ġzone":4654,"ointed":4655,"Ġbeings":4656,"Ġfavor":4657,"Ġadvance":4658,"Ġtaxation":4659,"Ġversion":4660,"Ġshape":4661,"Ġfat":4662,"Ġapart":4663,"Ġinvolving":4664,"Ġdemonstrate":4665,"Ġprior":4666,"Ġtypes":4667,"Ġacce":4668,"Ġscheme":4669,"sych":4670,"Ġpsych":4671,"ley":4672,"Ġfaith":4673,"Ġtemporary":4674,"Ġdescribed":4675,"Ġreve":4676,"rain":4677,"ishing":4678,"Ġextended":4679,"Ġheavy":4680,"pay":4681,"ugh":4682,"Ġprem":4683,"bur":4684,"cks":4685,"Ġmag":4686,"ilst":4687,"Ġfort":4688,"Ġsomebody":4689,"Ġadvanced":4690,"Ġproperty":4691,"Ġholding":4692,"Ġeventually":4693,"Ġcompensation":4694,"Ġbarriers":4695,"Ġpure":4696,"Ġvig":4697,"Ġfocused":4698,"Ġannounced":4699,"uable":4700,"vest":4701,"orial":4702,"Ġuniversity":4703,"Ġpromise":4704,"overed":4705,"Ġamongst":4706,"Ġopposite":4707,"ront":4708,"Ġpick":4709,"Ġstands":4710,"Ġliter":4711,"comm":4712,"Ġlatter":4713,"Ġwonderful":4714,"Ġintellect":4715,"Ġball":4716,"Ġboost":4717,"Ġflexible":4718,"bru":4719,"ee":4720,"Ġimpose":4721,"Ġimports":4722,"ressed":4723,"Ġrespected":4724,"Ġnegotiating":4725,"Ġhosp":4726,"Ġmoved":4727,"Ġpursue":4728,"Ġlegitimacy":4729,"rees":4730,"emic":4731,"Ġequip":4732,"Ġoptions":4733,"Ġjudicial":4734,"Ġwalk":4735,"Ġrapidly":4736,"Ġczech":4737,"200":4738,"ming":4739,"acco":4740,"Ġblue":4741,"Ġethnic":4742,"Ġconstantly":4743,"Ġmaximum":4744,"ient":4745,"Ġnos":4746,"Ġcomply":4747,"Ġlatest":4748,"Ġbehavior":4749,"rated":4750,"Ġmac":4751,"Ġreb":4752,"agree":4753,"Ġhealthy":4754,"Ġdignity":4755,"econom":4756,"Ġcenter":4757,"Ġopinions":4758,"Ġguaranteed":4759,"Ġhistorical":4760,"Ġstabil":4761,"Ġdisasters":4762,"Ġindustries":4763,"Ġsubstances":4764,"Ġdelighted":4765,"bruary":4766,"Ġnar":4767,"Ġmexic":4768,"Ġovercome":4769,"Ġformal":4770,"Ġconcluded":4771,"would":4772,"ero":4773,"iliation":4774,"Ġoffered":4775,"Ġaids":4776,"Ġdistin":4777,"Ġfreedoms":4778,"ondon":4779,"Ġhospital":4780,"Ġwitness":4781,"uted":4782,"Ġstories":4783,"Ġmeat":4784,"Ġfebruary":4785,"Ġcommunist":4786,"Ġ1998":4787,"Ġpublished":4788,"president":4789,"Ġsac":4790,"Ġfirstly":4791,"Ġminute":4792,"Ġmilk":4793,"Ġtradition":4794,"Ġrecommendation":4795,"pro":4796,"Ġpi":4797,"Ġdouble":4798,"iced":4799,"Ġye":4800,"Ġwash":4801,"uds":4802,"Ġassume":4803,"Ġadopting":4804,"Ġadvice":4805,"Ġcustoms":4806,"Ġmanufacture":4807,"oo":4808,"Ġppe":4809,"Ġcompon":4810,"Ġ500":4811,"Ġcele":4812,"Ġobligation":4813,"Ġthrow":4814,"Ġtoward":4815,"idge":4816,"resh":4817,"ife":4818,"Ġcommissioners":4819,"Ġeffectiveness":4820,"Ġpalestinians":4821,"onom":4822,"Ġrecession":4823,"Ġasian":4824,"Ġ24":4825,"Ġscand":4826,"Ġallowing":4827,"Ġbaltic":4828,"areness":4829,"Ġstrategies":4830,"Ġtobacco":4831,"ato":4832,"Ġran":4833,"roud":4834,"Ġmargin":4835,"Ġplayers":4836,"Ġpromised":4837,"oubtedly":4838,"Ġjournal":4839,"Ġcontradict":4840,"rif":4841,"Ġoral":4842,"Ġmark":4843,"Ġguy":4844,"Ġincreases":4845,"Ġskills":4846,"Ġhistoric":4847,"Ġfirmly":4848,"tin":4849,"Ġson":4850,"itime":4851,"ari":4852,"Ġvill":4853,"Ġinvolves":4854,"Ġmultilateral":4855,"uous":4856,"Ġsurround":4857,"Ġvoluntary":4858,"gence":4859,"lined":4860,"Ġsearch":4861,"Ġlie":4862,"Ġrig":4863,"Ġeverywhere":4864,"Ġdetermination":4865,"Ġrecall":4866,"Ġtaxpay":4867,"Ġsecretary":4868,"Ġdiplomatic":4869,"Ġexplanation":4870,"Ġswe":4871,"Ġcontrast":4872,"Ġpreced":4873,"Ġproducing":4874,"Ġawareness":4875,"Ġexcessive":4876,"Ġincentives":4877,"emb":4878,"Ġwine":4879,"Ġsight":4880,"izations":4881,"Ġmaritime":4882,"Ġchairman":4883,"vak":4884,"Ġinequ":4885,"Ġvice":4886,"Ġtraged":4887,"Ġputin":4888,"Ġelectronic":4889,"Ġphase":4890,"Ġperfectly":4891,"Ġfulfil":4892,"eff":4893,"Ġfit":4894,"Ġfaster":4895,"rote":4896,"cons":4897,"Ġpossibly":4898,"Ġaftern":4899,"Ġcrises":4900,"Ġexpert":4901,"Ġdeeply":4902,"Ġphysical":4903,"Ġfacilitate":4904,"ai":4905,"could":4906,"Ġnoted":4907,"abilities":4908,"Ġcompliance":4909,"Ġpurch":4910,"Ġdecisive":4911,"Ġintellectual":4912,"Ġbeg":4913,"Ġprofit":4914,"Ġdrawing":4915,"Ġhearing":4916,"Ġroma":4917,"Ġdestruction":4918,"Ġdetails":4919,"Ġbriefly":4920,"Ġcooperate":4921,"Ġtheory":4922,"rian":4923,"china":4924,"Ġpredict":4925,"Ġassure":4926,"Ġinterf":4927,"Ġdecline":4928,"Ġreplace":4929,"Ġbottom":4930,"Ġbed":4931,"Ġmc":4932,"ingu":4933,"amed":4934,"Ġthereby":4935,"Ġfriendly":4936,"none":4937,"Ġos":4938,"through":4939,"ada":4940,"Ġvia":4941,"Ġmatch":4942,"Ġcollapse":4943,"Ġentitled":4944,"oto":4945,"Ġyouth":4946,"ards":4947,"Ġwrote":4948,"anda":4949,"Ġleban":4950,"ourg":4951,"Ġrac":4952,"anging":4953,"Ġchoices":4954,"Ġlabelling":4955,"Ġafternoon":4956,"umb":4957,"inc":4958,"Ġproud":4959,"lder":4960,"Ġinclusion":4961,"Ġsustainability":4962,"Ġsatisfied":4963,"Ġocean":4964,"Ġflight":4965,"Ġfruit":4966,"Ġgirl":4967,"Ġgeorgia":4968,"Ġgold":4969,"Ġusa":4970,"Ġended":4971,"Ġgrounds":4972,"Ġallocated":4973,"Ġlived":4974,"Ġbelieves":4975,"bourg":4976,"Ġexamine":4977,"Ġsexual":4978,"Ġforthcoming":4979,"Ġreaction":4980,"asbourg":4981,"Ġongoing":4982,"Ġtransl":4983,"Ġscen":4984,"Ġblame":4985,"Ġopened":4986,"Ġspeaker":4987,"Ġfarming":4988,"Ġcuts":4989,"Ġdictators":4990,"umerous":4991,"Ġtough":4992,"Ġabuse":4993,"Ġmov":4994,"Ġcreates":4995,"Ġundoubtedly":4996,"Ġlaunched":4997,"Ġluxemb":4998,"Ġomb":4999,"Ġnobody":5000,"necess":5001,"Ġshowing":5002,"Ġplanned":5003,"Ġradio":5004,"Ġaustria":5005,"Ġordinary":5006,"Ġombuds":5007,"har":5008,"Ġabstain":5009,"Ġpref":5010,"Ġstrasbourg":5011,"Ġrelates":5012,"Ġimplications":5013,"ball":5014,"Ġmath":5015,"Ġroot":5016,"ifications":5017,"Ġ1997":5018,"Ġpatient":5019,"30":5020,"Ġtit":5021,"osen":5022,"reneur":5023,"Ġincom":5024,"Ġsuffer":5025,"Ġsuggested":5026,"lastly":5027,"repreneur":5028,"Ġshad":5029,"Ġvide":5030,"european":5031,"Ġleaving":5032,"Ġobstacles":5033,"Ġterrible":5034,"adv":5035,"Ġabroad":5036,"ception":5037,"Ġsurf":5038,"Ġrepresented":5039,"Ġhardly":5040,"Ġdispos":5041,"Ġ70":5042,"Ġprosec":5043,"Ġdisagree":5044,"Ġundermin":5045,"Ġsubmit":5046,"Ġrealistic":5047,"Ġnecessarily":5048,"Ġemot":5049,"Ġessentially":5050,"Ġsovereignty":5051,"Ġpresidential":5052,"Ġspect":5053,"Ġbackground":5054,"Ġprocesses":5055,"ength":5056,"Ġbelow":5057,"Ġdetermine":5058,"Ġurgently":5059,"Ġequipment":5060,"asing":5061,"Ġgap":5062,"Ġnotice":5063,"Ġdism":5064,"Ġtroops":5065,"Ġluxembourg":5066,"Ġisland":5067,"Ġunnecess":5068,"Ġacp":5069,"Ġentrepreneur":5070,"Ġvaluable":5071,"Ġteacher":5072,"Ġrestructuring":5073,"Ġshift":5074,"Ġevolution":5075,"Ġbox":5076,"iction":5077,"Ġwidely":5078,"Ġhus":5079,"Ġreserve":5080,"Ġacting":5081,"Ġrestric":5082,"Ġjudge":5083,"Ġdependent":5084,"Ġreconst":5085,"Ġwelcomed":5086,"economic":5087,"bes":5088,"Ġsignificance":5089,"Ġoperating":5090,"Ġcontained":5091,"Ġdaily":5092,"Ġep":5093,"Ġprohib":5094,"Ġtrouble":5095,"Ġbalkans":5096,"isory":5097,"Ġsugar":5098,"Ġapprove":5099,"Ġmonop":5100,"Ġsupplement":5101,"Ġrecognize":5102,"Ġharmonisation":5103,"Ġdefinitely":5104,"yle":5105,"iles":5106,"Ġali":5107,"Ġpartly":5108,"Ġserbia":5109,"Ġstrengthened":5110,"Ġwider":5111,"Ġchosen":5112,"Ġwars":5113,"Ġexperienced":5114,"Ġprepare":5115,"amb":5116,"Ġvan":5117,"Ġtrack":5118,"Ġturns":5119,"two":5120,"gic":5121,"Ġarmed":5122,"Ġgreatly":5123,"Ġlessons":5124,"Ġargue":5125,"Ġmistakes":5126,"Ġkyoto":5127,"Ġecu":5128,"Ġinterven":5129,"Ġlesson":5130,"Ġcoordinated":5131,"Ġpurposes":5132,"Ġsensible":5133,"Ġunique":5134,"Ġsleep":5135,"ancy":5136,"Ġfal":5137,"Ġchann":5138,"Ġanybody":5139,"Ġfollows":5140,"Ġfoundation":5141,"Ġreflects":5142,"Ġombudsman":5143,"Ġtight":5144,"Ġment":5145,"Ġnumerous":5146,"Ġimpression":5147,"Ġaccompan":5148,"Ġtrend":5149,"Ġvoters":5150,"Ġprize":5151,"Ġnevertheless":5152,"Ġsubstance":5153,"ox":5154,"ung":5155,"irect":5156,"Ġrequirement":5157,"Ġsurely":5158,"Ġrequested":5159,"Ġscientists":5160,"Ġcollabor":5161,"Ġprospects":5162,"aughter":5163,"Ġted":5164,"Ġbuildings":5165,"Ġforgot":5166,"Ġgaza":5167,"Ġves":5168,"Ġreserv":5169,"Ġpolish":5170,"Ġremove":5171,"Ġsuffered":5172,"Ġacknowledge":5173,"Ġsurprised":5174,"Ġmuslim":5175,"Ġpoorest":5176,"atures":5177,"Ġadmit":5178,"teen":5179,"Ġinfect":5180,"Ġpayment":5181,"Ġconstitu":5182,"Ġera":5183,"Ġinnovative":5184,"Ġbehavi":5185,"Ġbattle":5186,"Ġstruggle":5187,"back":5188,"Ġlength":5189,"Ġstocks":5190,"Ġsum":5191,"Ġrational":5192,"astic":5193,"Ġvisa":5194,"Ġpenalty":5195,"gra":5196,"Ġwat":5197,"Ġconciliation":5198,"Ġpatent":5199,"Ġidentified":5200,"ax":5201,"gen":5202,"her":5203,"ky":5204,"rew":5205,"Ġurgency":5206,"Ġassets":5207,"Ġdeficits":5208,"Ġoccasions":5209,"Ġhopes":5210,"Ġsupervision":5211,"nel":5212,"Ġlic":5213,"Ġdel":5214,"Ġunif":5215,"Ġappoint":5216,"Ġflow":5217,"Ġunfair":5218,"Ġmountain":5219,"care":5220,"sub":5221,"similar":5222,"urch":5223,"Ġchap":5224,"Ġrh":5225,"Ġrain":5226,"Ġ196":5227,"Ġpaying":5228,"Ġzero":5229,"Ġfamiliar":5230,"car":5231,"Ġet":5232,"Ġimb":5233,"Ġprevail":5234,"regard":5235,"Ġngos":5236,"son":5237,"Ġcry":5238,"Ġmos":5239,"ula":5240,"Ġpresidents":5241,"Ġsucceeded":5242,"Ġmachine":5243,"Ġadvertising":5244,"oud":5245,"oms":5246,"Ġalban":5247,"Ġtrial":5248,"Ġslovak":5249,"Ġdoctor":5250,"Ġrevision":5251,"Ġphenomenon":5252,"Ġmap":5253,"Ġrelie":5254,"Ġsymp":5255,"Ġviolations":5256,"Ġlosses":5257,"lav":5258,"ware":5259,"encing":5260,"icip":5261,"Ġdefine":5262,"Ġpersu":5263,"Ġoperational":5264,"Ġfields":5265,"Ġuniverse":5266,"Ġsharing":5267,"phere":5268,"Ġsuffici":5269,"Ġterritorial":5270,"Ġbought":5271,"Ġnine":5272,"Ġlondon":5273,"ets":5274,"Ġspl":5275,"Ġ90":5276,"Ġextraordinary":5277,"Ġcamer":5278,"Ġnl":5279,"Ġnig":5280,"Ġhamas":5281,"Ġdecent":5282,"Ġimportantly":5283,"Ġdeserves":5284,"Ġfrank":5285,"Ġsuccessfully":5286,"Ġpillar":5287,"Ġdynamic":5288,"Ġsharp":5289,"Ġsusp":5290,"abling":5291,"Ġsentence":5292,"Ġpreparing":5293,"Ġsister":5294,"Ġtests":5295,"Ġcroat":5296,"ays":5297,"Ġextension":5298,"ibet":5299,"Ġpreventing":5300,"Ġexclus":5301,"cape":5302,"Ġclarify":5303,"Ġreiter":5304,"uls":5305,"Ġdisadv":5306,"Ġfeet":5307,"Ġdifficulty":5308,"Ġthreats":5309,"Ġreflected":5310,"Ġprisoners":5311,"Ġreliable":5312,"Ġdisadvant":5313,"Ġcaught":5314,"oring":5315,"Ġfresh":5316,"Ġrecip":5317,"Ġforum":5318,"Ġprodi":5319,"Ġ23":5320,"Ġcorrespon":5321,"down":5322,"itect":5323,"Ġlots":5324,"Ġborrow":5325,"Ġflu":5326,"Ġcharge":5327,"licit":5328,"Ġhousehold":5329,"Ġaddressing":5330,"Ġcoherent":5331,"Ġmodels":5332,"Ġidentify":5333,"Ġhungarian":5334,"Ġacknowled":5335,"pread":5336,"Ġmix":5337,"Ġdeals":5338,"idespread":5339,"Ġarrived":5340,"Ġexecut":5341,"Ġinj":5342,"unity":5343,"Ġarm":5344,"Ġraising":5345,"ibly":5346,"Ġtopic":5347,"Ġwarming":5348,"Ġgirls":5349,"Ġhousing":5350,"Ġtragedy":5351,"ba":5352,"Ġpossibilities":5353,"Ġsyria":5354,"Ġpromises":5355,"Ġdeclared":5356,"Ġod":5357,"Ġstem":5358,"iring":5359,"Ġseat":5360,"Ġimper":5361,"consequently":5362,"active":5363,"Ġcheap":5364,"Ġclaims":5365,"Ġmedicine":5366,"Ġarchitect":5367,"Ġmexico":5368,"ki":5369,"Ġtar":5370,"ulf":5371,"osoph":5372,"Ġtwenty":5373,"Ġaccur":5374,"Ġextensive":5375,"Ġdepth":5376,"viously":5377,"Ġwidespread":5378,"Ġash":5379,"Ġunity":5380,"Ġexceed":5381,"comp":5382,"Ġolder":5383,"Ġmobil":5384,"Ġreass":5385,"oslav":5386,"Ġexpan":5387,"holders":5388,"Ġcandidates":5389,"Ġsettlement":5390,"Ġamazing":5391,"zer":5392,"Ġol":5393,"Ġpt":5394,"Ġfly":5395,"Ġselect":5396,"Ġfourth":5397,"Ġcharges":5398,"Ġpleasure":5399,"Ġuniform":5400,"Ġtibet":5401,"Ġbreat":5402,"Ġmine":5403,"Ġfer":5404,"Ġdiscip":5405,"Ġdefense":5406,"Ġconsidering":5407,"Ġtelling":5408,"ugoslav":5409,"Ġ2011":5410,"Ġ2013":5411,"Ġmissing":5412,"Ġfilm":5413,"ns":5414,"old":5415,"Ġcrow":5416,"Ġdump":5417,"Ġrely":5418,"Ġtimet":5419,"Ġdiscovered":5420,"Ġproductivity":5421,"Ġviolent":5422,"Ġaffects":5423,"Ġoccurred":5424,"Ġdisposal":5425,"Ġreconstruction":5426,"bing":5427,"Ġfem":5428,"Ġhu":5429,"Ġstation":5430,"Ġopenness":5431,"Ġsurprise":5432,"Ġfairly":5433,"Ġelectoral":5434,"Ġsympath":5435,"wan":5436,"Ġdin":5437,"Ġaside":5438,"Ġdebating":5439,"Ġphone":5440,"Ġconducted":5441,"Ġphilosoph":5442,"Ġreveal":5443,"Ġwife":5444,"osition":5445,"Ġusers":5446,"umed":5447,"Ġaccidents":5448,"Ġscot":5449,"Ġinfring":5450,"Ġflag":5451,"Ġmaintaining":5452,"Ġmedicines":5453,"Ġconcentrate":5454,"Ġstick":5455,"cel":5456,"Ġexplicit":5457,"Ġorganizations":5458,"Ġappropriations":5459,"Ġflood":5460,"Ġcalcul":5461,"Ġconfirmed":5462,"Ġrelease":5463,"Ġâ":5464,"Ġyugoslav":5465,"Ġregist":5466,"Ġowners":5467,"Ġblind":5468,"Ġquotas":5469,"Ġattempts":5470,"Ġsets":5471,"cif":5472,"Ġchurch":5473,"Ġbrother":5474,"Ġdemanding":5475,"Ġmotor":5476,"Ġmaintained":5477,"Ġdeliber":5478,"having":5479,"Ġshadow":5480,"Ġexpansion":5481,"ault":5482,"Ġvictory":5483,"Ġautonom":5484,"Ġwillingness":5485,"Ġpunish":5486,"Ġuncertainty":5487,"pts":5488,"part":5489,"kets":5490,"Ġreserves":5491,"Ġcontrolled":5492,"Ġapplying":5493,"Ġfishermen":5494,"Ġillust":5495,"ague":5496,"Ġpred":5497,"Ġissued":5498,"Ġsyn":5499,"Ġratification":5500,"Ġberlin":5501,"Ġpassengers":5502,"Ġdigital":5503,"xts":5504,"Ġvacc":5505,"Ġsaving":5506,"which":5507,"Ġmotiv":5508,"Ġreconcil":5509,"Ġcontracts":5510,"Ġtaxpayers":5511,"Ġbehaviour":5512,"Ġtv":5513,"Ġproof":5514,"Ġenem":5515,"apers":5516,"Ġrestore":5517,"Ġstatute":5518,"Ġlosing":5519,"Ġembar":5520,"Ġregrett":5521,"Ġlebanon":5522,"house":5523,"Ġsought":5524,"asm":5525,"Ġnewsp":5526,"Ġhumans":5527,"uese":5528,"Ġentered":5529,"Ġideal":5530,"Ġsurpl":5531,"Ġengaged":5532,"Ġoperators":5533,"Ġhyp":5534,"tr":5535,"zz":5536,"Ã¼":5537,"thly":5538,"Ġgames":5539,"Ġresource":5540,"cont":5541,"Ġtragic":5542,"Ġstrange":5543,"Ġdirector":5544,"Ġcreative":5545,"Ġprofound":5546,"Ġencouraged":5547,"Ġexclusion":5548,"Ġsatisfactory":5549,"Ġneighbours":5550,"Ġvideo":5551,"Ġwaters":5552,"Ġbol":5553,"outh":5554,"Ġalarm":5555,"ading":5556,"Ġfinland":5557,"anges":5558,"Ġjohn":5559,"Ġstudent":5560,"Ġduties":5561,"Ġcarrying":5562,"Ġdivided":5563,"irable":5564,"Ġcuba":5565,"Ġmort":5566,"asc":5567,"ques":5568,"quid":5569,"Ġende":5570,"Ġfinish":5571,"before":5572,"Ġaviation":5573,"Ġemployed":5574,"ocked":5575,"Ġcollege":5576,"Ġprofits":5577,"Ġterrorists":5578,"Ġcombined":5579,"Ġlinks":5580,"Ġundertaken":5581,"Ġimbal":5582,"Ġendeav":5583,"Ġthir":5584,"atlantic":5585,"Ġatmos":5586,"Ġdramatic":5587,"Ġawa":5588,"obviously":5589,"Ġportuguese":5590,"Ġq":5591,"Ġwise":5592,"Ġtwice":5593,"Ġhumanity":5594,"Ġresulting":5595,"Ġsuggests":5596,"Ġhighlighted":5597,"Ġinvestigation":5598,"Ġremoved":5599,"Ġsick":5600,"Ġineff":5601,"Ġluck":5602,"ief":5603,"Ġfinished":5604,"Ġgoverning":5605,"Ġcourts":5606,"Ġrealise":5607,"Ġsupplies":5608,"Ġfamous":5609,"ographic":5610,"Ġenhance":5611,"Ġworrying":5612,"Ġtort":5613,"Ġactively":5614,"whel":5615,"Ġevident":5616,"Ġlistening":5617,"Ġcutting":5618,"Ġgenerations":5619,"Ġinadequate":5620,"Ġsurface":5621,"ington":5622,"thes":5623,"see":5624,"Ġkil":5625,"Ġbelieved":5626,"Ġguard":5627,"Ġ1996":5628,"Ġbigger":5629,"Ġintroducing":5630,"Ġfalls":5631,"itutional":5632,"Ġaug":5633,"Ġevol":5634,"Ġputs":5635,"Ġmultip":5636,"Ġstrike":5637,"Ġstopped":5638,"Ġbegun":5639,"iant":5640,"enn":5641,"Ġwhilst":5642,"Ġrough":5643,"udi":5644,"Ġoverwhel":5645,"Ġdefe":5646,"Ġturning":5647,"Ġsched":5648,"Ġfewer":5649,"Ġresistance":5650,"Ġunlikely":5651,"Ġunnecessary":5652,"Ġsake":5653,"erved":5654,"Ġvat":5655,"Ġcanada":5656,"Ġgreens":5657,"Ġignore":5658,"Ġevalu":5659,"Ġdictatorship":5660,"Ġded":5661,"Ġadm":5662,"Ġrace":5663,"Ġeconomically":5664,"Ġdeploy":5665,"Ġcredible":5666,"Ġexplained":5667,"mo":5668,"Ġ]":5669,"Ġmagn":5670,"Ġparad":5671,"Ġadult":5672,"again":5673,"Ġcoff":5674,"Ġattend":5675,"Ġcompleted":5676,"Ġseemed":5677,"Ġconsequence":5678,"Ġwatching":5679,"Ġsurvive":5680,"ino":5681,"rel":5682,"racies":5683,"Ġrealize":5684,"Ġsmoking":5685,"Ġdispute":5686,"Ġbroader":5687,"Ġsuspend":5688,"Ġtunis":5689,"Ġsufficiently":5690,"Ġfash":5691,"Ġdub":5692,"Ġdrop":5693,"Ġclause":5694,"Ġtransatlantic":5695,"Ġdeserve":5696,"Ġcontributed":5697,"cra":5698,"four":5699,"Ġhal":5700,"Ġconstitute":5701,"Ġachievement":5702,"Ġheading":5703,"Ġproceedings":5704,"hus":5705,"Ġlawy":5706,"Ġinsuff":5707,"Ġflows":5708,"Ġiranian":5709,"Ġpreparation":5710,"Ġjew":5711,"Ġconvergence":5712,"Ġdro":5713,"Ġintens":5714,"Ġintensive":5715,"Ġthanking":5716,"Ġtransitional":5717,"Ġ300":5718,"Ġvalid":5719,"Ġfalling":5720,"Ġpursu":5721,"everyone":5722,"Ġqualified":5723,"Ġrevenue":5724,"ti":5725,"Ġ[":5726,"Ġoh":5727,"Ġliquid":5728,"Ġlegally":5729,"Ġremaining":5730,"Ġnegotiation":5731,"Ġextrem":5732,"gu":5733,"Ġchain":5734,"Ġ22":5735,"Ġprograms":5736,"Ġfacilities":5737,"Ġoppose":5738,"Ġweakness":5739,"Ġleaves":5740,"Ġinterpretation":5741,"Ġconfront":5742,"Ġremained":5743,"Ġinsp":5744,"Ġconnected":5745,"Ġdisappoint":5746,"take":5747,"Ġwage":5748,"Ġsim":5749,"Ġech":5750,"Ġcompuls":5751,"Ġdebated":5752,"Ġscre":5753,"Ġ1980":5754,"Ġpil":5755,"ounting":5756,"forced":5757,"Ġamended":5758,"Ġiraqi":5759,"Ġtargeted":5760,"Ġneighbor":5761,"Ġadvantages":5762,"similarly":5763,"Ġcroatia":5764,"rust":5765,"oss":5766,"Ġraw":5767,"Ġindirect":5768,"Ġguys":5769,"Ġenvironmentally":5770,"clearly":5771,"Ġburma":5772,"Ġfashion":5773,"Ġsv":5774,"uries":5775,"Ġeducational":5776,"Ġcorrectly":5777,"Ġsuspect":5778,"Ġbaby":5779,"Ġinqu":5780,"Ġhiv":5781,"Ġregimes":5782,"Ġcausing":5783,"Ġviable":5784,"Ġsudan":5785,"Ġgar":5786,"Ġatlantic":5787,"abwe":5788,"Ġnoise":5789,"Ġriver":5790,"Ġlasting":5791,"phone":5792,"Ġexperiment":5793,"Ġsky":5794,"Ġpreviously":5795,"Ġtonight":5796,"Ġbureaucracy":5797,"imbabwe":5798,"Ġcorporate":5799,"Ġpurely":5800,"Ġhol":5801,"Ġweb":5802,"Ġweather":5803,"usal":5804,"allow":5805,"Ġcool":5806,"Ġseeks":5807,"Ġeconomics":5808,"Ġapprox":5809,"Ġwarning":5810,"Ġcolon":5811,"Ġcivilian":5812,"Ġdisplay":5813,"Ġneighbourhood":5814,"Ġacceler":5815,"Ġmacro":5816,"iwan":5817,"Ã³":5818,"Ġmur":5819,"tering":5820,"Ġworried":5821,"Ġusual":5822,"Ġinnoc":5823,"Ġgenuinely":5824,"Ġenforcement":5825,"Ġcompulsory":5826,"opho":5827,"Ġintentions":5828,"Ġloans":5829,"Ġfran":5830,"institutional":5831,"Ġwood":5832,"omin":5833,"cient":5834,"Ġreported":5835,"Ġmostly":5836,"Ġcapt":5837,"Ġpopulations":5838,"Ġswim":5839,"Ġeliminate":5840,"ils":5841,"Ġrefused":5842,"Ġforemost":5843,"Ġstressed":5844,"Ġglass":5845,"Ġratified":5846,"Ġexploitation":5847,"Ġbosnia":5848,"uild":5849,"erate":5850,"Ġ26":5851,"Ġjustify":5852,"Ġregarded":5853,"Ġequival":5854,"Ġ1995":5855,"Ġprivile":5856,"Ġhonour":5857,"Ġsoldiers":5858,"Ġintelligence":5859,"Ġparalle":5860,"Ġow":5861,"orous":5862,"Ġfing":5863,"Ġsolved":5864,"Ġconsiders":5865,"Ġmovements":5866,"Ġpercentage":5867,"Ġtrem":5868,"ursday":5869,"Ġhomes":5870,"rates":5871,"Ġperpet":5872,"actions":5873,"Ġhealthcare":5874,"Ġsales":5875,"atible":5876,"che":5877,"americ":5878,"Ġcorner":5879,"Ġincredible":5880,"band":5881,"Ġpace":5882,"Ġislands":5883,"Ġsection":5884,"erson":5885,"Ġmoreover":5886,"ocking":5887,"Ġexpense":5888,"Ġambition":5889,"Ġconservative":5890,"Ġadjustment":5891,"Ġgradually":5892,"Ġbse":5893,"icted":5894,"iry":5895,"Ġkn":5896,"Ġintends":5897,"Ġdecre":5898,"Ġanywhere":5899,"Ġentail":5900,"Ġsigns":5901,"Ġcertainty":5902,"ova":5903,"Ġmoroc":5904,"Ġalternatives":5905,"Ġmobile":5906,"Ġcategory":5907,"Ġquarter":5908,"mon":5909,"sen":5910,"Ġthursday":5911,"Ġenvis":5912,"Ġexperiences":5913,"Ġanaly":5914,"Ġslightly":5915,"ny":5916,"Ġthres":5917,"Ġshame":5918,"Ġcongress":5919,"Ġzimbabwe":5920,"Ġremarkable":5921,"Ġthreshold":5922,"Ġempty":5923,"Ġdetect":5924,"Ġemerged":5925,"Ġobliged":5926,"Ġindicated":5927,"Ġfifth":5928,"Ġrepeatedly":5929,"Ġinsufficient":5930,"Ġgri":5931,"Ġmold":5932,"Ġpersist":5933,"Ġtrip":5934,"Ġbreach":5935,"Ġembra":5936,"Ġcli":5937,"asion":5938,"Ġarise":5939,"ption":5940,"Ġrealized":5941,"Ġfaces":5942,"cohol":5943,"sider":5944,"Ġpalestine":5945,"Ġsurvival":5946,"rid":5947,"rors":5948,"Ġvac":5949,"Ġinvited":5950,"Ġendors":5951,"Ġherit":5952,"Ġcatast":5953,"Ġannounce":5954,"Ġcultures":5955,"Ġfalse":5956,"ona":5957,"Ġfost":5958,"Ġ28":5959,"igned":5960,"Ġspite":5961,"Ġscar":5962,"Ġhelps":5963,"Ġinterinstitutional":5964,"ribute":5965,"Ġdriven":5966,"Ġquote":5967,"Ġstimul":5968,"Ġbelgium":5969,"Ġsolely":5970,"imp":5971,"Ġwake":5972,"Ġdanish":5973,"Ġkh":5974,"Ġupd":5975,"izes":5976,"Ġapplications":5977,"Ġhungary":5978,"Ġcommunications":5979,"Ġsuddenly":5980,"Ġmovie":5981,"Ġale":5982,"Ġgulf":5983,"Ġwebs":5984,"keep":5985,"Ġindian":5986,"Ġgenetic":5987,"Ġjoined":5988,"Ġreferring":5989,"Ġslowly":5990,"Ġfixed":5991,"Ġphotograph":5992,"Ġfrequently":5993,"Ġentrepreneurs":5994,"Ġforgotten":5995,"Ġatmosphere":5996,"Ġheritage":5997,"yal":5998,"Ġcas":5999,"Ġonto":6000,"rad":6001,"wel":6002,"Ġfinanced":6003,"Ġearn":6004,"Ġrepresentation":6005,"Ġlibya":6006,"place":6007,"Ġignored":6008,"Ġprag":6009,"Ġrespects":6010,"Ġconvince":6011,"Ġdistance":6012,"Ġminds":6013,"Ġgained":6014,"Ġbureaucratic":6015,"Ġtired":6016,"Ġmouth":6017,"Ġcommand":6018,"Ġcommod":6019,"Ġshap":6020,"Ġundermine":6021,"Ġpermit":6022,"Ġinstitute":6023,"Ġconsiderably":6024,"ecision":6025,"Ġemotion":6026,"subject":6027,"Ġtimetable":6028,"Ġports":6029,"Ġanx":6030,"Ġalcohol":6031,"Ġacad":6032,"Ġcompetent":6033,"Ġdepri":6034,"Ġplays":6035,"Ġtaiwan":6036,"Ġdistort":6037,"Ġsuggestions":6038,"Ġrome":6039,"Ġdeaths":6040,"Ġmicro":6041,"craft":6042,"Ġnut":6043,"Ġstream":6044,"Ġalive":6045,"Ġaspir":6046,"Ġcomplement":6047,"teg":6048,"Ġindones":6049,"Ġresulted":6050,"cuse":6051,"Ġsubjects":6052,"Ġdeadline":6053,"att":6054,"Ġsong":6055,"alities":6056,"lymp":6057,"Ġplat":6058,"Ġrefers":6059,"Ġdemocracies":6060,"Ġinterpre":6061,"commun":6062,"Ġvessels":6063,"Ġexecutive":6064,"Ļ«":6065,"Ġwed":6066,"itably":6067,"akers":6068,"Ġoffering":6069,"Ġsocialists":6070,"Ġnegotiated":6071,"Ġfoundations":6072,"Ġlistened":6073,"Ġpensions":6074,"Ġharmful":6075,"Ġpursued":6076,"Ġvirtually":6077,"Ġtremend":6078,"Ġwages":6079,"Ġcash":6080,"Ġdar":6081,"Ġliked":6082,"Ġbridge":6083,"Ġglobalization":6084,"Ġdoubts":6085,"Ġdemonst":6086,"should":6087,"Ġfuels":6088,"bb":6089,"jud":6090,"lad":6091,"Ġhat":6092,"think":6093,"Ġunp":6094,"amend":6095,"Ġregister":6096,"Ġfault":6097,"Ġwhereas":6098,"Ġsmart":6099,"appro":6100,"Ġspeeches":6101,"Ġcodecision":6102,"Ġracism":6103,"Ġetc":6104,"Ġyield":6105,"atell":6106,"Ġdiss":6107,"Ġmarked":6108,"Ġenthus":6109,"Ġscr":6110,"Ġconsiderations":6111,"Ġbadly":6112,"Ġenthusi":6113,"eth":6114,"Ġic":6115,"Ġpassion":6116,"Ġunpre":6117,"uman":6118,"Ġdemographic":6119,"Ġaffecting":6120,"Ġroads":6121,"Ġships":6122,"Ġnonetheless":6123,"Ġdisappointed":6124,"Ġscandal":6125,"Ġregrettable":6126,"Ġcoffee":6127,"Ġlith":6128,"idden":6129,"oler":6130,"opard":6131,"Ġperce":6132,"Ġclarity":6133,"Ġdiscover":6134,"Ġminim":6135,"Ġconstitutes":6136,"Ġtemper":6137,"Ġwindow":6138,"Ġpetitions":6139,"Ġdestroyed":6140,"Ġbelgian":6141,"Ġaccompanied":6142,"ka":6143,"Ġolymp":6144,"anks":6145,"Ġhaz":6146,"Ġunre":6147,"Ġdisabled":6148,"Ġsphere":6149,"Ġforecast":6150,"Ġreturned":6151,"Ġcycle":6152,"Ġreinforce":6153,"Ġschemes":6154,"Ġreservations":6155,"ÃŃ":6156,"Ġwild":6157,"Ġnav":6158,"ches":6159,"illing":6160,"Ġsev":6161,"Ġken":6162,"Ġtexts":6163,"otherwise":6164,"Ġirre":6165,"Ġannivers":6166,"Ġcoalition":6167,"Ġbonds":6168,"Ġintervene":6169,"Ġscrut":6170,"nat":6171,"Ġcert":6172,"osis":6173,"Ġuses":6174,"ager":6175,"Ġthinks":6176,"Ġremed":6177,"Ġthreatened":6178,"Ġdeterior":6179,"Ġfears":6180,"Ġshares":6181,"Ġairport":6182,"Ġsquare":6183,"Ġinfringe":6184,"bre":6185,"Ġsite":6186,"itical":6187,"Ġincident":6188,"Ġboom":6189,"Ġinstall":6190,"Ġmarketing":6191,"Ġproductive":6192,"Ġerror":6193,"Ġethical":6194,"Ġcomputers":6195,"Ġjourney":6196,"Ġnarrow":6197,"Ġendeavour":6198,"ko":6199,"Ġcf":6200,"Ġoutstanding":6201,"Ġfunded":6202,"Ġ35":6203,"Ġnegotiate":6204,"Ġfreely":6205,"Ġimages":6206,"Ġdevast":6207,"Ġexceptional":6208,"Ġmanufacturers":6209,"Ġtariff":6210,"Ġaugust":6211,"Ġequivalent":6212,"Ġanniversary":6213,"bel":6214,"ini":6215,"Ġmit":6216,"ulous":6217,"Ġmere":6218,"Ġshi":6219,"Ġchief":6220,"Ġpreserve":6221,"Ġdenmark":6222,"Ġteachers":6223,"Ġvehicle":6224,"Ġgeographical":6225,"Ġsacrif":6226,"Ġwashington":6227,"gn":6228,"year":6229,"Ġunfortun":6230,"antly":6231,"arer":6232,"Ġgenet":6233,"Ġrefuse":6234,"Ġdesp":6235,"Ġmodified":6236,"Ġfrag":6237,"Ġbeneficial":6238,"Ġswift":6239,"Ġmillenn":6240,"Ġcopy":6241,"each":6242,"inational":6243,"Ġwis":6244,"Ġmaced":6245,"Ġclub":6246,"Ġemployers":6247,"Ġbroke":6248,"Ġcease":6249,"Ġasset":6250,"Ġmemory":6251,"Ġvillage":6252,"Ġunfortunate":6253,"Ġmillennium":6254,"Ġsending":6255,"erc":6256,"iti":6257,"Ġanne":6258,"Ġunions":6259,"Ġsuitable":6260,"sight":6261,"Ġfails":6262,"Ġexperiencing":6263,"Ġrequests":6264,"Ġunemployed":6265,"burg":6266,"Ġcomponent":6267,"Ġonline":6268,"Ġjun":6269,"Ġprovid":6270,"Ġneglect":6271,"together":6272,"Ġfallen":6273,"Ġroman":6274,"Ġcomparison":6275,"Ġexcluded":6276,"Ġchapter":6277,"Ġfate":6278,"Ġstance":6279,"Ġkar":6280,"Ġgrown":6281,"Ġcitizenship":6282,"Ġruling":6283,"Ġapproaches":6284,"Ġdivision":6285,"Ġdiscrimin":6286,"Ġlogic":6287,"Ġintelligent":6288,"Ġpassenger":6289,"Ġnames":6290,"Ġgun":6291,"Ġgross":6292,"Ġneut":6293,"Ġshut":6294,"Ġindis":6295,"Ġbroken":6296,"Ġreplaced":6297,"Ġdisappear":6298,"Ġinevitable":6299,"Ġbreath":6300,"Ġparallel":6301,"bar":6302,"ein":6303,"water":6304,"ario":6305,"umn":6306,"Ġapolog":6307,"Ġcapitalism":6308,"Ġmulti":6309,"Ġmultinational":6310,"Ġsloven":6311,"Ġliterally":6312,"itative":6313,"Ġdan":6314,"Ġgh":6315,"ctive":6316,"Ġstor":6317,"Ġprolif":6318,"mean":6319,"Ġpharm":6320,"Ġabsor":6321,"Ġretire":6322,"Ġdeclare":6323,"Ġdemonstrates":6324,"Ġdiagn":6325,"Ġsounds":6326,"Ġindicate":6327,"Ġtaught":6328,"inn":6329,"eds":6330,"Ġnotion":6331,"add":6332,"erences":6333,"Ġsmoo":6334,"Ġhelpful":6335,"Ġregulated":6336,"Ġemphasised":6337,"Ġpotentially":6338,"Ġlands":6339,"Ġexamined":6340,"Ġestimated":6341,"Ġsurrounding":6342,"Ġrestricted":6343,"Ġlithu":6344,"Ġeating":6345,"Ġelder":6346,"etor":6347,"Ġtransactions":6348,"Ġdirected":6349,"Ġchemicals":6350,"ĠâĻ«":6351,"national":6352,"Ġbub":6353,"roc":6354,"Ġconvers":6355,"aded":6356,"Ġproven":6357,"Ġrelate":6358,"Ġpresentation":6359,"Ġnecessity":6360,"Ġliber":6361,"Ġjudgment":6362,"Ġearthqu":6363,"Ġincentive":6364,"Ġincredibly":6365,"Ġmurd":6366,"oured":6367,"Ġsoil":6368,"Ġrare":6369,"Ġunderlying":6370,"Ġbusy":6371,"Ġvisited":6372,"Ġvisible":6373,"Ġerad":6374,"Ġgenerate":6375,"regular":6376,"Ġlogical":6377,"orn":6378,"also":6379,"emoc":6380,"Ġpresenting":6381,"Ġfounded":6382,"Ġgrew":6383,"Ġchecks":6384,"Ġstreets":6385,"Ġcomplaints":6386,"Ġsoftware":6387,"Ġfemale":6388,"Ġast":6389,"Ġraises":6390,"Ġmodest":6391,"Ġviet":6392,"Ġfeels":6393,"Ġcombination":6394,"arko":6395,"Ġperiods":6396,"Ġvolume":6397,"Ġneighbouring":6398,"Ġregularly":6399,"inder":6400,"Ġox":6401,"Ġpse":6402,"Ġeco":6403,"ationally":6404,"oted":6405,"Ġstyle":6406,"cedented":6407,"Ġargent":6408,"Ġjeopard":6409,"Ġobtained":6410,"Ġacquis":6411,"Ġobservers":6412,"Ġreconciliation":6413,"Ġstimulus":6414,"Ġvietnam":6415,"cap":6416,"uk":6417,"Ġfi":6418,"Ġsaudi":6419,"angible":6420,"Ġkeen":6421,"Ġdepression":6422,"comings":6423,"Ġabsurd":6424,"Ġviolation":6425,"Ġanticip":6426,"Ġecological":6427,"Ġsatisfaction":6428,"Ġdelays":6429,"Ġsupervisory":6430,"Ġvariety":6431,"Ġunprecedented":6432,"arkozy":6433,"Ġaward":6434,"Ġbiod":6435,"ician":6436,"osing":6437,"aken":6438,"Ġmarried":6439,"Ġroll":6440,"Ġhappiness":6441,"Ġbrut":6442,"Ġsettle":6443,"Ġshortcomings":6444,"Ġheavily":6445,"Ġprocure":6446,"Ġscenario":6447,"Ġrhetor":6448,"Ġapproximately":6449,"spe":6450,"Ġtree":6451,"Ġfab":6452,"ctic":6453,"Ġlaugh":6454,"pper":6455,"Ġexcuse":6456,"Ġactors":6457,"Ġreflection":6458,"Ġsolar":6459,"chnya":6460,"Ġprevented":6461,"Ġemerge":6462,"Ġvictim":6463,"Ġgreenhouse":6464,"Ġrelief":6465,"follow":6466,"ients":6467,"Ġsatell":6468,"Ġdav":6469,"Ġlad":6470,"versi":6471,"rap":6472,"Ġfailing":6473,"Ġaccomplish":6474,"Ġinnocent":6475,"fall":6476,"Ġheat":6477,"Ġsomewhere":6478,"Ġguess":6479,"Ġambitions":6480,"Ġtackling":6481,"Ġfootball":6482,"Ġuniversities":6483,"Ġsimplification":6484,"nonetheless":6485,"Ġproliferation":6486,"zen":6487,"Ġsand":6488,"Ġparis":6489,"Ġresort":6490,"astrich":6491,"Ġ29":6492,"Ġunderline":6493,"Ġfinances":6494,"Ġ31":6495,"Ġdiver":6496,"Ġindicators":6497,"Ġultimate":6498,"Ġarrive":6499,"Ġfifteen":6500,"Ġcompete":6501,"Ġroute":6502,"versial":6503,"astricht":6504,"ded":6505,"uct":6506,"uity":6507,"Ġrecy":6508,"Ġstore":6509,"Ġhair":6510,"Ġmanaging":6511,"Ġrevised":6512,"Ġdistingu":6513,"Ġchechnya":6514,"nobody":6515,"Ġtraditions":6516,"Ġsuggestion":6517,"Ġcoordinate":6518,"Ġkilling":6519,"Ġunanimously":6520,"Ġtransformation":6521,"Ġdumping":6522,"Ġtremendous":6523,"culation":6524,"oly":6525,"russi":6526,"requ":6527,"Ġshif":6528,"Ġcompassion":6529,"Ġaccounting":6530,"Ġconfron":6531,"Ġmaastricht":6532,"Ġopenly":6533,"Ġfunctions":6534,"Ġaustrian":6535,"Ġpieces":6536,"Ġmerc":6537,"Ġhoriz":6538,"Ġenhanced":6539,"Ġyeah":6540,"Ġmurder":6541,"iable":6542,"oided":6543,"Ġcommend":6544,"until":6545,"Ġtrave":6546,"Ġconfident":6547,"Ġhero":6548,"Ġavoided":6549,"Ġdistur":6550,"Ġshortly":6551,"Ġarticles":6552,"Ġrecognized":6553,"eva":6554,"Ġwelcomes":6555,"Ġinhab":6556,"Ġreleased":6557,"Ġcollaboration":6558,"celona":6559,"Ġannex":6560,"Ġbang":6561,"Ġdur":6562,"Ġlend":6563,"Ġallies":6564,"child":6565,"Ġrand":6566,"Ġquiet":6567,"aph":6568,"Ġextending":6569,"Ġregardless":6570,"Ġdifferently":6571,"Ġfrust":6572,"Ġblair":6573,"Ġirregular":6574,"Ġaccessible":6575,"Ġlacking":6576,"Ġrejection":6577,"Ġveget":6578,"Ġpictures":6579,"Ġhyd":6580,"Ġsaddam":6581,"Ġhoped":6582,"Ġmanufacturing":6583,"Ġoccupation":6584,"Ġnigeria":6585,"Ġunequ":6586,"Ġeuros":6587,"Ġeuropol":6588,"Ġpled":6589,"Ġplural":6590,"Ġoutput":6591,"Ġincomp":6592,"Ġroots":6593,"Ġfrid":6594,"Ġemu":6595,"iban":6596,"Ġenlar":6597,"Ġpacif":6598,"Ġaccordingly":6599,"Ġdistributed":6600,"Ġsupplementary":6601,"Ġecho":6602,"time":6603,"Ġmary":6604,"Ġhence":6605,"room":6606,"ications":6607,"Ġunit":6608,"Ġpark":6609,"Ġhopefully":6610,"Ġcontroversial":6611,"Ġ1994":6612,"Ġregulate":6613,"Ġhunger":6614,"Ġpenalties":6615,"Ġmuslims":6616,"Ġinequality":6617,"Ġtorture":6618,"rous":6619,"stream":6620,"Ġenabling":6621,"Ġchamp":6622,"Ġlikes":6623,"Ġstring":6624,"Ġaustral":6625,"Ġapparently":6626,"meanwhile":6627,"Ġprocurement":6628,"Ġagrees":6629,"Ġjoining":6630,"Ġcolor":6631,"Ġorganized":6632,"Ġappeared":6633,"Ġperspectives":6634,"Ġcoup":6635,"Ġsilence":6636,"Ġdoctors":6637,"Ġdistinction":6638,"Ġmacedonia":6639,"bet":6640,"ensible":6641,"Ġpul":6642,"Ġfought":6643,"adays":6644,"Ġnovel":6645,"Ġcovers":6646,"Ġeconomists":6647,"Ġaccused":6648,"Ġtaliban":6649,"Ġcolomb":6650,"Ġstarts":6651,"Ġartific":6652,"Ġbarcelona":6653,"Ġdetri":6654,"Ġdrivers":6655,"Ġfocusing":6656,"Ġdescribe":6657,"Ġtelephone":6658,"Ġjournalists":6659,"Ġbiodiversity":6660,"iate":6661,"Ã¤":6662,"Ġpull":6663,"Ġmanif":6664,"Ġfeature":6665,"Ġpermitted":6666,"Ġprocessing":6667,"Ġsignals":6668,"Ġorganic":6669,"Ġ2012":6670,"Ġaudience":6671,"Ġairports":6672,"Ġabstained":6673,"Ġmathem":6674,"Ġsurplus":6675,"Ġpage":6676,"Ġfasc":6677,"Ġhong":6678,"icated":6679,"aces":6680,"Ġpoet":6681,"Ġpersec":6682,"Ġdesirable":6683,"Ġbuying":6684,"Ġspeaks":6685,"Ġswitch":6686,"Ġdenied":6687,"haust":6688,"Ġtrends":6689,"Ġcelebr":6690,"Ġsn":6691,"Ġhabit":6692,"lihood":6693,"soever":6694,"Ġwhatsoever":6695,"Ġconscious":6696,"cessions":6697,"Ġspot":6698,"Ġsports":6699,"Ġmole":6700,"Ġhanded":6701,"Ġmiles":6702,"Ġmotions":6703,"Ġgrave":6704,"Ġapplicant":6705,"Ġdeeper":6706,"Ġinquiry":6707,"aur":6708,"tical":6709,"omal":6710,"otic":6711,"Ġstood":6712,"Ġalger":6713,"Ġvoc":6714,"Ġjur":6715,"Ġresc":6716,"Ġmanip":6717,"Ġexposed":6718,"Ġpreca":6719,"Ġrecover":6720,"Ġiron":6721,"Ġruns":6722,"Ġholds":6723,"Ġskin":6724,"Ġjointly":6725,"Ġbiological":6726,"Ġefficiently":6727,"Ġcomplexity":6728,"Ġpreparations":6729,"Ġdiplomacy":6730,"Ġattractive":6731,"Ġmental":6732,"Ġroughly":6733,"bas":6734,"atisf":6735,"Ġhes":6736,"illance":6737,"ifies":6738,"Ġliability":6739,"Ġdesper":6740,"Ġcreativity":6741,"Ġanswered":6742,"Ġcollection":6743,"Ġexamination":6744,"Ġintegrity":6745,"Ġwarmly":6746,"Ġcrops":6747,"Ġdestroy":6748,"Ġmorocco":6749,"ham":6750,"makers":6751,"Ġtic":6752,"Ġfant":6753,"Ġnotably":6754,"Ġkong":6755,"anged":6756,"Ġsites":6757,"Ġdefault":6758,"Ġinformal":6759,"Ġinvesting":6760,"Ġconventions":6761,"Ġengland":6762,"Ġcoherence":6763,"Ġdiverse":6764,"Ġundertake":6765,"Ġconservation":6766,"Ġforests":6767,"Ġdrafting":6768,"Ġacknowledged":6769,"Ġelderly":6770,"hence":6771,"much":6772,"point":6773,"Ġtribute":6774,"Ġah":6775,"Ġwing":6776,"Ġconven":6777,"Ġnoticed":6778,"Ġwhereby":6779,"Ġcompetences":6780,"Ġoppon":6781,"Ġharder":6782,"Ġobserved":6783,"Ġsuspic":6784,"Ġmanifest":6785,"hear":6786,"rum":6787,"Ġmarine":6788,"Ġbanned":6789,"Ġfavourable":6790,"Ġaccountability":6791,"Ġapplicable":6792,"Ġ150":6793,"Ġillness":6794,"Ġsteel":6795,"Ġallocation":6796,"Ġpipe":6797,"Ġslovakia":6798,"Ġaccurate":6799,"cow":6800,"mal":6801,"rations":6802,"inated":6803,"Ġsme":6804,"Ġsarkozy":6805,"Ġbow":6806,"Ġnamed":6807,"Ġbeat":6808,"utical":6809,"Ġstead":6810,"alling":6811,"Ġadverse":6812,"Ġinvent":6813,"Ġoffic":6814,"Ġtransit":6815,"Ġcentres":6816,"Ġachievements":6817,"Ġaircraft":6818,"Ġreceiving":6819,"Ġteaching":6820,"Ġundertakings":6821,"Ġtonnes":6822,"Ġautomatically":6823,"maybe":6824,"Ġwithdrawal":6825,"Ġsurveillance":6826,"Ġalbania":6827,"Ġyugoslavia":6828,"bors":6829,"via":6830,"Ġalle":6831,"Ġjump":6832,"agers":6833,"Ġconsent":6834,"enses":6835,"aceutical":6836,"Ġideological":6837,"Ġdeny":6838,"Ġmigrants":6839,"Ġrailway":6840,"Ġundertaking":6841,"Ġdrafted":6842,"Ġinevitably":6843,"following":6844,"sometimes":6845,"Ġtiny":6846,"isc":6847,"Ġcs":6848,"Ġdos":6849,"icy":6850,"cience":6851,"Ġgenoc":6852,"mann":6853,"Ġtells":6854,"Ġexciting":6855,"Ġcircle":6856,"Ġcondemned":6857,"Ġdrinking":6858,"Ġhurt":6859,"Ġtitle":6860,"Ġtunisia":6861,"Ġmoldova":6862,"appropri":6863,"oh":6864,"Ġcot":6865,"Ġepid":6866,"iled":6867,"Ġlag":6868,"Ġlending":6869,"Ġvent":6870,"Ġimplies":6871,"Ġsahar":6872,"Ġmarks":6873,"Ġinvite":6874,"Ġfarms":6875,"Ġends":6876,"Ġtape":6877,"Ġinitially":6878,"Ġbrok":6879,"Ġorient":6880,"Ġfleet":6881,"raints":6882,"Ġfortun":6883,"Ġhazard":6884,"Ġgenetically":6885,"Ġpharmaceutical":6886,"Ġtangible":6887,"inal":6888,"Ġcens":6889,"oration":6890,"Ġfool":6891,"Ġing":6892,"ray":6893,"Ġabuses":6894,"Ġdispar":6895,"Ġimported":6896,"Ġmoves":6897,"Ġresponses":6898,"rators":6899,"Ġplayer":6900,"Ġfundamentally":6901,"within":6902,"Ġcontemp":6903,"Ġwording":6904,"book":6905,"Ġwalking":6906,"Ġsubstantially":6907,"Ġcampaigns":6908,"Ġcommunicate":6909,"Ġobservation":6910,"Ġsuspended":6911,"Ġrhetoric":6912,"gans":6913,"nish":6914,"war":6915,"oul":6916,"Ġdivers":6917,"Ġprote":6918,"Ġconve":6919,"Ġeveryday":6920,"Ġblow":6921,"Ġacceptance":6922,"Ġprofess":6923,"Ġprivat":6924,"Ġdisputes":6925,"Ġtesting":6926,"Ġcriminals":6927,"Ġsurprising":6928,"Ġutmost":6929,"Ġincorporated":6930,"Ġhusband":6931,"Ġreiterate":6932,"Ġimperative":6933,"Ġolaf":6934,"cking":6935,"Ġbail":6936,"Ġgrat":6937,"connect":6938,"Ġposs":6939,"Ġmonit":6940,"Ġdefending":6941,"Ġcongratulations":6942,"Ġmissed":6943,"Ġbillions":6944,"Ġsympathy":6945,"Ġdinner":6946,"Ġenemy":6947,"Ġindonesia":6948,"naturally":6949,"fr":6950,"itzer":6951,"Ġbare":6952,"Ġcomfort":6953,"Ġprescri":6954,"lla":6955,"above":6956,"Ġinstability":6957,"Ġlibert":6958,"Ġtensions":6959,"iox":6960,"Ġguaranteeing":6961,"Ġconsulted":6962,"Ġpollut":6963,"Ġrecorded":6964,"Ġengagement":6965,"Ġdefeat":6966,"Ġpilot":6967,"Ġwisdom":6968,"Ġbread":6969,"Ġnord":6970,"Ġexhaust":6971,"Ġoutset":6972,"Ġrot":6973,"Ġoffices":6974,"Ġ194":6975,"Ġescape":6976,"sequent":6977,"Ġsooner":6978,"Ġobserve":6979,"ecd":6980,"Ġterritories":6981,"Ġcounterfe":6982,"Ġmonopoly":6983,"Ġdiscipline":6984,"Ġinhabit":6985,"Ġfriday":6986,"Ġrescue":6987,"Ġts":6988,"enopho":6989,"Ġmich":6990,"Ġange":6991,"Ġprompt":6992,"ched":6993,"Ġintoler":6994,"Ġcook":6995,"Ġsincerely":6996,"Ġvisual":6997,"Ġdangers":6998,"Ġassociations":6999,"Ġclearer":7000,"Ġgranting":7001,"Ġitems":7002,"Ġunanimous":7003,"Ġtelecommun":7004,"Ġtolerance":7005,"Ġestimates":7006,"Ġisolation":7007,"Ġappointment":7008,"Ġownership":7009,"Ġwave":7010,"enna":7011,"ita":7012,"Ġdna":7013,"Ġreward":7014,"Ġbeef":7015,"Ġanyway":7016,"Ġinternationally":7017,"Ġappreciation":7018,"Ġcategories":7019,"cles":7020,"Ġpig":7021,"Ġreverse":7022,"Ġgather":7023,"respect":7024,"Ġarbit":7025,"licate":7026,"Ġentering":7027,"Ġbacking":7028,"Ġinterim":7029,"Ġgrass":7030,"Ġenterprise":7031,"Ġpursuing":7032,"Ġrelationships":7033,"Ġenlarged":7034,"itzerland":7035,"gies":7036,"Ġsuic":7037,"osy":7038,"develop":7039,"Ġphr":7040,"Ġ400":7041,"board":7042,"Ġgains":7043,"Ġstruck":7044,"Ġ1970":7045,"Ġmacroeconomic":7046,"gue":7047,"long":7048,"rather":7049,"tt":7050,"Ġnic":7051,"stuff":7052,"among":7053,"Ġhell":7054,"Ġfeatures":7055,"Ġcenturies":7056,"Ġmoderate":7057,"Ġ45":7058,"Ġairlines":7059,"Ġcongratulating":7060,"Ġsplit":7061,"Ġtall":7062,"Ġtast":7063,"oning":7064,"Ġstu":7065,"Ġunilateral":7066,"tery":7067,"ivered":7068,"Ġvary":7069,"istical":7070,"Ġbrand":7071,"Ġwarrant":7072,"Ġmeets":7073,"Ġelite":7074,"Ġstars":7075,"Ġargued":7076,"Ġqualifications":7077,"Ġattached":7078,"Ġdelivered":7079,"Ġgenocide":7080,"isite":7081,"Ġmuse":7082,"Ġfoss":7083,"Ġhide":7084,"Ġdup":7085,"Ġdiox":7086,"asp":7087,"Ġgall":7088,"Ġreporting":7089,"Ġmonday":7090,"Ġforever":7091,"Ġessence":7092,"Ġcivilians":7093,"bert":7094,"Ġtextile":7095,"Ġcurrencies":7096,"Ġunderest":7097,"Ġpainful":7098,"Ġoverwhelming":7099,"Ġtail":7100,"rem":7101,"Ġseats":7102,"Ġdoha":7103,"abe":7104,"Ġsaved":7105,"whe":7106,"Ġworthy":7107,"ijing":7108,"Ġhouses":7109,"Ġxenopho":7110,"Ġinspired":7111,"Ġearthquake":7112,"port":7113,"Ġmarri":7114,"Ġserved":7115,"Ġsubsequent":7116,"Ġpromoted":7117,"Ġmisunder":7118,"Ġerrors":7119,"Ġdispl":7120,"Ġpostal":7121,"Ġmessages":7122,"Ġkorean":7123,"Ġwebsite":7124,"Ġscrutiny":7125,"Ġjuris":7126,"wa":7127,"Ġtam":7128,"Ġbag":7129,"essions":7130,"Ġfan":7131,"Ġfur":7132,"Ġabst":7133,"mmet":7134,"Ġgeneva":7135,"neither":7136,"Ġinspir":7137,"Ġadvised":7138,"Ġbenefici":7139,"Ġsustained":7140,"Ġredund":7141,"Ġcrash":7142,"Ġdonors":7143,"Ġobstacle":7144,"Ġconsolidation":7145,"Ġceleb":7146,"Ġchannel":7147,"Ġimbalances":7148,"Ġrecyc":7149,"Ġdossi":7150,"Ġtelecommunications":7151,"aid":7152,"nis":7153,"Ġnur":7154,"kel":7155,"Ġimperial":7156,"ounds":7157,"ube":7158,"Ġgovernmental":7159,"Ġaccepting":7160,"Ġresearchers":7161,"Ġalongside":7162,"Ġquota":7163,"Ġunanimity":7164,"Ġderog":7165,"Ġokay":7166,"Ġmuseum":7167,"bly":7168,"ios":7169,"Ġcow":7170,"Ġhall":7171,"Ġstations":7172,"Ġsupre":7173,"Ġsees":7174,"Ġacted":7175,"Ġevil":7176,"Ġassert":7177,"Ġpersonnel":7178,"Ġprotectionism":7179,"Ġcontributing":7180,"Ġbankrupt":7181,"Ġconventional":7182,"Ġneighbors":7183,"Ġdivide":7184,"Ġrenewed":7185,"Ġenjoyed":7186,"Ġconservatives":7187,"Ġstrictly":7188,"Ġmarginal":7189,"Ġcamera":7190,"Ġowing":7191,"Ġplatform":7192,"Ġlithuania":7193,"matically":7194,"Ġties":7195,"ounce":7196,"Ġselling":7197,"istry":7198,"aked":7199,"Ġjustification":7200,"Ġnationals":7201,"Ġnormally":7202,"Ġsenior":7203,"Ġauthoritarian":7204,"Ġcontacts":7205,"rogen":7206,"Ġscotland":7207,"russia":7208,"ule":7209,"uzz":7210,"Ġcontam":7211,"Ġsomehow":7212,"rown":7213,"Ġsubs":7214,"Ġreloc":7215,"Ġassured":7216,"Ġimmense":7217,"Ġ1992":7218,"Ġfacility":7219,"Ġassessments":7220,"Ġchristians":7221,"Ġweapon":7222,"Ġcrazy":7223,"Ġisolated":7224,"Ġincomes":7225,"Ġautonomy":7226,"Ġalleged":7227,"mer":7228,"zuel":7229,"Ġvers":7230,"Ġsorts":7231,"rade":7232,"Ġsequ":7233,"Ġadmitted":7234,"Ġknowing":7235,"Ġunderp":7236,"ounded":7237,"Ġdiffer":7238,"Ġsecular":7239,"Ġadvis":7240,"nothing":7241,"Ġbroadcast":7242,"Ġclosing":7243,"Ġimposing":7244,"Ġdeclarations":7245,"Ġclaimed":7246,"Ġtrees":7247,"Ġsimplify":7248,"Ġabandoned":7249,"Ġexclusively":7250,"Ġexplicitly":7251,"break":7252,"Ġargentina":7253,"limin":7254,"mans":7255,"erb":7256,"ensions":7257,"Ġancient":7258,"Ġholid":7259,"osure":7260,"Ġque":7261,"Ġtrick":7262,"iph":7263,"Ġmoon":7264,"Ġ37":7265,"Ġlabel":7266,"Ġlocation":7267,"Ġpostpon":7268,"Ġigc":7269,"Ġmeantime":7270,"children":7271,"Ġliberties":7272,"ni":7273,"pass":7274,"Ġsnow":7275,"Ġcere":7276,"Ġmaster":7277,"Ġflying":7278,"Ġstal":7279,"opol":7280,"Ġvit":7281,"unction":7282,"Ġattain":7283,"Ġrush":7284,"ective":7285,"Ġtimely":7286,"Ġfeas":7287,"Ġconstraints":7288,"Ġrepression":7289,"Ġirrespon":7290,"Ġliberals":7291,"Ġexceptions":7292,"Ġfisch":7293,"yesterday":7294,"Ġmoscow":7295,"Ġhypoc":7296,"stuffs":7297,"fur":7298,"Ġcos":7299,"Ġdaughter":7300,"aria":7301,"Ġstip":7302,"uled":7303,"Ġunh":7304,"Ġdisast":7305,"Ġpropag":7306,"Ġbold":7307,"Ġfron":7308,"Ġpopul":7309,"Ġswitzerland":7310,"Ġ75":7311,"Ġpartnerships":7312,"Ġvirus":7313,"Ġcatal":7314,"Ġarrested":7315,"Ġhouseholds":7316,"Ġsatellite":7317,"Ġfossil":7318,"rical":7319,"Ġcup":7320,"Ġfires":7321,"Ġinput":7322,"icking":7323,"Ġstages":7324,"olf":7325,"Ġselection":7326,"Ġprerequ":7327,"Ġserves":7328,"Ġclin":7329,"Ġconfusion":7330,"Ġsystematic":7331,"Ġowned":7332,"Ġbacked":7333,"Ġresolving":7334,"Ġedge":7335,"Ġparticipating":7336,"Ġtypical":7337,"Ġnewspaper":7338,"Ġpacific":7339,"whether":7340,"pone":7341,"Ġsale":7342,"Ġcab":7343,"Ġlunch":7344,"Ġreput":7345,"Ġadequ":7346,"Ġfinnish":7347,"Ġprejud":7348,"Ġtransf":7349,"Ġcamb":7350,"Ġreductions":7351,"Ġ1993":7352,"Ġstudying":7353,"Ġcongo":7354,"Ġceiling":7355,"Ġbreast":7356,"Ġlowest":7357,"Ġautumn":7358,"Ġdependence":7359,"Ġchristmas":7360,"Ġengineering":7361,"Ġexpertise":7362,"Ġstorage":7363,"iro":7364,"Ġtoxic":7365,"Ġhaiti":7366,"Ġsuit":7367,"Ġshot":7368,"Ġvene":7369,"Ġintense":7370,"Ġplain":7371,"Ġtea":7372,"Ġroc":7373,"Ġsubsequently":7374,"Ġreluct":7375,"Ġminor":7376,"Ġtechni":7377,"Ġgenerated":7378,"Ġpostpone":7379,"Ġwinter":7380,"Ġukrain":7381,"Ġadvocate":7382,"off":7383,"ugg":7384,"erity":7385,"Ġnaz":7386,"Ġbeijing":7387,"Ġchick":7388,"Ġdefining":7389,"Ġcarri":7390,"Ġwarn":7391,"Ġletters":7392,"Ġparticipants":7393,"Ġconsistently":7394,"Ġexerc":7395,"Ġconcentration":7396,"Ġbirds":7397,"Ġstimulate":7398,"Ġdepartment":7399,"Ġjurisdict":7400,"ares":7401,"Ġtact":7402,"Ġoecd":7403,"Ġpose":7404,"Ġbes":7405,"eda":7406,"thanks":7407,"Ġreaff":7408,"ram":7409,"Ġdisrupt":7410,"Ġprelimin":7411,"Ġtrained":7412,"Ġaccum":7413,"Ġguide":7414,"petus":7415,"Ġinvested":7416,"beit":7417,"Ġpays":7418,"roductive":7419,"berg":7420,"Ġdamaging":7421,"Ġcollaps":7422,"itudes":7423,"Ġbeauty":7424,"Ġsilent":7425,"Ġmachines":7426,"Ġgeorge":7427,"Ġobservations":7428,"Ġaustralia":7429,"Ġald":7430,"Ġincon":7431,"Ġreun":7432,"ilty":7433,"Ġunjust":7434,"Ġranging":7435,"ussions":7436,"Ġtrillion":7437,"Ġcompatible":7438,"Ġwhenever":7439,"Ġdebts":7440,"Ġpublicly":7441,"Ġviewed":7442,"Ġsafer":7443,"Ġbegins":7444,"Ġimpetus":7445,"Ġcompromises":7446,"Ġexchanges":7447,"Ġinterventions":7448,"Ġhighlights":7449,"Ġhorse":7450,"Ġrefugee":7451,"Ġcharacteristics":7452,"Ġdonor":7453,"Ġprotests":7454,"Ġretirement":7455,"Ġmathemat":7456,"appropriate":7457,"Ġna":7458,"Ġgard":7459,"Ġjer":7460,"Ġuphold":7461,"Ġcope":7462,"Ġcommunism":7463,"Ġremote":7464,"Ġending":7465,"Ġsolving":7466,"Ġmeasured":7467,"Ġorganise":7468,"Ġobjections":7469,"Ġabsent":7470,"Ġexpressing":7471,"Ġbroadly":7472,"Ġorganisms":7473,"shr":7474,"Ġinterview":7475,"Ġclarification":7476,"Ġcomparable":7477,"Ġstakeholders":7478,"Ġutter":7479,"Ġcoastal":7480,"Ġphilosophy":7481,"lete":7482,"Ġalbeit":7483,"rapporteur":7484,"Ġnotes":7485,"Ġenshr":7486,"Ġplenty":7487,"Ġdisarm":7488,"Ġwherever":7489,"Ġplane":7490,"Ġgenerous":7491,"Ġdevoted":7492,"Ġratify":7493,"Ġwalked":7494,"Ġvoices":7495,"Ġarabia":7496,"Ġosce":7497,"Ġdismiss":7498,"Ġprecaution":7499,"Ġinhabitants":7500,"Ġdisastrous":7501,"Ġpreliminary":7502,"Ġtens":7503,"rec":7504,"Ġbath":7505,"Ġdoors":7506,"Ġheight":7507,"Ġaccomm":7508,"Ġhandle":7509,"Ġequity":7510,"Ġrepresenting":7511,"Ġexperiments":7512,"Ġambig":7513,"Ġsentences":7514,"nesday":7515,"Ġprosecut":7516,"Ġspectrum":7517,"Ġrevealed":7518,"Ġaccommod":7519,"mis":7520,"esh":7521,"Ġhidden":7522,"Ġbearing":7523,"Ġwhol":7524,"ids":7525,"imag":7526,"Ġrock":7527,"ileo":7528,"Ġsocio":7529,"Ġfeelings":7530,"Ġpractically":7531,"Ġcareer":7532,"Ġpassing":7533,"Ġintegrate":7534,"Ġangry":7535,"Ġpersuade":7536,"Ġwednesday":7537,"Ġproviders":7538,"Ġstupid":7539,"Ġms":7540,"Ġdress":7541,"three":7542,"Ġpromin":7543,"Ġenables":7544,"Ġoutbreak":7545,"Ġloved":7546,"Ġguilty":7547,"Ġflat":7548,"Ġpressing":7549,"Ġ1989":7550,"turn":7551,"Ġcultiv":7552,"Ġoptimistic":7553,"Ġpatterns":7554,"Ġvigil":7555,"Ġendorsed":7556,"Ġvenezuel":7557,"person":7558,"su":7559,"women":7560,"Ġske":7561,"Ġcul":7562,"Ġpity":7563,"Ġpestic":7564,"Ġshop":7565,"Ġseason":7566,"Ġenrich":7567,"ude":7568,"ultane":7569,"Ġyours":7570,"Ġconviction":7571,"laim":7572,"Ġrestrictive":7573,"Ġpushed":7574,"Ġridic":7575,"Ġchannels":7576,"Ġshel":7577,"Ġtroub":7578,"Ġposed":7579,"ogle":7580,"Ġsecur":7581,"Ġcostly":7582,"Ġwholehear":7583,"Ġoccupied":7584,"Ġpraise":7585,"Ġflights":7586,"Ġolympic":7587,"Ġcolombia":7588,"ss":7589,"erted":7590,"Ġmale":7591,"aling":7592,"state":7593,"Ġdetain":7594,"llor":7595,"Ġtrace":7596,"Ġinstruct":7597,"Ġrealities":7598,"Ġmakers":7599,"Ġformula":7600,"Ġgrasp":7601,"Ġprogressive":7602,"lusive":7603,"Ġpunishment":7604,"Ġfragile":7605,"Ġopponents":7606,"Ġingred":7607,"cas":7608,"fast":7609,"vity":7610,"Ġase":7611,"Ġpapers":7612,"Ġbreed":7613,"Ġfill":7614,"Ġdat":7615,"Ġdying":7616,"thy":7617,"ili":7618,"Ġexac":7619,"Ġprecond":7620,"Ġindication":7621,"Ġoverlook":7622,"Ġtranslation":7623,"Ġaffair":7624,"Ġrespective":7625,"Ġsecondly":7626,"Ġescal":7627,"Ġrevol":7628,"Ġthoughts":7629,"Ġharmonised":7630,"Ġstrikes":7631,"Ġausterity":7632,"Ġdominant":7633,"Ġabolition":7634,"Ġmonopol":7635,"regarding":7636,"Ġliquidity":7637,"america":7638,"Ġcommodity":7639,"Ġexacerb":7640,"hist":7641,"Ã¨":7642,"ani":7643,"Ġmira":7644,"Ġdrast":7645,"Ġbears":7646,"Ġutil":7647,"Ġunus":7648,"ador":7649,"Ġpresents":7650,"Ġappointed":7651,"Ġanymore":7652,"Ġadding":7653,"Ġadvances":7654,"Ġkeeps":7655,"Ġsubstit":7656,"Ġoriginally":7657,"Ġcypri":7658,"Ġdelayed":7659,"Ġmandatory":7660,"Ġcommerce":7661,"Ġinvestigate":7662,"Ġdismant":7663,"Ġarchitecture":7664,"Ġashton":7665,"Ġliberty":7666,"Ġartificial":7667,"bi":7668,"bally":7669,"dens":7670,"human":7671,"tered":7672,"vent":7673,"inet":7674,"Ġcath":7675,"Ġmir":7676,"Ġfilled":7677,"ara":7678,"Ġrevers":7679,"Ġga":7680,"ulz":7681,"Ġrarely":7682,"Ġdramatically":7683,"Ġfragment":7684,"Ġfoods":7685,"mptions":7686,"Ġflaw":7687,"Ġadapted":7688,"Ġtreas":7689,"turkey":7690,"Ġrevenues":7691,"Ġcolonial":7692,"uilding":7693,"Ġaspirations":7694,"Ġtemperature":7695,"Ġirregularities":7696,"making":7697,"Ġtear":7698,"erving":7699,"Ġband":7700,"Ġlegacy":7701,"Ġbran":7702,"Ġfinds":7703,"Ġschulz":7704,"Ġruled":7705,"Ġunderstandable":7706,"Ġpreventive":7707,"Ġcheaper":7708,"Ġpaul":7709,"Ġcovering":7710,"Ġpoorer":7711,"Ġthoroughly":7712,"Ġconcepts":7713,"Ġadults":7714,"fourthly":7715,"Ġfinger":7716,"amendment":7717,"Ġsmooth":7718,"Ġmonitored":7719,"rating":7720,"Ġbond":7721,"Ġlists":7722,"rage":7723,"rig":7724,"Ġorgans":7725,"Ġnobel":7726,"Ġcoinc":7727,"Ġcontinuation":7728,"Ġherz":7729,"Ġsmoke":7730,"Ġfindings":7731,"Ġdepos":7732,"Ġ1991":7733,"Ġborne":7734,"Ġisraelis":7735,"ography":7736,"Ġresponded":7737,"anyone":7738,"Ġdisappeared":7739,"Ġgalileo":7740,"Ġcomponents":7741,"medi":7742,"Ġelig":7743,"Ġnomin":7744,"stan":7745,"Ġgest":7746,"Ġgaps":7747,"Ġdear":7748,"Ġplus":7749,"ollah":7750,"Ġprincipal":7751,"Ġthreatening":7752,"Ġdefinitive":7753,"Ġ1960":7754,"Ã³n":7755,"Ġsuicide":7756,"osystem":7757,"Ġsupreme":7758,"cture":7759,"Ġenabled":7760,"Ġrub":7761,"ami":7762,"rence":7763,"Ġcompli":7764,"Ġworker":7765,"agger":7766,"iously":7767,"Ġboat":7768,"Ġhandling":7769,"Ġprocedural":7770,"Ġstudied":7771,"Ġtrib":7772,"Ġdevice":7773,"Ġconsultations":7774,"Ġcalm":7775,"Ġreminded":7776,"Ġsimplified":7777,"Ġgradual":7778,"Ġmeaningful":7779,"Ġfavorite":7780,"Ġsimultane":7781,"Ġdemonstration":7782,"Ġconversation":7783,"Ġdatab":7784,"mat":7785,"zed":7786,"isen":7787,"icks":7788,"Ġegg":7789,"Ġlam":7790,"oting":7791,"Ġboys":7792,"Ġnationalism":7793,"lessly":7794,"Ġdemocratically":7795,"Ġsocially":7796,"Ġecosystem":7797,"Ġvolat":7798,"Ġsunday":7799,"Ġteams":7800,"Ġevaluate":7801,"Ġcosm":7802,"Ġalde":7803,"bul":7804,"cur":7805,"gs":7806,"Ġmun":7807,"ales":7808,"Ġatom":7809,"ifor":7810,"Ġgoogle":7811,"ocal":7812,"Ġassurance":7813,"Ġherself":7814,"Ġformed":7815,"Ġhomework":7816,"ofuel":7817,"Ġconsistency":7818,"Ġinvestigations":7819,"Ġseekers":7820,"Ġhoping":7821,"Ġrobust":7822,"Ġdecentral":7823,"Ġparadox":7824,"Ġtac":7825,"ancies":7826,"Ġinappropriate":7827,"Ġeib":7828,"Ġug":7829,"several":7830,"igation":7831,"Ġarctic":7832,"Ġpolicymakers":7833,"Ġmail":7834,"Ġinterrupt":7835,"Ġformally":7836,"Ġcriter":7837,"Ġmoments":7838,"Ġcombine":7839,"Ġveto":7840,"Ġemotional":7841,"Ġperceived":7842,"Ġneutral":7843,"isra":7844,"Ġdish":7845,"Ġconcessions":7846,"olic":7847,"Ġappla":7848,"Ġspecul":7849,"Ġhole":7850,"Ġprud":7851,"Ġscore":7852,"Ġmomentum":7853,"Ġstatistical":7854,"Ġburdens":7855,"ugen":7856,"Ġsixth":7857,"Ġdimensions":7858,"Ġparagraphs":7859,"ika":7860,"Ġexplanations":7861,"Ġcards":7862,"Ġphrase":7863,"Ġadequately":7864,"Ġcriterion":7865,"sm":7866,"vic":7867,"xual":7868,"Ġpoc":7869,"Ġreme":7870,"Ġlingu":7871,"sein":7872,"Ġunclear":7873,"ustain":7874,"Ġchances":7875,"Ġkurd":7876,"Ġcomposition":7877,"Ġinvented":7878,"Ġideology":7879,"Ġexisted":7880,"Ġverhe":7881,"Ġchancellor":7882,"Ġexploit":7883,"Ġcruel":7884,"Ġrobot":7885,"Ġscarce":7886,"Ġhazardous":7887,"bby":7888,"had":7889,"night":7890,"Ġbird":7891,"Ġinsec":7892,"rol":7893,"Ġstric":7894,"riend":7895,"Ġchile":7896,"Ġrice":7897,"Ġimpressive":7898,"coni":7899,"Ġoutlined":7900,"Ġcompare":7901,"Ġ195":7902,"Ġwished":7903,"Ġseconds":7904,"Ġbrothers":7905,"Ġregulators":7906,"Ġdimin":7907,"Ġimagination":7908,"certainly":7909,"Ġcustomers":7910,"Ġdreams":7911,"Ġincorporate":7912,"Ġcontradiction":7913,"Ġmixed":7914,"Ġregistration":7915,"Ġmultiple":7916,"Ġrandom":7917,"Ġprecautionary":7918,"Ġverheugen":7919,"iov":7920,"lock":7921,"ship":7922,"ws":7923,"Ġtor":7924,"irt":7925,"Ġring":7926,"Ġrum":7927,"Ġresign":7928,"ourse":7929,"Ġarising":7930,"Ġmothers":7931,"Ġgenes":7932,"Ġinteract":7933,"icially":7934,"Ġcapabilities":7935,"Ġzones":7936,"Ġprogramming":7937,"Ġbiofuel":7938,"Ġsymbolic":7939,"Ġmortg":7940,"Ġlawyer":7941,"Ġtransfers":7942,"Ġreaffirm":7943,"ell":7944,"uously":7945,"Ġcart":7946,"Ġdisabilities":7947,"Ġarmen":7948,"Ġperiph":7949,"iann":7950,"Ġdepl":7951,"Ġpromising":7952,"Ġsheep":7953,"Ġrestaur":7954,"Ġreinforced":7955,"Ġelectorate":7956,"Ġexemp":7957,"Ġpsychological":7958,"Ġhussein":7959,"Ġembrace":7960,"Ġprofessor":7961,"Ġxenophobia":7962,"Ġapplaud":7963,"Ġtiss":7964,"Ġtheme":7965,"enko":7966,"Ġpit":7967,"organ":7968,"Ġdrought":7969,"Ġrede":7970,"Ġalleg":7971,"Ġconsists":7972,"Ġposes":7973,"Ġnowhere":7974,"Ġmainstream":7975,"Ġrespecting":7976,"Ġdriver":7977,"something":7978,"Ġinnovations":7979,"Ġrecommended":7980,"Ġconvincing":7981,"Ġmalta":7982,"Ġcooperative":7983,"Ġinherent":7984,"Ġtendency":7985,"Ġhotel":7986,"Ġsurvey":7987,"Ġundermined":7988,"kyo":7989,"Ġdublin":7990,"Ġpursuant":7991,"Ġpossess":7992,"Ġbarely":7993,"Ġrecycling":7994,"Ġjurisdiction":7995,"pens":7996,"za":7997,"Ġ`":7998,"Ġtokyo":7999,"Ġhate":8000,"Ġeg":8001,"idential":8002,"Ġresidence":8003,"whatever":8004,"Ġproducer":8005,"Ġbases":8006,"rats":8007,"Ġdesired":8008,"Ġscene":8009,"Ġbarack":8010,"Ġcamps":8011,"Ġbreaking":8012,"Ġresponding":8013,"Ġpillars":8014,"Ġseverely":8015,"Ġenthusiasm":8016,"Ġprerequisite":8017,"Ġreputation":8018,"ae":8019,"vi":8020,"ye":8021,"ionary":8022,"stone":8023,"Ġdeem":8024,"mple":8025,"unte":8026,"apart":8027,"Ġprede":8028,"oked":8029,"Ġcouncils":8030,"Ġpride":8031,"tenance":8032,"Ġcaut":8033,"Ġadvent":8034,"Ġimmunity":8035,"Ġfailures":8036,"Ġthreaten":8037,"Ġdestabil":8038,"likewise":8039,"life":8040,"Ġbreakthrough":8041,"Ġfederation":8042,"Ġmalaria":8043,"Ġrailways":8044,"Ġfulfilled":8045,"Ġspreading":8046,"Ġprecedent":8047,"Ġdavid":8048,"Ġpropaganda":8049,"ĠÃ":8050,"ener":8051,"Ġcau":8052,"Ġloud":8053,"Ġwear":8054,"Ġrepair":8055,"Ġconscience":8056,"Ġnowadays":8057,"Ġpolitician":8058,"Ġrecital":8059,"Ġproduces":8060,"Ġsystematically":8061,"Ġassumed":8062,"Ġbrill":8063,"Ġsigning":8064,"Ġmaintenance":8065,"ovina":8066,"Ġrussians":8067,"Ġdemanded":8068,"Ġrecognises":8069,"Ġ2015":8070,"Ġliberalization":8071,"Ġtension":8072,"Ġveter":8073,"Ġbiology":8074,"everybody":8075,"Ġfreight":8076,"Ġemergence":8077,"Ġdominated":8078,"holm":8079,"Ġmcc":8080,"Ġalarming":8081,"Ġjewish":8082,"Ġfoster":8083,"Ġhesit":8084,"good":8085,"hi":8086,"Ġowe":8087,"Ġbact":8088,"Ġsums":8089,"Ġshock":8090,"ander":8091,"unk":8092,"Ġrating":8093,"Ġours":8094,"Ġadh":8095,"Ġmyth":8096,"ressing":8097,"Ġgoverned":8098,"Ġfright":8099,"Ġmisle":8100,"Ġencourages":8101,"Ġageing":8102,"Ġpaint":8103,"Ġauthorisation":8104,"Ġtouched":8105,"Ġboundaries":8106,"Ġbelongs":8107,"Ġexpanding":8108,"Ġinequalities":8109,"Ġscheduled":8110,"Ġindispens":8111,"Ġirresponsible":8112,"cs":8113,"col":8114,"rass":8115,"vable":8116,"Ġsli":8117,"Ġsomal":8118,"Ġcake":8119,"roph":8120,"oty":8121,"Ġstone":8122,"Ġstagn":8123,"Ġstuck":8124,"irty":8125,"opia":8126,"Ġinvitation":8127,"Ġlift":8128,"Ġlocated":8129,"Ġjudges":8130,"Ġtopics":8131,"Ġdiam":8132,"Ġvolunte":8133,"Ġtotalitarian":8134,"Ġexamining":8135,"rophe":8136,"everything":8137,"Ġtackled":8138,"Ġchaos":8139,"Ġphysics":8140,"Ġshoes":8141,"Ġgalax":8142,"Ġalike":8143,"Ġbrutal":8144,"Ġalgeria":8145,"kind":8146,"sad":8147,"wood":8148,"urg":8149,"Ġseas":8150,"Ġreperc":8151,"Ġpregn":8152,"Ġnewly":8153,"Ġdeciding":8154,"Ġspeculation":8155,"Ġperception":8156,"Ġaccus":8157,"Ġattitudes":8158,"Ġunex":8159,"Ġweaken":8160,"Ġaggressive":8161,"Ġdropped":8162,"Ġcatastrophe":8163,"Ġconfronted":8164,"Ġhorizont":8165,"Ġtribun":8166,"Ġindispensable":8167,"hr":8168,"vation":8169,"Ġax":8170,"Ġath":8171,"Ġble":8172,"still":8173,"Ġiv":8174,"Ġlt":8175,"Ġmel":8176,"Ġvague":8177,"Ġdisse":8178,"emen":8179,"Ġincidents":8180,"Ġinvasion":8181,"Ġrefusal":8182,"Ġglobally":8183,"Ġcapita":8184,"Ġvienna":8185,"Ġinitiated":8186,"gged":8187,"Ġapproaching":8188,"Ġminded":8189,"ugabe":8190,"Ġdegrees":8191,"Ġrevolutionary":8192,"Ġpushing":8193,"Ġbirthday":8194,"Ġinjured":8195,"Ġannouncement":8196,"Ġremedy":8197,"Ġoxy":8198,"Ġdioxide":8199,"Ġrepercussions":8200,"democ":8201,"far":8202,"hab":8203,"ipped":8204,"japan":8205,"po":8206,"seen":8207,"Ġstorm":8208,"olved":8209,"Ġunits":8210,"Ġsoc":8211,"Ġresidents":8212,"Ġresumed":8213,"consider":8214,"ford":8215,"Ġteeth":8216,"Ġamending":8217,"Ġassum":8218,"ologists":8219,"Ġgrants":8220,"Ġobjects":8221,"Ġcontributes":8222,"Ġexplore":8223,"Ġsla":8224,"Ġfocuses":8225,"Ġfrankly":8226,"Ġdarfur":8227,"give":8228,"Ġmyster":8229,"inton":8230,"Ġempire":8231,"Ġdesert":8232,"next":8233,"Ġ32":8234,"archy":8235,"Ġcontrolling":8236,"Ġaccountable":8237,"Ġconsequently":8238,"Ġdevices":8239,"otechn":8240,"Ġtowns":8241,"Ġembarrass":8242,"Ġacademic":8243,"Ġslovenia":8244,"Ġvenezuela":8245,"pal":8246,"tion":8247,"Ġau":8248,"icing":8249,"stat":8250,"Ġweigh":8251,"Ġunres":8252,"ode":8253,"Ġjac":8254,"ieth":8255,"Ġsincere":8256,"Ġaddresses":8257,"Ġyounger":8258,"Ġoriented":8259,"Ġdamaged":8260,"Ġexemption":8261,"Ġscreen":8262,"Ġepidemic":8263,"Ġmarriage":8264,"Ġdisplaced":8265,"Ġfischler":8266,"Ġsecurities":8267,"hard":8268,"pa":8269,"eness":8270,"Ġhars":8271,"icate":8272,"Ġupper":8273,"owered":8274,"Ġunknow":8275,"lls":8276,"rend":8277,"Ġmanagers":8278,"forest":8279,"Ġrose":8280,"Ġsympt":8281,"Ġcorre":8282,"Ġensured":8283,"Ġurged":8284,"Ġartists":8285,"Ġtransportation":8286,"Ġcharged":8287,"Ġdisprop":8288,"Ġweekend":8289,"Ġsenti":8290,"Ġseparation":8291,"exist":8292,"Ġpreferred":8293,"Ġexclusive":8294,"Ġlawyers":8295,"Ġdevastating":8296,"Ġpipeline":8297,"Ġpesticides":8298,"iannual":8299,"Ġbrilliant":8300,"Ġforb":8301,"pel":8302,"quite":8303,"Ġleague":8304,"Ġjail":8305,"akh":8306,"text":8307,"Ġappalling":8308,"Ġopens":8309,"Ġsecuring":8310,"Ġsolana":8311,"Ġtrials":8312,"Ġdetention":8313,"Ġfold":8314,"Ġdelegations":8315,"Ġclarified":8316,"Ġsafeguarding":8317,"Ġcomplaint":8318,"Ġwitnessed":8319,"Ġfloods":8320,"Ġshipping":8321,"Ġbubble":8322,"israel":8323,"ipp":8324,"public":8325,"Ġtone":8326,"Ġsin":8327,"Ġsoph":8328,"Ġcig":8329,"Ġnerv":8330,"thor":8331,"omed":8332,"ola":8333,"ifiable":8334,"Ġacute":8335,"osevic":8336,"oval":8337,"Ġunderstands":8338,"Ġbench":8339,"comes":8340,"Ġ48":8341,"Ġsubjected":8342,"Ġtrigg":8343,"Ġpatten":8344,"Ġ600":8345,"Ġcontaining":8346,"Ġbright":8347,"Ġreturns":8348,"Ġfeeding":8349,"Ġtransferred":8350,"Ġattempted":8351,"Ġdistinct":8352,"welve":8353,"Ġseventh":8354,"Ġcambod":8355,"ustainable":8356,"view":8357,"orously":8358,"stop":8359,"Ġgue":8360,"Ġgmos":8361,"Ġdelicate":8362,"mbered":8363,"Ġintim":8364,"Ġusd":8365,"Ġincur":8366,"Ġprint":8367,"Ġdepending":8368,"Ġavailability":8369,"Ġweaker":8370,"Ġbitter":8371,"Ġsanter":8372,"Ġstrive":8373,"Ġsafeguards":8374,"Ġvirtual":8375,"Ġabolish":8376,"Ġabolished":8377,"Ġadaptation":8378,"consist":8379,"Ġembargo":8380,"Ġdedicated":8381,"Ġneighborhood":8382,"Ġaston":8383,"Ġconvey":8384,"remlin":8385,"Ġdossier":8386,"Ġlinguistic":8387,"Ġdisproportion":8388,"11":8389,"tal":8390,"Ġpap":8391,"oral":8392,"Ġtoys":8393,"icious":8394,"Ġshr":8395,"outs":8396,"acing":8397,"llow":8398,"Ġtransmission":8399,"Ġgene":8400,"Ġremit":8401,"Ġextract":8402,"Ġpointing":8403,"egovina":8404,"Ġshortage":8405,"Ġretail":8406,"Ġvisas":8407,"Ġdeclining":8408,"Ġverts":8409,"Ġconnections":8410,"Ġtested":8411,"Ġpunished":8412,"Ġattempting":8413,"Ġadvocates":8414,"Ġpurchase":8415,"Ġconstituency":8416,"Ġregistered":8417,"Ġthirds":8418,"Ġhalt":8419,"Ġpursuit":8420,"Ġenvisaged":8421,"Ġpragmatic":8422,"Ġdeprived":8423,"Ġinfringement":8424,"Ġcaucas":8425,"Ġbrown":8426,"ille":8427,"ura":8428,"Ġunified":8429,"Ġkremlin":8430,"tex":8431,"Ġsyner":8432,"Ġclinton":8433,"Ġrelax":8434,"Ġguine":8435,"Ġdistant":8436,"Ġ65":8437,"Ġmultiannual":8438,"Ġindicates":8439,"Ġconcentrated":8440,"Ġacquire":8441,"Ġarrangement":8442,"Ġexpanded":8443,"Ġqa":8444,"Ġnervous":8445,"Ġwond":8446,"Ġpand":8447,"Ġbid":8448,"Ġfro":8449,"Ġbeach":8450,"Ġstamp":8451,"Ġdereg":8452,"Ġride":8453,"Ġuser":8454,"Ġarises":8455,"Ġsupporters":8456,"Ġserb":8457,"anger":8458,"Ġinfl":8459,"Ġeducated":8460,"Ġflour":8461,"Ġcivilization":8462,"Ġrisky":8463,"Ġfunny":8464,"strÃ¶":8465,"Ġchallenging":8466,"Ġclosure":8467,"Ġavoiding":8468,"Ġethi":8469,"Ġunsatisf":8470,"Ġentails":8471,"Ġstringent":8472,"Ġingredients":8473,"Ġherzegovina":8474,"strÃ¶m":8475,"ek":8476,"inter":8477,"Ġmugabe":8478,"Ġinse":8479,"Ġhind":8480,"Ġdare":8481,"Ġunst":8482,"Ġshoulder":8483,"osexual":8484,"Ġroth":8485,"Ġremoval":8486,"Ġestonia":8487,"Ġsuppose":8488,"Ġlibrary":8489,"Ġexpecting":8490,"Ġclothes":8491,"Ġheaded":8492,"Ġpackaging":8493,"Ġmassac":8494,"Ġbiotechn":8495,"Ġpressures":8496,"Ġcriticised":8497,"Ġcollected":8498,"Ġsensit":8499,"Ġmissions":8500,"Ġacquired":8501,"Ġtuna":8502,"Ġdestroying":8503,"Ġquantities":8504,"Ġmagic":8505,"Ġrigorous":8506,"true":8507,"Ġdecrease":8508,"Ġecofin":8509,"Ġfabric":8510,"Ġhydrogen":8511,"icycle":8512,"Ġpostponed":8513,"Ġkurdish":8514,"Ġstricter":8515,"aci":8516,"bollah":8517,"oy":8518,"sk":8519,"yn":8520,"inct":8521,"anes":8522,"aled":8523,"Ġdual":8524,"rot":8525,"Ġgiant":8526,"Ġstret":8527,"Ġunwill":8528,"Ġexert":8529,"esty":8530,"amount":8531,"Ġabund":8532,"Ġdisregard":8533,"Ġoutcomes":8534,"Ġtimor":8535,"agon":8536,"Ġexpenses":8537,"Ġfactory":8538,"Ġguant":8539,"Ġproblematic":8540,"Ġfoodstuffs":8541,"Ġlimiting":8542,"Ġburning":8543,"Ġsatur":8544,"Ġstresses":8545,"Ġredist":8546,"Ġreviewed":8547,"Ġsatisfy":8548,"Ġlimitations":8549,"Ġreinfor":8550,"political":8551,"Ġpurchasing":8552,"Ġtranslate":8553,"Ġdisadvantage":8554,"Ġevolved":8555,"Ġlandscape":8556,"Ġwholeheartedly":8557,"Ġunusual":8558,"mother":8559,"power":8560,"Ġanger":8561,"Ġunrest":8562,"Ġju":8563,"forward":8564,"Ġunderway":8565,"Ġwanting":8566,"Ġspons":8567,"uber":8568,"seless":8569,"ordan":8570,"Ġsecre":8571,"Ġinterconnect":8572,"Ġaffirm":8573,"neg":8574,"Ġcaution":8575,"Ġslaughter":8576,"Ġidentical":8577,"Ġguidance":8578,"law":8579,"Ġstockholm":8580,"Ġconsolidate":8581,"Ġngl":8582,"vestock":8583,"Ġinterpreted":8584,"Ġunequiv":8585,"Ġfantastic":8586,"Ġpredecess":8587,"Ġhorizontal":8588,"iest":8589,"mi":8590,"rition":8591,"atom":8592,"Ġinconsist":8593,"Ġster":8594,"Ġalter":8595,"Ġunt":8596,"ested":8597,"Ġincap":8598,"Ġrap":8599,"Ġconfused":8600,"Ġinteraction":8601,"Ġexcited":8602,"Ġmerkel":8603,"Ġrecords":8604,"Ġmedicinal":8605,"Ġtypically":8606,"Ġwithdrawn":8607,"Ġstabilisation":8608,"Ġinterference":8609,"Ġmotivated":8610,"Ġnewspapers":8611,"Ġthirty":8612,"Ġindirectly":8613,"Ġdistinguish":8614,"Ġcelebrate":8615,"Ġenshrined":8616,"Ġdisarmament":8617,"count":8618,"uum":8619,"Ġtherap":8620,"Ġcoc":8621,"Ġbay":8622,"Ġbunch":8623,"Ġmu":8624,"Ġdry":8625,"Ġdivid":8626,"Ġenact":8627,"Ġrw":8628,"Ġlivestock":8629,"Ġscan":8630,"Ġlifel":8631,"Ġ36":8632,"Ġmilosevic":8633,"Ġemphasize":8634,"Ġlatvia":8635,"Ġembry":8636,"Ġstriking":8637,"Ġcattle":8638,"Ġiceland":8639,"Ġodd":8640,"Ġunderpin":8641,"Ġfeasible":8642,"Ġgarden":8643,"Ġunwilling":8644,"inations":8645,"Ġscept":8646,"Ġdile":8647,"Ġgases":8648,"Ġgraph":8649,"oren":8650,"Ġdisin":8651,"Ġofficially":8652,"Ġdeflation":8653,"Ġrequiring":8654,"Ġentertain":8655,"Ġassumption":8656,"Ġhandled":8657,"Ġinsult":8658,"Ġprivacy":8659,"Ġthreatens":8660,"Ġposts":8661,"Ġmodernisation":8662,"Ġembark":8663,"Ġdelivery":8664,"Ġworthwhile":8665,"rehensible":8666,"Ġdictator":8667,"Ġexploited":8668,"Ġsupposedly":8669,"Ġexclude":8670,"Ġoptimism":8671,"Ġinfected":8672,"Ġjews":8673,"Ġconfrontation":8674,"Ġcopyright":8675,"Ġdesperate":8676,"Ġholiday":8677,"imagine":8678,"Ġunknown":8679,"Ġqaeda":8680,"cot":8681,"arians":8682,"Ġconj":8683,"rained":8684,"Ġasks":8685,"conc":8686,"Ġmining":8687,"teneg":8688,"Ġprofitable":8689,"Ġsoul":8690,"Ġ95":8691,"Ġethics":8692,"Ġharmonise":8693,"Ġoccurs":8694,"Ġhungry":8695,"Ġfulfilling":8696,"Ġinspection":8697,"Ġdisadvantaged":8698,"Ġweaknesses":8699,"Ġsuspicion":8700,"Ġtechniques":8701,"Ġukrainian":8702,"Ġsimultaneously":8703,"Ġharsh":8704,"hand":8705,"zing":8706,"Ġpages":8707,"Ġwearing":8708,"Ġprolong":8709,"cile":8710,"Ġlev":8711,"Ġjordan":8712,"Ġpeak":8713,"load":8714,"Ġpretext":8715,"Ġmart":8716,"Ġlegs":8717,"Ġclash":8718,"Ġtwent":8719,"Ġconfirms":8720,"Ġcountryside":8721,"Ġauthors":8722,"too":8723,"Ġsecondary":8724,"Ġsectoral":8725,"Ġpatents":8726,"Ġactivists":8727,"Ġreturning":8728,"Ġtopical":8729,"Ġweakened":8730,"Ġillegally":8731,"Ġsubstantive":8732,"Ġstayed":8733,"Ã¡n":8734,"Ġsymbols":8735,"Ġquantity":8736,"Ġroutes":8737,"Ġstraightforward":8738,"Ġmagaz":8739,"Ġrigid":8740,"Ġundermining":8741,"Ġschedule":8742,"Ġpluralism":8743,"respective":8744,"Ġcigare":8745,"cend":8746,"due":8747,"mits":8748,"Ġhed":8749,"unlike":8750,"Ġabortion":8751,"inki":8752,"Ġdirections":8753,"Ġmines":8754,"Ġmah":8755,"Ġ1930":8756,"Ġnationalist":8757,"lessness":8758,"Ġearmark":8759,"Ġsuccesses":8760,"Ġartist":8761,"Ġpromotes":8762,"Ġdomain":8763,"Ġassessing":8764,"Ġratio":8765,"Ġ250":8766,"Ġwinning":8767,"Ġharvest":8768,"Ġstruggling":8769,"Ġsettled":8770,"Ġblocked":8771,"trans":8772,"Ġvocational":8773,"Ġofficers":8774,"Ġsaharan":8775,"Ġorientation":8776,"Ġnordic":8777,"Ġatomic":8778,"Ġdilemm":8779,"sch":8780,"Ġtong":8781,"Ġtheore":8782,"Ġproves":8783,"Ġhague":8784,"unless":8785,"Ġenforced":8786,"Ġwasted":8787,"Ġjar":8788,"Ġdisor":8789,"Ġworkforce":8790,"tell":8791,"athers":8792,"Ġpron":8793,"Ġlacks":8794,"Ġskill":8795,"Ġfacilitating":8796,"Ġadjustments":8797,"Ġdelivering":8798,"Ġproclaim":8799,"Ġthrown":8800,"Ġawait":8801,"Ġprominent":8802,"Ġcaucasus":8803,"aire":8804,"cut":8805,"ius":8806,"others":8807,"sinki":8808,"Ġpump":8809,"anas":8810,"ĠbÃ¶":8811,"ione":8812,"ica":8813,"Ġchose":8814,"Ġinclusive":8815,"Ġapple":8816,"Ġmonti":8817,"Ġattribut":8818,"Ġhelsinki":8819,"ructive":8820,"Ġresolute":8821,"Ġafterwards":8822,"Ġflowers":8823,"Ġambass":8824,"Ġfrontiers":8825,"Ġeliminating":8826,"Ġdeparture":8827,"Ġyellow":8828,"Ġineffective":8829,"Ġfranc":8830,"ladesh":8831,"Ġromanian":8832,"Ġbeneficiaries":8833,"Ġutterly":8834,"Ġmonopolies":8835,"ifornia":8836,"Ġguinea":8837,"10":8838,"99":8839,"glo":8840,"yer":8841,"yan":8842,"enous":8843,"Ġinject":8844,"Ġinex":8845,"Ġmep":8846,"Ġprest":8847,"Ġmartin":8848,"Ġpermission":8849,"india":8850,"Ġloan":8851,"Ġassass":8852,"Ġsurger":8853,"Ġwheel":8854,"Ġfounding":8855,"Ġintegral":8856,"Ġgeopol":8857,"Ġplacing":8858,"Ġdivor":8859,"Ġdivisions":8860,"Ġappreciated":8861,"ariat":8862,"grace":8863,"Ġdisparities":8864,"Ġridiculous":8865,"Ġbiofuels":8866,"Ġtribunal":8867,"Ġunsatisfactory":8868,"Ġtill":8869,"Ġmush":8870,"Ġfue":8871,"Ġdance":8872,"Ġcancell":8873,"alled":8874,"Ġplastic":8875,"Ġtempt":8876,"Ġpoison":8877,"Ġclimb":8878,"Ġfinancially":8879,"Ġforesee":8880,"Ġsimpler":8881,"Ġrestored":8882,"Ġpersonality":8883,"Ġbenefited":8884,"Ġairpl":8885,"Ġ800":8886,"Ġmerit":8887,"Ġmerits":8888,"Ġfrontier":8889,"Ġforestry":8890,"lusconi":8891,"Ġaffordable":8892,"Ġautomatic":8893,"Ġadvocated":8894,"Ġcorrespond":8895,"Ġcatastroph":8896,"Ġhatred":8897,"Ġpersecution":8898,"Ġasean":8899,"ige":8900,"was":8901,"writ":8902,"Å¡":8903,"Ġpy":8904,"Ġpuzz":8905,"Ġdil":8906,"Ġdrew":8907,"Ġeager":8908,"Ġnative":8909,"Ġlap":8910,"Ġexhib":8911,"liers":8912,"quest":8913,"âĢľ":8914,"sile":8915,"Ġcoexist":8916,"Ġindiff":8917,"Ġtreating":8918,"Ġintermedi":8919,"Ġglobe":8920,"Ġsections":8921,"Ġlisted":8922,"Ġze":8923,"Ġgravity":8924,"Ġbrave":8925,"Ġscientist":8926,"Ġclauses":8927,"Ġclasses":8928,"Ġcriticisms":8929,"Ġtransformed":8930,"Ġshopping":8931,"Ġpanel":8932,"Ġrooted":8933,"Ġcrying":8934,"Ġcorresponding":8935,"Ġselected":8936,"Ġgratitude":8937,"Ġtsun":8938,"Ġcautious":8939,"Ġbacteria":8940,"Ġmisleading":8941,"25":8942,"fif":8943,"father":8944,"gments":8945,"ker":8946,"tail":8947,"Ġtab":8948,"Ġpin":8949,"Ġbone":8950,"Ġmas":8951,"Ġdad":8952,"Ġdread":8953,"leted":8954,"Ġaltogether":8955,"Ġshocks":8956,"Ġshocked":8957,"apore":8958,"author":8959,"Ġworkplace":8960,"Ġcofin":8961,"whilst":8962,"Ġloyal":8963,"Ġtransnational":8964,"Ġdesk":8965,"Ġformulated":8966,"Ġadvisory":8967,"Ġcompletion":8968,"Ġencoun":8969,"Ġbrains":8970,"Ġjudged":8971,"Ġdiet":8972,"Ġmistaken":8973,"Ġwondering":8974,"Ġpatience":8975,"Ġsalary":8976,"Ġrelevance":8977,"umph":8978,"Ġprofessionals":8979,"Ġwalls":8980,"Ġreactions":8981,"Ġincorrect":8982,"Ġegyptian":8983,"Ġeliminated":8984,"Ġbombs":8985,"Ġbalkan":8986,"Ġcorporations":8987,"Ġinspections":8988,"Ġremoving":8989,"Ġspectac":8990,"Ġalien":8991,"Ġpredicted":8992,"Ġawaiting":8993,"Ġdisappointing":8994,"Ġdisappointment":8995,"keeping":8996,"Ġkenya":8997,"aust":8998,"large":8999,"win":9000,"Ġtum":9001,"Ġtwelve":9002,"Ġaqu":9003,"Ġcure":9004,"Ġpup":9005,"Ġba":9006,"alistic":9007,"stal":9008,"Ġgang":9009,"Ġlin":9010,"ulates":9011,"antic":9012,"Ġleap":9013,"Ġpartial":9014,"Ġcoins":9015,"Ġserving":9016,"Ġconfined":9017,"Ġmonteneg":9018,"Ġcurious":9019,"Ġpublication":9020,"Ġwarned":9021,"Ġchildhood":9022,"Ġgotten":9023,"Ġclothing":9024,"Ġsummar":9025,"Ġprofile":9026,"Ġslide":9027,"Ġparent":9028,"Ġjudici":9029,"Ġattacked":9030,"Ġpolls":9031,"Ġdeadlines":9032,"Ġpreparatory":9033,"Ġorders":9034,"Ġdogs":9035,"Ġhomosexual":9036,"Ġtolerate":9037,"Ġautonomous":9038,"Ġcfsp":9039,"Ġsubscri":9040,"iety":9041,"ridge":9042,"inery":9043,"oned":9044,"ano":9045,"anium":9046,"vez":9047,"raf":9048,"ima":9049,"essed":9050,"Ġkinn":9051,"Ġlikewise":9052,"Ġ120":9053,"Ġissuing":9054,"Ġattended":9055,"Ġsmugg":9056,"working":9057,"being":9058,"Ġestimate":9059,"Ġdemocratisation":9060,"Ġsurge":9061,"Ġaiming":9062,"Ġparticipated":9063,"Ġcoordinating":9064,"Ġmetaph":9065,"Ġcompetitors":9066,"Ġensures":9067,"Ġdictionary":9068,"accordingly":9069,"Ġberlusconi":9070,"Ġexecution":9071,"Ġpremium":9072,"Ġacadem":9073,"Ġtariffs":9074,"Ġcounterfeiting":9075,"Ġtampe":9076,"Ġfrontex":9077,"Ġkinnock":9078,"Ġly":9079,"Ġtag":9080,"Ġtries":9081,"intern":9082,"inating":9083,"thetic":9084,"Ġmeal":9085,"Ġunamb":9086,"ests":9087,"ometers":9088,"Ġpolar":9089,"Ġintr":9090,"Ġdisgrace":9091,"ago":9092,"Ġpool":9093,"Ġroles":9094,"Ġclim":9095,"Ġcontinually":9096,"Ġ1950":9097,"Ġrulers":9098,"Ġestate":9099,"Ġtriumph":9100,"Ġgermans":9101,"ibi":9102,"Ġchoosing":9103,"Ġcirculation":9104,"Ġfairness":9105,"Ġgaining":9106,"Ġsadly":9107,"Ġcompensate":9108,"Ġpremature":9109,"Ġcontradictory":9110,"Ġinterfere":9111,"Ġlucky":9112,"Ġcapture":9113,"Ġvacuum":9114,"Ġtravelling":9115,"Ġbangladesh":9116,"Ġventure":9117,"Ġduplic":9118,"Ġstalin":9119,"Ġchicken":9120,"Ġsubstitute":9121,"Ġrestaurant":9122,"Ġoxygen":9123,"Ġintimid":9124,"Ġtied":9125,"oness":9126,"isible":9127,"Ġbio":9128,"Ġfrat":9129,"Ġinsight":9130,"Ġhang":9131,"Ġgift":9132,"Ġallev":9133,"Ġunification":9134,"Ġleh":9135,"Ġkick":9136,"Ġregain":9137,"Ġuphe":9138,"Ġtermin":9139,"Ġrow":9140,"Ġroof":9141,"Ġrobert":9142,"Ġbehave":9143,"Ġassessed":9144,"Ġsuperf":9145,"Ġsecretariat":9146,"Ġjean":9147,"Ġignor":9148,"Ġfooting":9149,"Ġcharacterised":9150,"Ġengineers":9151,"Ġquarters":9152,"Ġsharply":9153,"Ġmortality":9154,"Ġanxious":9155,"Ġminimal":9156,"Ġmichel":9157,"Ġredistribut":9158,"Ġtwentieth":9159,"Ġjudiciary":9160,"gain":9161,"ja":9162,"Ġsends":9163,"Ġbicycle":9164,"Ġinability":9165,"Ġdal":9166,"Ġlou":9167,"Ġally":9168,"Ġchern":9169,"ams":9170,"Ġoutrage":9171,"Ġrival":9172,"Ġrecruit":9173,"Ġindig":9174,"Ġlobb":9175,"Ġfacto":9176,"Ġdiscovery":9177,"Ġnationality":9178,"Ġobjection":9179,"Ġ34":9180,"Ġfloren":9181,"Ġpositively":9182,"germany":9183,"Ġpoorly":9184,"Ġharmonization":9185,"Ġcalifornia":9186,"Ġfrequent":9187,"tini":9188,"Ġradioactive":9189,"Ġlicence":9190,"Ġdeliberately":9191,"Ġforecasts":9192,"Ġticket":9193,"Ġvigilant":9194,"Ġincapable":9195,"bl":9196,"bles":9197,"lause":9198,"zbollah":9199,"Ġpian":9200,"Ġfled":9201,"lets":9202,"asy":9203,"ilater":9204,"Ġluc":9205,"idel":9206,"Ġham":9207,"Ġneo":9208,"Ġjack":9209,"Ġcomplied":9210,"Ġjoy":9211,"Ġrealised":9212,"Ġenergies":9213,"belie":9214,"Ġministerial":9215,"Ġbarn":9216,"Ġmorator":9217,"Ġbankers":9218,"Ġcapacities":9219,"irac":9220,"Ġreferences":9221,"Ġmaxim":9222,"Ġbarrier":9223,"Ġquantitative":9224,"Ġbabies":9225,"Ġpreference":9226,"Ġodds":9227,"Ġdeployed":9228,"Ġlady":9229,"Ġprotein":9230,"Ġarbitrary":9231,"Ġtreasury":9232,"Ġremembered":9233,"Ġtampere":9234,"ilaterally":9235,"fire":9236,"gent":9237,"oby":9238,"isual":9239,"Ġinjust":9240,"Ġdates":9241,"Ġyemen":9242,"ounted":9243,"oper":9244,"Ġexagger":9245,"Ġleon":9246,"Ġworries":9247,"Ġpreserv":9248,"Ġkitch":9249,"Ġfaire":9250,"Ġprecious":9251,"iped":9252,"Ġclock":9253,"Ġjoke":9254,"Ġmont":9255,"airy":9256,"Ġreformed":9257,"Ġsummary":9258,"Ġreceives":9259,"Ġemphasises":9260,"Ġobsc":9261,"Ġdeepening":9262,"Ġinfrastructures":9263,"Ġwealthy":9264,"Ġpetition":9265,"Ġautomob":9266,"Ġcourageous":9267,"Ġcuban":9268,"Ġoceans":9269,"Ġroutine":9270,"Ġpreferences":9271,"Ġconstituents":9272,"Ġreassure":9273,"lim":9274,"tles":9275,"taking":9276,"var":9277,"wer":9278,"Ġthin":9279,"invest":9280,"Ġpris":9281,"Ġhoc":9282,"Ġchocol":9283,"oded":9284,"Ġcoverage":9285,"Ġlobby":9286,"Ġcarries":9287,"Ġtransplant":9288,"Ġforming":9289,"Ġelectrical":9290,"Ġ33":9291,"Ġcritics":9292,"Ġregulating":9293,"Ġairline":9294,"cope":9295,"Ġskilled":9296,"print":9297,"Ġaudiov":9298,"Ġlearnt":9299,"Ġsalaries":9300,"Ġarrival":9301,"Ġdoctr":9302,"Ġchecked":9303,"Ġinspectors":9304,"Ġpicked":9305,"Ġhospitals":9306,"Ġprivilege":9307,"Ġanxiety":9308,"Ġsettlements":9309,"Ġreluctant":9310,"recently":9311,"Ġveterinary":9312,"global":9313,"Ġchernoby":9314,"Ġaudiovisual":9315,"Ġchernobyl":9316,"mary":9317,"Ġtank":9318,"atri":9319,"Ġdairy":9320,"Ġumb":9321,"ider":9322,"Ġacced":9323,"Ġcompris":9324,"Ġunderlined":9325,"Ġmadrid":9326,"uesday":9327,"surely":9328,"Ġbanana":9329,"Ġbloc":9330,"Ġ38":9331,"Ġemail":9332,"Ġseriousness":9333,"Ġspecified":9334,"Ġswiss":9335,"Ġcapitalist":9336,"ashed":9337,"Ġdemonstrations":9338,"Ġricher":9339,"Ġrenewal":9340,"Ġperforming":9341,"Ġexplosion":9342,"Ġharass":9343,"Ġtony":9344,"Ġprosperous":9345,"onym":9346,"Ġcondemnation":9347,"Ġreciproc":9348,"Ġcalculations":9349,"usalem":9350,"Ġmurdered":9351,"Ġpromptly":9352,"Ġintolerable":9353,"Ġcompliment":9354,"concern":9355,"Ġearmarked":9356,"Ġunambig":9357,"Ġmoratorium":9358,"top":9359,"Ġporn":9360,"Ġhect":9361,"Ġgamb":9362,"Ġseize":9363,"social":9364,"aming":9365,"Ġimprison":9366,"Ġkim":9367,"Ġkaz":9368,"Ġlikelihood":9369,"Ġtiming":9370,"Ġupset":9371,"Ġapplause":9372,"Ġmars":9373,"Ġspin":9374,"ernity":9375,"Ġentity":9376,"Ġcontinuity":9377,"Ġgrows":9378,"ailand":9379,"Ġsimpl":9380,"Ġdeput":9381,"Ġnorms":9382,"Ġears":9383,"Ġbargain":9384,"Ġannually":9385,"Ġshareholders":9386,"Ġ85":9387,"Ġweakening":9388,"atson":9389,"Ġreconcile":9390,"Ġmutually":9391,"Ġcrack":9392,"Ġobserver":9393,"Ġmovies":9394,"Ġniger":9395,"Ġscott":9396,"Ġimbalance":9397,"Ġdeterioration":9398,"Ġdetriment":9399,"Ġinspiration":9400,"Ġbiotechnology":9401,"Ġtsunami":9402,"Ġmontenegro":9403,"fol":9404,"mony":9405,"pan":9406,"tra":9407,"Ġtuesday":9408,"Ġmi":9409,"ala":9410,"ald":9411,"Ġbeer":9412,"step":9413,"Ġhav":9414,"cher":9415,"liest":9416,"Ġages":9417,"Ġimpunity":9418,"Ġintent":9419,"pected":9420,"Ġoffences":9421,"ords":9422,"risy":9423,"Ġblocks":9424,"Ġrisen":9425,"Ġsuppliers":9426,"Ġlights":9427,"Ġidentification":9428,"Ġflee":9429,"Ġrejecting":9430,"Ġdeval":9431,"Ġdemonstrating":9432,"Ġdefinitions":9433,"Ġbreakfast":9434,"Ġclever":9435,"Ġextrad":9436,"Ġreminds":9437,"governments":9438,"Ġsweet":9439,"Ġprohibited":9440,"Ġenemies":9441,"Ġaccelerate":9442,"Ġshaped":9443,"Ġmultinationals":9444,"Ġbankruptcy":9445,"Ġcollapsed":9446,"Ġskept":9447,"Ġeligible":9448,"Ġdeemed":9449,"Ġcambodia":9450,"cc":9451,"eenth":9452,"fl":9453,"Â·":9454,"Ġsir":9455,"itives":9456,"oup":9457,"Ġdirty":9458,"Ġgath":9459,"Ġhab":9460,"teries":9461,"Ġoutlook":9462,"depend":9463,"Ġeconomist":9464,"Ġrecur":9465,"Ġconferences":9466,"Ġmineral":9467,"Ġmao":9468,"Ġcapability":9469,"Ġvalley":9470,"Ġpatri":9471,"Ġburn":9472,"Ġwaves":9473,"Ġpricing":9474,"Ġsubsidy":9475,"Ġindications":9476,"Ġencouragement":9477,"Ġmachinery":9478,"Ġhostile":9479,"Ġunsustainable":9480,"Ġbeliefs":9481,"Ġsighted":9482,"Ġtranslated":9483,"backs":9484,"Ġborrowing":9485,"against":9486,"Ġextremists":9487,"Ġvegetables":9488,"Ġhypocrisy":9489,"current":9490,"Ġunexpected":9491,"countries":9492,"dr":9493,"ua":9494,"Ġtig":9495,"Ġwatson":9496,"Ġsant":9497,"icism":9498,"raint":9499,"Ġleverage":9500,"Ġchirac":9501,"ours":9502,"igate":9503,"Ġprotectionist":9504,"Ġwriter":9505,"Ġeleph":9506,"Ġdestructive":9507,"Ġradiation":9508,"Ġcollecting":9509,"Ġcreditors":9510,"Ġstaying":9511,"Ġcrush":9512,"Ġeaten":9513,"Ġinher":9514,"Ġdetermining":9515,"Ġpermanently":9516,"Ġhurry":9517,"Ġaccepts":9518,"Ġmagnitude":9519,"Ġupdate":9520,"Ġcertific":9521,"Ġsacrifice":9522,"Ġapologise":9523,"Ġdetrimental":9524,"Ġversus":9525,"Ġreunification":9526,"Ġprosecutor":9527,"Ġtongue":9528,"Ġsurgery":9529,"Ġgeopolitical":9530,"Ġpreservation":9531,"ias":9532,"lers":9533,"atories":9534,"icts":9535,"Ġnap":9536,"lex":9537,"imination":9538,"liances":9539,"Ġresid":9540,"ller":9541,"Ġadhere":9542,"looking":9543,"Ġmarry":9544,"Ġspare":9545,"Ġinflic":9546,"Ġnorway":9547,"Ġuranium":9548,"Ġcreatures":9549,"Ġreforming":9550,"Ġappropriately":9551,"isticated":9552,"Ġillusion":9553,"owski":9554,"Ġfilms":9555,"Ġpakistani":9556,"Ġexceptionally":9557,"Ġiii":9558,"Ġsplend":9559,"Ġneglected":9560,"Ġdiagnosis":9561,"Ġwholly":9562,"ĠÃł":9563,"Ġethiopia":9564,"Ġsensitivity":9565,"Ġprestige":9566,"Ġkitchen":9567,"Ġchocolate":9568,"math":9569,"Ġak":9570,"Ġaver":9571,"onic":9572,"Ġped":9573,"orable":9574,"Ġfol":9575,"Ġnons":9576,"lements":9577,"Ġlake":9578,"Ġlank":9579,"Ġforcing":9580,"Ġproactive":9581,"oles":9582,"Ġunw":9583,"Ġshed":9584,"Ġseeds":9585,"aint":9586,"Ġkne":9587,"Ġpresidencies":9588,"ips":9589,"Ġdiffering":9590,"Ġsystemic":9591,"Ġrefund":9592,"Ġentities":9593,"Ġdownturn":9594,"Ġtechnically":9595,"Ġfurthermore":9596,"Ġirrespective":9597,"Ġbarbar":9598,"Ġfarmer":9599,"Ġgrain":9600,"Ġconcluding":9601,"Ġanalog":9602,"Ġwatched":9603,"Ġperformed":9604,"Ġinvestigated":9605,"Ġobtaining":9606,"Ġordered":9607,"Ġfifty":9608,"Ġcomparative":9609,"Ġvirtue":9610,"Ġinsisted":9611,"Ġcompeting":9612,"ilingual":9613,"Ġgolden":9614,"Ġemotions":9615,"tegration":9616,"Ġdiscriminatory":9617,"Ġaccomplished":9618,"Ġsequence":9619,"Ġdrastic":9620,"Ġdatabase":9621,"Ġmagazine":9622,"Ġdilemma":9623,"Ġdisorder":9624,"aunch":9625,"gi":9626,"Ġlying":9627,"Ġeve":9628,"Ġunite":9629,"Ġprec":9630,"article":9631,"Ġcontinuous":9632,"Ġsmile":9633,"ologist":9634,"Ġinterdepend":9635,"Ġtransposition":9636,"Ġstructured":9637,"Ġmissile":9638,"Ġmodernization":9639,"undering":9640,"Ġdisagreement":9641,"Ġmountains":9642,"Ġferre":9643,"Ġcalculated":9644,"Ġextremism":9645,"Ġalex":9646,"Ġawarded":9647,"Ġcontemporary":9648,"Ġgathering":9649,"Ġserbian":9650,"kov":9651,"Ġtabling":9652,"Ġrect":9653,"Ġbee":9654,"Ġgor":9655,"iran":9656,"ounced":9657,"soon":9658,"Ġagents":9659,"Ġhezbollah":9660,"Ġorange":9661,"ivable":9662,"Ġcounts":9663,"Ġroyal":9664,"Ġinstances":9665,"Ġprovoc":9666,"Ġprovince":9667,"Ġcenters":9668,"Ġbanning":9669,"worthy":9670,"Ġformation":9671,"Ġbeha":9672,"Ġcontrovers":9673,"Ġrevise":9674,"Ġelimination":9675,"Ġ55":9676,"Ġsingapore":9677,"Ġcivilisation":9678,"Ġmilitar":9679,"Ġpassport":9680,"Ġlivelihood":9681,"Ġgrab":9682,"Ġgenerating":9683,"Ġfleets":9684,"Ġdevote":9685,"Ġoccurring":9686,"Ġenhancing":9687,"Ġtunnel":9688,"Ġvulnerability":9689,"Ġtraditionally":9690,"Ġcrowd":9691,"Ġvaccine":9692,"Ġjerusalem":9693,"Ġprecondition":9694,"Ġcatholic":9695,"Ġsophisticated":9696,"Ġderegulation":9697,"Ġrwanda":9698,"Ġlifelong":9699,"Ġprisons":9700,"Ġsplendid":9701,"ey":9702,"sa":9703,"esity":9704,"almost":9705,"Ġhill":9706,"Ġreop":9707,"Ġlocked":9708,"Ġneur":9709,"ades":9710,"Ġimpart":9711,"Ġkiss":9712,"akis":9713,"Ġpartially":9714,"Ġconfidential":9715,"Ġaddiction":9716,"Ġdefici":9717,"Ġemph":9718,"Ġbackwards":9719,"Ġmedi":9720,"Ġtextiles":9721,"hope":9722,"appy":9723,"Ġinfluenced":9724,"Ġcriticise":9725,"Ġexplanatory":9726,"Ġderiv":9727,"baij":9728,"contro":9729,"Ġswimming":9730,"Ġdistortions":9731,"Ġgallery":9732,"Ġabstract":9733,"Ġunstable":9734,"bra":9735,"Ãº":9736,"Ġthailand":9737,"Ġaer":9738,"reb":9739,"Ġindu":9740,"Ġdies":9741,"Ġstating":9742,"Ġkur":9743,"Ġrape":9744,"Ġreck":9745,"Ġcloning":9746,"Ġparticles":9747,"Ġscared":9748,"Ġlifted":9749,"Ġreduces":9750,"Ġescap":9751,"Ġstrongest":9752,"itherto":9753,"Ġoperates":9754,"cker":9755,"Ġarguing":9756,"Ġclosest":9757,"Ġcollectively":9758,"Ġhorrif":9759,"Ġharbour":9760,"polit":9761,"Ġplanets":9762,"Ġrobots":9763,"clock":9764,"Ġconsolidated":9765,"Ġpriorit":9766,"carious":9767,"asmus":9768,"Ġmercury":9769,"Ġdisturbing":9770,"Ġcarriers":9771,"Ġtissue":9772,"Ġsomalia":9773,"negoti":9774,"da":9775,"fish":9776,"met":9777,"Ġsri":9778,"Ġanc":9779,"Ġease":9780,"Ġuncle":9781,"essim":9782,"Ġorch":9783,"Ġparliamentarians":9784,"Ġarisen":9785,"Ġdecides":9786,"Ġministry":9787,"Ġmeasuring":9788,"Ġsmith":9789,"Ġlifting":9790,"Ġframeworks":9791,"Ġ42":9792,"Ġviolated":9793,"Ġforeigners":9794,"Ġengaging":9795,"Ġfundamentalism":9796,"Ġexcellence":9797,"Ġportfol":9798,"Ġexplains":9799,"Ġbreaks":9800,"Ġfunctional":9801,"Ġstrip":9802,"Ġconducting":9803,"Ġseparated":9804,"Ġgirlf":9805,"Ġreactors":9806,"Ġreferendums":9807,"Ġphoto":9808,"besides":9809,"Ġlengthy":9810,"Ġshifting":9811,"Ġincomprehensible":9812,"Ġunderestimate":9813,"Ġbroadcasting":9814,"Ġmathematics":9815,"Ġtears":9816,"Ġvolatility":9817,"sadly":9818,"Ġshrink":9819,"fo":9820,"front":9821,"Ã§":9822,"Ġaz":9823,"Ġazer":9824,"Ġsak":9825,"itz":9826,"Ġhier":9827,"Ġnit":9828,"asive":9829,"Ġprost":9830,"Ġshocking":9831,"Ġintu":9832,"sia":9833,"Ġoutline":9834,"arest":9835,"Ġprecarious":9836,"Ġsyrian":9837,"Ġgoodwill":9838,"Ġgenome":9839,"Ġconfine":9840,"Ġmayor":9841,"Ġ193":9842,"ologically":9843,"Ġbrid":9844,"Ġprevents":9845,"Ġorganising":9846,"gging":9847,"Ġelites":9848,"Ġ44":9849,"Ġiraqis":9850,"pran":9851,"apping":9852,"Ġbreakdown":9853,"Ġintegrating":9854,"obama":9855,"Ġauthorised":9856,"Ġexcessively":9857,"Ġretained":9858,"Ġrebuild":9859,"prot":9860,"Ġprevailing":9861,"Ġdeliberations":9862,"Ġscreening":9863,"Ġperpetrators":9864,"Ġdespair":9865,"Ġduration":9866,"Ġincompatible":9867,"france":9868,"Ġpopulist":9869,"personally":9870,"Ġgesture":9871,"Ġinsecurity":9872,"Ġaccusations":9873,"democracy":9874,"building":9875,"cor":9876,"iver":9877,"jour":9878,"vice":9879,"Ġtons":9880,"Ġastr":9881,"Ġsink":9882,"Ġsque":9883,"Ġpir":9884,"Ġpessim":9885,"Ġmentions":9886,"Ġinland":9887,"Ġlung":9888,"Ġconform":9889,"Ġasy":9890,"Ġuncom":9891,"Ġeurostat":9892,"osur":9893,"Ġimped":9894,"aker":9895,"Ġreplied":9896,"Ġnoon":9897,"Ġexposure":9898,"Ġpoem":9899,"okay":9900,"health":9901,"Ġrab":9902,"Ġoffset":9903,"Ġrefusing":9904,"Ġpointless":9905,"Ġbudd":9906,"Ġearliest":9907,"Ġindex":9908,"Ġsuccessive":9909,"Ġconsume":9910,"Ġmentioning":9911,"Ġhonor":9912,"Ġidentifying":9913,"plete":9914,"Ġcyn":9915,"Ġstepped":9916,"Ġappearance":9917,"Ġhonesty":9918,"Ġluxury":9919,"Ġphenomena":9920,"Ġwitnessing":9921,"Ġrestricting":9922,"Ġhypo":9923,"Ġvitally":9924,"Ġmirror":9925,"Ġslavery":9926,"Ġpiano":9927,"Ġkazakh":9928,"ext":9929,"great":9930,"jad":9931,"net":9932,"zens":9933,"Ġtap":9934,"recent":9935,"orate":9936,"Ġfathers":9937,"Ġanch":9938,"Ġnom":9939,"ressions":9940,"Ġunch":9941,"Ġchris":9942,"Ġresume":9943,"Ġcontents":9944,"about":9945,"Ġtrains":9946,"introdu":9947,"orship":9948,"Ġdiscret":9949,"Ġinfin":9950,"Ġadministrations":9951,"Ġfishery":9952,"Ġcrossing":9953,"Ġsimilarly":9954,"Ġreconsider":9955,"Ġfriendship":9956,"Ġdescription":9957,"Ġhonestly":9958,"Ġdepartments":9959,"Ġvigorously":9960,"Ġdinos":9961,"Ġkilomet":9962,"Ġanalyse":9963,"Ġpersistent":9964,"Ġunrealistic":9965,"Ġinstallations":9966,"Ġfrustration":9967,"Ġchampion":9968,"Ġprejudice":9969,"missible":9970,"Ġtraceability":9971,"Ġmortgage":9972,"Ġbarnier":9973,"Ġazerbaij":9974,"pranational":9975,"bus":9976,"Ġtends":9977,"Ġfits":9978,"Ġfib":9979,"ali":9980,"Ġhinder":9981,"sters":9982,"Ġgn":9983,"Ġmeters":9984,"Ġsupranational":9985,"Ġimply":9986,"Ġresil":9987,"Ġcooking":9988,"Ġarts":9989,"Ġtraum":9990,"Ġspaces":9991,"Ġloves":9992,"Ġbasel":9993,"Ġadds":9994,"Ġbacks":9995,"Ġreasoning":9996,"Ġreasonably":9997,"Ġsheet":9998,"uccess":9999,"Ġviability":10000,"Ġinitiate":10001,"Ġ700":10002,"Ġradically":10003,"Ġcorrected":10004,"Ġrichest":10005,"Ġharmony":10006,"Ġislamist":10007,"Ġexporting":10008,"Ġslowdown":10009,"Ã©s":10010,"Ġlaying":10011,"Ã¶der":10012,"Ġbottle":10013,"Ġpanic":10014,"Ġdrafts":10015,"Ġbombing":10016,"Ġextraordinarily":10017,"Ġfortune":10018,"Ġfruitful":10019,"Ġundermines":10020,"Ġevolutionary":10021,"Ġsurpluses":10022,"Ġchampions":10023,"Ġfortunately":10024,"Ġredundant":10025,"Ġmiracle":10026,"Ġfrattini":10027,"Ġindigenous":10028,"Ġimprisoned":10029,"bear":10030,"ique":10031,"Ġwire":10032,"Ġcrop":10033,"Ġbans":10034,"orious":10035,"along":10036,"Ġhi":10037,"roach":10038,"Ġnie":10039,"Ġreorgan":10040,"asant":10041,"ching":10042,"terror":10043,"Ġencomp":10044,"Ġwors":10045,"Ġpreserved":10046,"Ġpreserving":10047,"Ġbutter":10048,"Ġquart":10049,"Ġtech":10050,"Ġarrog":10051,"Ġtrap":10052,"Ġhumane":10053,"Ġrefrain":10054,"Ġdefended":10055,"Ġgrid":10056,"Ġrestoration":10057,"Ġequipped":10058,"Ġvibr":10059,"Ġsuccessor":10060,"Ġelev":10061,"Ġtennis":10062,"Ġreligions":10063,"namo":10064,"Ġreplacing":10065,"Ã¡namo":10066,"Ġgrandmother":10067,"born":10068,"Ġexemptions":10069,"Ġcasual":10070,"Ġtaste":10071,"Ġdisproportionate":10072,"Ġasymmet":10073,"Ġencompass":10074,"kash":10075,"mod":10076,"map":10077,"ores":10078,"vian":10079,"Ġwil":10080,"Ġsessions":10081,"Ġpione":10082,"Ġdu":10083,"Ġalg":10084,"chet":10085,"cipe":10086,"quar":10087,"weight":10088,"Ġengin":10089,"istically":10090,"Ġadmission":10091,"ouses":10092,"Ġactor":10093,"Ġobesity":10094,"Ġpermits":10095,"Ġinvisible":10096,"Ġdiscrep":10097,"Ġempower":10098,"bean":10099,"Ġschol":10100,"Ġblocking":10101,"Ġ43":10102,"Ġafricans":10103,"Ġkeynes":10104,"Ġmidst":10105,"Ġdraws":10106,"Ġlinking":10107,"Ġlays":10108,"Ġreveals":10109,"incre":10110,"harov":10111,"Ġvessel":10112,"Ġdeliberate":10113,"Ġmercosur":10114,"Ġsteadily":10115,"Ġderogation":10116,"Ġcypriot":10117,"Ġdismantling":10118,"Ġeggs":10119,"Ġfrozen":10120,"Ġzeal":10121,"international":10122,"Ġumbre":10123,"Ġgathered":10124,"Ġgirlfriend":10125,"Ġengines":10126,"fund":10127,"high":10128,"rance":10129,"vard":10130,"Ġtie":10131,"Ġthri":10132,"anen":10133,"Ġdwell":10134,"thal":10135,"Ġuseless":10136,"idently":10137,"urances":10138,"owed":10139,"orted":10140,"Ġenlight":10141,"Ġcanc":10142,"Ġdisability":10143,"licity":10144,"inejad":10145,"Ġunderground":10146,"athy":10147,"Ġassault":10148,"Ġconditional":10149,"Ġadvise":10150,"Ġbalances":10151,"Ġvisits":10152,"afi":10153,"Ġeru":10154,"Ġsuggesting":10155,"Ġjudgments":10156,"Ġcircles":10157,"Ġ99":10158,"Ġtourists":10159,"Ġallocate":10160,"Ġshipy":10161,"Ġliterature":10162,"Ġevolve":10163,"Ġprivileged":10164,"Ġcomplementary":10165,"Ġunderestim":10166,"Ġinstructions":10167,"Ġtrigger":10168,"Ġinsect":10169,"Ġreciprocity":10170,"Ġsakharov":10171,"15":10172,"pes":10173,"prom":10174,"sc":10175,"Äį":10176,"inform":10177,"Ġsis":10178,"Ġrehab":10179,"Ġgear":10180,"Ġnets":10181,"gered":10182,"Ġsemin":10183,"Ġimpris":10184,"Ġcounting":10185,"Ġquo":10186,"Ġconcert":10187,"Ġprovin":10188,"Ġcourses":10189,"Ġcarib":10190,"petition":10191,"Ġlegislators":10192,"Ġequation":10193,"Ġreadiness":10194,"Ġelabor":10195,"Ġ46":10196,"Ġsinging":10197,"Ġexpressly":10198,"Ġslower":10199,"Ġdeclined":10200,"Ġgrade":10201,"Ġconcludes":10202,"Ġbiom":10203,"Ġexplaining":10204,"Ġwinner":10205,"Ġrestriction":10206,"erential":10207,"Ġsimplifying":10208,"Ġwelcoming":10209,"Ġhostage":10210,"Ã¡vez":10211,"Ġlaboratory":10212,"Ġdynamics":10213,"turning":10214,"Ġracist":10215,"thesis":10216,"Ġintensify":10217,"Ġsuspected":10218,"amendments":10219,"ĠguantÃ¡namo":10220,"Ġconjunction":10221,"Ġancest":10222,"cultural":10223,"mese":10224,"ĠÂ":10225,"Ġmud":10226,"Ġhorm":10227,"Ġnas":10228,"uts":10229,"Ġalign":10230,"rav":10231,"ortions":10232,"Ġuncond":10233,"imer":10234,"Ġven":10235,"Ġaging":10236,"oda":10237,"Ġabd":10238,"auer":10239,"Ġmano":10240,"Ġoverse":10241,"Ġoffensive":10242,"Ġguided":10243,"Ġbananas":10244,"Ġlifet":10245,"Ġallowances":10246,"Ġliberation":10247,"Ġexpectation":10248,"Ġburmese":10249,"someone":10250,"Ġantibi":10251,"Ġanalyses":10252,"Ġbattery":10253,"Ġcooperating":10254,"Ġcleaner":10255,"Ġterrif":10256,"Ġhurric":10257,"Ġforgive":10258,"Ġstopping":10259,"Ġpensioners":10260,"Ġparalys":10261,"Ġjournalist":10262,"Ġvillages":10263,"Ġenvisage":10264,"Ġcommodities":10265,"Ġpoettering":10266,"Ġcotton":10267,"Ġambassador":10268,"Ġtemptation":10269,"concerning":10270,"quarters":10271,"dis":10272,"fts":10273,"list":10274,"vo":10275,"orically":10276,"Ġreimb":10277,"ilation":10278,"Ġhaw":10279,"Ġhaul":10280,"Ġarena":10281,"Ġunav":10282,"Ġdozen":10283,"Ġabide":10284,"Ġkal":10285,"conf":10286,"Ġreprodu":10287,"Ġspur":10288,"Ġboats":10289,"Ġinternally":10290,"itely":10291,"Ġmood":10292,"Ġdirectors":10293,"Ġdiscoura":10294,"Ġsecured":10295,"Ġprince":10296,"Ġkeys":10297,"ictions":10298,"racted":10299,"Ġpopulated":10300,"Ġrecognising":10301,"Ġindividually":10302,"Ġcontempt":10303,"Ġhearings":10304,"euv":10305,"Ġdenomin":10306,"Ġbloody":10307,"exper":10308,"Ġboss":10309,"Ġsweep":10310,"Ġinefficient":10311,"Ġdeployment":10312,"Ġunhappy":10313,"Ġinconven":10314,"Ġexempl":10315,"Ġhabits":10316,"Ġimpartial":10317,"Ġumbrella":10318,"Ġrehabilit":10319,"Ġcaribbean":10320,"Ġmanoeuv":10321,"ao":10322,"gers":10323,"ii":10324,"kest":10325,"mun":10326,"ports":10327,"uy":10328,"Ġthrust":10329,"rese":10330,"Ġwolf":10331,"Ġfile":10332,"Ġdg":10333,"Ġlamp":10334,"Ġstol":10335,"Ġconvert":10336,"Ġseed":10337,"Ġparame":10338,"Ġchronic":10339,"umers":10340,"Ġcountless":10341,"abul":10342,"Ġnose":10343,"Ġplot":10344,"Ġups":10345,"Ġexpon":10346,"Ġpredom":10347,"Ġthemes":10348,"Ġfees":10349,"Ġworlds":10350,"Ġsymmet":10351,"Ġclust":10352,"Ġdiscred":10353,"Ġlaundering":10354,"Ġimproves":10355,"ountered":10356,"Ġrises":10357,"Ġcorrid":10358,"Ġdistortion":10359,"Ġsuffers":10360,"Ġoldest":10361,"Ġbaroness":10362,"Ġboring":10363,"Ġsummits":10364,"Ġappeals":10365,"Ġencountered":10366,"Ġentirety":10367,"Ġhearts":10368,"Ġversions":10369,"Ġrecommends":10370,"crimin":10371,"apped":10372,"Ġindicator":10373,"Ġrepublican":10374,"Ġhistorically":10375,"Ġmalay":10376,"Ġlaunching":10377,"Ġspiritual":10378,"Ġdimensional":10379,"Ġstrengthens":10380,"Ġphotos":10381,"Ġfrequency":10382,"Ġrender":10383,"Ġfatal":10384,"Ġprecedence":10385,"Ġaccompanying":10386,"Ġchapters":10387,"Ġsuspension":10388,"Ġcorresponds":10389,"Ġdirectorate":10390,"Ġprofoundly":10391,"Ġunreason":10392,"Ġswiftly":10393,"Ġcontempl":10394,"Ġdiversification":10395,"Ġclinical":10396,"Ġnazi":10397,"Ġpregnant":10398,"Ġaxis":10399,"Ġtheoretical":10400,"Ġcatastrophic":10401,"Ġcoexistence":10402,"Ġgambling":10403,"protect":10404,"Ġkazakhstan":10405,"Ġazerbaijan":10406,"Ġimprisonment":10407,"research":10408,"big":10409,"eken":10410,"ser":10411,"inent":10412,"anz":10413,"Ġhitherto":10414,"Ġef":10415,"Ġrecipe":10416,"Ġuen":10417,"ometer":10418,"Ġtruck":10419,"Ġfeared":10420,"Ġoverr":10421,"Ġoppression":10422,"Ġawful":10423,"Ġexpectancy":10424,"Ġheadquarters":10425,"Ġpotato":10426,"Ġrejects":10427,"Ġsupermar":10428,"Ġreflecting":10429,"cules":10430,"Ġobstruct":10431,"Ġderived":10432,"Ġmemor":10433,"Ġreplacement":10434,"Ġsleeping":10435,"Ġinjury":10436,"Ġtibetan":10437,"Ġmotivation":10438,"Ġparadig":10439,"Ġfingers":10440,"Ġcornerstone":10441,"Ġeradicate":10442,"Ġanticipated":10443,"Ġfortunate":10444,"Ġqueen":10445,"Ġmunicip":10446,"Ġperipheral":10447,"Ġairplane":10448,"Ġkurds":10449,"Ġquartet":10450,"kestein":10451,"Ġpredomin":10452,"don":10453,"mn":10454,"Ġamp":10455,"isations":10456,"Ġtoy":10457,"Ġhoney":10458,"Ġgm":10459,"olas":10460,"Ġunilaterally":10461,"Ġate":10462,"Ġheed":10463,"Ġabused":10464,"Ġabbas":10465,"members":10466,"ignific":10467,"heres":10468,"Ġsupportive":10469,"Ġoffence":10470,"Ġsubordin":10471,"Ġscri":10472,"Ġcairo":10473,"Ġphones":10474,"Ġwishing":10475,"Ġletting":10476,"Ġcredits":10477,"Ġimpacts":10478,"Ġemphasized":10479,"Ġwaited":10480,"Ġmultilingual":10481,"Ġembod":10482,"Ġwinners":10483,"Ġpainting":10484,"culosis":10485,"Ġqualitative":10486,"Ġcondemning":10487,"Ġlayer":10488,"Ġunfold":10489,"Ġphilipp":10490,"consumers":10491,"Ġscandalous":10492,"Ġirrelev":10493,"Ġclubs":10494,"Ġdanube":10495,"emocratic":10496,"Ġfascinating":10497,"Ġconsciousness":10498,"Ġmisunderstanding":10499,"Ġtactics":10500,"Ġecosystems":10501,"energy":10502,"Ġsymptoms":10503,"uberculosis":10504,"Ġdreadful":10505,"Ġencounter":10506,"Ġignorance":10507,"Ġdoctrine":10508,"Ġdeputy":10509,"Ġlanka":10510,"din":10511,"hann":10512,"iated":10513,"va":10514,"vention":10515,"real":10516,"Ġsam":10517,"Ġcats":10518,"Ġpending":10519,"Ġbin":10520,"Ġfru":10521,"Ġhiding":10522,"Ġdust":10523,"arraf":10524,"idal":10525,"Ġasp":10526,"opoul":10527,"uss":10528,"Ġimpressed":10529,"Ġmankind":10530,"Ġteen":10531,"agement":10532,"Ġdecomm":10533,"Ġserbs":10534,"Ġinvention":10535,"angle":10536,"Ġreminder":10537,"Ġlaeken":10538,"Ġdefer":10539,"Ġattending":10540,"Ġassigned":10541,"Ġsignatures":10542,"Ġneglig":10543,"Ġrestoring":10544,"Ġequitable":10545,"Ġcorn":10546,"Ġtrig":10547,"Ġdesigners":10548,"Ġpackages":10549,"Ġopposing":10550,"Ġmasses":10551,"Ġredress":10552,"Ġhunting":10553,"Ġsanction":10554,"Ġrichard":10555,"Ġcodes":10556,"Ġquoted":10557,"Ġconstructed":10558,"Ġenormously":10559,"Ġreacted":10560,"Ġwidening":10561,"Ġdynamism":10562,"Ġdrinks":10563,"Ġgrandfather":10564,"Ġbelonging":10565,"Ġaggreg":10566,"Ġboliv":10567,"Ġbolkestein":10568,"Ġkilometers":10569,"Ġpassionate":10570,"Ġsmell":10571,"Ġcomfortable":10572,"Ġcofinancing":10573,"Ġnonsense":10574,"Ġstolen":10575,"Ġdecommission":10576,"mid":10577,"vy":10578,"zbe":10579,"Ġtenth":10580,"Ġtuberculosis":10581,"Ġpair":10582,"rose":10583,"Ġeld":10584,"urate":10585,"Ġstro":10586,"Ġdeeds":10587,"Ġparamount":10588,"Ġvicious":10589,"ĠâĢĶ":10590,"Ġreproductive":10591,"simp":10592,"Ġincin":10593,"Ġupgra":10594,"rup":10595,"meas":10596,"things":10597,"ubar":10598,"Ġinval":10599,"Ġoverl":10600,"Ġovernight":10601,"Ġfactories":10602,"Ġcurtain":10603,"Ġmaur":10604,"Ġscra":10605,"Ġscul":10606,"Ġaftermath":10607,"Ġblat":10608,"Ġelectron":10609,"Ġshorter":10610,"Ġprofessions":10611,"finan":10612,"Ġcharles":10613,"Ġmisery":10614,"Ġburst":10615,"Ġspecialist":10616,"Ġstops":10617,"thodox":10618,"Ġrepeating":10619,"Ġembass":10620,"Ġsalt":10621,"Ġspeedy":10622,"oboda":10623,"Ġignoring":10624,"Ġsurvived":10625,"Ġsurprisingly":10626,"Ġaggression":10627,"Ġpreferential":10628,"Ġlicences":10629,"Ġalbanian":10630,"Ġpersuaded":10631,"Ġreiterated":10632,"Ġselective":10633,"Ġillustrates":10634,"Ġvaccination":10635,"Ġguardian":10636,"Ġdisplayed":10637,"Ġnurt":10638,"Ġderogations":10639,"Ġoverlooked":10640,"Ġtacis":10641,"Ġpockets":10642,"Ġjacques":10643,"Ġentertainment":10644,"Ġdivorce":10645,"Ġinjustice":10646,"Ġexemplary":10647,"bted":10648,"prog":10649,"uated":10650,"vial":10651,"wash":10652,"Ġsar":10653,"icable":10654,"Ġbell":10655,"lywood":10656,"Ġalt":10657,"Ġnepal":10658,"Ġmelt":10659,"Ġcommem":10660,"Ġexit":10661,"Ġatroc":10662,"Ġimpover":10663,"Ġku":10664,"aks":10665,"contin":10666,"six":10667,"Ġrivers":10668,"Ġtimber":10669,"Ġspell":10670,"Ġspends":10671,"Ġindul":10672,"actually":10673,"Ġmini":10674,"Ġsolv":10675,"Ġdrag":10676,"Ġforefront":10677,"Ġ2050":10678,"Ġimmune":10679,"Ġapproached":10680,"parts":10681,"Ġsupplied":10682,"Ġswoboda":10683,"Ġintroduces":10684,"Ġannan":10685,"equally":10686,"Ġroadmap":10687,"Ġdestination":10688,"Ġdestiny":10689,"Ġimagined":10690,"Ġspiral":10691,"Ġseparately":10692,"Ġtourist":10693,"Ġlukash":10694,"Ġexpenditures":10695,"Ġballot":10696,"Ġboosting":10697,"Ġpiracy":10698,"Ġtaxpayer":10699,"Ġpredictable":10700,"Ġvaccines":10701,"Ġshaping":10702,"addafi":10703,"Ġmolecules":10704,"Ġmanipulation":10705,"Ġcensure":10706,"Ġdeposit":10707,"Ġwondered":10708,"Ġspectacular":10709,"Ġfairer":10710,"Ġcontroversy":10711,"Ġoverseas":10712,"Ġtriggered":10713,"ubarak":10714,"Ġfier":10715,"Ġinner":10716,"throp":10717,"Ġrelying":10718,"Ġreception":10719,"Ġbees":10720,"pered":10721,"Ġproving":10722,"Ġneu":10723,"ĠrÃ¼":10724,"Ġmann":10725,"Ġconsp":10726,"Ġmarking":10727,"ogen":10728,"Ġray":10729,"Ġrecourse":10730,"Ġagreeing":10731,"Ġadditives":10732,"Ġscour":10733,"Ġtalent":10734,"Ġbrink":10735,"Ġindebted":10736,"Ġinsol":10737,"Ġimminent":10738,"atah":10739,"Ġopted":10740,"Ġbulk":10741,"lson":10742,"Ġwindows":10743,"Ġharvard":10744,"Ġoccasionally":10745,"2001":10746,"Ġexceeded":10747,"Ġdubious":10748,"Ġslovenian":10749,"Ġbesides":10750,"Ġspeculative":10751,"Ġunresolved":10752,"Ġfrancis":10753,"elect":10754,"usions":10755,"vin":10756,"Ġtune":10757,"reck":10758,"Ġsided":10759,"Ġninet":10760,"Ġalert":10761,"operation":10762,"Ġvain":10763,"quit":10764,"Ġorteg":10765,"abet":10766,"ultimately":10767,"Ġquit":10768,"Ġpla":10769,"ema":10770,"dec":10771,"Ġpossel":10772,"Ġload":10773,"Ġrelatives":10774,"Ġrefuses":10775,"Ġcurtail":10776,"Ġassign":10777,"Ġassurances":10778,"Ġinteroper":10779,"Ġprocessed":10780,"Ġearned":10781,"Ġindefin":10782,"Ġ47":10783,"Ġpassive":10784,"Ġindependently":10785,"Ġcoordinator":10786,"mployment":10787,"space":10788,"Ġexporters":10789,"Ġsenate":10790,"Ġlowering":10791,"Ġqualities":10792,"Ġadapting":10793,"Ġphysically":10794,"Ġpreferable":10795,"Ġrend":10796,"Ġcastro":10797,"Ġsurrounded":10798,"Ġepis":10799,"Ġcameras":10800,"Ġbreathe":10801,"Ġinspire":10802,"Ġfranco":10803,"Ġclients":10804,"Ġabsorb":10805,"Ġbubbles":10806,"Ġvegetable":10807,"basically":10808,"Ġdesperately":10809,"Ġbreeding":10810,"acio":10811,"Ġautomobile":10812,"Ġpornography":10813,"hannes":10814,"financial":10815,"Ġortega":10816,"Ġposselt":10817,"produ":10818,"rational":10819,"tan":10820,"Ġtrop":10821,"rez":10822,"Ġpas":10823,"Ġfert":10824,"icular":10825,"Ġnaked":10826,"Ġgy":10827,"Ġprox":10828,"Ġexcise":10829,"Ġdozens":10830,"ĠchÃ¡vez":10831,"Ġintra":10832,"Ġfines":10833,"ensity":10834,"Ġdecoup":10835,"Ġovert":10836,"angered":10837,"Ġminors":10838,"Ġendangered":10839,"Ġcontinuously":10840,"Ġbrush":10841,"Ġideals":10842,"Ġnegotiators":10843,"cule":10844,"Ġestablishes":10845,"Ġtrivial":10846,"withstanding":10847,"Ġexpresses":10848,"Ġpasses":10849,"Ġpalacio":10850,"Ġdoubled":10851,"Ġilo":10852,"Ġdenial":10853,"Ġtrusted":10854,"Ġexported":10855,"Ġarabs":10856,"Ġstrain":10857,"Ġsafely":10858,"Ġstimulating":10859,"Ġmargins":10860,"Ġprohibit":10861,"Ġacknowledges":10862,"Ġdarwin":10863,"Ġunequal":10864,"Ġofficer":10865,"Ġproteins":10866,"Ġcontamination":10867,"Ġfragmented":10868,"Ġscarcely":10869,"Ġallegations":10870,"Ġrecruitment":10871,"Ġsquee":10872,"zbek":10873,"Ġsculpt":10874,"gl":10875,"tte":10876,"Ġaus":10877,"Ġsle":10878,"Ġpitch":10879,"Ġbric":10880,"Ġmism":10881,"omas":10882,"Ġgon":10883,"Ġford":10884,"Ġforge":10885,"theast":10886,"Ġuncontro":10887,"oping":10888,"Ġaged":10889,"Ġadam":10890,"Ġadvers":10891,"Ġacid":10892,"ocaust":10893,"Ġoutright":10894,"tel":10895,"Ġcogn":10896,"lick":10897,"Ġspr":10898,"Ġpercept":10899,"Ġovercoming":10900,"Ġloose":10901,"Ġtransaction":10902,"Ġcontinents":10903,"Ġguiding":10904,"Ġservants":10905,"letion":10906,"Ġbenefiting":10907,"rett":10908,"Ġhardest":10909,"Ġmetal":10910,"Ġclassic":10911,"Ġkidn":10912,"Ġproportionality":10913,"Ġvigorous":10914,"Ġincomplete":10915,"Ġprosecution":10916,"Ġboxes":10917,"Ġashamed":10918,"Ġnavigation":10919,"Ġcertification":10920,"Ġceasefire":10921,"Ġpledged":10922,"Ġsteady":10923,"Ġdismissed":10924,"Ġaccommodate":10925,"Ġcultivation":10926,"Ġarmenia":10927,"Ġstagnation":10928,"Ġassuming":10929,"Ġforbidden":10930,"Ġmetaphor":10931,"Ġphilippines":10932,"Ġlukashenko":10933,"cular":10934,"een":10935,"either":10936,"fat":10937,"five":10938,"garian":10939,"mail":10940,"try":10941,"Ġsab":10942,"Ġbones":10943,"Ġmaps":10944,"ional":10945,"Ġwet":10946,"otive":10947,"Ġyen":10948,"illa":10949,"Ġunc":10950,"amble":10951,"Ġorthodox":10952,"Ġcoin":10953,"Ġunderlines":10954,"ounding":10955,"Ġcloud":10956,"ighter":10957,"Ġinforming":10958,"Ġinterior":10959,"Ġbuff":10960,"Ġdrain":10961,"Ġdealings":10962,"Ġdepressed":10963,"Ġrests":10964,"Ġseemingly":10965,"Ġconvictions":10966,"Ġmilest":10967,"Ġreaches":10968,"Ġbarrel":10969,"Ġretreat":10970,"Ġflower":10971,"Ġgreet":10972,"cooperation":10973,"Ġeleven":10974,"Ġcycl":10975,"Ġimposition":10976,"instein":10977,"Ġclassroom":10978,"camb":10979,"Ġpretend":10980,"Ġcomplac":10981,"Ġbatteries":10982,"ĠwallstrÃ¶m":10983,"Ġoccupying":10984,"Ġfastest":10985,"few":10986,"Ġpleasant":10987,"Ġscandals":10988,"Ġfluct":10989,"Ġaccelerated":10990,"Ġcaptured":10991,"Ġanticipate":10992,"Ġpulled":10993,"Ġahmad":10994,"Ġexhausted":10995,"Ġbranch":10996,"Ġgalaxy":10997,"forestation":10998,"Ġsecrecy":10999,"Ġforeseeable":11000,"Ġlobbying":11001,"kh":11002,"rality":11003,"tes":11004,"rea":11005,"itan":11006,"Ġmouse":11007,"Ġtoll":11008,"Ġfiction":11009,"Ġfatah":11010,"Ġhits":11011,"Ġdol":11012,"Ġgro":11013,"Ġgreed":11014,"Ġlama":11015,"uting":11016,"Ġstere":11017,"versible":11018,"raction":11019,"rium":11020,"ulsion":11021,"Ġshy":11022,"erers":11023,"Ġreserved":11024,"umes":11025,"agan":11026,"Ġlegality":11027,"redict":11028,"Ġtooth":11029,"Ġlaure":11030,"Ġendless":11031,"Ġtransposed":11032,"Ġmode":11033,"Ġauthent":11034,"Ġblan":11035,"Ġnatura":11036,"Ġtaj":11037,"Ġinsurg":11038,"Ġreadily":11039,"Ġmeanwhile":11040,"Ġshortages":11041,"whereas":11042,"afric":11043,"Ġeuratom":11044,"Ġsentenced":11045,"Ġreding":11046,"Ġharmonising":11047,"Ġdependency":11048,"Ġhighlighting":11049,"Ġundemocratic":11050,"Ġvirgin":11051,"Ġbulgarian":11052,"Ġmigrant":11053,"Ġ140":11054,"Ġhitler":11055,"Ġappealing":11056,"Ġshoot":11057,"Ġattracted":11058,"Ġsacred":11059,"Ġranks":11060,"Ġcontradictions":11061,"Ġinfection":11062,"Ġextremist":11063,"Ġholocaust":11064,"Ġcfp":11065,"Ġpledge":11066,"support":11067,"Ġreversed":11068,"Ġdeplore":11069,"Ġunequivocal":11070,"Ġpredecessor":11071,"Ġinconsistent":11072,"Ġextradition":11073,"Ġlifetime":11074,"ael":11075,"fra":11076,"iably":11077,"wing":11078,"Ġarose":11079,"Ġomission":11080,"itting":11081,"Ġbund":11082,"Ġmubarak":11083,"Ġnab":11084,"otal":11085,"otics":11086,"Ġsever":11087,"Ġdoomed":11088,"weg":11089,"Ġchad":11090,"amin":11091,"odes":11092,"Ġhey":11093,"Ġkat":11094,"acity":11095,"ardo":11096,"Ġdisgu":11097,"iel":11098,"dez":11099,"Ġevasion":11100,"Ġthematic":11101,"Ġspa":11102,"Ġcurb":11103,"Ġrealism":11104,"Ġturbul":11105,"Ġformulate":11106,"Ġlesser":11107,"Ġresemb":11108,"Ġvaried":11109,"Ġpassage":11110,"Ġcircu":11111,"john":11112,"Ġcounterparts":11113,"Ġenjoying":11114,"Ġcharacteristic":11115,"Ġoccupy":11116,"Ġdecisively":11117,"Ġinadequ":11118,"arios":11119,"Ġscenarios":11120,"Ġrecipient":11121,"Ġsynthetic":11122,"Ġendeavours":11123,"Ġcontaminated":11124,"Ġambiguity":11125,"Ġdetained":11126,"Ġauction":11127,"Ġsynergy":11128,"Ġderivatives":11129,"Ġgnp":11130,"Ġparameters":11131,"Ġinteroperability":11132,"umber":11133,"Ġtheories":11134,"Ġdressed":11135,"around":11136,"Ġreef":11137,"Ġgay":11138,"Ġlen":11139,"Ġstir":11140,"Ġasleep":11141,"Ġparking":11142,"Ġlecture":11143,"Ġaller":11144,"Ġjos":11145,"Ġkash":11146,"Ġrepressive":11147,"Ġcontest":11148,"Ġmarsh":11149,"Ġconcerted":11150,"heimer":11151,"taining":11152,"Ġrelaunch":11153,"Ġmaternity":11154,"Ġextends":11155,"olland":11156,"Ġfavoured":11157,"Ġemployee":11158,"engu":11159,"Ġfamine":11160,"Ġexpects":11161,"Ġviolate":11162,"Ġretention":11163,"Ġmorality":11164,"Ġheadlines":11165,"Ġchecking":11166,"Ġcohn":11167,"Ġdesignated":11168,"Ġchallenged":11169,"Ġdamages":11170,"Ġeventual":11171,"Ġvoiced":11172,"Ġ130":11173,"Ã¶r":11174,"Ġreferenda":11175,"Ġadjusted":11176,"Ġengineer":11177,"Ġcatches":11178,"Ġreservation":11179,"Ġillustrate":11180,"Ġdemonstrators":11181,"Ġdisturb":11182,"iosity":11183,"Ġrocket":11184,"Ġtherapy":11185,"Ġproclaimed":11186,"Ġalleviate":11187,"Ġredistribution":11188,"Ġdalai":11189,"Ãºn":11190,"Ġprostitution":11191,"Ġunavoid":11192,"Ġunreasonable":11193,"Ġirrelevant":11194,"aven":11195,"culate":11196,"fold":11197,"je":11198,"mir":11199,"nesty":11200,"vir":11201,"Ġthro":11202,"Ġtheater":11203,"Ġcu":11204,"Ġcited":11205,"Ġbills":11206,"Ġmile":11207,"Ġhub":11208,"Ġrethink":11209,"Ġlion":11210,"Ġdeaf":11211,"Ġeurojust":11212,"estyle":11213,"Ġji":11214,"Ġko":11215,"Ġrepay":11216,"occup":11217,"Ġcoach":11218,"undi":11219,"itement":11220,"Ġjohannes":11221,"ratory":11222,"Ġdiscl":11223,"Ġextin":11224,"Ġattent":11225,"Ġcarl":11226,"Ġlifestyle":11227,"Ġorganize":11228,"Ġphare":11229,"Ġinsists":11230,"Ġstandardisation":11231,"Ġhomeland":11232,"Ġlocally":11233,"Ġemerges":11234,"Ġautoc":11235,"Ġembed":11236,"Ġdeadlock":11237,"Ġcounterp":11238,"Ġhorri":11239,"Ġhorror":11240,"iki":11241,"Ġgraduate":11242,"Ġadvocating":11243,"Ġmemories":11244,"Ġangle":11245,"Ġattaches":11246,"Ġlebanese":11247,"Ġjudgement":11248,"Ġshameful":11249,"Ġdissatisf":11250,"Ġolympics":11251,"ÃŃn":11252,"Ġincidentally":11253,"Ġdistinguished":11254,"better":11255,"between":11256,"Ġsahara":11257,"Ġcensorship":11258,"Ġcounterfeit":11259,"Ġrelocation":11260,"Ġhypocrit":11261,"small":11262,"viol":11263,"onymous":11264,"Ġscottish":11265,"currently":11266,"Ġdeficiencies":11267,"Ġemphatically":11268,"Ġorchest":11269,"Ġnineteenth":11270,"cambridge":11271,"aired":11272,"cop":11273,"dated":11274,"mill":11275,"oa":11276,"ras":11277,"oni":11278,"onou":11279,"Ġozone":11280,"anne":11281,"Ġbern":11282,"Ġbendit":11283,"arat":11284,"Ġrewards":11285,"Ġreintrodu":11286,"sts":11287,"Ġwhist":11288,"Ġsty":11289,"Ġstun":11290,"rayed":11291,"Ġunthink":11292,"llers":11293,"Ġcomposed":11294,"Ġinclined":11295,"Ġteles":11296,"Ġarray":11297,"Ġracial":11298,"Ġspill":11299,"Ġobli":11300,"vedev":11301,"Ġcommitting":11302,"Ġhumili":11303,"Ġconfusing":11304,"Ġquestioned":11305,"Ġturmo":11306,"Ġassent":11307,"Ġprotective":11308,"Ġscream":11309,"Ġinterl":11310,"Ġstandpoint":11311,"Ġlegislate":11312,"Ġeste":11313,"Ġirrational":11314,"Ġconvicted":11315,"Ġconsuming":11316,"Ġ52":11317,"Ġdistress":11318,"Ġpeacekeeping":11319,"Ġrecognizing":11320,"Ġcivic":11321,"Ġburned":11322,"Ġproperties":11323,"azz":11324,"Ġmaintains":11325,"Ġrooms":11326,"Ġpressed":11327,"Ġtempor":11328,"ieties":11329,"Ġprisoner":11330,"Ġtraveling":11331,"Ġdiplomats":11332,"Ġhitting":11333,"elson":11334,"Ġchemistry":11335,"Ġtendencies":11336,"Ġconversion":11337,"Ġmanufacturer":11338,"Ġtighten":11339,"gener":11340,"Ġdisadvantages":11341,"Ġintensity":11342,"Ġprivileges":11343,"Ġnuts":11344,"Ġinfringements":11345,"Ġcotonou":11346,"Ġprivatisation":11347,"Ġimperialist":11348,"Ġwarnings":11349,"Ġpandemic":11350,"Ġhedge":11351,"Ġmusharraf":11352,"limited":11353,"Ġrehabilitation":11354,"Ġauthentic":11355,"Ġturmoil":11356,"eba":11357,"grow":11358,"ole":11359,"zheimer":11360,"Ĥ¬":11361,"Ġslu":11362,"Ġcite":11363,"Ġpn":11364,"Ġgsp":11365,"Ġstub":11366,"Ġpromp":11367,"Ġunle":11368,"Ġvlad":11369,"Ġjim":11370,"const":11371,"Ġworkable":11372,"izar":11373,"Ġpoly":11374,"Ġramp":11375,"Ġbother":11376,"Ġdefect":11377,"Ġhopeful":11378,"Ġpowerless":11379,"Ġdistances":11380,"Ġlabels":11381,"Ġexplos":11382,"Ġvisibility":11383,"Ġmiser":11384,"Ġmotives":11385,"Ġ2014":11386,"Ġgeared":11387,"Ġfigured":11388,"Ġhugely":11389,"Ġselfish":11390,"Ġinfluential":11391,"Ġobligatory":11392,"regrett":11393,"Ġclassified":11394,"Ġdegrad":11395,"Ġblackmail":11396,"Ġclaiming":11397,"Ġdominate":11398,"Ġimperfect":11399,"Ġmobilise":11400,"Ġfertil":11401,"ĠâĤ¬":11402,"related":11403,"Ġentrepreneurship":11404,"Ġicc":11405,"specif":11406,"Ġrevolutions":11407,"Ġegf":11408,"foot":11409,"terrorism":11410,"regrettably":11411,"citiz":11412,"gree":11413,"pers":11414,"atibility":11415,"enlarge":11416,"Ġcia":11417,"Ġpound":11418,"Ġmam":11419,"Ġhanging":11420,"icago":11421,"stein":11422,"ilib":11423,"Ġlud":11424,"Ġlone":11425,"Ġlock":11426,"Ġuzbek":11427,"peace":11428,"Ġhamp":11429,"Ġcondu":11430,"Ġmeg":11431,"Ġshore":11432,"Ġrank":11433,"Ġheated":11434,"igration":11435,"Ġadjour":11436,"Ġoutdated":11437,"Ġpreach":11438,"Ġpope":11439,"okes":11440,"Ġundergoing":11441,"Ġsubmission":11442,"Ġconfed":11443,"lude":11444,"Ġcurric":11445,"Ġfraction":11446,"Ġblamed":11447,"Ġ39":11448,"thenburg":11449,"Ġvisiting":11450,"Ġmindset":11451,"Ġzo":11452,"Ġerasmus":11453,"Ġwaiver":11454,"ometric":11455,"Ġprobability":11456,"Ġimmigrant":11457,"Ġdevise":11458,"Ġdevised":11459,"Ġdenying":11460,"Ġdenounce":11461,"Ġtraffick":11462,"Ġstriving":11463,"Ġunders":11464,"Ġdrunk":11465,"Ġstepping":11466,"Ġsunni":11467,"Ġarriving":11468,"Ġsupervis":11469,"Ġcomplained":11470,"Ġcleaning":11471,"Ġderive":11472,"Ġimplicit":11473,"Ġaggrav":11474,"Ġsharon":11475,"burgh":11476,"Ġscandina":11477,"atoeba":11478,"Ġtightening":11479,"Ġaccurately":11480,"Ġdefeated":11481,"Ġattendance":11482,"Ġintensified":11483,"Ġdecreased":11484,"Ġbreaches":11485,"Ġupdated":11486,"Ġphotographs":11487,"Ġheroes":11488,"Ġexercised":11489,"Ġescalation":11490,"Ġcypriots":11491,"Ġuganda":11492,"Ġcorrection":11493,"Ġincurred":11494,"Ġinflows":11495,"Ġsmuggling":11496,"Ġsuperflu":11497,"Ġunambiguous":11498,"Ġcounterproductive":11499,"citizens":11500,"aurs":11501,"brit":11502,"gone":11503,"lining":11504,"mare":11505,"pat":11506,"upp":11507,"Ġthrew":11508,"Ġari":11509,"ints":11510,"Ġcres":11511,"Ġolig":11512,"Ġpiv":11513,"Ġpowered":11514,"Ġbible":11515,"Ġmd":11516,"Ġmild":11517,"Ġgates":11518,"Ġlord":11519,"Ġdelete":11520,"imir":11521,"Ġgothenburg":11522,"Ġcharity":11523,"Ġcanad":11524,"Ġliik":11525,"Ġjam":11526,"Ġjames":11527,"Ġorph":11528,"Ġkla":11529,"Ġpeters":11530,"Ġplun":11531,"Ġprerog":11532,"ache":11533,"Ġoversight":11534,"Ġresponds":11535,"Ġapproving":11536,"owners":11537,"Ġassad":11538,"Ġdownward":11539,"beyond":11540,"Ġschmid":11541,"Ġcondol":11542,"Ġsheets":11543,"Ġcompleting":11544,"Ġcombining":11545,"Ġdrives":11546,"Ġassisting":11547,"Ġverification":11548,"Ġcycles":11549,"Ġindicating":11550,"Ġcleared":11551,"Ġclassification":11552,"Ġarafat":11553,"Ġrenewables":11554,"Ġundes":11555,"Ġinvestigating":11556,"Ġfeedback":11557,"oints":11558,"Ġspokes":11559,"tax":11560,"Ġangola":11561,"Ġgeography":11562,"Ġsearching":11563,"Ġmobilisation":11564,"Ġchurches":11565,"particular":11566,"Ġvacation":11567,"Ġunpredict":11568,"Ġghost":11569,"Ġsmoothly":11570,"Ġeradication":11571,"Ġfoolish":11572,"Ġmisunderstand":11573,"Ġadvisers":11574,"Ġcabinet":11575,"Ġnaive":11576,"Ġmystery":11577,"Ġmassacre":11578,"Ġassassination":11579,"various":11580,"Ġharassment":11581,"Ġneurons":11582,"hopefully":11583,"Ġkilometres":11584,"Ġbiomass":11585,"Ġantibiotics":11586,"Ġmanoeuvre":11587,"Ġatrocities":11588,"Ġtropical":11589,"enlargement":11590,"Ġsuperfluous":11591,"Ġliikanen":11592,"case":11593,"moud":11594,"wal":11595,"onments":11596,"Ġbizar":11597,"educ":11598,"Ġee":11599,"Ġeman":11600,"Ġeinstein":11601,"Ġgolf":11602,"Ġlas":11603,"Ġlament":11604,"Ġwhis":11605,"Ġstakes":11606,"Ġconqu":11607,"chi":11608,"iration":11609,"Ġunden":11610,"Ġunlimited":11611,"Ġseized":11612,"Ġlean":11613,"sofar":11614,"enders":11615,"aculture":11616,"Ġpeter":11617,"Ġrio":11618,"Ġincumb":11619,"agog":11620,"Ġsamp":11621,"Ġpreoccup":11622,"Ġspots":11623,"Ġinstinct":11624,"Ġstrand":11625,"Ġholy":11626,"Ġsocialism":11627,"Ġmaf":11628,"Ġentrust":11629,"Ġsignature":11630,"Ġmeda":11631,"Ġmedina":11632,"Ġpreval":11633,"Ġmodes":11634,"Ġsimplicity":11635,"Ġschr":11636,"Ġbless":11637,"Ġrestraint":11638,"uclear":11639,"afe":11640,"Ġholders":11641,"ushch":11642,"Ġdeepen":11643,"Ġorigins":11644,"Ġmodernise":11645,"Ġfox":11646,"Ġigno":11647,"Ġmandelson":11648,"Ġdescribes":11649,"Ġmanufactured":11650,"Ġvisitors":11651,"Ġtransforming":11652,"Ġterribly":11653,"Ġboycot":11654,"Ġconceal":11655,"Ġparaly":11656,"Ġslightest":11657,"Ġunnecessarily":11658,"Ġprevails":11659,"Ġevaluating":11660,"Ġdictatorships":11661,"Ġadmire":11662,"Ġholes":11663,"Ġearnings":11664,"Ġconversations":11665,"Ġladen":11666,"Ġcelebrated":11667,"wait":11668,"Ġcataly":11669,"Ġshelter":11670,"history":11671,"Ġflawed":11672,"Ġlamy":11673,"Ġhesitate":11674,"Ġsocrates":11675,"Ġdividing":11676,"Ġhavens":11677,"Ġmalaysia":11678,"Ġahmadinejad":11679,"Ġunthinkable":11680,"14":11681,"dad":11682,"ih":11683,"london":11684,"mble":11685,"norm":11686,"oons":11687,"rne":11688,"Ã±":11689,"Ġaven":11690,"Ġcents":11691,"Ġpengu":11692,"anmar":11693,"Ġfli":11694,"Ġforty":11695,"Ġhamm":11696,"rians":11697,"chen":11698,"Ġsuited":11699,"usive":11700,"Ġhege":11701,"Ġabilities":11702,"Ġpoles":11703,"access":11704,"Ġqua":11705,"Ġouts":11706,"eman":11707,"Ġapples":11708,"Ġcoat":11709,"itionally":11710,"Ġpole":11711,"Ġindians":11712,"Ġoverdue":11713,"Ġgovernor":11714,"Ġtwin":11715,"actor":11716,"Ġgeneric":11717,"rator":11718,"Ġmonu":11719,"Ġdefines":11720,"Ġenvironments":11721,"Ġinvestor":11722,"Ġmodification":11723,"Ġhandic":11724,"Ġvalued":11725,"Ġrevive":11726,"Ġ54":11727,"Ġstark":11728,"Ġrecognizes":11729,"Ġpencil":11730,"Ġargues":11731,"Ġrequesting":11732,"Ġcrossed":11733,"Ġindicative":11734,"Ġanalysed":11735,"Ġanalysing":11736,"Ġhygi":11737,"ustomed":11738,"anny":11739,"Ġcrude":11740,"Ġcontinental":11741,"Ġtelecom":11742,"rosoft":11743,"Ġcompelling":11744,"Ġcorporation":11745,"Ġgeorgian":11746,"Ġabandoning":11747,"Ġreliability":11748,"Ġprohibition":11749,"Ġolive":11750,"Ġflags":11751,"Ġoverwhelm":11752,"Ġvalidity":11753,"Ġwebsites":11754,"Ġshapes":11755,"Ġirreversible":11756,"Ġredundancies":11757,"Ġnominal":11758,"Ġastonishing":11759,"Ġflourish":11760,"ĠbÃ¶ge":11761,"Ġelephant":11762,"Ġastronom":11763,"Ġparadigm":11764,"ignificant":11765,"Ġbolivia":11766,"Ġdecommissioning":11767,"Ġfierce":11768,"Ġjohannesburg":11769,"Ġtemporarily":11770,"Ġpnr":11771,"city":11772,"farm":11773,"faced":11774,"sing":11775,"Ġthr":11776,"Ġthomas":11777,"Ġoomen":11778,"itual":11779,"oure":11780,"Ġdrow":11781,"rooms":11782,"Ġlul":11783,"sement":11784,"mention":11785,"Ġaltered":11786,"irs":11787,"Ġshirt":11788,"Ġvested":11789,"Ġbyrne":11790,"solete":11791,"Ġheating":11792,"Ġheaven":11793,"Ġkir":11794,"Ġintact":11795,"Ġpeer":11796,"early":11797,"nowadays":11798,"Ġsample":11799,"Ġrains":11800,"Ġtrapped":11801,"Ġfee":11802,"Ġpolite":11803,"Ġmoz":11804,"Ġquestionable":11805,"Ġassu":11806,"Ġbackward":11807,"Ġsuccession":11808,"Ġ350":11809,"Ġequilib":11810,"Ġesp":11811,"Ġvaries":11812,"Ġflash":11813,"Ġexploration":11814,"Ġspecialists":11815,"Ġdesignate":11816,"Ġlosers":11817,"Ġmuscle":11818,"Ġmethodology":11819,"Ġilliter":11820,"Ġreviewing":11821,"tomorrow":11822,"Ġtempted":11823,"Ġpainted":11824,"linary":11825,"Ġexploiting":11826,"Ġconfirmation":11827,"Ġslogan":11828,"Ġcontractual":11829,"Ġsafeguarded":11830,"Ġautomotive":11831,"Ġdominance":11832,"Ġconditionality":11833,"ullah":11834,"Ġgeographic":11835,"Ġpsychology":11836,"Ġthrowing":11837,"Ġpurchases":11838,"Ġlicens":11839,"Ġinjuries":11840,"Ġsudanese":11841,"Ġthresholds":11842,"Ġnutrition":11843,"Ġmurders":11844,"Ġlaughing":11845,"Ġshifted":11846,"Ġintolerance":11847,"development":11848,"Ġgalaxies":11849,"Ġsentiment":11850,"Ġsaturday":11851,"Ġmahmoud":11852,"Ġpuzzle":11853,"Ġpupils":11854,"Ġduplication":11855,"Ġrefunds":11856,"Ġportfolio":11857,"Ġuncomfort":11858,"Ġdinosaurs":11859,"Ġhurricane":11860,"Ġfruits":11861,"Ġfrancisco":11862,"Ġstereoty":11863,"Ġvladimir":11864,"trade":11865,"Ã´":11866,"Ġtender":11867,"Ġwines":11868,"isons":11869,"Ġsket":11870,"Ġcin":11871,"itter":11872,"iture":11873,"Ġholland":11874,"Ġrejo":11875,"Ġrena":11876,"Ġrehn":11877,"ldom":11878,"Ġstif":11879,"ulum":11880,"Ġunlaw":11881,"ounder":11882,"admitted":11883,"geor":11884,"Ġvitor":11885,"ichet":11886,"Ġenfor":11887,"Ġritual":11888,"rome":11889,"Ġliable":11890,"Ġresent":11891,"Ġkg":11892,"Ġpecul":11893,"Ġtrichet":11894,"render":11895,"ireland":11896,"Ġmyanmar":11897,"Ġwhoever":11898,"Ġobsolete":11899,"Ġperu":11900,"Ġclearing":11901,"Ġconfer":11902,"Ġmarketplace":11903,"Ġ192":11904,"Ġprotects":11905,"Ġinterreg":11906,"neys":11907,"Ġinfer":11908,"Ġrespectively":11909,"Ġhealthier":11910,"Ġdemocratization":11911,"Ġsurrender":11912,"Ġcontributors":11913,"Ġflav":11914,"Ġruij":11915,"Ġski":11916,"Ġecr":11917,"Ġassociate":11918,"Ġclassical":11919,"Ġislamists":11920,"Ġnightmare":11921,"Ġdescribing":11922,"Ġ02":11923,"Ġcomplaining":11924,"repres":11925,"Ġinsisting":11926,"Ġarrests":11927,"Ġfixing":11928,"Ġabolishing":11929,"Ġsporting":11930,"Ġexcluding":11931,"Ġrebel":11932,"Ġrigour":11933,"Ġprofitability":11934,"Ġmatched":11935,"Ġaccelerating":11936,"Ġdetection":11937,"Ġfostering":11938,"Ġyields":11939,"Ġperceive":11940,"Ġprovider":11941,"Ġvarying":11942,"Ġpostponement":11943,"Ġunjustified":11944,"Ġtroubles":11945,"Ġbranches":11946,"Ġdissemin":11947,"Ġreinforces":11948,"Ġexaggerated":11949,"ĠcancÃºn":11950,"Ġerupt":11951,"Ġscourge":11952,"Ġunavoidable":11953,"Ġignores":11954,"admittedly":11955,"Ġruijten":11956,"freedom":11957,"field":11958,"hy":11959,"sol":11960,"show":11961,"sky":11962,"Ġtide":11963,"rey":11964,"Ġcock":11965,"Ġhen":11966,"Ġdensity":11967,"roots":11968,"icit":11969,"lez":11970,"Ġweird":11971,"otted":11972,"Ġdeleted":11973,"Ġnotification":11974,"Ġunbelie":11975,"Ġseldom":11976,"mbowski":11977,"Ġkor":11978,"umably":11979,"Ġimporting":11980,"Ġprecip":11981,"Ġraining":11982,"Ġoverview":11983,"Ġrolling":11984,"Ġprototy":11985,"Ġempowered":11986,"Ġtreatments":11987,"Ġcarc":11988,"ologies":11989,"Ġcolumb":11990,"Ġmedvedev":11991,"Ġformat":11992,"Ġreads":11993,"Ġconsumed":11994,"Ġcritically":11995,"Ġfreeze":11996,"Ġbali":11997,"paragraph":11998,"Ġurging":11999,"overall":12000,"Ġplea":12001,"iberal":12002,"Ġtransported":12003,"Ġfried":12004,"Ġgrey":12005,"Ġburied":12006,"Ġconflicting":12007,"Ġcongratulated":12008,"Ġtargeting":12009,"Ġverdict":12010,"Ġsuperpower":12011,"Ġexchanging":12012,"Ġbias":12013,"Ġteaches":12014,"ilitary":12015,"Ġproceeding":12016,"zembowski":12017,"Ġbureaucrats":12018,"Ġdefenders":12019,"Ġresistant":12020,"Ġkyi":12021,"Ġexempt":12022,"Ġtougher":12023,"Ġmentality":12024,"Ġarchitects":12025,"Ġguns":12026,"Ġbreathing":12027,"Ġghana":12028,"Ġjeopardise":12029,"Ġpersecuted":12030,"Ġillnesses":12031,"Ġlagging":12032,"Ġtaller":12033,"Ġtroubled":12034,"Ġfragmentation":12035,"Ġcoincidence":12036,"Ġresignation":12037,"Ġreinforcing":12038,"Ġcigarette":12039,"Ġjarzembowski":12040,"Ġpyram":12041,"Ġparalysis":12042,"Ġaggregate":12043,"Ġbizarre":12044,"Ġvitorino":12045,"bat":12046,"diff":12047,"drop":12048,"iri":12049,"lor":12050,"oil":12051,"ping":12052,"tings":12053,"Ġwik":12054,"isan":12055,"eries":12056,"Ġpou":12057,"Ġbour":12058,"ora":12059,"Ġdense":12060,"Ġduly":12061,"Ġreap":12062,"Ġrelies":12063,"Ġgate":12064,"Ġlan":12065,"Ġlakes":12066,"otism":12067,"pelled":12068,"Ġalzheimer":12069,"rams":12070,"raine":12071,"Ġsuu":12072,"Ġsemit":12073,"Ġleve":12074,"Ġleaf":12075,"Ġcharm":12076,"Ġlip":12077,"Ġamnesty":12078,"Ġbutton":12079,"reevy":12080,"Ġmanual":12081,"Ġmanager":12082,"Ġrecovered":12083,"ernal":12084,"Ġaccustomed":12085,"Ġbasque":12086,"Ġcommunists":12087,"Ġgenius":12088,"Ġremun":12089,"Ġguilt":12090,"Ġgrowers":12091,"need":12092,"Ġmodifications":12093,"Ġshell":12094,"Ġbalancing":12095,"Ġedf":12096,"Ġdistrict":12097,"Ġexperimental":12098,"ĠbarÃ³n":12099,"Ġcivilised":12100,"Ġcentralised":12101,"Ġruin":12102,"Ġpenet":12103,"inson":12104,"Ġlanded":12105,"Ġlanding":12106,"Ġinflux":12107,"Ġbike":12108,"Ġvolcan":12109,"Ġcriticized":12110,"Ġcalculation":12111,"Ġmaln":12112,"Ġsunlight":12113,"ikh":12114,"Ġdawn":12115,"Ġpopularity":12116,"roads":12117,"Ġproportionate":12118,"Ġconsolidating":12119,"Ġamazed":12120,"Ġmicrosoft":12121,"Ġrebuilding":12122,"prof":12123,"throughout":12124,"Ġcrystal":12125,"Ġprague":12126,"Ġdistorted":12127,"Ġindiscrimin":12128,"developing":12129,"Ġbeneficiary":12130,"Ġpocket":12131,"Ġperiphery":12132,"Ġmccreevy":12133,"Ġathlet":12134,"Ġsoccer":12135,"rendt":12136,"Ġembryos":12137,"Ġresolutely":12138,"Ġexhibition":12139,"Ġupheld":12140,"Ġnigerian":12141,"Ġalexander":12142,"Ġhierarchy":12143,"Ġbridges":12144,"information":12145,"Ġcognitive":12146,"Ġmilestone":12147,"Ġkashmir":12148,"Ġembedded":12149,"12":12150,"away":12151,"bic":12152,"dner":12153,"youn":12154,"ĠÅ¡":12155,"inate":12156,"itate":12157,"Ġpounds":12158,"Ġbh":12159,"Ġbust":12160,"Ġfence":12161,"Ġfired":12162,"Ġinsofar":12163,"Ġepp":12164,"Ġemin":12165,"Ġbeating":12166,"Ġgut":12167,"Ġstig":12168,"Ġalliances":12169,"ulent":12170,"Ġnotable":12171,"Ġsemi":12172,"anted":12173,"Ġvisions":12174,"Ġgoe":12175,"Ġagent":12176,"usible":12177,"Ġshoulders":12178,"Ġcontag":12179,"agues":12180,"Ġexpressions":12181,"foreign":12182,"Ġresponsibly":12183,"Ġlasted":12184,"Ġcolors":12185,"Ġglobalised":12186,"Ġdepreci":12187,"Ġblank":12188,"Ġcrew":12189,"Ġcoral":12190,"Ġtaxi":12191,"Ġpeacefully":12192,"Ġcreature":12193,"Ġappearing":12194,"Ġairspace":12195,"Ġpassports":12196,"Ġlocations":12197,"Ġslim":12198,"Ġerika":12199,"Ġdesigning":12200,"Ġmetals":12201,"Ġlandf":12202,"Ġattacking":12203,"Ġlovely":12204,"Ġexporter":12205,"Ġcounterpart":12206,"Ġhyper":12207,"Ġphysic":12208,"unta":12209,"Ġmeaningless":12210,"Ġrent":12211,"Ġinterpretations":12212,"Ġtragedies":12213,"Ġinterface":12214,"Ġscenes":12215,"Ġsubmitting":12216,"Ġinfectious":12217,"Ġsisters":12218,"Ġrecipients":12219,"Ġmagnific":12220,"attered":12221,"Ġnaval":12222,"Ġapologize":12223,"Ġabsorbed":12224,"aphne":12225,"Ġangel":12226,"Ġpigs":12227,"ttes":12228,"Ġfronts":12229,"Ġpreconditions":12230,"Ġprudent":12231,"Ġredef":12232,"Ġassumes":12233,"Ġlyn":12234,"Ġinflicted":12235,"Ġferrero":12236,"Ġinsects":12237,"Ġunconditional":12238,"Ġmisman":12239,"Ġhorrible":12240,"ĠschrÃ¶der":12241,"Ġequilibrium":12242,"bro":12243,"dy":12244,"iries":12245,"oth":12246,"oft":12247,"rgy":12248,"Ġtip":12249,"Ġtables":12250,"remember":12251,"erra":12252,"erts":12253,"Ġcows":12254,"Ġot":12255,"Ġfles":12256,"Ġinch":12257,"Ġank":12258,"Ġants":12259,"Ġerect":12260,"Ġeuph":12261,"opular":12262,"Ġbypass":12263,"Ġbutt":12264,"asty":12265,"Ġproportions":12266,"temp":12267,"Ġapparat":12268,"Ġarsen":12269,"Ġevidently":12270,"Ġspark":12271,"Ġspont":12272,"Ġmature":12273,"Ġcuriosity":12274,"Ġempt":12275,"Ġachievable":12276,"lander":12277,"Ġemployer":12278,"Ġgentleman":12279,"Ġrevising":12280,"Ġprojected":12281,"Ġwriters":12282,"Ġshortfall":12283,"Ġbars":12284,"Ġmotto":12285,"Ġtextbook":12286,"Ġidi":12287,"Ġdrift":12288,"Ġero":12289,"Ġemphasising":12290,"Ġ96":12291,"Ġloses":12292,"Ġweakest":12293,"Ġstressing":12294,"Ġdoubtful":12295,"Ġillusions":12296,"Ġfloating":12297,"Ġindustrialised":12298,"ahu":12299,"Ġwaldner":12300,"Ġmergers":12301,"Ġslowing":12302,"Ġmigratory":12303,"anyway":12304,"Ġsilk":12305,"Ġtraveled":12306,"Ġfulfill":12307,"Ġpray":12308,"Ġgladly":12309,"Ġtroika":12310,"twenty":12311,"Ġadvertise":12312,"Ġpremise":12313,"Ġmexican":12314,"Ġentrepreneurial":12315,"Ġprevailed":12316,"Ġevaluated":12317,"Ġtunisian":12318,"Ġwoods":12319,"Ġknife":12320,"Ġupdating":12321,"Ġneutrality":12322,"Ġepidem":12323,"Ġambiguous":12324,"Ġflaws":12325,"Ġugly":12326,"hardt":12327,"Ġprinting":12328,"Ġprolonged":12329,"Ġoutrageous":12330,"Ġtiger":12331,"Ġescaped":12332,"Ġcynical":12333,"Ġnabuc":12334,"Ġuzbekistan":12335,"Ġcanadian":12336,"Ġcondolences":12337,"actorily":12338,"Ġuncomfortable":12339,"rgyz":12340,"Ġspontane":12341,"best":12342,"bach":12343,"dog":12344,"hel":12345,"sud":12346,"Ġ00":12347,"Ġthick":12348,"Ġwi":12349,"isa":12350,"Ġsidel":12351,"Ġcord":12352,"Ġpave":12353,"Ġplight":12354,"Ġbog":12355,"Ġmol":12356,"oria":12357,"Ġinsure":12358,"Ġhans":12359,"Ġdent":12360,"roed":12361,"Ġnich":12362,"Ġngo":12363,"oming":12364,"stud":12365,"Ġip":12366,"ctors":12367,"Ġlor":12368,"Ġsticking":12369,"irts":12370,"osity":12371,"Ġenqu":12372,"Ġlever":12373,"Ġcher":12374,"Ġchairs":12375,"Ġchimp":12376,"Ġreson":12377,"aka":12378,"Ġquad":12379,"Ġtru":12380,"Ġdisorders":12381,"Ġupris":12382,"Ġmarx":12383,"Ġyourselves":12384,"Ġbelieving":12385,"Ġbasket":12386,"Ġquestioning":12387,"Ġenters":12388,"Ġdeserved":12389,"Ġadopts":12390,"Ġorganism":12391,"egal":12392,"Ġfundamentals":12393,"Ġtribes":12394,"Ġmisuse":12395,"Ġhalfway":12396,"Ġdeepest":12397,"Ġverify":12398,"Ġcollateral":12399,"Ġ110":12400,"Ġdistribute":12401,"Ġenjoys":12402,"Ġsilver":12403,"Ġinflationary":12404,"Ġinhuman":12405,"Ġbelgrade":12406,"Ġkyrgyz":12407,"Ġchristianity":12408,"Ġbaseball":12409,"Ġcompelled":12410,"Ġremarkably":12411,"Ġwithdrawing":12412,"Ġobservatory":12413,"Ġstems":12414,"Ġexceeds":12415,"Ġclient":12416,"Ġjuncture":12417,"ukraine":12418,"Ġcoupled":12419,"Ġcelebrating":12420,"Ġmolecular":12421,"Ġbailout":12422,"frank":12423,"Ġgrassroots":12424,"Ġfurn":12425,"Ġinterrupted":12426,"Ġfrightening":12427,"Ġembarrassing":12428,"Ġindifferent":12429,"Ġleonardo":12430,"Ġlivelihoods":12431,"greater":12432,"Ġdiscretion":12433,"Ġprovinces":12434,"Ġmultilingualism":12435,"progress":12436,"Ġcrespo":12437,"Ġassumptions":12438,"Ġpeculiar":12439,"Ġerosion":12440,"Ġnabucco":12441,"bish":12442,"iat":12443,"nar":12444,"Ġtb":12445,"inos":12446,"Ġwary":12447,"Ġwins":12448,"era":12449,"enza":12450,"itated":12451,"Ġbits":12452,"Ġmast":12453,"Ġfake":12454,"Ġflies":12455,"Ġfusion":12456,"Ġdaphne":12457,"Ġeec":12458,"Ġdeforestation":12459,"atemal":12460,"Ġshops":12461,"Ġvag":12462,"Ġatoms":12463,"Ġlethal":12464,"ĠâĢ¦":12465,"Ġimplied":12466,"aki":12467,"igence":12468,"Ġouter":12469,"Ġexped":12470,"Ġtex":12471,"Ġconcur":12472,"Ġfeat":12473,"Ġrecre":12474,"Ġoverly":12475,"Ġtransmitted":12476,"orses":12477,"Ġrealm":12478,"Ġguer":12479,"Ġcaring":12480,"Ġintercultural":12481,"Ġformulation":12482,"Ġbehrendt":12483,"Ġcave":12484,"Ġmoder":12485,"Ġmoderation":12486,"Ġschroed":12487,"Ġallowance":12488,"Ġwheat":12489,"Ġirrit":12490,"Ġprogressively":12491,"Ġeasing":12492,"Ġ53":12493,"Ġtribal":12494,"Ġsciences":12495,"Ġmiscon":12496,"Ġtraded":12497,"Ġiranians":12498,"Ġobsessed":12499,"Ġurges":12500,"europeans":12501,"Ġratings":12502,"ltry":12503,"Ġlimitation":12504,"Ġconstructively":12505,"Ã©n":12506,"Ġcharacters":12507,"Ġsurviv":12508,"Ġharness":12509,"Ġarranged":12510,"Ġoccupational":12511,"Ġ04":12512,"Ġsoldier":12513,"Ġobserving":12514,"Ġpublishing":12515,"Ġexecuted":12516,"Ġunsafe":12517,"feld":12518,"Ġcondemns":12519,"Ġbrazilian":12520,"Ġmicros":12521,"Ġpreceded":12522,"Ġ1967":12523,"Ġevolving":12524,"Ġglasses":12525,"impro":12526,"Ġsongs":12527,"Ġenthusiastic":12528,"Ġdeteriorating":12529,"Ġjuncker":12530,"Ġhorizon":12531,"Ġhydro":12532,"Ġpollutants":12533,"Ġinspiring":12534,"Ġcereals":12535,"Ġdrastically":12536,"Ġdeposits":12537,"Ġscoreboard":12538,"Ġsentiments":12539,"Ġcigarettes":12540,"Ġattributed":12541,"Ġlaptop":12542,"question":12543,"Ġaquaculture":12544,"Ġlehne":12545,"Ġbargaining":12546,"Ġworsening":12547,"Ġcasualties":12548,"Ġunderestimated":12549,"measures":12550,"Ġdecoupling":12551,"Ġadjourned":12552,"Ġundesirable":12553,"Ġpoultry":12554,"hen":12555,"iance":12556,"overs":12557,"ĠÎ":12558,"Ġay":12559,"Ġfta":12560,"Ġanomal":12561,"inge":12562,"Ġnail":12563,"Ġreinst":12564,"omes":12565,"stad":12566,"Ġgi":12567,"Ġhaven":12568,"Ġyard":12569,"ithm":12570,"opian":12571,"Ġwilli":12572,"Ġchicago":12573,"umi":12574,"ums":12575,"Ġmarg":12576,"Ġinviting":12577,"Ġaccounted":12578,"Ġconfuse":12579,"Ġdefensive":12580,"Ġhappily":12581,"Ġguatemal":12582,"Ġscare":12583,"Ġtechnoc":12584,"took":12585,"Ġlegislature":12586,"Ġequals":12587,"Ġesdp":12588,"Ġ450":12589,"Ġoperator":12590,"Ġhonoured":12591,"Ġgenerates":12592,"Ġapplicants":12593,"Ġsuperior":12594,"Ġportion":12595,"Ġsatisfactorily":12596,"Ġcalend":12597,"Ġshipbuilding":12598,"Ġcustomer":12599,"Ġdonations":12600,"awa":12601,"Ġdischar":12602,"Ġtolerated":12603,"Ġconceived":12604,"common":12605,"Ġnarrative":12606,"Ġexecutives":12607,"Ġflooding":12608,"Ġillustrated":12609,"Ġendorses":12610,"welcome":12611,"Ġsacrifices":12612,"Ġpulling":12613,"Ġtickets":12614,"Ġconvenience":12615,"Ġpolluter":12616,"Ġ1945":12617,"Ġstipulated":12618,"Ġdissemination":12619,"Ġsimplistic":12620,"Ġscholars":12621,"Ġindefinitely":12622,"greece":12623,"Ġunpredictable":12624,"Ġincumbent":12625,"Ġhygiene":12626,"ipping":12627,"kward":12628,"make":12629,"Ġtorn":12630,"Ġaster":12631,"Ġavert":12632,"rets":12633,"onian":12634,"Ġwound":12635,"Ġsau":12636,"Ġcad":12637,"Ġdc":12638,"arctic":12639,"icon":12640,"Ġnest":12641,"Ġnerve":12642,"omy":12643,"Ġgif":12644,"Ġwhale":12645,"urt":12646,"ghdad":12647,"Ġunple":12648,"imity":12649,"Ġshake":12650,"Ġexile":12651,"Ġlee":12652,"Ġchrom":12653,"Ġhelic":12654,"Ġrescu":12655,"Ġker":12656,"ivo":12657,"Ġrepatri":12658,"Ġplate":12659,"Ġdissid":12660,"Ġcomplying":12661,"teenth":12662,"Ġpolicing":12663,"Ġindign":12664,"Ġinventions":12665,"atively":12666,"xty":12667,"Ġsittings":12668,"Ġenduring":12669,"Ġsierra":12670,"Ġscrap":12671,"Ġsmok":12672,"Ġbeforehand":12673,"Ġcaptain":12674,"Ġcolour":12675,"Ġhandful":12676,"ovation":12677,"ucks":12678,"Ġrevival":12679,"Ġprogressing":12680,"Ġgenerals":12681,"Ġlottery":12682,"Ġ58":12683,"Ġcareers":12684,"Ġspecifications":12685,"Ġcredential":12686,"Ġ62":12687,"Ġromantic":12688,"Ġliberalism":12689,"Ġdevil":12690,"Ġimposes":12691,"Ġconsulting":12692,"Ġscientifically":12693,"Ġmissiles":12694,"Ġproceeds":12695,"anyahu":12696,"Ġconcentrating":12697,"Ġ03":12698,"Ġtouches":12699,"Ġteleph":12700,"Ġcontrad":12701,"Ġattracting":12702,"Ġvariations":12703,"Ġlicense":12704,"Ġrhy":12705,"Ġpredic":12706,"Ġregrettably":12707,"Ġadmiration":12708,"american":12709,"Ġembraced":12710,"Ġmitigate":12711,"Ġdisappearance":12712,"Ġpoetry":12713,"Ġmolecule":12714,"Ġalgerian":12715,"Ġbeaten":12716,"Ġallegedly":12717,"Ġenrichment":12718,"Ã¨s":12719,"Ġvolatile":12720,"aea":12721,"yeah":12722,"Ġindifference":12723,"Ġbaghdad":12724,"Ġflorence":12725,"Ġjackson":12726,"Ġobscure":12727,"Ġknees":12728,"Ġunchanged":12729,"Ġresilience":12730,"Ġalgor":12731,"Ġshipyards":12732,"Ġreimbur":12733,"Ġdolph":12734,"Ġextinction":12735,"Ġenforcing":12736,"Ġapparatus":12737,"Ġhelicop":12738,"ez":12739,"hor":12740,"iating":12741,"play":12742,"uay":12743,"Ġvel":12744,"Ġwiped":12745,"envir":12746,"Ġcute":12747,"Ġost":12748,"itt":12749,"Ġinert":12750,"Ġhut":12751,"Ġnass":12752,"ask":12753,"asse":12754,"otti":12755,"owing":12756,"Ġascertain":12757,"Ġmeth":12758,"Ġunde":12759,"Ġsuits":12760,"Ġeurobon":12761,"Ġshia":12762,"Ġshark":12763,"erer":12764,"Ġchat":12765,"Ġpresumably":12766,"Ġrang":12767,"Ġjung":12768,"Ġjunta":12769,"Ġabu":12770,"umane":12771,"Ġnoble":12772,"Ġupcoming":12773,"agric":12774,"Ġexpose":12775,"Ġtracking":12776,"Ġdemise":12777,"Ġspheres":12778,"Ġfever":12779,"Ġoverha":12780,"Ġclou":12781,"Ġstrang":12782,"Ġaccent":12783,"Ġhappier":12784,"Ġconstrained":12785,"worse":12786,"Ġsheer":12787,"Ġbene":12788,"doing":12789,"Ġeditor":12790,"Ġ51":12791,"Ġspecify":12792,"Ġrepresentations":12793,"Ġ41":12794,"Ġmonthly":12795,"Ġartistic":12796,"Ġawkward":12797,"Ġtrips":12798,"prime":12799,"Ġvariation":12800,"Ġcheese":12801,"Ġspecialised":12802,"Ġerit":12803,"Ġcompromised":12804,"Ġassistants":12805,"Ġantarctic":12806,"Ġconnecting":12807,"Ġinfluenza":12808,"Ġorganisational":12809,"Ġoccurrence":12810,"Ġseparat":12811,"Ġaccompany":12812,"Ġreactor":12813,"Ġunfounded":12814,"Ġinhumane":12815,"aughters":12816,"Ġdonation":12817,"Ġinsistence":12818,"Ġrevenge":12819,"Ġaggress":12820,"Ġrebels":12821,"prov":12822,"Ġmultilateralism":12823,"Ġfulfilment":12824,"Ġfemin":12825,"guided":12826,"Ġperpetrated":12827,"Ġmoroccan":12828,"Ġinterpreters":12829,"Ġdiscoveries":12830,"Ġscrutin":12831,"Ġconfronting":12832,"Ġhesitation":12833,"Ġwholes":12834,"Ġdetainees":12835,"Ġdeplorable":12836,"Ġfrightened":12837,"Ġslip":12838,"Ġunreserved":12839,"Ġmulder":12840,"Ġembarked":12841,"Ġtumor":12842,"Ġlinear":12843,"Ġinfinite":12844,"business":12845,"Ġexplosive":12846,"Ġtraffickers":12847,"Ġoverwhelmingly":12848,"Ġlulling":12849,"Ġunlawful":12850,"young":12851,"Ġmagnificent":12852,"stadt":12853,"Ġunpleasant":12854,"Ġcredentials":12855,"environment":12856,"bc":12857,"based":12858,"cive":12859,"tically":12860,"uate":12861,"vol":12862,"were":12863,"Ġtanks":12864,"Ġample":12865,"Ġwreck":12866,"Ġsul":12867,"ittle":12868,"Ġpicking":12869,"Ġbange":12870,"Ġtoile":12871,"ester":12872,"Ġfract":12873,"Ġfals":12874,"Ġhire":12875,"Ġhired":12876,"rocal":12877,"Ġnpt":12878,"Ġiaea":12879,"ules":12880,"Ġunint":12881,"unting":12882,"estion":12883,"Ġliver":12884,"Ġjan":12885,"Ġpolio":12886,"Ġreplies":12887,"Ġconting":12888,"ocally":12889,"aug":12890,"Ġproph":12891,"techn":12892,"Ġproposition":12893,"Ġpertin":12894,"Ġrecast":12895,"indust":12896,"Ġscrat":12897,"Ġinteractive":12898,"Ġenerget":12899,"hips":12900,"iciency":12901,"balanced":12902,"Ġprinted":12903,"Ġblunt":12904,"Ġ56":12905,"Ġ57":12906,"Ġ49":12907,"Ġexistent":12908,"priv":12909,"Ġmorally":12910,"Ġslave":12911,"Ġmisguided":12912,"Ġpenins":12913,"Ġtyr":12914,"Ġidentities":12915,"Ġbiometric":12916,"Ġmistrust":12917,"Ġsenses":12918,"Ġspeeding":12919,"Ġdictate":12920,"Ġqualify":12921,"Ġpaths":12922,"Ġrounds":12923,"Ġcontracting":12924,"Ġturkmen":12925,"Ġtransferring":12926,"Ġincorporation":12927,"Ġsurveys":12928,"Ġswept":12929,"Ġdelhi":12930,"Ġrevealing":12931,"Ġdissent":12932,"Ġdevastated":12933,"Ġjunior":12934,"Ġeuroscept":12935,"bett":12936,"Ġversa":12937,"Ġadmittedly":12938,"Ġexercising":12939,"Ġexacerbate":12940,"Ġexacerbated":12941,"Ġarmenian":12942,"Ġvolunteers":12943,"Ġathens":12944,"Ġsceptical":12945,"Ġsubscribe":12946,"Ġunwanted":12947,"Ġinterdependence":12948,"Ġhorrific":12949,"Ġanchor":12950,"Ġscript":12951,"simply":12952,"Ġincineration":12953,"Ġproximity":12954,"Ġconducive":12955,"Ġmisunderstandings":12956,"education":12957,"Ã´te":12958,"Ġpyramid":12959,"Ġflesh":12960,"Ġbangemann":12961,"acies":12962,"fail":12963,"ji":12964,"nuclear":12965,"scient":12966,"tl":12967,"Ã£":12968,"Ġai":12969,"Ġaung":12970,"Ġther":12971,"Ġwings":12972,"Ġwounded":12973,"ĠcÃ´te":12974,"Ġpv":12975,"esters":12976,"Ġhorses":12977,"Ġeats":12978,"Ġlod":12979,"Ġforwards":12980,"Ġsta":12981,"Ġprover":12982,"keys":12983,"Ġseaf":12984,"lib":12985,"Ġvivid":12986,"ainted":12987,"Ġleis":12988,"Ġcanary":12989,"oding":12990,"oston":12991,"Ġundertook":12992,"Ġrecru":12993,"Ġindo":12994,"Ġtranscend":12995,"Ġhook":12996,"Ġdesires":12997,"Ġguards":12998,"Ġenvoy":12999,"Ġviewpoint":13000,"Ġmediation":13001,"Ġimprov":13002,"Ġphased":13003,"Ġappet":13004,"Ġcorbett":13005,"Ġadvancing":13006,"Ġsmallest":13007,"Ġrevital":13008,"Ġstarvation":13009,"swed":13010,"Ġanswering":13011,"Ġfundamentalist":13012,"Ġoperated":13013,"Ġbelt":13014,"Ġerr":13015,"Ġflew":13016,"Ġbroadband":13017,"Ġfinalised":13018,"Ġ92":13019,"Ġsalmon":13020,"Ġmerger":13021,"Ġmalt":13022,"Ġprovisional":13023,"climate":13024,"aware":13025,"brid":13026,"Ġquantum":13027,"Ġcatching":13028,"Ġpsychiat":13029,"Ġintervening":13030,"Ġrationale":13031,"Ġrelieved":13032,"Ġreciprocal":13033,"Ġtimetables":13034,"Ġphilosopher":13035,"Ġtortured":13036,"moving":13037,"Ġdrove":13038,"keepers":13039,"Ġwedding":13040,"speaking":13041,"Ġshifts":13042,"Ġblowing":13043,"Ġangela":13044,"Ġnicolas":13045,"Ġnurse":13046,"Ġpopulism":13047,"Ġchickens":13048,"Ġadhered":13049,"Ġcorrelation":13050,"Ġintimidation":13051,"Ġimpoverished":13052,"Ġcircuit":13053,"Ġhypocritical":13054,"Ġesteem":13055,"generally":13056,"Ġcinema":13057,"ivoire":13058,"bers":13059,"dac":13060,"food":13061,"hundred":13062,"kland":13063,"marks":13064,"wind":13065,"Ġtent":13066,"Ġathe":13067,"ref":13068,"Ġthess":13069,"Ġcort":13070,"Ġcous":13071,"angh":13072,"Ġbg":13073,"Ġboston":13074,"Ġfond":13075,"Ġfats":13076,"alon":13077,"alus":13078,"Ġthatcher":13079,"Ġgb":13080,"Ġlula":13081,"utrition":13082,"Ġstored":13083,"oline":13084,"Ġaligned":13085,"Ġnotwithstanding":13086,"Ġneat":13087,"imm":13088,"unted":13089,"Ġworsen":13090,"Ġchess":13091,"Ġallotted":13092,"Ġrally":13093,"Ġresumption":13094,"lles":13095,"Ġcompatibility":13096,"izoph":13097,"agg":13098,"tsin":13099,"ensen":13100,"eltsin":13101,"Ġdevelops":13102,"Ġperse":13103,"Ġlooph":13104,"Ġdiscard":13105,"Ġlax":13106,"Ġentrench":13107,"Ġdrama":13108,"Ġforeseen":13109,"Ġmodulation":13110,"Ġdeport":13111,"Ġschizoph":13112,"Ġ59":13113,"Ġfavours":13114,"Ġsuffice":13115,"Ġheadings":13116,"Ġtraders":13117,"Ġnetanyahu":13118,"Ġfacebook":13119,"identally":13120,"Ġ98":13121,"Ġgreeks":13122,"spain":13123,"Ġdocumentation":13124,"Ġviruses":13125,"Ġsenegal":13126,"Ġcomprehensible":13127,"Ġsilly":13128,"Ġcompensatory":13129,"Ġfacilitation":13130,"Ġacquiring":13131,"Ġhostility":13132,"Ġfraudulent":13133,"Ġprotocols":13134,"Ġstrengths":13135,"Ġstores":13136,"Ġmounting":13137,"community":13138,"Ġosset":13139,"Ġincompet":13140,"Ġanalysts":13141,"Ġscarcity":13142,"Ġdiscriminated":13143,"Ġbowis":13144,"Ġpolluting":13145,"Ġmichael":13146,"Ġfanat":13147,"Ġholidays":13148,"Ġstipulates":13149,"Ġsponsored":13150,"Ġfueled":13151,"Ġintermediate":13152,"Ġintrins":13153,"Ġflorenz":13154,"Ġmixt":13155,"Ġnomination":13156,"Ġnielson":13157,"Ġelaborate":13158,"Ġancestors":13159,"experience":13160,"ĠrÃ¼big":13161,"Ġfluctuations":13162,"farmers":13163,"needless":13164,"Ġlorries":13165,"frankly":13166,"Ġasteroid":13167,"Ġclouds":13168,"Ġleisure":13169,"hundreds":13170,"Ġloopholes":13171,"Ġschizophren":13172,"dled":13173,"vals":13174,"Ġtatoeba":13175,"Ġcun":13176,"Ġcum":13177,"Ġpier":13178,"Ġfu":13179,"Ġdaughters":13180,"Ġrear":13181,"Ġrebal":13182,"Ġrelied":13183,"otion":13184,"Ġunfore":13185,"open":13186,"Ġshield":13187,"Ġsharks":13188,"Ġseal":13189,"Ġchip":13190,"Ġchanne":13191,"Ġimpl":13192,"Ġjul":13193,"Ġregrets":13194,"ocation":13195,"aste":13196,"Ġplug":13197,"Ġdisg":13198,"Ġincidence":13199,"ceptive":13200,"Ġowner":13201,"Ġbuck":13202,"Ġpresently":13203,"Ġbuses":13204,"Ġdepleted":13205,"comb":13206,"Ġpractise":13207,"Ġresett":13208,"Ġbuilds":13209,"Ġolds":13210,"Ġeducate":13211,"Ġheadway":13212,"Ġsoutheast":13213,"Ġslaught":13214,"Ġturnover":13215,"Ġcapitals":13216,"Ġlangen":13217,"central":13218,"prints":13219,"Ġkills":13220,"Ġsteer":13221,"Ġultra":13222,"Ġclarifying":13223,"Ġpenalised":13224,"Ġcharacterized":13225,"Ġspreads":13226,"Ġfeeds":13227,"Ġsuscept":13228,"Ġpetrol":13229,"Ġcardiff":13230,"Ġfederalist":13231,"Ġbonino":13232,"Ġboyf":13233,"Ġvariable":13234,"Ġconstituent":13235,"Ġgrip":13236,"Ġclip":13237,"Ġunpopular":13238,"Ġremedies":13239,"Ġkaras":13240,"Ġacquisition":13241,"Ġprivatization":13242,"Ġrocard":13243,"Ġculp":13244,"Ġdecentralised":13245,"Ġdiminished":13246,"Ġsymptom":13247,"Ġabundant":13248,"Ġunequivocally":13249,"Ġpredecessors":13250,"Ġtaboo":13251,"Ġdraftsman":13252,"Ġzealand":13253,"Ġsupermarket":13254,"Ġmemorand":13255,"Ġstroke":13256,"Ġausp":13257,"Ġprompted":13258,"Ġlicensing":13259,"bestos":13260,"Ġeurobonds":13261,"Ġthessalon":13262,"Ġslaughtered":13263,"18":13264,"500":13265,"bring":13266,"felt":13267,"liness":13268,"nn":13269,"ois":13270,"sur":13271,"uer":13272,"inf":13273,"inth":13274,"inity":13275,"Ġpour":13276,"Ġpile":13277,"anke":13278,"Ġhug":13279,"Ġdots":13280,"Ġreagan":13281,"sted":13282,"Ġgand":13283,"uration":13284,"Ġdelic":13285,"Ġasbestos":13286,"Ġeurodac":13287,"Ġshout":13288,"Ġshower":13289,"weigh":13290,"Ġleone":13291,"usa":13292,"Ġresigned":13293,"oused":13294,"lose":13295,"Ġupward":13296,"Ġpoliceman":13297,"Ġram":13298,"Ġboast":13299,"Ġstranger":13300,"Ġaccuse":13301,"Ġdiscourse":13302,"Ġprotesters":13303,"Ġlaud":13304,"Ġendanger":13305,"Ġfutures":13306,"Ġturks":13307,"Ġcarte":13308,"Ġorganizing":13309,"Ġcream":13310,"pheric":13311,"Ġinsert":13312,"Ġcosta":13313,"Ġlibr":13314,"Ġlibyan":13315,"Ġswallow":13316,"Ġbarrot":13317,"whenever":13318,"Ġcharging":13319,"Ġburundi":13320,"Ġcoordinators":13321,"Ġuneven":13322,"Ġ77":13323,"Ġtestim":13324,"Ġgreenland":13325,"Ġcohesive":13326,"Ġpollen":13327,"Ġsalv":13328,"Ġmerch":13329,"Ġmalm":13330,"Ġcontentious":13331,"Ġdelegated":13332,"Ġallocating":13333,"Ġconcentrations":13334,"Ġjourneys":13335,"Ġfiles":13336,"Ġcraft":13337,"Ġshooting":13338,"Ġstruggles":13339,"Ġlaboratories":13340,"Ġconverted":13341,"Ġgrandchildren":13342,"Ġapartment":13343,"Ġintellectuals":13344,"Ġmatches":13345,"Ġcrowded":13346,"Ġneighboring":13347,"Ġindonesian":13348,"Ġtemperatures":13349,"Ġcommendable":13350,"Ġconvenient":13351,"Ġjumped":13352,"Ġprescribed":13353,"Ġaccumulation":13354,"Ġmathematical":13355,"Ġeligibility":13356,"Ġinsecure":13357,"Ġmassacres":13358,"Ġstretch":13359,"Ġraped":13360,"Ġenacted":13361,"Ġcancelled":13362,"Ġinherited":13363,"Ġcertificate":13364,"Ġcertificates":13365,"negotiations":13366,"Ġcluster":13367,"Ġeldr":13368,"Ġperceptions":13369,"Ġoblige":13370,"Ġcurriculum":13371,"Ġorphan":13372,"mentioned":13373,"Ġankara":13374,"sudden":13375,"Ġcalendar":13376,"bank":13377,"gas":13378,"gia":13379,"han":13380,"nik":13381,"success":13382,"vis":13383,"west":13384,"zÃ¡":13385,
[...]
